booster[0]:
0:[C_D_U_TITLEMD5_CATEGORY_MICRO_MEAN_COEC<0.06708] yes=1,no=2,missing=1
	1:[U_KW_LEN<1018] yes=3,no=4,missing=4
		3:[D_KEYWORD_MACRO_MEAN_COEC<0.072877] yes=7,no=8,missing=7
			7:[CAT_REL<0.000478] yes=15,no=16,missing=16
				15:[D_TITLEMD5_COEC<0.048896] yes=31,no=32,missing=31
					31:[U_CAT_LEN<4] yes=63,no=64,missing=64
						63:leaf=-0.163344
						64:leaf=-0.143063
					32:[D_KEYWORD_MACRO_MEAN_COEC<0.053302] yes=65,no=66,missing=66
						65:leaf=-0.140382
						66:leaf=-0.124105
				16:[D_KEYWORD_MACRO_MEAN_COEC<0.032361] yes=33,no=34,missing=34
					33:[KW_REL<0.001053] yes=67,no=68,missing=68
						67:leaf=-0.134926
						68:leaf=-0.112778
					34:[U_KW_LEN<333] yes=69,no=70,missing=70
						69:leaf=-0.11996
						70:leaf=-0.0983675
			8:[D_PUBLISHER_COEC<0.155964] yes=17,no=18,missing=17
				17:[D_TITLEMD5_COEC<0.107502] yes=35,no=36,missing=35
					35:[D_TITLEMD5_COEC<0.076234] yes=71,no=72,missing=71
						71:leaf=-0.130103
						72:leaf=-0.103084
					36:[D_PUBLISHER_COEC<0.042581] yes=73,no=74,missing=74
						73:leaf=-0.133848
						74:leaf=-0.0731875
				18:[D_TITLEMD5_COEC<0.213818] yes=37,no=38,missing=37
					37:[D_CATEGORY_MACRO_MAX_COEC<0.047819] yes=75,no=76,missing=76
						75:leaf=-0.088972
						76:leaf=-0.0230972
					38:[DAY_OF_WEEK<3] yes=77,no=78,missing=78
						77:leaf=0.0552969
						78:leaf=0.00879592
		4:[CAT_REL<0.000478] yes=9,no=10,missing=10
			9:[D_CATEGORY_MACRO_MEAN_COEC<0.045747] yes=19,no=20,missing=20
				19:[C_D_U_TITLEMD5_CATEGORY_MICRO_MEAN_COEC<0.02388] yes=39,no=40,missing=39
					39:[KW_REL<0.000233] yes=79,no=80,missing=80
						79:leaf=-0.144209
						80:leaf=-0.121539
					40:[IMAGE_COUNT<2] yes=81,no=82,missing=82
						81:leaf=-0.117435
						82:leaf=-0.0807081
				20:[D_TITLEMD5_COEC<0.072305] yes=41,no=42,missing=41
					41:[C_D_U_TITLEMD5_CATEGORY_MICRO_MEAN_COEC<0.017347] yes=83,no=84,missing=83
						83:leaf=-0.113137
						84:leaf=-0.0893537
					42:[D_CATEGORY_MACRO_MAX_COEC<0.097113] yes=85,no=86,missing=85
						85:leaf=-0.0709805
						86:leaf=0.0259187
			10:[D_TITLEMD5_COEC<0.010253] yes=21,no=22,missing=21
				21:[KW_REL<0.001032] yes=43,no=44,missing=44
					43:[D_CATEGORY_MICRO_MEAN_COEC<0.053475] yes=87,no=88,missing=87
						87:leaf=-0.127954
						88:leaf=-0.097742
					44:[KW_REL<0.003291] yes=89,no=90,missing=90
						89:leaf=-0.0876492
						90:leaf=-0.0568409
				22:[U_KW_LEN<2016] yes=45,no=46,missing=46
					45:[CAT_REL<0.040515] yes=91,no=92,missing=92
						91:leaf=-0.0872785
						92:leaf=-0.0616505
					46:[KW_REL<0.001354] yes=93,no=94,missing=94
						93:leaf=-0.0480048
						94:leaf=-0.00789325
	2:[U_KW_LEN<1151] yes=5,no=6,missing=6
		5:[D_TITLEMD5_COEC<0.082222] yes=11,no=12,missing=12
			11:[CAT_REL<0.007244] yes=23,no=24,missing=24
				23:[D_KEYWORD_MACRO_MEAN_COEC<0.040112] yes=47,no=48,missing=48
					47:[KW_REL<0.000233] yes=95,no=96,missing=96
						95:leaf=-0.133252
						96:leaf=-0.111224
					48:[KW_REL<0.000184] yes=97,no=98,missing=98
						97:leaf=-0.10161
						98:leaf=-0.0782477
				24:[U_KW_LEN<333] yes=49,no=50,missing=50
					49:[D_KEYWORD_MACRO_MEAN_COEC<0.040112] yes=99,no=100,missing=100
						99:leaf=-0.112358
						100:leaf=-0.0856078
					50:[D_TITLEMD5_COEC<0.048896] yes=101,no=102,missing=102
						101:leaf=-0.0744356
						102:leaf=-0.0474877
			12:[D_KEYWORD_MACRO_MEAN_COEC<0.128749] yes=25,no=26,missing=26
				25:[CAT_REL<0.000478] yes=51,no=52,missing=52
					51:[C_D_U_TITLEMD5_CATEGORY_MICRO_MEAN_COEC<0.147837] yes=103,no=104,missing=104
						103:leaf=-0.0770787
						104:leaf=-0.0516228
					52:[U_KW_LEN<360] yes=105,no=106,missing=106
						105:leaf=-0.0547132
						106:leaf=-0.0202419
				26:[D_PUBLISHER_COEC<0.111556] yes=53,no=54,missing=54
					53:[U_KW_LEN<713] yes=107,no=108,missing=108
						107:leaf=-0.0355393
						108:leaf=0.00430579
					54:[D_CATEGORY_MACRO_MAX_COEC<0.065312] yes=109,no=110,missing=109
						109:leaf=0.0330805
						110:leaf=-0.0039634
		6:[CAT_REL<0.000478] yes=13,no=14,missing=14
			13:[D_KEYWORD_MACRO_MEAN_COEC<0.067754] yes=27,no=28,missing=28
				27:[D_KEYWORD_MACRO_MEAN_COEC<0.039757] yes=55,no=56,missing=56
					55:[KW_REL<0.000161] yes=111,no=112,missing=112
						111:leaf=-0.104845
						112:leaf=-0.0655477
					56:[KW_REL<0.000138] yes=113,no=114,missing=114
						113:leaf=-0.0670639
						114:leaf=-0.0341139
				28:[D_KEYWORD_MACRO_MEAN_COEC<0.122034] yes=57,no=58,missing=58
					57:[U_KW_LEN<2016] yes=115,no=116,missing=116
						115:leaf=-0.0315798
						116:leaf=0.00935812
					58:[U_KW_LEN<2016] yes=117,no=118,missing=118
						117:leaf=0.0156013
						118:leaf=0.0594218
			14:[D_KEYWORD_MACRO_MEAN_COEC<0.062158] yes=29,no=30,missing=30
				29:[U_KW_LEN<2016] yes=59,no=60,missing=60
					59:[CAT_REL<0.082544] yes=119,no=120,missing=120
						119:leaf=-0.0399533
						120:leaf=-0.00325347
					60:[KW_REL<0.00126] yes=121,no=122,missing=122
						121:leaf=-0.00367931
						122:leaf=0.0337479
				30:[U_KW_LEN<2141] yes=61,no=62,missing=62
					61:[C_D_U_TITLEMD5_CATEGORY_MICRO_MEAN_COEC<0.140438] yes=123,no=124,missing=124
						123:leaf=0.000195693
						124:leaf=0.0317678
					62:[D_PUBLISHER_COEC<0.033309] yes=125,no=126,missing=126
						125:leaf=-0.0355619
						126:leaf=0.0590207
booster[1]:
0:[C_D_U_TITLEMD5_CATEGORY_MICRO_MEAN_COEC<0.060229] yes=1,no=2,missing=1
	1:[U_KW_LEN<1147] yes=3,no=4,missing=4
		3:[D_KEYWORD_MACRO_MEAN_COEC<0.069293] yes=7,no=8,missing=7
			7:[CAT_REL<0.000474] yes=15,no=16,missing=16
				15:[D_KEYWORD_MACRO_MEAN_COEC<0.038711] yes=31,no=32,missing=31
					31:[U_KW_LEN<53] yes=63,no=64,missing=64
						63:leaf=-0.150872
						64:leaf=-0.133363
					32:[D_TITLEMD5_COEC<0.060523] yes=65,no=66,missing=66
						65:leaf=-0.129977
						66:leaf=-0.114314
				16:[D_TITLEMD5_COEC<0.022581] yes=33,no=34,missing=33
					33:[KW_REL<0.000279] yes=67,no=68,missing=68
						67:leaf=-0.127568
						68:leaf=-0.106228
					34:[U_KW_LEN<586] yes=69,no=70,missing=70
						69:leaf=-0.107163
						70:leaf=-0.0858173
			8:[D_TITLEMD5_COEC<0.116239] yes=17,no=18,missing=17
				17:[D_TITLEMD5_COEC<0.09441] yes=35,no=36,missing=35
					35:[D_TITLEMD5_COEC<0.080877] yes=71,no=72,missing=71
						71:leaf=-0.109754
						72:leaf=-0.0960978
					36:[KW_REL<4e-06] yes=73,no=74,missing=74
						73:leaf=-0.0832804
						74:leaf=-0.032912
				18:[D_PUBLISHER_COEC<0.184778] yes=37,no=38,missing=38
					37:[D_KEYWORD_MICRO_MEAN_COEC<0.071379] yes=75,no=76,missing=76
						75:leaf=-0.100487
						76:leaf=-0.0596581
					38:[D_KEYWORD_MICRO_MEAN_COEC<0.060985] yes=77,no=78,missing=78
						77:leaf=-0.0879126
						78:leaf=0.0186841
		4:[KW_REL<0.00029] yes=9,no=10,missing=10
			9:[D_CATEGORY_MACRO_MEAN_COEC<0.046902] yes=19,no=20,missing=20
				19:[C_D_U_TITLEMD5_CATEGORY_MICRO_MEAN_COEC<0.010259] yes=39,no=40,missing=39
					39:[D_TITLEMD5_COEC<0.010376] yes=79,no=80,missing=79
						79:leaf=-0.128245
						80:leaf=-0.108916
					40:[CAT_REL<0.005543] yes=81,no=82,missing=82
						81:leaf=-0.106866
						82:leaf=-0.0623551
				20:[D_TITLEMD5_COEC<0.020136] yes=41,no=42,missing=41
					41:[D_PUBLISHER_COEC<0.02858] yes=83,no=84,missing=84
						83:leaf=-0.113268
						84:leaf=-0.0905443
					42:[CAT_REL<0.000474] yes=85,no=86,missing=86
						85:leaf=-0.0858289
						86:leaf=-0.045947
			10:[C_D_U_TITLEMD5_CATEGORY_MICRO_MEAN_COEC<0.010259] yes=21,no=22,missing=21
				21:[U_KW_LEN<2728] yes=43,no=44,missing=44
					43:[KW_REL<0.003324] yes=87,no=88,missing=88
						87:leaf=-0.0863833
						88:leaf=-0.0589842
					44:[C_D_U_TITLEMD5_CATEGORY_MACRO_MAX_COEC<6.01734] yes=89,no=90,missing=90
						89:leaf=-0.0419641
						90:leaf=-0.0784145
				22:[U_KW_LEN<2267] yes=45,no=46,missing=46
					45:[CAT_REL<0.041859] yes=91,no=92,missing=92
						91:leaf=-0.0677193
						92:leaf=-0.0368299
					46:[U_KW_LEN<3893] yes=93,no=94,missing=94
						93:leaf=-0.0188325
						94:leaf=0.0129527
	2:[U_KW_LEN<969] yes=5,no=6,missing=6
		5:[D_KEYWORD_MACRO_MEAN_COEC<0.083845] yes=11,no=12,missing=12
			11:[CAT_REL<0.009107] yes=23,no=24,missing=24
				23:[D_KEYWORD_MACRO_MEAN_COEC<0.050083] yes=47,no=48,missing=48
					47:[D_KEYWORD_MACRO_MEAN_COEC<0.033923] yes=95,no=96,missing=96
						95:leaf=-0.126021
						96:leaf=-0.102517
					48:[C_D_U_TITLEMD5_CATEGORY_MICRO_MEAN_COEC<0.097218] yes=97,no=98,missing=98
						97:leaf=-0.095152
						98:leaf=-0.0710364
				24:[U_KW_LEN<341] yes=49,no=50,missing=50
					49:[D_KEYWORD_MACRO_MEAN_COEC<0.047899] yes=99,no=100,missing=100
						99:leaf=-0.0991447
						100:leaf=-0.0689385
					50:[D_KEYWORD_MACRO_MEAN_COEC<0.052193] yes=101,no=102,missing=102
						101:leaf=-0.0656786
						102:leaf=-0.0360095
			12:[C_D_U_TITLEMD5_CATEGORY_MICRO_MEAN_COEC<0.162639] yes=25,no=26,missing=26
				25:[CAT_REL<0.007259] yes=51,no=52,missing=52
					51:[DAY_OF_WEEK<5] yes=103,no=104,missing=104
						103:leaf=-0.056686
						104:leaf=-0.075645
					52:[U_KW_LEN<422] yes=105,no=106,missing=106
						105:leaf=-0.0437807
						106:leaf=-0.0142763
				26:[D_PUBLISHER_COEC<0.111416] yes=53,no=54,missing=54
					53:[U_KW_LEN<436] yes=107,no=108,missing=108
						107:leaf=-0.0386852
						108:leaf=-0.0136237
					54:[CAT_REL<0.000474] yes=109,no=110,missing=110
						109:leaf=-0.00972317
						110:leaf=0.0195702
		6:[CAT_REL<0.007259] yes=13,no=14,missing=14
			13:[D_KEYWORD_MACRO_MEAN_COEC<0.069293] yes=27,no=28,missing=28
				27:[D_KEYWORD_MACRO_MEAN_COEC<0.039714] yes=55,no=56,missing=56
					55:[KW_REL<0.00031] yes=111,no=112,missing=112
						111:leaf=-0.09151
						112:leaf=-0.0541632
					56:[U_KW_LEN<2024] yes=113,no=114,missing=114
						113:leaf=-0.0615933
						114:leaf=-0.0318067
				28:[C_D_U_TITLEMD5_CATEGORY_MICRO_MEAN_COEC<0.140697] yes=57,no=58,missing=58
					57:[U_KW_LEN<2132] yes=115,no=116,missing=116
						115:leaf=-0.0414269
						116:leaf=0.000222393
					58:[U_KW_LEN<2024] yes=117,no=118,missing=118
						117:leaf=-0.00330782
						118:leaf=0.0371007
			14:[U_KW_LEN<1750] yes=29,no=30,missing=30
				29:[D_KEYWORD_MACRO_MEAN_COEC<0.050083] yes=59,no=60,missing=60
					59:[KW_REL<0.001984] yes=119,no=120,missing=120
						119:leaf=-0.0506529
						120:leaf=-0.0132324
					60:[C_D_U_TITLEMD5_CATEGORY_MICRO_MEAN_COEC<0.118675] yes=121,no=122,missing=122
						121:leaf=-0.0218639
						122:leaf=0.0141673
				30:[D_KEYWORD_MACRO_MEAN_COEC<0.046655] yes=61,no=62,missing=62
					61:[KW_REL<0.001741] yes=123,no=124,missing=124
						123:leaf=-0.0157714
						124:leaf=0.0268749
					62:[D_KEYWORD_MACRO_MEAN_COEC<0.085236] yes=125,no=126,missing=126
						125:leaf=0.0284962
						126:leaf=0.062443
booster[2]:
0:[C_D_U_TITLEMD5_CATEGORY_MICRO_MEAN_COEC<0.073838] yes=1,no=2,missing=1
	1:[U_KW_LEN<936] yes=3,no=4,missing=4
		3:[D_KEYWORD_MACRO_MEAN_COEC<0.069407] yes=7,no=8,missing=7
			7:[CAT_REL<0.000433] yes=15,no=16,missing=16
				15:[D_TITLEMD5_COEC<0.041053] yes=31,no=32,missing=31
					31:[U_KW_LEN<97] yes=63,no=64,missing=64
						63:leaf=-0.138745
						64:leaf=-0.119237
					32:[D_PUBLISHER_COEC<0.047569] yes=65,no=66,missing=65
						65:leaf=-0.119554
						66:leaf=-0.10595
				16:[D_KEYWORD_MACRO_MEAN_COEC<0.032159] yes=33,no=34,missing=34
					33:[U_KW_LEN<342] yes=67,no=68,missing=68
						67:leaf=-0.118238
						68:leaf=-0.0988485
					34:[U_KW_LEN<308] yes=69,no=70,missing=70
						69:leaf=-0.0987963
						70:leaf=-0.0799572
			8:[D_KEYWORD_MACRO_MEAN_COEC<0.129048] yes=17,no=18,missing=18
				17:[D_TITLEMD5_COEC<0.097088] yes=35,no=36,missing=35
					35:[D_TITLEMD5_COEC<0.071343] yes=71,no=72,missing=71
						71:leaf=-0.108065
						72:leaf=-0.0887279
					36:[D_PUBLISHER_COEC<0.038202] yes=73,no=74,missing=74
						73:leaf=-0.120353
						74:leaf=-0.0657956
				18:[D_PUBLISHER_COEC<0.111307] yes=37,no=38,missing=38
					37:[D_KEYWORD_MICRO_MEAN_COEC<0.07477] yes=75,no=76,missing=76
						75:leaf=-0.122055
						76:leaf=-0.0488613
					38:[D_TITLEMD5_COEC<0.214229] yes=77,no=78,missing=77
						77:leaf=-0.0174514
						78:leaf=0.0184465
		4:[C_D_U_TITLEMD5_CATEGORY_MICRO_MEAN_COEC<0.019059] yes=9,no=10,missing=9
			9:[KW_REL<0.000279] yes=19,no=20,missing=20
				19:[D_CATEGORY_MICRO_MEAN_COEC<0.053554] yes=39,no=40,missing=39
					39:[CAT_REL<0.000433] yes=79,no=80,missing=80
						79:leaf=-0.118776
						80:leaf=-0.101754
					40:[D_KEYWORD_MACRO_MEAN_COEC<0.053462] yes=81,no=82,missing=81
						81:leaf=-0.0824229
						82:leaf=-0.0430657
				20:[U_KW_LEN<2047] yes=41,no=42,missing=42
					41:[CAT_REL<0.034911] yes=83,no=84,missing=84
						83:leaf=-0.092091
						84:leaf=-0.0699934
					42:[D_TITLEMD5_COEC<0.214229] yes=85,no=86,missing=86
						85:leaf=-0.0465885
						86:leaf=-0.0905218
			10:[CAT_REL<0.010419] yes=21,no=22,missing=22
				21:[U_KW_LEN<2047] yes=43,no=44,missing=44
					43:[KW_REL<0.000243] yes=87,no=88,missing=88
						87:leaf=-0.0927616
						88:leaf=-0.0690766
					44:[D_CATEGORY_MICRO_MEAN_COEC<0.051216] yes=89,no=90,missing=90
						89:leaf=-0.0721148
						90:leaf=-0.0436448
				22:[U_KW_LEN<1751] yes=45,no=46,missing=46
					45:[KW_REL<0.00164] yes=91,no=92,missing=92
						91:leaf=-0.0596112
						92:leaf=-0.0357165
					46:[U_KW_LEN<3127] yes=93,no=94,missing=94
						93:leaf=-0.0241566
						94:leaf=0.006151
	2:[U_KW_LEN<1198] yes=5,no=6,missing=6
		5:[D_KEYWORD_MICRO_MEAN_COEC<0.061001] yes=11,no=12,missing=12
			11:[KW_REL<0.000286] yes=23,no=24,missing=24
				23:[CAT_REL<0.000433] yes=47,no=48,missing=48
					47:[D_KEYWORD_MACRO_MEAN_COEC<0.040136] yes=95,no=96,missing=96
						95:leaf=-0.111641
						96:leaf=-0.0882834
					48:[D_KEYWORD_MACRO_MEAN_COEC<0.039438] yes=97,no=98,missing=98
						97:leaf=-0.0905569
						98:leaf=-0.0645868
				24:[U_KW_LEN<495] yes=49,no=50,missing=50
					49:[U_KW_LEN<190] yes=99,no=100,missing=100
						99:leaf=-0.0880494
						100:leaf=-0.0632799
					50:[CAT_REL<0.119249] yes=101,no=102,missing=102
						101:leaf=-0.0502668
						102:leaf=-0.014438
			12:[C_D_U_TITLEMD5_CATEGORY_MICRO_MEAN_COEC<0.136283] yes=25,no=26,missing=26
				25:[CAT_REL<0.000433] yes=51,no=52,missing=52
					51:[D_KEYWORD_MACRO_MAX_COEC<0.005806] yes=103,no=104,missing=104
						103:leaf=-0.0273885
						104:leaf=-0.0691496
					52:[U_KW_LEN<342] yes=105,no=106,missing=106
						105:leaf=-0.0585921
						106:leaf=-0.0312347
				26:[U_KW_LEN<590] yes=53,no=54,missing=54
					53:[D_KEYWORD_MACRO_MEAN_COEC<0.123162] yes=107,no=108,missing=108
						107:leaf=-0.0407959
						108:leaf=-0.0171823
					54:[CAT_REL<0.016926] yes=109,no=110,missing=110
						109:leaf=-0.0189452
						110:leaf=0.0122006
		6:[CAT_REL<0.000433] yes=13,no=14,missing=14
			13:[D_KEYWORD_MACRO_MEAN_COEC<0.072569] yes=27,no=28,missing=28
				27:[D_KEYWORD_MACRO_MEAN_COEC<0.040136] yes=55,no=56,missing=56
					55:[KW_REL<0.00031] yes=111,no=112,missing=112
						111:leaf=-0.0824737
						112:leaf=-0.0440662
					56:[KW_REL<0.000197] yes=113,no=114,missing=114
						113:leaf=-0.0503966
						114:leaf=-0.0168621
				28:[D_CATEGORY_MICRO_MAX_COEC<0.086204] yes=57,no=58,missing=57
					57:[D_KEYWORD_MICRO_MAX_COEC<0.147213] yes=115,no=116,missing=116
						115:leaf=-0.0183575
						116:leaf=0.0282103
					58:[U_KW_LEN<2047] yes=117,no=118,missing=118
						117:leaf=0.0185359
						118:leaf=0.0605201
			14:[D_KEYWORD_MACRO_MEAN_COEC<0.046096] yes=29,no=30,missing=30
				29:[KW_REL<0.001166] yes=59,no=60,missing=60
					59:[U_KW_LEN<2739] yes=119,no=120,missing=120
						119:leaf=-0.0404607
						120:leaf=-0.0062152
					60:[U_KW_LEN<2384] yes=121,no=122,missing=122
						121:leaf=-0.00360848
						122:leaf=0.0300541
				30:[U_KW_LEN<2282] yes=61,no=62,missing=62
					61:[D_KEYWORD_MACRO_MEAN_COEC<0.086395] yes=123,no=124,missing=124
						123:leaf=0.000144085
						124:leaf=0.0316154
					62:[WORD_COUNT<1281] yes=125,no=126,missing=126
						125:leaf=0.0149346
						126:leaf=0.0469465
booster[3]:
0:[C_D_U_TITLEMD5_CATEGORY_MICRO_MEAN_COEC<0.055632] yes=1,no=2,missing=1
	1:[U_KW_LEN<1153] yes=3,no=4,missing=4
		3:[D_KEYWORD_MACRO_MEAN_COEC<0.069649] yes=7,no=8,missing=7
			7:[CAT_REL<0.000437] yes=15,no=16,missing=16
				15:[D_KEYWORD_MACRO_MEAN_COEC<0.046113] yes=31,no=32,missing=31
					31:[U_KW_LEN<131] yes=63,no=64,missing=64
						63:leaf=-0.124216
						64:leaf=-0.109293
					32:[D_TITLEMD5_COEC<0.06369] yes=65,no=66,missing=66
						65:leaf=-0.107229
						66:leaf=-0.0912865
				16:[U_KW_LEN<598] yes=33,no=34,missing=34
					33:[D_KEYWORD_MACRO_MEAN_COEC<0.033099] yes=67,no=68,missing=68
						67:leaf=-0.10409
						68:leaf=-0.0867985
					34:[KW_REL<0.002294] yes=69,no=70,missing=70
						69:leaf=-0.0855352
						70:leaf=-0.0580508
			8:[D_TITLEMD5_COEC<0.108841] yes=17,no=18,missing=17
				17:[D_TITLEMD5_COEC<0.082753] yes=35,no=36,missing=35
					35:[D_TITLEMD5_COEC<0.055586] yes=71,no=72,missing=72
						71:leaf=-0.11411
						72:leaf=-0.0877782
					36:[WORD_COUNT<1299] yes=73,no=74,missing=74
						73:leaf=-0.0844457
						74:leaf=-0.0716586
				18:[D_PUBLISHER_COEC<0.169951] yes=37,no=38,missing=38
					37:[D_PUBLISHER_COEC<0.039156] yes=75,no=76,missing=76
						75:leaf=-0.113066
						76:leaf=-0.0522498
					38:[D_KEYWORD_MACRO_MAX_COEC<0.046266] yes=77,no=78,missing=78
						77:leaf=-0.0731162
						78:leaf=0.0136255
		4:[CAT_REL<0.000437] yes=9,no=10,missing=10
			9:[D_CATEGORY_MICRO_MEAN_COEC<0.057563] yes=19,no=20,missing=20
				19:[D_TITLEMD5_COEC<0.015244] yes=39,no=40,missing=39
					39:[KW_REL<0.000209] yes=79,no=80,missing=80
						79:leaf=-0.117918
						80:leaf=-0.101519
					40:[D_PUBLISHER_COEC<0.051267] yes=81,no=82,missing=82
						81:leaf=-0.0951868
						82:leaf=-0.0650164
				20:[D_KEYWORD_MACRO_MEAN_COEC<0.064271] yes=41,no=42,missing=42
					41:[KW_REL<0.000209] yes=83,no=84,missing=84
						83:leaf=-0.079924
						84:leaf=-0.0557201
					42:[DAY_OF_WEEK<4] yes=85,no=86,missing=86
						85:leaf=0.00396881
						86:leaf=-0.0477346
			10:[D_TITLEMD5_COEC<0.009801] yes=21,no=22,missing=21
				21:[KW_REL<0.001696] yes=43,no=44,missing=44
					43:[D_PUBLISHER_COEC<0.02526] yes=87,no=88,missing=87
						87:leaf=-0.103169
						88:leaf=-0.0802187
					44:[U_KW_LEN<2984] yes=89,no=90,missing=90
						89:leaf=-0.0592413
						90:leaf=-0.0286906
				22:[U_KW_LEN<2732] yes=45,no=46,missing=46
					45:[KW_REL<0.00124] yes=91,no=92,missing=92
						91:leaf=-0.0580751
						92:leaf=-0.0327983
					46:[KW_REL<0.000908] yes=93,no=94,missing=94
						93:leaf=-0.0301739
						94:leaf=0.000884877
	2:[U_KW_LEN<944] yes=5,no=6,missing=6
		5:[D_TITLEMD5_COEC<0.071768] yes=11,no=12,missing=12
			11:[CAT_REL<0.033426] yes=23,no=24,missing=24
				23:[D_KEYWORD_MACRO_MEAN_COEC<0.039638] yes=47,no=48,missing=48
					47:[KW_REL<0.000152] yes=95,no=96,missing=96
						95:leaf=-0.102472
						96:leaf=-0.0866593
					48:[U_KW_LEN<346] yes=97,no=98,missing=98
						97:leaf=-0.0882971
						98:leaf=-0.0683996
				24:[U_KW_LEN<288] yes=49,no=50,missing=50
					49:[C_D_U_TITLEMD5_CATEGORY_MACRO_MEAN_COEC<0.065425] yes=99,no=100,missing=100
						99:leaf=-0.0941241
						100:leaf=-0.0702797
					50:[CAT_REL<0.177638] yes=101,no=102,missing=102
						101:leaf=-0.0536483
						102:leaf=-0.0178267
			12:[C_D_U_TITLEMD5_CATEGORY_MICRO_MEAN_COEC<0.129028] yes=25,no=26,missing=26
				25:[CAT_REL<0.01869] yes=51,no=52,missing=52
					51:[KW_REL<0.000152] yes=103,no=104,missing=104
						103:leaf=-0.0683507
						104:leaf=-0.0505865
					52:[U_KW_LEN<194] yes=105,no=106,missing=106
						105:leaf=-0.0618354
						106:leaf=-0.030663
				26:[D_KEYWORD_MICRO_MEAN_COEC<0.060812] yes=53,no=54,missing=54
					53:[D_PUBLISHER_COEC<0.048522] yes=107,no=108,missing=108
						107:leaf=-0.0877713
						108:leaf=-0.0458498
					54:[CAT_REL<0.013484] yes=109,no=110,missing=110
						109:leaf=-0.0338076
						110:leaf=-0.00974902
		6:[CAT_REL<0.000437] yes=13,no=14,missing=14
			13:[D_KEYWORD_MACRO_MEAN_COEC<0.072133] yes=27,no=28,missing=28
				27:[KW_REL<0.000227] yes=55,no=56,missing=56
					55:[D_KEYWORD_MACRO_MEAN_COEC<0.039638] yes=111,no=112,missing=112
						111:leaf=-0.0790602
						112:leaf=-0.0515186
					56:[U_KW_LEN<1916] yes=113,no=114,missing=114
						113:leaf=-0.0447987
						114:leaf=-0.012508
				28:[C_D_U_TITLEMD5_CATEGORY_MICRO_MEAN_COEC<0.146983] yes=57,no=58,missing=58
					57:[U_KW_LEN<2023] yes=115,no=116,missing=116
						115:leaf=-0.0334234
						116:leaf=0.000161826
					58:[U_KW_LEN<2153] yes=117,no=118,missing=118
						117:leaf=0.000713183
						118:leaf=0.0352691
			14:[U_KW_LEN<1759] yes=29,no=30,missing=30
				29:[D_TITLEMD5_COEC<0.049675] yes=59,no=60,missing=60
					59:[CAT_REL<0.106518] yes=119,no=120,missing=120
						119:leaf=-0.0497145
						120:leaf=-0.0110332
					60:[D_KEYWORD_MACRO_MEAN_COEC<0.087113] yes=121,no=122,missing=122
						121:leaf=-0.013091
						122:leaf=0.021049
				30:[D_KEYWORD_MACRO_MEAN_COEC<0.057085] yes=61,no=62,missing=62
					61:[KW_REL<0.000314] yes=123,no=124,missing=124
						123:leaf=-0.0164121
						124:leaf=0.0148363
					62:[D_TITLEMD5_COEC<0.061353] yes=125,no=126,missing=126
						125:leaf=-0.0149006
						126:leaf=0.0387329
booster[4]:
0:[C_D_U_TITLEMD5_CATEGORY_MICRO_MEAN_COEC<0.053906] yes=1,no=2,missing=1
	1:[U_KW_LEN<944] yes=3,no=4,missing=4
		3:[D_KEYWORD_MACRO_MEAN_COEC<0.069026] yes=7,no=8,missing=7
			7:[CAT_REL<0.000468] yes=15,no=16,missing=16
				15:[D_KEYWORD_MACRO_MEAN_COEC<0.039208] yes=31,no=32,missing=31
					31:[U_CAT_LEN<3] yes=63,no=64,missing=64
						63:leaf=-0.119184
						64:leaf=-0.104933
					32:[D_TITLEMD5_COEC<0.058381] yes=65,no=66,missing=66
						65:leaf=-0.10234
						66:leaf=-0.0877653
				16:[D_KEYWORD_MACRO_MEAN_COEC<0.031406] yes=33,no=34,missing=34
					33:[KW_REL<0.001667] yes=67,no=68,missing=68
						67:leaf=-0.097401
						68:leaf=-0.0761737
					34:[U_KW_LEN<321] yes=69,no=70,missing=70
						69:leaf=-0.0861274
						70:leaf=-0.0711798
			8:[D_KEYWORD_MACRO_MEAN_COEC<0.122599] yes=17,no=18,missing=18
				17:[D_TITLEMD5_COEC<0.102176] yes=35,no=36,missing=35
					35:[D_TITLEMD5_COEC<0.0807] yes=71,no=72,missing=71
						71:leaf=-0.0834536
						72:leaf=-0.0709852
					36:[D_PUBLISHER_COEC<0.034169] yes=73,no=74,missing=74
						73:leaf=-0.1089
						74:leaf=-0.0540756
				18:[D_PUBLISHER_COEC<0.111437] yes=37,no=38,missing=38
					37:[D_KEYWORD_MICRO_MEAN_COEC<0.066493] yes=75,no=76,missing=76
						75:leaf=-0.110301
						76:leaf=-0.0424663
					38:[WORD_COUNT<779] yes=77,no=78,missing=78
						77:leaf=-0.0435748
						78:leaf=0.000289442
		4:[CAT_REL<0.000468] yes=9,no=10,missing=10
			9:[D_CATEGORY_MACRO_MEAN_COEC<0.057892] yes=19,no=20,missing=20
				19:[D_PUBLISHER_COEC<0.04912] yes=39,no=40,missing=39
					39:[C_D_U_TITLEMD5_CATEGORY_MICRO_MEAN_COEC<0.009835] yes=79,no=80,missing=79
						79:leaf=-0.102287
						80:leaf=-0.0831539
					40:[IMAGE_COUNT<2] yes=81,no=82,missing=82
						81:leaf=-0.0834095
						82:leaf=-0.0490309
				20:[D_TITLEMD5_COEC<0.075958] yes=41,no=42,missing=41
					41:[U_KW_LEN<6161] yes=83,no=84,missing=84
						83:leaf=-0.0712409
						84:leaf=-0.0340617
					42:[D_PUBLISHER_COEC<0.039025] yes=85,no=86,missing=86
						85:leaf=-0.0859043
						86:leaf=-0.0135378
			10:[D_TITLEMD5_COEC<0.009506] yes=21,no=22,missing=21
				21:[KW_REL<0.00208] yes=43,no=44,missing=44
					43:[D_CATEGORY_MACRO_MAX_COEC<0.031361] yes=87,no=88,missing=87
						87:leaf=-0.0926938
						88:leaf=-0.0716912
					44:[U_KW_LEN<2752] yes=89,no=90,missing=90
						89:leaf=-0.055264
						90:leaf=-0.0234667
				22:[U_KW_LEN<1758] yes=45,no=46,missing=46
					45:[CAT_REL<0.055853] yes=91,no=92,missing=92
						91:leaf=-0.0638824
						92:leaf=-0.0432485
					46:[KW_REL<0.001978] yes=93,no=94,missing=94
						93:leaf=-0.033542
						94:leaf=-0.00125526
	2:[U_KW_LEN<797] yes=5,no=6,missing=6
		5:[D_TITLEMD5_COEC<0.074682] yes=11,no=12,missing=12
			11:[CAT_REL<0.026657] yes=23,no=24,missing=24
				23:[D_KEYWORD_MACRO_MEAN_COEC<0.039208] yes=47,no=48,missing=48
					47:[D_KEYWORD_MACRO_MEAN_COEC<0.032437] yes=95,no=96,missing=96
						95:leaf=-0.1004
						96:leaf=-0.0862117
					48:[WORD_COUNT<2332] yes=97,no=98,missing=98
						97:leaf=-0.0803633
						98:leaf=-0.062898
				24:[U_KW_LEN<240] yes=49,no=50,missing=50
					49:[C_D_U_TITLEMD5_CATEGORY_MACRO_MEAN_COEC<0.065286] yes=99,no=100,missing=100
						99:leaf=-0.090423
						100:leaf=-0.0662769
					50:[CAT_REL<0.152457] yes=101,no=102,missing=102
						101:leaf=-0.0549391
						102:leaf=-0.0258765
			12:[D_KEYWORD_MACRO_MEAN_COEC<0.122599] yes=25,no=26,missing=26
				25:[CAT_REL<0.00284] yes=51,no=52,missing=52
					51:[D_PUBLISHER_COEC<0.042189] yes=103,no=104,missing=104
						103:leaf=-0.0949295
						104:leaf=-0.0504796
					52:[D_KEYWORD_MICRO_MEAN_COEC<0.05396] yes=105,no=106,missing=106
						105:leaf=-0.0598732
						106:leaf=-0.0245921
				26:[IMAGE_COUNT<2] yes=53,no=54,missing=54
					53:[D_PUBLISHER_COEC<0.111437] yes=107,no=108,missing=108
						107:leaf=-0.0146612
						108:leaf=0.0106149
					54:[D_PUBLISHER_COEC<0.072304] yes=109,no=110,missing=110
						109:leaf=-0.0215573
						110:leaf=-0.0474108
		6:[CAT_REL<0.016796] yes=13,no=14,missing=14
			13:[D_KEYWORD_MICRO_MEAN_COEC<0.060707] yes=27,no=28,missing=28
				27:[U_KW_LEN<1947] yes=55,no=56,missing=56
					55:[D_KEYWORD_MACRO_MEAN_COEC<0.035494] yes=111,no=112,missing=112
						111:leaf=-0.0802051
						112:leaf=-0.0542817
					56:[KW_REL<0.00017] yes=113,no=114,missing=114
						113:leaf=-0.0463238
						114:leaf=-0.0146202
				28:[C_D_U_TITLEMD5_CATEGORY_MICRO_MEAN_COEC<0.119364] yes=57,no=58,missing=58
					57:[U_KW_LEN<1947] yes=115,no=116,missing=116
						115:leaf=-0.0446268
						116:leaf=-0.0118163
					58:[U_KW_LEN<2031] yes=117,no=118,missing=118
						117:leaf=-0.00847199
						118:leaf=0.0255317
			14:[U_KW_LEN<1610] yes=29,no=30,missing=30
				29:[D_KEYWORD_MACRO_MEAN_COEC<0.050564] yes=59,no=60,missing=60
					59:[KW_REL<0.00208] yes=119,no=120,missing=120
						119:leaf=-0.0398438
						120:leaf=-0.0120479
					60:[C_D_U_TITLEMD5_CATEGORY_MACRO_MEAN_COEC<0.063268] yes=121,no=122,missing=122
						121:leaf=-0.0152261
						122:leaf=0.0136582
				30:[D_KEYWORD_MACRO_MEAN_COEC<0.047332] yes=61,no=62,missing=62
					61:[KW_REL<0.002313] yes=123,no=124,missing=124
						123:leaf=-0.0102818
						124:leaf=0.0233234
					62:[D_CATEGORY_MACRO_MAX_COEC<0.030356] yes=125,no=126,missing=126
						125:leaf=-0.0417217
						126:leaf=0.0315956
booster[5]:
0:[C_D_U_TITLEMD5_CATEGORY_MICRO_MEAN_COEC<0.048191] yes=1,no=2,missing=1
	1:[U_KW_LEN<944] yes=3,no=4,missing=4
		3:[D_KEYWORD_MACRO_MEAN_COEC<0.062935] yes=7,no=8,missing=7
			7:[KW_REL<0.000101] yes=15,no=16,missing=16
				15:[D_TITLEMD5_COEC<0.042372] yes=31,no=32,missing=31
					31:[U_KW_LEN<116] yes=63,no=64,missing=64
						63:leaf=-0.111693
						64:leaf=-0.095258
					32:[D_KEYWORD_MICRO_MEAN_COEC<0.05462] yes=65,no=66,missing=66
						65:leaf=-0.0941799
						66:leaf=-0.0820176
				16:[U_KW_LEN<368] yes=33,no=34,missing=34
					33:[D_CATEGORY_MACRO_MEAN_COEC<0.041778] yes=67,no=68,missing=68
						67:leaf=-0.0930756
						68:leaf=-0.0788479
					34:[CAT_REL<0.114787] yes=69,no=70,missing=70
						69:leaf=-0.0769741
						70:leaf=-0.0523365
			8:[D_TITLEMD5_COEC<0.102176] yes=17,no=18,missing=17
				17:[D_TITLEMD5_COEC<0.077024] yes=35,no=36,missing=35
					35:[D_KEYWORD_MICRO_MEAN_COEC<0.082503] yes=71,no=72,missing=72
						71:leaf=-0.0774385
						72:leaf=-0.0972532
					36:[WORD_COUNT<1274] yes=73,no=74,missing=74
						73:leaf=-0.0750307
						74:leaf=-0.0632639
				18:[D_PUBLISHER_COEC<0.189516] yes=37,no=38,missing=38
					37:[D_PUBLISHER_COEC<0.041985] yes=75,no=76,missing=76
						75:leaf=-0.0907073
						76:leaf=-0.0445816
					38:[D_KEYWORD_MICRO_MEAN_COEC<0.063642] yes=77,no=78,missing=78
						77:leaf=-0.0608115
						78:leaf=0.0166585
		4:[KW_REL<0.000172] yes=9,no=10,missing=10
			9:[D_CATEGORY_MICRO_MEAN_COEC<0.05259] yes=19,no=20,missing=20
				19:[D_TITLEMD5_COEC<0.010495] yes=39,no=40,missing=39
					39:[CAT_REL<0.000462] yes=79,no=80,missing=80
						79:leaf=-0.104324
						80:leaf=-0.09045
					40:[CAT_REL<0.005666] yes=81,no=82,missing=82
						81:leaf=-0.0868295
						82:leaf=-0.0623805
				20:[CAT_REL<0.000462] yes=41,no=42,missing=42
					41:[D_KEYWORD_MACRO_MEAN_COEC<0.064592] yes=83,no=84,missing=84
						83:leaf=-0.071919
						84:leaf=-0.0354186
					42:[D_TITLEMD5_COEC<0.031434] yes=85,no=86,missing=85
						85:leaf=-0.0589366
						86:leaf=-0.0274106
			10:[D_TITLEMD5_COEC<0.010495] yes=21,no=22,missing=21
				21:[KW_REL<0.002938] yes=43,no=44,missing=44
					43:[U_KW_LEN<4881] yes=87,no=88,missing=88
						87:leaf=-0.0713125
						88:leaf=-0.0369717
					44:[D_TITLEMD5_COEC<0.010495] yes=89,no=90,missing=90
						89:leaf=-0.0256592
						90:leaf=-0.0612842
				22:[U_KW_LEN<2387] yes=45,no=46,missing=46
					45:[CAT_REL<0.040261] yes=91,no=92,missing=92
						91:leaf=-0.0571706
						92:leaf=-0.0320359
					46:[CAT_REL<0.029929] yes=93,no=94,missing=94
						93:leaf=-0.0308647
						94:leaf=-0.0036255
	2:[U_KW_LEN<1312] yes=5,no=6,missing=6
		5:[C_D_U_TITLEMD5_CATEGORY_MICRO_MEAN_COEC<0.10796] yes=11,no=12,missing=12
			11:[U_KW_LEN<538] yes=23,no=24,missing=24
				23:[D_KEYWORD_MACRO_MEAN_COEC<0.035586] yes=47,no=48,missing=48
					47:[KW_REL<0.000978] yes=95,no=96,missing=96
						95:leaf=-0.0905732
						96:leaf=-0.0693424
					48:[CAT_REL<0.040622] yes=97,no=98,missing=98
						97:leaf=-0.0704788
						98:leaf=-0.0534346
				24:[CAT_REL<0.036755] yes=49,no=50,missing=50
					49:[D_KEYWORD_MACRO_MEAN_COEC<0.034092] yes=99,no=100,missing=100
						99:leaf=-0.0770479
						100:leaf=-0.0547186
					50:[D_TITLEMD5_COEC<0.043919] yes=101,no=102,missing=102
						101:leaf=-0.040421
						102:leaf=-0.0237854
			12:[D_KEYWORD_MICRO_MEAN_COEC<0.05462] yes=25,no=26,missing=26
				25:[KW_REL<0.000562] yes=51,no=52,missing=52
					51:[C_D_U_TITLEMD5_CATEGORY_MACRO_MAX_COEC<0.046225] yes=103,no=104,missing=104
						103:leaf=-0.0571999
						104:leaf=-0.0796946
					52:[U_KW_LEN<286] yes=105,no=106,missing=106
						105:leaf=-0.0597386
						106:leaf=-0.0228292
				26:[U_KW_LEN<368] yes=53,no=54,missing=54
					53:[D_KEYWORD_MACRO_MEAN_COEC<0.123709] yes=107,no=108,missing=108
						107:leaf=-0.0415332
						108:leaf=-0.017455
					54:[CAT_REL<0.026785] yes=109,no=110,missing=110
						109:leaf=-0.0220743
						110:leaf=0.00315311
		6:[CAT_REL<0.006635] yes=13,no=14,missing=14
			13:[D_TITLEMD5_COEC<0.071197] yes=27,no=28,missing=28
				27:[D_CATEGORY_MACRO_MAX_COEC<0.02199] yes=55,no=56,missing=55
					55:[D_KEYWORD_MACRO_MAX_COEC<0.006527] yes=111,no=112,missing=112
						111:leaf=-0.076527
						112:leaf=-0.00209973
					56:[D_KEYWORD_MACRO_MEAN_COEC<0.032858] yes=113,no=114,missing=114
						113:leaf=-0.0679684
						114:leaf=-0.04035
				28:[D_CATEGORY_MACRO_MAX_COEC<0.086428] yes=57,no=58,missing=57
					57:[D_KEYWORD_MICRO_MEAN_COEC<0.058693] yes=115,no=116,missing=116
						115:leaf=-0.051315
						116:leaf=-0.00354473
					58:[WORD_COUNT<687] yes=117,no=118,missing=118
						117:leaf=-0.0393577
						118:leaf=0.0385751
			14:[D_KEYWORD_MACRO_MEAN_COEC<0.03703] yes=29,no=30,missing=30
				29:[CAT_REL<0.081775] yes=59,no=60,missing=60
					59:[U_KW_LEN<3010] yes=119,no=120,missing=120
						119:leaf=-0.039348
						120:leaf=-0.00696613
					60:[KW_REL<0.000757] yes=121,no=122,missing=122
						121:leaf=-0.0244906
						122:leaf=0.0180617
				30:[U_KW_LEN<2725] yes=61,no=62,missing=62
					61:[C_D_U_TITLEMD5_CATEGORY_MACRO_MEAN_COEC<0.045334] yes=123,no=124,missing=124
						123:leaf=-0.0113492
						124:leaf=0.0150867
					62:[D_PUBLISHER_COEC<0.027626] yes=125,no=126,missing=126
						125:leaf=-0.0209743
						126:leaf=0.0344563
booster[6]:
0:[C_D_U_TITLEMD5_CATEGORY_MICRO_MEAN_COEC<0.075115] yes=1,no=2,missing=1
	1:[U_KW_LEN<732] yes=3,no=4,missing=4
		3:[D_KEYWORD_MACRO_MEAN_COEC<0.057014] yes=7,no=8,missing=7
			7:[U_KW_LEN<152] yes=15,no=16,missing=16
				15:[D_TITLEMD5_COEC<0.03923] yes=31,no=32,missing=31
					31:[U_KW_LEN<54] yes=63,no=64,missing=64
						63:leaf=-0.106998
						64:leaf=-0.0940579
					32:[D_KEYWORD_MICRO_MEAN_COEC<0.042493] yes=65,no=66,missing=66
						65:leaf=-0.093682
						66:leaf=-0.0837382
				16:[CAT_REL<0.052764] yes=33,no=34,missing=34
					33:[D_KEYWORD_MACRO_MEAN_COEC<0.033243] yes=67,no=68,missing=67
						67:leaf=-0.0895527
						68:leaf=-0.0738188
					34:[C_D_U_TITLEMD5_CATEGORY_MACRO_MEAN_COEC<0.006553] yes=69,no=70,missing=69
						69:leaf=-0.0744107
						70:leaf=-0.0549091
			8:[D_TITLEMD5_COEC<0.11601] yes=17,no=18,missing=17
				17:[D_TITLEMD5_COEC<0.081219] yes=35,no=36,missing=35
					35:[CAT_REL<0.018831] yes=71,no=72,missing=72
						71:leaf=-0.0731629
						72:leaf=-0.0477112
					36:[WORD_COUNT<1299] yes=73,no=74,missing=74
						73:leaf=-0.0640895
						74:leaf=-0.0533078
				18:[D_PUBLISHER_COEC<0.173117] yes=37,no=38,missing=38
					37:[D_KEYWORD_MICRO_MEAN_COEC<0.075894] yes=75,no=76,missing=76
						75:leaf=-0.0660342
						76:leaf=-0.0349663
					38:[DAY_OF_WEEK<3] yes=77,no=78,missing=78
						77:leaf=0.0364819
						78:leaf=-0.0031588
		4:[KW_REL<0.000361] yes=9,no=10,missing=10
			9:[D_CATEGORY_MACRO_MEAN_COEC<0.046358] yes=19,no=20,missing=20
				19:[C_D_U_TITLEMD5_CATEGORY_MICRO_MEAN_COEC<0.02447] yes=39,no=40,missing=39
					39:[D_TITLEMD5_COEC<0.01054] yes=79,no=80,missing=79
						79:leaf=-0.0885113
						80:leaf=-0.0738612
					40:[CAT_REL<0.000457] yes=81,no=82,missing=82
						81:leaf=-0.0681947
						82:leaf=-0.0451849
				20:[CAT_REL<0.00251] yes=41,no=42,missing=42
					41:[U_KW_LEN<2171] yes=83,no=84,missing=84
						83:leaf=-0.0665816
						84:leaf=-0.0478908
					42:[D_TITLEMD5_COEC<0.03923] yes=85,no=86,missing=85
						85:leaf=-0.0480255
						86:leaf=-0.0190867
			10:[C_D_U_TITLEMD5_CATEGORY_MICRO_MEAN_COEC<0.010874] yes=21,no=22,missing=21
				21:[D_PUBLISHER_COEC<0.026378] yes=43,no=44,missing=43
					43:[CAT_REL<0.034323] yes=87,no=88,missing=88
						87:leaf=-0.0829674
						88:leaf=-0.0537398
					44:[U_KW_LEN<1946] yes=89,no=90,missing=90
						89:leaf=-0.0504076
						90:leaf=-0.0251312
				22:[U_KW_LEN<2279] yes=45,no=46,missing=46
					45:[CAT_REL<0.056027] yes=91,no=92,missing=92
						91:leaf=-0.0401991
						92:leaf=-0.0190779
					46:[U_KW_LEN<4576] yes=93,no=94,missing=94
						93:leaf=-0.00114684
						94:leaf=0.0306841
	2:[U_KW_LEN<814] yes=5,no=6,missing=6
		5:[D_KEYWORD_MICRO_MEAN_COEC<0.06169] yes=11,no=12,missing=12
			11:[KW_REL<0.000263] yes=23,no=24,missing=24
				23:[D_KEYWORD_MACRO_MEAN_COEC<0.040112] yes=47,no=48,missing=48
					47:[U_KW_LEN<172] yes=95,no=96,missing=96
						95:leaf=-0.0919201
						96:leaf=-0.0745786
					48:[CAT_REL<0.000457] yes=97,no=98,missing=98
						97:leaf=-0.0658372
						98:leaf=-0.0478549
				24:[U_KW_LEN<219] yes=49,no=50,missing=50
					49:[D_KEYWORD_MACRO_MEAN_COEC<0.033243] yes=99,no=100,missing=100
						99:leaf=-0.0832779
						100:leaf=-0.053794
					50:[CAT_REL<0.150966] yes=101,no=102,missing=102
						101:leaf=-0.042956
						102:leaf=-0.0128114
			12:[C_D_U_TITLEMD5_CATEGORY_MICRO_MEAN_COEC<0.145448] yes=25,no=26,missing=26
				25:[CAT_REL<0.015679] yes=51,no=52,missing=52
					51:[D_KEYWORD_MACRO_MAX_COEC<0.008225] yes=103,no=104,missing=104
						103:leaf=-0.014395
						104:leaf=-0.0484662
					52:[U_KW_LEN<152] yes=105,no=106,missing=106
						105:leaf=-0.0470874
						106:leaf=-0.0233875
				26:[D_PUBLISHER_COEC<0.111717] yes=53,no=54,missing=54
					53:[CAT_REL<0.013427] yes=107,no=108,missing=108
						107:leaf=-0.0274416
						108:leaf=-0.00953694
					54:[WORD_COUNT<1677] yes=109,no=110,missing=110
						109:leaf=-0.0245365
						110:leaf=0.0109752
		6:[KW_REL<0.000142] yes=13,no=14,missing=14
			13:[D_KEYWORD_MICRO_MEAN_COEC<0.0578] yes=27,no=28,missing=28
				27:[D_CATEGORY_MACRO_MEAN_COEC<0.046358] yes=55,no=56,missing=56
					55:[IMAGE_COUNT<2] yes=111,no=112,missing=112
						111:leaf=-0.0645443
						112:leaf=-0.0396747
					56:[CAT_REL<0.00251] yes=113,no=114,missing=114
						113:leaf=-0.045609
						114:leaf=-0.0197876
				28:[C_D_U_TITLEMD5_CATEGORY_MICRO_MEAN_COEC<0.126338] yes=57,no=58,missing=58
					57:[U_KW_LEN<2171] yes=115,no=116,missing=116
						115:leaf=-0.0303686
						116:leaf=-0.0019285
					58:[U_KW_LEN<2171] yes=117,no=118,missing=118
						117:leaf=-0.00486416
						118:leaf=0.023554
			14:[U_KW_LEN<1946] yes=29,no=30,missing=30
				29:[D_KEYWORD_MACRO_MEAN_COEC<0.050448] yes=59,no=60,missing=60
					59:[CAT_REL<0.073962] yes=119,no=120,missing=120
						119:leaf=-0.0319018
						120:leaf=-0.00229763
					60:[C_D_U_TITLEMD5_CATEGORY_MICRO_MEAN_COEC<0.119754] yes=121,no=122,missing=122
						121:leaf=-0.0108688
						122:leaf=0.015111
				30:[D_KEYWORD_MICRO_MEAN_COEC<0.061693] yes=61,no=62,missing=62
					61:[CAT_REL<0.078881] yes=123,no=124,missing=124
						123:leaf=0.00203522
						124:leaf=0.0302693
					62:[D_TITLEMD5_COEC<0.061926] yes=125,no=126,missing=126
						125:leaf=-0.00264148
						126:leaf=0.0464009
booster[7]:
0:[C_D_U_TITLEMD5_CATEGORY_MICRO_MEAN_COEC<0.042599] yes=1,no=2,missing=1
	1:[D_TITLEMD5_COEC<0.081351] yes=3,no=4,missing=3
		3:[CAT_REL<0.000441] yes=7,no=8,missing=8
			7:[D_KEYWORD_MACRO_MEAN_COEC<0.045815] yes=15,no=16,missing=16
				15:[U_CAT_LEN<11] yes=31,no=32,missing=32
					31:[D_TITLEMD5_COEC<0.034608] yes=63,no=64,missing=64
						63:leaf=-0.0998351
						64:leaf=-0.0868764
					32:[D_CATEGORY_MACRO_MEAN_COEC<0.04601] yes=65,no=66,missing=66
						65:leaf=-0.0810908
						66:leaf=-0.0626783
				16:[D_TITLEMD5_COEC<0.06211] yes=33,no=34,missing=34
					33:[U_CAT_LEN<14] yes=67,no=68,missing=68
						67:leaf=-0.0812498
						68:leaf=-0.0527192
					34:[D_KEYWORD_MICRO_MEAN_COEC<0.058757] yes=69,no=70,missing=69
						69:leaf=-0.074244
						70:leaf=-0.0615212
			8:[U_KW_LEN<1555] yes=17,no=18,missing=18
				17:[D_KEYWORD_MACRO_MEAN_COEC<0.020181] yes=35,no=36,missing=36
					35:[KW_REL<0.000118] yes=71,no=72,missing=72
						71:leaf=-0.0885133
						72:leaf=-0.0681281
					36:[U_KW_LEN<345] yes=73,no=74,missing=74
						73:leaf=-0.0732489
						74:leaf=-0.0553963
				18:[C_D_U_TITLEMD5_CATEGORY_MACRO_MEAN_COEC<0.185085] yes=37,no=38,missing=38
					37:[KW_REL<0.000907] yes=75,no=76,missing=76
						75:leaf=-0.0378707
						76:leaf=-0.0124927
					38:[D_PUBLISHER_COEC<0.020067] yes=77,no=78,missing=77
						77:leaf=-0.0837709
						78:leaf=-0.0535621
		4:[D_KEYWORD_MACRO_MEAN_COEC<0.122668] yes=9,no=10,missing=10
			9:[D_PUBLISHER_COEC<0.038688] yes=19,no=20,missing=19
				19:[CAT_REL<0.000441] yes=39,no=40,missing=40
					39:[D_CATEGORY_MICRO_MAX_COEC<0.05629] yes=79,no=80,missing=79
						79:leaf=-0.0983712
						80:leaf=-0.07227
					40:[KW_REL<0.001062] yes=81,no=82,missing=82
						81:leaf=-0.0624746
						82:leaf=-0.0265555
				20:[U_KW_LEN<678] yes=41,no=42,missing=42
					41:[D_KEYWORD_MICRO_MAX_COEC<0.11811] yes=83,no=84,missing=84
						83:leaf=-0.0522053
						84:leaf=-0.0391156
					42:[D_KEYWORD_MICRO_MEAN_COEC<0.044918] yes=85,no=86,missing=86
						85:leaf=-0.0475995
						86:leaf=0.00116365
			10:[D_PUBLISHER_COEC<0.111667] yes=21,no=22,missing=22
				21:[D_KEYWORD_MICRO_MEAN_COEC<0.066543] yes=43,no=44,missing=44
					43:[D_PUBLISHER_COEC<0.065312] yes=87,no=88,missing=88
						87:leaf=-0.0928885
						88:leaf=-0.0360346
					44:[WORD_COUNT<2137] yes=89,no=90,missing=90
						89:leaf=-0.0393452
						90:leaf=-0.0248833
				22:[D_TITLEMD5_COEC<0.223621] yes=45,no=46,missing=46
					45:[TIME_OF_DAY<19] yes=91,no=92,missing=92
						91:leaf=-0.00388256
						92:leaf=-0.0343642
					46:[D_KEYWORD_MACRO_MAX_COEC<0.084178] yes=93,no=94,missing=94
						93:leaf=0.00518036
						94:leaf=0.0594357
	2:[U_KW_LEN<1429] yes=5,no=6,missing=6
		5:[D_TITLEMD5_COEC<0.071895] yes=11,no=12,missing=12
			11:[CAT_REL<0.021223] yes=23,no=24,missing=24
				23:[D_KEYWORD_MACRO_MEAN_COEC<0.039793] yes=47,no=48,missing=48
					47:[U_KW_LEN<571] yes=95,no=96,missing=96
						95:leaf=-0.0762773
						96:leaf=-0.0623219
					48:[KW_REL<0.000113] yes=97,no=98,missing=98
						97:leaf=-0.0589619
						98:leaf=-0.0396492
				24:[U_KW_LEN<519] yes=49,no=50,missing=50
					49:[C_D_U_TITLEMD5_CATEGORY_MACRO_MEAN_COEC<0.061936] yes=99,no=100,missing=100
						99:leaf=-0.0610875
						100:leaf=-0.0420873
					50:[CAT_REL<0.137594] yes=101,no=102,missing=102
						101:leaf=-0.0305091
						102:leaf=-0.00288647
			12:[U_KW_LEN<484] yes=25,no=26,missing=26
				25:[C_D_U_TITLEMD5_CATEGORY_MICRO_MEAN_COEC<0.132259] yes=51,no=52,missing=52
					51:[CAT_REL<0.000441] yes=103,no=104,missing=104
						103:leaf=-0.0488162
						104:leaf=-0.0343844
					52:[D_PUBLISHER_COEC<0.037675] yes=105,no=106,missing=106
						105:leaf=-0.0737057
						106:leaf=-0.0223248
				26:[CAT_REL<0.017001] yes=53,no=54,missing=54
					53:[D_KEYWORD_MACRO_MEAN_COEC<0.116771] yes=107,no=108,missing=108
						107:leaf=-0.0276848
						108:leaf=0.00156725
					54:[D_CATEGORY_MACRO_MEAN_COEC<0.053769] yes=109,no=110,missing=109
						109:leaf=-0.0278418
						110:leaf=0.00856517
		6:[CAT_REL<0.015337] yes=13,no=14,missing=14
			13:[D_TITLEMD5_COEC<0.069695] yes=27,no=28,missing=28
				27:[KW_REL<0.000182] yes=55,no=56,missing=56
					55:[D_KEYWORD_MICRO_MEAN_COEC<0.036855] yes=111,no=112,missing=112
						111:leaf=-0.0606618
						112:leaf=-0.0334835
					56:[D_KEYWORD_MACRO_MEAN_COEC<0.034589] yes=113,no=114,missing=114
						113:leaf=-0.034976
						114:leaf=-0.00797491
				28:[D_KEYWORD_MACRO_MEAN_COEC<0.122668] yes=57,no=58,missing=58
					57:[D_PUBLISHER_COEC<0.033912] yes=115,no=116,missing=116
						115:leaf=-0.0776184
						116:leaf=-0.00277177
					58:[IMAGE_COUNT<2] yes=117,no=118,missing=118
						117:leaf=0.0426527
						118:leaf=-0.000532033
			14:[D_KEYWORD_MACRO_MEAN_COEC<0.038776] yes=29,no=30,missing=30
				29:[KW_REL<0.002026] yes=59,no=60,missing=60
					59:[U_KW_LEN<3023] yes=119,no=120,missing=120
						119:leaf=-0.0253562
						120:leaf=-0.00134469
					60:[CAT_REL<0.104041] yes=121,no=122,missing=122
						121:leaf=0.00102975
						122:leaf=0.0278358
				30:[U_KW_LEN<3023] yes=61,no=62,missing=62
					61:[C_D_U_TITLEMD5_CATEGORY_MACRO_MEAN_COEC<0.037484] yes=123,no=124,missing=124
						123:leaf=-0.00740329
						124:leaf=0.0174645
					62:[D_CATEGORY_MACRO_MEAN_COEC<0.03037] yes=125,no=126,missing=126
						125:leaf=-0.0212927
						126:leaf=0.0378424
booster[8]:
0:[C_D_U_TITLEMD5_CATEGORY_MICRO_MEAN_COEC<0.036279] yes=1,no=2,missing=1
	1:[D_KEYWORD_MACRO_MEAN_COEC<0.055263] yes=3,no=4,missing=4
		3:[U_KW_LEN<614] yes=7,no=8,missing=8
			7:[KW_REL<9.2e-05] yes=15,no=16,missing=16
				15:[D_TITLEMD5_COEC<0.036907] yes=31,no=32,missing=32
					31:[U_KW_LEN<55] yes=63,no=64,missing=64
						63:leaf=-0.0964883
						64:leaf=-0.0837729
					32:[D_KEYWORD_MICRO_MEAN_COEC<0.042272] yes=65,no=66,missing=66
						65:leaf=-0.084279
						66:leaf=-0.0745099
				16:[CAT_REL<0.089321] yes=33,no=34,missing=34
					33:[D_CATEGORY_MACRO_MEAN_COEC<0.045464] yes=67,no=68,missing=68
						67:leaf=-0.0804333
						68:leaf=-0.0616216
					34:[U_KW_LEN<278] yes=69,no=70,missing=70
						69:leaf=-0.0682958
						70:leaf=-0.0486627
			8:[KW_REL<0.000195] yes=17,no=18,missing=18
				17:[D_CATEGORY_MICRO_MEAN_COEC<0.053329] yes=35,no=36,missing=36
					35:[D_TITLEMD5_COEC<0.010746] yes=71,no=72,missing=71
						71:leaf=-0.0789029
						72:leaf=-0.06509
					36:[CAT_REL<0.002961] yes=73,no=74,missing=74
						73:leaf=-0.0601646
						74:leaf=-0.0407329
				18:[U_KW_LEN<2167] yes=37,no=38,missing=38
					37:[CAT_REL<0.036039] yes=75,no=76,missing=76
						75:leaf=-0.0593745
						76:leaf=-0.0392736
					38:[D_TITLEMD5_COEC<0.229535] yes=77,no=78,missing=78
						77:leaf=-0.0205723
						78:leaf=-0.0571618
		4:[D_TITLEMD5_COEC<0.099302] yes=9,no=10,missing=10
			9:[U_KW_LEN<676] yes=19,no=20,missing=20
				19:[D_TITLEMD5_COEC<0.065902] yes=39,no=40,missing=40
					39:[KW_REL<9.2e-05] yes=79,no=80,missing=80
						79:leaf=-0.0747562
						80:leaf=-0.0375045
					40:[D_KEYWORD_MACRO_MAX_COEC<0.015749] yes=81,no=82,missing=82
						81:leaf=-0.0440916
						82:leaf=-0.0569874
				20:[D_TITLEMD5_COEC<0.024268] yes=41,no=42,missing=42
					41:[D_KEYWORD_MICRO_MAX_COEC<0.078735] yes=83,no=84,missing=84
						83:leaf=-0.018778
						84:leaf=-0.0711001
					42:[CAT_REL<0.002961] yes=85,no=86,missing=86
						85:leaf=-0.0311753
						86:leaf=0.00115668
			10:[D_PUBLISHER_COEC<0.18848] yes=21,no=22,missing=21
				21:[D_PUBLISHER_COEC<0.029537] yes=43,no=44,missing=43
					43:[KW_REL<0.000656] yes=87,no=88,missing=88
						87:leaf=-0.0861044
						88:leaf=-0.0373593
					44:[KW_REL<2.8e-05] yes=89,no=90,missing=90
						89:leaf=-0.0347382
						90:leaf=0.00512944
				22:[D_TITLEMD5_COEC<0.229535] yes=45,no=46,missing=45
					45:[IMAGE_COUNT<2] yes=91,no=92,missing=92
						91:leaf=-0.00263321
						92:leaf=-0.0658323
					46:[D_KEYWORD_MACRO_MAX_COEC<0.081981] yes=93,no=94,missing=94
						93:leaf=0.00816785
						94:leaf=0.0570382
	2:[U_KW_LEN<1051] yes=5,no=6,missing=6
		5:[C_D_U_TITLEMD5_CATEGORY_MICRO_MEAN_COEC<0.098715] yes=11,no=12,missing=12
			11:[U_KW_LEN<298] yes=23,no=24,missing=24
				23:[D_PUBLISHER_COEC<0.047992] yes=47,no=48,missing=48
					47:[U_KW_LEN<135] yes=95,no=96,missing=96
						95:leaf=-0.0742832
						96:leaf=-0.0627572
					48:[KW_REL<3.8e-05] yes=97,no=98,missing=98
						97:leaf=-0.0585457
						98:leaf=-0.0440956
				24:[CAT_REL<0.037666] yes=49,no=50,missing=50
					49:[D_KEYWORD_MICRO_MEAN_COEC<0.039103] yes=99,no=100,missing=100
						99:leaf=-0.0641373
						100:leaf=-0.0479923
					50:[D_TITLEMD5_COEC<0.047176] yes=101,no=102,missing=102
						101:leaf=-0.0398432
						102:leaf=-0.0233796
			12:[D_KEYWORD_MACRO_MEAN_COEC<0.05181] yes=25,no=26,missing=26
				25:[KW_REL<0.001538] yes=51,no=52,missing=52
					51:[C_D_U_TITLEMD5_CATEGORY_MACRO_MAX_COEC<0.046849] yes=103,no=104,missing=104
						103:leaf=-0.0426876
						104:leaf=-0.0640713
					52:[U_KW_LEN<250] yes=105,no=106,missing=106
						105:leaf=-0.0483254
						106:leaf=-0.0156539
				26:[KW_REL<7.7e-05] yes=53,no=54,missing=54
					53:[D_KEYWORD_MICRO_MEAN_COEC<0.105832] yes=107,no=108,missing=108
						107:leaf=-0.032966
						108:leaf=-0.0155078
					54:[CAT_REL<0.032683] yes=109,no=110,missing=110
						109:leaf=-0.0148919
						110:leaf=0.0030623
		6:[CAT_REL<0.0005] yes=13,no=14,missing=14
			13:[D_TITLEMD5_COEC<0.074038] yes=27,no=28,missing=28
				27:[D_CATEGORY_MACRO_MAX_COEC<0.022586] yes=55,no=56,missing=55
					55:[D_KEYWORD_MACRO_MEAN_COEC<0.041965] yes=111,no=112,missing=112
						111:leaf=-0.0198172
						112:leaf=0.016165
					56:[D_PUBLISHER_COEC<0.042864] yes=113,no=114,missing=113
						113:leaf=-0.0503807
						114:leaf=-0.0303862
				28:[D_CATEGORY_MACRO_MAX_COEC<0.081283] yes=57,no=58,missing=57
					57:[D_KEYWORD_MICRO_MAX_COEC<0.149369] yes=115,no=116,missing=116
						115:leaf=-0.0179743
						116:leaf=0.0209429
					58:[WORD_COUNT<880] yes=117,no=118,missing=118
						117:leaf=-0.0388009
						118:leaf=0.0269891
			14:[D_TITLEMD5_COEC<0.047176] yes=29,no=30,missing=30
				29:[U_KW_LEN<2784] yes=59,no=60,missing=60
					59:[CAT_REL<0.041255] yes=119,no=120,missing=120
						119:leaf=-0.0377546
						120:leaf=-0.0110011
					60:[KW_REL<0.000301] yes=121,no=122,missing=122
						121:leaf=-0.00739808
						122:leaf=0.0173433
				30:[U_KW_LEN<2784] yes=61,no=62,missing=62
					61:[D_KEYWORD_MACRO_MEAN_COEC<0.088053] yes=123,no=124,missing=124
						123:leaf=-0.00120543
						124:leaf=0.0245075
					62:[D_PUBLISHER_COEC<0.032259] yes=125,no=126,missing=126
						125:leaf=-0.00897226
						126:leaf=0.0330598
booster[9]:
0:[C_D_U_TITLEMD5_CATEGORY_MICRO_MEAN_COEC<0.04008] yes=1,no=2,missing=1
	1:[D_TITLEMD5_COEC<0.079449] yes=3,no=4,missing=3
		3:[CAT_REL<0.000453] yes=7,no=8,missing=8
			7:[D_KEYWORD_MACRO_MEAN_COEC<0.03428] yes=15,no=16,missing=15
				15:[U_CAT_LEN<8] yes=31,no=32,missing=32
					31:[D_CATEGORY_MACRO_MEAN_COEC<0.046874] yes=63,no=64,missing=63
						63:leaf=-0.0920909
						64:leaf=-0.0808527
					32:[D_CATEGORY_MACRO_MEAN_COEC<0.046874] yes=65,no=66,missing=66
						65:leaf=-0.0749335
						66:leaf=-0.055243
				16:[U_CAT_LEN<12] yes=33,no=34,missing=34
					33:[D_TITLEMD5_COEC<0.057446] yes=67,no=68,missing=67
						67:leaf=-0.0748065
						68:leaf=-0.0593788
					34:[U_KW_LEN<3939] yes=69,no=70,missing=70
						69:leaf=-0.0534074
						70:leaf=-0.0278682
			8:[U_KW_LEN<1512] yes=17,no=18,missing=18
				17:[D_KEYWORD_MACRO_MEAN_COEC<0.020599] yes=35,no=36,missing=36
					35:[KW_REL<0.002178] yes=71,no=72,missing=72
						71:leaf=-0.0725314
						72:leaf=-0.043944
					36:[U_KW_LEN<352] yes=73,no=74,missing=74
						73:leaf=-0.0631612
						74:leaf=-0.0472579
				18:[D_PUBLISHER_COEC<0.025562] yes=37,no=38,missing=37
					37:[KW_REL<0.000735] yes=75,no=76,missing=76
						75:leaf=-0.0636023
						76:leaf=-0.0335833
					38:[KW_REL<0.003065] yes=77,no=78,missing=78
						77:leaf=-0.0281555
						78:leaf=0.00441385
		4:[D_KEYWORD_MICRO_MEAN_COEC<0.106157] yes=9,no=10,missing=10
			9:[D_PUBLISHER_COEC<0.034658] yes=19,no=20,missing=19
				19:[CAT_REL<0.005376] yes=39,no=40,missing=40
					39:[D_CATEGORY_MICRO_MEAN_COEC<0.055983] yes=79,no=80,missing=80
						79:leaf=-0.0896983
						80:leaf=-0.0633718
					40:[D_CATEGORY_MACRO_MAX_COEC<0.029822] yes=81,no=82,missing=82
						81:leaf=-0.0687345
						82:leaf=-0.040954
				20:[U_KW_LEN<586] yes=41,no=42,missing=42
					41:[D_KEYWORD_MICRO_MEAN_COEC<0.053734] yes=83,no=84,missing=84
						83:leaf=-0.0640205
						84:leaf=-0.0409927
					42:[D_CATEGORY_MACRO_MEAN_COEC<0.055872] yes=85,no=86,missing=85
						85:leaf=-0.0336176
						86:leaf=0.00512632
			10:[D_KEYWORD_MICRO_MAX_COEC<0.171337] yes=21,no=22,missing=22
				21:[WORD_COUNT<2247] yes=43,no=44,missing=44
					43:[CAT_REL<0.005376] yes=87,no=88,missing=88
						87:leaf=-0.0365762
						88:leaf=0.0258298
					44:[D_KEYWORD_MACRO_MEAN_COEC<0.124335] yes=89,no=90,missing=90
						89:leaf=-0.0254128
						90:leaf=-0.0157402
				22:[D_PUBLISHER_COEC<0.111934] yes=45,no=46,missing=46
					45:[WORD_COUNT<3637] yes=91,no=92,missing=92
						91:leaf=-0.0298794
						92:leaf=0.143744
					46:[WORD_COUNT<1615] yes=93,no=94,missing=94
						93:leaf=0.0487712
						94:leaf=0.00208822
	2:[U_KW_LEN<744] yes=5,no=6,missing=6
		5:[D_KEYWORD_MICRO_MEAN_COEC<0.062482] yes=11,no=12,missing=12
			11:[CAT_REL<0.053484] yes=23,no=24,missing=24
				23:[D_KEYWORD_MACRO_MEAN_COEC<0.03428] yes=47,no=48,missing=48
					47:[IMAGE_COUNT<2] yes=95,no=96,missing=96
						95:leaf=-0.0728053
						96:leaf=-0.0598465
					48:[U_KW_LEN<304] yes=97,no=98,missing=98
						97:leaf=-0.0587046
						98:leaf=-0.0438391
				24:[U_KW_LEN<157] yes=49,no=50,missing=50
					49:[C_D_U_TITLEMD5_CATEGORY_MACRO_MEAN_COEC<0.070494] yes=99,no=100,missing=100
						99:leaf=-0.0690989
						100:leaf=-0.0475778
					50:[CAT_REL<0.19705] yes=101,no=102,missing=102
						101:leaf=-0.0360086
						102:leaf=-0.0111819
			12:[C_D_U_TITLEMD5_CATEGORY_MICRO_MEAN_COEC<0.140222] yes=25,no=26,missing=26
				25:[U_KW_LEN<157] yes=51,no=52,missing=52
					51:[C_D_U_TITLEMD5_CATEGORY_MACRO_MEAN_COEC<0.114509] yes=103,no=104,missing=104
						103:leaf=-0.0494335
						104:leaf=-0.0344122
					52:[CAT_REL<0.054989] yes=105,no=106,missing=106
						105:leaf=-0.033483
						106:leaf=-0.0132452
				26:[U_KW_LEN<157] yes=53,no=54,missing=54
					53:[D_TITLEMD5_COEC<0.111274] yes=107,no=108,missing=108
						107:leaf=-0.0439075
						108:leaf=-0.0225909
					54:[CAT_REL<0.035624] yes=109,no=110,missing=110
						109:leaf=-0.0143629
						110:leaf=0.00592238
		6:[KW_REL<0.000172] yes=13,no=14,missing=14
			13:[D_KEYWORD_MICRO_MEAN_COEC<0.058083] yes=27,no=28,missing=28
				27:[U_KW_LEN<1961] yes=55,no=56,missing=56
					55:[D_CATEGORY_MICRO_MEAN_COEC<0.053626] yes=111,no=112,missing=112
						111:leaf=-0.0512163
						112:leaf=-0.0340345
					56:[D_CATEGORY_MICRO_MEAN_COEC<0.046076] yes=113,no=114,missing=114
						113:leaf=-0.0352653
						114:leaf=-0.01137
				28:[C_D_U_TITLEMD5_CATEGORY_MICRO_MEAN_COEC<0.11899] yes=57,no=58,missing=58
					57:[U_KW_LEN<2794] yes=115,no=116,missing=116
						115:leaf=-0.0267617
						116:leaf=0.00377192
					58:[DAY_OF_WEEK<5] yes=117,no=118,missing=118
						117:leaf=0.00851353
						118:leaf=-0.014705
			14:[D_KEYWORD_MACRO_MEAN_COEC<0.045841] yes=29,no=30,missing=30
				29:[U_KW_LEN<1961] yes=59,no=60,missing=60
					59:[CAT_REL<0.088851] yes=119,no=120,missing=120
						119:leaf=-0.0274815
						120:leaf=-0.000884078
					60:[CAT_REL<0.103924] yes=121,no=122,missing=122
						121:leaf=-0.000443245
						122:leaf=0.0290918
				30:[C_D_U_TITLEMD5_CATEGORY_MICRO_MEAN_COEC<0.109855] yes=61,no=62,missing=62
					61:[U_KW_LEN<3939] yes=123,no=124,missing=124
						123:leaf=-0.00720952
						124:leaf=0.0400162
					62:[U_KW_LEN<2168] yes=125,no=126,missing=126
						125:leaf=0.0127964
						126:leaf=0.038299
booster[10]:
0:[C_D_U_TITLEMD5_CATEGORY_MICRO_MEAN_COEC<0.033001] yes=1,no=2,missing=1
	1:[D_KEYWORD_MACRO_MEAN_COEC<0.054928] yes=3,no=4,missing=4
		3:[U_KW_LEN<586] yes=7,no=8,missing=8
			7:[D_TITLEMD5_COEC<0.04215] yes=15,no=16,missing=16
				15:[U_KW_LEN<85] yes=31,no=32,missing=32
					31:[D_KEYWORD_MACRO_MEAN_COEC<0.030617] yes=63,no=64,missing=64
						63:leaf=-0.0888744
						64:leaf=-0.0787217
					32:[CAT_REL<0.078239] yes=65,no=66,missing=66
						65:leaf=-0.071656
						66:leaf=-0.054004
				16:[D_CATEGORY_MACRO_MEAN_COEC<0.042902] yes=33,no=34,missing=34
					33:[IMAGE_COUNT<0.999999] yes=67,no=68,missing=68
						67:leaf=-0.100096
						68:leaf=-0.0703435
					34:[U_KW_LEN<178] yes=69,no=70,missing=70
						69:leaf=-0.0625859
						70:leaf=-0.0442637
			8:[KW_REL<0.000364] yes=17,no=18,missing=18
				17:[D_CATEGORY_MICRO_MEAN_COEC<0.053462] yes=35,no=36,missing=36
					35:[U_CAT_LEN<23] yes=71,no=72,missing=72
						71:leaf=-0.0664962
						72:leaf=-0.0512355
					36:[CAT_REL<0.005513] yes=73,no=74,missing=74
						73:leaf=-0.0499921
						74:leaf=-0.0313347
				18:[U_KW_LEN<2784] yes=37,no=38,missing=38
					37:[KW_REL<0.004591] yes=75,no=76,missing=76
						75:leaf=-0.0408115
						76:leaf=-0.0143668
					38:[D_PUBLISHER_COEC<0.025642] yes=77,no=78,missing=77
						77:leaf=-0.0348287
						78:leaf=-0.00587003
		4:[D_TITLEMD5_COEC<0.107643] yes=9,no=10,missing=10
			9:[U_KW_LEN<551] yes=19,no=20,missing=20
				19:[D_TITLEMD5_COEC<0.064597] yes=39,no=40,missing=40
					39:[U_KW_LEN<137] yes=79,no=80,missing=80
						79:leaf=-0.0684083
						80:leaf=-0.0378925
					40:[D_PUBLISHER_COEC<0.05599] yes=81,no=82,missing=82
						81:leaf=-0.0557464
						82:leaf=-0.0435172
				20:[D_PUBLISHER_COEC<0.032142] yes=41,no=42,missing=42
					41:[D_CATEGORY_MICRO_MAX_COEC<0.063894] yes=83,no=84,missing=83
						83:leaf=-0.0651389
						84:leaf=-0.0240923
					42:[KW_REL<5e-06] yes=85,no=86,missing=86
						85:leaf=-0.0235106
						86:leaf=0.00524032
			10:[D_KEYWORD_MICRO_MEAN_COEC<0.054518] yes=21,no=22,missing=21
				21:[D_PUBLISHER_COEC<0.041933] yes=43,no=44,missing=44
					43:[U_CAT_LEN<11] yes=87,no=88,missing=88
						87:leaf=-0.0865939
						88:leaf=-0.0540643
					44:[D_KEYWORD_MACRO_MEAN_COEC<0.094689] yes=89,no=90,missing=89
						89:leaf=-0.0447721
						90:leaf=-0.0133624
				22:[KW_REL<0.00012] yes=45,no=46,missing=46
					45:[D_KEYWORD_MACRO_MEAN_COEC<0.130687] yes=91,no=92,missing=92
						91:leaf=-0.0280284
						92:leaf=-0.00696916
					46:[D_CATEGORY_MACRO_MAX_COEC<0.054202] yes=93,no=94,missing=94
						93:leaf=-0.0295151
						94:leaf=0.0359412
	2:[U_KW_LEN<1509] yes=5,no=6,missing=6
		5:[C_D_U_TITLEMD5_CATEGORY_MICRO_MEAN_COEC<0.095174] yes=11,no=12,missing=12
			11:[CAT_REL<0.011943] yes=23,no=24,missing=24
				23:[IMAGE_COUNT<2] yes=47,no=48,missing=48
					47:[D_CATEGORY_MACRO_MAX_COEC<0.044625] yes=95,no=96,missing=96
						95:leaf=-0.0633534
						96:leaf=-0.0481159
					48:[WORD_COUNT<687] yes=97,no=98,missing=98
						97:leaf=-0.00871782
						98:leaf=-0.0425666
				24:[U_KW_LEN<407] yes=49,no=50,missing=50
					49:[D_KEYWORD_MACRO_MEAN_COEC<0.040066] yes=99,no=100,missing=100
						99:leaf=-0.0544444
						100:leaf=-0.0375046
					50:[TIME_OF_DAY<21] yes=101,no=102,missing=102
						101:leaf=-0.0233529
						102:leaf=-0.0410887
			12:[D_KEYWORD_MACRO_MEAN_COEC<0.04648] yes=25,no=26,missing=26
				25:[KW_REL<0.000602] yes=51,no=52,missing=52
					51:[C_D_U_TITLEMD5_CATEGORY_MACRO_MAX_COEC<0.037958] yes=103,no=104,missing=104
						103:leaf=-0.0365072
						104:leaf=-0.0576364
					52:[U_KW_LEN<551] yes=105,no=106,missing=106
						105:leaf=-0.0338566
						106:leaf=-0.0107012
				26:[KW_REL<0.000101] yes=53,no=54,missing=54
					53:[CAT_REL<0.000462] yes=107,no=108,missing=108
						107:leaf=-0.0287702
						108:leaf=-0.012871
					54:[U_KW_LEN<499] yes=109,no=110,missing=110
						109:leaf=-0.0136455
						110:leaf=0.00359374
		6:[CAT_REL<0.013942] yes=13,no=14,missing=14
			13:[D_KEYWORD_MICRO_MEAN_COEC<0.062695] yes=27,no=28,missing=28
				27:[D_CATEGORY_MACRO_MAX_COEC<0.086424] yes=55,no=56,missing=56
					55:[D_PUBLISHER_COEC<0.027322] yes=111,no=112,missing=111
						111:leaf=-0.0609076
						112:leaf=-0.0243162
					56:[D_KEYWORD_MACRO_MAX_COEC<0.013322] yes=113,no=114,missing=114
						113:leaf=-0.00753543
						114:leaf=0.0265076
				28:[DAY_OF_WEEK<5] yes=57,no=58,missing=58
					57:[C_D_U_TITLEMD5_CATEGORY_MICRO_MEAN_COEC<0.123988] yes=115,no=116,missing=116
						115:leaf=-0.00552033
						116:leaf=0.0185693
					58:[D_TITLEMD5_COEC<0.064597] yes=117,no=118,missing=118
						117:leaf=-0.0466466
						118:leaf=-0.0111507
			14:[D_KEYWORD_MACRO_MEAN_COEC<0.036849] yes=29,no=30,missing=30
				29:[CAT_REL<0.104592] yes=59,no=60,missing=60
					59:[U_KW_LEN<6331] yes=119,no=120,missing=120
						119:leaf=-0.014957
						120:leaf=0.0369817
					60:[KW_REL<0.000855] yes=121,no=122,missing=122
						121:leaf=-0.00961228
						122:leaf=0.0243066
				30:[D_KEYWORD_MACRO_MEAN_COEC<0.068791] yes=61,no=62,missing=62
					61:[KW_REL<6.1e-05] yes=123,no=124,missing=124
						123:leaf=-0.00317858
						124:leaf=0.0166475
					62:[D_CATEGORY_MACRO_MEAN_COEC<0.051314] yes=125,no=126,missing=126
						125:leaf=-0.0106877
						126:leaf=0.0344033
booster[11]:
0:[C_D_U_TITLEMD5_CATEGORY_MICRO_MEAN_COEC<0.037794] yes=1,no=2,missing=1
	1:[D_KEYWORD_MACRO_MEAN_COEC<0.053794] yes=3,no=4,missing=3
		3:[CAT_REL<0.000432] yes=7,no=8,missing=8
			7:[U_CAT_LEN<12] yes=15,no=16,missing=16
				15:[D_TITLEMD5_COEC<0.035596] yes=31,no=32,missing=32
					31:[U_KW_LEN<54] yes=63,no=64,missing=64
						63:leaf=-0.0828688
						64:leaf=-0.0703584
					32:[D_PUBLISHER_COEC<0.027389] yes=65,no=66,missing=66
						65:leaf=-0.0799121
						66:leaf=-0.0624
				16:[D_CATEGORY_MACRO_MEAN_COEC<0.04613] yes=33,no=34,missing=34
					33:[IMAGE_COUNT<0.999999] yes=67,no=68,missing=68
						67:leaf=-0.0924154
						68:leaf=-0.0596213
					34:[D_PUBLISHER_COEC<0.026376] yes=69,no=70,missing=70
						69:leaf=-0.0624575
						70:leaf=-0.0403401
			8:[U_KW_LEN<1458] yes=17,no=18,missing=18
				17:[KW_REL<0.003051] yes=35,no=36,missing=36
					35:[D_CATEGORY_MACRO_MEAN_COEC<0.044945] yes=71,no=72,missing=72
						71:leaf=-0.0591339
						72:leaf=-0.0418903
					36:[IMAGE_COUNT<0.999999] yes=73,no=74,missing=74
						73:leaf=-0.066757
						74:leaf=-0.0267356
				18:[C_D_U_TITLEMD5_CATEGORY_MACRO_MAX_COEC<3.36316] yes=37,no=38,missing=38
					37:[U_KW_LEN<4614] yes=75,no=76,missing=76
						75:leaf=-0.0242222
						76:leaf=0.00180202
					38:[KW_REL<1.9e-05] yes=77,no=78,missing=78
						77:leaf=-0.0637361
						78:leaf=-0.0394898
		4:[D_TITLEMD5_COEC<0.102186] yes=9,no=10,missing=10
			9:[CAT_REL<0.000432] yes=19,no=20,missing=20
				19:[D_PUBLISHER_COEC<0.055282] yes=39,no=40,missing=40
					39:[DAY_OF_WEEK<5] yes=79,no=80,missing=80
						79:leaf=-0.0505894
						80:leaf=-0.0697045
					40:[D_CATEGORY_MACRO_MEAN_COEC<0.024247] yes=81,no=82,missing=82
						81:leaf=0.0655929
						82:leaf=-0.0416188
				20:[D_PUBLISHER_COEC<0.032301] yes=41,no=42,missing=42
					41:[D_KEYWORD_MICRO_MEAN_COEC<0.081082] yes=83,no=84,missing=84
						83:leaf=-0.0349581
						84:leaf=-0.087459
					42:[DAY_OF_WEEK<5] yes=85,no=86,missing=86
						85:leaf=0.00714265
						86:leaf=-0.0247374
			10:[D_PUBLISHER_COEC<0.174033] yes=21,no=22,missing=21
				21:[D_CATEGORY_MACRO_MEAN_COEC<0.04613] yes=43,no=44,missing=43
					43:[D_PUBLISHER_COEC<0.041339] yes=87,no=88,missing=88
						87:leaf=-0.0716428
						88:leaf=-0.0353611
					44:[KW_REL<4.3e-05] yes=89,no=90,missing=90
						89:leaf=-0.0242806
						90:leaf=0.0132282
				22:[D_CATEGORY_MACRO_MEAN_COEC<0.068646] yes=45,no=46,missing=46
					45:[D_KEYWORD_MACRO_MAX_COEC<0.070268] yes=91,no=92,missing=92
						91:leaf=-0.0387108
						92:leaf=0.00155097
					46:[D_KEYWORD_MACRO_MAX_COEC<0.085311] yes=93,no=94,missing=94
						93:leaf=0.0113651
						94:leaf=0.0797011
	2:[U_KW_LEN<974] yes=5,no=6,missing=6
		5:[D_KEYWORD_MACRO_MEAN_COEC<0.050962] yes=11,no=12,missing=12
			11:[KW_REL<0.000256] yes=23,no=24,missing=24
				23:[D_KEYWORD_MICRO_MEAN_COEC<0.03971] yes=47,no=48,missing=48
					47:[U_KW_LEN<305] yes=95,no=96,missing=96
						95:leaf=-0.0658495
						96:leaf=-0.0533624
					48:[DAY_OF_WEEK<3] yes=97,no=98,missing=98
						97:leaf=-0.0342399
						98:leaf=-0.050457
				24:[U_KW_LEN<231] yes=49,no=50,missing=50
					49:[D_KEYWORD_MACRO_MEAN_COEC<0.031379] yes=99,no=100,missing=100
						99:leaf=-0.0599823
						100:leaf=-0.0402263
					50:[CAT_REL<0.138687] yes=101,no=102,missing=102
						101:leaf=-0.031328
						102:leaf=-0.00672615
			12:[C_D_U_TITLEMD5_CATEGORY_MICRO_MEAN_COEC<0.14928] yes=25,no=26,missing=26
				25:[CAT_REL<0.040876] yes=51,no=52,missing=52
					51:[KW_REL<0.000227] yes=103,no=104,missing=104
						103:leaf=-0.0349105
						104:leaf=-0.020089
					52:[U_KW_LEN<121] yes=105,no=106,missing=106
						105:leaf=-0.0370228
						106:leaf=-0.00908946
				26:[D_PUBLISHER_COEC<0.111901] yes=53,no=54,missing=54
					53:[C_D_U_TITLEMD5_CATEGORY_MICRO_MEAN_COEC<0.267213] yes=107,no=108,missing=108
						107:leaf=-0.00875474
						108:leaf=-0.0389906
					54:[TIME_OF_DAY<20] yes=109,no=110,missing=110
						109:leaf=0.0189014
						110:leaf=-0.0135912
		6:[CAT_REL<0.021424] yes=13,no=14,missing=14
			13:[D_TITLEMD5_COEC<0.074295] yes=27,no=28,missing=28
				27:[U_KW_LEN<2774] yes=55,no=56,missing=56
					55:[DAY_OF_WEEK<3] yes=111,no=112,missing=112
						111:leaf=-0.0203538
						112:leaf=-0.0388383
					56:[D_KEYWORD_MACRO_MEAN_COEC<0.034295] yes=113,no=114,missing=114
						113:leaf=-0.0255859
						114:leaf=-0.000460009
				28:[DAY_OF_WEEK<5] yes=57,no=58,missing=58
					57:[D_KEYWORD_MICRO_MEAN_COEC<0.05882] yes=115,no=116,missing=116
						115:leaf=-0.0312743
						116:leaf=0.0102518
					58:[KW_REL<5e-06] yes=117,no=118,missing=118
						117:leaf=-0.02945
						118:leaf=-0.00585996
			14:[D_KEYWORD_MACRO_MEAN_COEC<0.036818] yes=29,no=30,missing=30
				29:[KW_REL<0.003051] yes=59,no=60,missing=60
					59:[U_KW_LEN<2431] yes=119,no=120,missing=120
						119:leaf=-0.0235289
						120:leaf=-0.00122846
					60:[U_KW_LEN<4614] yes=121,no=122,missing=122
						121:leaf=0.00559278
						122:leaf=0.056961
				30:[C_D_U_TITLEMD5_CATEGORY_MACRO_MEAN_COEC<0.051768] yes=61,no=62,missing=62
					61:[U_KW_LEN<4014] yes=123,no=124,missing=124
						123:leaf=-0.0022396
						124:leaf=0.0331656
					62:[C_D_U_TITLEMD5_CATEGORY_MICRO_MEAN_COEC<0.377893] yes=125,no=126,missing=126
						125:leaf=0.0196048
						126:leaf=-0.036722
booster[12]:
0:[C_D_U_TITLEMD5_CATEGORY_MICRO_MEAN_COEC<0.082716] yes=1,no=2,missing=1
	1:[U_KW_LEN<789] yes=3,no=4,missing=4
		3:[D_TITLEMD5_COEC<0.06823] yes=7,no=8,missing=7
			7:[U_KW_LEN<135] yes=15,no=16,missing=16
				15:[D_TITLEMD5_COEC<0.036954] yes=31,no=32,missing=32
					31:[U_KW_LEN<55] yes=63,no=64,missing=64
						63:leaf=-0.0775078
						64:leaf=-0.0641592
					32:[D_TITLEMD5_COEC<0.050275] yes=65,no=66,missing=65
						65:leaf=-0.0627378
						66:leaf=-0.0515814
				16:[D_KEYWORD_MACRO_MEAN_COEC<0.032247] yes=33,no=34,missing=34
					33:[KW_REL<0.00057] yes=67,no=68,missing=68
						67:leaf=-0.0595683
						68:leaf=-0.0410846
					34:[CAT_REL<0.051218] yes=69,no=70,missing=70
						69:leaf=-0.0453047
						70:leaf=-0.0278803
			8:[D_KEYWORD_MICRO_MEAN_COEC<0.090671] yes=17,no=18,missing=18
				17:[D_PUBLISHER_COEC<0.038483] yes=35,no=36,missing=35
					35:[KW_REL<8e-06] yes=71,no=72,missing=72
						71:leaf=-0.0672504
						72:leaf=-0.0406252
					36:[D_CATEGORY_MACRO_MAX_COEC<0.098964] yes=73,no=74,missing=73
						73:leaf=-0.0364483
						74:leaf=-0.0042394
				18:[D_KEYWORD_MICRO_MAX_COEC<0.133036] yes=37,no=38,missing=38
					37:[IMAGE_COUNT<2] yes=75,no=76,missing=76
						75:leaf=-0.0329306
						76:leaf=-0.0208295
					38:[D_TITLEMD5_COEC<0.229528] yes=77,no=78,missing=78
						77:leaf=-0.0137537
						78:leaf=0.0222605
		4:[KW_REL<0.000118] yes=9,no=10,missing=10
			9:[D_KEYWORD_MACRO_MEAN_COEC<0.031492] yes=19,no=20,missing=20
				19:[D_TITLEMD5_COEC<0.010414] yes=39,no=40,missing=39
					39:[U_KW_LEN<6332] yes=79,no=80,missing=80
						79:leaf=-0.0613323
						80:leaf=-0.0343378
					40:[U_KW_LEN<2188] yes=81,no=82,missing=82
						81:leaf=-0.0516539
						82:leaf=-0.0293295
				20:[CAT_REL<0.000512] yes=41,no=42,missing=42
					41:[U_KW_LEN<6332] yes=83,no=84,missing=84
						83:leaf=-0.0401363
						84:leaf=0.000731719
					42:[U_KW_LEN<1744] yes=85,no=86,missing=86
						85:leaf=-0.0293343
						86:leaf=-0.00961933
			10:[D_TITLEMD5_COEC<0.010414] yes=21,no=22,missing=21
				21:[KW_REL<0.001931] yes=43,no=44,missing=44
					43:[D_PUBLISHER_COEC<0.025744] yes=87,no=88,missing=88
						87:leaf=-0.0551672
						88:leaf=-0.0347091
					44:[CAT_REL<0.103065] yes=89,no=90,missing=90
						89:leaf=-0.0306251
						90:leaf=-0.00541409
				22:[U_KW_LEN<1893] yes=45,no=46,missing=46
					45:[CAT_REL<0.056705] yes=91,no=92,missing=92
						91:leaf=-0.028212
						92:leaf=-0.00924235
					46:[U_KW_LEN<3562] yes=93,no=94,missing=94
						93:leaf=-0.00773826
						94:leaf=0.0105295
	2:[U_KW_LEN<596] yes=5,no=6,missing=6
		5:[D_PUBLISHER_COEC<0.051475] yes=11,no=12,missing=12
			11:[CAT_REL<0.000512] yes=23,no=24,missing=24
				23:[D_PUBLISHER_COEC<0.030114] yes=47,no=48,missing=48
					47:[D_KEYWORD_MACRO_MEAN_COEC<0.051759] yes=95,no=96,missing=96
						95:leaf=-0.0637514
						96:leaf=-0.0932748
					48:[D_CATEGORY_MACRO_MAX_COEC<0.020255] yes=97,no=98,missing=97
						97:leaf=-0.0187257
						98:leaf=-0.0453978
				24:[D_PUBLISHER_COEC<0.027354] yes=49,no=50,missing=50
					49:[KW_REL<0.00711] yes=99,no=100,missing=100
						99:leaf=-0.0595109
						100:leaf=-0.0248676
					50:[U_KW_LEN<100] yes=101,no=102,missing=102
						101:leaf=-0.0503415
						102:leaf=-0.0238769
			12:[C_D_U_TITLEMD5_CATEGORY_MICRO_MEAN_COEC<0.157814] yes=25,no=26,missing=26
				25:[TIME_OF_DAY<20] yes=51,no=52,missing=52
					51:[U_KW_LEN<86] yes=103,no=104,missing=104
						103:leaf=-0.0367255
						104:leaf=-0.0164293
					52:[CAT_REL<0.115178] yes=105,no=106,missing=106
						105:leaf=-0.0377954
						106:leaf=-0.0178452
				26:[D_PUBLISHER_COEC<0.113182] yes=53,no=54,missing=54
					53:[U_KW_LEN<181] yes=107,no=108,missing=108
						107:leaf=-0.0221619
						108:leaf=-0.00731227
					54:[WORD_COUNT<1718] yes=109,no=110,missing=110
						109:leaf=-0.0260177
						110:leaf=0.0129687
		6:[KW_REL<8e-06] yes=13,no=14,missing=14
			13:[D_CATEGORY_MACRO_MEAN_COEC<0.053157] yes=27,no=28,missing=28
				27:[D_PUBLISHER_COEC<0.029253] yes=55,no=56,missing=56
					55:[D_TITLEMD5_COEC<0.060389] yes=111,no=112,missing=112
						111:leaf=-0.0573277
						112:leaf=-0.0902637
					56:[D_KEYWORD_MICRO_MEAN_COEC<0.072363] yes=113,no=114,missing=114
						113:leaf=-0.0349431
						114:leaf=-0.00595044
				28:[DAY_OF_WEEK<5] yes=57,no=58,missing=58
					57:[D_KEYWORD_MICRO_MEAN_COEC<0.086454] yes=115,no=116,missing=116
						115:leaf=-0.00990041
						116:leaf=0.0096966
					58:[CAT_REL<0.024889] yes=117,no=118,missing=118
						117:leaf=-0.029804
						118:leaf=-0.0058507
			14:[D_KEYWORD_MACRO_MEAN_COEC<0.035607] yes=29,no=30,missing=30
				29:[CAT_REL<0.065066] yes=59,no=60,missing=60
					59:[U_KW_LEN<2658] yes=119,no=120,missing=120
						119:leaf=-0.0375927
						120:leaf=-0.0111584
					60:[U_KW_LEN<1576] yes=121,no=122,missing=122
						121:leaf=-0.0118722
						122:leaf=0.0131454
				30:[U_KW_LEN<2188] yes=61,no=62,missing=62
					61:[CAT_REL<0.037607] yes=123,no=124,missing=124
						123:leaf=-0.0050187
						124:leaf=0.0123708
					62:[WORD_COUNT<1299] yes=125,no=126,missing=126
						125:leaf=0.00172018
						126:leaf=0.0266736
booster[13]:
0:[C_D_U_TITLEMD5_CATEGORY_MICRO_MEAN_COEC<0.028777] yes=1,no=2,missing=1
	1:[D_KEYWORD_MACRO_MEAN_COEC<0.054378] yes=3,no=4,missing=4
		3:[CAT_REL<0.000414] yes=7,no=8,missing=8
			7:[D_CATEGORY_MACRO_MAX_COEC<0.044677] yes=15,no=16,missing=16
				15:[U_CAT_LEN<13] yes=31,no=32,missing=32
					31:[D_KEYWORD_MACRO_MEAN_COEC<0.033679] yes=63,no=64,missing=64
						63:leaf=-0.0732277
						64:leaf=-0.0595936
					32:[D_CATEGORY_MICRO_MAX_COEC<0.028067] yes=65,no=66,missing=66
						65:leaf=-0.0442889
						66:leaf=-0.0592606
				16:[U_KW_LEN<207] yes=33,no=34,missing=34
					33:[D_TITLEMD5_COEC<0.04192] yes=67,no=68,missing=68
						67:leaf=-0.0645335
						68:leaf=-0.0494175
					34:[D_PUBLISHER_COEC<0.053547] yes=69,no=70,missing=70
						69:leaf=-0.0432679
						70:leaf=-0.0248502
			8:[U_KW_LEN<1531] yes=17,no=18,missing=18
				17:[IMAGE_COUNT<0.999999] yes=35,no=36,missing=36
					35:[D_CATEGORY_MICRO_MEAN_COEC<0.055793] yes=71,no=72,missing=71
						71:leaf=-0.0773522
						72:leaf=-0.0455907
					36:[KW_REL<0.001987] yes=73,no=74,missing=74
						73:leaf=-0.0439198
						74:leaf=-0.0253782
				18:[D_TITLEMD5_COEC<0.230346] yes=37,no=38,missing=38
					37:[KW_REL<0.001796] yes=75,no=76,missing=76
						75:leaf=-0.0235727
						76:leaf=0.000414881
					38:[KW_REL<0.00283] yes=77,no=78,missing=78
						77:leaf=-0.0610254
						78:leaf=-0.0237604
		4:[D_TITLEMD5_COEC<0.10002] yes=9,no=10,missing=10
			9:[U_KW_LEN<207] yes=19,no=20,missing=20
				19:[D_TITLEMD5_COEC<0.065076] yes=39,no=40,missing=40
					39:[D_PUBLISHER_COEC<0.032317] yes=79,no=80,missing=80
						79:leaf=-0.0800815
						80:leaf=-0.0515705
					40:[DAY_OF_WEEK<5] yes=81,no=82,missing=82
						81:leaf=-0.0335105
						82:leaf=-0.0456905
				20:[DAY_OF_WEEK<5] yes=41,no=42,missing=42
					41:[D_PUBLISHER_COEC<0.032751] yes=83,no=84,missing=84
						83:leaf=-0.0389236
						84:leaf=0.00522544
					42:[D_CATEGORY_MACRO_MAX_COEC<0.063102] yes=85,no=86,missing=85
						85:leaf=-0.0523406
						86:leaf=-0.0185632
			10:[D_PUBLISHER_COEC<0.027767] yes=21,no=22,missing=22
				21:[D_CATEGORY_MACRO_MAX_COEC<0.031914] yes=43,no=44,missing=43
					43:[WORD_COUNT<3200] yes=87,no=88,missing=88
						87:leaf=-0.0949994
						88:leaf=-0.0541453
					44:[CAT_REL<0.020927] yes=89,no=90,missing=90
						89:leaf=-0.0683968
						90:leaf=-0.0315557
				22:[D_PUBLISHER_COEC<0.174747] yes=45,no=46,missing=45
					45:[KW_REL<1.4e-05] yes=91,no=92,missing=92
						91:leaf=-0.0215403
						92:leaf=0.0083197
					46:[DAY_OF_WEEK<3] yes=93,no=94,missing=94
						93:leaf=0.0281589
						94:leaf=0.0010152
	2:[U_KW_LEN<1648] yes=5,no=6,missing=6
		5:[C_D_U_TITLEMD5_CATEGORY_MICRO_MEAN_COEC<0.102402] yes=11,no=12,missing=12
			11:[CAT_REL<0.012196] yes=23,no=24,missing=24
				23:[IMAGE_COUNT<2] yes=47,no=48,missing=48
					47:[D_CATEGORY_MACRO_MAX_COEC<0.04617] yes=95,no=96,missing=96
						95:leaf=-0.0510343
						96:leaf=-0.0360932
					48:[WORD_COUNT<702] yes=97,no=98,missing=98
						97:leaf=-0.000329038
						98:leaf=-0.0299347
				24:[U_KW_LEN<503] yes=49,no=50,missing=50
					49:[D_KEYWORD_MACRO_MEAN_COEC<0.034529] yes=99,no=100,missing=100
						99:leaf=-0.0437217
						100:leaf=-0.0280876
					50:[TIME_OF_DAY<19] yes=101,no=102,missing=102
						101:leaf=-0.0133617
						102:leaf=-0.0294558
			12:[D_PUBLISHER_COEC<0.032317] yes=25,no=26,missing=26
				25:[KW_REL<0.001987] yes=51,no=52,missing=52
					51:[D_TITLEMD5_COEC<0.074682] yes=103,no=104,missing=104
						103:leaf=-0.0426638
						104:leaf=-0.0769026
					52:[CAT_REL<0.088272] yes=105,no=106,missing=106
						105:leaf=-0.0369081
						106:leaf=-0.00981024
				26:[CAT_REL<0.000414] yes=53,no=54,missing=54
					53:[D_KEYWORD_MACRO_MEAN_COEC<0.118431] yes=107,no=108,missing=108
						107:leaf=-0.0239876
						108:leaf=-0.00159755
					54:[D_PUBLISHER_COEC<0.104788] yes=109,no=110,missing=110
						109:leaf=-0.00602743
						110:leaf=0.0185183
		6:[KW_REL<0.000249] yes=13,no=14,missing=14
			13:[D_CATEGORY_MACRO_MEAN_COEC<0.051186] yes=27,no=28,missing=28
				27:[C_D_U_TITLEMD5_CATEGORY_MACRO_MAX_COEC<0.033668] yes=55,no=56,missing=56
					55:[IMAGE_COUNT<2] yes=111,no=112,missing=112
						111:leaf=-0.0246021
						112:leaf=-0.0043272
					56:[D_PUBLISHER_COEC<0.04888] yes=113,no=114,missing=114
						113:leaf=-0.049878
						114:leaf=-0.0155146
				28:[CAT_REL<0.002156] yes=57,no=58,missing=58
					57:[D_CATEGORY_MICRO_MAX_COEC<0.087554] yes=115,no=116,missing=116
						115:leaf=-0.012724
						116:leaf=0.0181108
					58:[D_TITLEMD5_COEC<0.037821] yes=117,no=118,missing=118
						117:leaf=-0.0176092
						118:leaf=0.0145045
			14:[D_KEYWORD_MACRO_MEAN_COEC<0.050801] yes=29,no=30,missing=30
				29:[CAT_REL<0.113635] yes=59,no=60,missing=60
					59:[U_KW_LEN<3526] yes=119,no=120,missing=120
						119:leaf=-0.00410288
						120:leaf=0.0152188
					60:[U_KW_LEN<4545] yes=121,no=122,missing=122
						121:leaf=0.0192909
						122:leaf=0.0625343
				30:[WORD_COUNT<1299] yes=61,no=62,missing=62
					61:[U_KW_LEN<4029] yes=123,no=124,missing=124
						123:leaf=-0.000623535
						124:leaf=0.0328822
					62:[DAY_OF_WEEK<5] yes=125,no=126,missing=126
						125:leaf=0.0373797
						126:leaf=0.0122312
booster[14]:
0:[C_D_U_TITLEMD5_CATEGORY_MICRO_MEAN_COEC<0.029966] yes=1,no=2,missing=1
	1:[D_PUBLISHER_COEC<0.053342] yes=3,no=4,missing=3
		3:[CAT_REL<0.000449] yes=7,no=8,missing=8
			7:[D_TITLEMD5_COEC<0.046768] yes=15,no=16,missing=16
				15:[U_CAT_LEN<11] yes=31,no=32,missing=32
					31:[D_TITLEMD5_COEC<0.03137] yes=63,no=64,missing=64
						63:leaf=-0.0699989
						64:leaf=-0.0601746
					32:[D_CATEGORY_MACRO_MEAN_COEC<0.057604] yes=65,no=66,missing=66
						65:leaf=-0.0529508
						66:leaf=-0.0371319
				16:[D_PUBLISHER_COEC<0.02749] yes=33,no=34,missing=34
					33:[D_CATEGORY_MICRO_MEAN_COEC<0.045513] yes=67,no=68,missing=68
						67:leaf=-0.0714309
						68:leaf=-0.0549762
					34:[D_CATEGORY_MACRO_MEAN_COEC<0.099797] yes=69,no=70,missing=69
						69:leaf=-0.0453666
						70:leaf=0.0105583
			8:[U_KW_LEN<1030] yes=17,no=18,missing=18
				17:[KW_REL<0.003171] yes=35,no=36,missing=36
					35:[D_CATEGORY_MACRO_MEAN_COEC<0.040047] yes=71,no=72,missing=72
						71:leaf=-0.0533903
						72:leaf=-0.0365427
					36:[IMAGE_COUNT<0.999999] yes=73,no=74,missing=74
						73:leaf=-0.0603638
						74:leaf=-0.0230506
				18:[KW_REL<2.1e-05] yes=37,no=38,missing=38
					37:[D_CATEGORY_MACRO_MEAN_COEC<0.040047] yes=75,no=76,missing=75
						75:leaf=-0.0478851
						76:leaf=-0.0262648
					38:[D_PUBLISHER_COEC<0.025347] yes=77,no=78,missing=77
						77:leaf=-0.0322953
						78:leaf=-0.0126196
		4:[D_TITLEMD5_COEC<0.08769] yes=9,no=10,missing=9
			9:[U_KW_LEN<512] yes=19,no=20,missing=20
				19:[D_TITLEMD5_COEC<0.058681] yes=39,no=40,missing=40
					39:[U_KW_LEN<86] yes=79,no=80,missing=80
						79:leaf=-0.0519223
						80:leaf=-0.0331408
					40:[WORD_COUNT<1629] yes=81,no=82,missing=82
						81:leaf=-0.0418267
						82:leaf=-0.0290366
				20:[U_KW_LEN<2204] yes=41,no=42,missing=42
					41:[KW_REL<0.000174] yes=83,no=84,missing=84
						83:leaf=-0.0314369
						84:leaf=-0.00803166
					42:[D_KEYWORD_MACRO_MEAN_COEC<0.028542] yes=85,no=86,missing=86
						85:leaf=-0.0180941
						86:leaf=0.0075074
			10:[D_KEYWORD_MACRO_MEAN_COEC<0.125128] yes=21,no=22,missing=22
				21:[U_CAT_LEN<12] yes=43,no=44,missing=44
					43:[WORD_COUNT<2295] yes=87,no=88,missing=88
						87:leaf=-0.0259962
						88:leaf=-0.0163612
					44:[KW_REL<1.3e-05] yes=89,no=90,missing=90
						89:leaf=-0.00469608
						90:leaf=0.0283083
				22:[D_PUBLISHER_COEC<0.11353] yes=45,no=46,missing=46
					45:[D_PUBLISHER_COEC<0.096143] yes=91,no=92,missing=92
						91:leaf=-0.0110467
						92:leaf=-0.043463
					46:[IMAGE_COUNT<2] yes=93,no=94,missing=94
						93:leaf=0.00786254
						94:leaf=-0.0140934
	2:[U_KW_LEN<573] yes=5,no=6,missing=6
		5:[D_PUBLISHER_COEC<0.046989] yes=11,no=12,missing=12
			11:[CAT_REL<0.125271] yes=23,no=24,missing=24
				23:[D_TITLEMD5_COEC<0.049613] yes=47,no=48,missing=48
					47:[U_KW_LEN<287] yes=95,no=96,missing=96
						95:leaf=-0.0542088
						96:leaf=-0.0433521
					48:[WORD_COUNT<3273] yes=97,no=98,missing=98
						97:leaf=-0.0416321
						98:leaf=-0.0218641
				24:[U_KW_LEN<144] yes=49,no=50,missing=50
					49:[U_KW_LEN<54] yes=99,no=100,missing=100
						99:leaf=-0.071118
						100:leaf=-0.0406649
					50:[CAT_REL<0.2998] yes=101,no=102,missing=102
						101:leaf=-0.0198107
						102:leaf=0.0139211
			12:[C_D_U_TITLEMD5_CATEGORY_MICRO_MEAN_COEC<0.120368] yes=25,no=26,missing=26
				25:[KW_REL<2.1e-05] yes=51,no=52,missing=52
					51:[DAY_OF_WEEK<3] yes=103,no=104,missing=104
						103:leaf=-0.0234089
						104:leaf=-0.0367222
					52:[D_KEYWORD_MICRO_MEAN_COEC<0.03744] yes=105,no=106,missing=106
						105:leaf=-0.0423775
						106:leaf=-0.0171716
				26:[TIME_OF_DAY<21] yes=53,no=54,missing=54
					53:[KW_REL<0.000264] yes=107,no=108,missing=108
						107:leaf=-0.0118096
						108:leaf=0.0035481
					54:[C_D_U_TITLEMD5_AGE_COEC<0.192073] yes=109,no=110,missing=109
						109:leaf=-0.0265279
						110:leaf=0.00203117
		6:[KW_REL<0.000117] yes=13,no=14,missing=14
			13:[D_KEYWORD_MICRO_MEAN_COEC<0.066567] yes=27,no=28,missing=28
				27:[D_CATEGORY_MACRO_MAX_COEC<0.053695] yes=55,no=56,missing=56
					55:[IMAGE_COUNT<2] yes=111,no=112,missing=112
						111:leaf=-0.0370035
						112:leaf=-0.020863
					56:[WORD_COUNT<1423] yes=113,no=114,missing=114
						113:leaf=-0.0299806
						114:leaf=-0.00958481
				28:[TIME_OF_DAY<21] yes=57,no=58,missing=58
					57:[D_TITLEMD5_COEC<0.067986] yes=115,no=116,missing=116
						115:leaf=-0.0270087
						116:leaf=0.00510872
					58:[D_KEYWORD_MICRO_MAX_COEC<0.150726] yes=117,no=118,missing=118
						117:leaf=-0.025635
						118:leaf=0.00707613
			14:[D_KEYWORD_MACRO_MEAN_COEC<0.037522] yes=29,no=30,missing=30
				29:[CAT_REL<0.045015] yes=59,no=60,missing=60
					59:[U_KW_LEN<2621] yes=119,no=120,missing=120
						119:leaf=-0.028382
						120:leaf=-0.00509399
					60:[U_KW_LEN<1597] yes=121,no=122,missing=122
						121:leaf=-0.0117992
						122:leaf=0.0081504
				30:[C_D_U_TITLEMD5_CATEGORY_MICRO_MEAN_COEC<0.107625] yes=61,no=62,missing=62
					61:[U_KW_LEN<2984] yes=123,no=124,missing=124
						123:leaf=-0.00592568
						124:leaf=0.0180735
					62:[D_PUBLISHER_COEC<0.027793] yes=125,no=126,missing=126
						125:leaf=-0.0289901
						126:leaf=0.0125906
booster[15]:
0:[C_D_U_TITLEMD5_CATEGORY_MICRO_MEAN_COEC<0.026069] yes=1,no=2,missing=1
	1:[D_KEYWORD_MACRO_MEAN_COEC<0.05344] yes=3,no=4,missing=4
		3:[U_KW_LEN<367] yes=7,no=8,missing=8
			7:[D_TITLEMD5_COEC<0.035074] yes=15,no=16,missing=16
				15:[U_KW_LEN<55] yes=31,no=32,missing=32
					31:[D_CATEGORY_MICRO_MEAN_COEC<0.051846] yes=63,no=64,missing=63
						63:leaf=-0.0704162
						64:leaf=-0.0579798
					32:[IMAGE_COUNT<0.999999] yes=65,no=66,missing=66
						65:leaf=-0.0783088
						66:leaf=-0.0496372
				16:[D_KEYWORD_MICRO_MEAN_COEC<0.040719] yes=33,no=34,missing=34
					33:[D_PUBLISHER_COEC<0.026263] yes=67,no=68,missing=68
						67:leaf=-0.0697247
						68:leaf=-0.0530228
					34:[WORD_COUNT<1728] yes=69,no=70,missing=70
						69:leaf=-0.0527005
						70:leaf=-0.0406126
			8:[KW_REL<0.000173] yes=17,no=18,missing=18
				17:[D_CATEGORY_MICRO_MEAN_COEC<0.052685] yes=35,no=36,missing=36
					35:[U_CAT_LEN<16] yes=71,no=72,missing=72
						71:leaf=-0.0565581
						72:leaf=-0.0423259
					36:[U_KW_LEN<6375] yes=73,no=74,missing=74
						73:leaf=-0.0306868
						74:leaf=0.00982988
				18:[U_KW_LEN<4622] yes=37,no=38,missing=38
					37:[CAT_REL<0.037499] yes=75,no=76,missing=76
						75:leaf=-0.0338483
						76:leaf=-0.0174809
					38:[U_CAT_LEN<8] yes=77,no=78,missing=78
						77:leaf=0.22404
						78:leaf=0.00170595
		4:[D_TITLEMD5_COEC<0.100163] yes=9,no=10,missing=10
			9:[U_CAT_LEN<12] yes=19,no=20,missing=20
				19:[D_TITLEMD5_COEC<0.063831] yes=39,no=40,missing=40
					39:[D_KEYWORD_MACRO_MAX_COEC<0.021907] yes=79,no=80,missing=80
						79:leaf=-0.0354215
						80:leaf=-0.0535305
					40:[DAY_OF_WEEK<3] yes=81,no=82,missing=82
						81:leaf=-0.0248759
						82:leaf=-0.0342693
				20:[D_TITLEMD5_COEC<0.02252] yes=41,no=42,missing=42
					41:[D_KEYWORD_MICRO_MAX_COEC<0.079499] yes=83,no=84,missing=84
						83:leaf=-0.00728373
						84:leaf=-0.0516045
					42:[D_TITLEMD5_COEC<0.032804] yes=85,no=86,missing=86
						85:leaf=0.051908
						86:leaf=-0.006643
			10:[D_KEYWORD_MICRO_MEAN_COEC<0.054271] yes=21,no=22,missing=22
				21:[D_PUBLISHER_COEC<0.042189] yes=43,no=44,missing=43
					43:[CAT_REL<0.002783] yes=87,no=88,missing=88
						87:leaf=-0.0673231
						88:leaf=-0.0348175
					44:[D_KEYWORD_MACRO_MAX_COEC<0.027824] yes=89,no=90,missing=90
						89:leaf=-0.0345909
						90:leaf=-0.0099526
				22:[U_KW_LEN<876] yes=45,no=46,missing=46
					45:[D_KEYWORD_MICRO_MAX_COEC<0.143497] yes=91,no=92,missing=91
						91:leaf=-0.019519
						92:leaf=-0.00615411
					46:[D_CATEGORY_MACRO_MAX_COEC<0.056816] yes=93,no=94,missing=93
						93:leaf=-0.0263102
						94:leaf=0.0343197
	2:[U_KW_LEN<1475] yes=5,no=6,missing=6
		5:[D_TITLEMD5_COEC<0.049941] yes=11,no=12,missing=12
			11:[KW_REL<0.000298] yes=23,no=24,missing=24
				23:[CAT_REL<0.015371] yes=47,no=48,missing=48
					47:[D_KEYWORD_MICRO_MEAN_COEC<0.035725] yes=95,no=96,missing=96
						95:leaf=-0.0524355
						96:leaf=-0.0379695
					48:[U_KW_LEN<308] yes=97,no=98,missing=98
						97:leaf=-0.0428009
						98:leaf=-0.0253215
				24:[U_KW_LEN<395] yes=49,no=50,missing=50
					49:[CAT_REL<0.234811] yes=99,no=100,missing=100
						99:leaf=-0.0372444
						100:leaf=-0.0176001
					50:[CAT_REL<0.125945] yes=101,no=102,missing=102
						101:leaf=-0.020723
						102:leaf=0.00271305
			12:[CAT_REL<0.000457] yes=25,no=26,missing=26
				25:[D_KEYWORD_MACRO_MEAN_COEC<0.117514] yes=51,no=52,missing=52
					51:[D_KEYWORD_MACRO_MAX_COEC<0.006032] yes=103,no=104,missing=104
						103:leaf=0.0203978
						104:leaf=-0.0245857
					52:[IMAGE_COUNT<2] yes=105,no=106,missing=106
						105:leaf=0.00600975
						106:leaf=-0.0184577
				26:[DAY_OF_WEEK<5] yes=53,no=54,missing=54
					53:[D_PUBLISHER_COEC<0.027456] yes=107,no=108,missing=108
						107:leaf=-0.0518385
						108:leaf=-4.72554e-05
					54:[D_KEYWORD_MACRO_MEAN_COEC<0.065807] yes=109,no=110,missing=110
						109:leaf=-0.0267695
						110:leaf=-0.0102165
		6:[CAT_REL<0.000457] yes=13,no=14,missing=14
			13:[D_CATEGORY_MACRO_MAX_COEC<0.08784] yes=27,no=28,missing=28
				27:[D_PUBLISHER_COEC<0.047063] yes=55,no=56,missing=55
					55:[D_PUBLISHER_COEC<0.026551] yes=111,no=112,missing=111
						111:leaf=-0.0534645
						112:leaf=-0.0235912
					56:[U_KW_LEN<4040] yes=113,no=114,missing=114
						113:leaf=-0.00902455
						114:leaf=0.0183123
				28:[WORD_COUNT<1024] yes=57,no=58,missing=58
					57:[WORD_COUNT<255] yes=115,no=116,missing=116
						115:leaf=0.0306983
						116:leaf=-0.0258469
					58:[U_KW_LEN<3003] yes=117,no=118,missing=118
						117:leaf=0.0183383
						118:leaf=0.0455467
			14:[D_KEYWORD_MICRO_MEAN_COEC<0.06056] yes=29,no=30,missing=30
				29:[KW_REL<0.003081] yes=59,no=60,missing=60
					59:[U_KW_LEN<3615] yes=119,no=120,missing=120
						119:leaf=-0.00662916
						120:leaf=0.0117055
					60:[C_D_U_TITLEMD5_CATEGORY_MACRO_MEAN_COEC<0.033445] yes=121,no=122,missing=122
						121:leaf=0.00537967
						122:leaf=0.0253794
				30:[D_TITLEMD5_COEC<0.061073] yes=61,no=62,missing=62
					61:[WORD_COUNT<6876] yes=123,no=124,missing=124
						123:leaf=-0.014495
						124:leaf=0.0429295
					62:[U_KW_LEN<4040] yes=125,no=126,missing=126
						125:leaf=0.0200984
						126:leaf=0.0475239
booster[16]:
0:[C_D_U_TITLEMD5_CATEGORY_MICRO_MEAN_COEC<0.01988] yes=1,no=2,missing=1
	1:[D_PUBLISHER_COEC<0.053847] yes=3,no=4,missing=3
		3:[KW_REL<1.4e-05] yes=7,no=8,missing=8
			7:[D_CATEGORY_MACRO_MEAN_COEC<0.039447] yes=15,no=16,missing=16
				15:[U_CAT_LEN<15] yes=31,no=32,missing=32
					31:[D_TITLEMD5_COEC<0.033754] yes=63,no=64,missing=63
						63:leaf=-0.0656985
						64:leaf=-0.0502979
					32:[U_KW_LEN<6396] yes=65,no=66,missing=66
						65:leaf=-0.0477995
						66:leaf=-0.0208952
				16:[U_CAT_LEN<16] yes=33,no=34,missing=34
					33:[D_TITLEMD5_COEC<0.047571] yes=67,no=68,missing=68
						67:leaf=-0.0520067
						68:leaf=-0.0383295
					34:[D_KEYWORD_MICRO_MEAN_COEC<0.053901] yes=69,no=70,missing=69
						69:leaf=-0.0331029
						70:leaf=-0.0122629
			8:[U_KW_LEN<1664] yes=17,no=18,missing=18
				17:[IMAGE_COUNT<0.999999] yes=35,no=36,missing=36
					35:[D_CATEGORY_MACRO_MEAN_COEC<0.045339] yes=71,no=72,missing=72
						71:leaf=-0.0684826
						72:leaf=-0.0413289
					36:[KW_REL<0.006016] yes=73,no=74,missing=74
						73:leaf=-0.0336999
						74:leaf=-0.0055214
				18:[D_PUBLISHER_COEC<0.025571] yes=37,no=38,missing=37
					37:[CAT_REL<0.03275] yes=75,no=76,missing=76
						75:leaf=-0.0447459
						76:leaf=-0.02123
					38:[U_KW_LEN<4604] yes=77,no=78,missing=78
						77:leaf=-0.0149358
						78:leaf=0.00907703
		4:[D_TITLEMD5_COEC<0.097865] yes=9,no=10,missing=9
			9:[KW_REL<5.9e-05] yes=19,no=20,missing=20
				19:[D_KEYWORD_MICRO_MEAN_COEC<0.058432] yes=39,no=40,missing=39
					39:[U_KW_LEN<2188] yes=79,no=80,missing=80
						79:leaf=-0.0416136
						80:leaf=-0.0109544
					40:[WORD_COUNT<1644] yes=81,no=82,missing=82
						81:leaf=-0.0335576
						82:leaf=-0.0210729
				20:[D_KEYWORD_MICRO_MEAN_COEC<0.039185] yes=41,no=42,missing=41
					41:[U_KW_LEN<2620] yes=83,no=84,missing=84
						83:leaf=-0.0259159
						84:leaf=0.0053086
					42:[TIME_OF_DAY<20] yes=85,no=86,missing=86
						85:leaf=0.00757658
						86:leaf=-0.016923
			10:[D_KEYWORD_MICRO_MAX_COEC<0.134332] yes=21,no=22,missing=22
				21:[U_KW_LEN<211] yes=43,no=44,missing=44
					43:[IMAGE_COUNT<2] yes=87,no=88,missing=88
						87:leaf=-0.0225878
						88:leaf=-0.0139792
					44:[D_CATEGORY_MICRO_MEAN_COEC<0.052201] yes=89,no=90,missing=89
						89:leaf=-0.0310785
						90:leaf=0.0243
				22:[D_PUBLISHER_COEC<0.113841] yes=45,no=46,missing=46
					45:[WORD_COUNT<2137] yes=91,no=92,missing=92
						91:leaf=-0.0209387
						92:leaf=-0.00544288
					46:[D_KEYWORD_MACRO_MEAN_COEC<0.132346] yes=93,no=94,missing=94
						93:leaf=-0.0154739
						94:leaf=0.00718636
	2:[U_KW_LEN<490] yes=5,no=6,missing=6
		5:[D_KEYWORD_MICRO_MEAN_COEC<0.062482] yes=11,no=12,missing=12
			11:[KW_REL<0.000295] yes=23,no=24,missing=24
				23:[D_KEYWORD_MICRO_MEAN_COEC<0.039692] yes=47,no=48,missing=48
					47:[D_CATEGORY_MACRO_MEAN_COEC<0.027993] yes=95,no=96,missing=95
						95:leaf=-0.0340094
						96:leaf=-0.048834
					48:[DAY_OF_WEEK<3] yes=97,no=98,missing=98
						97:leaf=-0.0258723
						98:leaf=-0.0382219
				24:[C_D_U_TITLEMD5_CATEGORY_MACRO_MEAN_COEC<0.057474] yes=49,no=50,missing=50
					49:[TIME_OF_DAY<15] yes=99,no=100,missing=100
						99:leaf=-0.0249756
						100:leaf=-0.0392926
					50:[D_KEYWORD_MACRO_MEAN_COEC<0.033996] yes=101,no=102,missing=102
						101:leaf=-0.0293208
						102:leaf=-0.0102635
			12:[C_D_U_TITLEMD5_CATEGORY_MICRO_MEAN_COEC<0.115295] yes=25,no=26,missing=26
				25:[U_KW_LEN<86] yes=51,no=52,missing=52
					51:[U_KW_LEN<55] yes=103,no=104,missing=104
						103:leaf=-0.0485223
						104:leaf=-0.031412
					52:[KW_REL<0.000295] yes=105,no=106,missing=106
						105:leaf=-0.0229193
						106:leaf=-0.00676799
				26:[TIME_OF_DAY<20] yes=53,no=54,missing=54
					53:[U_KW_LEN<161] yes=107,no=108,missing=108
						107:leaf=-0.0145138
						108:leaf=-0.0015407
					54:[KW_REL<5.9e-05] yes=109,no=110,missing=110
						109:leaf=-0.0248966
						110:leaf=-0.0111956
		6:[CAT_REL<0.02914] yes=13,no=14,missing=14
			13:[D_PUBLISHER_COEC<0.048372] yes=27,no=28,missing=27
				27:[D_CATEGORY_MACRO_MEAN_COEC<0.059189] yes=55,no=56,missing=56
					55:[D_KEYWORD_MACRO_MEAN_COEC<0.033244] yes=111,no=112,missing=112
						111:leaf=-0.0390801
						112:leaf=-0.0232144
					56:[WORD_COUNT<4368] yes=113,no=114,missing=114
						113:leaf=-0.0172652
						114:leaf=0.023269
				28:[U_KW_LEN<2188] yes=57,no=58,missing=58
					57:[D_KEYWORD_MACRO_MEAN_COEC<0.118548] yes=115,no=116,missing=116
						115:leaf=-0.0129036
						116:leaf=0.00996967
					58:[U_KW_LEN<3986] yes=117,no=118,missing=118
						117:leaf=0.00482414
						118:leaf=0.023832
			14:[D_CATEGORY_MACRO_MAX_COEC<0.052653] yes=29,no=30,missing=29
				29:[KW_REL<0.002399] yes=59,no=60,missing=60
					59:[U_KW_LEN<1824] yes=119,no=120,missing=120
						119:leaf=-0.0166645
						120:leaf=0.000491207
					60:[WORD_COUNT<1321] yes=121,no=122,missing=122
						121:leaf=-0.0171632
						122:leaf=0.00985164
				30:[D_TITLEMD5_COEC<0.042019] yes=61,no=62,missing=62
					61:[U_KW_LEN<3601] yes=123,no=124,missing=124
						123:leaf=-0.00938373
						124:leaf=0.019848
					62:[TIME_OF_DAY<21] yes=125,no=126,missing=126
						125:leaf=0.0173768
						126:leaf=-0.00107078
booster[17]:
0:[C_D_U_TITLEMD5_CATEGORY_MICRO_MEAN_COEC<0.08161] yes=1,no=2,missing=1
	1:[CAT_REL<0.000432] yes=3,no=4,missing=4
		3:[D_PUBLISHER_COEC<0.048031] yes=7,no=8,missing=8
			7:[U_CAT_LEN<12] yes=15,no=16,missing=16
				15:[D_TITLEMD5_COEC<0.034119] yes=31,no=32,missing=32
					31:[U_KW_LEN<54] yes=63,no=64,missing=64
						63:leaf=-0.0617041
						64:leaf=-0.0485308
					32:[D_PUBLISHER_COEC<0.027507] yes=65,no=66,missing=66
						65:leaf=-0.0583917
						66:leaf=-0.0408432
				16:[D_CATEGORY_MACRO_MAX_COEC<0.074153] yes=33,no=34,missing=34
					33:[D_TITLEMD5_COEC<0.015136] yes=67,no=68,missing=68
						67:leaf=-0.0485399
						68:leaf=-0.0317154
					34:[C_D_U_TITLEMD5_CATEGORY_MICRO_MEAN_COEC<0.012302] yes=69,no=70,missing=69
						69:leaf=-0.0224712
						70:leaf=0.00752855
			8:[D_TITLEMD5_COEC<0.080318] yes=17,no=18,missing=17
				17:[IMAGE_COUNT<2] yes=35,no=36,missing=36
					35:[WORD_COUNT<1438] yes=71,no=72,missing=72
						71:leaf=-0.048144
						72:leaf=-0.0323497
					36:[U_KW_LEN<167] yes=73,no=74,missing=74
						73:leaf=-0.0293082
						74:leaf=-0.00936548
				18:[D_PUBLISHER_COEC<0.115859] yes=37,no=38,missing=37
					37:[WORD_COUNT<892] yes=75,no=76,missing=76
						75:leaf=-0.0311605
						76:leaf=-0.014723
					38:[D_CATEGORY_MICRO_MEAN_COEC<0.059189] yes=77,no=78,missing=78
						77:leaf=-0.0156171
						78:leaf=0.00530709
		4:[U_KW_LEN<1077] yes=9,no=10,missing=10
			9:[D_TITLEMD5_COEC<0.026329] yes=19,no=20,missing=19
				19:[IMAGE_COUNT<0.999999] yes=39,no=40,missing=40
					39:[D_CATEGORY_MACRO_MAX_COEC<0.025106] yes=79,no=80,missing=80
						79:leaf=-0.095101
						80:leaf=-0.0551703
					40:[KW_REL<0.003411] yes=81,no=82,missing=82
						81:leaf=-0.0353886
						82:leaf=-0.0145612
				20:[TIME_OF_DAY<21] yes=41,no=42,missing=42
					41:[U_KW_LEN<265] yes=83,no=84,missing=84
						83:leaf=-0.0268296
						84:leaf=-0.0143808
					42:[DAY_OF_WEEK<2] yes=85,no=86,missing=86
						85:leaf=-0.0156346
						86:leaf=-0.0369544
			10:[D_TITLEMD5_COEC<0.015136] yes=21,no=22,missing=21
				21:[KW_REL<0.002598] yes=43,no=44,missing=44
					43:[D_TITLEMD5_COEC<0.015136] yes=87,no=88,missing=88
						87:leaf=-0.02385
						88:leaf=-0.0466811
					44:[CAT_REL<0.103546] yes=89,no=90,missing=90
						89:leaf=-0.014904
						90:leaf=0.00753699
				22:[U_KW_LEN<3552] yes=45,no=46,missing=46
					45:[TIME_OF_DAY<21] yes=91,no=92,missing=92
						91:leaf=-0.00460513
						92:leaf=-0.0226171
					46:[U_CAT_LEN<54] yes=93,no=94,missing=94
						93:leaf=0.0120558
						94:leaf=-0.14607
	2:[U_KW_LEN<635] yes=5,no=6,missing=6
		5:[D_PUBLISHER_COEC<0.044412] yes=11,no=12,missing=12
			11:[KW_REL<0.003099] yes=23,no=24,missing=24
				23:[D_PUBLISHER_COEC<0.027507] yes=47,no=48,missing=48
					47:[CAT_REL<0.117217] yes=95,no=96,missing=96
						95:leaf=-0.0574884
						96:leaf=-0.0408722
					48:[WORD_COUNT<3660] yes=97,no=98,missing=98
						97:leaf=-0.0325317
						98:leaf=-0.0170168
				24:[D_PUBLISHER_COEC<0.032312] yes=49,no=50,missing=50
					49:[U_KW_LEN<123] yes=99,no=100,missing=100
						99:leaf=-0.0457006
						100:leaf=-0.016348
					50:[TIME_OF_DAY<21] yes=101,no=102,missing=102
						101:leaf=0.0103902
						102:leaf=-0.0235203
			12:[TIME_OF_DAY<20] yes=25,no=26,missing=26
				25:[U_KW_LEN<100] yes=51,no=52,missing=52
					51:[D_KEYWORD_MACRO_MEAN_COEC<0.086964] yes=103,no=104,missing=104
						103:leaf=-0.0287692
						104:leaf=-0.013841
					52:[D_KEYWORD_MACRO_MAX_COEC<0.069722] yes=105,no=106,missing=106
						105:leaf=-0.00704825
						106:leaf=0.0156538
				26:[C_D_U_TITLEMD5_AGE_COEC<0.14214] yes=53,no=54,missing=53
					53:[C_D_U_TITLEMD5_CATEGORY_MACRO_MEAN_COEC<0.082984] yes=107,no=108,missing=108
						107:leaf=-0.0333946
						108:leaf=-0.0203783
					54:[U_KW_LEN<218] yes=109,no=110,missing=110
						109:leaf=-0.0173088
						110:leaf=0.00549437
		6:[D_PUBLISHER_COEC<0.026263] yes=13,no=14,missing=13
			13:[KW_REL<0.00114] yes=27,no=28,missing=28
				27:[D_TITLEMD5_COEC<0.052158] yes=55,no=56,missing=56
					55:[WORD_COUNT<1615] yes=111,no=112,missing=112
						111:leaf=-0.031873
						112:leaf=-0.0524441
					56:[D_CATEGORY_MACRO_MEAN_COEC<0.032438] yes=113,no=114,missing=113
						113:leaf=-0.0831797
						114:leaf=-0.0589705
				28:[KW_REL<0.010607] yes=57,no=58,missing=58
					57:[U_KW_LEN<4641] yes=115,no=116,missing=116
						115:leaf=-0.0239176
						116:leaf=0.0180906
					58:[D_CATEGORY_MICRO_MAX_COEC<0.034914] yes=117,no=118,missing=118
						117:leaf=0.0888982
						118:leaf=0.0209555
			14:[TIME_OF_DAY<21] yes=29,no=30,missing=30
				29:[KW_REL<0.000304] yes=59,no=60,missing=60
					59:[D_KEYWORD_MICRO_MEAN_COEC<0.067779] yes=119,no=120,missing=120
						119:leaf=-0.00967347
						120:leaf=0.00674958
					60:[D_KEYWORD_MACRO_MEAN_COEC<0.034258] yes=121,no=122,missing=122
						121:leaf=-0.000421749
						122:leaf=0.0158647
				30:[DAY_OF_WEEK<4] yes=61,no=62,missing=62
					61:[D_CATEGORY_MACRO_MAX_COEC<0.049167] yes=123,no=124,missing=124
						123:leaf=-0.0209866
						124:leaf=0.00139145
					62:[U_KW_LEN<2843] yes=125,no=126,missing=126
						125:leaf=-0.0270012
						126:leaf=0.00257522
booster[18]:
0:[C_D_U_TITLEMD5_CATEGORY_MICRO_MEAN_COEC<0.011621] yes=1,no=2,missing=1
	1:[D_PUBLISHER_COEC<0.054911] yes=3,no=4,missing=3
		3:[CAT_REL<0.005415] yes=7,no=8,missing=8
			7:[D_CATEGORY_MACRO_MEAN_COEC<0.044719] yes=15,no=16,missing=16
				15:[IMAGE_COUNT<0.999999] yes=31,no=32,missing=32
					31:[U_CAT_LEN<23] yes=63,no=64,missing=64
						63:leaf=-0.0786924
						64:leaf=-0.0541314
					32:[D_KEYWORD_MACRO_MEAN_COEC<0.034046] yes=65,no=66,missing=66
						65:leaf=-0.0520188
						66:leaf=-0.0407575
				16:[D_TITLEMD5_COEC<0.075153] yes=33,no=34,missing=34
					33:[U_CAT_LEN<19] yes=67,no=68,missing=68
						67:leaf=-0.0410796
						68:leaf=-0.0231379
					34:[D_CATEGORY_MACRO_MEAN_COEC<0.100253] yes=69,no=70,missing=69
						69:leaf=-0.0229532
						70:leaf=0.0300149
			8:[U_KW_LEN<5069] yes=17,no=18,missing=18
				17:[KW_REL<0.001922] yes=35,no=36,missing=36
					35:[D_CATEGORY_MICRO_MEAN_COEC<0.052971] yes=71,no=72,missing=71
						71:leaf=-0.0363511
						72:leaf=-0.0170316
					36:[WORD_COUNT<1024] yes=73,no=74,missing=74
						73:leaf=-0.0353972
						74:leaf=-0.00862908
				18:[U_CAT_LEN<32] yes=37,no=38,missing=38
					37:[U_CAT_LEN<8] yes=75,no=76,missing=76
						75:leaf=0.218051
						76:leaf=0.0190041
					38:[U_CAT_LEN<54] yes=77,no=78,missing=78
						77:leaf=-0.0117396
						78:leaf=-0.121191
		4:[D_TITLEMD5_COEC<0.089606] yes=9,no=10,missing=9
			9:[U_KW_LEN<246] yes=19,no=20,missing=20
				19:[D_TITLEMD5_COEC<0.05864] yes=39,no=40,missing=40
					39:[D_KEYWORD_MICRO_MAX_COEC<0.158208] yes=79,no=80,missing=80
						79:leaf=-0.039159
						80:leaf=0.0115427
					40:[DAY_OF_WEEK<3] yes=81,no=82,missing=82
						81:leaf=-0.0168921
						82:leaf=-0.0269125
				20:[D_KEYWORD_MICRO_MEAN_COEC<0.038648] yes=41,no=42,missing=42
					41:[KW_REL<0.000421] yes=83,no=84,missing=84
						83:leaf=-0.0292302
						84:leaf=-0.00406899
					42:[WORD_COUNT<2133] yes=85,no=86,missing=86
						85:leaf=-0.00941092
						86:leaf=0.00884249
			10:[D_KEYWORD_MICRO_MAX_COEC<0.144251] yes=21,no=22,missing=22
				21:[CAT_REL<0.002881] yes=43,no=44,missing=44
					43:[TIME_OF_DAY<20] yes=87,no=88,missing=88
						87:leaf=-0.0132129
						88:leaf=-0.0218613
					44:[TIME_OF_DAY<14] yes=89,no=90,missing=90
						89:leaf=-0.0130294
						90:leaf=0.0332007
				22:[D_KEYWORD_MICRO_MEAN_COEC<0.0454] yes=45,no=46,missing=46
					45:[KW_REL<0.000585] yes=91,no=92,missing=92
						91:leaf=-0.061725
						92:leaf=0.00627537
					46:[U_CAT_LEN<17] yes=93,no=94,missing=94
						93:leaf=-0.00380347
						94:leaf=0.03342
	2:[U_KW_LEN<1750] yes=5,no=6,missing=6
		5:[D_KEYWORD_MICRO_MEAN_COEC<0.063403] yes=11,no=12,missing=12
			11:[KW_REL<8.3e-05] yes=23,no=24,missing=24
				23:[DAY_OF_WEEK<3] yes=47,no=48,missing=48
					47:[D_KEYWORD_MACRO_MAX_COEC<0.008404] yes=95,no=96,missing=96
						95:leaf=-0.0356576
						96:leaf=-0.0163822
					48:[CAT_REL<0.027846] yes=97,no=98,missing=98
						97:leaf=-0.0380665
						98:leaf=-0.0242723
				24:[D_KEYWORD_MACRO_MEAN_COEC<0.032701] yes=49,no=50,missing=50
					49:[CAT_REL<0.087497] yes=99,no=100,missing=100
						99:leaf=-0.0298761
						100:leaf=-0.011483
					50:[DAY_OF_WEEK<3] yes=101,no=102,missing=102
						101:leaf=0.000667997
						102:leaf=-0.013519
			12:[DAY_OF_WEEK<5] yes=25,no=26,missing=26
				25:[C_D_U_TITLEMD5_CATEGORY_MICRO_MAX_COEC<0.2036] yes=51,no=52,missing=52
					51:[TIME_OF_DAY<21] yes=103,no=104,missing=104
						103:leaf=-0.00593441
						104:leaf=-0.0210909
					52:[D_TITLEMD5_COEC<0.068053] yes=105,no=106,missing=106
						105:leaf=-0.0233309
						106:leaf=0.00656864
				26:[KW_REL<1.4e-05] yes=53,no=54,missing=54
					53:[TIME_OF_DAY<15] yes=107,no=108,missing=108
						107:leaf=-0.016126
						108:leaf=-0.029927
					54:[D_TITLEMD5_COEC<0.065025] yes=109,no=110,missing=110
						109:leaf=-0.0288599
						110:leaf=-0.00426709
		6:[U_KW_LEN<6357] yes=13,no=14,missing=14
			13:[KW_REL<5e-06] yes=27,no=28,missing=28
				27:[D_PUBLISHER_COEC<0.04741] yes=55,no=56,missing=55
					55:[C_D_U_TITLEMD5_CATEGORY_MICRO_MEAN_COEC<0.210485] yes=111,no=112,missing=112
						111:leaf=-0.0147284
						112:leaf=-0.0475335
					56:[DAY_OF_WEEK<5] yes=113,no=114,missing=114
						113:leaf=0.00616345
						114:leaf=-0.0137635
				28:[D_KEYWORD_MACRO_MEAN_COEC<0.03849] yes=57,no=58,missing=58
					57:[CAT_REL<0.112342] yes=115,no=116,missing=116
						115:leaf=-0.00529055
						116:leaf=0.0189689
					58:[WORD_COUNT<1299] yes=117,no=118,missing=118
						117:leaf=-0.00430488
						118:leaf=0.0155118
			14:[U_CAT_LEN<41] yes=29,no=30,missing=30
				29:[C_D_U_TITLEMD5_AGE_COEC<0.083521] yes=59,no=60,missing=59
					59:[U_CAT_LEN<20] yes=119,no=120,missing=120
						119:leaf=-0.0227708
						120:leaf=0.0349888
					60:[U_CAT_LEN<27] yes=121,no=122,missing=122
						121:leaf=0.0368162
						122:leaf=0.0740904
				30:[U_CAT_LEN<54] yes=61,no=62,missing=62
					61:[U_CAT_LEN<45] yes=123,no=124,missing=124
						123:leaf=-0.0411173
						124:leaf=0.0350328
					62:[C_D_U_TITLEMD5_AGE_COEC<0.090987] yes=125,no=126,missing=125
						125:leaf=-0.154519
						126:leaf=-0.0795274
booster[19]:
0:[C_D_U_TITLEMD5_CATEGORY_MICRO_MEAN_COEC<0.012461] yes=1,no=2,missing=1
	1:[D_KEYWORD_MICRO_MEAN_COEC<0.05424] yes=3,no=4,missing=4
		3:[CAT_REL<0.005564] yes=7,no=8,missing=8
			7:[D_KEYWORD_MICRO_MEAN_COEC<0.041016] yes=15,no=16,missing=16
				15:[U_KW_LEN<209] yes=31,no=32,missing=32
					31:[D_TITLEMD5_COEC<0.030729] yes=63,no=64,missing=64
						63:leaf=-0.0568574
						64:leaf=-0.0448682
					32:[D_CATEGORY_MICRO_MEAN_COEC<0.053406] yes=65,no=66,missing=66
						65:leaf=-0.0439911
						66:leaf=-0.0245593
				16:[U_CAT_LEN<20] yes=33,no=34,missing=34
					33:[D_TITLEMD5_COEC<0.039172] yes=67,no=68,missing=68
						67:leaf=-0.0439386
						68:leaf=-0.0321898
					34:[D_PUBLISHER_COEC<0.051404] yes=69,no=70,missing=69
						69:leaf=-0.0257314
						70:leaf=0.00268982
			8:[U_KW_LEN<2787] yes=17,no=18,missing=18
				17:[D_TITLEMD5_COEC<0.010705] yes=35,no=36,missing=35
					35:[KW_REL<0.001604] yes=71,no=72,missing=72
						71:leaf=-0.0373896
						72:leaf=-0.0177624
					36:[D_CATEGORY_MICRO_MEAN_COEC<0.053406] yes=73,no=74,missing=74
						73:leaf=-0.0213882
						74:leaf=-0.00758403
				18:[D_PUBLISHER_COEC<0.025553] yes=37,no=38,missing=37
					37:[KW_REL<0.000128] yes=75,no=76,missing=76
						75:leaf=-0.0392574
						76:leaf=-0.0139382
					38:[U_KW_LEN<6406] yes=77,no=78,missing=78
						77:leaf=-0.00464466
						78:leaf=0.0225906
		4:[D_TITLEMD5_COEC<0.080363] yes=9,no=10,missing=10
			9:[U_CAT_LEN<14] yes=19,no=20,missing=20
				19:[D_TITLEMD5_COEC<0.058817] yes=39,no=40,missing=40
					39:[U_KW_LEN<107] yes=79,no=80,missing=80
						79:leaf=-0.0394263
						80:leaf=-0.0207278
					40:[D_KEYWORD_MACRO_MAX_COEC<0.005019] yes=81,no=82,missing=82
						81:leaf=0.0100083
						82:leaf=-0.0239163
				20:[D_TITLEMD5_COEC<0.022649] yes=41,no=42,missing=42
					41:[D_CATEGORY_MACRO_MAX_COEC<0.028592] yes=83,no=84,missing=84
						83:leaf=-0.0428626
						84:leaf=-0.0112471
					42:[TIME_OF_DAY<20] yes=85,no=86,missing=86
						85:leaf=0.0088475
						86:leaf=-0.0201239
			10:[D_PUBLISHER_COEC<0.029331] yes=21,no=22,missing=22
				21:[D_CATEGORY_MACRO_MAX_COEC<0.033584] yes=43,no=44,missing=44
					43:[U_CAT_LEN<19] yes=87,no=88,missing=88
						87:leaf=-0.064511
						88:leaf=-0.0437047
					44:[KW_REL<0.000421] yes=89,no=90,missing=90
						89:leaf=-0.0430251
						90:leaf=-0.00886507
				22:[KW_REL<2e-05] yes=45,no=46,missing=46
					45:[D_KEYWORD_MICRO_MAX_COEC<0.129997] yes=91,no=92,missing=91
						91:leaf=-0.0156783
						92:leaf=-0.00583896
					46:[D_CATEGORY_MACRO_MAX_COEC<0.099815] yes=93,no=94,missing=93
						93:leaf=0.0117259
						94:leaf=0.0768212
	2:[U_KW_LEN<297] yes=5,no=6,missing=6
		5:[D_PUBLISHER_COEC<0.047704] yes=11,no=12,missing=12
			11:[CAT_REL<0.182789] yes=23,no=24,missing=24
				23:[D_TITLEMD5_COEC<0.048979] yes=47,no=48,missing=48
					47:[C_D_U_TITLEMD5_CATEGORY_MACRO_MAX_COEC<0.056269] yes=95,no=96,missing=96
						95:leaf=-0.0374545
						96:leaf=-0.0494137
					48:[DAY_OF_WEEK<5] yes=97,no=98,missing=98
						97:leaf=-0.024307
						98:leaf=-0.0422557
				24:[U_KW_LEN<119] yes=49,no=50,missing=50
					49:[U_KW_LEN<55] yes=99,no=100,missing=100
						99:leaf=-0.0572515
						100:leaf=-0.0314567
					50:[CAT_REL<0.334191] yes=101,no=102,missing=102
						101:leaf=-0.0132575
						102:leaf=0.0113719
			12:[C_D_U_TITLEMD5_CATEGORY_MACRO_MEAN_COEC<0.116265] yes=25,no=26,missing=26
				25:[U_KW_LEN<55] yes=51,no=52,missing=52
					51:[C_D_U_TITLEMD5_AGE_COEC<0.142289] yes=103,no=104,missing=103
						103:leaf=-0.0482637
						104:leaf=-0.0013337
					52:[TIME_OF_DAY<21] yes=105,no=106,missing=106
						105:leaf=-0.0175418
						106:leaf=-0.0301286
				26:[CAT_REL<0.072411] yes=53,no=54,missing=54
					53:[D_TITLEMD5_COEC<0.106939] yes=107,no=108,missing=108
						107:leaf=-0.022566
						108:leaf=-0.00922578
					54:[U_KW_LEN<70] yes=109,no=110,missing=110
						109:leaf=-0.0215583
						110:leaf=0.0033124
		6:[CAT_REL<0.030679] yes=13,no=14,missing=14
			13:[D_TITLEMD5_COEC<0.074277] yes=27,no=28,missing=28
				27:[U_KW_LEN<2655] yes=55,no=56,missing=56
					55:[DAY_OF_WEEK<3] yes=111,no=112,missing=112
						111:leaf=-0.0117366
						112:leaf=-0.0255669
					56:[D_PUBLISHER_COEC<0.027092] yes=113,no=114,missing=114
						113:leaf=-0.0303631
						114:leaf=0.000849506
				28:[C_D_U_TITLEMD5_AGE_COEC<0.140597] yes=57,no=58,missing=57
					57:[D_PUBLISHER_COEC<0.033918] yes=115,no=116,missing=116
						115:leaf=-0.0562492
						116:leaf=-0.00444362
					58:[D_PUBLISHER_COEC<0.081622] yes=117,no=118,missing=118
						117:leaf=0.00444622
						118:leaf=0.0216513
			14:[D_CATEGORY_MICRO_MEAN_COEC<0.053406] yes=29,no=30,missing=29
				29:[CAT_REL<0.141207] yes=59,no=60,missing=60
					59:[U_KW_LEN<1051] yes=119,no=120,missing=120
						119:leaf=-0.0193627
						120:leaf=-0.00163254
					60:[KW_REL<0.004398] yes=121,no=122,missing=122
						121:leaf=0.00364883
						122:leaf=0.022025
				30:[D_TITLEMD5_COEC<0.047785] yes=61,no=62,missing=62
					61:[U_KW_LEN<1263] yes=123,no=124,missing=124
						123:leaf=-0.0105957
						124:leaf=0.00535089
					62:[D_CATEGORY_MICRO_MAX_COEC<0.07901] yes=125,no=126,missing=126
						125:leaf=0.0149439
						126:leaf=-0.0106944
booster[20]:
0:[C_D_U_TITLEMD5_CATEGORY_MICRO_MEAN_COEC<0.084926] yes=1,no=2,missing=1
	1:[KW_REL<1.6e-05] yes=3,no=4,missing=4
		3:[D_PUBLISHER_COEC<0.048314] yes=7,no=8,missing=7
			7:[U_CAT_LEN<13] yes=15,no=16,missing=16
				15:[D_KEYWORD_MACRO_MEAN_COEC<0.033653] yes=31,no=32,missing=31
					31:[D_CATEGORY_MICRO_MEAN_COEC<0.053702] yes=63,no=64,missing=63
						63:leaf=-0.0500193
						64:leaf=-0.0353608
					32:[D_TITLEMD5_COEC<0.051276] yes=65,no=66,missing=65
						65:leaf=-0.0380872
						66:leaf=-0.0282346
				16:[D_TITLEMD5_COEC<0.010621] yes=33,no=34,missing=33
					33:[D_CATEGORY_MACRO_MAX_COEC<0.05279] yes=67,no=68,missing=68
						67:leaf=-0.0404301
						68:leaf=-0.0242379
					34:[U_KW_LEN<6392] yes=69,no=70,missing=70
						69:leaf=-0.021085
						70:leaf=0.0131882
			8:[D_TITLEMD5_COEC<0.09557] yes=17,no=18,missing=17
				17:[U_KW_LEN<2209] yes=35,no=36,missing=36
					35:[DAY_OF_WEEK<3] yes=71,no=72,missing=72
						71:leaf=-0.0173805
						72:leaf=-0.0282412
					36:[U_CAT_LEN<23] yes=73,no=74,missing=74
						73:leaf=-0.0156014
						74:leaf=0.00355816
				18:[D_KEYWORD_MACRO_MEAN_COEC<0.132436] yes=37,no=38,missing=38
					37:[WORD_COUNT<2295] yes=75,no=76,missing=76
						75:leaf=-0.0136528
						76:leaf=-0.00606313
					38:[D_PUBLISHER_COEC<0.116011] yes=77,no=78,missing=78
						77:leaf=-0.00806067
						78:leaf=0.00675778
		4:[U_KW_LEN<1430] yes=9,no=10,missing=10
			9:[D_CATEGORY_MICRO_MEAN_COEC<0.044075] yes=19,no=20,missing=20
				19:[IMAGE_COUNT<0.999999] yes=39,no=40,missing=40
					39:[CAT_REL<0.078989] yes=79,no=80,missing=80
						79:leaf=-0.0664258
						80:leaf=-0.0451052
					40:[KW_REL<0.003385] yes=81,no=82,missing=82
						81:leaf=-0.0251103
						82:leaf=-0.0074847
				20:[CAT_REL<0.037481] yes=41,no=42,missing=42
					41:[D_TITLEMD5_COEC<0.078456] yes=83,no=84,missing=84
						83:leaf=-0.0184927
						84:leaf=-0.00148185
					42:[D_TITLEMD5_COEC<0.024929] yes=85,no=86,missing=86
						85:leaf=-0.0173303
						86:leaf=0.00223042
			10:[D_PUBLISHER_COEC<0.026273] yes=21,no=22,missing=21
				21:[KW_REL<0.001109] yes=43,no=44,missing=44
					43:[D_TITLEMD5_COEC<0.037908] yes=87,no=88,missing=88
						87:leaf=-0.0227992
						88:leaf=-0.0435911
					44:[IMAGE_COUNT<0.999999] yes=89,no=90,missing=90
						89:leaf=-0.0581825
						90:leaf=-0.00410334
				22:[U_KW_LEN<3616] yes=45,no=46,missing=46
					45:[CAT_REL<0.028997] yes=91,no=92,missing=92
						91:leaf=-0.0101103
						92:leaf=0.00100043
					46:[U_CAT_LEN<54] yes=93,no=94,missing=94
						93:leaf=0.0116733
						94:leaf=-0.13749
	2:[KW_REL<1.6e-05] yes=5,no=6,missing=6
		5:[D_CATEGORY_MACRO_MAX_COEC<0.05279] yes=11,no=12,missing=12
			11:[C_D_U_TITLEMD5_CATEGORY_MACRO_MAX_COEC<0.035908] yes=23,no=24,missing=24
				23:[D_CATEGORY_MACRO_MAX_COEC<0.020622] yes=47,no=48,missing=48
					47:[D_KEYWORD_MACRO_MEAN_COEC<0.031291] yes=95,no=96,missing=96
						95:leaf=-0.035727
						96:leaf=0.0184495
					48:[D_KEYWORD_MICRO_MEAN_COEC<0.071199] yes=97,no=98,missing=98
						97:leaf=-0.0217751
						98:leaf=-0.000673805
				24:[D_PUBLISHER_COEC<0.047584] yes=49,no=50,missing=50
					49:[C_D_U_TITLEMD5_CATEGORY_MICRO_MEAN_COEC<0.269244] yes=99,no=100,missing=100
						99:leaf=-0.038368
						100:leaf=-0.0602016
					50:[D_KEYWORD_MACRO_MAX_COEC<0.028089] yes=101,no=102,missing=102
						101:leaf=-0.0137146
						102:leaf=-0.0408937
			12:[DAY_OF_WEEK<5] yes=25,no=26,missing=26
				25:[U_KW_LEN<268] yes=51,no=52,missing=52
					51:[D_TITLEMD5_COEC<0.084329] yes=103,no=104,missing=104
						103:leaf=-0.0240263
						104:leaf=-0.00993596
					52:[WORD_COUNT<4052] yes=105,no=106,missing=106
						105:leaf=-0.00194115
						106:leaf=0.0177472
				26:[U_KW_LEN<3291] yes=53,no=54,missing=54
					53:[TIME_OF_DAY<20] yes=107,no=108,missing=108
						107:leaf=-0.0158194
						108:leaf=-0.030695
					54:[D_KEYWORD_MICRO_MEAN_COEC<0.065615] yes=109,no=110,missing=110
						109:leaf=-0.0109251
						110:leaf=0.0171423
		6:[D_PUBLISHER_COEC<0.026273] yes=13,no=14,missing=14
			13:[KW_REL<0.000669] yes=27,no=28,missing=28
				27:[U_KW_LEN<6392] yes=55,no=56,missing=56
					55:[D_KEYWORD_MACRO_MAX_COEC<0.014891] yes=111,no=112,missing=112
						111:leaf=-0.0426475
						112:leaf=-0.0632259
					56:[C_D_U_PUBLISHER_AGE_COEC<0.064202] yes=113,no=114,missing=113
						113:leaf=-0.00745985
						114:leaf=0.123622
				28:[KW_REL<0.009093] yes=57,no=58,missing=58
					57:[U_KW_LEN<646] yes=115,no=116,missing=116
						115:leaf=-0.0435014
						116:leaf=-0.0180821
					58:[D_KEYWORD_MICRO_MEAN_COEC<0.031021] yes=117,no=118,missing=118
						117:leaf=0.0541108
						118:leaf=-0.00447168
			14:[TIME_OF_DAY<20] yes=29,no=30,missing=30
				29:[U_KW_LEN<1223] yes=59,no=60,missing=60
					59:[D_PUBLISHER_COEC<0.116011] yes=119,no=120,missing=120
						119:leaf=-0.000683343
						120:leaf=0.024471
					60:[C_D_U_TITLEMD5_CATEGORY_MICRO_MEAN_COEC<0.382633] yes=121,no=122,missing=122
						121:leaf=0.0132439
						122:leaf=-0.0255421
				30:[U_KW_LEN<2012] yes=61,no=62,missing=62
					61:[D_KEYWORD_MICRO_MAX_COEC<0.149212] yes=123,no=124,missing=124
						123:leaf=-0.0136299
						124:leaf=0.00450857
					62:[C_D_U_TITLEMD5_CATEGORY_MACRO_MEAN_COEC<0.047635] yes=125,no=126,missing=126
						125:leaf=-0.00530291
						126:leaf=0.012817
booster[21]:
0:[U_KW_LEN<246] yes=1,no=2,missing=2
	1:[D_TITLEMD5_COEC<0.050181] yes=3,no=4,missing=3
		3:[U_KW_LEN<74] yes=7,no=8,missing=8
			7:[D_TITLEMD5_COEC<0.031152] yes=15,no=16,missing=16
				15:[D_CATEGORY_MACRO_MEAN_COEC<0.049965] yes=31,no=32,missing=31
					31:[D_KEYWORD_MACRO_MEAN_COEC<0.014781] yes=63,no=64,missing=64
						63:leaf=-0.0700231
						64:leaf=-0.05006
					32:[D_PUBLISHER_COEC<0.088459] yes=65,no=66,missing=66
						65:leaf=-0.0401087
						66:leaf=0.011331
				16:[D_KEYWORD_MICRO_MEAN_COEC<0.036269] yes=33,no=34,missing=34
					33:[WORD_COUNT<10110] yes=67,no=68,missing=68
						67:leaf=-0.0462997
						68:leaf=-0.0206754
					34:[WORD_COUNT<1718] yes=69,no=70,missing=70
						69:leaf=-0.040092
						70:leaf=-0.0301026
			8:[D_KEYWORD_MACRO_MEAN_COEC<0.031104] yes=17,no=18,missing=18
				17:[CAT_REL<0.324512] yes=35,no=36,missing=36
					35:[D_CATEGORY_MICRO_MEAN_COEC<0.041735] yes=71,no=72,missing=72
						71:leaf=-0.0410915
						72:leaf=-0.0279919
					36:[U_KW_LEN<167] yes=73,no=74,missing=74
						73:leaf=-0.0250897
						74:leaf=0.0109764
				18:[TIME_OF_DAY<21] yes=37,no=38,missing=38
					37:[DAY_OF_WEEK<5] yes=75,no=76,missing=76
						75:leaf=-0.0174615
						76:leaf=-0.0324014
					38:[D_CATEGORY_MACRO_MAX_COEC<0.044855] yes=77,no=78,missing=78
						77:leaf=-0.0422306
						78:leaf=-0.0292532
		4:[D_KEYWORD_MICRO_MEAN_COEC<0.062344] yes=9,no=10,missing=10
			9:[D_PUBLISHER_COEC<0.027591] yes=19,no=20,missing=19
				19:[D_CATEGORY_MACRO_MEAN_COEC<0.041578] yes=39,no=40,missing=39
					39:[KW_REL<0.004345] yes=79,no=80,missing=80
						79:leaf=-0.0639175
						80:leaf=-0.0229432
					40:[WORD_COUNT<2937] yes=81,no=82,missing=82
						81:leaf=-0.0465968
						82:leaf=-0.0139414
				20:[DAY_OF_WEEK<5] yes=41,no=42,missing=42
					41:[WORD_COUNT<1496] yes=83,no=84,missing=84
						83:leaf=-0.0315547
						84:leaf=-0.0182681
					42:[D_CATEGORY_MACRO_MEAN_COEC<0.100763] yes=85,no=86,missing=85
						85:leaf=-0.035647
						86:leaf=0.0945435
			10:[D_TITLEMD5_COEC<0.110454] yes=21,no=22,missing=22
				21:[D_KEYWORD_MACRO_MAX_COEC<0.016107] yes=43,no=44,missing=44
					43:[D_PUBLISHER_COEC<0.046005] yes=87,no=88,missing=88
						87:leaf=-0.0309981
						88:leaf=-0.00219297
					44:[D_PUBLISHER_COEC<0.03815] yes=89,no=90,missing=90
						89:leaf=-0.0459102
						90:leaf=-0.0180901
				22:[TIME_OF_DAY<20] yes=45,no=46,missing=46
					45:[D_KEYWORD_MICRO_MAX_COEC<0.162082] yes=91,no=92,missing=92
						91:leaf=-0.00693863
						92:leaf=0.00358463
					46:[D_KEYWORD_MICRO_MEAN_COEC<0.072779] yes=93,no=94,missing=94
						93:leaf=-0.053818
						94:leaf=-0.0132022
	2:[D_KEYWORD_MACRO_MEAN_COEC<0.034184] yes=5,no=6,missing=6
		5:[KW_REL<0.000954] yes=11,no=12,missing=12
			11:[D_CATEGORY_MACRO_MEAN_COEC<0.038077] yes=23,no=24,missing=24
				23:[IMAGE_COUNT<2] yes=47,no=48,missing=48
					47:[CAT_REL<0.030702] yes=95,no=96,missing=96
						95:leaf=-0.0397247
						96:leaf=-0.0236455
					48:[D_CATEGORY_MICRO_MAX_COEC<0.03328] yes=97,no=98,missing=98
						97:leaf=-0.0140033
						98:leaf=-0.0332017
				24:[D_PUBLISHER_COEC<0.02449] yes=49,no=50,missing=50
					49:[D_KEYWORD_MACRO_MAX_COEC<0.014635] yes=99,no=100,missing=100
						99:leaf=-0.0301068
						100:leaf=-0.0573034
					50:[U_KW_LEN<3635] yes=101,no=102,missing=102
						101:leaf=-0.0150164
						102:leaf=0.005645
			12:[CAT_REL<0.115333] yes=25,no=26,missing=26
				25:[U_KW_LEN<1442] yes=51,no=52,missing=52
					51:[IMAGE_COUNT<0.999999] yes=103,no=104,missing=104
						103:leaf=-0.0513613
						104:leaf=-0.0207259
					52:[D_TITLEMD5_COEC<0.049415] yes=105,no=106,missing=106
						105:leaf=4.56418e-05
						106:leaf=-0.0284208
				26:[KW_REL<0.010301] yes=53,no=54,missing=54
					53:[U_KW_LEN<4690] yes=107,no=108,missing=108
						107:leaf=0.000115818
						108:leaf=0.0481081
					54:[WORD_COUNT<892] yes=109,no=110,missing=110
						109:leaf=-0.0295449
						110:leaf=0.0370355
		6:[CAT_REL<0.002864] yes=13,no=14,missing=14
			13:[D_CATEGORY_MACRO_MAX_COEC<0.089234] yes=27,no=28,missing=28
				27:[D_KEYWORD_MACRO_MAX_COEC<0.005485] yes=55,no=56,missing=56
					55:[D_KEYWORD_MICRO_MEAN_COEC<0.048586] yes=111,no=112,missing=112
						111:leaf=-0.0230094
						112:leaf=0.0488797
					56:[DAY_OF_WEEK<5] yes=113,no=114,missing=114
						113:leaf=-0.00978676
						114:leaf=-0.0236923
				28:[D_KEYWORD_MACRO_MAX_COEC<0.036475] yes=57,no=58,missing=58
					57:[D_KEYWORD_MICRO_MEAN_COEC<0.047214] yes=115,no=116,missing=116
						115:leaf=-0.0177282
						116:leaf=0.0258707
					58:[WORD_COUNT<2030] yes=117,no=118,missing=118
						117:leaf=-0.0364101
						118:leaf=0.00306855
			14:[TIME_OF_DAY<21] yes=29,no=30,missing=30
				29:[WORD_COUNT<1299] yes=59,no=60,missing=60
					59:[D_CATEGORY_MACRO_MAX_COEC<0.053512] yes=119,no=120,missing=120
						119:leaf=-0.0211076
						120:leaf=-0.00136687
					60:[D_PUBLISHER_COEC<0.026963] yes=121,no=122,missing=121
						121:leaf=-0.0274718
						122:leaf=0.00955982
				30:[DAY_OF_WEEK<5] yes=61,no=62,missing=62
					61:[WORD_COUNT<4808] yes=123,no=124,missing=124
						123:leaf=-0.0033752
						124:leaf=-0.0309764
					62:[D_KEYWORD_MACRO_MAX_COEC<0.042715] yes=125,no=126,missing=126
						125:leaf=-0.0305266
						126:leaf=-0.00259883
booster[22]:
0:[C_D_U_TITLEMD5_CATEGORY_MICRO_MEAN_COEC<0.012695] yes=1,no=2,missing=1
	1:[D_KEYWORD_MICRO_MEAN_COEC<0.05352] yes=3,no=4,missing=4
		3:[KW_REL<1.4e-05] yes=7,no=8,missing=8
			7:[D_CATEGORY_MACRO_MEAN_COEC<0.043061] yes=15,no=16,missing=15
				15:[IMAGE_COUNT<2] yes=31,no=32,missing=32
					31:[WORD_COUNT<1024] yes=63,no=64,missing=64
						63:leaf=-0.0569204
						64:leaf=-0.0396753
					32:[D_KEYWORD_MACRO_MAX_COEC<0.006126] yes=65,no=66,missing=66
						65:leaf=-0.0358611
						66:leaf=-0.0239735
				16:[U_CAT_LEN<22] yes=33,no=34,missing=34
					33:[D_PUBLISHER_COEC<0.056516] yes=67,no=68,missing=67
						67:leaf=-0.0311646
						68:leaf=-0.0191099
					34:[U_CAT_LEN<54] yes=69,no=70,missing=70
						69:leaf=-0.0093692
						70:leaf=-0.115241
			8:[U_KW_LEN<1502] yes=17,no=18,missing=18
				17:[IMAGE_COUNT<0.999999] yes=35,no=36,missing=36
					35:[D_CATEGORY_MACRO_MAX_COEC<0.055975] yes=71,no=72,missing=72
						71:leaf=-0.0506587
						72:leaf=-0.0267569
					36:[KW_REL<0.009204] yes=73,no=74,missing=74
						73:leaf=-0.0206261
						74:leaf=0.00854512
				18:[D_TITLEMD5_COEC<0.216955] yes=37,no=38,missing=38
					37:[CAT_REL<0.033692] yes=75,no=76,missing=76
						75:leaf=-0.014788
						76:leaf=0.00405041
					38:[U_KW_LEN<4764] yes=77,no=78,missing=78
						77:leaf=-0.0371235
						78:leaf=-0.00815867
		4:[D_TITLEMD5_COEC<0.075833] yes=9,no=10,missing=10
			9:[U_CAT_LEN<14] yes=19,no=20,missing=20
				19:[D_TITLEMD5_COEC<0.062675] yes=39,no=40,missing=40
					39:[U_KW_LEN<109] yes=79,no=80,missing=80
						79:leaf=-0.0304103
						80:leaf=-0.0160851
					40:[D_KEYWORD_MACRO_MAX_COEC<0.008841] yes=81,no=82,missing=82
						81:leaf=0.00566524
						82:leaf=-0.0180419
				20:[D_TITLEMD5_COEC<0.022549] yes=41,no=42,missing=42
					41:[D_CATEGORY_MACRO_MAX_COEC<0.028681] yes=83,no=84,missing=84
						83:leaf=-0.035616
						84:leaf=-0.00833336
					42:[TIME_OF_DAY<20] yes=85,no=86,missing=86
						85:leaf=0.00861734
						86:leaf=-0.0144797
			10:[D_PUBLISHER_COEC<0.122724] yes=21,no=22,missing=22
				21:[D_PUBLISHER_COEC<0.029507] yes=43,no=44,missing=44
					43:[D_CATEGORY_MACRO_MAX_COEC<0.03091] yes=87,no=88,missing=87
						87:leaf=-0.0474357
						88:leaf=-0.02695
					44:[U_CAT_LEN<13] yes=89,no=90,missing=90
						89:leaf=-0.0106692
						90:leaf=0.0112734
				22:[D_KEYWORD_MACRO_MAX_COEC<0.009525] yes=45,no=46,missing=46
					45:[D_CATEGORY_MACRO_MAX_COEC<0.100735] yes=91,no=92,missing=91
						91:leaf=-0.0183171
						92:leaf=0.212274
					46:[D_TITLEMD5_COEC<0.126956] yes=93,no=94,missing=94
						93:leaf=0.0355777
						94:leaf=0.00323161
	2:[U_KW_LEN<1851] yes=5,no=6,missing=6
		5:[C_D_U_TITLEMD5_CATEGORY_MACRO_MEAN_COEC<0.061507] yes=11,no=12,missing=12
			11:[TIME_OF_DAY<21] yes=23,no=24,missing=24
				23:[KW_REL<0.000328] yes=47,no=48,missing=48
					47:[CAT_REL<0.015116] yes=95,no=96,missing=96
						95:leaf=-0.0207554
						96:leaf=-0.0101684
					48:[U_KW_LEN<494] yes=97,no=98,missing=98
						97:leaf=-0.017036
						98:leaf=-0.00151021
				24:[DAY_OF_WEEK<2] yes=49,no=50,missing=50
					49:[D_KEYWORD_MICRO_MEAN_COEC<0.038] yes=99,no=100,missing=100
						99:leaf=-0.0287258
						100:leaf=-0.00521779
					50:[IMAGE_COUNT<0.999999] yes=101,no=102,missing=102
						101:leaf=-0.0589448
						102:leaf=-0.0281165
			12:[U_KW_LEN<196] yes=25,no=26,missing=26
				25:[D_PUBLISHER_COEC<0.051585] yes=51,no=52,missing=52
					51:[KW_REL<1.4e-05] yes=103,no=104,missing=104
						103:leaf=-0.0298268
						104:leaf=-0.0172197
					52:[DAY_OF_WEEK<5] yes=105,no=106,missing=106
						105:leaf=-0.00822938
						106:leaf=-0.0191294
				26:[CAT_REL<0.054358] yes=53,no=54,missing=54
					53:[D_KEYWORD_MACRO_MEAN_COEC<0.040106] yes=107,no=108,missing=108
						107:leaf=-0.0256263
						108:leaf=-0.00309489
					54:[C_D_U_TITLEMD5_CATEGORY_MICRO_MAX_COEC<0.388011] yes=109,no=110,missing=110
						109:leaf=0.0126554
						110:leaf=-0.00424076
		6:[U_KW_LEN<3594] yes=13,no=14,missing=14
			13:[C_D_U_TITLEMD5_AGE_COEC<0.048005] yes=27,no=28,missing=28
				27:[KW_REL<0.000349] yes=55,no=56,missing=56
					55:[C_D_U_TITLEMD5_CATEGORY_MACRO_MAX_COEC<0.02031] yes=111,no=112,missing=112
						111:leaf=-0.0269212
						112:leaf=-0.0522439
					56:[TIME_OF_DAY<11] yes=113,no=114,missing=114
						113:leaf=-0.000174182
						114:leaf=-0.0232818
				28:[C_D_U_TITLEMD5_GENDER_COEC<0.071996] yes=57,no=58,missing=57
					57:[TIME_OF_DAY<20] yes=115,no=116,missing=116
						115:leaf=0.00277528
						116:leaf=-0.010014
					58:[KW_REL<0.000537] yes=117,no=118,missing=118
						117:leaf=0.0118131
						118:leaf=0.0286274
			14:[U_KW_LEN<6361] yes=29,no=30,missing=30
				29:[C_D_U_TITLEMD5_AGE_COEC<0.021706] yes=59,no=60,missing=60
					59:[CAT_REL<0.131979] yes=119,no=120,missing=120
						119:leaf=-0.0356779
						120:leaf=0.0133113
					60:[D_PUBLISHER_COEC<0.064138] yes=121,no=122,missing=122
						121:leaf=0.00793234
						122:leaf=0.0241056
				30:[U_CAT_LEN<54] yes=61,no=62,missing=62
					61:[U_CAT_LEN<35] yes=123,no=124,missing=124
						123:leaf=0.0392379
						124:leaf=0.0129857
					62:[C_D_U_PUBLISHER_GENDER_COEC<0.090784] yes=125,no=126,missing=126
						125:leaf=-0.0848583
						126:leaf=-0.144996
booster[23]:
0:[U_KW_LEN<272] yes=1,no=2,missing=2
	1:[D_TITLEMD5_COEC<0.048616] yes=3,no=4,missing=3
		3:[U_KW_LEN<108] yes=7,no=8,missing=8
			7:[D_TITLEMD5_COEC<0.026637] yes=15,no=16,missing=16
				15:[D_CATEGORY_MICRO_MEAN_COEC<0.052534] yes=31,no=32,missing=31
					31:[D_PUBLISHER_COEC<0.121032] yes=63,no=64,missing=63
						63:leaf=-0.048735
						64:leaf=0.061371
					32:[D_PUBLISHER_COEC<0.078434] yes=65,no=66,missing=66
						65:leaf=-0.0352976
						66:leaf=0.0216327
				16:[D_KEYWORD_MICRO_MEAN_COEC<0.035443] yes=33,no=34,missing=34
					33:[IMAGE_COUNT<2] yes=67,no=68,missing=68
						67:leaf=-0.043497
						68:leaf=-0.0290728
					34:[WORD_COUNT<1496] yes=69,no=70,missing=70
						69:leaf=-0.0371687
						70:leaf=-0.0269775
			8:[CAT_REL<0.235134] yes=17,no=18,missing=18
				17:[D_CATEGORY_MACRO_MAX_COEC<0.037232] yes=35,no=36,missing=36
					35:[IMAGE_COUNT<2] yes=71,no=72,missing=72
						71:leaf=-0.0353574
						72:leaf=-0.0205157
					36:[DAY_OF_WEEK<2] yes=73,no=74,missing=74
						73:leaf=-0.00802094
						74:leaf=-0.0225816
				18:[C_D_U_TITLEMD5_CATEGORY_MACRO_MEAN_COEC<0.046283] yes=37,no=38,missing=37
					37:[D_CATEGORY_MICRO_MEAN_COEC<0.028048] yes=75,no=76,missing=76
						75:leaf=-0.0354619
						76:leaf=-0.00866393
					38:[C_D_U_CATEGORY_AGE_MICRO_MEAN_COEC<0.099967] yes=77,no=78,missing=77
						77:leaf=0.010271
						78:leaf=-0.0938372
		4:[D_KEYWORD_MICRO_MEAN_COEC<0.062842] yes=9,no=10,missing=10
			9:[D_PUBLISHER_COEC<0.027209] yes=19,no=20,missing=19
				19:[D_CATEGORY_MICRO_MAX_COEC<0.063361] yes=39,no=40,missing=39
					39:[CAT_REL<0.291741] yes=79,no=80,missing=80
						79:leaf=-0.0553697
						80:leaf=-0.0300756
					40:[D_KEYWORD_MICRO_MAX_COEC<0.219041] yes=81,no=82,missing=82
						81:leaf=-0.0396597
						82:leaf=0.0243985
				20:[DAY_OF_WEEK<5] yes=41,no=42,missing=42
					41:[WORD_COUNT<1496] yes=83,no=84,missing=84
						83:leaf=-0.0267235
						84:leaf=-0.0146078
					42:[KW_REL<0.010432] yes=85,no=86,missing=86
						85:leaf=-0.0321833
						86:leaf=0.00658504
			10:[D_TITLEMD5_COEC<0.114987] yes=21,no=22,missing=22
				21:[D_KEYWORD_MACRO_MAX_COEC<0.01613] yes=43,no=44,missing=44
					43:[D_PUBLISHER_COEC<0.046679] yes=87,no=88,missing=87
						87:leaf=-0.0288458
						88:leaf=-0.000452577
					44:[KW_REL<0.000129] yes=89,no=90,missing=90
						89:leaf=-0.0161429
						90:leaf=-0.00398967
				22:[TIME_OF_DAY<21] yes=45,no=46,missing=46
					45:[DAY_OF_WEEK<5] yes=91,no=92,missing=92
						91:leaf=-0.000263406
						92:leaf=-0.0105527
					46:[C_D_U_PUBLISHER_GENDER_COEC<0.137329] yes=93,no=94,missing=94
						93:leaf=0.0136573
						94:leaf=-0.0135953
	2:[D_KEYWORD_MACRO_MEAN_COEC<0.032317] yes=5,no=6,missing=6
		5:[CAT_REL<0.045823] yes=11,no=12,missing=12
			11:[D_CATEGORY_MICRO_MEAN_COEC<0.047263] yes=23,no=24,missing=24
				23:[D_CATEGORY_MICRO_MAX_COEC<0.028466] yes=47,no=48,missing=48
					47:[D_PUBLISHER_COEC<0.027209] yes=95,no=96,missing=95
						95:leaf=-0.0318891
						96:leaf=-0.00627881
					48:[IMAGE_COUNT<0.999999] yes=97,no=98,missing=98
						97:leaf=-0.0586449
						98:leaf=-0.0318276
				24:[U_KW_LEN<4755] yes=49,no=50,missing=50
					49:[C_D_U_PUBLISHER_AGE_COEC<0.071447] yes=99,no=100,missing=100
						99:leaf=-0.0342792
						100:leaf=-0.0108052
					50:[U_CAT_LEN<54] yes=101,no=102,missing=102
						101:leaf=0.0129946
						102:leaf=-0.115217
			12:[D_TITLEMD5_COEC<0.048034] yes=25,no=26,missing=26
				25:[KW_REL<0.004146] yes=51,no=52,missing=52
					51:[U_KW_LEN<2221] yes=103,no=104,missing=104
						103:leaf=-0.0114908
						104:leaf=0.0028014
					52:[WORD_COUNT<892] yes=105,no=106,missing=106
						105:leaf=-0.0257426
						106:leaf=0.0122095
				26:[KW_REL<0.003651] yes=53,no=54,missing=54
					53:[D_CATEGORY_MACRO_MEAN_COEC<0.029322] yes=107,no=108,missing=108
						107:leaf=-0.04793
						108:leaf=-0.0296903
					54:[D_PUBLISHER_COEC<0.024843] yes=109,no=110,missing=109
						109:leaf=-0.0309431
						110:leaf=-0.00212959
		6:[KW_REL<0.000234] yes=13,no=14,missing=14
			13:[D_CATEGORY_MACRO_MEAN_COEC<0.053261] yes=27,no=28,missing=28
				27:[IMAGE_COUNT<2] yes=55,no=56,missing=56
					55:[IMAGE_COUNT<0.999999] yes=111,no=112,missing=112
						111:leaf=-0.0623045
						112:leaf=-0.0195479
					56:[D_CATEGORY_MACRO_MAX_COEC<0.018283] yes=113,no=114,missing=114
						113:leaf=0.021589
						114:leaf=-0.0110485
				28:[CAT_REL<0.003177] yes=57,no=58,missing=58
					57:[D_KEYWORD_MACRO_MAX_COEC<0.005985] yes=115,no=116,missing=116
						115:leaf=0.0404849
						116:leaf=-0.0106657
					58:[D_KEYWORD_MACRO_MEAN_COEC<0.126736] yes=117,no=118,missing=117
						117:leaf=0.0013802
						118:leaf=0.0316128
			14:[DAY_OF_WEEK<5] yes=29,no=30,missing=30
				29:[D_PUBLISHER_COEC<0.029514] yes=59,no=60,missing=59
					59:[D_CATEGORY_MICRO_MEAN_COEC<0.03345] yes=119,no=120,missing=119
						119:leaf=-0.0200348
						120:leaf=-0.00305643
					60:[WORD_COUNT<2295] yes=121,no=122,missing=122
						121:leaf=0.00479268
						122:leaf=0.0175052
				30:[TIME_OF_DAY<15] yes=61,no=62,missing=62
					61:[KW_REL<0.006938] yes=123,no=124,missing=124
						123:leaf=-0.000263554
						124:leaf=0.0247737
					62:[D_KEYWORD_MACRO_MAX_COEC<0.058653] yes=125,no=126,missing=126
						125:leaf=-0.0176398
						126:leaf=0.0155912
booster[24]:
0:[KW_REL<8e-06] yes=1,no=2,missing=2
	1:[D_KEYWORD_MACRO_MEAN_COEC<0.039026] yes=3,no=4,missing=4
		3:[C_D_U_TITLEMD5_CATEGORY_MACRO_MAX_COEC<0.044507] yes=7,no=8,missing=8
			7:[U_KW_LEN<2395] yes=15,no=16,missing=16
				15:[C_D_U_CATEGORY_AGE_MICRO_MEAN_COEC<0.091062] yes=31,no=32,missing=32
					31:[D_KEYWORD_MACRO_MEAN_COEC<0.033581] yes=63,no=64,missing=64
						63:leaf=-0.0407652
						64:leaf=-0.023301
					32:[IMAGE_COUNT<0.999999] yes=65,no=66,missing=66
						65:leaf=-0.0408362
						66:leaf=-0.0205306
				16:[U_KW_LEN<6463] yes=33,no=34,missing=34
					33:[C_D_U_CATEGORY_AGE_MICRO_MAX_COEC<0.08701] yes=67,no=68,missing=68
						67:leaf=-0.0275984
						68:leaf=-0.00787696
					34:[U_CAT_LEN<54] yes=69,no=70,missing=70
						69:leaf=0.0166459
						70:leaf=-0.117748
			8:[IMAGE_COUNT<2] yes=17,no=18,missing=18
				17:[D_CATEGORY_MICRO_MEAN_COEC<0.038979] yes=35,no=36,missing=36
					35:[D_KEYWORD_MACRO_MEAN_COEC<0.035489] yes=71,no=72,missing=72
						71:leaf=-0.0435847
						72:leaf=-0.0289031
					36:[WORD_COUNT<1447] yes=73,no=74,missing=74
						73:leaf=-0.0391823
						74:leaf=-0.0264475
				18:[D_KEYWORD_MACRO_MAX_COEC<0.006151] yes=37,no=38,missing=38
					37:[D_KEYWORD_MICRO_MAX_COEC<0.048183] yes=75,no=76,missing=76
						75:leaf=-0.0408915
						76:leaf=-0.0272416
					38:[D_CATEGORY_MACRO_MAX_COEC<0.015089] yes=77,no=78,missing=78
						77:leaf=0.00981062
						78:leaf=-0.0236698
		4:[D_PUBLISHER_COEC<0.047591] yes=9,no=10,missing=9
			9:[D_KEYWORD_MICRO_MAX_COEC<0.084631] yes=19,no=20,missing=19
				19:[WORD_COUNT<3606] yes=39,no=40,missing=40
					39:[D_CATEGORY_MICRO_MEAN_COEC<0.057927] yes=79,no=80,missing=80
						79:leaf=-0.0281321
						80:leaf=-0.0112826
					40:[WORD_COUNT<4748] yes=81,no=82,missing=82
						81:leaf=0.0109779
						82:leaf=-0.0230751
				20:[D_CATEGORY_MACRO_MEAN_COEC<0.0376] yes=41,no=42,missing=41
					41:[D_KEYWORD_MACRO_MEAN_COEC<0.045991] yes=83,no=84,missing=84
						83:leaf=-0.0258508
						84:leaf=-0.0543916
					42:[CAT_REL<0.000486] yes=85,no=86,missing=86
						85:leaf=-0.0282608
						86:leaf=-0.0141862
			10:[U_KW_LEN<2037] yes=21,no=22,missing=22
				21:[D_TITLEMD5_COEC<0.082936] yes=43,no=44,missing=43
					43:[DAY_OF_WEEK<3] yes=87,no=88,missing=88
						87:leaf=-0.00627927
						88:leaf=-0.0198129
					44:[C_D_U_TITLEMD5_AGE_COEC<0.160162] yes=89,no=90,missing=89
						89:leaf=-0.00637708
						90:leaf=0.0106528
				22:[WORD_COUNT<1024] yes=45,no=46,missing=46
					45:[DAY_OF_WEEK<3] yes=91,no=92,missing=92
						91:leaf=0.00602403
						92:leaf=-0.0178747
					46:[CAT_REL<0.002879] yes=93,no=94,missing=94
						93:leaf=0.00605705
						94:leaf=0.0235655
	2:[D_PUBLISHER_COEC<0.027199] yes=5,no=6,missing=5
		5:[KW_REL<0.001557] yes=11,no=12,missing=12
			11:[D_TITLEMD5_COEC<0.04335] yes=23,no=24,missing=24
				23:[CAT_REL<0.015417] yes=47,no=48,missing=48
					47:[C_D_U_TITLEMD5_AGE_COEC<0.022782] yes=95,no=96,missing=96
						95:leaf=-0.0486502
						96:leaf=-0.0281773
					48:[U_CAT_LEN<21] yes=97,no=98,missing=98
						97:leaf=-0.0207852
						98:leaf=-0.00612577
				24:[D_CATEGORY_MACRO_MAX_COEC<0.032205] yes=49,no=50,missing=50
					49:[C_D_U_TITLEMD5_CATEGORY_MICRO_MEAN_COEC<0.046245] yes=99,no=100,missing=99
						99:leaf=-0.0403247
						100:leaf=-0.0613878
					50:[D_PUBLISHER_COEC<0.027199] yes=101,no=102,missing=102
						101:leaf=-0.0276341
						102:leaf=0.0201293
			12:[IMAGE_COUNT<0.999999] yes=25,no=26,missing=26
				25:[C_D_U_TITLEMD5_CATEGORY_MICRO_MEAN_COEC<0.068331] yes=51,no=52,missing=51
					51:[D_TITLEMD5_COEC<0.011596] yes=103,no=104,missing=103
						103:leaf=-0.0539573
						104:leaf=-0.012703
					52:[U_KW_LEN<5006] yes=105,no=106,missing=106
						105:leaf=-0.102069
						106:leaf=0.053249
				26:[DAY_OF_WEEK<4] yes=53,no=54,missing=54
					53:[WORD_COUNT<892] yes=107,no=108,missing=108
						107:leaf=-0.0257567
						108:leaf=0.00126025
					54:[KW_REL<0.007191] yes=109,no=110,missing=110
						109:leaf=-0.0259407
						110:leaf=0.0011969
		6:[U_KW_LEN<1336] yes=13,no=14,missing=14
			13:[C_D_U_TITLEMD5_CATEGORY_MACRO_MEAN_COEC<0.056229] yes=27,no=28,missing=27
				27:[IMAGE_COUNT<0.999999] yes=55,no=56,missing=56
					55:[D_CATEGORY_MACRO_MAX_COEC<0.051295] yes=111,no=112,missing=111
						111:leaf=-0.0479361
						112:leaf=-0.0203226
					56:[U_KW_LEN<334] yes=113,no=114,missing=114
						113:leaf=-0.0192371
						114:leaf=-0.00721651
				28:[TIME_OF_DAY<21] yes=57,no=58,missing=58
					57:[CAT_REL<0.077361] yes=115,no=116,missing=116
						115:leaf=-0.00100799
						116:leaf=0.0104544
					58:[D_CATEGORY_MACRO_MEAN_COEC<0.049665] yes=117,no=118,missing=118
						117:leaf=-0.0199397
						118:leaf=-0.00540343
			14:[D_KEYWORD_MACRO_MEAN_COEC<0.031791] yes=29,no=30,missing=30
				29:[D_TITLEMD5_COEC<0.03726] yes=59,no=60,missing=60
					59:[CAT_REL<0.057244] yes=119,no=120,missing=120
						119:leaf=-0.00625667
						120:leaf=0.00850867
					60:[KW_REL<0.005963] yes=121,no=122,missing=122
						121:leaf=-0.022846
						122:leaf=0.014704
				30:[WORD_COUNT<1299] yes=61,no=62,missing=62
					61:[D_KEYWORD_MACRO_MEAN_COEC<0.087214] yes=123,no=124,missing=124
						123:leaf=-0.00660442
						124:leaf=0.0144274
					62:[U_KW_LEN<4033] yes=125,no=126,missing=126
						125:leaf=0.00928374
						126:leaf=0.0271518
booster[25]:
0:[U_KW_LEN<355] yes=1,no=2,missing=2
	1:[D_TITLEMD5_COEC<0.047579] yes=3,no=4,missing=3
		3:[U_KW_LEN<107] yes=7,no=8,missing=8
			7:[D_TITLEMD5_COEC<0.025293] yes=15,no=16,missing=16
				15:[D_CATEGORY_MICRO_MEAN_COEC<0.051846] yes=31,no=32,missing=31
					31:[D_PUBLISHER_COEC<0.117984] yes=63,no=64,missing=63
						63:leaf=-0.0440668
						64:leaf=0.0468747
					32:[D_PUBLISHER_COEC<0.077999] yes=65,no=66,missing=66
						65:leaf=-0.0300862
						66:leaf=0.0192375
				16:[D_KEYWORD_MICRO_MEAN_COEC<0.035053] yes=33,no=34,missing=33
					33:[WORD_COUNT<9888] yes=67,no=68,missing=68
						67:leaf=-0.0377376
						68:leaf=-0.0174383
					34:[IMAGE_COUNT<0.999999] yes=69,no=70,missing=70
						69:leaf=-0.0466505
						70:leaf=-0.0248025
			8:[CAT_REL<0.235497] yes=17,no=18,missing=18
				17:[IMAGE_COUNT<0.999999] yes=35,no=36,missing=36
					35:[D_CATEGORY_MICRO_MEAN_COEC<0.042506] yes=71,no=72,missing=71
						71:leaf=-0.0621248
						72:leaf=-0.0336706
					36:[D_CATEGORY_MACRO_MEAN_COEC<0.045227] yes=73,no=74,missing=74
						73:leaf=-0.0251369
						74:leaf=-0.0146634
				18:[D_CATEGORY_MACRO_MEAN_COEC<0.026999] yes=37,no=38,missing=37
					37:[C_D_U_TITLEMD5_CATEGORY_MICRO_MAX_COEC<0.409831] yes=75,no=76,missing=76
						75:leaf=-0.00775386
						76:leaf=-0.0456861
					38:[CAT_REL<0.292266] yes=77,no=78,missing=78
						77:leaf=-0.00783049
						78:leaf=0.0105606
		4:[D_KEYWORD_MICRO_MEAN_COEC<0.063446] yes=9,no=10,missing=10
			9:[D_PUBLISHER_COEC<0.029334] yes=19,no=20,missing=19
				19:[D_CATEGORY_MICRO_MAX_COEC<0.042431] yes=39,no=40,missing=39
					39:[KW_REL<0.004775] yes=79,no=80,missing=80
						79:leaf=-0.0447655
						80:leaf=-0.0123578
					40:[D_TITLEMD5_COEC<0.056337] yes=81,no=82,missing=82
						81:leaf=-0.00730034
						82:leaf=-0.0333028
				20:[DAY_OF_WEEK<5] yes=41,no=42,missing=42
					41:[WORD_COUNT<892] yes=83,no=84,missing=84
						83:leaf=-0.0306775
						84:leaf=-0.0113821
					42:[KW_REL<0.004775] yes=85,no=86,missing=86
						85:leaf=-0.0275626
						86:leaf=-0.00132998
			10:[DAY_OF_WEEK<5] yes=21,no=22,missing=22
				21:[WORD_COUNT<911] yes=43,no=44,missing=44
					43:[D_KEYWORD_MACRO_MAX_COEC<0.030605] yes=87,no=88,missing=88
						87:leaf=-0.0436099
						88:leaf=-0.0142709
					44:[TIME_OF_DAY<19] yes=89,no=90,missing=90
						89:leaf=-0.000665919
						90:leaf=-0.00951558
				22:[D_TITLEMD5_COEC<0.064023] yes=45,no=46,missing=46
					45:[CAT_REL<0.074958] yes=91,no=92,missing=92
						91:leaf=-0.0389694
						92:leaf=-0.0138403
					46:[D_KEYWORD_MICRO_MAX_COEC<0.070519] yes=93,no=94,missing=94
						93:leaf=0.00887981
						94:leaf=-0.0126382
	2:[D_PUBLISHER_COEC<0.02722] yes=5,no=6,missing=5
		5:[KW_REL<0.001773] yes=11,no=12,missing=12
			11:[D_TITLEMD5_COEC<0.041616] yes=23,no=24,missing=24
				23:[CAT_REL<0.019863] yes=47,no=48,missing=48
					47:[C_D_U_CATEGORY_AGE_MICRO_MAX_COEC<0.086827] yes=95,no=96,missing=96
						95:leaf=-0.0438856
						96:leaf=-0.0250131
					48:[U_KW_LEN<6406] yes=97,no=98,missing=98
						97:leaf=-0.0153706
						98:leaf=0.0212301
				24:[D_KEYWORD_MICRO_MEAN_COEC<0.036597] yes=49,no=50,missing=50
					49:[KW_REL<0.000161] yes=99,no=100,missing=100
						99:leaf=-0.0525169
						100:leaf=-0.0412647
					50:[D_CATEGORY_MICRO_MEAN_COEC<0.045293] yes=101,no=102,missing=102
						101:leaf=-0.0356055
						102:leaf=-0.0195545
			12:[IMAGE_COUNT<0.999999] yes=25,no=26,missing=26
				25:[CAT_REL<0.000484] yes=51,no=52,missing=52
					51:[WORD_COUNT<2275] yes=103,no=104,missing=104
						103:leaf=-0.0748035
						104:leaf=0.0537553
					52:[C_D_U_TITLEMD5_CATEGORY_MACRO_MAX_COEC<0.10942] yes=105,no=106,missing=105
						105:leaf=-0.0510974
						106:leaf=-0.156334
				26:[DAY_OF_WEEK<4] yes=53,no=54,missing=54
					53:[WORD_COUNT<892] yes=107,no=108,missing=108
						107:leaf=-0.0190084
						108:leaf=0.00585653
					54:[KW_REL<0.006874] yes=109,no=110,missing=110
						109:leaf=-0.0213598
						110:leaf=0.0048525
		6:[DAY_OF_WEEK<5] yes=13,no=14,missing=14
			13:[D_KEYWORD_MACRO_MEAN_COEC<0.034235] yes=27,no=28,missing=28
				27:[KW_REL<0.003189] yes=55,no=56,missing=56
					55:[U_KW_LEN<2364] yes=111,no=112,missing=112
						111:leaf=-0.0137713
						112:leaf=-0.000380166
					56:[TIME_OF_DAY<15] yes=113,no=114,missing=114
						113:leaf=0.0188685
						114:leaf=0.00134027
				28:[KW_REL<0.000538] yes=57,no=58,missing=58
					57:[D_KEYWORD_MACRO_MEAN_COEC<0.121512] yes=115,no=116,missing=116
						115:leaf=-0.00136236
						116:leaf=0.0176762
					58:[TIME_OF_DAY<19] yes=117,no=118,missing=118
						117:leaf=0.0169098
						118:leaf=0.00345388
			14:[TIME_OF_DAY<15] yes=29,no=30,missing=30
				29:[CAT_REL<0.039747] yes=59,no=60,missing=60
					59:[D_TITLEMD5_COEC<0.066819] yes=119,no=120,missing=119
						119:leaf=-0.0204685
						120:leaf=-0.000474803
					60:[CAT_REL<0.139921] yes=121,no=122,missing=122
						121:leaf=0.00102562
						122:leaf=0.0181189
				30:[D_PUBLISHER_COEC<0.069952] yes=61,no=62,missing=62
					61:[CAT_REL<0.071567] yes=123,no=124,missing=124
						123:leaf=-0.0305973
						124:leaf=-0.00949905
					62:[D_KEYWORD_MICRO_MAX_COEC<0.049324] yes=125,no=126,missing=126
						125:leaf=0.0666704
						126:leaf=-0.0110959
booster[26]:
0:[U_KW_LEN<563] yes=1,no=2,missing=2
	1:[D_TITLEMD5_COEC<0.04935] yes=3,no=4,missing=3
		3:[U_KW_LEN<108] yes=7,no=8,missing=8
			7:[D_TITLEMD5_COEC<0.025652] yes=15,no=16,missing=16
				15:[D_CATEGORY_MACRO_MEAN_COEC<0.05281] yes=31,no=32,missing=31
					31:[D_KEYWORD_MACRO_MEAN_COEC<0.014461] yes=63,no=64,missing=64
						63:leaf=-0.0546373
						64:leaf=-0.0378117
					32:[D_PUBLISHER_COEC<0.078995] yes=65,no=66,missing=66
						65:leaf=-0.0264634
						66:leaf=0.0223532
				16:[D_KEYWORD_MICRO_MEAN_COEC<0.035026] yes=33,no=34,missing=34
					33:[IMAGE_COUNT<2] yes=67,no=68,missing=68
						67:leaf=-0.0361036
						68:leaf=-0.0238349
					34:[WORD_COUNT<1718] yes=69,no=70,missing=70
						69:leaf=-0.0295803
						70:leaf=-0.0202541
			8:[CAT_REL<0.191625] yes=17,no=18,missing=18
				17:[D_PUBLISHER_COEC<0.048716] yes=35,no=36,missing=36
					35:[D_CATEGORY_MICRO_MEAN_COEC<0.057408] yes=71,no=72,missing=72
						71:leaf=-0.0248793
						72:leaf=-0.0130625
					36:[D_KEYWORD_MICRO_MEAN_COEC<0.038019] yes=73,no=74,missing=73
						73:leaf=-0.0223726
						74:leaf=-0.00500679
				18:[WORD_COUNT<1299] yes=37,no=38,missing=38
					37:[D_CATEGORY_MACRO_MAX_COEC<0.026767] yes=75,no=76,missing=76
						75:leaf=-0.0473436
						76:leaf=-0.0143025
					38:[C_D_U_TITLEMD5_CATEGORY_MACRO_MEAN_COEC<0.042213] yes=77,no=78,missing=77
						77:leaf=-0.00409934
						78:leaf=0.0116035
		4:[D_KEYWORD_MICRO_MEAN_COEC<0.054571] yes=9,no=10,missing=10
			9:[D_KEYWORD_MICRO_MAX_COEC<0.062603] yes=19,no=20,missing=20
				19:[WORD_COUNT<3625] yes=39,no=40,missing=40
					39:[D_CATEGORY_MICRO_MAX_COEC<0.03064] yes=79,no=80,missing=79
						79:leaf=-0.00186739
						80:leaf=-0.0204265
					40:[DAY_OF_WEEK<2] yes=81,no=82,missing=82
						81:leaf=0.0146909
						82:leaf=-0.00846611
				20:[D_CATEGORY_MICRO_MEAN_COEC<0.028374] yes=41,no=42,missing=42
					41:[D_KEYWORD_MACRO_MAX_COEC<0.013333] yes=83,no=84,missing=84
						83:leaf=-0.0650905
						84:leaf=-0.0409811
					42:[CAT_REL<0.131435] yes=85,no=86,missing=86
						85:leaf=-0.0211105
						86:leaf=-0.00319227
			10:[D_PUBLISHER_COEC<0.11961] yes=21,no=22,missing=21
				21:[CAT_REL<0.074648] yes=43,no=44,missing=44
					43:[DAY_OF_WEEK<5] yes=87,no=88,missing=88
						87:leaf=-0.00714238
						88:leaf=-0.0150103
					44:[U_KW_LEN<130] yes=89,no=90,missing=90
						89:leaf=-0.00986247
						90:leaf=0.00766812
				22:[WORD_COUNT<1913] yes=45,no=46,missing=46
					45:[D_KEYWORD_MACRO_MAX_COEC<0.085525] yes=91,no=92,missing=92
						91:leaf=-0.0119357
						92:leaf=0.046476
					46:[U_KW_LEN<175] yes=93,no=94,missing=94
						93:leaf=0.00488145
						94:leaf=0.0205266
	2:[D_PUBLISHER_COEC<0.027354] yes=5,no=6,missing=5
		5:[CAT_REL<0.035597] yes=11,no=12,missing=12
			11:[U_CAT_LEN<54] yes=23,no=24,missing=24
				23:[U_KW_LEN<6451] yes=47,no=48,missing=48
					47:[C_D_U_PUBLISHER_AGE_COEC<0.043939] yes=95,no=96,missing=96
						95:leaf=-0.043305
						96:leaf=-0.0247369
					48:[DAY_OF_WEEK<5] yes=97,no=98,missing=98
						97:leaf=0.0106036
						98:leaf=-0.0361109
				24:[C_D_U_CATEGORY_GENDER_MACRO_MEAN_COEC<0.031342] yes=49,no=50,missing=49
					49:[C_D_U_PUBLISHER_GENDER_COEC<0.031145] yes=99,no=100,missing=99
						99:leaf=-0.121175
						100:leaf=-0.0644895
					50:[TIME_OF_DAY<10] yes=101,no=102,missing=102
						101:leaf=-0.103134
						102:leaf=0.0386308
			12:[C_D_U_TITLEMD5_CATEGORY_MICRO_MEAN_COEC<0.38177] yes=25,no=26,missing=26
				25:[KW_REL<0.00617] yes=51,no=52,missing=52
					51:[U_KW_LEN<4641] yes=103,no=104,missing=104
						103:leaf=-0.00797513
						104:leaf=0.01461
					52:[D_CATEGORY_MICRO_MAX_COEC<0.029973] yes=105,no=106,missing=106
						105:leaf=0.0425831
						106:leaf=0.0108281
				26:[U_KW_LEN<6451] yes=53,no=54,missing=54
					53:[IMAGE_COUNT<0.999999] yes=107,no=108,missing=108
						107:leaf=-0.0595526
						108:leaf=-0.0266812
					54:[U_CAT_LEN<32] yes=109,no=110,missing=110
						109:leaf=0.0703058
						110:leaf=-0.0148793
		6:[CAT_REL<0.026117] yes=13,no=14,missing=14
			13:[D_CATEGORY_MACRO_MAX_COEC<0.089767] yes=27,no=28,missing=28
				27:[DAY_OF_WEEK<5] yes=55,no=56,missing=56
					55:[D_KEYWORD_MICRO_MEAN_COEC<0.057025] yes=111,no=112,missing=111
						111:leaf=-0.00950453
						112:leaf=0.00299052
					56:[TIME_OF_DAY<15] yes=113,no=114,missing=114
						113:leaf=-0.0101948
						114:leaf=-0.0253528
				28:[WORD_COUNT<911] yes=57,no=58,missing=58
					57:[TIME_OF_DAY<7] yes=115,no=116,missing=116
						115:leaf=-5.52006e-05
						116:leaf=-0.0290132
					58:[WORD_COUNT<1677] yes=117,no=118,missing=118
						117:leaf=0.0340393
						118:leaf=0.00907376
			14:[D_CATEGORY_MICRO_MEAN_COEC<0.053423] yes=29,no=30,missing=29
				29:[WORD_COUNT<1024] yes=59,no=60,missing=60
					59:[U_KW_LEN<6451] yes=119,no=120,missing=120
						119:leaf=-0.0311613
						120:leaf=0.0288837
					60:[CAT_REL<0.103815] yes=121,no=122,missing=122
						121:leaf=-0.00384957
						122:leaf=0.0107524
				30:[WORD_COUNT<4808] yes=61,no=62,missing=62
					61:[WORD_COUNT<1438] yes=123,no=124,missing=124
						123:leaf=0.00173913
						124:leaf=0.0168144
					62:[WORD_COUNT<6876] yes=125,no=126,missing=126
						125:leaf=-0.0211163
						126:leaf=0.00519302
booster[27]:
0:[KW_REL<9e-06] yes=1,no=2,missing=2
	1:[D_PUBLISHER_COEC<0.048522] yes=3,no=4,missing=3
		3:[C_D_U_TITLEMD5_CATEGORY_MACRO_MAX_COEC<0.058963] yes=7,no=8,missing=8
			7:[U_CAT_LEN<16] yes=15,no=16,missing=16
				15:[C_D_U_TITLEMD5_CATEGORY_MACRO_MEAN_COEC<0.040459] yes=31,no=32,missing=32
					31:[C_D_U_CATEGORY_AGE_MICRO_MEAN_COEC<0.05078] yes=63,no=64,missing=63
						63:leaf=-0.0222181
						64:leaf=-0.0362062
					32:[D_CATEGORY_MACRO_MAX_COEC<0.0206] yes=65,no=66,missing=65
						65:leaf=0.0119546
						66:leaf=-0.0140762
				16:[U_KW_LEN<6414] yes=33,no=34,missing=34
					33:[CAT_REL<0.000408] yes=67,no=68,missing=68
						67:leaf=-0.0158982
						68:leaf=-0.00576274
					34:[U_CAT_LEN<54] yes=69,no=70,missing=70
						69:leaf=0.0194491
						70:leaf=-0.117965
			8:[D_CATEGORY_MACRO_MEAN_COEC<0.05353] yes=17,no=18,missing=18
				17:[D_TITLEMD5_COEC<0.028527] yes=35,no=36,missing=35
					35:[IMAGE_COUNT<2] yes=71,no=72,missing=72
						71:leaf=-0.0373569
						72:leaf=-0.026077
					36:[C_D_U_TITLEMD5_CATEGORY_MICRO_MEAN_COEC<0.159753] yes=73,no=74,missing=73
						73:leaf=-0.0230541
						74:leaf=-0.046409
				18:[D_TITLEMD5_COEC<0.055684] yes=37,no=38,missing=38
					37:[D_CATEGORY_MICRO_MAX_COEC<0.05444] yes=75,no=76,missing=76
						75:leaf=-0.00493642
						76:leaf=-0.0239373
					38:[D_PUBLISHER_COEC<0.029334] yes=77,no=78,missing=78
						77:leaf=-0.0321907
						78:leaf=-0.00991245
		4:[U_KW_LEN<2683] yes=9,no=10,missing=10
			9:[D_TITLEMD5_COEC<0.083005] yes=19,no=20,missing=20
				19:[DAY_OF_WEEK<3] yes=39,no=40,missing=40
					39:[WORD_COUNT<5029] yes=79,no=80,missing=80
						79:leaf=-0.00835257
						80:leaf=0.0154135
					40:[WORD_COUNT<2295] yes=81,no=82,missing=82
						81:leaf=-0.0210336
						82:leaf=-0.0105823
				20:[TIME_OF_DAY<21] yes=41,no=42,missing=42
					41:[D_PUBLISHER_COEC<0.106222] yes=83,no=84,missing=84
						83:leaf=-0.00372834
						84:leaf=0.00721094
					42:[D_KEYWORD_MICRO_MAX_COEC<0.150262] yes=85,no=86,missing=85
						85:leaf=-0.0139002
						86:leaf=-0.00125353
			10:[U_CAT_LEN<22] yes=21,no=22,missing=22
				21:[CAT_REL<0.022958] yes=43,no=44,missing=44
					43:[D_PUBLISHER_COEC<0.084634] yes=87,no=88,missing=88
						87:leaf=-0.0157356
						88:leaf=0.00503994
					44:[WORD_COUNT<892] yes=89,no=90,missing=90
						89:leaf=-0.0211354
						90:leaf=0.018794
				22:[D_KEYWORD_MICRO_MEAN_COEC<0.039951] yes=45,no=46,missing=46
					45:[D_CATEGORY_MICRO_MEAN_COEC<0.053461] yes=91,no=92,missing=91
						91:leaf=-0.0231756
						92:leaf=0.0111532
					46:[WORD_COUNT<1496] yes=93,no=94,missing=94
						93:leaf=0.005662
						94:leaf=0.0242807
	2:[D_CATEGORY_MACRO_MEAN_COEC<0.043998] yes=5,no=6,missing=6
		5:[KW_REL<0.001427] yes=11,no=12,missing=12
			11:[IMAGE_COUNT<3] yes=23,no=24,missing=24
				23:[CAT_REL<0.037166] yes=47,no=48,missing=48
					47:[IMAGE_COUNT<0.999999] yes=95,no=96,missing=96
						95:leaf=-0.051743
						96:leaf=-0.0213724
					48:[C_D_U_TITLEMD5_CATEGORY_MICRO_MAX_COEC<0.445427] yes=97,no=98,missing=98
						97:leaf=-0.00755372
						98:leaf=-0.025772
				24:[D_PUBLISHER_COEC<0.048978] yes=49,no=50,missing=49
					49:[D_CATEGORY_MICRO_MAX_COEC<0.03551] yes=99,no=100,missing=100
						99:leaf=-0.00356261
						100:leaf=-0.0319485
					50:[CAT_REL<0.000408] yes=101,no=102,missing=102
						101:leaf=0.0184623
						102:leaf=-0.00352249
			12:[IMAGE_COUNT<0.999999] yes=25,no=26,missing=26
				25:[CAT_REL<0.075382] yes=51,no=52,missing=52
					51:[U_KW_LEN<6414] yes=103,no=104,missing=104
						103:leaf=-0.0509226
						104:leaf=0.00715771
					52:[U_KW_LEN<1862] yes=105,no=106,missing=106
						105:leaf=-0.0335044
						106:leaf=0.00225796
				26:[U_KW_LEN<2762] yes=53,no=54,missing=54
					53:[KW_REL<0.00715] yes=107,no=108,missing=108
						107:leaf=-0.00368302
						108:leaf=0.0117659
					54:[C_D_U_PUBLISHER_AGE_COEC<0.061911] yes=109,no=110,missing=110
						109:leaf=-0.00592378
						110:leaf=0.0187919
		6:[WORD_COUNT<1565] yes=13,no=14,missing=14
			13:[D_TITLEMD5_COEC<0.079314] yes=27,no=28,missing=27
				27:[CAT_REL<0.030537] yes=55,no=56,missing=56
					55:[D_CATEGORY_MACRO_MAX_COEC<0.075832] yes=111,no=112,missing=112
						111:leaf=-0.0218508
						112:leaf=0.00749376
					56:[U_KW_LEN<6414] yes=113,no=114,missing=114
						113:leaf=-0.00520462
						114:leaf=0.0548891
				28:[D_KEYWORD_MICRO_MEAN_COEC<0.079184] yes=57,no=58,missing=58
					57:[D_PUBLISHER_COEC<0.089841] yes=115,no=116,missing=116
						115:leaf=-0.00157093
						116:leaf=-0.0383634
					58:[WORD_COUNT<1024] yes=117,no=118,missing=118
						117:leaf=-9.31367e-06
						118:leaf=0.0195522
			14:[DAY_OF_WEEK<5] yes=29,no=30,missing=30
				29:[CAT_REL<0.000408] yes=59,no=60,missing=60
					59:[D_CATEGORY_MACRO_MEAN_COEC<0.058936] yes=119,no=120,missing=120
						119:leaf=-0.00913218
						120:leaf=0.00655855
					60:[WORD_COUNT<4808] yes=121,no=122,missing=122
						121:leaf=0.0147514
						122:leaf=-0.008794
				30:[D_PUBLISHER_COEC<0.188509] yes=61,no=62,missing=62
					61:[TIME_OF_DAY<15] yes=123,no=124,missing=124
						123:leaf=0.000247627
						124:leaf=-0.0102321
					62:[C_D_U_TITLEMD5_CATEGORY_MICRO_MEAN_COEC<0.268558] yes=125,no=126,missing=126
						125:leaf=0.0149524
						126:leaf=0.0781399
booster[28]:
0:[U_KW_LEN<696] yes=1,no=2,missing=2
	1:[D_TITLEMD5_COEC<0.049971] yes=3,no=4,missing=3
		3:[U_KW_LEN<109] yes=7,no=8,missing=8
			7:[D_TITLEMD5_COEC<0.0257] yes=15,no=16,missing=16
				15:[D_PUBLISHER_COEC<0.082802] yes=31,no=32,missing=31
					31:[D_KEYWORD_MACRO_MEAN_COEC<0.010197] yes=63,no=64,missing=64
						63:leaf=-0.0528731
						64:leaf=-0.0315363
					32:[D_KEYWORD_MICRO_MEAN_COEC<0.068597] yes=65,no=66,missing=66
						65:leaf=-0.0121808
						66:leaf=0.0932605
				16:[D_KEYWORD_MICRO_MEAN_COEC<0.03607] yes=33,no=34,missing=34
					33:[TIME_OF_DAY<5] yes=67,no=68,missing=68
						67:leaf=-0.0347516
						68:leaf=-0.0251658
					34:[D_KEYWORD_MACRO_MAX_COEC<0.015549] yes=69,no=70,missing=69
						69:leaf=-0.0167207
						70:leaf=-0.0251565
			8:[CAT_REL<0.193111] yes=17,no=18,missing=18
				17:[IMAGE_COUNT<0.999999] yes=35,no=36,missing=36
					35:[D_CATEGORY_MACRO_MEAN_COEC<0.054568] yes=71,no=72,missing=71
						71:leaf=-0.0487215
						72:leaf=-0.0247325
					36:[D_PUBLISHER_COEC<0.047611] yes=73,no=74,missing=74
						73:leaf=-0.0171005
						74:leaf=-0.00598943
				18:[C_D_U_TITLEMD5_CATEGORY_MACRO_MEAN_COEC<0.097854] yes=37,no=38,missing=37
					37:[TIME_OF_DAY<20] yes=75,no=76,missing=76
						75:leaf=0.00194732
						76:leaf=-0.0155505
					38:[C_D_U_TITLEMD5_CATEGORY_MICRO_MEAN_COEC<0.200271] yes=77,no=78,missing=78
						77:leaf=0.0139559
						78:leaf=0.0467565
		4:[C_D_U_TITLEMD5_CATEGORY_MACRO_MEAN_COEC<0.097854] yes=9,no=10,missing=9
			9:[D_PUBLISHER_COEC<0.02742] yes=19,no=20,missing=19
				19:[D_CATEGORY_MICRO_MAX_COEC<0.063363] yes=39,no=40,missing=39
					39:[CAT_REL<0.226529] yes=79,no=80,missing=80
						79:leaf=-0.041898
						80:leaf=-0.00727717
					40:[D_CATEGORY_MACRO_MEAN_COEC<0.045374] yes=81,no=82,missing=82
						81:leaf=0.0426468
						82:leaf=-0.0231654
				20:[TIME_OF_DAY<21] yes=41,no=42,missing=42
					41:[DAY_OF_WEEK<5] yes=83,no=84,missing=84
						83:leaf=-0.00555015
						84:leaf=-0.0124801
					42:[IMAGE_COUNT<0.999999] yes=85,no=86,missing=86
						85:leaf=-0.0476163
						86:leaf=-0.0138025
			10:[CAT_REL<0.098667] yes=21,no=22,missing=22
				21:[C_D_U_TITLEMD5_CATEGORY_MACRO_MAX_COEC<0.079533] yes=43,no=44,missing=44
					43:[C_D_U_TITLEMD5_CATEGORY_MICRO_MEAN_COEC<0.184004] yes=87,no=88,missing=88
						87:leaf=-0.00447766
						88:leaf=0.00863481
					44:[D_KEYWORD_MACRO_MEAN_COEC<0.065831] yes=89,no=90,missing=90
						89:leaf=-0.0241655
						90:leaf=-0.0064358
				22:[U_KW_LEN<157] yes=45,no=46,missing=46
					45:[U_KW_LEN<56] yes=91,no=92,missing=92
						91:leaf=-0.0238263
						92:leaf=0.00105748
					46:[C_D_U_TITLEMD5_CATEGORY_MICRO_MAX_COEC<0.593832] yes=93,no=94,missing=94
						93:leaf=0.0205815
						94:leaf=-0.0129023
	2:[D_TITLEMD5_COEC<0.0257] yes=5,no=6,missing=5
		5:[KW_REL<0.000742] yes=11,no=12,missing=12
			11:[C_D_U_CATEGORY_AGE_MICRO_MAX_COEC<0.08708] yes=23,no=24,missing=24
				23:[U_KW_LEN<6458] yes=47,no=48,missing=48
					47:[C_D_U_TITLEMD5_AGE_COEC<0.022909] yes=95,no=96,missing=95
						95:leaf=-0.0359586
						96:leaf=-0.0203265
					48:[U_CAT_LEN<56] yes=97,no=98,missing=98
						97:leaf=0.0176415
						98:leaf=-0.0810039
				24:[U_CAT_LEN<54] yes=49,no=50,missing=50
					49:[U_KW_LEN<6458] yes=99,no=100,missing=100
						99:leaf=-0.0125709
						100:leaf=0.0128795
					50:[D_KEYWORD_MICRO_MEAN_COEC<0.095116] yes=101,no=102,missing=102
						101:leaf=-0.115126
						102:leaf=-0.0130032
			12:[D_KEYWORD_MACRO_MAX_COEC<0.008156] yes=25,no=26,missing=25
				25:[C_D_U_TITLEMD5_CATEGORY_MICRO_MEAN_COEC<0.06097] yes=51,no=52,missing=52
					51:[D_KEYWORD_MACRO_MEAN_COEC<0.036251] yes=103,no=104,missing=104
						103:leaf=0.0100933
						104:leaf=0.0956226
					52:[DAY_OF_WEEK<4] yes=105,no=106,missing=106
						105:leaf=-0.000498855
						106:leaf=-0.0189848
				26:[KW_REL<0.006096] yes=53,no=54,missing=54
					53:[D_CATEGORY_MICRO_MEAN_COEC<0.056024] yes=107,no=108,missing=108
						107:leaf=-0.0177345
						108:leaf=0.00519169
					54:[WORD_COUNT<1718] yes=109,no=110,missing=110
						109:leaf=-0.0120707
						110:leaf=0.0160837
		6:[TIME_OF_DAY<21] yes=13,no=14,missing=14
			13:[CAT_REL<0.036143] yes=27,no=28,missing=28
				27:[D_KEYWORD_MACRO_MEAN_COEC<0.121743] yes=55,no=56,missing=56
					55:[DAY_OF_WEEK<3] yes=111,no=112,missing=112
						111:leaf=0.00452733
						112:leaf=-0.00598746
					56:[IMAGE_COUNT<2] yes=113,no=114,missing=114
						113:leaf=0.0275681
						114:leaf=-0.0109522
				28:[D_CATEGORY_MACRO_MAX_COEC<0.030183] yes=57,no=58,missing=58
					57:[KW_REL<0.002732] yes=115,no=116,missing=116
						115:leaf=-0.00923677
						116:leaf=0.0155038
					58:[WORD_COUNT<1289] yes=117,no=118,missing=118
						117:leaf=-0.00116381
						118:leaf=0.0130657
			14:[DAY_OF_WEEK<4] yes=29,no=30,missing=30
				29:[D_CATEGORY_MACRO_MAX_COEC<0.049511] yes=59,no=60,missing=60
					59:[KW_REL<0.002252] yes=119,no=120,missing=120
						119:leaf=-0.0167482
						120:leaf=0.0085645
					60:[WORD_COUNT<3737] yes=121,no=122,missing=122
						121:leaf=-0.000883556
						122:leaf=0.0240601
				30:[U_KW_LEN<2818] yes=61,no=62,missing=62
					61:[CAT_REL<0.057117] yes=123,no=124,missing=124
						123:leaf=-0.0238395
						124:leaf=-0.0064186
					62:[C_D_U_PUBLISHER_AGE_COEC<0.124845] yes=125,no=126,missing=126
						125:leaf=-0.0181312
						126:leaf=0.00760957
booster[29]:
0:[U_KW_LEN<340] yes=1,no=2,missing=2
	1:[D_KEYWORD_MACRO_MEAN_COEC<0.047888] yes=3,no=4,missing=4
		3:[IMAGE_COUNT<0.999999] yes=7,no=8,missing=8
			7:[D_CATEGORY_MACRO_MEAN_COEC<0.046784] yes=15,no=16,missing=15
				15:[C_D_U_TITLEMD5_CATEGORY_MICRO_MEAN_COEC<0.086088] yes=31,no=32,missing=31
					31:[C_D_U_CATEGORY_AGE_MACRO_MEAN_COEC<0.094853] yes=63,no=64,missing=63
						63:leaf=-0.0508266
						64:leaf=0.12652
					32:[D_PUBLISHER_COEC<0.029654] yes=65,no=66,missing=66
						65:leaf=-0.0453863
						66:leaf=-0.0976026
				16:[C_D_U_TITLEMD5_CATEGORY_MACRO_MAX_COEC<0.05959] yes=33,no=34,missing=34
					33:[D_KEYWORD_MICRO_MEAN_COEC<0.050057] yes=67,no=68,missing=68
						67:leaf=-0.036819
						68:leaf=-0.0104041
					34:[C_D_U_TITLEMD5_CATEGORY_MACRO_MEAN_COEC<0.082138] yes=69,no=70,missing=69
						69:leaf=-0.0396637
						70:leaf=-0.0709506
			8:[D_KEYWORD_MACRO_MEAN_COEC<0.032131] yes=17,no=18,missing=18
				17:[U_KW_LEN<56] yes=35,no=36,missing=36
					35:[IMAGE_COUNT<3] yes=71,no=72,missing=72
						71:leaf=-0.0310021
						72:leaf=-0.0189388
					36:[D_CATEGORY_MACRO_MEAN_COEC<0.03849] yes=73,no=74,missing=74
						73:leaf=-0.0213483
						74:leaf=-0.00977695
				18:[WORD_COUNT<1755] yes=37,no=38,missing=38
					37:[IMAGE_COUNT<2] yes=75,no=76,missing=76
						75:leaf=-0.0236088
						76:leaf=-0.00848462
					38:[WORD_COUNT<1770] yes=77,no=78,missing=78
						77:leaf=0.0211313
						78:leaf=-0.0122789
		4:[D_TITLEMD5_COEC<0.063596] yes=9,no=10,missing=10
			9:[D_KEYWORD_MACRO_MAX_COEC<0.021865] yes=19,no=20,missing=20
				19:[D_CATEGORY_MICRO_MAX_COEC<0.023073] yes=39,no=40,missing=40
					39:[D_PUBLISHER_COEC<0.081558] yes=79,no=80,missing=80
						79:leaf=-0.0153019
						80:leaf=0.147779
					40:[WORD_COUNT<1127] yes=81,no=82,missing=82
						81:leaf=-0.0224475
						82:leaf=-0.00827639
				20:[D_CATEGORY_MACRO_MEAN_COEC<0.029347] yes=41,no=42,missing=42
					41:[C_D_U_TITLEMD5_CATEGORY_MACRO_MAX_COEC<0.056666] yes=83,no=84,missing=83
						83:leaf=-0.0615797
						84:leaf=-8.2877e-05
					42:[D_CATEGORY_MICRO_MAX_COEC<0.033169] yes=85,no=86,missing=85
						85:leaf=0.0223889
						86:leaf=-0.0231982
			10:[D_PUBLISHER_COEC<0.123646] yes=21,no=22,missing=21
				21:[WORD_COUNT<892] yes=43,no=44,missing=44
					43:[D_KEYWORD_MACRO_MAX_COEC<0.029914] yes=87,no=88,missing=87
						87:leaf=-0.040763
						88:leaf=-0.0106314
					44:[DAY_OF_WEEK<5] yes=89,no=90,missing=90
						89:leaf=-0.00340533
						90:leaf=-0.0109853
				22:[D_TITLEMD5_COEC<21.8777] yes=45,no=46,missing=46
					45:[D_CATEGORY_MACRO_MAX_COEC<0.053776] yes=91,no=92,missing=92
						91:leaf=-0.0126407
						92:leaf=0.00599013
					46:[WORD_COUNT<4507] yes=93,no=94,missing=94
						93:leaf=0.0680822
						94:leaf=0.217728
	2:[D_PUBLISHER_COEC<0.027404] yes=5,no=6,missing=5
		5:[KW_REL<0.000581] yes=11,no=12,missing=12
			11:[C_D_U_TITLEMD5_CATEGORY_MACRO_MAX_COEC<0.015749] yes=23,no=24,missing=24
				23:[CAT_REL<0.024718] yes=47,no=48,missing=48
					47:[D_KEYWORD_MICRO_MEAN_COEC<0.040001] yes=95,no=96,missing=96
						95:leaf=-0.0261188
						96:leaf=-0.0116585
					48:[U_CAT_LEN<17] yes=97,no=98,missing=98
						97:leaf=-0.0158621
						98:leaf=-0.00135928
				24:[D_TITLEMD5_COEC<0.048684] yes=49,no=50,missing=49
					49:[C_D_U_PUBLISHER_AGE_COEC<0.041912] yes=99,no=100,missing=100
						99:leaf=-0.0401512
						100:leaf=-0.0220144
					50:[C_D_U_TITLEMD5_CATEGORY_MACRO_MEAN_COEC<0.146528] yes=101,no=102,missing=102
						101:leaf=-0.0506352
						102:leaf=-0.0209144
			12:[CAT_REL<0.103519] yes=25,no=26,missing=26
				25:[U_KW_LEN<1341] yes=51,no=52,missing=52
					51:[D_KEYWORD_MICRO_MEAN_COEC<0.040001] yes=103,no=104,missing=104
						103:leaf=-0.0256106
						104:leaf=-0.00802205
					52:[D_TITLEMD5_COEC<0.045721] yes=105,no=106,missing=106
						105:leaf=-0.00144541
						106:leaf=-0.0223049
				26:[C_D_U_TITLEMD5_CATEGORY_MACRO_MAX_COEC<0.140931] yes=53,no=54,missing=54
					53:[KW_REL<0.009749] yes=107,no=108,missing=108
						107:leaf=0.00292674
						108:leaf=0.0343166
					54:[IMAGE_COUNT<0.999999] yes=109,no=110,missing=110
						109:leaf=-0.0523903
						110:leaf=-0.00941684
		6:[TIME_OF_DAY<21] yes=13,no=14,missing=14
			13:[U_KW_LEN<3626] yes=27,no=28,missing=28
				27:[C_D_U_TITLEMD5_CATEGORY_MACRO_MEAN_COEC<0.040758] yes=55,no=56,missing=55
					55:[IMAGE_COUNT<0.999999] yes=111,no=112,missing=112
						111:leaf=-0.0229953
						112:leaf=-0.00405807
					56:[C_D_U_TITLEMD5_CATEGORY_MICRO_MAX_COEC<0.474235] yes=113,no=114,missing=114
						113:leaf=0.00525993
						114:leaf=-0.00710608
				28:[U_CAT_LEN<54] yes=57,no=58,missing=58
					57:[U_KW_LEN<6451] yes=115,no=116,missing=116
						115:leaf=0.00963752
						116:leaf=0.0291356
					58:[C_D_U_PUBLISHER_GENDER_COEC<0.051058] yes=117,no=118,missing=117
						117:leaf=-0.12485
						118:leaf=-0.0885858
			14:[U_KW_LEN<5127] yes=29,no=30,missing=30
				29:[DAY_OF_WEEK<4] yes=59,no=60,missing=60
					59:[D_KEYWORD_MICRO_MEAN_COEC<0.040001] yes=119,no=120,missing=120
						119:leaf=-0.0187465
						120:leaf=-0.00165164
					60:[D_KEYWORD_MACRO_MEAN_COEC<0.078459] yes=121,no=122,missing=122
						121:leaf=-0.0197252
						122:leaf=-0.00700956
				30:[U_CAT_LEN<33] yes=61,no=62,missing=62
					61:[U_CAT_LEN<23] yes=123,no=124,missing=124
						123:leaf=0.00653242
						124:leaf=0.0411814
					62:[D_CATEGORY_MICRO_MEAN_COEC<0.057569] yes=125,no=126,missing=126
						125:leaf=-0.0155526
						126:leaf=0.0206279
booster[30]:
0:[KW_REL<9e-06] yes=1,no=2,missing=2
	1:[D_KEYWORD_MACRO_MEAN_COEC<0.038878] yes=3,no=4,missing=4
		3:[U_CAT_LEN<18] yes=7,no=8,missing=8
			7:[IMAGE_COUNT<2] yes=15,no=16,missing=16
				15:[D_CATEGORY_MICRO_MEAN_COEC<0.038555] yes=31,no=32,missing=31
					31:[IMAGE_COUNT<0.999999] yes=63,no=64,missing=64
						63:leaf=-0.0499774
						64:leaf=-0.0262249
					32:[WORD_COUNT<2031] yes=65,no=66,missing=66
						65:leaf=-0.021277
						66:leaf=-0.00968565
				16:[WORD_COUNT<678] yes=33,no=34,missing=34
					33:[C_D_U_TITLEMD5_CATEGORY_MACRO_MAX_COEC<0.112456] yes=67,no=68,missing=68
						67:leaf=0.0394917
						68:leaf=-0.00180555
					34:[C_D_U_TITLEMD5_AGE_COEC<0.065086] yes=69,no=70,missing=70
						69:leaf=-0.0349538
						70:leaf=-0.0128318
			8:[U_CAT_LEN<56] yes=17,no=18,missing=18
				17:[U_KW_LEN<6451] yes=35,no=36,missing=36
					35:[C_D_U_TITLEMD5_CATEGORY_MICRO_MAX_COEC<0.238614] yes=71,no=72,missing=72
						71:leaf=-0.00748399
						72:leaf=-0.0200846
					36:[U_CAT_LEN<32] yes=73,no=74,missing=74
						73:leaf=0.0362692
						74:leaf=-0.00545904
				18:[C_D_U_PUBLISHER_AGE_COEC<0.036292] yes=37,no=38,missing=38
					37:[TIME_OF_DAY<9] yes=75,no=76,missing=76
						75:leaf=-0.0987844
						76:leaf=0.0277582
					38:[C_D_U_PUBLISHER_GENDER_COEC<0.06892] yes=77,no=78,missing=77
						77:leaf=-0.109661
						78:leaf=-0.0861793
		4:[DAY_OF_WEEK<5] yes=9,no=10,missing=10
			9:[U_KW_LEN<1946] yes=19,no=20,missing=20
				19:[D_KEYWORD_MICRO_MEAN_COEC<0.086433] yes=39,no=40,missing=40
					39:[D_KEYWORD_MACRO_MAX_COEC<0.005179] yes=79,no=80,missing=80
						79:leaf=0.0162451
						80:leaf=-0.00834276
					40:[D_TITLEMD5_COEC<0.083252] yes=81,no=82,missing=82
						81:leaf=-0.0304483
						82:leaf=0.00106645
				20:[WORD_COUNT<819] yes=41,no=42,missing=42
					41:[WORD_COUNT<354] yes=83,no=84,missing=84
						83:leaf=0.0122761
						84:leaf=-0.0203758
					42:[U_KW_LEN<6451] yes=85,no=86,missing=86
						85:leaf=0.0089179
						86:leaf=0.0373435
			10:[D_KEYWORD_MICRO_MEAN_COEC<0.064573] yes=21,no=22,missing=21
				21:[CAT_REL<0.000502] yes=43,no=44,missing=44
					43:[IMAGE_COUNT<0.999999] yes=87,no=88,missing=88
						87:leaf=-0.0564965
						88:leaf=-0.0231576
					44:[WORD_COUNT<1334] yes=89,no=90,missing=90
						89:leaf=-0.0230722
						90:leaf=-0.00775246
				22:[D_TITLEMD5_COEC<0.064843] yes=45,no=46,missing=45
					45:[WORD_COUNT<8159] yes=91,no=92,missing=92
						91:leaf=-0.0269183
						92:leaf=0.0113589
					46:[D_KEYWORD_MICRO_MAX_COEC<0.071353] yes=93,no=94,missing=94
						93:leaf=0.0215041
						94:leaf=-0.00808772
	2:[D_CATEGORY_MACRO_MEAN_COEC<0.044611] yes=5,no=6,missing=6
		5:[KW_REL<0.001556] yes=11,no=12,missing=12
			11:[C_D_U_TITLEMD5_CATEGORY_MICRO_MAX_COEC<0.443341] yes=23,no=24,missing=24
				23:[TIME_OF_DAY<21] yes=47,no=48,missing=48
					47:[IMAGE_COUNT<0.999999] yes=95,no=96,missing=96
						95:leaf=-0.0314956
						96:leaf=-0.00493846
					48:[D_CATEGORY_MICRO_MAX_COEC<0.036172] yes=97,no=98,missing=98
						97:leaf=-0.0153401
						98:leaf=-0.0305929
				24:[C_D_U_TITLEMD5_CATEGORY_MICRO_MEAN_COEC<0.209146] yes=49,no=50,missing=49
					49:[WORD_COUNT<1024] yes=99,no=100,missing=100
						99:leaf=-0.037169
						100:leaf=-0.0167994
					50:[D_PUBLISHER_COEC<0.084406] yes=101,no=102,missing=102
						101:leaf=-0.0408187
						102:leaf=0.0127853
			12:[DAY_OF_WEEK<4] yes=25,no=26,missing=26
				25:[D_KEYWORD_MACRO_MEAN_COEC<0.033914] yes=51,no=52,missing=51
					51:[WORD_COUNT<678] yes=103,no=104,missing=104
						103:leaf=-0.0320843
						104:leaf=0.00331572
					52:[D_KEYWORD_MACRO_MAX_COEC<0.010841] yes=105,no=106,missing=106
						105:leaf=0.0296401
						106:leaf=0.00699687
				26:[KW_REL<0.0087] yes=53,no=54,missing=54
					53:[WORD_COUNT<1632] yes=107,no=108,missing=108
						107:leaf=-0.0233403
						108:leaf=-0.00453702
					54:[TIME_OF_DAY<15] yes=109,no=110,missing=110
						109:leaf=0.0212667
						110:leaf=0.00188891
		6:[WORD_COUNT<1557] yes=13,no=14,missing=14
			13:[D_TITLEMD5_COEC<0.097381] yes=27,no=28,missing=27
				27:[CAT_REL<0.033825] yes=55,no=56,missing=56
					55:[D_CATEGORY_MACRO_MAX_COEC<0.075563] yes=111,no=112,missing=112
						111:leaf=-0.0171073
						112:leaf=0.00678188
					56:[U_KW_LEN<6451] yes=113,no=114,missing=114
						113:leaf=-0.00212467
						114:leaf=0.0535555
				28:[D_CATEGORY_MACRO_MAX_COEC<0.064792] yes=57,no=58,missing=57
					57:[WORD_COUNT<1127] yes=115,no=116,missing=116
						115:leaf=0.00264989
						116:leaf=-0.029079
					58:[TIME_OF_DAY<18] yes=117,no=118,missing=118
						117:leaf=0.0201465
						118:leaf=-0.000344429
			14:[U_KW_LEN<1867] yes=29,no=30,missing=30
				29:[KW_REL<0.00029] yes=59,no=60,missing=60
					59:[D_PUBLISHER_COEC<0.114617] yes=119,no=120,missing=120
						119:leaf=-0.00265842
						120:leaf=0.0174025
					60:[C_D_U_TITLEMD5_AGE_COEC<0.088102] yes=121,no=122,missing=122
						121:leaf=-0.0109311
						122:leaf=0.00816796
				30:[U_KW_LEN<5113] yes=61,no=62,missing=62
					61:[D_TITLEMD5_COEC<0.040749] yes=123,no=124,missing=123
						123:leaf=0.00225334
						124:leaf=0.0161246
					62:[U_CAT_LEN<33] yes=125,no=126,missing=126
						125:leaf=0.042166
						126:leaf=0.0123048
booster[31]:
0:[CAT_REL<0.000509] yes=1,no=2,missing=2
	1:[D_PUBLISHER_COEC<0.048268] yes=3,no=4,missing=4
		3:[IMAGE_COUNT<0.999999] yes=7,no=8,missing=8
			7:[D_CATEGORY_MACRO_MAX_COEC<0.063363] yes=15,no=16,missing=15
				15:[U_KW_LEN<6458] yes=31,no=32,missing=32
					31:[D_KEYWORD_MACRO_MAX_COEC<0.016733] yes=63,no=64,missing=64
						63:leaf=-0.0425114
						64:leaf=-0.0654387
					32:[D_CATEGORY_MACRO_MEAN_COEC<0.044394] yes=65,no=66,missing=66
						65:leaf=-0.022904
						66:leaf=0.0657975
				16:[D_CATEGORY_MACRO_MAX_COEC<0.068106] yes=33,no=34,missing=34
					33:[U_KW_LEN<2130] yes=67,no=68,missing=68
						67:leaf=-0.00948518
						68:leaf=0.0316275
					34:[D_KEYWORD_MICRO_MAX_COEC<0.098329] yes=69,no=70,missing=70
						69:leaf=-0.0264399
						70:leaf=-0.0460598
			8:[D_CATEGORY_MACRO_MAX_COEC<0.021151] yes=17,no=18,missing=17
				17:[C_D_U_TITLEMD5_CATEGORY_MICRO_MAX_COEC<0.030846] yes=35,no=36,missing=35
					35:[U_CAT_LEN<16] yes=71,no=72,missing=72
						71:leaf=-0.0193317
						72:leaf=-0.00139305
					36:[WORD_COUNT<3932] yes=73,no=74,missing=74
						73:leaf=0.0234166
						74:leaf=-0.0183683
				18:[D_CATEGORY_MACRO_MEAN_COEC<0.059087] yes=37,no=38,missing=38
					37:[KW_REL<0.001451] yes=75,no=76,missing=76
						75:leaf=-0.0184928
						76:leaf=0.00355876
					38:[WORD_COUNT<4507] yes=77,no=78,missing=78
						77:leaf=-0.0116588
						78:leaf=0.0149343
		4:[KW_REL<0.000272] yes=9,no=10,missing=10
			9:[D_TITLEMD5_COEC<0.076551] yes=19,no=20,missing=20
				19:[IMAGE_COUNT<2] yes=39,no=40,missing=40
					39:[WORD_COUNT<1565] yes=79,no=80,missing=80
						79:leaf=-0.0253238
						80:leaf=-0.0122129
					40:[D_KEYWORD_MACRO_MAX_COEC<0.004569] yes=81,no=82,missing=82
						81:leaf=0.0230891
						82:leaf=-0.00499529
				20:[C_D_U_TITLEMD5_AGE_COEC<0.193841] yes=41,no=42,missing=41
					41:[D_KEYWORD_MACRO_MAX_COEC<0.016071] yes=83,no=84,missing=84
						83:leaf=0.00625421
						84:leaf=-0.00526845
					42:[D_PUBLISHER_COEC<0.079737] yes=85,no=86,missing=86
						85:leaf=0.00355997
						86:leaf=0.0218602
			10:[D_CATEGORY_MICRO_MAX_COEC<0.041126] yes=21,no=22,missing=21
				21:[KW_REL<0.002907] yes=43,no=44,missing=44
					43:[D_KEYWORD_MICRO_MEAN_COEC<0.076372] yes=87,no=88,missing=87
						87:leaf=0.00868572
						88:leaf=0.0708425
					44:[D_KEYWORD_MACRO_MAX_COEC<0.019919] yes=89,no=90,missing=89
						89:leaf=0.0642954
						90:leaf=-0.0215732
				22:[D_CATEGORY_MACRO_MAX_COEC<0.072355] yes=45,no=46,missing=46
					45:[WORD_COUNT<2295] yes=91,no=92,missing=92
						91:leaf=-0.0118975
						92:leaf=0.0102805
					46:[D_KEYWORD_MICRO_MAX_COEC<0.098329] yes=93,no=94,missing=94
						93:leaf=0.0319427
						94:leaf=0.00683806
	2:[D_CATEGORY_MACRO_MAX_COEC<0.052992] yes=5,no=6,missing=6
		5:[WORD_COUNT<1024] yes=11,no=12,missing=12
			11:[DAY_OF_WEEK<3] yes=23,no=24,missing=24
				23:[IMAGE_COUNT<2] yes=47,no=48,missing=48
					47:[D_TITLEMD5_COEC<0.01635] yes=95,no=96,missing=95
						95:leaf=-0.0342623
						96:leaf=-0.0112313
					48:[D_CATEGORY_MACRO_MAX_COEC<0.021151] yes=97,no=98,missing=98
						97:leaf=0.054712
						98:leaf=-0.00991677
				24:[D_CATEGORY_MICRO_MAX_COEC<0.051357] yes=49,no=50,missing=50
					49:[C_D_U_TITLEMD5_CATEGORY_MICRO_MEAN_COEC<0.037214] yes=99,no=100,missing=100
						99:leaf=-0.0258675
						100:leaf=-0.0407828
					50:[D_CATEGORY_MICRO_MAX_COEC<0.064369] yes=101,no=102,missing=102
						101:leaf=0.00404951
						102:leaf=-0.0336585
			12:[U_KW_LEN<2368] yes=25,no=26,missing=26
				25:[CAT_REL<0.087732] yes=51,no=52,missing=52
					51:[D_CATEGORY_MACRO_MEAN_COEC<0.064694] yes=103,no=104,missing=104
						103:leaf=-0.011476
						104:leaf=0.0117882
					52:[U_KW_LEN<277] yes=105,no=106,missing=106
						105:leaf=-0.0107294
						106:leaf=0.00331316
				26:[C_D_U_TITLEMD5_CATEGORY_MICRO_MEAN_COEC<0.270724] yes=53,no=54,missing=54
					53:[KW_REL<0.002644] yes=107,no=108,missing=108
						107:leaf=0.00547049
						108:leaf=0.0186154
					54:[U_CAT_LEN<54] yes=109,no=110,missing=110
						109:leaf=-0.00966747
						110:leaf=-0.101286
		6:[D_KEYWORD_MACRO_MAX_COEC<0.07198] yes=13,no=14,missing=14
			13:[WORD_COUNT<2030] yes=27,no=28,missing=28
				27:[U_KW_LEN<698] yes=55,no=56,missing=56
					55:[U_KW_LEN<131] yes=111,no=112,missing=112
						111:leaf=-0.0167585
						112:leaf=-0.00488544
					56:[D_KEYWORD_MACRO_MEAN_COEC<0.069758] yes=113,no=114,missing=114
						113:leaf=-0.000732325
						114:leaf=0.00906606
				28:[WORD_COUNT<4808] yes=57,no=58,missing=58
					57:[DAY_OF_WEEK<5] yes=115,no=116,missing=116
						115:leaf=0.0159728
						116:leaf=-0.00141192
					58:[WORD_COUNT<6876] yes=117,no=118,missing=118
						117:leaf=-0.0175398
						118:leaf=0.00196925
			14:[D_CATEGORY_MICRO_MEAN_COEC<0.068386] yes=29,no=30,missing=30
				29:[U_KW_LEN<308] yes=59,no=60,missing=60
					59:[D_KEYWORD_MICRO_MAX_COEC<0.105922] yes=119,no=120,missing=120
						119:leaf=0.069562
						120:leaf=0.0121479
					60:[TIME_OF_DAY<21] yes=121,no=122,missing=122
						121:leaf=0.0365862
						122:leaf=0.011811
				30:[TIME_OF_DAY<15] yes=61,no=62,missing=62
					61:[C_D_U_PUBLISHER_AGE_COEC<0.135016] yes=123,no=124,missing=123
						123:leaf=-0.070874
						124:leaf=0.0834686
					62:[U_KW_LEN<2025] yes=125,no=126,missing=126
						125:leaf=7.21126e-05
						126:leaf=0.036952
booster[32]:
0:[U_KW_LEN<999] yes=1,no=2,missing=2
	1:[D_PUBLISHER_COEC<0.048308] yes=3,no=4,missing=4
		3:[CAT_REL<0.090308] yes=7,no=8,missing=8
			7:[D_TITLEMD5_COEC<0.04889] yes=15,no=16,missing=16
				15:[IMAGE_COUNT<0.999999] yes=31,no=32,missing=32
					31:[D_KEYWORD_MICRO_MEAN_COEC<0.041453] yes=63,no=64,missing=64
						63:leaf=-0.0448154
						64:leaf=-0.0290578
					32:[D_KEYWORD_MACRO_MEAN_COEC<0.014613] yes=65,no=66,missing=66
						65:leaf=-0.032063
						66:leaf=-0.0152888
				16:[DAY_OF_WEEK<4] yes=33,no=34,missing=34
					33:[WORD_COUNT<3710] yes=67,no=68,missing=68
						67:leaf=-0.00929538
						68:leaf=0.00624042
					34:[D_TITLEMD5_COEC<0.112691] yes=69,no=70,missing=70
						69:leaf=-0.0195073
						70:leaf=-0.00622511
			8:[U_KW_LEN<150] yes=17,no=18,missing=18
				17:[U_KW_LEN<55] yes=35,no=36,missing=36
					35:[C_D_U_TITLEMD5_CATEGORY_MACRO_MAX_COEC<0.053152] yes=71,no=72,missing=72
						71:leaf=-0.0499578
						72:leaf=-0.0209469
					36:[D_KEYWORD_MACRO_MEAN_COEC<0.032756] yes=73,no=74,missing=73
						73:leaf=-0.0216183
						74:leaf=-0.00853074
				18:[KW_REL<0.009108] yes=37,no=38,missing=38
					37:[D_CATEGORY_MACRO_MEAN_COEC<0.032277] yes=75,no=76,missing=75
						75:leaf=-0.00965258
						76:leaf=0.0015322
					38:[CAT_REL<0.325576] yes=77,no=78,missing=78
						77:leaf=0.0124957
						78:leaf=0.0427103
		4:[C_D_U_TITLEMD5_AGE_COEC<0.157874] yes=9,no=10,missing=9
			9:[CAT_REL<0.087602] yes=19,no=20,missing=20
				19:[TIME_OF_DAY<21] yes=39,no=40,missing=40
					39:[D_KEYWORD_MICRO_MEAN_COEC<0.037741] yes=79,no=80,missing=80
						79:leaf=-0.0194593
						80:leaf=-0.00344434
					40:[D_CATEGORY_MACRO_MEAN_COEC<0.069533] yes=81,no=82,missing=81
						81:leaf=-0.0141849
						82:leaf=-0.00469746
				20:[U_KW_LEN<133] yes=41,no=42,missing=42
					41:[D_PUBLISHER_COEC<0.056057] yes=83,no=84,missing=84
						83:leaf=-0.0196134
						84:leaf=-0.0034526
					42:[D_CATEGORY_MICRO_MAX_COEC<0.043091] yes=85,no=86,missing=86
						85:leaf=-0.00502799
						86:leaf=0.0105987
			10:[U_KW_LEN<231] yes=21,no=22,missing=22
				21:[D_PUBLISHER_COEC<0.07041] yes=43,no=44,missing=44
					43:[C_D_U_PUBLISHER_GENDER_COEC<0.067088] yes=87,no=88,missing=88
						87:leaf=-0.100012
						88:leaf=-0.00992609
					44:[C_D_U_TITLEMD5_AGE_COEC<0.173362] yes=89,no=90,missing=90
						89:leaf=-0.00904665
						90:leaf=0.00820528
				22:[C_D_U_TITLEMD5_GENDER_COEC<0.173906] yes=45,no=46,missing=46
					45:[C_D_U_PUBLISHER_AGE_COEC<0.172708] yes=91,no=92,missing=92
						91:leaf=-0.00302689
						92:leaf=0.0364446
					46:[WORD_COUNT<2425] yes=93,no=94,missing=94
						93:leaf=0.0211115
						94:leaf=0.00573401
	2:[C_D_U_PUBLISHER_AGE_COEC<0.058944] yes=5,no=6,missing=6
		5:[U_KW_LEN<6552] yes=11,no=12,missing=12
			11:[DAY_OF_WEEK<5] yes=23,no=24,missing=24
				23:[KW_REL<0.004079] yes=47,no=48,missing=48
					47:[C_D_U_TITLEMD5_CATEGORY_MACRO_MAX_COEC<0.033523] yes=95,no=96,missing=96
						95:leaf=-0.01349
						96:leaf=-0.0289981
					48:[WORD_COUNT<1644] yes=97,no=98,missing=98
						97:leaf=-0.00566711
						98:leaf=0.0193351
				24:[U_KW_LEN<2828] yes=49,no=50,missing=50
					49:[D_KEYWORD_MACRO_MEAN_COEC<0.035354] yes=99,no=100,missing=100
						99:leaf=-0.0367459
						100:leaf=-0.0111727
					50:[U_KW_LEN<3010] yes=101,no=102,missing=102
						101:leaf=-0.102843
						102:leaf=-0.0427656
			12:[C_D_U_PUBLISHER_GENDER_COEC<2.16898] yes=25,no=26,missing=26
				25:[U_CAT_LEN<56] yes=51,no=52,missing=52
					51:[TIME_OF_DAY<3] yes=103,no=104,missing=104
						103:leaf=-0.0507428
						104:leaf=0.00816253
					52:[TIME_OF_DAY<10] yes=105,no=106,missing=106
						105:leaf=-0.0971265
						106:leaf=0.0173493
				26:[U_CAT_LEN<27] yes=53,no=54,missing=54
					53:[DAY_OF_WEEK<3] yes=107,no=108,missing=108
						107:leaf=-0.0446986
						108:leaf=0.0105812
					54:[U_CAT_LEN<35] yes=109,no=110,missing=110
						109:leaf=0.092623
						110:leaf=0.0289101
		6:[DAY_OF_WEEK<5] yes=13,no=14,missing=14
			13:[WORD_COUNT<1024] yes=27,no=28,missing=28
				27:[D_KEYWORD_MICRO_MAX_COEC<0.081868] yes=55,no=56,missing=56
					55:[IMAGE_COUNT<2] yes=111,no=112,missing=112
						111:leaf=-0.0187491
						112:leaf=0.0122455
					56:[DAY_OF_WEEK<4] yes=113,no=114,missing=114
						113:leaf=0.00469826
						114:leaf=-0.0213716
				28:[D_KEYWORD_MACRO_MEAN_COEC<0.031919] yes=57,no=58,missing=58
					57:[D_TITLEMD5_COEC<0.037793] yes=115,no=116,missing=116
						115:leaf=0.00112112
						116:leaf=-0.0156348
					58:[KW_REL<0.001129] yes=117,no=118,missing=118
						117:leaf=0.00592113
						118:leaf=0.0178503
			14:[TIME_OF_DAY<15] yes=29,no=30,missing=30
				29:[CAT_REL<0.038867] yes=59,no=60,missing=60
					59:[D_TITLEMD5_COEC<0.066993] yes=119,no=120,missing=119
						119:leaf=-0.0126996
						120:leaf=0.00384552
					60:[C_D_U_TITLEMD5_CATEGORY_MICRO_MAX_COEC<0.335496] yes=121,no=122,missing=122
						121:leaf=0.0103013
						122:leaf=-0.0105416
				30:[D_CATEGORY_MACRO_MEAN_COEC<0.063052] yes=61,no=62,missing=62
					61:[D_KEYWORD_MICRO_MEAN_COEC<0.078502] yes=123,no=124,missing=124
						123:leaf=-0.0172599
						124:leaf=-0.0586333
					62:[D_CATEGORY_MACRO_MAX_COEC<0.04397] yes=125,no=126,missing=126
						125:leaf=0.037169
						126:leaf=-0.00864895
booster[33]:
0:[KW_REL<1.5e-05] yes=1,no=2,missing=2
	1:[D_KEYWORD_MICRO_MEAN_COEC<0.040473] yes=3,no=4,missing=4
		3:[C_D_U_TITLEMD5_CATEGORY_MICRO_MEAN_COEC<0.139872] yes=7,no=8,missing=8
			7:[D_CATEGORY_MICRO_MAX_COEC<0.028824] yes=15,no=16,missing=15
				15:[C_D_U_TITLEMD5_CATEGORY_MICRO_MEAN_COEC<0.012741] yes=31,no=32,missing=32
					31:[WORD_COUNT<6876] yes=61,no=62,missing=62
						61:leaf=-0.00975085
						62:leaf=-0.0398099
					32:[D_KEYWORD_MICRO_MAX_COEC<0.136693] yes=63,no=64,missing=64
						63:leaf=0.0129474
						64:leaf=-0.0588841
				16:[CAT_REL<0.012094] yes=33,no=34,missing=34
					33:[D_KEYWORD_MACRO_MEAN_COEC<0.035213] yes=65,no=66,missing=66
						65:leaf=-0.0237324
						66:leaf=-0.00715659
					34:[D_CATEGORY_MACRO_MAX_COEC<0.025649] yes=67,no=68,missing=68
						67:leaf=-0.0300998
						68:leaf=-0.00524426
			8:[D_TITLEMD5_COEC<0.117925] yes=17,no=18,missing=17
				17:[IMAGE_COUNT<0.999999] yes=35,no=36,missing=36
					35:[U_KW_LEN<6460] yes=69,no=70,missing=70
						69:leaf=-0.0419841
						70:leaf=0.0318115
					36:[TIME_OF_DAY<5] yes=71,no=72,missing=72
						71:leaf=-0.026158
						72:leaf=-0.0162373
				18:[C_D_U_TITLEMD5_CATEGORY_MICRO_MAX_COEC<0.144696] yes=37,no=38,missing=37
					37:[DAY_OF_WEEK<5] yes=73,no=74,missing=74
						73:leaf=-0.0492548
						74:leaf=-0.00542722
					38:[D_KEYWORD_MACRO_MAX_COEC<0.006472] yes=75,no=76,missing=76
						75:leaf=0.0278729
						76:leaf=-0.0722065
		4:[D_PUBLISHER_COEC<0.047349] yes=9,no=10,missing=10
			9:[WORD_COUNT<3642] yes=19,no=20,missing=20
				19:[D_CATEGORY_MICRO_MEAN_COEC<0.05872] yes=39,no=40,missing=40
					39:[WORD_COUNT<892] yes=77,no=78,missing=78
						77:leaf=-0.0313671
						78:leaf=-0.0167863
					40:[D_TITLEMD5_COEC<0.068232] yes=79,no=80,missing=80
						79:leaf=-0.0103012
						80:leaf=0.000655571
				20:[D_KEYWORD_MICRO_MAX_COEC<0.076341] yes=41,no=42,missing=42
					41:[DAY_OF_WEEK<4] yes=81,no=82,missing=82
						81:leaf=0.0114309
						82:leaf=-0.0112559
					42:[D_CATEGORY_MACRO_MAX_COEC<0.038259] yes=83,no=84,missing=83
						83:leaf=-0.03481
						84:leaf=-0.0111206
			10:[U_KW_LEN<2255] yes=21,no=22,missing=22
				21:[DAY_OF_WEEK<2] yes=43,no=44,missing=44
					43:[WORD_COUNT<1277] yes=85,no=86,missing=86
						85:leaf=-0.00649012
						86:leaf=0.00549321
					44:[D_TITLEMD5_COEC<0.108829] yes=87,no=88,missing=88
						87:leaf=-0.0083855
						88:leaf=-0.00094744
				22:[D_PUBLISHER_COEC<0.084367] yes=45,no=46,missing=45
					45:[DAY_OF_WEEK<3] yes=89,no=90,missing=90
						89:leaf=0.0155721
						90:leaf=-0.00391745
					46:[C_D_U_TITLEMD5_CATEGORY_MICRO_MEAN_COEC<0.1427] yes=91,no=92,missing=92
						91:leaf=0.00893322
						92:leaf=0.0288916
	2:[U_KW_LEN<3029] yes=5,no=6,missing=6
		5:[IMAGE_COUNT<0.999999] yes=11,no=12,missing=12
			11:[D_CATEGORY_MACRO_MAX_COEC<0.054807] yes=23,no=24,missing=23
				23:[C_D_U_TITLEMD5_CATEGORY_MICRO_MEAN_COEC<0.09456] yes=47,no=48,missing=47
					47:[TIME_OF_DAY<14] yes=93,no=94,missing=94
						93:leaf=-0.0200117
						94:leaf=-0.0362519
					48:[D_KEYWORD_MICRO_MAX_COEC<0.068717] yes=95,no=96,missing=96
						95:leaf=-0.0444553
						96:leaf=-0.0681276
				24:[CAT_REL<0.013676] yes=49,no=50,missing=50
					49:[D_KEYWORD_MACRO_MAX_COEC<0.005571] yes=97,no=98,missing=98
						97:leaf=0.00826319
						98:leaf=-0.0281919
					50:[TIME_OF_DAY<18] yes=99,no=100,missing=100
						99:leaf=0.0118302
						100:leaf=-0.0153064
			12:[D_KEYWORD_MACRO_MEAN_COEC<0.03245] yes=25,no=26,missing=26
				25:[CAT_REL<0.082787] yes=51,no=52,missing=52
					51:[D_CATEGORY_MICRO_MAX_COEC<0.028824] yes=101,no=102,missing=101
						101:leaf=0.000933101
						102:leaf=-0.0126174
					52:[D_TITLEMD5_COEC<0.047891] yes=103,no=104,missing=104
						103:leaf=0.00145532
						104:leaf=-0.0168287
				26:[C_D_U_TITLEMD5_AGE_COEC<0.121321] yes=53,no=54,missing=53
					53:[TIME_OF_DAY<20] yes=105,no=106,missing=106
						105:leaf=0.0023096
						106:leaf=-0.00599102
					54:[D_KEYWORD_MACRO_MEAN_COEC<0.047166] yes=107,no=108,missing=108
						107:leaf=-0.00408667
						108:leaf=0.0141645
		6:[U_CAT_LEN<54] yes=13,no=14,missing=14
			13:[U_KW_LEN<6460] yes=27,no=28,missing=28
				27:[C_D_U_PUBLISHER_AGE_COEC<0.066057] yes=55,no=56,missing=56
					55:[U_CAT_LEN<32] yes=109,no=110,missing=110
						109:leaf=-0.00553432
						110:leaf=-0.0382027
					56:[C_D_U_TITLEMD5_CATEGORY_MACRO_MEAN_COEC<0.029337] yes=111,no=112,missing=111
						111:leaf=0.0054359
						112:leaf=0.0181895
				28:[C_D_U_CATEGORY_AGE_MICRO_MAX_COEC<0.04063] yes=57,no=58,missing=57
					57:[U_CAT_LEN<32] yes=113,no=114,missing=114
						113:leaf=0.0352221
						114:leaf=0.00912988
					58:[U_CAT_LEN<27] yes=115,no=116,missing=116
						115:leaf=0.0138329
						116:leaf=0.0659936
			14:[C_D_U_CATEGORY_GENDER_MICRO_MAX_COEC<0.088105] yes=29,no=30,missing=30
				29:[TIME_OF_DAY<10] yes=59,no=60,missing=60
					59:[D_PUBLISHER_COEC<0.012628] yes=117,no=118,missing=118
						117:leaf=-0.0637233
						118:leaf=-0.119322
					60:leaf=0.0289365
				30:leaf=-0.124746
booster[34]:
0:[CAT_REL<0.000558] yes=1,no=2,missing=2
	1:[D_PUBLISHER_COEC<0.048068] yes=3,no=4,missing=4
		3:[D_CATEGORY_MACRO_MAX_COEC<0.02104] yes=7,no=8,missing=7
			7:[C_D_U_TITLEMD5_CATEGORY_MICRO_MAX_COEC<0.031485] yes=15,no=16,missing=15
				15:[DAY_OF_WEEK<5] yes=31,no=32,missing=32
					31:[D_PUBLISHER_COEC<0.042401] yes=63,no=64,missing=64
						63:leaf=-0.0116941
						64:leaf=0.022149
					32:[D_KEYWORD_MACRO_MAX_COEC<0.013134] yes=65,no=66,missing=65
						65:leaf=-0.0432462
						66:leaf=-0.0214673
				16:[D_TITLEMD5_COEC<0.065227] yes=33,no=34,missing=34
					33:[D_KEYWORD_MACRO_MAX_COEC<0.006309] yes=67,no=68,missing=68
						67:leaf=-0.0191984
						68:leaf=0.022283
					34:[D_KEYWORD_MICRO_MAX_COEC<0.0882] yes=69,no=70,missing=70
						69:leaf=-0.0180141
						70:leaf=-0.0647744
			8:[IMAGE_COUNT<0.999999] yes=17,no=18,missing=18
				17:[D_KEYWORD_MICRO_MEAN_COEC<0.047412] yes=35,no=36,missing=36
					35:[U_KW_LEN<3343] yes=71,no=72,missing=72
						71:leaf=-0.0425036
						72:leaf=-0.0127474
					36:[D_KEYWORD_MICRO_MAX_COEC<0.08895] yes=73,no=74,missing=74
						73:leaf=-0.0092823
						74:leaf=-0.0366697
				18:[KW_REL<0.001068] yes=37,no=38,missing=38
					37:[D_CATEGORY_MICRO_MEAN_COEC<0.059084] yes=75,no=76,missing=76
						75:leaf=-0.015391
						76:leaf=-0.00694289
					38:[U_KW_LEN<1712] yes=77,no=78,missing=78
						77:leaf=-0.000918563
						78:leaf=0.0151851
		4:[KW_REL<0.000407] yes=9,no=10,missing=10
			9:[D_TITLEMD5_COEC<0.079157] yes=19,no=20,missing=20
				19:[IMAGE_COUNT<2] yes=39,no=40,missing=40
					39:[WORD_COUNT<1560] yes=79,no=80,missing=80
						79:leaf=-0.0224084
						80:leaf=-0.00984539
					40:[D_KEYWORD_MACRO_MAX_COEC<0.004593] yes=81,no=82,missing=82
						81:leaf=0.0205663
						82:leaf=-0.0038643
				20:[WORD_COUNT<892] yes=41,no=42,missing=42
					41:[D_KEYWORD_MACRO_MAX_COEC<0.038426] yes=83,no=84,missing=83
						83:leaf=-0.0315812
						84:leaf=-0.00555664
					42:[DAY_OF_WEEK<2] yes=85,no=86,missing=86
						85:leaf=0.00913778
						86:leaf=-0.00227417
			10:[D_CATEGORY_MICRO_MEAN_COEC<0.048279] yes=21,no=22,missing=21
				21:[KW_REL<0.00153] yes=43,no=44,missing=44
					43:[D_KEYWORD_MICRO_MEAN_COEC<0.075181] yes=87,no=88,missing=87
						87:leaf=0.00367846
						88:leaf=0.0523478
					44:[D_KEYWORD_MACRO_MAX_COEC<0.017811] yes=89,no=90,missing=89
						89:leaf=0.0453401
						90:leaf=-0.00471145
				22:[D_CATEGORY_MICRO_MAX_COEC<0.085569] yes=45,no=46,missing=46
					45:[WORD_COUNT<4052] yes=91,no=92,missing=92
						91:leaf=-0.00360184
						92:leaf=0.0147842
					46:[D_KEYWORD_MACRO_MAX_COEC<0.034082] yes=93,no=94,missing=94
						93:leaf=0.026655
						94:leaf=0.00431729
	2:[D_CATEGORY_MICRO_MEAN_COEC<0.053698] yes=5,no=6,missing=6
		5:[KW_REL<0.003541] yes=11,no=12,missing=12
			11:[C_D_U_TITLEMD5_CATEGORY_MICRO_MEAN_COEC<0.272924] yes=23,no=24,missing=24
				23:[U_KW_LEN<1871] yes=47,no=48,missing=48
					47:[U_CAT_LEN<27] yes=95,no=96,missing=96
						95:leaf=-0.00675927
						96:leaf=-0.0445402
					48:[WORD_COUNT<1024] yes=97,no=98,missing=98
						97:leaf=-0.0151399
						98:leaf=0.00321159
				24:[D_CATEGORY_MACRO_MAX_COEC<0.031781] yes=49,no=50,missing=50
					49:[C_D_U_TITLEMD5_CATEGORY_MACRO_MAX_COEC<6.01734] yes=99,no=100,missing=100
						99:leaf=-0.0428359
						100:leaf=-0.0212394
					50:[WORD_COUNT<1282] yes=101,no=102,missing=102
						101:leaf=-0.0272209
						102:leaf=-0.00644582
			12:[DAY_OF_WEEK<4] yes=25,no=26,missing=26
				25:[U_KW_LEN<659] yes=51,no=52,missing=52
					51:[C_D_U_TITLEMD5_CATEGORY_MACRO_MEAN_COEC<0.101227] yes=103,no=104,missing=103
						103:leaf=-0.00298652
						104:leaf=0.0219126
					52:[D_TITLEMD5_COEC<0.047018] yes=105,no=106,missing=105
						105:leaf=0.0126515
						106:leaf=0.0372908
				26:[TIME_OF_DAY<15] yes=53,no=54,missing=54
					53:[D_CATEGORY_MICRO_MAX_COEC<0.036547] yes=107,no=108,missing=108
						107:leaf=0.0132533
						108:leaf=-0.00832765
					54:[D_TITLEMD5_COEC<0.038842] yes=109,no=110,missing=109
						109:leaf=-0.0157772
						110:leaf=-0.000542892
		6:[WORD_COUNT<1462] yes=13,no=14,missing=14
			13:[D_KEYWORD_MACRO_MEAN_COEC<0.079095] yes=27,no=28,missing=27
				27:[U_KW_LEN<154] yes=55,no=56,missing=56
					55:[CAT_REL<0.071342] yes=111,no=112,missing=112
						111:leaf=-0.0371621
						112:leaf=-0.0192826
					56:[D_CATEGORY_MICRO_MAX_COEC<0.073998] yes=113,no=114,missing=113
						113:leaf=-0.00281703
						114:leaf=-0.0210828
				28:[D_PUBLISHER_COEC<0.049953] yes=57,no=58,missing=57
					57:[C_D_U_TITLEMD5_CATEGORY_MACRO_MAX_COEC<6.01734] yes=115,no=116,missing=116
						115:leaf=-0.0595953
						116:leaf=-0.00725239
					58:[TIME_OF_DAY<16] yes=117,no=118,missing=118
						117:leaf=0.0109452
						118:leaf=-0.00155402
			14:[WORD_COUNT<4808] yes=29,no=30,missing=30
				29:[WORD_COUNT<4507] yes=59,no=60,missing=60
					59:[U_KW_LEN<1115] yes=119,no=120,missing=120
						119:leaf=0.00290741
						120:leaf=0.0116806
					60:[IMAGE_COUNT<2] yes=121,no=122,missing=122
						121:leaf=0.0493001
						122:leaf=-0.0292404
				30:[IMAGE_COUNT<2] yes=61,no=62,missing=62
					61:[D_CATEGORY_MICRO_MAX_COEC<0.058935] yes=123,no=124,missing=123
						123:leaf=-0.00567732
						124:leaf=-0.0359918
					62:[D_CATEGORY_MACRO_MAX_COEC<0.029166] yes=125,no=126,missing=125
						125:leaf=0.0681071
						126:leaf=-0.00505503
booster[35]:
0:[U_KW_LEN<1351] yes=1,no=2,missing=2
	1:[D_KEYWORD_MACRO_MEAN_COEC<0.032014] yes=3,no=4,missing=4
		3:[CAT_REL<0.084359] yes=7,no=8,missing=8
			7:[D_CATEGORY_MICRO_MEAN_COEC<0.053716] yes=15,no=16,missing=16
				15:[D_CATEGORY_MICRO_MEAN_COEC<0.028544] yes=31,no=32,missing=32
					31:[D_KEYWORD_MACRO_MEAN_COEC<0.020475] yes=63,no=64,missing=64
						63:leaf=-0.0218725
						64:leaf=-0.000328295
					32:[D_KEYWORD_MICRO_MEAN_COEC<0.041433] yes=65,no=66,missing=66
						65:leaf=-0.0213731
						66:leaf=-0.0108085
				16:[D_PUBLISHER_COEC<0.190734] yes=33,no=34,missing=34
					33:[D_CATEGORY_MICRO_MEAN_COEC<0.053847] yes=67,no=68,missing=68
						67:leaf=0.0407356
						68:leaf=-0.00806808
					34:[D_KEYWORD_MACRO_MEAN_COEC<0.026912] yes=69,no=70,missing=70
						69:leaf=0.032124
						70:leaf=0.181226
			8:[U_KW_LEN<285] yes=17,no=18,missing=18
				17:[CAT_REL<0.24497] yes=35,no=36,missing=36
					35:[U_KW_LEN<90] yes=71,no=72,missing=72
						71:leaf=-0.0378368
						72:leaf=-0.0177266
					36:[U_KW_LEN<180] yes=73,no=74,missing=74
						73:leaf=-0.0114116
						74:leaf=0.0092626
				18:[D_TITLEMD5_COEC<0.047494] yes=37,no=38,missing=38
					37:[CAT_REL<0.163504] yes=75,no=76,missing=76
						75:leaf=-0.00329493
						76:leaf=0.0094149
					38:[D_CATEGORY_MICRO_MAX_COEC<0.036501] yes=77,no=78,missing=78
						77:leaf=-0.021893
						78:leaf=0.00651342
		4:[CAT_REL<0.050242] yes=9,no=10,missing=10
			9:[D_KEYWORD_MACRO_MEAN_COEC<0.06897] yes=19,no=20,missing=20
				19:[DAY_OF_WEEK<3] yes=39,no=40,missing=40
					39:[WORD_COUNT<3710] yes=79,no=80,missing=80
						79:leaf=-0.00599667
						80:leaf=0.00926292
					40:[WORD_COUNT<2456] yes=81,no=82,missing=82
						81:leaf=-0.0153784
						82:leaf=-0.0074064
				20:[TIME_OF_DAY<20] yes=41,no=42,missing=42
					41:[C_D_U_TITLEMD5_CATEGORY_MICRO_MEAN_COEC<0.18465] yes=83,no=84,missing=83
						83:leaf=-0.00146662
						84:leaf=0.00849797
					42:[C_D_U_TITLEMD5_CATEGORY_MICRO_MAX_COEC<0.245521] yes=85,no=86,missing=86
						85:leaf=-0.0133585
						86:leaf=-0.00399087
			10:[WORD_COUNT<4808] yes=21,no=22,missing=22
				21:[U_KW_LEN<130] yes=43,no=44,missing=44
					43:[U_KW_LEN<57] yes=87,no=88,missing=88
						87:leaf=-0.021899
						88:leaf=-0.00527833
					44:[C_D_U_TITLEMD5_CATEGORY_MACRO_MEAN_COEC<0.104447] yes=89,no=90,missing=89
						89:leaf=0.00290409
						90:leaf=0.0136728
				22:[TIME_OF_DAY<16] yes=45,no=46,missing=46
					45:[D_KEYWORD_MACRO_MAX_COEC<0.048924] yes=91,no=92,missing=92
						91:leaf=-0.00209979
						92:leaf=-0.0493704
					46:[D_TITLEMD5_COEC<0.043589] yes=93,no=94,missing=94
						93:leaf=-0.00516659
						94:leaf=-0.0279893
	2:[D_PUBLISHER_COEC<0.025387] yes=5,no=6,missing=5
		5:[D_TITLEMD5_COEC<0.034829] yes=11,no=12,missing=12
			11:[DAY_OF_WEEK<4] yes=23,no=24,missing=24
				23:[CAT_REL<0.013265] yes=47,no=48,missing=48
					47:[U_CAT_LEN<54] yes=95,no=96,missing=96
						95:leaf=-0.0100341
						96:leaf=-0.0892436
					48:[D_TITLEMD5_COEC<0.011124] yes=97,no=98,missing=98
						97:leaf=-0.00364879
						98:leaf=0.00874904
				24:[KW_REL<0.000587] yes=49,no=50,missing=50
					49:[U_CAT_LEN<45] yes=99,no=100,missing=100
						99:leaf=-0.0266995
						100:leaf=0.0582535
					50:[TIME_OF_DAY<11] yes=101,no=102,missing=102
						101:leaf=0.00667459
						102:leaf=-0.0163399
			12:[KW_REL<0.000142] yes=25,no=26,missing=26
				25:[D_KEYWORD_MICRO_MEAN_COEC<0.034371] yes=51,no=52,missing=51
					51:[U_KW_LEN<1659] yes=103,no=104,missing=104
						103:leaf=-0.0263468
						104:leaf=-0.0489321
					52:[DAY_OF_WEEK<5] yes=105,no=106,missing=106
						105:leaf=-0.0208111
						106:leaf=-0.0460163
				26:[U_KW_LEN<6427] yes=53,no=54,missing=54
					53:[D_KEYWORD_MICRO_MEAN_COEC<0.040808] yes=107,no=108,missing=108
						107:leaf=-0.0227726
						108:leaf=-0.00870606
					54:[C_D_U_CATEGORY_AGE_MACRO_MEAN_COEC<0.065928] yes=109,no=110,missing=110
						109:leaf=0.0960413
						110:leaf=0.00699002
		6:[U_KW_LEN<5146] yes=13,no=14,missing=14
			13:[U_CAT_LEN<26] yes=27,no=28,missing=28
				27:[C_D_U_TITLEMD5_AGE_COEC<0.055064] yes=55,no=56,missing=56
					55:[CAT_REL<0.02786] yes=111,no=112,missing=112
						111:leaf=-0.0218858
						112:leaf=-0.0031817
					56:[TIME_OF_DAY<21] yes=113,no=114,missing=114
						113:leaf=0.00679292
						114:leaf=-0.00363896
				28:[U_KW_LEN<1961] yes=57,no=58,missing=58
					57:[U_CAT_LEN<28] yes=115,no=116,missing=116
						115:leaf=-0.0231037
						116:leaf=-0.0422907
					58:[D_KEYWORD_MACRO_MEAN_COEC<0.084515] yes=117,no=118,missing=117
						117:leaf=-0.000250644
						118:leaf=0.0164626
			14:[U_CAT_LEN<33] yes=29,no=30,missing=30
				29:[U_CAT_LEN<23] yes=59,no=60,missing=60
					59:[U_CAT_LEN<8] yes=119,no=120,missing=120
						119:leaf=0.159361
						120:leaf=0.00107451
					60:[U_KW_LEN<6427] yes=121,no=122,missing=122
						121:leaf=0.0245794
						122:leaf=0.044119
				30:[U_CAT_LEN<54] yes=61,no=62,missing=62
					61:[U_CAT_LEN<45] yes=123,no=124,missing=124
						123:leaf=-0.00376556
						124:leaf=0.0386184
					62:[C_D_U_PUBLISHER_GENDER_COEC<0.120308] yes=125,no=126,missing=126
						125:leaf=-0.0833458
						126:leaf=-0.117042
booster[36]:
0:[KW_REL<0.000311] yes=1,no=2,missing=2
	1:[D_CATEGORY_MICRO_MEAN_COEC<0.051505] yes=3,no=4,missing=4
		3:[IMAGE_COUNT<2] yes=7,no=8,missing=8
			7:[WORD_COUNT<892] yes=15,no=16,missing=16
				15:[D_KEYWORD_MACRO_MEAN_COEC<0.032824] yes=31,no=32,missing=32
					31:[D_TITLEMD5_COEC<0.011181] yes=63,no=64,missing=63
						63:leaf=-0.0370379
						64:leaf=-0.00865813
					32:[D_KEYWORD_MACRO_MAX_COEC<0.02454] yes=65,no=66,missing=66
						65:leaf=-0.0372264
						66:leaf=-0.0594927
				16:[D_KEYWORD_MACRO_MEAN_COEC<0.045293] yes=33,no=34,missing=33
					33:[CAT_REL<0.015388] yes=67,no=68,missing=68
						67:leaf=-0.0168389
						68:leaf=-0.00763228
					34:[D_TITLEMD5_COEC<0.057456] yes=69,no=70,missing=70
						69:leaf=0.00857609
						70:leaf=-0.00984386
			8:[WORD_COUNT<680] yes=17,no=18,missing=18
				17:[C_D_U_TITLEMD5_CATEGORY_MICRO_MEAN_COEC<0.120625] yes=35,no=36,missing=36
					35:[D_CATEGORY_MACRO_MEAN_COEC<0.023065] yes=71,no=72,missing=72
						71:leaf=0.0741536
						72:leaf=0.034247
					36:[C_D_U_TITLEMD5_CATEGORY_MICRO_MEAN_COEC<0.164832] yes=73,no=74,missing=73
						73:leaf=0.00566149
						74:leaf=-0.0376706
				18:[D_CATEGORY_MICRO_MAX_COEC<0.035816] yes=37,no=38,missing=38
					37:[D_TITLEMD5_COEC<0.024322] yes=75,no=76,missing=75
						75:leaf=-0.0109501
						76:leaf=0.00396534
					38:[WORD_COUNT<4248] yes=77,no=78,missing=78
						77:leaf=-0.0100547
						78:leaf=-0.0283119
		4:[U_KW_LEN<3365] yes=9,no=10,missing=10
			9:[D_TITLEMD5_COEC<0.075974] yes=19,no=20,missing=20
				19:[WORD_COUNT<3710] yes=39,no=40,missing=40
					39:[CAT_REL<0.013635] yes=79,no=80,missing=80
						79:leaf=-0.0117435
						80:leaf=-0.00267962
					40:[DAY_OF_WEEK<4] yes=81,no=82,missing=82
						81:leaf=0.00988642
						82:leaf=-0.00977657
				20:[WORD_COUNT<2325] yes=41,no=42,missing=42
					41:[WORD_COUNT<2295] yes=83,no=84,missing=84
						83:leaf=0.000606416
						84:leaf=0.0167986
					42:[C_D_U_TITLEMD5_CATEGORY_MICRO_MEAN_COEC<0.060165] yes=85,no=86,missing=85
						85:leaf=0.00149587
						86:leaf=-0.00968531
			10:[U_CAT_LEN<20] yes=21,no=22,missing=22
				21:[D_TITLEMD5_COEC<0.016435] yes=43,no=44,missing=43
					43:[C_D_U_CATEGORY_AGE_MICRO_MAX_COEC<0.094164] yes=87,no=88,missing=88
						87:leaf=0.0367724
						88:leaf=-0.0470256
					44:[U_CAT_LEN<13] yes=89,no=90,missing=90
						89:leaf=-0.0353913
						90:leaf=-0.000613294
				22:[U_CAT_LEN<34] yes=45,no=46,missing=46
					45:[U_KW_LEN<6460] yes=91,no=92,missing=92
						91:leaf=0.0132848
						92:leaf=0.0398717
					46:[U_CAT_LEN<54] yes=93,no=94,missing=94
						93:leaf=-0.00284541
						94:leaf=-0.0949253
	2:[IMAGE_COUNT<0.999999] yes=5,no=6,missing=6
		5:[D_CATEGORY_MACRO_MAX_COEC<0.054899] yes=11,no=12,missing=11
			11:[U_KW_LEN<5070] yes=23,no=24,missing=24
				23:[C_D_U_TITLEMD5_CATEGORY_MICRO_MEAN_COEC<0.099522] yes=47,no=48,missing=47
					47:[CAT_REL<0.075334] yes=95,no=96,missing=96
						95:leaf=-0.0347099
						96:leaf=-0.015388
					48:[D_CATEGORY_MACRO_MAX_COEC<0.044611] yes=97,no=98,missing=97
						97:leaf=-0.0579697
						98:leaf=-0.0270235
				24:[CAT_REL<0.069894] yes=49,no=50,missing=50
					49:[DAY_OF_WEEK<2] yes=99,no=100,missing=100
						99:leaf=0.0299107
						100:leaf=-0.0216017
					50:[C_D_U_CATEGORY_GENDER_MACRO_MAX_COEC<0.05493] yes=101,no=102,missing=102
						101:leaf=-0.0795588
						102:leaf=0.0480531
			12:[CAT_REL<0.013635] yes=25,no=26,missing=26
				25:[D_KEYWORD_MACRO_MAX_COEC<0.015407] yes=51,no=52,missing=52
					51:[D_KEYWORD_MICRO_MAX_COEC<0.081632] yes=103,no=104,missing=104
						103:leaf=0.00682821
						104:leaf=-0.0420711
					52:[C_D_U_TITLEMD5_CATEGORY_MACRO_MEAN_COEC<0.097443] yes=105,no=106,missing=106
						105:leaf=-0.0334349
						106:leaf=-0.0803709
				26:[C_D_U_TITLEMD5_CATEGORY_MICRO_MEAN_COEC<0.073296] yes=53,no=54,missing=54
					53:[D_PUBLISHER_COEC<0.042807] yes=107,no=108,missing=108
						107:leaf=0.032761
						108:leaf=0.00443939
					54:[U_KW_LEN<6460] yes=109,no=110,missing=110
						109:leaf=-0.00861856
						110:leaf=0.0563226
		6:[C_D_U_PUBLISHER_AGE_COEC<0.067387] yes=13,no=14,missing=13
			13:[TIME_OF_DAY<15] yes=27,no=28,missing=28
				27:[C_D_U_TITLEMD5_CATEGORY_MICRO_MAX_COEC<0.441257] yes=55,no=56,missing=56
					55:[C_D_U_TITLEMD5_CATEGORY_MACRO_MEAN_COEC<0.031331] yes=111,no=112,missing=112
						111:leaf=0.00191133
						112:leaf=0.00935122
					56:[D_PUBLISHER_COEC<0.0543] yes=113,no=114,missing=113
						113:leaf=-0.00861971
						114:leaf=0.00804262
				28:[DAY_OF_WEEK<5] yes=57,no=58,missing=58
					57:[D_KEYWORD_MACRO_MEAN_COEC<0.035309] yes=115,no=116,missing=115
						115:leaf=-0.00512222
						116:leaf=0.00320352
					58:[D_PUBLISHER_COEC<0.083142] yes=117,no=118,missing=118
						117:leaf=-0.0152217
						118:leaf=0.00228928
			14:[KW_REL<0.004595] yes=29,no=30,missing=30
				29:[C_D_U_TITLEMD5_AGE_COEC<0.107612] yes=59,no=60,missing=59
					59:[D_KEYWORD_MACRO_MAX_COEC<0.016999] yes=119,no=120,missing=120
						119:leaf=0.00623483
						120:leaf=-0.0105204
					60:[WORD_COUNT<1299] yes=121,no=122,missing=122
						121:leaf=0.00142377
						122:leaf=0.0159407
				30:[DAY_OF_WEEK<3] yes=61,no=62,missing=62
					61:[D_KEYWORD_MACRO_MEAN_COEC<0.063787] yes=123,no=124,missing=124
						123:leaf=0.0466047
						124:leaf=-0.0206092
					62:[D_PUBLISHER_COEC<0.033692] yes=125,no=126,missing=126
						125:leaf=0.0376262
						126:leaf=0.0119161
booster[37]:
0:[U_KW_LEN<1538] yes=1,no=2,missing=2
	1:[IMAGE_COUNT<0.999999] yes=3,no=4,missing=4
		3:[D_CATEGORY_MACRO_MAX_COEC<0.06343] yes=7,no=8,missing=7
			7:[D_KEYWORD_MACRO_MAX_COEC<0.017306] yes=15,no=16,missing=15
				15:[CAT_REL<0.026462] yes=31,no=32,missing=32
					31:[D_KEYWORD_MICRO_MEAN_COEC<0.044717] yes=63,no=64,missing=64
						63:leaf=-0.0409254
						64:leaf=-0.0199543
					32:[D_CATEGORY_MICRO_MEAN_COEC<0.051052] yes=65,no=66,missing=65
						65:leaf=-0.0259961
						66:leaf=-0.00190197
				16:[D_KEYWORD_MACRO_MEAN_COEC<0.034097] yes=33,no=34,missing=34
					33:[D_CATEGORY_MICRO_MEAN_COEC<0.036374] yes=67,no=68,missing=67
						67:leaf=-0.0185016
						68:leaf=-0.0492568
					34:[C_D_U_TITLEMD5_CATEGORY_MICRO_MEAN_COEC<0.07812] yes=69,no=70,missing=69
						69:leaf=-0.0505379
						70:leaf=-0.0756438
			8:[D_CATEGORY_MICRO_MAX_COEC<0.06701] yes=17,no=18,missing=18
				17:[CAT_REL<0.019909] yes=35,no=36,missing=36
					35:[D_KEYWORD_MICRO_MEAN_COEC<0.044717] yes=71,no=72,missing=71
						71:leaf=-0.0338947
						72:leaf=0.00669276
					36:[WORD_COUNT<1677] yes=73,no=74,missing=74
						73:leaf=0.0360003
						74:leaf=-0.0325155
				18:[D_KEYWORD_MICRO_MAX_COEC<0.09817] yes=37,no=38,missing=38
					37:[D_KEYWORD_MICRO_MEAN_COEC<0.048042] yes=75,no=76,missing=76
						75:leaf=-0.0348499
						76:leaf=-0.00712414
					38:[D_KEYWORD_MACRO_MEAN_COEC<0.03699] yes=77,no=78,missing=78
						77:leaf=0.0175565
						78:leaf=-0.0356901
		4:[TIME_OF_DAY<23] yes=9,no=10,missing=10
			9:[D_KEYWORD_MICRO_MEAN_COEC<0.034596] yes=19,no=20,missing=20
				19:[KW_REL<0.009425] yes=39,no=40,missing=40
					39:[C_D_U_TITLEMD5_CATEGORY_MICRO_MEAN_COEC<0.118346] yes=79,no=80,missing=80
						79:leaf=-0.00789495
						80:leaf=-0.0167329
					40:[D_CATEGORY_MICRO_MAX_COEC<0.035557] yes=81,no=82,missing=82
						81:leaf=0.0218123
						82:leaf=-0.00299298
				20:[KW_REL<0.000355] yes=41,no=42,missing=42
					41:[D_PUBLISHER_COEC<0.126938] yes=83,no=84,missing=84
						83:leaf=-0.00415161
						84:leaf=0.00886087
					42:[CAT_REL<0.164908] yes=85,no=86,missing=86
						85:leaf=0.00120634
						86:leaf=0.0101454
			10:[C_D_U_TITLEMD5_CATEGORY_MACRO_MEAN_COEC<0.086858] yes=21,no=22,missing=22
				21:[DAY_OF_WEEK<2] yes=43,no=44,missing=44
					43:[D_TITLEMD5_COEC<0.093967] yes=87,no=88,missing=88
						87:leaf=-0.015073
						88:leaf=0.0394322
					44:[C_D_U_TITLEMD5_CATEGORY_MICRO_MAX_COEC<0.386654] yes=89,no=90,missing=90
						89:leaf=-0.0213504
						90:leaf=-0.047177
				22:[D_CATEGORY_MICRO_MEAN_COEC<0.029577] yes=45,no=46,missing=46
					45:[CAT_REL<0.081429] yes=91,no=92,missing=92
						91:leaf=-0.0355433
						92:leaf=0.00281334
					46:[WORD_COUNT<892] yes=93,no=94,missing=94
						93:leaf=-0.0200729
						94:leaf=-0.00864469
	2:[C_D_U_PUBLISHER_AGE_COEC<0.044175] yes=5,no=6,missing=6
		5:[U_KW_LEN<6552] yes=11,no=12,missing=12
			11:[DAY_OF_WEEK<4] yes=23,no=24,missing=24
				23:[WORD_COUNT<6501] yes=47,no=48,missing=48
					47:[U_CAT_LEN<36] yes=95,no=96,missing=96
						95:leaf=-0.0160272
						96:leaf=-0.0687662
					48:[U_KW_LEN<4100] yes=97,no=98,missing=98
						97:leaf=-0.00437746
						98:leaf=0.0544733
				24:[C_D_U_CATEGORY_AGE_MICRO_MEAN_COEC<0.070289] yes=49,no=50,missing=49
					49:[U_KW_LEN<2806] yes=99,no=100,missing=100
						99:leaf=-0.030959
						100:leaf=-0.0585279
					50:[KW_REL<0.001447] yes=101,no=102,missing=102
						101:leaf=-0.0343707
						102:leaf=0.0207942
			12:[U_CAT_LEN<53] yes=25,no=26,missing=26
				25:[U_CAT_LEN<27] yes=51,no=52,missing=52
					51:[DAY_OF_WEEK<3] yes=103,no=104,missing=104
						103:leaf=-0.0434577
						104:leaf=0.00558251
					52:[U_CAT_LEN<33] yes=105,no=106,missing=106
						105:leaf=0.0829226
						106:leaf=0.00883646
				26:[TIME_OF_DAY<10] yes=53,no=54,missing=54
					53:[D_KEYWORD_MACRO_MAX_COEC<0.006291] yes=107,no=108,missing=108
						107:leaf=-0.0618806
						108:leaf=-0.105598
					54:[C_D_U_TITLEMD5_AGE_COEC<3.67609] yes=109,no=110,missing=110
						109:leaf=-0.0627426
						110:leaf=0.0927727
		6:[U_CAT_LEN<56] yes=13,no=14,missing=14
			13:[U_KW_LEN<6552] yes=27,no=28,missing=28
				27:[C_D_U_TITLEMD5_CATEGORY_MICRO_MEAN_COEC<0.272098] yes=55,no=56,missing=56
					55:[CAT_REL<0.027272] yes=111,no=112,missing=112
						111:leaf=0.000101872
						112:leaf=0.0071767
					56:[C_D_U_TITLEMD5_CATEGORY_MICRO_MEAN_COEC<0.376351] yes=113,no=114,missing=113
						113:leaf=-0.00646826
						114:leaf=-0.0258447
				28:[C_D_U_CATEGORY_AGE_MACRO_MEAN_COEC<0.028478] yes=57,no=58,missing=57
					57:[U_CAT_LEN<31] yes=115,no=116,missing=116
						115:leaf=0.0345985
						116:leaf=0.00349904
					58:[U_CAT_LEN<27] yes=117,no=118,missing=118
						117:leaf=0.00211772
						118:leaf=0.0578908
			14:[C_D_U_PUBLISHER_GENDER_COEC<0.091183] yes=29,no=30,missing=30
				29:[D_PUBLISHER_COEC<0.055145] yes=59,no=60,missing=60
					59:[D_CATEGORY_MACRO_MEAN_COEC<0.022739] yes=119,no=120,missing=119
						119:leaf=0.0161526
						120:leaf=-0.100832
					60:[D_KEYWORD_MICRO_MAX_COEC<0.067048] yes=121,no=122,missing=122
						121:leaf=0.101926
						122:leaf=-0.0320711
				30:[D_PUBLISHER_COEC<0.126938] yes=61,no=62,missing=62
					61:[D_KEYWORD_MACRO_MEAN_COEC<0.037628] yes=123,no=124,missing=124
						123:leaf=-0.109579
						124:leaf=-0.123141
					62:leaf=-0.0483852
booster[38]:
0:[TIME_OF_DAY<21] yes=1,no=2,missing=2
	1:[U_KW_LEN<226] yes=3,no=4,missing=4
		3:[D_KEYWORD_MACRO_MEAN_COEC<0.033973] yes=7,no=8,missing=8
			7:[TIME_OF_DAY<5] yes=15,no=16,missing=16
				15:[D_TITLEMD5_COEC<0.011499] yes=31,no=32,missing=31
					31:[DAY_OF_WEEK<4] yes=63,no=64,missing=64
						63:leaf=-0.0337848
						64:leaf=-0.0186543
					32:[D_TITLEMD5_COEC<0.052003] yes=65,no=66,missing=66
						65:leaf=-0.0168709
						66:leaf=-0.0478032
				16:[IMAGE_COUNT<0.999999] yes=33,no=34,missing=34
					33:[D_TITLEMD5_COEC<0.040516] yes=67,no=68,missing=67
						67:leaf=-0.0282738
						68:leaf=-0.0781839
					34:[U_KW_LEN<57] yes=69,no=70,missing=70
						69:leaf=-0.0125977
						70:leaf=-0.0031215
			8:[TIME_OF_DAY<5] yes=17,no=18,missing=18
				17:[DAY_OF_WEEK<2] yes=35,no=36,missing=36
					35:[D_PUBLISHER_COEC<0.05726] yes=71,no=72,missing=72
						71:leaf=-0.0298926
						72:leaf=-0.0107792
					36:[D_KEYWORD_MICRO_MEAN_COEC<0.03568] yes=73,no=74,missing=73
						73:leaf=-0.0333624
						74:leaf=-0.00630383
				18:[DAY_OF_WEEK<5] yes=37,no=38,missing=38
					37:[TIME_OF_DAY<10] yes=75,no=76,missing=76
						75:leaf=0.00680543
						76:leaf=-0.00131363
					38:[D_PUBLISHER_COEC<0.055412] yes=77,no=78,missing=78
						77:leaf=-0.0153611
						78:leaf=-0.0038302
		4:[C_D_U_PUBLISHER_AGE_COEC<0.058064] yes=9,no=10,missing=10
			9:[KW_REL<0.004057] yes=19,no=20,missing=20
				19:[U_KW_LEN<6579] yes=39,no=40,missing=40
					39:[C_D_U_TITLEMD5_CATEGORY_MACRO_MAX_COEC<0.031906] yes=79,no=80,missing=80
						79:leaf=-0.0137006
						80:leaf=-0.0260995
					40:[U_CAT_LEN<53] yes=81,no=82,missing=82
						81:leaf=0.0253877
						82:leaf=-0.0596795
				20:[DAY_OF_WEEK<5] yes=41,no=42,missing=42
					41:[KW_REL<0.008673] yes=83,no=84,missing=84
						83:leaf=0.00771216
						84:leaf=0.0389466
					42:[D_TITLEMD5_COEC<0.038657] yes=85,no=86,missing=85
						85:leaf=-0.0303416
						86:leaf=0.0173871
			10:[DAY_OF_WEEK<5] yes=21,no=22,missing=22
				21:[KW_REL<0.001485] yes=43,no=44,missing=44
					43:[D_KEYWORD_MICRO_MEAN_COEC<0.067791] yes=87,no=88,missing=88
						87:leaf=4.60479e-07
						88:leaf=0.0078086
					44:[D_KEYWORD_MACRO_MEAN_COEC<0.034804] yes=89,no=90,missing=90
						89:leaf=0.00561228
						90:leaf=0.0160202
				22:[CAT_REL<0.116324] yes=45,no=46,missing=46
					45:[D_KEYWORD_MICRO_MEAN_COEC<0.064748] yes=91,no=92,missing=91
						91:leaf=-0.0104996
						92:leaf=-0.000703592
					46:[C_D_U_TITLEMD5_CATEGORY_MICRO_MAX_COEC<0.772814] yes=93,no=94,missing=94
						93:leaf=0.00933256
						94:leaf=-0.0179359
	2:[D_KEYWORD_MICRO_MEAN_COEC<0.039335] yes=5,no=6,missing=5
		5:[D_KEYWORD_MACRO_MEAN_COEC<0.046809] yes=11,no=12,missing=11
			11:[U_KW_LEN<5113] yes=23,no=24,missing=24
				23:[D_PUBLISHER_COEC<0.088639] yes=47,no=48,missing=47
					47:[CAT_REL<0.041177] yes=95,no=96,missing=96
						95:leaf=-0.0218061
						96:leaf=-0.0115124
					48:[D_PUBLISHER_COEC<0.091121] yes=97,no=98,missing=98
						97:leaf=0.0802464
						98:leaf=-0.0216394
				24:[U_CAT_LEN<8] yes=49,no=50,missing=50
					49:[C_D_U_TITLEMD5_CATEGORY_MACRO_MAX_COEC<3.36316] yes=99,no=100,missing=100
						99:leaf=0.11056
						100:leaf=0.205485
					50:[KW_REL<0.0039] yes=101,no=102,missing=102
						101:leaf=0.00429837
						102:leaf=0.0406519
			12:[KW_REL<0.001713] yes=25,no=26,missing=26
				25:[D_KEYWORD_MICRO_MAX_COEC<0.099248] yes=51,no=52,missing=52
					51:[U_KW_LEN<2391] yes=103,no=104,missing=104
						103:leaf=0.000512726
						104:leaf=0.0584867
					52:[D_TITLEMD5_COEC<0.065482] yes=105,no=106,missing=105
						105:leaf=0.0307693
						106:leaf=-0.0481738
				26:[U_KW_LEN<1168] yes=53,no=54,missing=54
					53:[D_PUBLISHER_COEC<0.02071] yes=107,no=108,missing=107
						107:leaf=0.078296
						108:leaf=0.0160437
					54:[D_KEYWORD_MACRO_MAX_COEC<0.039298] yes=109,no=110,missing=110
						109:leaf=0.05439
						110:leaf=-0.100681
		6:[TIME_OF_DAY<23] yes=13,no=14,missing=14
			13:[WORD_COUNT<2295] yes=27,no=28,missing=28
				27:[D_CATEGORY_MACRO_MAX_COEC<0.076698] yes=55,no=56,missing=56
					55:[D_TITLEMD5_COEC<0.138177] yes=111,no=112,missing=111
						111:leaf=-0.00864002
						112:leaf=-0.0326183
					56:[DAY_OF_WEEK<4] yes=113,no=114,missing=114
						113:leaf=0.0290532
						114:leaf=-0.0064919
				28:[WORD_COUNT<2373] yes=57,no=58,missing=58
					57:[CAT_REL<0.007006] yes=115,no=116,missing=116
						115:leaf=0.00448594
						116:leaf=0.0276043
					58:[D_KEYWORD_MICRO_MAX_COEC<0.076566] yes=117,no=118,missing=118
						117:leaf=0.005601
						118:leaf=-0.00760962
			14:[DAY_OF_WEEK<2] yes=29,no=30,missing=30
				29:[D_KEYWORD_MICRO_MEAN_COEC<0.045884] yes=59,no=60,missing=60
					59:[D_PUBLISHER_COEC<0.07176] yes=119,no=120,missing=120
						119:leaf=0.00369393
						120:leaf=0.067042
					60:[D_CATEGORY_MACRO_MAX_COEC<0.067063] yes=121,no=122,missing=122
						121:leaf=-0.0156674
						122:leaf=0.00606485
				30:[D_KEYWORD_MACRO_MEAN_COEC<0.109518] yes=61,no=62,missing=62
					61:[C_D_U_TITLEMD5_CATEGORY_MICRO_MAX_COEC<0.390714] yes=123,no=124,missing=123
						123:leaf=-0.015376
						124:leaf=-0.0302696
					62:[D_CATEGORY_MACRO_MAX_COEC<0.062038] yes=125,no=126,missing=125
						125:leaf=-0.0396916
						126:leaf=-0.00240035
booster[39]:
0:[TIME_OF_DAY<20] yes=1,no=2,missing=2
	1:[C_D_U_TITLEMD5_CATEGORY_MICRO_MAX_COEC<0.438851] yes=3,no=4,missing=4
		3:[DAY_OF_WEEK<2] yes=7,no=8,missing=8
			7:[TIME_OF_DAY<7] yes=15,no=16,missing=16
				15:[D_PUBLISHER_COEC<0.06172] yes=31,no=32,missing=32
					31:[D_TITLEMD5_COEC<0.047678] yes=63,no=64,missing=64
						63:leaf=-0.00027786
						64:leaf=-0.0186299
					32:[U_KW_LEN<799] yes=65,no=66,missing=66
						65:leaf=0.00029729
						66:leaf=0.0175256
				16:[D_KEYWORD_MACRO_MAX_COEC<0.041797] yes=33,no=34,missing=34
					33:[D_CATEGORY_MACRO_MAX_COEC<0.015347] yes=67,no=68,missing=67
						67:leaf=0.0436951
						68:leaf=0.0115009
					34:[D_CATEGORY_MICRO_MAX_COEC<0.070626] yes=69,no=70,missing=70
						69:leaf=-0.0608665
						70:leaf=-0.0209891
			8:[CAT_REL<0.023219] yes=17,no=18,missing=18
				17:[D_CATEGORY_MICRO_MAX_COEC<0.026072] yes=35,no=36,missing=36
					35:[D_PUBLISHER_COEC<0.026649] yes=71,no=72,missing=72
						71:leaf=-0.0165269
						72:leaf=0.0210913
					36:[D_KEYWORD_MACRO_MEAN_COEC<0.033054] yes=73,no=74,missing=74
						73:leaf=-0.0123586
						74:leaf=-0.00196179
				18:[U_KW_LEN<1076] yes=37,no=38,missing=38
					37:[C_D_U_TITLEMD5_CATEGORY_MACRO_MEAN_COEC<0.095175] yes=75,no=76,missing=76
						75:leaf=-0.00280797
						76:leaf=0.00794296
					38:[C_D_U_TITLEMD5_CATEGORY_MACRO_MEAN_COEC<0.037306] yes=77,no=78,missing=78
						77:leaf=0.00339941
						78:leaf=0.012549
		4:[D_PUBLISHER_COEC<0.065503] yes=9,no=10,missing=10
			9:[D_CATEGORY_MACRO_MAX_COEC<0.029062] yes=19,no=20,missing=20
				19:[D_KEYWORD_MACRO_MEAN_COEC<0.056763] yes=39,no=40,missing=39
					39:[IMAGE_COUNT<3] yes=79,no=80,missing=80
						79:leaf=-0.0188938
						80:leaf=-0.00642963
					40:[D_CATEGORY_MACRO_MEAN_COEC<0.045895] yes=81,no=82,missing=82
						81:leaf=-0.05194
						82:leaf=0.0655895
				20:[C_D_U_TITLEMD5_CATEGORY_MICRO_MEAN_COEC<0.233455] yes=41,no=42,missing=41
					41:[TIME_OF_DAY<5] yes=83,no=84,missing=84
						83:leaf=-0.00994941
						84:leaf=-0.00355664
					42:[CAT_REL<0.146231] yes=85,no=86,missing=86
						85:leaf=-0.0210395
						86:leaf=0.00337898
			10:[D_KEYWORD_MICRO_MAX_COEC<0.139246] yes=21,no=22,missing=22
				21:[WORD_COUNT<911] yes=43,no=44,missing=44
					43:[IMAGE_COUNT<2] yes=87,no=88,missing=88
						87:leaf=-0.0137645
						88:leaf=0.00825802
					44:[D_TITLEMD5_COEC<0.071804] yes=89,no=90,missing=90
						89:leaf=-0.00446616
						90:leaf=0.00255329
				22:[U_KW_LEN<608] yes=45,no=46,missing=46
					45:[WORD_COUNT<3375] yes=91,no=92,missing=92
						91:leaf=0.00317722
						92:leaf=0.0206647
					46:[D_KEYWORD_MICRO_MEAN_COEC<0.057628] yes=93,no=94,missing=94
						93:leaf=-0.0246216
						94:leaf=0.0280768
	2:[IMAGE_COUNT<0.999999] yes=5,no=6,missing=6
		5:[U_KW_LEN<2699] yes=11,no=12,missing=12
			11:[D_CATEGORY_MACRO_MAX_COEC<0.02359] yes=23,no=24,missing=24
				23:[D_CATEGORY_MACRO_MAX_COEC<0.018434] yes=47,no=48,missing=48
					47:[C_D_U_CATEGORY_GENDER_MICRO_MEAN_COEC<0.037709] yes=95,no=96,missing=96
						95:leaf=0.116231
						96:leaf=-0.0476617
					48:[C_D_U_TITLEMD5_AGE_COEC<0.25591] yes=97,no=98,missing=98
						97:leaf=-0.105865
						98:leaf=-0.0686239
				24:[D_KEYWORD_MACRO_MAX_COEC<0.017807] yes=49,no=50,missing=50
					49:[D_CATEGORY_MICRO_MAX_COEC<0.058651] yes=99,no=100,missing=99
						99:leaf=-0.032647
						100:leaf=-0.0061003
					50:[D_KEYWORD_MICRO_MEAN_COEC<0.090949] yes=101,no=102,missing=101
						101:leaf=-0.0493146
						102:leaf=-0.0231243
			12:[D_CATEGORY_MACRO_MEAN_COEC<0.057301] yes=25,no=26,missing=25
				25:[C_D_U_TITLEMD5_CATEGORY_MACRO_MEAN_COEC<0.115588] yes=51,no=52,missing=51
					51:[D_PUBLISHER_COEC<0.048161] yes=103,no=104,missing=104
						103:leaf=-0.016288
						104:leaf=-0.0634587
					52:[D_KEYWORD_MACRO_MAX_COEC<0.005607] yes=105,no=106,missing=106
						105:leaf=0.167603
						106:leaf=0.0303938
				26:[D_KEYWORD_MACRO_MAX_COEC<0.00959] yes=53,no=54,missing=54
					53:[D_TITLEMD5_COEC<0.035059] yes=107,no=108,missing=108
						107:leaf=0.0704194
						108:leaf=-0.0272557
					54:[C_D_U_TITLEMD5_CATEGORY_MACRO_MAX_COEC<0.038342] yes=109,no=110,missing=110
						109:leaf=0.00722076
						110:leaf=-0.0356727
		6:[TIME_OF_DAY<23] yes=13,no=14,missing=14
			13:[D_KEYWORD_MICRO_MEAN_COEC<0.034756] yes=27,no=28,missing=28
				27:[D_KEYWORD_MACRO_MAX_COEC<0.012651] yes=55,no=56,missing=56
					55:[D_KEYWORD_MACRO_MAX_COEC<0.00624] yes=111,no=112,missing=112
						111:leaf=-0.0192429
						112:leaf=-0.00488278
					56:[D_CATEGORY_MACRO_MAX_COEC<0.101485] yes=113,no=114,missing=113
						113:leaf=-0.0300563
						114:leaf=0.0587385
				28:[C_D_U_TITLEMD5_GENDER_COEC<0.068568] yes=57,no=58,missing=57
					57:[U_KW_LEN<5133] yes=115,no=116,missing=116
						115:leaf=-0.00440868
						116:leaf=0.0179918
					58:[KW_REL<0.001396] yes=117,no=118,missing=118
						117:leaf=0.00723135
						118:leaf=0.023048
			14:[U_KW_LEN<5133] yes=29,no=30,missing=30
				29:[C_D_U_TITLEMD5_CATEGORY_MACRO_MEAN_COEC<0.048497] yes=59,no=60,missing=60
					59:[D_CATEGORY_MACRO_MAX_COEC<0.036398] yes=119,no=120,missing=119
						119:leaf=-0.0109429
						120:leaf=-0.0212109
					60:[CAT_REL<0.040778] yes=121,no=122,missing=122
						121:leaf=-0.0113915
						122:leaf=-0.00356122
				30:[U_CAT_LEN<30] yes=61,no=62,missing=62
					61:[C_D_U_CATEGORY_GENDER_MICRO_MEAN_COEC<0.112359] yes=123,no=124,missing=123
						123:leaf=0.00265144
						124:leaf=-0.106062
					62:[U_CAT_LEN<32] yes=125,no=126,missing=126
						125:leaf=0.0765894
						126:leaf=0.0188175
booster[40]:
0:[D_PUBLISHER_COEC<0.027326] yes=1,no=2,missing=2
	1:[D_TITLEMD5_COEC<0.043448] yes=3,no=4,missing=4
		3:[KW_REL<0.000584] yes=7,no=8,missing=8
			7:[D_TITLEMD5_COEC<0.016178] yes=15,no=16,missing=16
				15:[U_CAT_LEN<16] yes=31,no=32,missing=32
					31:[D_CATEGORY_MACRO_MAX_COEC<0.023688] yes=63,no=64,missing=63
						63:leaf=-0.0303603
						64:leaf=-0.0178954
					32:[DAY_OF_WEEK<5] yes=65,no=66,missing=66
						65:leaf=-0.00702321
						66:leaf=-0.025128
				16:[TIME_OF_DAY<3] yes=33,no=34,missing=34
					33:[D_KEYWORD_MICRO_MEAN_COEC<0.057071] yes=67,no=68,missing=68
						67:leaf=0.000369444
						68:leaf=0.0394591
					34:[DAY_OF_WEEK<5] yes=69,no=70,missing=70
						69:leaf=-0.00744565
						70:leaf=-0.026703
			8:[D_KEYWORD_MACRO_MAX_COEC<0.008688] yes=17,no=18,missing=18
				17:[WORD_COUNT<2783] yes=35,no=36,missing=36
					35:[TIME_OF_DAY<9] yes=71,no=72,missing=72
						71:leaf=0.0201902
						72:leaf=0.00272797
					36:[DAY_OF_WEEK<4] yes=73,no=74,missing=74
						73:leaf=-0.000868816
						74:leaf=-0.0204432
				18:[KW_REL<0.009256] yes=37,no=38,missing=38
					37:[D_KEYWORD_MICRO_MAX_COEC<0.053792] yes=75,no=76,missing=76
						75:leaf=-0.0234281
						76:leaf=-0.0028258
					38:[D_KEYWORD_MICRO_MAX_COEC<0.046063] yes=77,no=78,missing=78
						77:leaf=0.0460738
						78:leaf=0.00704737
		4:[D_KEYWORD_MICRO_MEAN_COEC<0.034628] yes=9,no=10,missing=9
			9:[D_KEYWORD_MACRO_MEAN_COEC<0.037944] yes=19,no=20,missing=20
				19:[CAT_REL<0.139132] yes=39,no=40,missing=40
					39:[C_D_U_CATEGORY_GENDER_MICRO_MAX_COEC<0.076867] yes=79,no=80,missing=79
						79:leaf=-0.0266849
						80:leaf=-0.065253
					40:[D_PUBLISHER_COEC<0.021256] yes=81,no=82,missing=82
						81:leaf=-0.0255578
						82:leaf=-0.00530781
				20:[TIME_OF_DAY<17] yes=41,no=42,missing=42
					41:[C_D_U_CATEGORY_AGE_MICRO_MAX_COEC<0.09519] yes=83,no=84,missing=83
						83:leaf=-0.0375175
						84:leaf=0.10124
					42:[D_TITLEMD5_COEC<0.075198] yes=85,no=86,missing=85
						85:leaf=-0.0411909
						86:leaf=-0.0770923
			10:[KW_REL<0.000284] yes=21,no=22,missing=22
				21:[C_D_U_TITLEMD5_CATEGORY_MICRO_MEAN_COEC<0.046182] yes=43,no=44,missing=43
					43:[D_CATEGORY_MICRO_MAX_COEC<0.045137] yes=87,no=88,missing=87
						87:leaf=-0.0212456
						88:leaf=-0.00774979
					44:[D_KEYWORD_MACRO_MAX_COEC<0.014165] yes=89,no=90,missing=90
						89:leaf=-0.021261
						90:leaf=-0.0432105
				22:[C_D_U_TITLEMD5_CATEGORY_MICRO_MEAN_COEC<0.123283] yes=45,no=46,missing=46
					45:[D_KEYWORD_MICRO_MEAN_COEC<0.041415] yes=91,no=92,missing=92
						91:leaf=-0.0360821
						92:leaf=-0.00174446
					46:[IMAGE_COUNT<0.999999] yes=93,no=94,missing=94
						93:leaf=-0.0357451
						94:leaf=-1.72588e-05
	2:[U_KW_LEN<2402] yes=5,no=6,missing=6
		5:[CAT_REL<0.041169] yes=11,no=12,missing=12
			11:[IMAGE_COUNT<0.999999] yes=23,no=24,missing=24
				23:[D_CATEGORY_MACRO_MAX_COEC<0.058679] yes=47,no=48,missing=47
					47:[D_TITLEMD5_COEC<0.045123] yes=95,no=96,missing=95
						95:leaf=-0.0324092
						96:leaf=-0.053549
					48:[D_CATEGORY_MICRO_MAX_COEC<0.06874] yes=97,no=98,missing=98
						97:leaf=0.00138636
						98:leaf=-0.021913
				24:[C_D_U_TITLEMD5_AGE_COEC<0.075358] yes=49,no=50,missing=50
					49:[C_D_U_CATEGORY_AGE_MICRO_MEAN_COEC<0.051543] yes=99,no=100,missing=99
						99:leaf=0.00075012
						100:leaf=-0.0209714
					50:[U_CAT_LEN<27] yes=101,no=102,missing=102
						101:leaf=-0.00243189
						102:leaf=-0.0200629
			12:[WORD_COUNT<4808] yes=25,no=26,missing=26
				25:[WORD_COUNT<1292] yes=51,no=52,missing=52
					51:[D_CATEGORY_MACRO_MAX_COEC<0.054918] yes=103,no=104,missing=103
						103:leaf=-0.0121461
						104:leaf=0.000131431
					52:[D_TITLEMD5_COEC<0.04621] yes=105,no=106,missing=105
						105:leaf=0.000902798
						106:leaf=0.00832373
				26:[D_KEYWORD_MACRO_MAX_COEC<0.05856] yes=53,no=54,missing=54
					53:[C_D_U_TITLEMD5_CATEGORY_MICRO_MEAN_COEC<0.210292] yes=107,no=108,missing=107
						107:leaf=-0.00535851
						108:leaf=-0.0273443
					54:[IMAGE_COUNT<2] yes=109,no=110,missing=110
						109:leaf=-0.0550354
						110:leaf=0.0174844
		6:[U_CAT_LEN<54] yes=13,no=14,missing=14
			13:[U_KW_LEN<6460] yes=27,no=28,missing=28
				27:[C_D_U_PUBLISHER_AGE_COEC<0.066176] yes=55,no=56,missing=56
					55:[C_D_U_TITLEMD5_AGE_COEC<0.02271] yes=111,no=112,missing=111
						111:leaf=-0.0217915
						112:leaf=-0.00121603
					56:[WORD_COUNT<1024] yes=113,no=114,missing=114
						113:leaf=-0.00459512
						114:leaf=0.00752012
				28:[U_CAT_LEN<32] yes=57,no=58,missing=58
					57:[U_CAT_LEN<23] yes=115,no=116,missing=116
						115:leaf=-0.00490823
						116:leaf=0.0377477
					58:[C_D_U_TITLEMD5_AGE_COEC<4.45927] yes=117,no=118,missing=118
						117:leaf=0.0310907
						118:leaf=0.00459795
			14:[C_D_U_CATEGORY_AGE_MACRO_MEAN_COEC<0.067721] yes=29,no=30,missing=30
				29:[TIME_OF_DAY<11] yes=59,no=60,missing=60
					59:[C_D_U_CATEGORY_GENDER_MACRO_MEAN_COEC<0.061605] yes=119,no=120,missing=120
						119:leaf=-0.093113
						120:leaf=0.0219344
					60:leaf=0.105687
				30:[C_D_U_TITLEMD5_AGE_COEC<0.105972] yes=61,no=62,missing=61
					61:[D_KEYWORD_MICRO_MEAN_COEC<0.084938] yes=121,no=122,missing=122
						121:leaf=-0.111353
						122:leaf=-0.0699062
					62:[WORD_COUNT<1473] yes=123,no=124,missing=124
						123:leaf=0.0449405
						124:leaf=-0.120508
booster[41]:
0:[U_KW_LEN<782] yes=1,no=2,missing=2
	1:[D_CATEGORY_MACRO_MAX_COEC<0.038182] yes=3,no=4,missing=4
		3:[IMAGE_COUNT<2] yes=7,no=8,missing=8
			7:[KW_REL<0.004522] yes=15,no=16,missing=16
				15:[WORD_COUNT<892] yes=31,no=32,missing=32
					31:[D_TITLEMD5_COEC<0.011192] yes=63,no=64,missing=64
						63:leaf=-0.0416861
						64:leaf=-0.0209171
					32:[WORD_COUNT<4052] yes=65,no=66,missing=66
						65:leaf=-0.0094581
						66:leaf=-0.0209864
				16:[WORD_COUNT<1334] yes=33,no=34,missing=34
					33:[C_D_U_TITLEMD5_CATEGORY_MACRO_MEAN_COEC<0.076014] yes=67,no=68,missing=68
						67:leaf=-0.0230239
						68:leaf=-0.00293349
					34:[CAT_REL<0.246342] yes=69,no=70,missing=70
						69:leaf=0.000572123
						70:leaf=0.0156059
			8:[D_CATEGORY_MICRO_MAX_COEC<0.035812] yes=17,no=18,missing=18
				17:[D_TITLEMD5_COEC<0.024624] yes=35,no=36,missing=35
					35:[WORD_COUNT<10488] yes=71,no=72,missing=72
						71:leaf=-0.00910709
						72:leaf=0.0185915
					36:[D_CATEGORY_MACRO_MAX_COEC<0.015337] yes=73,no=74,missing=74
						73:leaf=0.0276007
						74:leaf=0.00215536
				18:[D_PUBLISHER_COEC<0.047215] yes=37,no=38,missing=38
					37:[D_PUBLISHER_COEC<0.037408] yes=75,no=76,missing=76
						75:leaf=-0.0159011
						76:leaf=-0.0325393
					38:[D_PUBLISHER_COEC<0.049316] yes=77,no=78,missing=78
						77:leaf=0.0463641
						78:leaf=-0.00777704
		4:[WORD_COUNT<892] yes=9,no=10,missing=10
			9:[D_CATEGORY_MICRO_MEAN_COEC<0.062048] yes=19,no=20,missing=19
				19:[D_KEYWORD_MACRO_MAX_COEC<0.011394] yes=39,no=40,missing=40
					39:[D_KEYWORD_MICRO_MAX_COEC<0.078497] yes=79,no=80,missing=80
						79:leaf=-0.0204332
						80:leaf=0.00727214
					40:[D_CATEGORY_MICRO_MAX_COEC<0.041239] yes=81,no=82,missing=82
						81:leaf=0.0036559
						82:leaf=-0.024062
				20:[WORD_COUNT<506] yes=41,no=42,missing=42
					41:[D_CATEGORY_MICRO_MAX_COEC<0.070442] yes=83,no=84,missing=84
						83:leaf=0.00720262
						84:leaf=-0.0303515
					42:[C_D_U_TITLEMD5_CATEGORY_MICRO_MEAN_COEC<0.066036] yes=85,no=86,missing=85
						85:leaf=-0.00592255
						86:leaf=-0.0197118
			10:[DAY_OF_WEEK<5] yes=21,no=22,missing=22
				21:[CAT_REL<0.194883] yes=43,no=44,missing=44
					43:[D_TITLEMD5_COEC<0.077105] yes=87,no=88,missing=88
						87:leaf=-0.0035174
						88:leaf=0.00150762
					44:[U_KW_LEN<155] yes=89,no=90,missing=90
						89:leaf=0.0014477
						90:leaf=0.0210737
				22:[D_CATEGORY_MACRO_MAX_COEC<0.090555] yes=45,no=46,missing=46
					45:[D_CATEGORY_MICRO_MAX_COEC<0.078086] yes=91,no=92,missing=92
						91:leaf=-0.00556145
						92:leaf=-0.0216217
					46:[D_PUBLISHER_COEC<2.85407] yes=93,no=94,missing=94
						93:leaf=0.00323573
						94:leaf=0.157703
	2:[C_D_U_PUBLISHER_AGE_COEC<0.066663] yes=5,no=6,missing=6
		5:[DAY_OF_WEEK<4] yes=11,no=12,missing=12
			11:[U_KW_LEN<4082] yes=23,no=24,missing=24
				23:[WORD_COUNT<3625] yes=47,no=48,missing=48
					47:[CAT_REL<0.077572] yes=95,no=96,missing=96
						95:leaf=-0.0164243
						96:leaf=0.00147079
					48:[WORD_COUNT<3899] yes=97,no=98,missing=98
						97:leaf=0.026175
						98:leaf=-0.00212471
				24:[C_D_U_CATEGORY_GENDER_MICRO_MAX_COEC<0.127214] yes=49,no=50,missing=50
					49:[U_CAT_LEN<23] yes=99,no=100,missing=100
						99:leaf=-0.0301231
						100:leaf=0.00381013
					50:[U_CAT_LEN<19] yes=101,no=102,missing=102
						101:leaf=0.0607865
						102:leaf=0.0140548
			12:[U_KW_LEN<6457] yes=25,no=26,missing=26
				25:[CAT_REL<0.052712] yes=51,no=52,missing=52
					51:[D_KEYWORD_MACRO_MEAN_COEC<0.034254] yes=103,no=104,missing=104
						103:leaf=-0.0364551
						104:leaf=-0.0197535
					52:[TIME_OF_DAY<9] yes=105,no=106,missing=106
						105:leaf=-0.000972936
						106:leaf=-0.0172381
				26:[C_D_U_PUBLISHER_GENDER_COEC<0.250626] yes=53,no=54,missing=54
					53:[U_CAT_LEN<37] yes=107,no=108,missing=108
						107:leaf=-0.0283004
						108:leaf=0.0323137
					54:[U_CAT_LEN<25] yes=109,no=110,missing=110
						109:leaf=-0.0140001
						110:leaf=0.0549733
		6:[TIME_OF_DAY<15] yes=13,no=14,missing=14
			13:[C_D_U_TITLEMD5_CATEGORY_MACRO_MEAN_COEC<0.035918] yes=27,no=28,missing=27
				27:[C_D_U_TITLEMD5_CATEGORY_MACRO_MAX_COEC<0.018058] yes=55,no=56,missing=56
					55:[CAT_REL<0.019814] yes=111,no=112,missing=112
						111:leaf=-0.00103184
						112:leaf=0.00755428
					56:[C_D_U_TITLEMD5_CATEGORY_MICRO_MEAN_COEC<0.064588] yes=113,no=114,missing=113
						113:leaf=-0.00412125
						114:leaf=-0.0162815
				28:[C_D_U_TITLEMD5_CATEGORY_MICRO_MEAN_COEC<0.381483] yes=57,no=58,missing=58
					57:[C_D_U_TITLEMD5_CATEGORY_MICRO_MAX_COEC<0.333142] yes=115,no=116,missing=116
						115:leaf=0.0114557
						116:leaf=0.00315133
					58:[D_KEYWORD_MICRO_MAX_COEC<0.229298] yes=117,no=118,missing=118
						117:leaf=-0.0232804
						118:leaf=-0.0616142
			14:[DAY_OF_WEEK<2] yes=29,no=30,missing=30
				29:[D_CATEGORY_MACRO_MAX_COEC<0.015337] yes=59,no=60,missing=59
					59:[TIME_OF_DAY<20] yes=119,no=120,missing=120
						119:leaf=0.0520988
						120:leaf=0.0174823
					60:[D_PUBLISHER_COEC<0.060561] yes=121,no=122,missing=122
						121:leaf=0.00950878
						122:leaf=-0.00654818
				30:[D_KEYWORD_MICRO_MAX_COEC<0.150356] yes=61,no=62,missing=61
					61:[CAT_REL<0.029142] yes=123,no=124,missing=124
						123:leaf=-0.00912585
						124:leaf=5.14777e-05
					62:[D_KEYWORD_MICRO_MEAN_COEC<0.071606] yes=125,no=126,missing=126
						125:leaf=-0.00828286
						126:leaf=0.019019
booster[42]:
0:[U_KW_LEN<3031] yes=1,no=2,missing=2
	1:[IMAGE_COUNT<0.999999] yes=3,no=4,missing=4
		3:[D_CATEGORY_MACRO_MAX_COEC<0.063053] yes=7,no=8,missing=7
			7:[D_TITLEMD5_COEC<0.045806] yes=15,no=16,missing=15
				15:[D_CATEGORY_MACRO_MAX_COEC<0.02359] yes=31,no=32,missing=31
					31:[D_KEYWORD_MICRO_MEAN_COEC<0.026703] yes=61,no=62,missing=62
						61:leaf=-0.0551056
						62:leaf=-0.0322433
					32:[D_KEYWORD_MACRO_MAX_COEC<0.017085] yes=63,no=64,missing=63
						63:leaf=-0.01489
						64:leaf=-0.0366452
				16:[CAT_REL<0.013998] yes=33,no=34,missing=34
					33:[C_D_U_CATEGORY_AGE_MICRO_MAX_COEC<0.048145] yes=65,no=66,missing=66
						65:leaf=0.0544521
						66:leaf=-0.0555459
					34:[C_D_U_TITLEMD5_CATEGORY_MACRO_MAX_COEC<0.008096] yes=67,no=68,missing=67
						67:leaf=-0.00750194
						68:leaf=-0.0427528
			8:[D_CATEGORY_MICRO_MEAN_COEC<0.067777] yes=17,no=18,missing=18
				17:[WORD_COUNT<1644] yes=35,no=36,missing=36
					35:[CAT_REL<0.000399] yes=69,no=70,missing=70
						69:leaf=0.00245312
						70:leaf=0.0292797
					36:[D_TITLEMD5_COEC<0.044423] yes=71,no=72,missing=72
						71:leaf=-0.0173678
						72:leaf=-0.0904276
				18:[D_KEYWORD_MICRO_MAX_COEC<0.096899] yes=37,no=38,missing=38
					37:[D_KEYWORD_MICRO_MEAN_COEC<0.049127] yes=73,no=74,missing=74
						73:leaf=-0.0288214
						74:leaf=-0.00265284
					38:[C_D_U_TITLEMD5_CATEGORY_MICRO_MEAN_COEC<0.061679] yes=75,no=76,missing=75
						75:leaf=-0.00895734
						76:leaf=-0.0355461
		4:[TIME_OF_DAY<23] yes=9,no=10,missing=10
			9:[KW_REL<0.000352] yes=19,no=20,missing=20
				19:[C_D_U_TITLEMD5_AGE_COEC<0.096674] yes=39,no=40,missing=40
					39:[C_D_U_TITLEMD5_GENDER_COEC<0.030828] yes=77,no=78,missing=77
						77:leaf=-0.0150024
						78:leaf=-0.00440281
					40:[D_KEYWORD_MACRO_MAX_COEC<0.072103] yes=79,no=80,missing=80
						79:leaf=-0.00236206
						80:leaf=0.00863585
				20:[D_CATEGORY_MICRO_MEAN_COEC<0.057678] yes=41,no=42,missing=42
					41:[CAT_REL<0.191848] yes=81,no=82,missing=82
						81:leaf=-0.00145541
						82:leaf=0.00916117
					42:[C_D_U_TITLEMD5_AGE_COEC<0.112222] yes=83,no=84,missing=84
						83:leaf=-0.00452513
						84:leaf=0.00856738
			10:[WORD_COUNT<5741] yes=21,no=22,missing=22
				21:[WORD_COUNT<2295] yes=43,no=44,missing=44
					43:[D_KEYWORD_MICRO_MAX_COEC<0.074161] yes=85,no=86,missing=85
						85:leaf=-0.0190649
						86:leaf=-0.00886337
					44:[D_KEYWORD_MACRO_MAX_COEC<0.046448] yes=87,no=88,missing=88
						87:leaf=-0.00839063
						88:leaf=0.000792588
				22:[D_KEYWORD_MICRO_MEAN_COEC<0.048225] yes=45,no=46,missing=46
					45:[D_CATEGORY_MICRO_MAX_COEC<0.036199] yes=89,no=90,missing=90
						89:leaf=-0.018217
						90:leaf=-0.0476313
					46:[D_KEYWORD_MICRO_MEAN_COEC<0.051891] yes=91,no=92,missing=92
						91:leaf=0.0152824
						92:leaf=-0.0209909
	2:[U_CAT_LEN<54] yes=5,no=6,missing=6
		5:[U_CAT_LEN<32] yes=11,no=12,missing=12
			11:[U_KW_LEN<5122] yes=23,no=24,missing=24
				23:[C_D_U_PUBLISHER_AGE_COEC<0.067678] yes=47,no=48,missing=48
					47:[DAY_OF_WEEK<5] yes=93,no=94,missing=94
						93:leaf=-0.00362065
						94:leaf=-0.030839
					48:[C_D_U_TITLEMD5_CATEGORY_MICRO_MEAN_COEC<0.267194] yes=95,no=96,missing=96
						95:leaf=0.00829336
						96:leaf=-0.00633767
				24:[U_CAT_LEN<23] yes=49,no=50,missing=50
					49:[U_CAT_LEN<8] yes=97,no=98,missing=98
						97:leaf=0.160883
						98:leaf=0.000603043
					50:[C_D_U_CATEGORY_GENDER_MICRO_MAX_COEC<0.107228] yes=99,no=100,missing=100
						99:leaf=0.00201954
						100:leaf=0.0296405
			12:[U_CAT_LEN<45] yes=25,no=26,missing=26
				25:[U_CAT_LEN<42] yes=51,no=52,missing=52
					51:[U_KW_LEN<6520] yes=101,no=102,missing=102
						101:leaf=-0.0100424
						102:leaf=0.0092036
					52:[C_D_U_CATEGORY_AGE_MICRO_MAX_COEC<0.130873] yes=103,no=104,missing=104
						103:leaf=0.0470238
						104:leaf=-0.052602
				26:[C_D_U_TITLEMD5_AGE_COEC<0.181865] yes=53,no=54,missing=54
					53:[C_D_U_CATEGORY_GENDER_MICRO_MAX_COEC<0.113325] yes=105,no=106,missing=106
						105:leaf=-0.00692783
						106:leaf=-0.107215
					54:[U_KW_LEN<6520] yes=107,no=108,missing=108
						107:leaf=0.156475
						108:leaf=0.0398977
		6:[C_D_U_PUBLISHER_GENDER_COEC<0.090707] yes=13,no=14,missing=14
			13:[TIME_OF_DAY<10] yes=27,no=28,missing=28
				27:[D_KEYWORD_MACRO_MEAN_COEC<0.070604] yes=55,no=56,missing=56
					55:[D_PUBLISHER_COEC<0.053837] yes=109,no=110,missing=110
						109:leaf=-0.0871049
						110:leaf=0.0120309
					56:leaf=0.0811469
				28:[C_D_U_TITLEMD5_AGE_COEC<3.67609] yes=57,no=58,missing=58
					57:[D_KEYWORD_MICRO_MEAN_COEC<0.03753] yes=111,no=112,missing=112
						111:leaf=-0.100713
						112:leaf=0.0492818
					58:[D_KEYWORD_MICRO_MAX_COEC<0.049242] yes=113,no=114,missing=114
						113:leaf=0.175928
						114:leaf=0.0111933
			14:[C_D_U_TITLEMD5_GENDER_COEC<0.136094] yes=29,no=30,missing=29
				29:[D_KEYWORD_MACRO_MEAN_COEC<0.038046] yes=59,no=60,missing=60
					59:[D_CATEGORY_MACRO_MAX_COEC<0.065018] yes=115,no=116,missing=115
						115:leaf=-0.106968
						116:leaf=-0.0787736
					60:leaf=-0.118477
				30:leaf=-0.0160216
booster[43]:
0:[DAY_OF_WEEK<5] yes=1,no=2,missing=2
	1:[WORD_COUNT<892] yes=3,no=4,missing=4
		3:[IMAGE_COUNT<2] yes=7,no=8,missing=8
			7:[D_CATEGORY_MICRO_MAX_COEC<0.052555] yes=15,no=16,missing=16
				15:[KW_REL<0.004845] yes=31,no=32,missing=32
					31:[D_PUBLISHER_COEC<0.02382] yes=63,no=64,missing=64
						63:leaf=-0.00928979
						64:leaf=-0.0278322
					32:[D_KEYWORD_MACRO_MEAN_COEC<0.03492] yes=65,no=66,missing=66
						65:leaf=-0.0146243
						66:leaf=0.0229765
				16:[D_PUBLISHER_COEC<0.065243] yes=33,no=34,missing=33
					33:[D_KEYWORD_MICRO_MAX_COEC<0.078938] yes=67,no=68,missing=67
						67:leaf=-0.0109517
						68:leaf=0.00597982
					34:[D_CATEGORY_MACRO_MAX_COEC<0.035013] yes=69,no=70,missing=69
						69:leaf=0.00350249
						70:leaf=-0.0212632
			8:[D_CATEGORY_MICRO_MEAN_COEC<0.041745] yes=17,no=18,missing=18
				17:[WORD_COUNT<680] yes=35,no=36,missing=36
					35:[U_CAT_LEN<8] yes=71,no=72,missing=72
						71:leaf=0.00595626
						72:leaf=0.0342418
					36:[D_TITLEMD5_COEC<0.231057] yes=73,no=74,missing=74
						73:leaf=-0.033322
						74:leaf=0.021386
				18:[D_TITLEMD5_COEC<0.026318] yes=37,no=38,missing=37
					37:[D_CATEGORY_MICRO_MAX_COEC<0.047046] yes=75,no=76,missing=76
						75:leaf=-0.0644788
						76:leaf=0.0306629
					38:[U_KW_LEN<426] yes=77,no=78,missing=78
						77:leaf=-0.00775647
						78:leaf=-0.0308591
		4:[U_KW_LEN<1080] yes=9,no=10,missing=10
			9:[D_KEYWORD_MACRO_MEAN_COEC<0.041915] yes=19,no=20,missing=20
				19:[KW_REL<0.004059] yes=39,no=40,missing=40
					39:[C_D_U_PUBLISHER_AGE_COEC<0.085175] yes=79,no=80,missing=80
						79:leaf=-0.0134636
						80:leaf=-0.00410637
					40:[DAY_OF_WEEK<3] yes=81,no=82,missing=82
						81:leaf=0.0149907
						82:leaf=-0.000275964
				20:[TIME_OF_DAY<19] yes=41,no=42,missing=42
					41:[D_CATEGORY_MACRO_MEAN_COEC<0.027079] yes=83,no=84,missing=84
						83:leaf=-0.0254838
						84:leaf=0.00235231
					42:[WORD_COUNT<1127] yes=85,no=86,missing=86
						85:leaf=0.0103335
						86:leaf=-0.00419024
			10:[D_KEYWORD_MACRO_MEAN_COEC<0.045632] yes=21,no=22,missing=21
				21:[KW_REL<0.002691] yes=43,no=44,missing=44
					43:[C_D_U_TITLEMD5_CATEGORY_MICRO_MEAN_COEC<0.168617] yes=87,no=88,missing=87
						87:leaf=0.000581463
						88:leaf=-0.0160063
					44:[KW_REL<0.005917] yes=89,no=90,missing=90
						89:leaf=0.00832152
						90:leaf=0.0250764
				22:[D_KEYWORD_MACRO_MAX_COEC<0.005589] yes=45,no=46,missing=46
					45:[D_CATEGORY_MACRO_MEAN_COEC<0.059465] yes=91,no=92,missing=92
						91:leaf=-0.0479212
						92:leaf=0.054648
					46:[C_D_U_TITLEMD5_AGE_COEC<0.121395] yes=93,no=94,missing=93
						93:leaf=0.00576684
						94:leaf=0.017086
	2:[D_KEYWORD_MICRO_MEAN_COEC<0.06439] yes=5,no=6,missing=5
		5:[KW_REL<0.008889] yes=11,no=12,missing=12
			11:[D_PUBLISHER_COEC<0.029303] yes=23,no=24,missing=24
				23:[D_CATEGORY_MACRO_MAX_COEC<0.053069] yes=47,no=48,missing=47
					47:[D_CATEGORY_MACRO_MAX_COEC<0.036184] yes=95,no=96,missing=96
						95:leaf=-0.0207624
						96:leaf=-0.0322883
					48:[TIME_OF_DAY<3] yes=97,no=98,missing=98
						97:leaf=0.0251787
						98:leaf=-0.0181097
				24:[C_D_U_TITLEMD5_CATEGORY_MICRO_MAX_COEC<0.24158] yes=49,no=50,missing=49
					49:[WORD_COUNT<1864] yes=99,no=100,missing=100
						99:leaf=-0.0126547
						100:leaf=-0.00429798
					50:[CAT_REL<0.102396] yes=101,no=102,missing=102
						101:leaf=-0.0192021
						102:leaf=-0.00418179
			12:[U_KW_LEN<912] yes=25,no=26,missing=26
				25:[U_KW_LEN<111] yes=51,no=52,missing=52
					51:[WORD_COUNT<8159] yes=103,no=104,missing=104
						103:leaf=-0.0257733
						104:leaf=0.037984
					52:[CAT_REL<0.210556] yes=105,no=106,missing=106
						105:leaf=-0.00478427
						106:leaf=0.0150428
				26:[WORD_COUNT<1893] yes=53,no=54,missing=54
					53:[C_D_U_TITLEMD5_CATEGORY_MICRO_MAX_COEC<0.224586] yes=107,no=108,missing=108
						107:leaf=0.00845148
						108:leaf=-0.0280533
					54:[WORD_COUNT<2058] yes=109,no=110,missing=110
						109:leaf=0.0512415
						110:leaf=0.0195793
		6:[D_KEYWORD_MICRO_MAX_COEC<0.074242] yes=13,no=14,missing=14
			13:[WORD_COUNT<2519] yes=27,no=28,missing=28
				27:[D_CATEGORY_MACRO_MEAN_COEC<0.054326] yes=55,no=56,missing=55
					55:[CAT_REL<0.090855] yes=111,no=112,missing=112
						111:leaf=-0.0697078
						112:leaf=-0.0223646
					56:[C_D_U_TITLEMD5_CATEGORY_MACRO_MAX_COEC<0.029451] yes=113,no=114,missing=114
						113:leaf=0.00954801
						114:leaf=-0.0220839
				28:[WORD_COUNT<2602] yes=57,no=58,missing=58
					57:[C_D_U_TITLEMD5_CATEGORY_MICRO_MEAN_COEC<0.06381] yes=115,no=116,missing=115
						115:leaf=0.0194506
						116:leaf=0.0513496
					58:[D_TITLEMD5_COEC<0.030987] yes=117,no=118,missing=117
						117:leaf=-0.0386684
						118:leaf=0.0190561
			14:[D_CATEGORY_MACRO_MAX_COEC<0.038475] yes=29,no=30,missing=30
				29:[D_KEYWORD_MACRO_MAX_COEC<0.049705] yes=59,no=60,missing=60
					59:[U_CAT_LEN<7] yes=119,no=120,missing=120
						119:leaf=-0.00824521
						120:leaf=-0.0298489
					60:[D_TITLEMD5_COEC<0.045023] yes=121,no=122,missing=121
						121:leaf=-0.0567838
						122:leaf=-0.0986482
				30:[CAT_REL<0.013464] yes=61,no=62,missing=62
					61:[D_KEYWORD_MACRO_MAX_COEC<0.028947] yes=123,no=124,missing=124
						123:leaf=0.00102305
						124:leaf=-0.0078232
					62:[WORD_COUNT<6876] yes=125,no=126,missing=126
						125:leaf=0.00177939
						126:leaf=0.0307021
booster[44]:
0:[DAY_OF_WEEK<5] yes=1,no=2,missing=2
	1:[KW_REL<0.001486] yes=3,no=4,missing=4
		3:[D_CATEGORY_MACRO_MEAN_COEC<0.045387] yes=7,no=8,missing=8
			7:[IMAGE_COUNT<2] yes=15,no=16,missing=16
				15:[D_TITLEMD5_COEC<0.071548] yes=31,no=32,missing=32
					31:[CAT_REL<0.05202] yes=63,no=64,missing=64
						63:leaf=-0.00922564
						64:leaf=-0.000512904
					32:[D_KEYWORD_MICRO_MEAN_COEC<0.083685] yes=65,no=66,missing=66
						65:leaf=-0.0214322
						66:leaf=0.0358155
				16:[D_CATEGORY_MACRO_MAX_COEC<0.018411] yes=33,no=34,missing=34
					33:[WORD_COUNT<3899] yes=67,no=68,missing=68
						67:leaf=0.024372
						68:leaf=-0.00608601
					34:[D_PUBLISHER_COEC<0.053547] yes=69,no=70,missing=69
						69:leaf=-0.00343355
						70:leaf=0.00759736
			8:[WORD_COUNT<821] yes=17,no=18,missing=18
				17:[D_CATEGORY_MACRO_MAX_COEC<0.06205] yes=35,no=36,missing=35
					35:[D_CATEGORY_MICRO_MEAN_COEC<0.054514] yes=71,no=72,missing=72
						71:leaf=-0.0389414
						72:leaf=-0.0169641
					36:[D_PUBLISHER_COEC<0.065042] yes=73,no=74,missing=73
						73:leaf=0.00432495
						74:leaf=-0.0160062
				18:[U_KW_LEN<2707] yes=37,no=38,missing=38
					37:[C_D_U_TITLEMD5_AGE_COEC<0.097186] yes=75,no=76,missing=76
						75:leaf=-0.0100718
						76:leaf=0.00110801
					38:[U_CAT_LEN<20] yes=77,no=78,missing=78
						77:leaf=-0.00193348
						78:leaf=0.0132944
		4:[D_CATEGORY_MICRO_MAX_COEC<0.05701] yes=9,no=10,missing=10
			9:[KW_REL<0.007272] yes=19,no=20,missing=20
				19:[WORD_COUNT<1024] yes=39,no=40,missing=40
					39:[CAT_REL<0.000592] yes=79,no=80,missing=80
						79:leaf=0.0148922
						80:leaf=-0.0175705
					40:[TIME_OF_DAY<16] yes=81,no=82,missing=82
						81:leaf=0.00755348
						82:leaf=-0.00091221
				20:[U_KW_LEN<1353] yes=41,no=42,missing=42
					41:[D_KEYWORD_MICRO_MAX_COEC<0.064947] yes=83,no=84,missing=83
						83:leaf=0.0157705
						84:leaf=0.00167861
					42:[D_CATEGORY_MICRO_MAX_COEC<0.028979] yes=85,no=86,missing=86
						85:leaf=0.0554308
						86:leaf=0.0241795
			10:[D_TITLEMD5_COEC<0.154648] yes=21,no=22,missing=21
				21:[WORD_COUNT<1473] yes=43,no=44,missing=44
					43:[KW_REL<0.004162] yes=87,no=88,missing=88
						87:leaf=0.00184279
						88:leaf=0.0232962
					44:[D_KEYWORD_MICRO_MAX_COEC<0.08552] yes=89,no=90,missing=90
						89:leaf=0.015191
						90:leaf=0.0351138
				22:[KW_REL<0.002409] yes=45,no=46,missing=46
					45:[U_KW_LEN<1353] yes=91,no=92,missing=92
						91:leaf=0.00415633
						92:leaf=-0.0484879
					46:[D_PUBLISHER_COEC<0.118909] yes=93,no=94,missing=94
						93:leaf=-0.0923169
						94:leaf=-0.0366592
	2:[D_PUBLISHER_COEC<0.065159] yes=5,no=6,missing=6
		5:[CAT_REL<0.08077] yes=11,no=12,missing=12
			11:[C_D_U_TITLEMD5_CATEGORY_MICRO_MAX_COEC<0.322354] yes=23,no=24,missing=23
				23:[D_KEYWORD_MACRO_MAX_COEC<0.024703] yes=47,no=48,missing=47
					47:[C_D_U_CATEGORY_AGE_MACRO_MEAN_COEC<0.090461] yes=95,no=96,missing=96
						95:leaf=-0.0240619
						96:leaf=-0.0108316
					48:[WORD_COUNT<2030] yes=97,no=98,missing=98
						97:leaf=-0.0125466
						98:leaf=0.00136001
				24:[WORD_COUNT<2261] yes=49,no=50,missing=50
					49:[D_KEYWORD_MACRO_MEAN_COEC<0.116588] yes=99,no=100,missing=100
						99:leaf=-0.0263053
						100:leaf=-0.127508
					50:[WORD_COUNT<2325] yes=101,no=102,missing=102
						101:leaf=0.0107375
						102:leaf=-0.0202148
			12:[U_KW_LEN<203] yes=25,no=26,missing=26
				25:[WORD_COUNT<1916] yes=51,no=52,missing=52
					51:[C_D_U_PUBLISHER_GENDER_COEC<0.092424] yes=103,no=104,missing=104
						103:leaf=-0.0652776
						104:leaf=-0.0203281
					52:[C_D_U_TITLEMD5_CATEGORY_MACRO_MAX_COEC<0.07954] yes=105,no=106,missing=105
						105:leaf=-0.0128759
						106:leaf=0.0125456
				26:[C_D_U_TITLEMD5_CATEGORY_MACRO_MEAN_COEC<0.024261] yes=53,no=54,missing=53
					53:[TIME_OF_DAY<13] yes=107,no=108,missing=108
						107:leaf=0.00186568
						108:leaf=-0.0144855
					54:[C_D_U_TITLEMD5_CATEGORY_MICRO_MAX_COEC<0.244062] yes=109,no=110,missing=110
						109:leaf=0.0107652
						110:leaf=-0.00384189
		6:[D_TITLEMD5_COEC<0.063281] yes=13,no=14,missing=14
			13:[D_KEYWORD_MICRO_MAX_COEC<0.048748] yes=27,no=28,missing=28
				27:[WORD_COUNT<3899] yes=55,no=56,missing=56
					55:[D_KEYWORD_MACRO_MEAN_COEC<0.027262] yes=111,no=112,missing=112
						111:leaf=-0.01778
						112:leaf=-0.0964541
					56:[D_CATEGORY_MACRO_MAX_COEC<0.018411] yes=113,no=114,missing=114
						113:leaf=0.147129
						114:leaf=0.070467
				28:[C_D_U_TITLEMD5_CATEGORY_MICRO_MAX_COEC<0.140929] yes=57,no=58,missing=57
					57:[D_KEYWORD_MACRO_MEAN_COEC<0.014938] yes=115,no=116,missing=116
						115:leaf=0.0543381
						116:leaf=-0.0082784
					58:[D_CATEGORY_MICRO_MAX_COEC<0.022998] yes=117,no=118,missing=118
						117:leaf=0.0835911
						118:leaf=-0.0243889
			14:[D_KEYWORD_MACRO_MAX_COEC<0.029403] yes=29,no=30,missing=30
				29:[D_CATEGORY_MACRO_MAX_COEC<0.101232] yes=59,no=60,missing=59
					59:[D_PUBLISHER_COEC<0.093081] yes=119,no=120,missing=120
						119:leaf=0.0107579
						120:leaf=-0.0237437
					60:[WORD_COUNT<1644] yes=121,no=122,missing=122
						121:leaf=-0.0927388
						122:leaf=0.129181
				30:[WORD_COUNT<623] yes=61,no=62,missing=62
					61:[D_KEYWORD_MICRO_MAX_COEC<0.098503] yes=123,no=124,missing=124
						123:leaf=-0.0121769
						124:leaf=0.023067
					62:[C_D_U_TITLEMD5_CATEGORY_MICRO_MEAN_COEC<0.191043] yes=125,no=126,missing=125
						125:leaf=-0.00650794
						126:leaf=0.00915867
booster[45]:
0:[TIME_OF_DAY<21] yes=1,no=2,missing=2
	1:[DAY_OF_WEEK<5] yes=3,no=4,missing=4
		3:[KW_REL<0.002503] yes=7,no=8,missing=8
			7:[C_D_U_PUBLISHER_AGE_COEC<0.056038] yes=15,no=16,missing=16
				15:[C_D_U_TITLEMD5_CATEGORY_MACRO_MAX_COEC<0.024151] yes=31,no=32,missing=32
					31:[C_D_U_CATEGORY_AGE_MACRO_MAX_COEC<0.055729] yes=63,no=64,missing=64
						63:leaf=0.000494179
						64:leaf=-0.011868
					32:[D_KEYWORD_MACRO_MEAN_COEC<0.059777] yes=65,no=66,missing=66
						65:leaf=-0.0198226
						66:leaf=-0.0457796
				16:[U_KW_LEN<277] yes=33,no=34,missing=34
					33:[D_KEYWORD_MACRO_MEAN_COEC<0.031954] yes=67,no=68,missing=68
						67:leaf=-0.00934536
						68:leaf=-0.000916057
					34:[WORD_COUNT<5730] yes=69,no=70,missing=70
						69:leaf=0.00309253
						70:leaf=-0.00840261
			8:[D_KEYWORD_MICRO_MEAN_COEC<0.110929] yes=17,no=18,missing=17
				17:[D_CATEGORY_MICRO_MEAN_COEC<0.067355] yes=35,no=36,missing=36
					35:[C_D_U_PUBLISHER_AGE_COEC<0.071436] yes=71,no=72,missing=71
						71:leaf=0.00638788
						72:leaf=0.0226022
					36:[WORD_COUNT<1869] yes=73,no=74,missing=74
						73:leaf=0.0152208
						74:leaf=0.0441019
				18:[WORD_COUNT<2637] yes=37,no=38,missing=38
					37:[D_TITLEMD5_COEC<0.137549] yes=75,no=76,missing=75
						75:leaf=0.0186611
						76:leaf=-0.0413041
					38:[D_TITLEMD5_COEC<0.229535] yes=77,no=78,missing=78
						77:leaf=-0.107773
						78:leaf=0.133085
		4:[D_PUBLISHER_COEC<0.029487] yes=9,no=10,missing=10
			9:[D_CATEGORY_MICRO_MEAN_COEC<0.051684] yes=19,no=20,missing=19
				19:[KW_REL<0.007426] yes=39,no=40,missing=40
					39:[D_KEYWORD_MICRO_MEAN_COEC<0.091685] yes=79,no=80,missing=79
						79:leaf=-0.0257658
						80:leaf=0.0448196
					40:[WORD_COUNT<5730] yes=81,no=82,missing=82
						81:leaf=-0.00944039
						82:leaf=0.0266139
				20:[TIME_OF_DAY<3] yes=41,no=42,missing=42
					41:[D_KEYWORD_MACRO_MAX_COEC<0.015606] yes=83,no=84,missing=84
						83:leaf=0.0440008
						84:leaf=-0.0199704
					42:[WORD_COUNT<2275] yes=85,no=86,missing=86
						85:leaf=-0.00338791
						86:leaf=-0.032977
			10:[WORD_COUNT<505] yes=21,no=22,missing=22
				21:[D_CATEGORY_MACRO_MAX_COEC<0.065492] yes=43,no=44,missing=43
					43:[D_KEYWORD_MICRO_MEAN_COEC<0.053345] yes=87,no=88,missing=88
						87:leaf=0.00341218
						88:leaf=-0.0283409
					44:[D_PUBLISHER_COEC<0.054145] yes=89,no=90,missing=89
						89:leaf=-0.0311923
						90:leaf=0.0221423
				22:[WORD_COUNT<1340] yes=45,no=46,missing=46
					45:[WORD_COUNT<1196] yes=91,no=92,missing=92
						91:leaf=-0.00773678
						92:leaf=-0.0317448
					46:[CAT_REL<0.039257] yes=93,no=94,missing=94
						93:leaf=-0.00465236
						94:leaf=0.0019211
	2:[D_CATEGORY_MACRO_MEAN_COEC<0.071208] yes=5,no=6,missing=6
		5:[WORD_COUNT<2295] yes=11,no=12,missing=12
			11:[DAY_OF_WEEK<2] yes=23,no=24,missing=24
				23:[D_KEYWORD_MICRO_MAX_COEC<0.080462] yes=47,no=48,missing=47
					47:[D_KEYWORD_MICRO_MEAN_COEC<0.023176] yes=95,no=96,missing=96
						95:leaf=0.037438
						96:leaf=-0.0111635
					48:[D_KEYWORD_MICRO_MEAN_COEC<0.096072] yes=97,no=98,missing=98
						97:leaf=0.0103824
						98:leaf=-0.0250531
				24:[D_KEYWORD_MACRO_MAX_COEC<0.011841] yes=49,no=50,missing=50
					49:[D_KEYWORD_MICRO_MEAN_COEC<0.060123] yes=99,no=100,missing=100
						99:leaf=-0.00925657
						100:leaf=0.0178803
					50:[D_KEYWORD_MACRO_MAX_COEC<0.074605] yes=101,no=102,missing=101
						101:leaf=-0.0158688
						102:leaf=0.000851903
			12:[WORD_COUNT<5730] yes=25,no=26,missing=26
				25:[WORD_COUNT<2325] yes=51,no=52,missing=52
					51:[C_D_U_TITLEMD5_CATEGORY_MICRO_MEAN_COEC<0.152128] yes=103,no=104,missing=103
						103:leaf=0.00283575
						104:leaf=0.0271235
					52:[D_KEYWORD_MICRO_MAX_COEC<0.078471] yes=105,no=106,missing=106
						105:leaf=0.00231735
						106:leaf=-0.0128741
				26:[D_KEYWORD_MICRO_MEAN_COEC<0.048455] yes=53,no=54,missing=53
					53:[D_KEYWORD_MICRO_MEAN_COEC<0.026715] yes=107,no=108,missing=108
						107:leaf=0.00265484
						108:leaf=-0.0230799
					54:[D_TITLEMD5_COEC<0.059507] yes=109,no=110,missing=109
						109:leaf=0.00851063
						110:leaf=-0.0224601
		6:[WORD_COUNT<2623] yes=13,no=14,missing=14
			13:[WORD_COUNT<2585] yes=27,no=28,missing=28
				27:[DAY_OF_WEEK<4] yes=55,no=56,missing=56
					55:[D_TITLEMD5_COEC<0.068013] yes=111,no=112,missing=111
						111:leaf=0.00394912
						112:leaf=0.0296202
					56:[WORD_COUNT<1615] yes=113,no=114,missing=114
						113:leaf=-0.014317
						114:leaf=0.00205225
				28:[D_CATEGORY_MICRO_MAX_COEC<0.075103] yes=57,no=58,missing=58
					57:[U_KW_LEN<537] yes=115,no=116,missing=116
						115:leaf=0.207277
						116:leaf=0.153278
					58:[D_KEYWORD_MACRO_MEAN_COEC<0.122655] yes=117,no=118,missing=118
						117:leaf=0.0596795
						118:leaf=0.0121309
			14:[D_TITLEMD5_COEC<0.15505] yes=29,no=30,missing=30
				29:[D_KEYWORD_MACRO_MEAN_COEC<0.042958] yes=59,no=60,missing=60
					59:[C_D_U_CATEGORY_AGE_MACRO_MEAN_COEC<0.096339] yes=119,no=120,missing=120
						119:leaf=0.0723989
						120:leaf=0.00131488
					60:[C_D_U_TITLEMD5_CATEGORY_MICRO_MAX_COEC<0.204909] yes=121,no=122,missing=122
						121:leaf=-0.0323887
						122:leaf=-0.0127905
				30:[D_CATEGORY_MACRO_MAX_COEC<0.134267] yes=61,no=62,missing=61
					61:[WORD_COUNT<3395] yes=123,no=124,missing=124
						123:leaf=-0.0721143
						124:leaf=0.000225527
					62:[C_D_U_TITLEMD5_CATEGORY_MICRO_MEAN_COEC<0.209499] yes=125,no=126,missing=125
						125:leaf=0.00136577
						126:leaf=0.0194011
booster[46]:
0:[U_KW_LEN<2411] yes=1,no=2,missing=2
	1:[U_CAT_LEN<26] yes=3,no=4,missing=4
		3:[IMAGE_COUNT<0.999999] yes=7,no=8,missing=8
			7:[D_CATEGORY_MACRO_MAX_COEC<0.051456] yes=15,no=16,missing=15
				15:[D_KEYWORD_MACRO_MAX_COEC<0.005612] yes=31,no=32,missing=32
					31:[D_TITLEMD5_COEC<0.011197] yes=61,no=62,missing=61
						61:leaf=-0.0267259
						62:leaf=0.0150727
					32:[KW_REL<0.006012] yes=63,no=64,missing=64
						63:leaf=-0.0301713
						64:leaf=-0.00610924
				16:[CAT_REL<0.041102] yes=33,no=34,missing=34
					33:[D_KEYWORD_MICRO_MAX_COEC<0.094742] yes=65,no=66,missing=66
						65:leaf=-0.00618327
						66:leaf=-0.0251
					34:[U_KW_LEN<402] yes=67,no=68,missing=68
						67:leaf=-0.0078558
						68:leaf=0.017642
			8:[C_D_U_TITLEMD5_GENDER_COEC<0.040947] yes=17,no=18,missing=18
				17:[C_D_U_TITLEMD5_CATEGORY_MICRO_MEAN_COEC<0.056369] yes=35,no=36,missing=36
					35:[KW_REL<0.002521] yes=69,no=70,missing=70
						69:leaf=-0.0103339
						70:leaf=0.0110912
					36:[CAT_REL<0.09706] yes=71,no=72,missing=72
						71:leaf=-0.0236041
						72:leaf=-0.0111096
				18:[U_KW_LEN<1349] yes=37,no=38,missing=38
					37:[C_D_U_PUBLISHER_GENDER_COEC<0.108172] yes=73,no=74,missing=73
						73:leaf=-0.00198386
						74:leaf=0.00930755
					38:[U_CAT_LEN<10] yes=75,no=76,missing=76
						75:leaf=-0.0217139
						76:leaf=0.00404931
		4:[U_KW_LEN<1963] yes=9,no=10,missing=10
			9:[U_CAT_LEN<28] yes=19,no=20,missing=20
				19:[TIME_OF_DAY<0.999999] yes=39,no=40,missing=40
					39:[U_KW_LEN<1310] yes=77,no=78,missing=78
						77:leaf=-0.0405539
						78:leaf=0.0121671
					40:[DAY_OF_WEEK<2] yes=79,no=80,missing=80
						79:leaf=-0.00655835
						80:leaf=-0.0232219
				20:[C_D_U_TITLEMD5_CATEGORY_MACRO_MAX_COEC<0.007987] yes=41,no=42,missing=41
					41:[DAY_OF_WEEK<3] yes=81,no=82,missing=82
						81:leaf=-0.00642495
						82:leaf=-0.0280387
					42:[C_D_U_TITLEMD5_AGE_COEC<0.088327] yes=83,no=84,missing=83
						83:leaf=-0.0454589
						84:leaf=-0.0140002
			10:[U_CAT_LEN<30] yes=21,no=22,missing=22
				21:[U_KW_LEN<2051] yes=43,no=44,missing=44
					43:[TIME_OF_DAY<4] yes=85,no=86,missing=86
						85:leaf=0.00385701
						86:leaf=-0.0163233
					44:[TIME_OF_DAY<9] yes=87,no=88,missing=88
						87:leaf=0.0152182
						88:leaf=0.0015569
				22:[U_KW_LEN<2258] yes=45,no=46,missing=46
					45:[TIME_OF_DAY<3] yes=89,no=90,missing=90
						89:leaf=0.0286864
						90:leaf=-0.0103955
					46:[DAY_OF_WEEK<3] yes=91,no=92,missing=92
						91:leaf=-0.0705609
						92:leaf=-0.0236999
	2:[U_CAT_LEN<54] yes=5,no=6,missing=6
		5:[D_PUBLISHER_COEC<0.025197] yes=11,no=12,missing=11
			11:[D_TITLEMD5_COEC<0.032622] yes=23,no=24,missing=24
				23:[DAY_OF_WEEK<4] yes=47,no=48,missing=48
					47:[D_TITLEMD5_COEC<0.011197] yes=93,no=94,missing=94
						93:leaf=-0.00300095
						94:leaf=0.0106159
					48:[U_CAT_LEN<45] yes=95,no=96,missing=96
						95:leaf=-0.0151868
						96:leaf=0.0729164
				24:[U_KW_LEN<6553] yes=49,no=50,missing=50
					49:[U_CAT_LEN<9] yes=97,no=98,missing=98
						97:leaf=0.0748496
						98:leaf=-0.021151
					50:[U_CAT_LEN<29] yes=99,no=100,missing=100
						99:leaf=0.0491647
						100:leaf=-0.0033649
			12:[U_KW_LEN<6553] yes=25,no=26,missing=26
				25:[TIME_OF_DAY<0.999999] yes=51,no=52,missing=52
					51:[C_D_U_PUBLISHER_AGE_COEC<0.101861] yes=101,no=102,missing=102
						101:leaf=0.00406706
						102:leaf=0.0227645
					52:[C_D_U_TITLEMD5_CATEGORY_MACRO_MEAN_COEC<0.040485] yes=103,no=104,missing=103
						103:leaf=0.000917433
						104:leaf=0.00842873
				26:[C_D_U_PUBLISHER_AGE_COEC<0.063244] yes=53,no=54,missing=53
					53:[U_CAT_LEN<31] yes=105,no=106,missing=106
						105:leaf=0.0238966
						106:leaf=0.00596909
					54:[U_CAT_LEN<27] yes=107,no=108,missing=108
						107:leaf=0.000233604
						108:leaf=0.0493938
		6:[C_D_U_PUBLISHER_AGE_COEC<0.058416] yes=13,no=14,missing=14
			13:[TIME_OF_DAY<10] yes=27,no=28,missing=28
				27:[D_KEYWORD_MACRO_MEAN_COEC<0.015598] yes=55,no=56,missing=56
					55:[CAT_REL<0.005661] yes=109,no=110,missing=110
						109:leaf=0.0100778
						110:leaf=-0.101804
					56:[WORD_COUNT<687] yes=111,no=112,missing=112
						111:leaf=0.0260235
						112:leaf=-0.107715
				28:[D_KEYWORD_MICRO_MEAN_COEC<0.031299] yes=57,no=58,missing=58
					57:leaf=0.135874
					58:[D_KEYWORD_MACRO_MAX_COEC<0.00762] yes=113,no=114,missing=114
						113:leaf=-0.0804371
						114:leaf=0.0336224
			14:[D_CATEGORY_MACRO_MAX_COEC<0.68237] yes=29,no=30,missing=30
				29:[C_D_U_CATEGORY_GENDER_MACRO_MEAN_COEC<0.108897] yes=59,no=60,missing=59
					59:[C_D_U_CATEGORY_AGE_MICRO_MEAN_COEC<0.065971] yes=115,no=116,missing=116
						115:leaf=-0.0799019
						116:leaf=-0.105648
					60:leaf=-0.0472009
				30:leaf=-0.0363885
booster[47]:
0:[TIME_OF_DAY<19] yes=1,no=2,missing=2
	1:[U_KW_LEN<289] yes=3,no=4,missing=4
		3:[TIME_OF_DAY<5] yes=7,no=8,missing=8
			7:[D_KEYWORD_MACRO_MEAN_COEC<0.03354] yes=15,no=16,missing=16
				15:[D_CATEGORY_MACRO_MEAN_COEC<0.040123] yes=31,no=32,missing=31
					31:[D_CATEGORY_MICRO_MAX_COEC<0.034899] yes=63,no=64,missing=63
						63:leaf=-0.0156397
						64:leaf=-0.0346855
					32:[WORD_COUNT<8159] yes=65,no=66,missing=66
						65:leaf=-0.0101629
						66:leaf=0.0501782
				16:[DAY_OF_WEEK<2] yes=33,no=34,missing=34
					33:[D_PUBLISHER_COEC<0.060867] yes=67,no=68,missing=68
						67:leaf=-0.0228466
						68:leaf=-0.00782019
					34:[D_KEYWORD_MICRO_MEAN_COEC<0.035294] yes=69,no=70,missing=69
						69:leaf=-0.028143
						70:leaf=-0.00418633
			8:[D_TITLEMD5_COEC<0.040684] yes=17,no=18,missing=18
				17:[D_KEYWORD_MACRO_MEAN_COEC<0.010552] yes=35,no=36,missing=36
					35:[U_KW_LEN<175] yes=71,no=72,missing=72
						71:leaf=-0.0330501
						72:leaf=0.0112687
					36:[C_D_U_TITLEMD5_AGE_COEC<0.157571] yes=73,no=74,missing=74
						73:leaf=-0.0163192
						74:leaf=-0.00327264
				18:[U_CAT_LEN<10] yes=37,no=38,missing=38
					37:[D_PUBLISHER_COEC<0.027169] yes=75,no=76,missing=76
						75:leaf=-0.0150632
						76:leaf=0.0018048
					38:[D_CATEGORY_MICRO_MAX_COEC<0.034899] yes=77,no=78,missing=78
						77:leaf=0.0111427
						78:leaf=-0.0192936
		4:[D_KEYWORD_MACRO_MAX_COEC<0.07192] yes=9,no=10,missing=10
			9:[CAT_REL<0.114] yes=19,no=20,missing=20
				19:[DAY_OF_WEEK<2] yes=39,no=40,missing=40
					39:[D_KEYWORD_MICRO_MAX_COEC<0.06325] yes=79,no=80,missing=80
						79:leaf=0.0119269
						80:leaf=0.000797643
					40:[TIME_OF_DAY<15] yes=81,no=82,missing=82
						81:leaf=0.000970464
						82:leaf=-0.00504817
				20:[C_D_U_TITLEMD5_CATEGORY_MICRO_MAX_COEC<0.597332] yes=41,no=42,missing=42
					41:[C_D_U_TITLEMD5_CATEGORY_MACRO_MEAN_COEC<0.080268] yes=83,no=84,missing=84
						83:leaf=0.00738462
						84:leaf=0.0192267
					42:[KW_REL<0.00228] yes=85,no=86,missing=86
						85:leaf=-0.0126083
						86:leaf=0.0064382
			10:[D_PUBLISHER_COEC<0.067955] yes=21,no=22,missing=22
				21:[D_KEYWORD_MICRO_MAX_COEC<0.11884] yes=43,no=44,missing=43
					43:[C_D_U_TITLEMD5_CATEGORY_MACRO_MEAN_COEC<0.120829] yes=87,no=88,missing=88
						87:leaf=-0.0201557
						88:leaf=0.0481156
					44:[C_D_U_TITLEMD5_CATEGORY_MACRO_MEAN_COEC<0.003912] yes=89,no=90,missing=89
						89:leaf=-0.0249423
						90:leaf=-0.0673979
				22:[D_CATEGORY_MICRO_MAX_COEC<0.068261] yes=45,no=46,missing=46
					45:[CAT_REL<0.01508] yes=91,no=92,missing=92
						91:leaf=0.0172043
						92:leaf=0.0305344
					46:[CAT_REL<0.016651] yes=93,no=94,missing=94
						93:leaf=-0.0306596
						94:leaf=0.0250016
	2:[D_KEYWORD_MICRO_MEAN_COEC<0.035294] yes=5,no=6,missing=6
		5:[CAT_REL<0.064863] yes=11,no=12,missing=12
			11:[D_CATEGORY_MICRO_MAX_COEC<0.023217] yes=23,no=24,missing=24
				23:[D_TITLEMD5_COEC<0.030964] yes=47,no=48,missing=48
					47:[D_KEYWORD_MACRO_MAX_COEC<0.00463] yes=95,no=96,missing=96
						95:leaf=-0.0112177
						96:leaf=0.0262803
					48:[D_PUBLISHER_COEC<0.078125] yes=97,no=98,missing=97
						97:leaf=-0.035527
						98:leaf=0.0721245
				24:[D_CATEGORY_MICRO_MEAN_COEC<0.051775] yes=49,no=50,missing=49
					49:[D_KEYWORD_MACRO_MAX_COEC<0.011368] yes=99,no=100,missing=100
						99:leaf=-0.0157352
						100:leaf=-0.0313999
					50:[D_PUBLISHER_COEC<0.057327] yes=101,no=102,missing=102
						101:leaf=-0.000506553
						102:leaf=-0.0276833
			12:[U_KW_LEN<714] yes=25,no=26,missing=26
				25:[CAT_REL<0.207045] yes=51,no=52,missing=52
					51:[U_KW_LEN<231] yes=103,no=104,missing=104
						103:leaf=-0.0339702
						104:leaf=-0.0147376
					52:[D_CATEGORY_MACRO_MAX_COEC<0.043013] yes=105,no=106,missing=106
						105:leaf=-0.0071264
						106:leaf=0.0223038
				26:[D_TITLEMD5_COEC<0.066733] yes=53,no=54,missing=54
					53:[D_KEYWORD_MACRO_MAX_COEC<0.006329] yes=107,no=108,missing=108
						107:leaf=-0.00834214
						108:leaf=0.00956686
					54:[KW_REL<0.003647] yes=109,no=110,missing=110
						109:leaf=-0.0335197
						110:leaf=0.00214707
		6:[TIME_OF_DAY<23] yes=13,no=14,missing=14
			13:[C_D_U_TITLEMD5_AGE_COEC<0.141757] yes=27,no=28,missing=27
				27:[DAY_OF_WEEK<2] yes=55,no=56,missing=56
					55:[D_PUBLISHER_COEC<0.06482] yes=111,no=112,missing=112
						111:leaf=0.00559497
						112:leaf=-0.0152493
					56:[D_KEYWORD_MICRO_MAX_COEC<0.054318] yes=113,no=114,missing=114
						113:leaf=-0.0135519
						114:leaf=-0.00292014
				28:[C_D_U_PUBLISHER_AGE_COEC<0.070627] yes=57,no=58,missing=58
					57:[KW_REL<1.5e-05] yes=115,no=116,missing=116
						115:leaf=-0.0369047
						116:leaf=-0.000713201
					58:[D_CATEGORY_MACRO_MEAN_COEC<0.022879] yes=117,no=118,missing=118
						117:leaf=0.0999592
						118:leaf=0.00993215
			14:[D_TITLEMD5_COEC<0.032792] yes=29,no=30,missing=30
				29:[D_KEYWORD_MACRO_MEAN_COEC<0.032747] yes=59,no=60,missing=60
					59:[IMAGE_COUNT<0.999999] yes=119,no=120,missing=120
						119:leaf=0.0189728
						120:leaf=-0.0125843
					60:[D_PUBLISHER_COEC<0.043834] yes=121,no=122,missing=122
						121:leaf=-0.0182409
						122:leaf=-0.0367463
				30:[DAY_OF_WEEK<2] yes=61,no=62,missing=62
					61:[D_CATEGORY_MACRO_MEAN_COEC<0.053769] yes=123,no=124,missing=123
						123:leaf=0.00500222
						124:leaf=-0.00824368
					62:[D_KEYWORD_MACRO_MAX_COEC<0.018687] yes=125,no=126,missing=126
						125:leaf=-0.0135896
						126:leaf=-0.00651224
booster[48]:
0:[CAT_REL<0.01999] yes=1,no=2,missing=2
	1:[D_CATEGORY_MACRO_MEAN_COEC<0.090883] yes=3,no=4,missing=4
		3:[WORD_COUNT<2295] yes=7,no=8,missing=8
			7:[D_TITLEMD5_COEC<0.076073] yes=15,no=16,missing=16
				15:[D_CATEGORY_MICRO_MAX_COEC<0.033609] yes=31,no=32,missing=32
					31:[D_TITLEMD5_COEC<0.011553] yes=63,no=64,missing=64
						63:leaf=-0.0163422
						64:leaf=0.00310573
					32:[C_D_U_TITLEMD5_CATEGORY_MICRO_MAX_COEC<0.141076] yes=65,no=66,missing=65
						65:leaf=-0.00640777
						66:leaf=-0.0156953
				16:[D_PUBLISHER_COEC<0.102271] yes=33,no=34,missing=33
					33:[D_KEYWORD_MICRO_MEAN_COEC<0.129149] yes=67,no=68,missing=68
						67:leaf=-0.00169609
						68:leaf=-0.0267949
					34:[D_KEYWORD_MACRO_MAX_COEC<0.017408] yes=69,no=70,missing=70
						69:leaf=0.0235599
						70:leaf=0.00232514
			8:[WORD_COUNT<2350] yes=17,no=18,missing=18
				17:[IMAGE_COUNT<2] yes=35,no=36,missing=36
					35:[D_PUBLISHER_COEC<0.045835] yes=71,no=72,missing=72
						71:leaf=-0.00969383
						72:leaf=0.0231241
					36:[D_TITLEMD5_COEC<0.102623] yes=73,no=74,missing=74
						73:leaf=-0.02584
						74:leaf=0.0111188
				18:[D_KEYWORD_MICRO_MAX_COEC<0.072836] yes=37,no=38,missing=37
					37:[D_KEYWORD_MACRO_MEAN_COEC<0.031316] yes=75,no=76,missing=76
						75:leaf=-0.00688151
						76:leaf=0.00592367
					38:[IMAGE_COUNT<2] yes=77,no=78,missing=78
						77:leaf=-0.011817
						78:leaf=-0.00163982
		4:[WORD_COUNT<1024] yes=9,no=10,missing=10
			9:[D_KEYWORD_MICRO_MAX_COEC<0.054484] yes=19,no=20,missing=19
				19:[KW_REL<0.002098] yes=39,no=40,missing=40
					39:[C_D_U_TITLEMD5_CATEGORY_MACRO_MEAN_COEC<0.029987] yes=79,no=80,missing=79
						79:leaf=-0.0439756
						80:leaf=-0.100039
					40:[D_PUBLISHER_COEC<0.013062] yes=81,no=82,missing=82
						81:leaf=-0.0917554
						82:leaf=0.0500415
				20:[C_D_U_TITLEMD5_CATEGORY_MACRO_MAX_COEC<0.020501] yes=41,no=42,missing=42
					41:[TIME_OF_DAY<7] yes=83,no=84,missing=84
						83:leaf=0.0305796
						84:leaf=-0.00496431
					42:[D_PUBLISHER_COEC<0.065312] yes=85,no=86,missing=86
						85:leaf=-0.0249658
						86:leaf=-0.0061493
			10:[WORD_COUNT<2200] yes=21,no=22,missing=22
				21:[D_KEYWORD_MACRO_MEAN_COEC<0.010526] yes=43,no=44,missing=44
					43:[D_PUBLISHER_COEC<0.033481] yes=87,no=88,missing=88
						87:leaf=-0.0366095
						88:leaf=0.136461
					44:[U_KW_LEN<111] yes=89,no=90,missing=90
						89:leaf=0.000509921
						90:leaf=0.0182253
				22:[WORD_COUNT<3383] yes=45,no=46,missing=46
					45:[D_KEYWORD_MACRO_MAX_COEC<0.041368] yes=91,no=92,missing=91
						91:leaf=-0.0334014
						92:leaf=-9.55653e-05
					46:[D_PUBLISHER_COEC<2.85407] yes=93,no=94,missing=94
						93:leaf=0.0083186
						94:leaf=0.148224
	2:[D_CATEGORY_MACRO_MEAN_COEC<0.053308] yes=5,no=6,missing=5
		5:[KW_REL<0.007217] yes=11,no=12,missing=12
			11:[WORD_COUNT<1024] yes=23,no=24,missing=24
				23:[D_TITLEMD5_COEC<0.045023] yes=47,no=48,missing=48
					47:[DAY_OF_WEEK<3] yes=95,no=96,missing=96
						95:leaf=-0.00234765
						96:leaf=-0.0185925
					48:[TIME_OF_DAY<15] yes=97,no=98,missing=98
						97:leaf=-0.0349266
						98:leaf=-0.017763
				24:[D_TITLEMD5_COEC<0.081092] yes=49,no=50,missing=50
					49:[TIME_OF_DAY<15] yes=99,no=100,missing=100
						99:leaf=0.00289753
						100:leaf=-0.00358653
					50:[D_CATEGORY_MACRO_MAX_COEC<0.031404] yes=101,no=102,missing=102
						101:leaf=-0.0191946
						102:leaf=-0.00536179
			12:[U_KW_LEN<1036] yes=25,no=26,missing=26
				25:[D_CATEGORY_MACRO_MEAN_COEC<0.035706] yes=51,no=52,missing=52
					51:[U_KW_LEN<75] yes=103,no=104,missing=104
						103:leaf=-0.0179369
						104:leaf=0.0130116
					52:[C_D_U_PUBLISHER_AGE_COEC<0.072144] yes=105,no=106,missing=105
						105:leaf=-0.00770697
						106:leaf=0.0248906
				26:[U_CAT_LEN<11] yes=53,no=54,missing=54
					53:[C_D_U_PUBLISHER_AGE_COEC<0.063647] yes=107,no=108,missing=108
						107:leaf=0.0143431
						108:leaf=0.0479232
					54:[WORD_COUNT<1913] yes=109,no=110,missing=110
						109:leaf=0.00237965
						110:leaf=0.0200096
		6:[U_KW_LEN<132] yes=13,no=14,missing=14
			13:[U_KW_LEN<56] yes=27,no=28,missing=28
				27:[D_PUBLISHER_COEC<0.057633] yes=55,no=56,missing=56
					55:[D_KEYWORD_MICRO_MEAN_COEC<0.061094] yes=111,no=112,missing=112
						111:leaf=-0.0494756
						112:leaf=-0.0234269
					56:[WORD_COUNT<2137] yes=113,no=114,missing=114
						113:leaf=-0.0212947
						114:leaf=0.0031977
				28:[C_D_U_PUBLISHER_AGE_COEC<0.160807] yes=57,no=58,missing=58
					57:[D_CATEGORY_MICRO_MAX_COEC<0.05594] yes=115,no=116,missing=116
						115:leaf=0.00247051
						116:leaf=-0.0241142
					58:[CAT_REL<0.125255] yes=117,no=118,missing=118
						117:leaf=-0.0108344
						118:leaf=-0.000403345
			14:[D_CATEGORY_MACRO_MEAN_COEC<0.074407] yes=29,no=30,missing=30
				29:[WORD_COUNT<4682] yes=59,no=60,missing=60
					59:[WORD_COUNT<4530] yes=119,no=120,missing=120
						119:leaf=0.00755693
						120:leaf=0.0453847
					60:[IMAGE_COUNT<2] yes=121,no=122,missing=122
						121:leaf=-0.0155974
						122:leaf=-0.00037694
				30:[D_PUBLISHER_COEC<0.090259] yes=61,no=62,missing=62
					61:[DAY_OF_WEEK<3] yes=123,no=124,missing=124
						123:leaf=-0.0240498
						124:leaf=-0.00641253
					62:[D_KEYWORD_MACRO_MEAN_COEC<0.062809] yes=125,no=126,missing=126
						125:leaf=0.0402724
						126:leaf=-0.0010282
booster[49]:
0:[U_KW_LEN<4378] yes=1,no=2,missing=2
	1:[C_D_U_TITLEMD5_AGE_COEC<0.058356] yes=3,no=4,missing=4
		3:[CAT_REL<0.166561] yes=7,no=8,missing=8
			7:[C_D_U_TITLEMD5_CATEGORY_MICRO_MAX_COEC<0.188854] yes=15,no=16,missing=15
				15:[WORD_COUNT<2783] yes=31,no=32,missing=32
					31:[C_D_U_CATEGORY_AGE_MICRO_MEAN_COEC<0.051044] yes=61,no=62,missing=61
						61:leaf=0.00466478
						62:leaf=-0.00902456
					32:[D_PUBLISHER_COEC<0.02947] yes=63,no=64,missing=64
						63:leaf=-0.00603574
						64:leaf=-0.0193819
				16:[C_D_U_TITLEMD5_AGE_COEC<0.022478] yes=33,no=34,missing=34
					33:[C_D_U_CATEGORY_GENDER_MACRO_MAX_COEC<0.104777] yes=65,no=66,missing=65
						65:leaf=-0.0307277
						66:leaf=0.00482218
					34:[C_D_U_CATEGORY_AGE_MACRO_MEAN_COEC<0.050888] yes=67,no=68,missing=67
						67:leaf=0.00781132
						68:leaf=-0.0187245
			8:[U_KW_LEN<250] yes=17,no=18,missing=18
				17:[D_KEYWORD_MACRO_MAX_COEC<0.013054] yes=35,no=36,missing=36
					35:[C_D_U_PUBLISHER_GENDER_COEC<0.057669] yes=69,no=70,missing=69
						69:leaf=-0.0300359
						70:leaf=0.0041372
					36:[C_D_U_CATEGORY_AGE_MACRO_MAX_COEC<0.0397] yes=71,no=72,missing=72
						71:leaf=-0.0684141
						72:leaf=0.0100987
				18:[C_D_U_TITLEMD5_CATEGORY_MICRO_MEAN_COEC<0.05499] yes=37,no=38,missing=38
					37:[DAY_OF_WEEK<4] yes=73,no=74,missing=74
						73:leaf=0.0295404
						74:leaf=0.00292174
					38:[WORD_COUNT<5029] yes=75,no=76,missing=76
						75:leaf=0.00514725
						76:leaf=-0.0210318
		4:[DAY_OF_WEEK<2] yes=9,no=10,missing=10
			9:[TIME_OF_DAY<5] yes=19,no=20,missing=20
				19:[U_KW_LEN<923] yes=39,no=40,missing=40
					39:[D_PUBLISHER_COEC<0.062305] yes=77,no=78,missing=78
						77:leaf=-0.0151116
						78:leaf=-0.00154929
					40:[D_PUBLISHER_COEC<0.062305] yes=79,no=80,missing=79
						79:leaf=-0.00138713
						80:leaf=0.0132947
				20:[WORD_COUNT<2325] yes=41,no=42,missing=42
					41:[D_CATEGORY_MICRO_MAX_COEC<0.068359] yes=81,no=82,missing=82
						81:leaf=-0.00176092
						82:leaf=0.010105
					42:[WORD_COUNT<3927] yes=83,no=84,missing=84
						83:leaf=0.0152652
						84:leaf=-0.00187746
			10:[TIME_OF_DAY<15] yes=21,no=22,missing=22
				21:[D_KEYWORD_MICRO_MEAN_COEC<0.105832] yes=43,no=44,missing=43
					43:[C_D_U_TITLEMD5_CATEGORY_MICRO_MAX_COEC<0.32792] yes=85,no=86,missing=86
						85:leaf=0.00158131
						86:leaf=-0.00415855
					44:[C_D_U_TITLEMD5_CATEGORY_MICRO_MAX_COEC<0.210096] yes=87,no=88,missing=87
						87:leaf=0.00189147
						88:leaf=0.0141397
				22:[D_KEYWORD_MICRO_MEAN_COEC<0.05384] yes=45,no=46,missing=46
					45:[D_CATEGORY_MICRO_MEAN_COEC<0.019048] yes=89,no=90,missing=90
						89:leaf=0.0207209
						90:leaf=-0.00744728
					46:[D_CATEGORY_MACRO_MAX_COEC<0.042911] yes=91,no=92,missing=92
						91:leaf=0.00735593
						92:leaf=-0.0033098
	2:[U_CAT_LEN<54] yes=5,no=6,missing=6
		5:[U_CAT_LEN<32] yes=11,no=12,missing=12
			11:[U_CAT_LEN<23] yes=23,no=24,missing=24
				23:[KW_REL<0.002686] yes=47,no=48,missing=48
					47:[U_CAT_LEN<8] yes=93,no=94,missing=94
						93:leaf=0.114357
						94:leaf=-0.00665207
					48:[U_CAT_LEN<14] yes=95,no=96,missing=96
						95:leaf=0.0757605
						96:leaf=0.0215954
				24:[U_KW_LEN<6472] yes=49,no=50,missing=50
					49:[U_CAT_LEN<25] yes=97,no=98,missing=98
						97:leaf=0.0320138
						98:leaf=0.00888855
					50:[TIME_OF_DAY<15] yes=99,no=100,missing=100
						99:leaf=0.0207147
						100:leaf=0.0423778
			12:[U_CAT_LEN<45] yes=25,no=26,missing=26
				25:[U_CAT_LEN<42] yes=51,no=52,missing=52
					51:[D_TITLEMD5_COEC<0.011175] yes=101,no=102,missing=101
						101:leaf=-0.0140163
						102:leaf=0.00484568
					52:[C_D_U_CATEGORY_GENDER_MICRO_MAX_COEC<0.089537] yes=103,no=104,missing=104
						103:leaf=0.0844012
						104:leaf=-0.0449059
				26:[C_D_U_TITLEMD5_AGE_COEC<4.45927] yes=53,no=54,missing=54
					53:[C_D_U_CATEGORY_GENDER_MICRO_MAX_COEC<0.110419] yes=105,no=106,missing=106
						105:leaf=-0.0142505
						106:leaf=-0.108191
					54:[U_KW_LEN<6472] yes=107,no=108,missing=108
						107:leaf=0.137339
						108:leaf=0.0329569
		6:[C_D_U_PUBLISHER_GENDER_COEC<0.089877] yes=13,no=14,missing=14
			13:[TIME_OF_DAY<10] yes=27,no=28,missing=28
				27:[D_KEYWORD_MACRO_MEAN_COEC<0.05898] yes=55,no=56,missing=56
					55:[D_KEYWORD_MACRO_MEAN_COEC<0.015576] yes=109,no=110,missing=110
						109:leaf=-0.0409663
						110:leaf=-0.0968744
					56:leaf=0.0639212
				28:[D_KEYWORD_MICRO_MEAN_COEC<0.04699] yes=57,no=58,missing=58
					57:[D_PUBLISHER_COEC<0.013269] yes=111,no=112,missing=112
						111:leaf=0.104956
						112:leaf=-0.0381292
					58:leaf=0.141197
			14:[C_D_U_CATEGORY_AGE_MICRO_MAX_COEC<0.064622] yes=29,no=30,missing=30
				29:[C_D_U_CATEGORY_GENDER_MACRO_MAX_COEC<0.034771] yes=59,no=60,missing=60
					59:leaf=-0.0962119
					60:leaf=0.0199929
				30:leaf=-0.104541
