booster[0]:
0:[D_CONID_COEC<0.0457964] yes=1,no=2,missing=1
	1:[D_GROUPID_COEC<0.0235129] yes=3,no=4,missing=3
		3:[C_D_U_CATEGORY_CITY_MACRO_MEAN_COEC<0.0428298] yes=7,no=8,missing=8
			7:[D_TITLEMD5_COEC<0.0140923] yes=15,no=16,missing=15
				15:[D_KEYWORD_MEAN_EC<1124.33] yes=31,no=32,missing=32
					31:[D_CATEGORY_MICRO_MEAN_COEC<0.126471] yes=63,no=64,missing=64
						63:leaf=-0.159633
						64:leaf=0.133994
					32:[IMAGE_COUNT<0.999999] yes=65,no=66,missing=66
						65:leaf=-0.163029
						66:leaf=-0.134473
				16:[C_D_U_CONID_CITY_C<3.15018] yes=33,no=34,missing=34
					33:[C_D_U_PUBLISHER_CITY_EC<0.673966] yes=67,no=68,missing=68
						67:leaf=0.136245
						68:leaf=-0.0980992
					34:[D_TITLEMD5_COEC<0.0195364] yes=69,no=70,missing=70
						69:leaf=-0.142924
						70:leaf=-0.116607
			8:[D_KEYWORD_MACRO_MEAN_COEC<0.0224676] yes=17,no=18,missing=18
				17:[C_D_U_CATEGORY_CITY_MICRO_MEAN_COEC<0.113204] yes=35,no=36,missing=35
					35:[D_GROUPID_COEC<0.0115221] yes=71,no=72,missing=71
						71:leaf=-0.131685
						72:leaf=-0.103165
					36:[C_D_U_PUBLISHER_CITY_C<2.66569] yes=73,no=74,missing=73
						73:leaf=-0.0822883
						74:leaf=0.0042707
				18:[C_D_U_CATEGORY_CITY_MICRO_MEAN_COEC<0.126178] yes=37,no=38,missing=37
					37:[C_D_U_CONID_AGE_COEC<0.0210097] yes=75,no=76,missing=75
						75:leaf=-0.0891872
						76:leaf=-0.0594709
					38:[C_D_U_PUBLISHER_CITY_C<0.932229] yes=77,no=78,missing=77
						77:leaf=-0.0626575
						78:leaf=0.0222698
		4:[D_TITLEMD5_COEC<0.0351388] yes=9,no=10,missing=9
			9:[C_D_U_CATEGORY_CITY_MACRO_MEAN_COEC<0.0396066] yes=19,no=20,missing=20
				19:[C_D_U_TITLEMD5_CITY_COEC<2.90907] yes=39,no=40,missing=40
					39:[D_GROUPID_COEC<0.0296662] yes=79,no=80,missing=80
						79:leaf=-0.070579
						80:leaf=-0.0504232
					40:[C_D_U_CONID_AGE_C<6.60835] yes=81,no=82,missing=81
						81:leaf=-0.0980705
						82:leaf=-0.0717549
				20:[C_D_U_GROUPID_AGE_COEC<0.0294457] yes=41,no=42,missing=41
					41:[C_D_U_CATEGORY_CITY_MICRO_MEAN_COEC<0.113204] yes=83,no=84,missing=83
						83:leaf=-0.0539368
						84:leaf=-0.0199245
					42:[C_D_U_CATEGORY_CITY_MICRO_MEAN_COEC<0.103024] yes=85,no=86,missing=85
						85:leaf=-0.0323259
						86:leaf=0.00890673
			10:[C_D_U_CONID_AGE_C<11.8363] yes=21,no=22,missing=21
				21:[C_D_U_CATEGORY_CITY_MACRO_MAX_COEC<0.027305] yes=43,no=44,missing=44
					43:[C_D_U_GROUPID_CITY_COEC<0.483629] yes=87,no=88,missing=88
						87:leaf=-0.0437226
						88:leaf=-0.064319
					44:[D_CONID_COEC<0.040227] yes=89,no=90,missing=90
						89:leaf=-0.0297625
						90:leaf=-0.0174783
				22:[C_D_U_CATEGORY_CITY_MACRO_MEAN_COEC<0.0450924] yes=45,no=46,missing=46
					45:[C_D_U_GROUPID_GENDER_COEC<0.0476035] yes=91,no=92,missing=91
						91:leaf=-0.0211685
						92:leaf=-0.00126855
					46:[C_D_U_CATEGORY_CITY_MICRO_MEAN_COEC<0.085222] yes=93,no=94,missing=93
						93:leaf=-0.00024724
						94:leaf=0.0192948
	2:[D_KEYWORD_MACRO_MEAN_COEC<0.061067] yes=5,no=6,missing=6
		5:[D_GROUPID_COEC<0.0544949] yes=11,no=12,missing=12
			11:[C_D_U_CONID_AGE_C<31.9392] yes=23,no=24,missing=23
				23:[C_D_U_CATEGORY_CITY_MACRO_MEAN_COEC<0.0420884] yes=47,no=48,missing=48
					47:[D_KEYWORD_MACRO_MEAN_COEC<0.0345539] yes=95,no=96,missing=96
						95:leaf=-0.0579101
						96:leaf=-0.0169212
					48:[D_KEYWORD_MACRO_MEAN_COEC<0.0345539] yes=97,no=98,missing=98
						97:leaf=-0.0260281
						98:leaf=0.00526446
				24:[C_D_U_CATEGORY_CITY_MICRO_MEAN_COEC<0.0437216] yes=49,no=50,missing=50
					49:[C_D_U_PUBLISHER_CITY_COEC<0.0495492] yes=99,no=100,missing=99
						99:leaf=0.00192324
						100:leaf=0.0207035
					50:[C_D_U_CATEGORY_CITY_MICRO_MAX_COEC<0.0988776] yes=101,no=102,missing=101
						101:leaf=0.0226714
						102:leaf=0.0477057
			12:[C_D_U_CONID_AGE_C<17.3294] yes=25,no=26,missing=25
				25:[C_D_U_CATEGORY_CITY_MACRO_MEAN_COEC<0.0387686] yes=51,no=52,missing=52
					51:[C_D_U_PUBLISHER_CITY_COEC<0.0260675] yes=103,no=104,missing=103
						103:leaf=-0.0179351
						104:leaf=0.00614285
					52:[D_KEYWORD_MACRO_MEAN_COEC<0.041688] yes=105,no=106,missing=106
						105:leaf=0.0048799
						106:leaf=0.0303871
				26:[C_D_U_CATEGORY_CITY_MACRO_MEAN_COEC<0.0439556] yes=53,no=54,missing=54
					53:[C_D_U_PUBLISHER_CITY_COEC<0.0445015] yes=107,no=108,missing=107
						107:leaf=0.0249692
						108:leaf=0.0399774
					54:[D_CONID_COEC<0.0594407] yes=109,no=110,missing=110
						109:leaf=0.0373057
						110:leaf=0.0537444
		6:[D_TITLEMD5_COEC<0.0952504] yes=13,no=14,missing=14
			13:[C_D_U_GROUPID_AGE_COEC<0.084669] yes=27,no=28,missing=27
				27:[D_PUBLISHER_C<6965.07] yes=55,no=56,missing=56
					55:[D_CATEGORY_MICRO_MEAN_COEC<0.0492915] yes=111,no=112,missing=112
						111:leaf=-0.0307301
						112:leaf=0.0380388
					56:[TIME_OF_DAY<17] yes=113,no=114,missing=114
						113:leaf=0.0606389
						114:leaf=0.0458643
				28:[C_D_U_CONID_GENDER_COEC<0.103362] yes=57,no=58,missing=57
					57:[C_D_U_CONID_AGE_C<1163.45] yes=115,no=116,missing=116
						115:leaf=0.0610627
						116:leaf=0.0763625
					58:[C_D_U_CATEGORY_AGE_MICRO_MAX_COEC<0.053859] yes=117,no=118,missing=118
						117:leaf=-0.0411731
						118:leaf=0.0953825
			14:[D_KEYWORD_MICRO_MEAN_COEC<0.0976323] yes=29,no=30,missing=30
				29:[WORD_COUNT<1646] yes=59,no=60,missing=60
					59:[C_D_U_GROUPID_AGE_COEC<0.101905] yes=119,no=120,missing=119
						119:leaf=0.0545904
						120:leaf=0.0762506
					60:[D_KEYWORD_MEAN_EC<828.67] yes=121,no=122,missing=122
						121:leaf=0.0372223
						122:leaf=0.0872871
				30:[D_CATEGORY_MACRO_MAX_COEC<0.126471] yes=61,no=62,missing=61
					61:[D_KEYWORD_MAX_EC<257.397] yes=123,no=124,missing=124
						123:leaf=-0.050696
						124:leaf=0.0986448
					62:[D_KEYWORD_MAX_EC<629.69] yes=125,no=126,missing=126
						125:leaf=0.102367
						126:leaf=0.123838
booster[1]:
0:[D_CONID_COEC<0.0431304] yes=1,no=2,missing=1
	1:[D_GROUPID_COEC<0.0236594] yes=3,no=4,missing=3
		3:[C_D_U_CATEGORY_CITY_MACRO_MEAN_COEC<0.0434172] yes=7,no=8,missing=8
			7:[D_TITLEMD5_COEC<0.0138997] yes=15,no=16,missing=15
				15:[D_KEYWORD_MACRO_MEAN_COEC<0.0201153] yes=31,no=32,missing=32
					31:[C_D_U_PUBLISHER_CITY_COEC<0.139181] yes=63,no=64,missing=63
						63:leaf=-0.1466
						64:leaf=-0.0923571
					32:[IMAGE_COUNT<0.999999] yes=65,no=66,missing=66
						65:leaf=-0.148648
						66:leaf=-0.122379
				16:[C_D_U_CONID_CITY_C<2.96537] yes=33,no=34,missing=34
					33:[C_D_U_PUBLISHER_CITY_EC<0.712507] yes=67,no=68,missing=68
						67:leaf=0.106956
						68:leaf=-0.0886519
					34:[D_KEYWORD_MACRO_MEAN_COEC<0.0201153] yes=69,no=70,missing=70
						69:leaf=-0.136226
						70:leaf=-0.107927
			8:[D_KEYWORD_MACRO_MEAN_COEC<0.0201153] yes=17,no=18,missing=18
				17:[C_D_U_CATEGORY_CITY_MICRO_MEAN_COEC<0.192518] yes=35,no=36,missing=35
					35:[D_PUBLISHER_COEC<0.0187712] yes=71,no=72,missing=72
						71:leaf=-0.143799
						72:leaf=-0.108275
					36:[C_D_U_PUBLISHER_CITY_C<2.19408] yes=73,no=74,missing=73
						73:leaf=-0.0744212
						74:leaf=0.0554881
				18:[C_D_U_PUBLISHER_CITY_COEC<0.0831866] yes=37,no=38,missing=37
					37:[D_GROUPID_COEC<0.0180458] yes=75,no=76,missing=76
						75:leaf=-0.0894531
						76:leaf=-0.067229
					38:[C_D_U_CATEGORY_CITY_MICRO_MEAN_COEC<0.0962816] yes=77,no=78,missing=77
						77:leaf=-0.0525277
						78:leaf=0.00476111
		4:[D_TITLEMD5_COEC<0.0331936] yes=9,no=10,missing=9
			9:[C_D_U_CATEGORY_CITY_MICRO_MEAN_COEC<0.0527085] yes=19,no=20,missing=20
				19:[C_D_U_TITLEMD5_CITY_COEC<0.497493] yes=39,no=40,missing=40
					39:[C_D_U_TITLEMD5_AGE_COEC<0.0254412] yes=79,no=80,missing=79
						79:leaf=-0.0618109
						80:leaf=-0.0432595
					40:[C_D_U_PUBLISHER_CITY_COEC<0.0729939] yes=81,no=82,missing=81
						81:leaf=-0.0822133
						82:leaf=-0.0468574
				20:[C_D_U_PUBLISHER_AGE_COEC<0.0254357] yes=41,no=42,missing=41
					41:[D_GROUPID_COEC<0.0285243] yes=83,no=84,missing=84
						83:leaf=-0.0585141
						84:leaf=-0.0436861
					42:[C_D_U_CATEGORY_CITY_MACRO_MEAN_COEC<0.113263] yes=85,no=86,missing=85
						85:leaf=-0.0321607
						86:leaf=0.00480093
			10:[C_D_U_CONID_AGE_C<26.9982] yes=21,no=22,missing=21
				21:[C_D_U_CATEGORY_CITY_MACRO_MEAN_COEC<0.040048] yes=43,no=44,missing=44
					43:[C_D_U_GROUPID_CITY_COEC<4.36368] yes=87,no=88,missing=88
						87:leaf=-0.0377721
						88:leaf=-0.06106
					44:[TIME_OF_DAY<12] yes=89,no=90,missing=90
						89:leaf=-0.0161523
						90:leaf=-0.0276839
				22:[C_D_U_CATEGORY_CITY_MACRO_MEAN_COEC<0.0382741] yes=45,no=46,missing=46
					45:[D_CONID_COEC<0.0367732] yes=91,no=92,missing=92
						91:leaf=-0.0356346
						92:leaf=-0.0166426
					46:[C_D_U_CATEGORY_CITY_MACRO_MEAN_COEC<0.0675547] yes=93,no=94,missing=93
						93:leaf=-0.00627416
						94:leaf=0.0122732
	2:[D_KEYWORD_MACRO_MEAN_COEC<0.0602343] yes=5,no=6,missing=6
		5:[D_GROUPID_COEC<0.0523655] yes=11,no=12,missing=12
			11:[C_D_U_CONID_AGE_C<16.8215] yes=23,no=24,missing=23
				23:[C_D_U_CATEGORY_CITY_MACRO_MEAN_COEC<0.0337043] yes=47,no=48,missing=48
					47:[D_KEYWORD_MACRO_MEAN_COEC<0.0327178] yes=95,no=96,missing=96
						95:leaf=-0.0643391
						96:leaf=-0.0256466
					48:[D_KEYWORD_MACRO_MEAN_COEC<0.0322408] yes=97,no=98,missing=98
						97:leaf=-0.0380897
						98:leaf=-0.00206495
				24:[C_D_U_CATEGORY_CITY_MICRO_MEAN_COEC<0.0445615] yes=49,no=50,missing=50
					49:[C_D_U_CONID_GENDER_COEC<0.0405526] yes=99,no=100,missing=100
						99:leaf=-0.0312802
						100:leaf=0.00230605
					50:[C_D_U_PUBLISHER_CITY_COEC<0.0998088] yes=101,no=102,missing=101
						101:leaf=0.0177704
						102:leaf=0.0420264
			12:[C_D_U_CONID_AGE_C<23.9601] yes=25,no=26,missing=25
				25:[C_D_U_CATEGORY_CITY_MACRO_MEAN_COEC<0.0446935] yes=51,no=52,missing=52
					51:[D_KEYWORD_MACRO_MEAN_COEC<0.0370393] yes=103,no=104,missing=104
						103:leaf=-0.042159
						104:leaf=0.00318976
					52:[D_CONID_COEC<0.0590236] yes=105,no=106,missing=106
						105:leaf=0.0126229
						106:leaf=0.0305232
				26:[D_CONID_COEC<0.0590236] yes=53,no=54,missing=54
					53:[C_D_U_CATEGORY_CITY_MACRO_MAX_COEC<0.0225567] yes=107,no=108,missing=108
						107:leaf=0.0128438
						108:leaf=0.0303578
					54:[C_D_U_CATEGORY_CITY_MACRO_MEAN_COEC<0.0495015] yes=109,no=110,missing=110
						109:leaf=0.0334223
						110:leaf=0.0487643
		6:[D_TITLEMD5_COEC<0.0943751] yes=13,no=14,missing=14
			13:[C_D_U_PUBLISHER_AGE_C<3484.83] yes=27,no=28,missing=27
				27:[C_D_U_PUBLISHER_CITY_COEC<0.0475794] yes=55,no=56,missing=56
					55:[C_D_U_CATEGORY_AGE_MICRO_MAX_COEC<0.0536004] yes=111,no=112,missing=112
						111:leaf=-0.0418014
						112:leaf=0.0291642
					56:[D_CONID_COEC<0.080042] yes=113,no=114,missing=114
						113:leaf=0.041426
						114:leaf=0.0573249
				28:[C_D_U_GROUPID_GENDER_COEC<0.100111] yes=57,no=58,missing=57
					57:[C_D_U_CATEGORY_CITY_MICRO_MAX_COEC<0.0613519] yes=115,no=116,missing=116
						115:leaf=0.0504672
						116:leaf=0.0641498
					58:[C_D_U_CATEGORY_AGE_MICRO_MAX_COEC<0.0547404] yes=117,no=118,missing=118
						117:leaf=-0.000264882
						118:leaf=0.0845712
			14:[D_KEYWORD_MICRO_MEAN_COEC<0.0965522] yes=29,no=30,missing=30
				29:[WORD_COUNT<1478] yes=59,no=60,missing=60
					59:[C_D_U_CATEGORY_AGE_MACRO_MEAN_COEC<0.0573463] yes=119,no=120,missing=119
						119:leaf=0.0495027
						120:leaf=0.0730299
					60:[D_KEYWORD_MEAN_EC<817.131] yes=121,no=122,missing=122
						121:leaf=0.0253715
						122:leaf=0.0786921
				30:[D_PUBLISHER_COEC<0.0686357] yes=61,no=62,missing=62
					61:[D_KEYWORD_MEAN_C<130.186] yes=123,no=124,missing=124
						123:leaf=-0.0630931
						124:leaf=0.0620089
					62:[D_CATEGORY_MACRO_MAX_COEC<0.126704] yes=125,no=126,missing=125
						125:leaf=0.0893183
						126:leaf=0.104458
booster[2]:
0:[D_CONID_COEC<0.0456844] yes=1,no=2,missing=1
	1:[D_GROUPID_COEC<0.0285437] yes=3,no=4,missing=3
		3:[D_GROUPID_COEC<0.0185839] yes=7,no=8,missing=7
			7:[C_D_U_CATEGORY_CITY_MACRO_MEAN_COEC<0.0437063] yes=15,no=16,missing=16
				15:[D_KEYWORD_MACRO_MEAN_COEC<0.0155844] yes=31,no=32,missing=32
					31:[C_D_U_CONID_GENDER_COEC<0.109635] yes=63,no=64,missing=63
						63:leaf=-0.13668
						64:leaf=0.00781023
					32:[IMAGE_COUNT<0.999999] yes=65,no=66,missing=66
						65:leaf=-0.132837
						66:leaf=-0.111564
				16:[C_D_U_PUBLISHER_CITY_COEC<0.0626072] yes=33,no=34,missing=33
					33:[D_KEYWORD_MACRO_MEAN_COEC<0.020832] yes=67,no=68,missing=68
						67:leaf=-0.107173
						68:leaf=-0.0791221
					34:[C_D_U_CATEGORY_CITY_MICRO_MEAN_COEC<0.0800508] yes=69,no=70,missing=69
						69:leaf=-0.0787437
						70:leaf=-0.0166557
			8:[C_D_U_CATEGORY_CITY_MICRO_MEAN_COEC<0.0513147] yes=17,no=18,missing=18
				17:[C_D_U_CONID_CITY_C<4.61127] yes=35,no=36,missing=36
					35:[C_D_U_CONID_AGE_COEC<0.0251777] yes=71,no=72,missing=71
						71:leaf=-0.0674101
						72:leaf=-0.04687
					36:[C_D_U_CONID_AGE_C<6.28588] yes=73,no=74,missing=73
						73:leaf=-0.0940467
						74:leaf=-0.0730162
				18:[C_D_U_PUBLISHER_AGE_COEC<0.0256944] yes=37,no=38,missing=37
					37:[C_D_U_CATEGORY_CITY_MICRO_MEAN_COEC<0.142136] yes=75,no=76,missing=75
						75:leaf=-0.0597596
						76:leaf=-0.0274567
					38:[C_D_U_CATEGORY_CITY_MACRO_MEAN_COEC<0.127276] yes=77,no=78,missing=77
						77:leaf=-0.0395938
						78:leaf=-0.00102918
		4:[C_D_U_CONID_AGE_COEC<0.0377252] yes=9,no=10,missing=9
			9:[C_D_U_CATEGORY_CITY_MACRO_MEAN_COEC<0.0386664] yes=19,no=20,missing=20
				19:[C_D_U_TITLEMD5_CITY_COEC<0.999999] yes=39,no=40,missing=40
					39:[D_TITLEMD5_COEC<0.0406123] yes=79,no=80,missing=80
						79:leaf=-0.0411744
						80:leaf=-0.0227791
					40:[C_D_U_PUBLISHER_CITY_COEC<0.0572149] yes=81,no=82,missing=81
						81:leaf=-0.061883
						82:leaf=-0.0327583
				20:[D_CONID_COEC<0.0357267] yes=41,no=42,missing=41
					41:[C_D_U_CATEGORY_CITY_MICRO_MEAN_COEC<0.102177] yes=83,no=84,missing=83
						83:leaf=-0.0340896
						84:leaf=-0.00404314
					42:[TIME_OF_DAY<11] yes=85,no=86,missing=86
						85:leaf=-0.0104554
						86:leaf=-0.0208644
			10:[C_D_U_CATEGORY_CITY_MACRO_MEAN_COEC<0.0386664] yes=21,no=22,missing=22
				21:[C_D_U_CONID_AGE_C<45.9815] yes=43,no=44,missing=44
					43:[C_D_U_CONID_AGE_C<6.28588] yes=87,no=88,missing=88
						87:leaf=-0.06307
						88:leaf=-0.0363848
					44:[C_D_U_GROUPID_GENDER_COEC<0.0395225] yes=89,no=90,missing=90
						89:leaf=-0.0349881
						90:leaf=-0.0107986
				22:[C_D_U_CATEGORY_CITY_MICRO_MEAN_COEC<0.0830754] yes=45,no=46,missing=45
					45:[D_TITLEMD5_COEC<0.039745] yes=91,no=92,missing=92
						91:leaf=-0.0121851
						92:leaf=0.00362211
					46:[C_D_U_CONID_CITY_COEC<0.0830381] yes=93,no=94,missing=93
						93:leaf=0.0223741
						94:leaf=-0.0150422
	2:[D_KEYWORD_MACRO_MEAN_COEC<0.0570181] yes=5,no=6,missing=6
		5:[C_D_U_TITLEMD5_AGE_COEC<0.0578641] yes=11,no=12,missing=11
			11:[C_D_U_CATEGORY_CITY_MACRO_MEAN_COEC<0.0426396] yes=23,no=24,missing=24
				23:[C_D_U_PUBLISHER_CITY_COEC<0.027771] yes=47,no=48,missing=47
					47:[C_D_U_CONID_AGE_C<13.8858] yes=95,no=96,missing=95
						95:leaf=-0.0257692
						96:leaf=-0.0045708
					48:[D_KEYWORD_MACRO_MEAN_COEC<0.0359738] yes=97,no=98,missing=98
						97:leaf=-0.0282021
						98:leaf=0.00402313
				24:[D_CONID_COEC<0.0574226] yes=49,no=50,missing=50
					49:[C_D_U_CONID_AGE_COEC<0.0494316] yes=99,no=100,missing=99
						99:leaf=0.00433228
						100:leaf=0.0191512
					50:[D_KEYWORD_MAX_C<52.5026] yes=101,no=102,missing=102
						101:leaf=0.00693297
						102:leaf=0.0286285
			12:[C_D_U_CONID_AGE_C<6.28588] yes=25,no=26,missing=25
				25:[D_CONID_COEC<0.0850833] yes=51,no=52,missing=52
					51:[D_KEYWORD_MEAN_C<88.9011] yes=103,no=104,missing=104
						103:leaf=-0.050882
						104:leaf=-0.00522066
					52:[D_KEYWORD_MEAN_EC<1396.18] yes=105,no=106,missing=106
						105:leaf=-0.00495926
						106:leaf=0.0401181
				26:[C_D_U_CATEGORY_CITY_MACRO_MEAN_COEC<0.0476051] yes=53,no=54,missing=54
					53:[C_D_U_PUBLISHER_CITY_COEC<0.0329406] yes=107,no=108,missing=107
						107:leaf=0.0143751
						108:leaf=0.0287723
					54:[D_CONID_COEC<0.0601804] yes=109,no=110,missing=110
						109:leaf=0.0313286
						110:leaf=0.0444454
		6:[D_GROUPID_COEC<0.0887323] yes=13,no=14,missing=14
			13:[C_D_U_PUBLISHER_AGE_C<3758.56] yes=27,no=28,missing=27
				27:[C_D_U_CATEGORY_CITY_MICRO_MAX_COEC<0.0574833] yes=55,no=56,missing=56
					55:[TIME_OF_DAY<19] yes=111,no=112,missing=112
						111:leaf=0.0284932
						112:leaf=0.011858
					56:[TIME_OF_DAY<19] yes=113,no=114,missing=114
						113:leaf=0.044878
						114:leaf=0.0285062
				28:[TIME_OF_DAY<16] yes=57,no=58,missing=58
					57:[C_D_U_TITLEMD5_GENDER_COEC<0.0741626] yes=115,no=116,missing=116
						115:leaf=0.0381447
						116:leaf=0.0613199
					58:[C_D_U_PUBLISHER_AGE_COEC<0.0467581] yes=117,no=118,missing=118
						117:leaf=-0.118793
						118:leaf=0.0430583
			14:[D_CONID_COEC<0.110549] yes=29,no=30,missing=30
				29:[D_KEYWORD_MAX_C<33.0335] yes=59,no=60,missing=60
					59:[D_CATEGORY_MICRO_MEAN_COEC<0.0461875] yes=119,no=120,missing=120
						119:leaf=-0.0220319
						120:leaf=0.0355391
					60:[C_D_U_CONID_AGE_COEC<0.101317] yes=121,no=122,missing=121
						121:leaf=0.056144
						122:leaf=0.0710434
				30:[D_PUBLISHER_COEC<0.0687935] yes=61,no=62,missing=62
					61:[D_KEYWORD_MACRO_MEAN_COEC<0.0858912] yes=123,no=124,missing=124
						123:leaf=0.0699886
						124:leaf=0.0330189
					62:[D_PUBLISHER_C<5370.46] yes=125,no=126,missing=126
						125:leaf=0.0742819
						126:leaf=0.0898274
booster[3]:
0:[D_CONID_COEC<0.041092] yes=1,no=2,missing=1
	1:[D_GROUPID_COEC<0.0235551] yes=3,no=4,missing=3
		3:[C_D_U_CATEGORY_CITY_MACRO_MEAN_COEC<0.042526] yes=7,no=8,missing=8
			7:[D_TITLEMD5_COEC<0.0149261] yes=15,no=16,missing=15
				15:[D_KEYWORD_MACRO_MEAN_COEC<0.024439] yes=31,no=32,missing=32
					31:[IMAGE_COUNT<3] yes=63,no=64,missing=64
						63:leaf=-0.124049
						64:leaf=-0.105138
					32:[IMAGE_COUNT<3] yes=65,no=66,missing=66
						65:leaf=-0.107736
						66:leaf=-0.0694523
				16:[C_D_U_CONID_CITY_C<3.38295] yes=33,no=34,missing=34
					33:[C_D_U_PUBLISHER_CITY_EC<0.665236] yes=67,no=68,missing=68
						67:leaf=0.112394
						68:leaf=-0.0718477
					34:[C_D_U_TITLEMD5_AGE_COEC<0.0214245] yes=69,no=70,missing=69
						69:leaf=-0.103972
						70:leaf=-0.0807672
			8:[D_KEYWORD_MACRO_MEAN_COEC<0.0211197] yes=17,no=18,missing=18
				17:[C_D_U_PUBLISHER_CITY_COEC<0.0550465] yes=35,no=36,missing=35
					35:[WORD_COUNT<1501] yes=71,no=72,missing=72
						71:leaf=-0.11611
						72:leaf=-0.0887862
					36:[C_D_U_CATEGORY_CITY_MACRO_MAX_COEC<0.188471] yes=73,no=74,missing=73
						73:leaf=-0.0652715
						74:leaf=-0.00232983
				18:[C_D_U_CATEGORY_CITY_MACRO_MEAN_COEC<0.129322] yes=37,no=38,missing=37
					37:[IMAGE_COUNT<0.999999] yes=75,no=76,missing=76
						75:leaf=-0.083719
						76:leaf=-0.0581766
					38:[C_D_U_PUBLISHER_CITY_C<1.98678] yes=77,no=78,missing=77
						77:leaf=-0.0348415
						78:leaf=0.0407998
		4:[D_GROUPID_COEC<0.0322053] yes=9,no=10,missing=10
			9:[C_D_U_CATEGORY_CITY_MICRO_MEAN_COEC<0.0492081] yes=19,no=20,missing=20
				19:[C_D_U_CONID_CITY_COEC<0.497493] yes=39,no=40,missing=40
					39:[C_D_U_CONID_AGE_C<6.93055] yes=79,no=80,missing=79
						79:leaf=-0.0541592
						80:leaf=-0.0373321
					40:[C_D_U_CONID_AGE_C<9.55678] yes=81,no=82,missing=81
						81:leaf=-0.0754515
						82:leaf=-0.0556496
				20:[C_D_U_PUBLISHER_AGE_COEC<0.0256315] yes=41,no=42,missing=41
					41:[D_KEYWORD_MEAN_EC<804.132] yes=83,no=84,missing=84
						83:leaf=-0.056897
						84:leaf=-0.0403102
					42:[C_D_U_PUBLISHER_CITY_COEC<0.0917773] yes=85,no=86,missing=85
						85:leaf=-0.027688
						86:leaf=0.00505645
			10:[C_D_U_CATEGORY_CITY_MACRO_MAX_COEC<0.0298671] yes=21,no=22,missing=22
				21:[C_D_U_CONID_AGE_C<41.731] yes=43,no=44,missing=43
					43:[C_D_U_PUBLISHER_CITY_COEC<0.0244806] yes=87,no=88,missing=87
						87:leaf=-0.0502453
						88:leaf=-0.0343137
					44:[C_D_U_PUBLISHER_CITY_COEC<0.0402075] yes=89,no=90,missing=89
						89:leaf=-0.027232
						90:leaf=-0.0100274
				22:[C_D_U_CONID_AGE_C<6.93055] yes=45,no=46,missing=45
					45:[C_D_U_PUBLISHER_CITY_COEC<0.0685654] yes=91,no=92,missing=92
						91:leaf=-0.0289476
						92:leaf=-0.0174309
					46:[C_D_U_CATEGORY_CITY_MACRO_MEAN_COEC<0.0890371] yes=93,no=94,missing=93
						93:leaf=-0.00902428
						94:leaf=0.0156264
	2:[D_CONID_COEC<0.0762769] yes=5,no=6,missing=6
		5:[D_GROUPID_COEC<0.0523851] yes=11,no=12,missing=12
			11:[C_D_U_CONID_AGE_C<24.0194] yes=23,no=24,missing=23
				23:[C_D_U_CATEGORY_CITY_MACRO_MEAN_COEC<0.0441002] yes=47,no=48,missing=48
					47:[D_KEYWORD_MEAN_C<39.7005] yes=95,no=96,missing=96
						95:leaf=-0.0523931
						96:leaf=-0.0189485
					48:[D_KEYWORD_MACRO_MEAN_COEC<0.0317192] yes=97,no=98,missing=98
						97:leaf=-0.0362256
						98:leaf=-0.00169436
				24:[C_D_U_CATEGORY_CITY_MICRO_MEAN_COEC<0.0457491] yes=49,no=50,missing=50
					49:[C_D_U_PUBLISHER_CITY_COEC<0.0462246] yes=99,no=100,missing=99
						99:leaf=-0.00457208
						100:leaf=0.0101555
					50:[C_D_U_TITLEMD5_GENDER_COEC<0.0514085] yes=101,no=102,missing=102
						101:leaf=0.00293711
						102:leaf=0.0180528
			12:[C_D_U_CONID_AGE_C<113.965] yes=25,no=26,missing=25
				25:[C_D_U_CATEGORY_CITY_MACRO_MAX_COEC<0.0278561] yes=51,no=52,missing=52
					51:[C_D_U_CONID_AGE_C<4.81232] yes=103,no=104,missing=104
						103:leaf=-0.0585719
						104:leaf=-0.00456669
					52:[D_KEYWORD_MEAN_C<89.3864] yes=105,no=106,missing=106
						105:leaf=-0.00312664
						106:leaf=0.0200749
				26:[C_D_U_CATEGORY_CITY_MACRO_MAX_COEC<0.0371815] yes=53,no=54,missing=54
					53:[C_D_U_PUBLISHER_CITY_COEC<0.0259621] yes=107,no=108,missing=107
						107:leaf=0.0124836
						108:leaf=0.0262809
					54:[TIME_OF_DAY<19] yes=109,no=110,missing=110
						109:leaf=0.0369271
						110:leaf=0.0225153
		6:[D_KEYWORD_MICRO_MEAN_COEC<0.0836725] yes=13,no=14,missing=14
			13:[C_D_U_CONID_AGE_C<13.2529] yes=27,no=28,missing=27
				27:[C_D_U_PUBLISHER_CITY_COEC<0.0422699] yes=55,no=56,missing=56
					55:[D_KEYWORD_MEAN_C<39.7005] yes=111,no=112,missing=112
						111:leaf=-0.0172388
						112:leaf=0.0189338
					56:[D_PUBLISHER_C<24557.7] yes=113,no=114,missing=114
						113:leaf=0.0294992
						114:leaf=0.0479705
				28:[C_D_U_CONID_AGE_COEC<0.101705] yes=57,no=58,missing=58
					57:[D_KEYWORD_MICRO_MAX_COEC<0.116194] yes=115,no=116,missing=116
						115:leaf=0.0477823
						116:leaf=-0.143508
					58:[WORD_COUNT<1453] yes=117,no=118,missing=118
						117:leaf=0.054301
						118:leaf=0.0727089
			14:[D_GROUPID_COEC<0.121658] yes=29,no=30,missing=30
				29:[C_D_U_CONID_AGE_C<788.895] yes=59,no=60,missing=60
					59:[C_D_U_PUBLISHER_AGE_C<1977.52] yes=119,no=120,missing=120
						119:leaf=0.0105634
						120:leaf=-0.068702
					60:[C_D_U_GROUPID_GENDER_COEC<0.109519] yes=121,no=122,missing=121
						121:leaf=0.0593291
						122:leaf=0.0797202
				30:[D_PUBLISHER_C<5330.1] yes=61,no=62,missing=62
					61:[C_D_U_PUBLISHER_AGE_COEC<0.0672846] yes=123,no=124,missing=124
						123:leaf=-0.095157
						124:leaf=0.0660482
					62:[D_KEYWORD_MAX_C<86.1729] yes=125,no=126,missing=126
						125:leaf=0.0739565
						126:leaf=0.0926657
booster[4]:
0:[D_CONID_COEC<0.0433431] yes=1,no=2,missing=1
	1:[D_GROUPID_COEC<0.0246981] yes=3,no=4,missing=3
		3:[D_KEYWORD_MACRO_MEAN_COEC<0.0207918] yes=7,no=8,missing=8
			7:[C_D_U_CATEGORY_CITY_MICRO_MEAN_COEC<0.0346151] yes=15,no=16,missing=16
				15:[C_D_U_CONID_CITY_COEC<0.0471484] yes=31,no=32,missing=32
					31:[C_D_U_PUBLISHER_CITY_EC<0.662967] yes=63,no=64,missing=64
						63:leaf=0.153056
						64:leaf=-0.0909997
					32:[D_CATEGORY_MICRO_MEAN_COEC<0.126471] yes=65,no=66,missing=66
						65:leaf=-0.116472
						66:leaf=0.166527
				16:[C_D_U_CATEGORY_CITY_MICRO_MEAN_COEC<0.102148] yes=33,no=34,missing=33
					33:[D_GROUPID_COEC<0.0125938] yes=67,no=68,missing=67
						67:leaf=-0.0973295
						68:leaf=-0.0731219
					34:[C_D_U_PUBLISHER_CITY_C<1.95054] yes=69,no=70,missing=69
						69:leaf=-0.0627466
						70:leaf=-0.00357609
			8:[C_D_U_CATEGORY_CITY_MICRO_MEAN_COEC<0.0570705] yes=17,no=18,missing=18
				17:[D_CONID_COEC<0.0196058] yes=35,no=36,missing=36
					35:[C_D_U_PUBLISHER_CITY_COEC<0.026258] yes=71,no=72,missing=71
						71:leaf=-0.10499
						72:leaf=-0.0822276
					36:[C_D_U_PUBLISHER_CITY_COEC<0.0290821] yes=73,no=74,missing=73
						73:leaf=-0.0765538
						74:leaf=-0.0544231
				18:[C_D_U_PUBLISHER_CITY_COEC<0.062668] yes=37,no=38,missing=37
					37:[D_PUBLISHER_COEC<0.0194966] yes=75,no=76,missing=75
						75:leaf=-0.0887661
						76:leaf=-0.0505707
					38:[C_D_U_CATEGORY_CITY_MACRO_MEAN_COEC<0.141527] yes=77,no=78,missing=77
						77:leaf=-0.0297582
						78:leaf=0.0146939
		4:[D_TITLEMD5_COEC<0.0324667] yes=9,no=10,missing=9
			9:[C_D_U_CATEGORY_CITY_MACRO_MEAN_COEC<0.0399209] yes=19,no=20,missing=20
				19:[C_D_U_PUBLISHER_CITY_COEC<0.0279206] yes=39,no=40,missing=39
					39:[C_D_U_CONID_CITY_COEC<0.49425] yes=79,no=80,missing=80
						79:leaf=-0.0487698
						80:leaf=-0.0655724
					40:[IMAGE_COUNT<3] yes=81,no=82,missing=82
						81:leaf=-0.0477763
						82:leaf=-0.0306688
				20:[C_D_U_CATEGORY_CITY_MACRO_MEAN_COEC<0.141527] yes=41,no=42,missing=41
					41:[C_D_U_PUBLISHER_AGE_COEC<0.0277888] yes=83,no=84,missing=83
						83:leaf=-0.039895
						84:leaf=-0.024827
					42:[C_D_U_CONID_CITY_COEC<0.142651] yes=85,no=86,missing=85
						85:leaf=0.00977559
						86:leaf=-0.0567095
			10:[C_D_U_CONID_AGE_C<6.67985] yes=21,no=22,missing=21
				21:[C_D_U_CATEGORY_CITY_MACRO_MAX_COEC<0.0276847] yes=43,no=44,missing=44
					43:[D_KEYWORD_MEAN_EC<1509.36] yes=87,no=88,missing=88
						87:leaf=-0.0525444
						88:leaf=-0.0335435
					44:[D_KEYWORD_MACRO_MEAN_COEC<0.0264488] yes=89,no=90,missing=90
						89:leaf=-0.0617986
						90:leaf=-0.0183094
				22:[C_D_U_CATEGORY_CITY_MACRO_MAX_COEC<0.0294677] yes=45,no=46,missing=46
					45:[D_CATEGORY_MICRO_MAX_COEC<0.0455456] yes=91,no=92,missing=92
						91:leaf=-0.0145864
						92:leaf=-0.0330674
					46:[C_D_U_CATEGORY_CITY_MACRO_MEAN_COEC<0.104379] yes=93,no=94,missing=93
						93:leaf=-0.0049399
						94:leaf=0.0192868
	2:[D_KEYWORD_MACRO_MEAN_COEC<0.0576035] yes=5,no=6,missing=6
		5:[D_CONID_COEC<0.0560523] yes=11,no=12,missing=12
			11:[C_D_U_CONID_AGE_C<32.5502] yes=23,no=24,missing=23
				23:[C_D_U_PUBLISHER_CITY_COEC<0.0402656] yes=47,no=48,missing=48
					47:[D_KEYWORD_MACRO_MEAN_COEC<0.0337454] yes=95,no=96,missing=96
						95:leaf=-0.0519199
						96:leaf=-0.0153457
					48:[TIME_OF_DAY<19] yes=97,no=98,missing=98
						97:leaf=0.00347468
						98:leaf=-0.0118609
				24:[TIME_OF_DAY<14] yes=49,no=50,missing=50
					49:[C_D_U_CATEGORY_CITY_MACRO_MEAN_COEC<0.047054] yes=99,no=100,missing=100
						99:leaf=0.0103418
						100:leaf=0.0237507
					50:[C_D_U_CATEGORY_CITY_MICRO_MEAN_COEC<0.0591459] yes=101,no=102,missing=101
						101:leaf=0.000427417
						102:leaf=0.0189138
			12:[D_KEYWORD_MACRO_MEAN_COEC<0.0400776] yes=25,no=26,missing=26
				25:[D_KEYWORD_MEAN_EC<1306.19] yes=51,no=52,missing=52
					51:[D_KEYWORD_MEAN_C<8.06844] yes=103,no=104,missing=104
						103:leaf=-0.0997487
						104:leaf=-0.0264662
					52:[D_TITLEMD5_COEC<0.100267] yes=105,no=106,missing=106
						105:leaf=-0.00184819
						106:leaf=0.0331503
				26:[C_D_U_CATEGORY_CITY_MACRO_MAX_COEC<0.0363644] yes=53,no=54,missing=54
					53:[C_D_U_CONID_AGE_C<32.5502] yes=107,no=108,missing=107
						107:leaf=0.00229757
						108:leaf=0.021047
					54:[C_D_U_CONID_AGE_COEC<0.0612218] yes=109,no=110,missing=109
						109:leaf=0.021489
						110:leaf=0.033621
		6:[D_CONID_COEC<0.0935198] yes=13,no=14,missing=14
			13:[C_D_U_GROUPID_AGE_COEC<0.0764186] yes=27,no=28,missing=27
				27:[C_D_U_CATEGORY_CITY_MICRO_MAX_COEC<0.0621517] yes=55,no=56,missing=56
					55:[C_D_U_GROUPID_CITY_COEC<0.0671872] yes=111,no=112,missing=111
						111:leaf=0.0170554
						112:leaf=0.031178
					56:[D_PUBLISHER_C<6956.23] yes=113,no=114,missing=114
						113:leaf=0.0258163
						114:leaf=0.0414707
				28:[TIME_OF_DAY<16] yes=57,no=58,missing=58
					57:[C_D_U_CATEGORY_CITY_MICRO_MAX_COEC<0.0601559] yes=115,no=116,missing=116
						115:leaf=0.0419918
						116:leaf=0.0547364
					58:[C_D_U_PUBLISHER_CITY_COEC<0.082834] yes=117,no=118,missing=117
						117:leaf=0.0334148
						118:leaf=0.0531884
			14:[D_CATEGORY_MACRO_MAX_COEC<0.12501] yes=29,no=30,missing=29
				29:[C_D_U_TITLEMD5_AGE_COEC<0.10006] yes=59,no=60,missing=60
					59:[D_KEYWORD_MEAN_C<158.555] yes=119,no=120,missing=120
						119:leaf=0.018236
						120:leaf=-0.0203909
					60:[D_PUBLISHER_COEC<0.0348666] yes=121,no=122,missing=122
						121:leaf=0.00515878
						122:leaf=0.0581688
				30:[C_D_U_CONID_GENDER_COEC<0.13088] yes=61,no=62,missing=62
					61:[D_KEYWORD_MEAN_EC<3331.98] yes=123,no=124,missing=124
						123:leaf=0.0427279
						124:leaf=0.068753
					62:[D_KEYWORD_MAX_C<86.2807] yes=125,no=126,missing=126
						125:leaf=0.0740782
						126:leaf=0.0891191
booster[5]:
0:[D_CONID_COEC<0.040571] yes=1,no=2,missing=1
	1:[D_TITLEMD5_COEC<0.0221386] yes=3,no=4,missing=3
		3:[C_D_U_CATEGORY_CITY_MACRO_MEAN_COEC<0.0380142] yes=7,no=8,missing=8
			7:[D_GROUPID_COEC<0.0121684] yes=15,no=16,missing=15
				15:[D_KEYWORD_MACRO_MEAN_COEC<0.029635] yes=31,no=32,missing=32
					31:[IMAGE_COUNT<0.999999] yes=63,no=64,missing=64
						63:leaf=-0.117558
						64:leaf=-0.10311
					32:[D_PUBLISHER_C<4598.03] yes=65,no=66,missing=65
						65:leaf=-0.094275
						66:leaf=-0.0549136
				16:[C_D_U_CONID_CITY_COEC<0.186913] yes=33,no=34,missing=34
					33:[C_D_U_PUBLISHER_CITY_EC<0.678849] yes=67,no=68,missing=68
						67:leaf=0.120993
						68:leaf=-0.0677822
					34:[D_KEYWORD_MACRO_MEAN_COEC<0.029635] yes=69,no=70,missing=70
						69:leaf=-0.0938465
						70:leaf=-0.0683082
			8:[C_D_U_CATEGORY_CITY_MACRO_MEAN_COEC<0.126918] yes=17,no=18,missing=17
				17:[D_KEYWORD_MACRO_MEAN_COEC<0.015965] yes=35,no=36,missing=36
					35:[IMAGE_COUNT<0.999999] yes=71,no=72,missing=72
						71:leaf=-0.118475
						72:leaf=-0.0867682
					36:[IMAGE_COUNT<0.999999] yes=73,no=74,missing=74
						73:leaf=-0.0825906
						74:leaf=-0.0543655
				18:[C_D_U_PUBLISHER_CITY_C<2.34887] yes=37,no=38,missing=37
					37:[D_KEYWORD_MACRO_MEAN_COEC<0.015965] yes=75,no=76,missing=76
						75:leaf=-0.0876019
						76:leaf=-0.0288447
					38:[C_D_U_PUBLISHER_CITY_C<9.11396] yes=77,no=78,missing=78
						77:leaf=0.0131366
						78:leaf=0.0812383
		4:[D_GROUPID_COEC<0.0312473] yes=9,no=10,missing=10
			9:[C_D_U_CATEGORY_CITY_MICRO_MEAN_COEC<0.0495771] yes=19,no=20,missing=20
				19:[C_D_U_CONID_AGE_C<9.9551] yes=39,no=40,missing=39
					39:[C_D_U_PUBLISHER_CITY_COEC<0.024237] yes=79,no=80,missing=79
						79:leaf=-0.0657098
						80:leaf=-0.0481984
					40:[C_D_U_PUBLISHER_CITY_COEC<0.0280329] yes=81,no=82,missing=81
						81:leaf=-0.0468117
						82:leaf=-0.0311076
				20:[C_D_U_PUBLISHER_CITY_COEC<0.110447] yes=41,no=42,missing=41
					41:[C_D_U_TITLEMD5_AGE_COEC<0.027973] yes=83,no=84,missing=83
						83:leaf=-0.037858
						84:leaf=-0.0206402
					42:[C_D_U_PUBLISHER_CITY_C<0.999999] yes=85,no=86,missing=86
						85:leaf=-0.0278804
						86:leaf=0.0166735
			10:[C_D_U_CATEGORY_CITY_MACRO_MEAN_COEC<0.0396238] yes=21,no=22,missing=22
				21:[C_D_U_CONID_AGE_C<37.9735] yes=43,no=44,missing=43
					43:[C_D_U_PUBLISHER_CITY_C<0.901175] yes=87,no=88,missing=87
						87:leaf=-0.0446324
						88:leaf=-0.028858
					44:[C_D_U_TITLEMD5_CITY_COEC<0.224967] yes=89,no=90,missing=90
						89:leaf=-0.0133639
						90:leaf=-0.0282519
				22:[C_D_U_CATEGORY_AGE_MACRO_MEAN_COEC<0.0597269] yes=45,no=46,missing=46
					45:[C_D_U_CATEGORY_CITY_MACRO_MEAN_COEC<0.0673848] yes=91,no=92,missing=91
						91:leaf=-0.00882653
						92:leaf=0.00723446
					46:[C_D_U_PUBLISHER_CITY_COEC<0.0221295] yes=93,no=94,missing=94
						93:leaf=-0.0367554
						94:leaf=-0.0166433
	2:[D_CONID_COEC<0.0594375] yes=5,no=6,missing=6
		5:[C_D_U_GROUPID_AGE_COEC<0.0491956] yes=11,no=12,missing=11
			11:[C_D_U_PUBLISHER_CITY_COEC<0.0377569] yes=23,no=24,missing=24
				23:[D_KEYWORD_MEAN_EC<1642.23] yes=47,no=48,missing=48
					47:[C_D_U_CONID_AGE_EC<148.212] yes=95,no=96,missing=95
						95:leaf=-0.0381587
						96:leaf=-0.0105417
					48:[TIME_OF_DAY<20] yes=97,no=98,missing=98
						97:leaf=-0.00840388
						98:leaf=-0.0251582
				24:[TIME_OF_DAY<16] yes=49,no=50,missing=50
					49:[D_GROUPID_COEC<0.0456165] yes=99,no=100,missing=100
						99:leaf=-0.00132681
						100:leaf=0.00913379
					50:[C_D_U_CATEGORY_CITY_MACRO_MEAN_COEC<0.044479] yes=101,no=102,missing=102
						101:leaf=-0.0161464
						102:leaf=-0.00294554
			12:[C_D_U_PUBLISHER_CITY_COEC<0.0478829] yes=25,no=26,missing=25
				25:[C_D_U_CONID_AGE_C<14.9005] yes=51,no=52,missing=51
					51:[C_D_U_CATEGORY_CITY_MACRO_MEAN_COEC<0.0321528] yes=103,no=104,missing=104
						103:leaf=-0.0476176
						104:leaf=-0.0144237
					52:[TIME_OF_DAY<13] yes=105,no=106,missing=106
						105:leaf=0.0136903
						106:leaf=0.0030129
				26:[TIME_OF_DAY<13] yes=53,no=54,missing=54
					53:[WORD_COUNT<3441] yes=107,no=108,missing=108
						107:leaf=0.0229205
						108:leaf=0.036181
					54:[C_D_U_PUBLISHER_CITY_COEC<0.119686] yes=109,no=110,missing=110
						109:leaf=0.0100212
						110:leaf=0.0341939
		6:[D_GROUPID_COEC<0.0831852] yes=13,no=14,missing=14
			13:[C_D_U_CONID_AGE_C<40.6136] yes=27,no=28,missing=27
				27:[C_D_U_PUBLISHER_CITY_COEC<0.0462097] yes=55,no=56,missing=56
					55:[D_KEYWORD_MEAN_C<63.4771] yes=111,no=112,missing=112
						111:leaf=-0.0298433
						112:leaf=0.00479291
					56:[D_KEYWORD_MICRO_MEAN_COEC<0.0448011] yes=113,no=114,missing=114
						113:leaf=-0.00729339
						114:leaf=0.0232596
				28:[TIME_OF_DAY<21] yes=57,no=58,missing=58
					57:[C_D_U_CONID_GENDER_COEC<0.0736275] yes=115,no=116,missing=116
						115:leaf=0.0224173
						116:leaf=0.036263
					58:[C_D_U_CATEGORY_CITY_MACRO_MAX_COEC<0.0664437] yes=117,no=118,missing=117
						117:leaf=0.00954823
						118:leaf=0.0313078
			14:[D_KEYWORD_MICRO_MEAN_COEC<0.0959105] yes=29,no=30,missing=30
				29:[D_PUBLISHER_COEC<0.0410711] yes=59,no=60,missing=60
					59:[C_D_U_CONID_AGE_C<9.9551] yes=119,no=120,missing=119
						119:leaf=0.00525015
						120:leaf=0.0487911
					60:[C_D_U_CONID_AGE_COEC<0.0990242] yes=121,no=122,missing=121
						121:leaf=0.0402512
						122:leaf=0.0534427
				30:[D_PUBLISHER_COEC<0.067472] yes=61,no=62,missing=62
					61:[D_KEYWORD_MEAN_EC<914.038] yes=123,no=124,missing=124
						123:leaf=-0.0825164
						124:leaf=0.0401733
					62:[D_CATEGORY_MICRO_MEAN_COEC<0.0572638] yes=125,no=126,missing=125
						125:leaf=0.0540244
						126:leaf=0.0686319
booster[6]:
0:[D_CONID_COEC<0.0464819] yes=1,no=2,missing=1
	1:[D_CONID_COEC<0.0265187] yes=3,no=4,missing=3
		3:[D_KEYWORD_MACRO_MEAN_COEC<0.0211451] yes=7,no=8,missing=8
			7:[C_D_U_CATEGORY_CITY_MICRO_MEAN_COEC<0.0317808] yes=15,no=16,missing=16
				15:[C_D_U_CONID_CITY_C<1.18482] yes=31,no=32,missing=32
					31:[C_D_U_PUBLISHER_CITY_EC<0.707607] yes=63,no=64,missing=64
						63:leaf=0.125918
						64:leaf=-0.0797354
					32:[C_D_U_PUBLISHER_CITY_COEC<0.0907712] yes=65,no=66,missing=65
						65:leaf=-0.103951
						66:leaf=-0.0666674
				16:[C_D_U_CATEGORY_CITY_MICRO_MEAN_COEC<0.107421] yes=33,no=34,missing=33
					33:[IMAGE_COUNT<0.999999] yes=67,no=68,missing=68
						67:leaf=-0.0976941
						68:leaf=-0.069894
					34:[C_D_U_PUBLISHER_CITY_C<2.48331] yes=69,no=70,missing=69
						69:leaf=-0.0480384
						70:leaf=0.0040853
			8:[C_D_U_CATEGORY_CITY_MICRO_MEAN_COEC<0.0638944] yes=17,no=18,missing=18
				17:[D_GROUPID_COEC<0.022025] yes=35,no=36,missing=36
					35:[C_D_U_CATEGORY_CITY_MACRO_MAX_COEC<0.0253556] yes=71,no=72,missing=72
						71:leaf=-0.0820289
						72:leaf=-0.0629003
					36:[IMAGE_COUNT<0.999999] yes=73,no=74,missing=74
						73:leaf=-0.076593
						74:leaf=-0.0444099
				18:[C_D_U_PUBLISHER_CITY_COEC<0.0623801] yes=37,no=38,missing=37
					37:[U_GENDER<2] yes=75,no=76,missing=75
						75:leaf=-0.0450714
						76:leaf=-0.0171368
					38:[C_D_U_PUBLISHER_CITY_C<1.96338] yes=77,no=78,missing=78
						77:leaf=-0.0251618
						78:leaf=0.011628
		4:[D_GROUPID_COEC<0.0351729] yes=9,no=10,missing=10
			9:[C_D_U_CATEGORY_CITY_MACRO_MEAN_COEC<0.039042] yes=19,no=20,missing=20
				19:[C_D_U_CONID_AGE_C<6.94545] yes=39,no=40,missing=39
					39:[C_D_U_TITLEMD5_CITY_COEC<0.332758] yes=79,no=80,missing=80
						79:leaf=-0.0386072
						80:leaf=-0.0573871
					40:[C_D_U_PUBLISHER_CITY_COEC<0.0256487] yes=81,no=82,missing=81
						81:leaf=-0.0387793
						82:leaf=-0.0244121
				20:[C_D_U_CATEGORY_CITY_MICRO_MEAN_COEC<0.107421] yes=41,no=42,missing=41
					41:[C_D_U_CONID_AGE_C<6.94545] yes=83,no=84,missing=83
						83:leaf=-0.0283151
						84:leaf=-0.016048
					42:[C_D_U_CONID_CITY_C<0.587822] yes=85,no=86,missing=85
						85:leaf=0.00793624
						86:leaf=-0.0478877
			10:[C_D_U_CONID_AGE_C<4.98] yes=21,no=22,missing=21
				21:[C_D_U_CATEGORY_CITY_MICRO_MEAN_COEC<0.0397501] yes=43,no=44,missing=44
					43:[D_KEYWORD_MEAN_EC<1608.27] yes=87,no=88,missing=88
						87:leaf=-0.0394177
						88:leaf=-0.0214178
					44:[TIME_OF_DAY<23] yes=89,no=90,missing=90
						89:leaf=-0.0103331
						90:leaf=-0.035262
				22:[C_D_U_CATEGORY_CITY_MACRO_MEAN_COEC<0.0466018] yes=45,no=46,missing=46
					45:[D_CATEGORY_MICRO_MAX_COEC<0.0456031] yes=91,no=92,missing=92
						91:leaf=-0.00467359
						92:leaf=-0.0193269
					46:[WORD_COUNT<1457] yes=93,no=94,missing=94
						93:leaf=-0.00664305
						94:leaf=0.0068246
	2:[D_GROUPID_COEC<0.0789254] yes=5,no=6,missing=6
		5:[D_TITLEMD5_COEC<0.0576048] yes=11,no=12,missing=12
			11:[C_D_U_CONID_AGE_EC<401.454] yes=23,no=24,missing=23
				23:[D_KEYWORD_MACRO_MEAN_COEC<0.0358043] yes=47,no=48,missing=48
					47:[D_KEYWORD_MEAN_C<38.5106] yes=95,no=96,missing=96
						95:leaf=-0.054841
						96:leaf=-0.0204012
					48:[C_D_U_CATEGORY_CITY_MACRO_MAX_COEC<0.0262738] yes=97,no=98,missing=98
						97:leaf=-0.0146663
						98:leaf=0.0033816
				24:[C_D_U_CATEGORY_CITY_MICRO_MEAN_COEC<0.0840951] yes=49,no=50,missing=49
					49:[TIME_OF_DAY<14] yes=99,no=100,missing=100
						99:leaf=0.0147819
						100:leaf=0.00316431
					50:[C_D_U_GROUPID_CITY_COEC<0.0955267] yes=101,no=102,missing=101
						101:leaf=0.0381568
						102:leaf=0.0114487
			12:[C_D_U_CATEGORY_CITY_MACRO_MEAN_COEC<0.0505999] yes=25,no=26,missing=26
				25:[C_D_U_CONID_AGE_C<57.9889] yes=51,no=52,missing=51
					51:[C_D_U_GROUPID_CITY_COEC<0.248062] yes=103,no=104,missing=104
						103:leaf=0.00702951
						104:leaf=-0.016622
					52:[TIME_OF_DAY<20] yes=105,no=106,missing=106
						105:leaf=0.0227141
						106:leaf=0.0069426
				26:[TIME_OF_DAY<19] yes=53,no=54,missing=54
					53:[D_KEYWORD_MEAN_EC<4857.32] yes=107,no=108,missing=108
						107:leaf=0.0204465
						108:leaf=0.0336678
					54:[D_CATEGORY_MACRO_MAX_COEC<0.0335365] yes=109,no=110,missing=109
						109:leaf=-0.00153003
						110:leaf=0.0169749
		6:[D_TITLEMD5_COEC<0.110528] yes=13,no=14,missing=14
			13:[D_KEYWORD_MEAN_C<42.885] yes=27,no=28,missing=28
				27:[D_PUBLISHER_C<22322.2] yes=55,no=56,missing=56
					55:[C_D_U_CATEGORY_CITY_MACRO_MAX_COEC<0.0141945] yes=111,no=112,missing=112
						111:leaf=-0.0692414
						112:leaf=-0.0248122
					56:[D_PUBLISHER_EC<605809] yes=113,no=114,missing=114
						113:leaf=0.0311796
						114:leaf=-0.0232218
				28:[C_D_U_CONID_AGE_C<41.9771] yes=57,no=58,missing=57
					57:[C_D_U_PUBLISHER_CITY_COEC<0.0449036] yes=115,no=116,missing=116
						115:leaf=0.0145246
						116:leaf=0.0346024
					58:[C_D_U_CONID_GENDER_COEC<0.0951701] yes=117,no=118,missing=118
						117:leaf=0.028917
						118:leaf=0.0473115
			14:[D_PUBLISHER_COEC<0.0493736] yes=29,no=30,missing=30
				29:[D_CATEGORY_MACRO_MAX_COEC<0.0567178] yes=59,no=60,missing=59
					59:[D_CATEGORY_MACRO_MEAN_COEC<0.0257685] yes=119,no=120,missing=119
						119:leaf=-0.0269275
						120:leaf=0.0261197
					60:[D_KEYWORD_MAX_EC<372.552] yes=121,no=122,missing=122
						121:leaf=-0.0722249
						122:leaf=0.0673995
				30:[C_D_U_PUBLISHER_CITY_COEC<0.0638636] yes=61,no=62,missing=62
					61:[D_KEYWORD_MEAN_C<42.885] yes=123,no=124,missing=124
						123:leaf=0.00186009
						124:leaf=0.0499567
					62:[D_CATEGORY_MACRO_MAX_COEC<0.125231] yes=125,no=126,missing=125
						125:leaf=0.0568945
						126:leaf=0.0689687
booster[7]:
0:[D_TITLEMD5_COEC<0.0400499] yes=1,no=2,missing=1
	1:[D_GROUPID_COEC<0.0199154] yes=3,no=4,missing=3
		3:[C_D_U_CATEGORY_CITY_MACRO_MEAN_COEC<0.0430629] yes=7,no=8,missing=8
			7:[D_GROUPID_COEC<0.0133734] yes=15,no=16,missing=15
				15:[D_PUBLISHER_COEC<0.0326034] yes=31,no=32,missing=32
					31:[D_CATEGORY_MACRO_MAX_COEC<0.0965434] yes=63,no=64,missing=64
						63:leaf=-0.0964658
						64:leaf=0.151814
					32:[IMAGE_COUNT<0.999999] yes=65,no=66,missing=66
						65:leaf=-0.101143
						66:leaf=-0.0714913
				16:[C_D_U_PUBLISHER_CITY_COEC<0.0193368] yes=33,no=34,missing=33
					33:[D_KEYWORD_MACRO_MEAN_COEC<0.0211772] yes=67,no=68,missing=68
						67:leaf=-0.0964033
						68:leaf=-0.071339
					34:[C_D_U_CONID_AGE_C<40.8901] yes=69,no=70,missing=69
						69:leaf=-0.0585273
						70:leaf=0.109487
			8:[C_D_U_PUBLISHER_CITY_COEC<0.0504076] yes=17,no=18,missing=17
				17:[D_KEYWORD_MACRO_MEAN_COEC<0.0162283] yes=35,no=36,missing=36
					35:[D_PUBLISHER_COEC<0.0195997] yes=71,no=72,missing=72
						71:leaf=-0.102747
						72:leaf=-0.0750636
					36:[D_CATEGORY_MACRO_MAX_COEC<0.0189095] yes=73,no=74,missing=73
						73:leaf=-0.0779983
						74:leaf=-0.0502136
				18:[C_D_U_CATEGORY_CITY_MACRO_MEAN_COEC<0.0833583] yes=37,no=38,missing=37
					37:[C_D_U_GROUPID_GENDER_COEC<0.0545476] yes=75,no=76,missing=75
						75:leaf=-0.0469524
						76:leaf=0.0560562
					38:[C_D_U_PUBLISHER_CITY_C<0.92934] yes=77,no=78,missing=78
						77:leaf=-0.0583979
						78:leaf=0.00138629
		4:[D_GROUPID_COEC<0.0312139] yes=9,no=10,missing=10
			9:[C_D_U_CATEGORY_CITY_MACRO_MAX_COEC<0.0262695] yes=19,no=20,missing=20
				19:[C_D_U_CONID_AGE_C<3.995] yes=39,no=40,missing=39
					39:[D_KEYWORD_MACRO_MEAN_COEC<0.0245514] yes=79,no=80,missing=80
						79:leaf=-0.0761948
						80:leaf=-0.0510046
					40:[D_CATEGORY_MICRO_MAX_COEC<0.0282517] yes=81,no=82,missing=82
						81:leaf=-0.025716
						82:leaf=-0.0432944
				20:[C_D_U_CATEGORY_CITY_MICRO_MEAN_COEC<0.120306] yes=41,no=42,missing=41
					41:[C_D_U_TITLEMD5_AGE_COEC<0.0274648] yes=83,no=84,missing=83
						83:leaf=-0.0339062
						84:leaf=-0.020474
					42:[C_D_U_PUBLISHER_CITY_C<2.92192] yes=85,no=86,missing=85
						85:leaf=-0.0104521
						86:leaf=0.0288899
			10:[C_D_U_CATEGORY_CITY_MICRO_MAX_COEC<0.0539671] yes=21,no=22,missing=22
				21:[C_D_U_TITLEMD5_CITY_COEC<0.279989] yes=43,no=44,missing=44
					43:[D_CATEGORY_MICRO_MAX_COEC<0.0439352] yes=87,no=88,missing=88
						87:leaf=-0.0117884
						88:leaf=-0.0252192
					44:[C_D_U_GROUPID_GENDER_COEC<0.0338719] yes=89,no=90,missing=89
						89:leaf=-0.0367225
						90:leaf=-0.0182217
				22:[C_D_U_CATEGORY_AGE_MICRO_MEAN_COEC<0.0597554] yes=45,no=46,missing=46
					45:[C_D_U_CATEGORY_CITY_MICRO_MEAN_COEC<0.14708] yes=91,no=92,missing=91
						91:leaf=-0.00360382
						92:leaf=0.0219098
					46:[TIME_OF_DAY<12] yes=93,no=94,missing=94
						93:leaf=-0.00836276
						94:leaf=-0.0202411
	2:[D_CONID_COEC<0.0581972] yes=5,no=6,missing=6
		5:[C_D_U_GROUPID_AGE_COEC<0.0516741] yes=11,no=12,missing=11
			11:[C_D_U_CATEGORY_CITY_MICRO_MEAN_COEC<0.0492455] yes=23,no=24,missing=24
				23:[C_D_U_PUBLISHER_CITY_COEC<0.0372415] yes=47,no=48,missing=47
					47:[C_D_U_CONID_CITY_COEC<0.200263] yes=95,no=96,missing=96
						95:leaf=-0.0109369
						96:leaf=-0.0246784
					48:[TIME_OF_DAY<20] yes=97,no=98,missing=98
						97:leaf=-0.000328805
						98:leaf=-0.015932
				24:[TIME_OF_DAY<20] yes=49,no=50,missing=50
					49:[C_D_U_GROUPID_GENDER_COEC<0.0482582] yes=99,no=100,missing=99
						99:leaf=0.00372172
						100:leaf=0.020076
					50:[C_D_U_GROUPID_GENDER_COEC<0.049431] yes=101,no=102,missing=101
						101:leaf=-0.0112102
						102:leaf=0.0135329
			12:[C_D_U_PUBLISHER_CITY_COEC<0.04689] yes=25,no=26,missing=25
				25:[C_D_U_CATEGORY_CITY_MACRO_MAX_COEC<0.0239703] yes=51,no=52,missing=52
					51:[C_D_U_CONID_AGE_C<13.872] yes=103,no=104,missing=103
						103:leaf=-0.0416374
						104:leaf=-0.00296794
					52:[C_D_U_GROUPID_GENDER_COEC<0.0503269] yes=105,no=106,missing=106
						105:leaf=-0.00602004
						106:leaf=0.0108157
				26:[TIME_OF_DAY<18] yes=53,no=54,missing=54
					53:[C_D_U_TITLEMD5_GENDER_COEC<0.0506858] yes=107,no=108,missing=108
						107:leaf=0.00231567
						108:leaf=0.0220331
					54:[C_D_U_PUBLISHER_CITY_COEC<0.078848] yes=109,no=110,missing=110
						109:leaf=0.00281235
						110:leaf=0.0186877
		6:[D_KEYWORD_MICRO_MEAN_COEC<0.0746632] yes=13,no=14,missing=14
			13:[D_KEYWORD_MACRO_MEAN_COEC<0.0407848] yes=27,no=28,missing=28
				27:[D_KEYWORD_MEAN_EC<1306.38] yes=55,no=56,missing=56
					55:[D_PUBLISHER_EC<215531] yes=111,no=112,missing=112
						111:leaf=-0.0467728
						112:leaf=-0.00690257
					56:[C_D_U_CATEGORY_CITY_MACRO_MEAN_COEC<0.0468889] yes=113,no=114,missing=114
						113:leaf=-0.00987016
						114:leaf=0.0121871
				28:[TIME_OF_DAY<19] yes=57,no=58,missing=58
					57:[C_D_U_CATEGORY_CITY_MACRO_MEAN_COEC<0.0517567] yes=115,no=116,missing=116
						115:leaf=0.0178844
						116:leaf=0.0283344
					58:[D_CONID_COEC<0.0770171] yes=117,no=118,missing=117
						117:leaf=0.00743051
						118:leaf=0.0242008
			14:[D_CONID_COEC<0.120996] yes=29,no=30,missing=29
				29:[C_D_U_CONID_AGE_C<1323.9] yes=59,no=60,missing=59
					59:[WORD_COUNT<2646] yes=119,no=120,missing=120
						119:leaf=0.029968
						120:leaf=0.0438219
					60:[C_D_U_PUBLISHER_GENDER_EC<119483] yes=121,no=122,missing=121
						121:leaf=0.0493836
						122:leaf=0.0129817
				30:[D_PUBLISHER_COEC<0.0671652] yes=61,no=62,missing=62
					61:[D_KEYWORD_MEAN_C<101.105] yes=123,no=124,missing=124
						123:leaf=-0.0899425
						124:leaf=0.0012437
					62:[D_PUBLISHER_C<5391.34] yes=125,no=126,missing=126
						125:leaf=0.0457132
						126:leaf=0.0601527
booster[8]:
0:[D_CONID_COEC<0.0404565] yes=1,no=2,missing=1
	1:[D_GROUPID_COEC<0.0186471] yes=3,no=4,missing=3
		3:[C_D_U_CATEGORY_CITY_MACRO_MEAN_COEC<0.0278255] yes=7,no=8,missing=8
			7:[D_KEYWORD_MACRO_MEAN_COEC<0.0213943] yes=15,no=16,missing=16
				15:[C_D_U_PUBLISHER_CITY_COEC<0.110467] yes=31,no=32,missing=31
					31:[D_CATEGORY_MACRO_MAX_COEC<0.0188088] yes=63,no=64,missing=64
						63:leaf=-0.101452
						64:leaf=-0.0884453
					32:[WORD_COUNT<3648] yes=65,no=66,missing=66
						65:leaf=-0.0727542
						66:leaf=0.00536375
				16:[IMAGE_COUNT<0.999999] yes=33,no=34,missing=34
					33:[C_D_U_CATEGORY_CITY_MICRO_MEAN_COEC<0.0410131] yes=67,no=68,missing=68
						67:leaf=-0.0977934
						68:leaf=-0.00388308
					34:[D_KEYWORD_MICRO_MAX_COEC<0.0436861] yes=69,no=70,missing=70
						69:leaf=-0.0424111
						70:leaf=-0.0728052
			8:[C_D_U_CATEGORY_CITY_MACRO_MEAN_COEC<0.19134] yes=17,no=18,missing=17
				17:[D_PUBLISHER_COEC<0.0197154] yes=35,no=36,missing=36
					35:[WORD_COUNT<1756] yes=71,no=72,missing=72
						71:leaf=-0.0960619
						72:leaf=-0.0752842
					36:[D_KEYWORD_MACRO_MEAN_COEC<0.0238248] yes=73,no=74,missing=74
						73:leaf=-0.0617204
						74:leaf=-0.0406326
				18:[C_D_U_PUBLISHER_CITY_C<6.21235] yes=37,no=38,missing=37
					37:[D_TITLEMD5_COEC<0.053984] yes=75,no=76,missing=76
						75:leaf=-0.0227739
						76:leaf=0.0589359
					38:[C_D_U_CATEGORY_AGE_MACRO_MEAN_COEC<0.0222394] yes=77,no=78,missing=77
						77:leaf=-0.02683
						78:leaf=0.12448
		4:[D_GROUPID_COEC<0.0307814] yes=9,no=10,missing=10
			9:[C_D_U_CATEGORY_CITY_MICRO_MEAN_COEC<0.0600604] yes=19,no=20,missing=20
				19:[C_D_U_CONID_CITY_COEC<3.50251] yes=39,no=40,missing=40
					39:[D_CATEGORY_MICRO_MAX_COEC<0.0437803] yes=79,no=80,missing=80
						79:leaf=-0.0250447
						80:leaf=-0.0387533
					40:[C_D_U_PUBLISHER_CITY_COEC<0.0356429] yes=81,no=82,missing=81
						81:leaf=-0.0541587
						82:leaf=-0.0370349
				20:[C_D_U_PUBLISHER_CITY_COEC<0.130998] yes=41,no=42,missing=41
					41:[U_GENDER<2] yes=83,no=84,missing=83
						83:leaf=-0.0272748
						84:leaf=-0.00704494
					42:[C_D_U_PUBLISHER_CITY_C<2.37464] yes=85,no=86,missing=86
						85:leaf=-0.00371564
						86:leaf=0.0420713
			10:[C_D_U_PUBLISHER_CITY_COEC<0.0932449] yes=21,no=22,missing=21
				21:[C_D_U_CATEGORY_CITY_MACRO_MEAN_COEC<0.0278255] yes=43,no=44,missing=44
					43:[C_D_U_CONID_AGE_C<13.99] yes=87,no=88,missing=87
						87:leaf=-0.0343898
						88:leaf=-0.0187342
					44:[TIME_OF_DAY<14] yes=89,no=90,missing=90
						89:leaf=-0.00672081
						90:leaf=-0.0182757
				22:[C_D_U_PUBLISHER_CITY_C<0.999999] yes=45,no=46,missing=46
					45:[C_D_U_GROUPID_CITY_COEC<0.112714] yes=91,no=92,missing=91
						91:leaf=-0.0101058
						92:leaf=-0.0458213
					46:[C_D_U_PUBLISHER_CITY_COEC<0.214494] yes=93,no=94,missing=94
						93:leaf=0.0104341
						94:leaf=0.0458693
	2:[D_KEYWORD_MACRO_MEAN_COEC<0.0571892] yes=5,no=6,missing=6
		5:[D_CONID_COEC<0.0523324] yes=11,no=12,missing=12
			11:[C_D_U_CONID_AGE_C<30.9403] yes=23,no=24,missing=23
				23:[C_D_U_CATEGORY_CITY_MACRO_MEAN_COEC<0.0433508] yes=47,no=48,missing=48
					47:[C_D_U_TITLEMD5_CITY_COEC<0.184187] yes=95,no=96,missing=96
						95:leaf=-0.0104801
						96:leaf=-0.0273414
					48:[WORD_COUNT<1409] yes=97,no=98,missing=98
						97:leaf=-0.0116016
						98:leaf=0.000285315
				24:[C_D_U_PUBLISHER_CITY_COEC<0.0524405] yes=49,no=50,missing=49
					49:[C_D_U_CATEGORY_CITY_MICRO_MEAN_COEC<0.026014] yes=99,no=100,missing=100
						99:leaf=-0.00711431
						100:leaf=0.00443563
					50:[C_D_U_PUBLISHER_CITY_COEC<0.130998] yes=101,no=102,missing=102
						101:leaf=0.0107192
						102:leaf=0.028679
			12:[D_KEYWORD_MACRO_MEAN_COEC<0.0369732] yes=25,no=26,missing=26
				25:[D_CONID_COEC<0.0814589] yes=51,no=52,missing=52
					51:[C_D_U_CONID_AGE_C<4.91436] yes=103,no=104,missing=103
						103:leaf=-0.0353327
						104:leaf=-0.00206328
					52:[C_D_U_CATEGORY_CITY_MACRO_MAX_COEC<0.0450144] yes=105,no=106,missing=105
						105:leaf=-0.00851887
						106:leaf=0.0334682
				26:[C_D_U_PUBLISHER_CITY_COEC<0.0449606] yes=53,no=54,missing=54
					53:[C_D_U_CONID_AGE_C<12.0482] yes=107,no=108,missing=107
						107:leaf=-0.00148428
						108:leaf=0.0120353
					54:[C_D_U_CONID_AGE_C<9.6106] yes=109,no=110,missing=109
						109:leaf=0.0123917
						110:leaf=0.021662
		6:[D_CONID_COEC<0.0878302] yes=13,no=14,missing=14
			13:[C_D_U_PUBLISHER_AGE_EC<61938] yes=27,no=28,missing=27
				27:[C_D_U_CONID_CITY_COEC<0.0739302] yes=55,no=56,missing=56
					55:[C_D_U_CATEGORY_AGE_MICRO_MAX_COEC<0.0534098] yes=111,no=112,missing=112
						111:leaf=-0.0583036
						112:leaf=0.0129505
					56:[D_PUBLISHER_C<24820.2] yes=113,no=114,missing=114
						113:leaf=0.0189055
						114:leaf=0.0295719
				28:[C_D_U_TITLEMD5_GENDER_COEC<0.0942987] yes=57,no=58,missing=57
					57:[D_PUBLISHER_COEC<0.0433081] yes=115,no=116,missing=116
						115:leaf=-0.131295
						116:leaf=0.0295107
					58:[C_D_U_PUBLISHER_AGE_C<15503] yes=117,no=118,missing=118
						117:leaf=0.0379119
						118:leaf=0.0580238
			14:[D_CATEGORY_MACRO_MAX_COEC<0.124618] yes=29,no=30,missing=29
				29:[C_D_U_CONID_AGE_COEC<0.0999468] yes=59,no=60,missing=59
					59:[C_D_U_CATEGORY_AGE_MACRO_MEAN_COEC<0.0581122] yes=119,no=120,missing=120
						119:leaf=-0.0180964
						120:leaf=0.0343429
					60:[C_D_U_TITLEMD5_GENDER_COEC<0.107771] yes=121,no=122,missing=122
						121:leaf=0.0296363
						122:leaf=0.0467505
				30:[C_D_U_PUBLISHER_GENDER_EC<67483.2] yes=61,no=62,missing=61
					61:[D_KEYWORD_MAX_EC<688.911] yes=123,no=124,missing=124
						123:leaf=0.0517302
						124:leaf=0.0676921
					62:[C_D_U_PUBLISHER_AGE_EC<271319] yes=125,no=126,missing=126
						125:leaf=-0.0359053
						126:leaf=0.0368337
booster[9]:
0:[D_CONID_COEC<0.0380189] yes=1,no=2,missing=1
	1:[D_GROUPID_COEC<0.0203276] yes=3,no=4,missing=3
		3:[C_D_U_CATEGORY_CITY_MACRO_MEAN_COEC<0.0552026] yes=7,no=8,missing=8
			7:[D_TITLEMD5_COEC<0.0139428] yes=15,no=16,missing=15
				15:[C_D_U_PUBLISHER_CITY_COEC<0.0262958] yes=31,no=32,missing=31
					31:[D_KEYWORD_MEAN_EC<830.255] yes=63,no=64,missing=64
						63:leaf=-0.091813
						64:leaf=-0.0782228
					32:[IMAGE_COUNT<0.999999] yes=65,no=66,missing=66
						65:leaf=-0.0863555
						66:leaf=-0.0624286
				16:[C_D_U_PUBLISHER_CITY_COEC<0.0401791] yes=33,no=34,missing=33
					33:[C_D_U_CONID_CITY_C<2.77097] yes=67,no=68,missing=68
						67:leaf=-0.0496064
						68:leaf=-0.0709071
					34:[C_D_U_TITLEMD5_GENDER_COEC<0.0135625] yes=69,no=70,missing=69
						69:leaf=-0.0378246
						70:leaf=-0.0675113
			8:[C_D_U_CATEGORY_AGE_MACRO_MAX_COEC<0.0196683] yes=17,no=18,missing=17
				17:[D_CATEGORY_MACRO_MAX_COEC<0.0188216] yes=35,no=36,missing=36
					35:[C_D_U_CATEGORY_GENDER_MACRO_MAX_COEC<0.0268151] yes=71,no=72,missing=71
						71:leaf=-0.0871966
						72:leaf=0.118114
					36:[IMAGE_COUNT<0.999999] yes=73,no=74,missing=74
						73:leaf=-0.0726199
						74:leaf=-0.0416172
				18:[C_D_U_CATEGORY_CITY_MICRO_MEAN_COEC<0.190404] yes=37,no=38,missing=37
					37:[D_KEYWORD_MACRO_MEAN_COEC<0.0165649] yes=75,no=76,missing=76
						75:leaf=-0.0581959
						76:leaf=-0.0239228
					38:[C_D_U_PUBLISHER_CITY_C<3.87424] yes=77,no=78,missing=77
						77:leaf=-0.0054868
						78:leaf=0.0910887
		4:[C_D_U_PUBLISHER_CITY_COEC<0.0316597] yes=9,no=10,missing=10
			9:[C_D_U_CONID_AGE_C<16.2439] yes=19,no=20,missing=19
				19:[C_D_U_GROUPID_CITY_COEC<4.36368] yes=39,no=40,missing=40
					39:[D_CATEGORY_MACRO_MAX_COEC<0.0431408] yes=79,no=80,missing=80
						79:leaf=-0.0258777
						80:leaf=-0.0410387
					40:[C_D_U_CATEGORY_CITY_MICRO_MAX_COEC<0.100403] yes=81,no=82,missing=81
						81:leaf=-0.0490673
						82:leaf=-0.0219979
				20:[C_D_U_CATEGORY_CITY_MICRO_MEAN_COEC<0.0201409] yes=41,no=42,missing=41
					41:[D_CATEGORY_MACRO_MEAN_COEC<0.0433412] yes=83,no=84,missing=83
						83:leaf=-0.0270027
						84:leaf=-0.0489836
					42:[C_D_U_GROUPID_GENDER_COEC<0.0486994] yes=85,no=86,missing=85
						85:leaf=-0.0150286
						86:leaf=0.0159211
			10:[C_D_U_GROUPID_AGE_COEC<0.028824] yes=21,no=22,missing=21
				21:[C_D_U_CATEGORY_CITY_MACRO_MEAN_COEC<0.0458932] yes=43,no=44,missing=44
					43:[IMAGE_COUNT<3] yes=87,no=88,missing=88
						87:leaf=-0.0333856
						88:leaf=-0.0166309
					44:[TIME_OF_DAY<9] yes=89,no=90,missing=90
						89:leaf=-0.0109502
						90:leaf=-0.021864
				22:[C_D_U_PUBLISHER_CITY_COEC<0.117986] yes=45,no=46,missing=45
					45:[TIME_OF_DAY<19] yes=91,no=92,missing=92
						91:leaf=-0.00782808
						92:leaf=-0.0212168
					46:[C_D_U_PUBLISHER_CITY_C<0.999999] yes=93,no=94,missing=94
						93:leaf=-0.012518
						94:leaf=0.0288348
	2:[D_CONID_COEC<0.0589989] yes=5,no=6,missing=6
		5:[C_D_U_GROUPID_AGE_COEC<0.0502149] yes=11,no=12,missing=11
			11:[TIME_OF_DAY<20] yes=23,no=24,missing=24
				23:[C_D_U_PUBLISHER_CITY_COEC<0.0386217] yes=47,no=48,missing=48
					47:[D_KEYWORD_MAX_C<31.6296] yes=95,no=96,missing=96
						95:leaf=-0.0189205
						96:leaf=-0.00575393
					48:[C_D_U_GROUPID_GENDER_COEC<0.0477021] yes=97,no=98,missing=97
						97:leaf=0.000989584
						98:leaf=0.0158288
				24:[C_D_U_CATEGORY_CITY_MACRO_MAX_COEC<0.0264753] yes=49,no=50,missing=50
					49:[C_D_U_PUBLISHER_CITY_COEC<0.0500375] yes=99,no=100,missing=99
						99:leaf=-0.0298811
						100:leaf=-0.0116061
					50:[IMAGE_COUNT<3] yes=101,no=102,missing=102
						101:leaf=-0.0142692
						102:leaf=-0.00289819
			12:[C_D_U_CONID_AGE_EC<52.8451] yes=25,no=26,missing=25
				25:[D_KEYWORD_MEAN_C<37.901] yes=51,no=52,missing=52
					51:[C_D_U_CONID_AGE_COEC<0.111952] yes=103,no=104,missing=103
						103:leaf=-0.0761727
						104:leaf=0.0153856
					52:[C_D_U_PUBLISHER_AGE_COEC<0.0528662] yes=105,no=106,missing=106
						105:leaf=-0.0333868
						106:leaf=0.0124067
				26:[C_D_U_CATEGORY_CITY_MICRO_MEAN_COEC<0.0827566] yes=53,no=54,missing=53
					53:[C_D_U_GROUPID_GENDER_COEC<0.0507574] yes=107,no=108,missing=108
						107:leaf=-0.00657211
						108:leaf=0.00889421
					54:[C_D_U_GROUPID_CITY_COEC<0.0851905] yes=109,no=110,missing=109
						109:leaf=0.0306534
						110:leaf=0.00838276
		6:[D_CONID_COEC<0.093366] yes=13,no=14,missing=14
			13:[D_KEYWORD_MEAN_C<300.255] yes=27,no=28,missing=28
				27:[C_D_U_CONID_AGE_C<17.4269] yes=55,no=56,missing=55
					55:[D_KEYWORD_MEAN_C<64.0823] yes=111,no=112,missing=112
						111:leaf=-0.019436
						112:leaf=0.00584918
					56:[C_D_U_PUBLISHER_CITY_COEC<0.0730381] yes=113,no=114,missing=113
						113:leaf=0.0132178
						114:leaf=0.0312299
				28:[TIME_OF_DAY<17] yes=57,no=58,missing=58
					57:[C_D_U_CATEGORY_CITY_MACRO_MAX_COEC<0.0393177] yes=115,no=116,missing=116
						115:leaf=0.0136453
						116:leaf=0.0279713
					58:[C_D_U_GROUPID_GENDER_COEC<0.0810849] yes=117,no=118,missing=117
						117:leaf=0.0112795
						118:leaf=0.0309846
			14:[D_PUBLISHER_COEC<0.0632121] yes=29,no=30,missing=30
				29:[D_CATEGORY_MICRO_MAX_COEC<0.0287531] yes=59,no=60,missing=59
					59:[WORD_COUNT<2205] yes=119,no=120,missing=120
						119:leaf=0.00333386
						120:leaf=-0.0322685
					60:[C_D_U_CONID_AGE_C<7.26573] yes=121,no=122,missing=121
						121:leaf=0.0251882
						122:leaf=0.039268
				30:[D_TITLEMD5_COEC<0.122743] yes=61,no=62,missing=62
					61:[DAY_OF_WEEK<4] yes=123,no=124,missing=124
						123:leaf=0.0387822
						124:leaf=0.0169884
					62:[C_D_U_CONID_GENDER_COEC<0.131712] yes=125,no=126,missing=126
						125:leaf=0.0324593
						126:leaf=0.0505629
booster[10]:
0:[D_GROUPID_COEC<0.0464924] yes=1,no=2,missing=1
	1:[D_CONID_COEC<0.023907] yes=3,no=4,missing=3
		3:[C_D_U_CATEGORY_CITY_MACRO_MEAN_COEC<0.0286066] yes=7,no=8,missing=8
			7:[D_GROUPID_COEC<0.0131367] yes=15,no=16,missing=15
				15:[IMAGE_COUNT<3] yes=31,no=32,missing=32
					31:[D_CATEGORY_MICRO_MAX_COEC<0.0573707] yes=63,no=64,missing=64
						63:leaf=-0.0831771
						64:leaf=-0.00331707
					32:[D_PUBLISHER_COEC<0.0373789] yes=65,no=66,missing=66
						65:leaf=-0.0658066
						66:leaf=-0.0155507
				16:[C_D_U_CONID_CITY_COEC<0.0557081] yes=33,no=34,missing=34
					33:[C_D_U_PUBLISHER_AGE_EC<368087] yes=67,no=68,missing=67
						67:leaf=-0.0410025
						68:leaf=0.0579725
					34:[C_D_U_CATEGORY_AGE_MICRO_MAX_COEC<0.0479137] yes=69,no=70,missing=70
						69:leaf=-0.0525384
						70:leaf=-0.0696155
			8:[D_GROUPID_COEC<0.0131367] yes=17,no=18,missing=18
				17:[C_D_U_PUBLISHER_CITY_COEC<0.0411732] yes=35,no=36,missing=35
					35:[D_PUBLISHER_COEC<0.0248071] yes=71,no=72,missing=72
						71:leaf=-0.0786867
						72:leaf=-0.0548794
					36:[C_D_U_CATEGORY_CITY_MICRO_MEAN_COEC<0.14814] yes=73,no=74,missing=73
						73:leaf=-0.0402706
						74:leaf=0.0170093
				18:[C_D_U_PUBLISHER_CITY_COEC<0.0440973] yes=37,no=38,missing=38
					37:[D_CATEGORY_MICRO_MAX_COEC<0.0457886] yes=75,no=76,missing=76
						75:leaf=-0.0334787
						76:leaf=-0.0554361
					38:[C_D_U_PUBLISHER_AGE_C<622.089] yes=77,no=78,missing=77
						77:leaf=-0.0311093
						78:leaf=-0.00704316
		4:[D_GROUPID_COEC<0.0350515] yes=9,no=10,missing=10
			9:[C_D_U_CATEGORY_CITY_MACRO_MAX_COEC<0.0307238] yes=19,no=20,missing=20
				19:[D_KEYWORD_MACRO_MEAN_COEC<0.0240762] yes=39,no=40,missing=40
					39:[D_KEYWORD_MICRO_MAX_COEC<0.0475407] yes=79,no=80,missing=80
						79:leaf=-0.0440467
						80:leaf=-0.0717902
					40:[C_D_U_CATEGORY_AGE_MACRO_MAX_COEC<0.0368725] yes=81,no=82,missing=82
						81:leaf=-0.0206202
						82:leaf=-0.0324002
				20:[C_D_U_PUBLISHER_AGE_C<423.311] yes=41,no=42,missing=41
					41:[WORD_COUNT<4258] yes=83,no=84,missing=84
						83:leaf=-0.0224537
						84:leaf=-0.00764089
					42:[C_D_U_PUBLISHER_CITY_COEC<0.0905833] yes=85,no=86,missing=85
						85:leaf=-0.0115774
						86:leaf=0.0116725
			10:[C_D_U_CONID_AGE_C<13.2849] yes=21,no=22,missing=21
				21:[D_KEYWORD_MACRO_MEAN_COEC<0.0273146] yes=43,no=44,missing=44
					43:[D_KEYWORD_MICRO_MEAN_COEC<0.0385087] yes=87,no=88,missing=88
						87:leaf=-0.0417942
						88:leaf=-0.0794139
					44:[C_D_U_PUBLISHER_CITY_C<0.999999] yes=89,no=90,missing=90
						89:leaf=-0.0212695
						90:leaf=-0.00831146
				22:[C_D_U_GROUPID_GENDER_COEC<0.0401048] yes=45,no=46,missing=46
					45:[C_D_U_CATEGORY_GENDER_MICRO_MEAN_COEC<0.0384721] yes=91,no=92,missing=91
						91:leaf=-0.0217652
						92:leaf=-0.00800779
					46:[TIME_OF_DAY<21] yes=93,no=94,missing=94
						93:leaf=0.00367074
						94:leaf=-0.0118039
	2:[D_CONID_COEC<0.0794067] yes=5,no=6,missing=5
		5:[C_D_U_CATEGORY_CITY_MICRO_MEAN_COEC<0.0489689] yes=11,no=12,missing=12
			11:[C_D_U_CONID_AGE_C<184.691] yes=23,no=24,missing=23
				23:[D_KEYWORD_MACRO_MEAN_COEC<0.0348124] yes=47,no=48,missing=48
					47:[D_KEYWORD_MACRO_MEAN_COEC<0.0264279] yes=95,no=96,missing=96
						95:leaf=-0.0790143
						96:leaf=-0.0294016
					48:[C_D_U_PUBLISHER_CITY_C<1.98007] yes=97,no=98,missing=97
						97:leaf=-0.0105149
						98:leaf=0.000872659
				24:[C_D_U_GROUPID_GENDER_COEC<0.0554928] yes=49,no=50,missing=50
					49:[C_D_U_CONID_GENDER_COEC<0.0435336] yes=99,no=100,missing=100
						99:leaf=-0.0236846
						100:leaf=-0.00290333
					50:[TIME_OF_DAY<21] yes=101,no=102,missing=102
						101:leaf=0.0126795
						102:leaf=-0.00239504
			12:[C_D_U_TITLEMD5_AGE_COEC<0.0583403] yes=25,no=26,missing=25
				25:[TIME_OF_DAY<16] yes=51,no=52,missing=52
					51:[C_D_U_PUBLISHER_CITY_COEC<0.0522925] yes=103,no=104,missing=104
						103:leaf=0.00481959
						104:leaf=0.0152433
					52:[D_KEYWORD_MICRO_MEAN_COEC<0.0376386] yes=105,no=106,missing=106
						105:leaf=-0.0664725
						106:leaf=0.00345142
				26:[C_D_U_CATEGORY_CITY_MACRO_MEAN_COEC<0.0943169] yes=53,no=54,missing=53
					53:[C_D_U_CONID_AGE_C<8.9651] yes=107,no=108,missing=108
						107:leaf=-0.0158855
						108:leaf=0.017604
					54:[C_D_U_TITLEMD5_CITY_COEC<0.0423574] yes=109,no=110,missing=109
						109:leaf=0.0432423
						110:leaf=0.0159165
		6:[D_CONID_COEC<0.108725] yes=13,no=14,missing=14
			13:[D_KEYWORD_MEAN_C<73.3889] yes=27,no=28,missing=28
				27:[D_CATEGORY_MACRO_MEAN_COEC<0.0483088] yes=55,no=56,missing=56
					55:[D_PUBLISHER_C<6928.08] yes=111,no=112,missing=112
						111:leaf=-0.0414125
						112:leaf=-0.00794765
					56:[D_CATEGORY_MICRO_MAX_COEC<0.0573707] yes=113,no=114,missing=113
						113:leaf=0.0152657
						114:leaf=-0.0515642
				28:[C_D_U_CONID_GENDER_COEC<0.107846] yes=57,no=58,missing=57
					57:[C_D_U_CATEGORY_CITY_MACRO_MAX_COEC<0.0347885] yes=115,no=116,missing=116
						115:leaf=0.014167
						116:leaf=0.0268172
					58:[C_D_U_CONID_AGE_EC<581.113] yes=117,no=118,missing=118
						117:leaf=0.0089465
						118:leaf=0.0451447
			14:[D_PUBLISHER_COEC<0.0641347] yes=29,no=30,missing=30
				29:[D_KEYWORD_MEAN_C<20.2802] yes=59,no=60,missing=60
					59:[D_PUBLISHER_COEC<0.0313007] yes=119,no=120,missing=120
						119:leaf=-0.0512865
						120:leaf=0.0052283
					60:[D_CATEGORY_MACRO_MAX_COEC<0.0189218] yes=121,no=122,missing=121
						121:leaf=-0.0335059
						122:leaf=0.0322662
				30:[C_D_U_CATEGORY_CITY_MICRO_MAX_COEC<0.131221] yes=61,no=62,missing=62
					61:[C_D_U_CONID_AGE_C<2509.25] yes=123,no=124,missing=123
						123:leaf=0.0352136
						124:leaf=0.0487266
					62:[D_KEYWORD_MEAN_EC<3648.77] yes=125,no=126,missing=126
						125:leaf=0.0428173
						126:leaf=0.0556259
booster[11]:
0:[D_TITLEMD5_COEC<0.0402993] yes=1,no=2,missing=1
	1:[D_KEYWORD_MACRO_MEAN_COEC<0.0242695] yes=3,no=4,missing=4
		3:[D_GROUPID_COEC<0.0134791] yes=7,no=8,missing=7
			7:[C_D_U_CATEGORY_CITY_MICRO_MAX_COEC<0.047884] yes=15,no=16,missing=16
				15:[IMAGE_COUNT<3] yes=31,no=32,missing=32
					31:[D_CATEGORY_MACRO_MAX_COEC<0.0191187] yes=63,no=64,missing=64
						63:leaf=-0.0882843
						64:leaf=-0.0720975
					32:[C_D_U_PUBLISHER_CITY_COEC<0.0385324] yes=65,no=66,missing=65
						65:leaf=-0.0645496
						66:leaf=-0.0244958
				16:[D_CATEGORY_MACRO_MAX_COEC<0.0191187] yes=33,no=34,missing=34
					33:[C_D_U_CATEGORY_GENDER_MACRO_MAX_COEC<0.0245627] yes=67,no=68,missing=67
						67:leaf=-0.0856599
						68:leaf=0.126151
					34:[IMAGE_COUNT<0.999999] yes=69,no=70,missing=70
						69:leaf=-0.0684661
						70:leaf=-0.0389096
			8:[C_D_U_CATEGORY_CITY_MICRO_MEAN_COEC<0.0264415] yes=17,no=18,missing=18
				17:[C_D_U_CONID_AGE_C<4.93096] yes=35,no=36,missing=35
					35:[C_D_U_TITLEMD5_CITY_COEC<1.09442] yes=71,no=72,missing=72
						71:leaf=-0.046793
						72:leaf=-0.070561
					36:[WORD_COUNT<1450] yes=73,no=74,missing=74
						73:leaf=-0.0838052
						74:leaf=-0.0306673
				18:[WORD_COUNT<922] yes=37,no=38,missing=38
					37:[TIME_OF_DAY<13] yes=75,no=76,missing=76
						75:leaf=-0.0522177
						76:leaf=-0.0868638
					38:[C_D_U_CATEGORY_CITY_MICRO_MAX_COEC<0.0722733] yes=77,no=78,missing=77
						77:leaf=-0.0334435
						78:leaf=-0.0129993
		4:[D_CONID_COEC<0.0286863] yes=9,no=10,missing=10
			9:[C_D_U_CATEGORY_CITY_MICRO_MEAN_COEC<0.147733] yes=19,no=20,missing=19
				19:[C_D_U_PUBLISHER_CITY_COEC<0.028086] yes=39,no=40,missing=40
					39:[D_TITLEMD5_COEC<0.0204045] yes=79,no=80,missing=80
						79:leaf=-0.0586478
						80:leaf=-0.0346269
					40:[IMAGE_COUNT<0.999999] yes=81,no=82,missing=82
						81:leaf=-0.0388064
						82:leaf=-0.0211967
				20:[C_D_U_PUBLISHER_CITY_C<9.17122] yes=41,no=42,missing=41
					41:[C_D_U_TITLEMD5_CITY_COEC<0.116042] yes=83,no=84,missing=83
						83:leaf=0.0088668
						84:leaf=-0.071561
					42:[C_D_U_PUBLISHER_AGE_COEC<0.0613015] yes=85,no=86,missing=86
						85:leaf=0.102941
						86:leaf=-0.000991319
			10:[C_D_U_CATEGORY_CITY_MICRO_MEAN_COEC<0.0505173] yes=21,no=22,missing=22
				21:[D_CATEGORY_MICRO_MAX_COEC<0.0456648] yes=43,no=44,missing=44
					43:[C_D_U_GROUPID_GENDER_COEC<0.0389353] yes=87,no=88,missing=87
						87:leaf=-0.0141894
						88:leaf=0.00288317
					44:[IMAGE_COUNT<3] yes=89,no=90,missing=90
						89:leaf=-0.0295238
						90:leaf=-0.0150382
				22:[C_D_U_CATEGORY_AGE_MICRO_MAX_COEC<0.033044] yes=45,no=46,missing=45
					45:[C_D_U_CATEGORY_GENDER_MICRO_MAX_COEC<0.0377835] yes=91,no=92,missing=91
						91:leaf=-0.0111276
						92:leaf=0.0149783
					46:[C_D_U_CATEGORY_CITY_MACRO_MEAN_COEC<0.209781] yes=93,no=94,missing=93
						93:leaf=-0.00135622
						94:leaf=0.0299302
	2:[D_CONID_COEC<0.0719879] yes=5,no=6,missing=6
		5:[D_GROUPID_COEC<0.052439] yes=11,no=12,missing=12
			11:[C_D_U_CONID_AGE_C<34.285] yes=23,no=24,missing=23
				23:[D_KEYWORD_MACRO_MEAN_COEC<0.0322442] yes=47,no=48,missing=48
					47:[D_KEYWORD_MEAN_EC<549.122] yes=95,no=96,missing=96
						95:leaf=-0.0513902
						96:leaf=-0.0217879
					48:[C_D_U_PUBLISHER_CITY_COEC<0.0360313] yes=97,no=98,missing=98
						97:leaf=-0.0131428
						98:leaf=-0.00112804
				24:[C_D_U_GROUPID_GENDER_COEC<0.0582847] yes=49,no=50,missing=49
					49:[C_D_U_PUBLISHER_CITY_COEC<0.0486113] yes=99,no=100,missing=99
						99:leaf=-0.00109778
						100:leaf=0.00878894
					50:[C_D_U_CONID_GENDER_COEC<0.0700691] yes=101,no=102,missing=102
						101:leaf=0.0159079
						102:leaf=0.0333657
			12:[C_D_U_CONID_AGE_C<6.80007] yes=25,no=26,missing=26
				25:[C_D_U_PUBLISHER_AGE_COEC<0.0534636] yes=51,no=52,missing=52
					51:[D_CATEGORY_MICRO_MAX_COEC<0.0429662] yes=103,no=104,missing=104
						103:leaf=-0.0511516
						104:leaf=-0.0272553
					52:[WORD_COUNT<1478] yes=105,no=106,missing=106
						105:leaf=-0.0397416
						106:leaf=0.000768656
				26:[TIME_OF_DAY<20] yes=53,no=54,missing=54
					53:[C_D_U_CONID_AGE_C<522.37] yes=107,no=108,missing=107
						107:leaf=0.00916874
						108:leaf=0.0182731
					54:[C_D_U_GROUPID_GENDER_COEC<0.0732942] yes=109,no=110,missing=109
						109:leaf=-0.00128508
						110:leaf=0.0198602
		6:[D_CONID_COEC<0.108717] yes=13,no=14,missing=14
			13:[D_KEYWORD_MACRO_MEAN_COEC<0.0412126] yes=27,no=28,missing=28
				27:[C_D_U_CONID_AGE_C<4.93096] yes=55,no=56,missing=55
					55:[D_PUBLISHER_COEC<0.0519727] yes=111,no=112,missing=112
						111:leaf=-0.0219889
						112:leaf=0.0156019
					56:[C_D_U_CATEGORY_CITY_MACRO_MAX_COEC<0.0378618] yes=113,no=114,missing=114
						113:leaf=-0.00628719
						114:leaf=0.0323122
				28:[C_D_U_CONID_AGE_C<15.6063] yes=57,no=58,missing=58
					57:[C_D_U_CATEGORY_CITY_MACRO_MAX_COEC<0.0267773] yes=115,no=116,missing=116
						115:leaf=-0.0372499
						116:leaf=-0.000673244
					58:[C_D_U_TITLEMD5_AGE_COEC<0.0833924] yes=117,no=118,missing=117
						117:leaf=0.0174968
						118:leaf=0.0280251
			14:[C_D_U_PUBLISHER_CITY_COEC<0.061687] yes=29,no=30,missing=30
				29:[C_D_U_CONID_AGE_C<21.8015] yes=59,no=60,missing=59
					59:[C_D_U_CATEGORY_CITY_MACRO_MEAN_COEC<0.0337968] yes=119,no=120,missing=119
						119:leaf=0.00769982
						120:leaf=0.0252838
					60:[C_D_U_CONID_GENDER_COEC<0.115574] yes=121,no=122,missing=122
						121:leaf=0.0077078
						122:leaf=0.0399002
				30:[D_CATEGORY_MACRO_MEAN_COEC<0.0258819] yes=61,no=62,missing=61
					61:[C_D_U_CONID_CITY_C<0.403624] yes=123,no=124,missing=123
						123:leaf=-0.0105387
						124:leaf=-0.133368
					62:[D_PUBLISHER_C<5080.66] yes=125,no=126,missing=126
						125:leaf=0.0300679
						126:leaf=0.0412972
booster[12]:
0:[D_CONID_COEC<0.0367856] yes=1,no=2,missing=1
	1:[D_KEYWORD_MACRO_MEAN_COEC<0.0229856] yes=3,no=4,missing=4
		3:[C_D_U_CATEGORY_CITY_MACRO_MAX_COEC<0.0195658] yes=7,no=8,missing=8
			7:[C_D_U_CONID_AGE_C<5.985] yes=15,no=16,missing=15
				15:[D_PUBLISHER_C<47298.8] yes=31,no=32,missing=32
					31:[IMAGE_COUNT<3] yes=63,no=64,missing=64
						63:leaf=-0.0745435
						64:leaf=-0.0524394
					32:[TIME_OF_DAY<15] yes=65,no=66,missing=66
						65:leaf=0.0490339
						66:leaf=0.306537
				16:[C_D_U_TITLEMD5_AGE_COEC<0.0346425] yes=33,no=34,missing=34
					33:[D_KEYWORD_MAX_C<21.2916] yes=67,no=68,missing=68
						67:leaf=-0.029974
						68:leaf=-0.0720252
					34:[C_D_U_CATEGORY_GENDER_MACRO_MEAN_COEC<0.0380722] yes=69,no=70,missing=70
						69:leaf=-0.0781865
						70:leaf=0.054543
			8:[D_KEYWORD_MACRO_MEAN_COEC<0.0168056] yes=17,no=18,missing=18
				17:[IMAGE_COUNT<0.999999] yes=35,no=36,missing=36
					35:[C_D_U_CATEGORY_GENDER_MICRO_MAX_COEC<0.0490597] yes=71,no=72,missing=71
						71:leaf=-0.0833063
						72:leaf=-0.0290017
					36:[C_D_U_PUBLISHER_CITY_COEC<0.0416353] yes=73,no=74,missing=73
						73:leaf=-0.0590047
						74:leaf=-0.0327206
				18:[C_D_U_CATEGORY_CITY_MICRO_MEAN_COEC<0.112032] yes=37,no=38,missing=37
					37:[WORD_COUNT<1485] yes=75,no=76,missing=76
						75:leaf=-0.0585979
						76:leaf=-0.035879
					38:[C_D_U_PUBLISHER_CITY_C<3.20429] yes=77,no=78,missing=77
						77:leaf=-0.0175739
						78:leaf=0.0442218
		4:[C_D_U_PUBLISHER_CITY_COEC<0.0285156] yes=9,no=10,missing=10
			9:[D_CONID_COEC<0.0204733] yes=19,no=20,missing=20
				19:[D_GROUPID_COEC<0.0149729] yes=39,no=40,missing=39
					39:[C_D_U_CONID_AGE_EC<18.4406] yes=79,no=80,missing=80
						79:leaf=-0.0394881
						80:leaf=-0.072003
					40:[D_PUBLISHER_EC<737360] yes=81,no=82,missing=82
						81:leaf=-0.0436054
						82:leaf=-0.143416
				20:[C_D_U_CATEGORY_CITY_MACRO_MEAN_COEC<0.10262] yes=41,no=42,missing=41
					41:[D_PUBLISHER_C<24208] yes=83,no=84,missing=84
						83:leaf=-0.0248823
						84:leaf=-0.0523941
					42:[D_PUBLISHER_C<3345.03] yes=85,no=86,missing=86
						85:leaf=0.00817409
						86:leaf=-0.018748
			10:[C_D_U_PUBLISHER_CITY_COEC<0.106733] yes=21,no=22,missing=21
				21:[D_CONID_COEC<0.0289031] yes=43,no=44,missing=44
					43:[C_D_U_CATEGORY_CITY_MICRO_MEAN_COEC<0.0659876] yes=87,no=88,missing=88
						87:leaf=-0.0270887
						88:leaf=-0.0161867
					44:[TIME_OF_DAY<21] yes=89,no=90,missing=90
						89:leaf=-0.00788377
						90:leaf=-0.0247179
				22:[C_D_U_PUBLISHER_CITY_C<1.92626] yes=45,no=46,missing=46
					45:[C_D_U_PUBLISHER_CITY_C<0.931155] yes=91,no=92,missing=92
						91:leaf=-0.0254096
						92:leaf=0.00105426
					46:[C_D_U_TITLEMD5_CITY_COEC<0.0117732] yes=93,no=94,missing=93
						93:leaf=0.0332001
						94:leaf=-0.0332458
	2:[D_CONID_COEC<0.0588171] yes=5,no=6,missing=6
		5:[C_D_U_CONID_AGE_C<71.0568] yes=11,no=12,missing=11
			11:[C_D_U_CATEGORY_CITY_MACRO_MAX_COEC<0.0317459] yes=23,no=24,missing=24
				23:[C_D_U_PUBLISHER_CITY_COEC<0.0597669] yes=47,no=48,missing=47
					47:[C_D_U_CONID_CITY_COEC<0.124372] yes=95,no=96,missing=96
						95:leaf=-0.0101615
						96:leaf=-0.0225114
					48:[C_D_U_PUBLISHER_CITY_C<0.999999] yes=97,no=98,missing=98
						97:leaf=-0.0160818
						98:leaf=0.0046037
				24:[WORD_COUNT<1347] yes=49,no=50,missing=50
					49:[D_KEYWORD_MACRO_MEAN_COEC<0.0361976] yes=99,no=100,missing=100
						99:leaf=-0.0258623
						100:leaf=-0.00733124
					50:[TIME_OF_DAY<13] yes=101,no=102,missing=102
						101:leaf=0.00539441
						102:leaf=-0.0028389
			12:[TIME_OF_DAY<21] yes=25,no=26,missing=26
				25:[C_D_U_CONID_GENDER_COEC<0.049162] yes=51,no=52,missing=52
					51:[C_D_U_CATEGORY_GENDER_MICRO_MEAN_COEC<0.0384093] yes=103,no=104,missing=104
						103:leaf=-0.0125965
						104:leaf=2.53989e-05
					52:[C_D_U_TITLEMD5_GENDER_COEC<0.066851] yes=105,no=106,missing=105
						105:leaf=0.00743674
						106:leaf=0.0261667
				26:[C_D_U_GROUPID_GENDER_COEC<0.0508666] yes=53,no=54,missing=54
					53:[C_D_U_CATEGORY_GENDER_MACRO_MAX_COEC<0.0374675] yes=107,no=108,missing=107
						107:leaf=-0.0346882
						108:leaf=-0.0115067
					54:[C_D_U_PUBLISHER_CITY_COEC<0.0527793] yes=109,no=110,missing=109
						109:leaf=-0.00829897
						110:leaf=0.00440669
		6:[D_KEYWORD_MICRO_MAX_COEC<0.0859477] yes=13,no=14,missing=14
			13:[C_D_U_PUBLISHER_CITY_COEC<0.0457342] yes=27,no=28,missing=28
				27:[C_D_U_CONID_AGE_EC<19868.4] yes=55,no=56,missing=55
					55:[D_KEYWORD_MEAN_C<54.2674] yes=111,no=112,missing=112
						111:leaf=-0.023166
						112:leaf=0.00144118
					56:[D_CATEGORY_MACRO_MAX_COEC<0.034717] yes=113,no=114,missing=114
						113:leaf=-0.034863
						114:leaf=0.0211053
				28:[TIME_OF_DAY<22] yes=57,no=58,missing=58
					57:[D_PUBLISHER_C<22242.3] yes=115,no=116,missing=116
						115:leaf=0.0102315
						116:leaf=0.0189562
					58:[C_D_U_CATEGORY_GENDER_MACRO_MEAN_COEC<0.0513224] yes=117,no=118,missing=117
						117:leaf=-0.00226181
						118:leaf=0.0139821
			14:[D_CATEGORY_MACRO_MEAN_COEC<0.0527735] yes=29,no=30,missing=30
				29:[D_KEYWORD_MEAN_EC<1445.5] yes=59,no=60,missing=60
					59:[WORD_COUNT<2083] yes=119,no=120,missing=120
						119:leaf=0.00691065
						120:leaf=-0.0186395
					60:[TIME_OF_DAY<16] yes=121,no=122,missing=122
						121:leaf=0.0256563
						122:leaf=0.0101046
				30:[C_D_U_PUBLISHER_CITY_COEC<0.0737284] yes=61,no=62,missing=62
					61:[C_D_U_CONID_AGE_EC<10002.5] yes=123,no=124,missing=123
						123:leaf=0.0207143
						124:leaf=0.031691
					62:[D_GROUPID_COEC<0.135741] yes=125,no=126,missing=126
						125:leaf=0.0326466
						126:leaf=0.0487973
booster[13]:
0:[D_CONID_COEC<0.0376221] yes=1,no=2,missing=1
	1:[D_GROUPID_COEC<0.021607] yes=3,no=4,missing=3
		3:[C_D_U_CATEGORY_CITY_MACRO_MEAN_COEC<0.0446142] yes=7,no=8,missing=8
			7:[C_D_U_CONID_CITY_COEC<0.165693] yes=15,no=16,missing=16
				15:[C_D_U_PUBLISHER_CITY_EC<0.678849] yes=31,no=32,missing=32
					31:[D_KEYWORD_MICRO_MEAN_COEC<0.0298285] yes=63,no=64,missing=64
						63:leaf=-0.0438871
						64:leaf=0.174279
					32:[C_D_U_PUBLISHER_CITY_COEC<0.0577924] yes=65,no=66,missing=66
						65:leaf=-0.0396364
						66:leaf=0.00387265
				16:[D_PUBLISHER_COEC<0.0379289] yes=33,no=34,missing=34
					33:[D_KEYWORD_MACRO_MAX_COEC<0.00295271] yes=67,no=68,missing=68
						67:leaf=-0.0816522
						68:leaf=-0.0606326
					34:[IMAGE_COUNT<0.999999] yes=69,no=70,missing=70
						69:leaf=-0.0739878
						70:leaf=-0.0374544
			8:[C_D_U_CATEGORY_AGE_MICRO_MEAN_COEC<0.0235821] yes=17,no=18,missing=17
				17:[IMAGE_COUNT<0.999999] yes=35,no=36,missing=36
					35:[D_CATEGORY_MICRO_MEAN_COEC<0.0381939] yes=71,no=72,missing=71
						71:leaf=-0.0749186
						72:leaf=-0.0453389
					36:[D_CATEGORY_MACRO_MAX_COEC<0.0192842] yes=73,no=74,missing=74
						73:leaf=-0.0639569
						74:leaf=-0.0303376
				18:[C_D_U_CATEGORY_CITY_MICRO_MEAN_COEC<0.0796156] yes=37,no=38,missing=38
					37:[C_D_U_PUBLISHER_CITY_C<3.89445] yes=75,no=76,missing=75
						75:leaf=-0.0420475
						76:leaf=-0.0201429
					38:[C_D_U_PUBLISHER_CITY_C<17.1659] yes=77,no=78,missing=77
						77:leaf=-0.011381
						78:leaf=0.0845135
		4:[C_D_U_CATEGORY_CITY_MACRO_MEAN_COEC<0.0256802] yes=9,no=10,missing=10
			9:[C_D_U_PUBLISHER_CITY_COEC<0.0418943] yes=19,no=20,missing=19
				19:[C_D_U_PUBLISHER_AGE_EC<101080] yes=39,no=40,missing=40
					39:[IMAGE_COUNT<0.999999] yes=79,no=80,missing=80
						79:leaf=-0.03946
						80:leaf=-0.0173578
					40:[C_D_U_TITLEMD5_CITY_COEC<3.50251] yes=81,no=82,missing=82
						81:leaf=-0.0241239
						82:leaf=-0.0402846
				20:[TIME_OF_DAY<21] yes=41,no=42,missing=42
					41:[IMAGE_COUNT<3] yes=83,no=84,missing=84
						83:leaf=-0.014268
						84:leaf=0.00391257
					42:[D_CATEGORY_MACRO_MAX_COEC<0.0490313] yes=85,no=86,missing=86
						85:leaf=-0.0404168
						86:leaf=0.0226383
			10:[C_D_U_TITLEMD5_AGE_COEC<0.0328651] yes=21,no=22,missing=21
				21:[D_CATEGORY_MACRO_MAX_COEC<0.0455809] yes=43,no=44,missing=44
					43:[TIME_OF_DAY<12] yes=87,no=88,missing=88
						87:leaf=-0.00508449
						88:leaf=-0.0152174
					44:[C_D_U_PUBLISHER_CITY_COEC<0.0514523] yes=89,no=90,missing=90
						89:leaf=-0.0289182
						90:leaf=-0.0130673
				22:[C_D_U_CATEGORY_CITY_MACRO_MEAN_COEC<0.146346] yes=45,no=46,missing=45
					45:[WORD_COUNT<1197] yes=91,no=92,missing=92
						91:leaf=-0.01771
						92:leaf=-0.00249999
					46:[C_D_U_CONID_CITY_COEC<0.114633] yes=93,no=94,missing=93
						93:leaf=0.0254855
						94:leaf=-0.0300065
	2:[D_CONID_COEC<0.0698541] yes=5,no=6,missing=6
		5:[D_GROUPID_COEC<0.052361] yes=11,no=12,missing=12
			11:[C_D_U_CATEGORY_CITY_MICRO_MEAN_COEC<0.0499457] yes=23,no=24,missing=24
				23:[C_D_U_CONID_AGE_C<82.1729] yes=47,no=48,missing=47
					47:[C_D_U_GROUPID_CITY_COEC<0.169211] yes=95,no=96,missing=96
						95:leaf=-0.00732795
						96:leaf=-0.0196058
					48:[C_D_U_GROUPID_GENDER_COEC<0.0581007] yes=97,no=98,missing=97
						97:leaf=-0.00196133
						98:leaf=0.0158781
				24:[WORD_COUNT<1402] yes=49,no=50,missing=50
					49:[C_D_U_CATEGORY_GENDER_MACRO_MEAN_COEC<0.0445466] yes=99,no=100,missing=99
						99:leaf=-0.0077783
						100:leaf=0.00577135
					50:[TIME_OF_DAY<21] yes=101,no=102,missing=102
						101:leaf=0.00643848
						102:leaf=-0.00642415
			12:[D_KEYWORD_MACRO_MEAN_COEC<0.0374041] yes=25,no=26,missing=26
				25:[C_D_U_PUBLISHER_AGE_COEC<0.0502604] yes=51,no=52,missing=51
					51:[C_D_U_CATEGORY_CITY_MICRO_MEAN_COEC<0.0312427] yes=103,no=104,missing=104
						103:leaf=-0.0487191
						104:leaf=-0.0222054
					52:[D_KEYWORD_MICRO_MEAN_COEC<0.0461851] yes=105,no=106,missing=106
						105:leaf=-0.0132751
						106:leaf=0.0200721
				26:[TIME_OF_DAY<19] yes=53,no=54,missing=54
					53:[D_KEYWORD_MEAN_EC<5159.94] yes=107,no=108,missing=108
						107:leaf=0.00611015
						108:leaf=0.0133817
					54:[WORD_COUNT<2707] yes=109,no=110,missing=110
						109:leaf=-0.0036565
						110:leaf=0.00571727
		6:[D_CONID_COEC<0.100037] yes=13,no=14,missing=14
			13:[D_KEYWORD_MEAN_C<119.496] yes=27,no=28,missing=28
				27:[C_D_U_CATEGORY_CITY_MICRO_MAX_COEC<0.0548858] yes=55,no=56,missing=56
					55:[C_D_U_CONID_AGE_EC<153.306] yes=111,no=112,missing=111
						111:leaf=-0.0209878
						112:leaf=0.0026881
					56:[D_KEYWORD_MACRO_MEAN_COEC<0.050161] yes=113,no=114,missing=114
						113:leaf=-0.00289081
						114:leaf=0.0166465
				28:[C_D_U_GROUPID_GENDER_COEC<0.092976] yes=57,no=58,missing=57
					57:[C_D_U_PUBLISHER_CITY_COEC<0.0445242] yes=115,no=116,missing=116
						115:leaf=0.00700787
						116:leaf=0.0179177
					58:[C_D_U_GROUPID_AGE_COEC<0.120668] yes=117,no=118,missing=117
						117:leaf=0.033169
						118:leaf=-0.0684841
			14:[D_PUBLISHER_COEC<0.0636481] yes=29,no=30,missing=30
				29:[C_D_U_CONID_GENDER_COEC<0.119194] yes=59,no=60,missing=59
					59:[C_D_U_CATEGORY_CITY_MICRO_MAX_COEC<0.0335388] yes=119,no=120,missing=120
						119:leaf=0.00528532
						120:leaf=0.0215977
					60:[WORD_COUNT<762] yes=121,no=122,missing=122
						121:leaf=-0.0222872
						122:leaf=0.0383406
				30:[C_D_U_TITLEMD5_GENDER_COEC<0.116513] yes=61,no=62,missing=62
					61:[D_KEYWORD_MACRO_MEAN_COEC<0.0408125] yes=123,no=124,missing=124
						123:leaf=-0.149918
						124:leaf=0.0171981
					62:[D_CATEGORY_MICRO_MAX_COEC<0.0533387] yes=125,no=126,missing=125
						125:leaf=0.0218661
						126:leaf=0.0352344
booster[14]:
0:[D_CONID_COEC<0.0467311] yes=1,no=2,missing=1
	1:[D_KEYWORD_MACRO_MEAN_COEC<0.0221073] yes=3,no=4,missing=4
		3:[C_D_U_CATEGORY_CITY_MACRO_MEAN_COEC<0.025963] yes=7,no=8,missing=8
			7:[C_D_U_PUBLISHER_CITY_COEC<0.100968] yes=15,no=16,missing=15
				15:[C_D_U_CONID_AGE_C<4.93035] yes=31,no=32,missing=31
					31:[D_CATEGORY_MACRO_MAX_COEC<0.0931642] yes=63,no=64,missing=64
						63:leaf=-0.0661763
						64:leaf=0.148078
					32:[D_KEYWORD_MACRO_MAX_COEC<0.0064411] yes=65,no=66,missing=66
						65:leaf=-0.0390034
						66:leaf=0.0140745
				16:[D_PUBLISHER_COEC<0.0463336] yes=33,no=34,missing=34
					33:[D_PUBLISHER_EC<230565] yes=67,no=68,missing=68
						67:leaf=-0.015122
						68:leaf=-0.079923
					34:[TIME_OF_DAY<8] yes=69,no=70,missing=70
						69:leaf=0.117733
						70:leaf=-0.0282416
			8:[IMAGE_COUNT<0.999999] yes=17,no=18,missing=18
				17:[C_D_U_CATEGORY_AGE_MICRO_MAX_COEC<0.0385776] yes=35,no=36,missing=35
					35:[D_CATEGORY_MACRO_MAX_COEC<0.0355645] yes=71,no=72,missing=71
						71:leaf=-0.0760682
						72:leaf=-0.051658
					36:[C_D_U_CATEGORY_CITY_MACRO_MAX_COEC<0.047718] yes=73,no=74,missing=74
						73:leaf=-0.0694821
						74:leaf=-0.0150522
				18:[C_D_U_PUBLISHER_CITY_COEC<0.0533237] yes=37,no=38,missing=37
					37:[D_PUBLISHER_COEC<0.0284629] yes=75,no=76,missing=76
						75:leaf=-0.0521842
						76:leaf=-0.0329165
					38:[C_D_U_CATEGORY_CITY_MICRO_MAX_COEC<0.220531] yes=77,no=78,missing=77
						77:leaf=-0.0191133
						78:leaf=0.0219871
		4:[D_GROUPID_COEC<0.0331539] yes=9,no=10,missing=10
			9:[C_D_U_CATEGORY_CITY_MACRO_MAX_COEC<0.0294615] yes=19,no=20,missing=20
				19:[D_CONID_COEC<0.0209711] yes=39,no=40,missing=39
					39:[IMAGE_COUNT<0.999999] yes=79,no=80,missing=80
						79:leaf=-0.0660857
						80:leaf=-0.0403501
					40:[C_D_U_PUBLISHER_CITY_COEC<0.110023] yes=81,no=82,missing=81
						81:leaf=-0.0245884
						82:leaf=0.00634954
				20:[C_D_U_CONID_AGE_COEC<0.024349] yes=41,no=42,missing=41
					41:[C_D_U_PUBLISHER_CITY_COEC<0.0244136] yes=83,no=84,missing=84
						83:leaf=-0.0313015
						84:leaf=-0.0156558
					42:[WORD_COUNT<1242] yes=85,no=86,missing=86
						85:leaf=-0.0199108
						86:leaf=-0.00408253
			10:[C_D_U_CONID_GENDER_COEC<0.0413042] yes=21,no=22,missing=21
				21:[TIME_OF_DAY<22] yes=43,no=44,missing=44
					43:[WORD_COUNT<2243] yes=87,no=88,missing=88
						87:leaf=-0.00812608
						88:leaf=6.20216e-06
					44:[D_CATEGORY_MACRO_MAX_COEC<0.0310213] yes=89,no=90,missing=89
						89:leaf=-0.0307915
						90:leaf=-0.0163929
				22:[C_D_U_CONID_AGE_C<27.9064] yes=45,no=46,missing=46
					45:[C_D_U_CATEGORY_GENDER_MACRO_MAX_COEC<0.0374747] yes=91,no=92,missing=92
						91:leaf=-0.023844
						92:leaf=-0.00242167
					46:[C_D_U_CONID_GENDER_COEC<0.0519843] yes=93,no=94,missing=94
						93:leaf=0.00255387
						94:leaf=0.0135618
	2:[D_TITLEMD5_COEC<0.0793196] yes=5,no=6,missing=6
		5:[C_D_U_CATEGORY_CITY_MICRO_MEAN_COEC<0.0533876] yes=11,no=12,missing=12
			11:[D_KEYWORD_MEAN_EC<1575.23] yes=23,no=24,missing=24
				23:[D_PUBLISHER_EC<239780] yes=47,no=48,missing=48
					47:[D_KEYWORD_MEAN_C<16.4229] yes=95,no=96,missing=96
						95:leaf=-0.0616033
						96:leaf=-0.0221818
					48:[D_KEYWORD_MACRO_MEAN_COEC<0.0362902] yes=97,no=98,missing=98
						97:leaf=-0.0231941
						98:leaf=-0.00259559
				24:[TIME_OF_DAY<21] yes=49,no=50,missing=50
					49:[C_D_U_PUBLISHER_CITY_COEC<0.0265892] yes=99,no=100,missing=99
						99:leaf=-0.0030305
						100:leaf=0.00651974
					50:[C_D_U_GROUPID_AGE_COEC<0.0542237] yes=101,no=102,missing=101
						101:leaf=-0.0132395
						102:leaf=-0.00162803
			12:[TIME_OF_DAY<16] yes=25,no=26,missing=26
				25:[D_CATEGORY_MACRO_MEAN_COEC<0.0387559] yes=51,no=52,missing=51
					51:[D_KEYWORD_MEAN_EC<5530.03] yes=103,no=104,missing=104
						103:leaf=0.00028381
						104:leaf=0.0119385
					52:[C_D_U_CONID_AGE_C<359.735] yes=105,no=106,missing=105
						105:leaf=0.0118494
						106:leaf=0.0198749
				26:[C_D_U_PUBLISHER_CITY_COEC<0.0682434] yes=53,no=54,missing=53
					53:[D_KEYWORD_MICRO_MEAN_COEC<0.0448136] yes=107,no=108,missing=108
						107:leaf=-0.0152997
						108:leaf=0.00360497
					54:[C_D_U_CONID_CITY_C<22.9922] yes=109,no=110,missing=110
						109:leaf=0.00942984
						110:leaf=0.0281875
		6:[C_D_U_PUBLISHER_CITY_COEC<0.0507481] yes=13,no=14,missing=14
			13:[C_D_U_CONID_AGE_COEC<0.101039] yes=27,no=28,missing=27
				27:[C_D_U_TITLEMD5_CITY_COEC<0.493696] yes=55,no=56,missing=56
					55:[D_PUBLISHER_C<30200.9] yes=111,no=112,missing=112
						111:leaf=0.0179513
						112:leaf=0.0031285
					56:[D_KEYWORD_MAX_EC<222.541] yes=113,no=114,missing=114
						113:leaf=-0.0299879
						114:leaf=-0.00105151
				28:[C_D_U_CONID_AGE_C<25.2277] yes=57,no=58,missing=58
					57:[D_CONID_COEC<0.098629] yes=115,no=116,missing=116
						115:leaf=-0.0167031
						116:leaf=0.0111792
					58:[C_D_U_CONID_GENDER_COEC<0.104974] yes=117,no=118,missing=118
						117:leaf=0.007514
						118:leaf=0.0280718
			14:[D_KEYWORD_MICRO_MAX_COEC<0.122531] yes=29,no=30,missing=30
				29:[C_D_U_TITLEMD5_GENDER_COEC<0.0983227] yes=59,no=60,missing=59
					59:[D_PUBLISHER_COEC<0.0344621] yes=119,no=120,missing=120
						119:leaf=-0.0113999
						120:leaf=0.0192308
					60:[C_D_U_TITLEMD5_AGE_COEC<0.0788692] yes=121,no=122,missing=122
						121:leaf=-0.0363186
						122:leaf=0.0322952
				30:[D_KEYWORD_MAX_EC<158.229] yes=61,no=62,missing=62
					61:[D_KEYWORD_MEAN_EC<432.448] yes=123,no=124,missing=124
						123:leaf=-0.00160393
						124:leaf=-0.112774
					62:[D_CATEGORY_MACRO_MAX_COEC<0.057599] yes=125,no=126,missing=125
						125:leaf=0.0240887
						126:leaf=0.035247
booster[15]:
0:[D_CONID_COEC<0.0361696] yes=1,no=2,missing=1
	1:[D_KEYWORD_MACRO_MEAN_COEC<0.0235373] yes=3,no=4,missing=4
		3:[D_KEYWORD_MACRO_MEAN_COEC<0.0168732] yes=7,no=8,missing=8
			7:[D_CATEGORY_MACRO_MEAN_COEC<0.0293047] yes=15,no=16,missing=16
				15:[U_GENDER<2] yes=31,no=32,missing=32
					31:[C_D_U_CONID_AGE_EC<176.521] yes=63,no=64,missing=63
						63:leaf=-0.0357076
						64:leaf=0.0708242
					32:[WORD_COUNT<5660] yes=65,no=66,missing=66
						65:leaf=-0.0711596
						66:leaf=-0.0389778
				16:[C_D_U_PUBLISHER_CITY_COEC<0.0887615] yes=33,no=34,missing=33
					33:[D_KEYWORD_MAX_EC<2070.65] yes=67,no=68,missing=68
						67:leaf=-0.0493351
						68:leaf=0.0411276
					34:[C_D_U_PUBLISHER_CITY_C<0.951109] yes=69,no=70,missing=70
						69:leaf=-0.06096
						70:leaf=0.024985
			8:[C_D_U_CATEGORY_CITY_MICRO_MAX_COEC<0.0594414] yes=17,no=18,missing=18
				17:[C_D_U_CONID_CITY_C<1.60881] yes=35,no=36,missing=36
					35:[D_KEYWORD_MICRO_MEAN_COEC<0.0324776] yes=71,no=72,missing=72
						71:leaf=-0.0161433
						72:leaf=-0.0348158
					36:[IMAGE_COUNT<0.999999] yes=73,no=74,missing=74
						73:leaf=-0.0687131
						74:leaf=-0.0436738
				18:[C_D_U_PUBLISHER_AGE_C<888.47] yes=37,no=38,missing=37
					37:[C_D_U_PUBLISHER_CITY_COEC<0.0836044] yes=75,no=76,missing=75
						75:leaf=-0.0329893
						76:leaf=0.00799154
					38:[U_GENDER<2] yes=77,no=78,missing=77
						77:leaf=-0.0113144
						78:leaf=0.0173384
		4:[C_D_U_PUBLISHER_CITY_COEC<0.139652] yes=9,no=10,missing=9
			9:[D_CONID_COEC<0.0254317] yes=19,no=20,missing=20
				19:[C_D_U_PUBLISHER_CITY_COEC<0.0486595] yes=39,no=40,missing=40
					39:[D_CATEGORY_MICRO_MAX_COEC<0.0433894] yes=79,no=80,missing=80
						79:leaf=-0.0234633
						80:leaf=-0.0393603
					40:[C_D_U_PUBLISHER_AGE_COEC<0.0268291] yes=81,no=82,missing=81
						81:leaf=-0.0243245
						82:leaf=-0.00811735
				20:[TIME_OF_DAY<19] yes=41,no=42,missing=42
					41:[C_D_U_CATEGORY_CITY_MACRO_MAX_COEC<0.0229894] yes=83,no=84,missing=84
						83:leaf=-0.0171369
						84:leaf=-0.00642828
					42:[WORD_COUNT<2409] yes=85,no=86,missing=86
						85:leaf=-0.0240611
						86:leaf=-0.0134161
			10:[C_D_U_PUBLISHER_CITY_C<0.975248] yes=21,no=22,missing=22
				21:[D_KEYWORD_MACRO_MEAN_COEC<0.0343634] yes=43,no=44,missing=44
					43:[C_D_U_GROUPID_CITY_COEC<0.161042] yes=87,no=88,missing=87
						87:leaf=-0.0257614
						88:leaf=-0.0675361
					44:[C_D_U_PUBLISHER_CITY_EC<0.707607] yes=89,no=90,missing=90
						89:leaf=-0.112561
						90:leaf=0.000705003
				22:[C_D_U_CONID_CITY_C<0.587822] yes=45,no=46,missing=45
					45:[C_D_U_CATEGORY_CITY_MICRO_MEAN_COEC<0.207396] yes=91,no=92,missing=92
						91:leaf=0.0220798
						92:leaf=0.0582876
					46:[D_CATEGORY_MICRO_MEAN_COEC<0.0400199] yes=93,no=94,missing=93
						93:leaf=-0.0674766
						94:leaf=-0.00661955
	2:[D_TITLEMD5_COEC<0.0573874] yes=5,no=6,missing=6
		5:[TIME_OF_DAY<13] yes=11,no=12,missing=12
			11:[C_D_U_CONID_AGE_C<106.869] yes=23,no=24,missing=23
				23:[C_D_U_CATEGORY_CITY_MACRO_MEAN_COEC<0.0343761] yes=47,no=48,missing=48
					47:[C_D_U_PUBLISHER_CITY_COEC<0.0205245] yes=95,no=96,missing=95
						95:leaf=-0.0181586
						96:leaf=-0.00235525
					48:[WORD_COUNT<916] yes=97,no=98,missing=98
						97:leaf=-0.0111589
						98:leaf=0.00374911
				24:[C_D_U_PUBLISHER_CITY_C<0.975248] yes=49,no=50,missing=50
					49:[D_KEYWORD_MAX_C<371.515] yes=99,no=100,missing=100
						99:leaf=0.00224707
						100:leaf=-0.020991
					50:[C_D_U_PUBLISHER_CITY_COEC<0.216597] yes=101,no=102,missing=101
						101:leaf=0.010334
						102:leaf=0.0508117
			12:[C_D_U_GROUPID_GENDER_COEC<0.0531378] yes=25,no=26,missing=25
				25:[C_D_U_CATEGORY_CITY_MICRO_MEAN_COEC<0.0492456] yes=51,no=52,missing=52
					51:[D_KEYWORD_MAX_C<16.7169] yes=103,no=104,missing=104
						103:leaf=-0.0222002
						104:leaf=-0.0087375
					52:[D_CATEGORY_MICRO_MEAN_COEC<0.031566] yes=105,no=106,missing=106
						105:leaf=-0.024958
						106:leaf=-0.00184848
				26:[C_D_U_CATEGORY_CITY_MICRO_MAX_COEC<0.0815855] yes=53,no=54,missing=53
					53:[C_D_U_CONID_AGE_C<4.98002] yes=107,no=108,missing=108
						107:leaf=-0.033554
						108:leaf=0.00633373
					54:[C_D_U_GROUPID_CITY_COEC<0.250702] yes=109,no=110,missing=109
						109:leaf=0.0305502
						110:leaf=-0.00443592
		6:[D_CONID_COEC<0.0908241] yes=13,no=14,missing=14
			13:[D_KEYWORD_MACRO_MEAN_COEC<0.0370377] yes=27,no=28,missing=28
				27:[C_D_U_CONID_AGE_EC<78.5211] yes=55,no=56,missing=55
					55:[C_D_U_CATEGORY_GENDER_MACRO_MEAN_COEC<0.0553267] yes=111,no=112,missing=111
						111:leaf=-0.0292261
						112:leaf=0.0295135
					56:[C_D_U_CATEGORY_CITY_MICRO_MAX_COEC<0.0815855] yes=113,no=114,missing=114
						113:leaf=-0.00157372
						114:leaf=0.034452
				28:[TIME_OF_DAY<22] yes=57,no=58,missing=58
					57:[C_D_U_PUBLISHER_CITY_COEC<0.0548347] yes=115,no=116,missing=116
						115:leaf=0.00569362
						116:leaf=0.0134165
					58:[C_D_U_CATEGORY_GENDER_MACRO_MEAN_COEC<0.0512021] yes=117,no=118,missing=117
						117:leaf=-0.00661391
						118:leaf=0.00912996
			14:[D_KEYWORD_MEAN_C<73.7034] yes=29,no=30,missing=30
				29:[D_KEYWORD_MICRO_MAX_COEC<0.10511] yes=59,no=60,missing=60
					59:[C_D_U_CATEGORY_CITY_MACRO_MAX_COEC<0.0583368] yes=119,no=120,missing=119
						119:leaf=-0.0178542
						120:leaf=0.0279946
					60:[D_CATEGORY_MACRO_MAX_COEC<0.0949575] yes=121,no=122,missing=121
						121:leaf=0.00977464
						122:leaf=0.0374542
				30:[C_D_U_CATEGORY_CITY_MICRO_MAX_COEC<0.115749] yes=61,no=62,missing=62
					61:[C_D_U_CONID_AGE_COEC<0.0988739] yes=123,no=124,missing=124
						123:leaf=-0.00293846
						124:leaf=0.0200095
					62:[D_KEYWORD_MICRO_MEAN_COEC<0.114783] yes=125,no=126,missing=126
						125:leaf=0.0262897
						126:leaf=0.0367556
booster[16]:
0:[D_CONID_COEC<0.0467238] yes=1,no=2,missing=1
	1:[D_KEYWORD_MACRO_MEAN_COEC<0.0242046] yes=3,no=4,missing=4
		3:[D_KEYWORD_MACRO_MEAN_COEC<0.0173384] yes=7,no=8,missing=8
			7:[D_CATEGORY_MACRO_MEAN_COEC<0.039715] yes=15,no=16,missing=16
				15:[U_GENDER<2] yes=31,no=32,missing=32
					31:[C_D_U_CONID_AGE_C<0.985074] yes=63,no=64,missing=63
						63:leaf=-0.0363597
						64:leaf=0.00977977
					32:[C_D_U_PUBLISHER_CITY_COEC<0.0194525] yes=65,no=66,missing=66
						65:leaf=-0.0727094
						66:leaf=-0.0528589
				16:[C_D_U_PUBLISHER_CITY_COEC<0.0528608] yes=33,no=34,missing=34
					33:[D_PUBLISHER_C<285.632] yes=67,no=68,missing=68
						67:leaf=-0.0140625
						68:leaf=-0.0526469
					34:[D_GROUPID_COEC<0.0970567] yes=69,no=70,missing=70
						69:leaf=-0.0226385
						70:leaf=0.0419113
			8:[IMAGE_COUNT<0.999999] yes=17,no=18,missing=18
				17:[D_CATEGORY_MACRO_MAX_COEC<0.0355573] yes=35,no=36,missing=35
					35:[WORD_COUNT<4537] yes=71,no=72,missing=72
						71:leaf=-0.0695805
						72:leaf=-0.0289762
					36:[C_D_U_CATEGORY_CITY_MACRO_MAX_COEC<0.0487363] yes=73,no=74,missing=74
						73:leaf=-0.0527273
						74:leaf=-0.0162581
				18:[C_D_U_CATEGORY_CITY_MACRO_MAX_COEC<0.0264832] yes=37,no=38,missing=38
					37:[C_D_U_CONID_CITY_C<0.428647] yes=75,no=76,missing=76
						75:leaf=-0.0201672
						76:leaf=-0.0427045
					38:[WORD_COUNT<1225] yes=77,no=78,missing=78
						77:leaf=-0.0457866
						78:leaf=-0.0166594
		4:[C_D_U_TITLEMD5_AGE_COEC<0.0329344] yes=9,no=10,missing=9
			9:[IMAGE_COUNT<0.999999] yes=19,no=20,missing=20
				19:[C_D_U_CATEGORY_CITY_MICRO_MEAN_COEC<0.0276311] yes=39,no=40,missing=40
					39:[D_KEYWORD_MACRO_MEAN_COEC<0.0349033] yes=79,no=80,missing=80
						79:leaf=-0.0596842
						80:leaf=-0.0274245
					40:[D_CONID_COEC<0.0156468] yes=81,no=82,missing=81
						81:leaf=-0.0435603
						82:leaf=-0.0191486
				20:[C_D_U_PUBLISHER_CITY_C<0.999999] yes=41,no=42,missing=42
					41:[D_PUBLISHER_EC<251914] yes=83,no=84,missing=84
						83:leaf=-0.0150436
						84:leaf=-0.0331174
					42:[C_D_U_PUBLISHER_CITY_COEC<0.19104] yes=85,no=86,missing=85
						85:leaf=-0.00786559
						86:leaf=0.0351622
			10:[C_D_U_CATEGORY_CITY_MACRO_MEAN_COEC<0.0619331] yes=21,no=22,missing=21
				21:[TIME_OF_DAY<19] yes=43,no=44,missing=44
					43:[D_CATEGORY_MICRO_MAX_COEC<0.0455524] yes=87,no=88,missing=87
						87:leaf=0.00157883
						88:leaf=-0.00664336
					44:[WORD_COUNT<1758] yes=89,no=90,missing=90
						89:leaf=-0.0175655
						90:leaf=-0.00652003
				22:[C_D_U_CATEGORY_CITY_MACRO_MEAN_COEC<0.206747] yes=45,no=46,missing=46
					45:[C_D_U_PUBLISHER_CITY_C<1.92406] yes=91,no=92,missing=91
						91:leaf=-0.000711693
						92:leaf=0.0126739
					46:[C_D_U_TITLEMD5_CITY_COEC<0.138493] yes=93,no=94,missing=93
						93:leaf=0.0369854
						94:leaf=-0.024306
	2:[D_KEYWORD_MACRO_MEAN_COEC<0.0563358] yes=5,no=6,missing=6
		5:[C_D_U_CATEGORY_CITY_MACRO_MAX_COEC<0.0243018] yes=11,no=12,missing=12
			11:[C_D_U_PUBLISHER_CITY_COEC<0.0797463] yes=23,no=24,missing=23
				23:[C_D_U_CONID_CITY_C<2.50568] yes=47,no=48,missing=48
					47:[TIME_OF_DAY<20] yes=95,no=96,missing=96
						95:leaf=-0.000188467
						96:leaf=-0.0128321
					48:[C_D_U_CONID_AGE_C<12.9351] yes=97,no=98,missing=97
						97:leaf=-0.0207064
						98:leaf=-0.00633043
				24:[C_D_U_PUBLISHER_CITY_C<0.900086] yes=49,no=50,missing=50
					49:[D_KEYWORD_MAX_C<18.82] yes=99,no=100,missing=100
						99:leaf=-0.0692892
						100:leaf=-0.00560017
					50:[C_D_U_PUBLISHER_CITY_COEC<0.19104] yes=101,no=102,missing=102
						101:leaf=0.0164169
						102:leaf=0.0445831
			12:[WORD_COUNT<1347] yes=25,no=26,missing=26
				25:[D_PUBLISHER_EC<536558] yes=51,no=52,missing=52
					51:[TIME_OF_DAY<22] yes=103,no=104,missing=104
						103:leaf=-0.00618525
						104:leaf=-0.0287511
					52:[TIME_OF_DAY<13] yes=105,no=106,missing=106
						105:leaf=0.00844715
						106:leaf=-0.00358507
				26:[C_D_U_CATEGORY_CITY_MICRO_MEAN_COEC<0.113866] yes=53,no=54,missing=53
					53:[D_KEYWORD_MEAN_C<38.4554] yes=107,no=108,missing=108
						107:leaf=-0.0162663
						108:leaf=0.00706538
					54:[C_D_U_CONID_CITY_COEC<0.0849948] yes=109,no=110,missing=109
						109:leaf=0.0332513
						110:leaf=0.00273324
		6:[C_D_U_PUBLISHER_CITY_COEC<0.0684928] yes=13,no=14,missing=14
			13:[C_D_U_CONID_AGE_C<1323.29] yes=27,no=28,missing=27
				27:[WORD_COUNT<2083] yes=55,no=56,missing=56
					55:[C_D_U_CONID_AGE_COEC<0.0519053] yes=111,no=112,missing=112
						111:leaf=-0.0583353
						112:leaf=0.00645587
					56:[D_KEYWORD_MAX_EC<96.3924] yes=113,no=114,missing=114
						113:leaf=-0.0579626
						114:leaf=0.0188896
				28:[TIME_OF_DAY<20] yes=57,no=58,missing=58
					57:[C_D_U_CONID_GENDER_COEC<0.0633353] yes=115,no=116,missing=116
						115:leaf=-0.00624276
						116:leaf=0.0219483
					58:[C_D_U_PUBLISHER_GENDER_EC<119640] yes=117,no=118,missing=117
						117:leaf=0.00858122
						118:leaf=-0.0294454
			14:[C_D_U_PUBLISHER_AGE_EC<213067] yes=29,no=30,missing=29
				29:[D_PUBLISHER_COEC<0.064973] yes=59,no=60,missing=60
					59:[D_PUBLISHER_C<25253.1] yes=119,no=120,missing=120
						119:leaf=0.00844492
						120:leaf=0.0197715
					60:[C_D_U_CONID_CITY_C<7.58304] yes=121,no=122,missing=122
						121:leaf=0.0136523
						122:leaf=0.0242957
				30:[C_D_U_CONID_GENDER_COEC<0.113531] yes=61,no=62,missing=62
					61:[C_D_U_PUBLISHER_CITY_COEC<0.107509] yes=123,no=124,missing=123
						123:leaf=0.0162034
						124:leaf=0.0335288
					62:[C_D_U_PUBLISHER_CITY_COEC<0.0914266] yes=125,no=126,missing=125
						125:leaf=0.028329
						126:leaf=0.043314
booster[17]:
0:[D_GROUPID_COEC<0.0349555] yes=1,no=2,missing=1
	1:[D_GROUPID_COEC<0.0146236] yes=3,no=4,missing=4
		3:[C_D_U_CATEGORY_CITY_MICRO_MEAN_COEC<0.0450064] yes=7,no=8,missing=8
			7:[C_D_U_PUBLISHER_AGE_COEC<0.0400807] yes=15,no=16,missing=15
				15:[IMAGE_COUNT<3] yes=31,no=32,missing=32
					31:[D_CATEGORY_MACRO_MAX_COEC<0.019304] yes=63,no=64,missing=64
						63:leaf=-0.0695121
						64:leaf=-0.0535585
					32:[D_PUBLISHER_COEC<0.0501982] yes=65,no=66,missing=66
						65:leaf=-0.0376019
						66:leaf=0.0607323
				16:[D_KEYWORD_MACRO_MEAN_COEC<0.0351449] yes=33,no=34,missing=34
					33:[C_D_U_CONID_AGE_EC<22.2902] yes=67,no=68,missing=67
						67:leaf=-0.0256979
						68:leaf=-0.0515704
					34:[D_KEYWORD_MAX_C<63.0991] yes=69,no=70,missing=70
						69:leaf=0.101932
						70:leaf=-0.0221401
			8:[D_PUBLISHER_COEC<0.0248243] yes=17,no=18,missing=17
				17:[C_D_U_PUBLISHER_CITY_COEC<0.0276337] yes=35,no=36,missing=35
					35:[C_D_U_CATEGORY_AGE_MICRO_MAX_COEC<0.0440058] yes=71,no=72,missing=71
						71:leaf=-0.0623412
						72:leaf=-0.0246123
					36:[C_D_U_CATEGORY_AGE_MACRO_MEAN_COEC<0.0572331] yes=73,no=74,missing=73
						73:leaf=0.00680712
						74:leaf=-0.113967
				18:[IMAGE_COUNT<0.999999] yes=37,no=38,missing=38
					37:[C_D_U_CATEGORY_AGE_MICRO_MAX_COEC<0.0424814] yes=75,no=76,missing=75
						75:leaf=-0.0557798
						76:leaf=-0.014003
					38:[C_D_U_CONID_AGE_EC<150.982] yes=77,no=78,missing=77
						77:leaf=-0.0139611
						78:leaf=-0.0609525
		4:[C_D_U_CATEGORY_CITY_MACRO_MEAN_COEC<0.0263464] yes=9,no=10,missing=10
			9:[D_GROUPID_COEC<0.0255577] yes=19,no=20,missing=19
				19:[C_D_U_CONID_AGE_C<1.92694] yes=39,no=40,missing=39
					39:[C_D_U_PUBLISHER_CITY_COEC<0.0102109] yes=79,no=80,missing=79
						79:leaf=-0.0531381
						80:leaf=-0.0319555
					40:[TIME_OF_DAY<16] yes=81,no=82,missing=82
						81:leaf=-0.0154521
						82:leaf=-0.0389539
				20:[IMAGE_COUNT<2] yes=41,no=42,missing=42
					41:[C_D_U_PUBLISHER_AGE_EC<287365] yes=83,no=84,missing=84
						83:leaf=-0.0141575
						84:leaf=-0.0283233
					42:[C_D_U_PUBLISHER_CITY_COEC<0.0549483] yes=85,no=86,missing=85
						85:leaf=-0.0107742
						86:leaf=0.0149768
			10:[C_D_U_CATEGORY_CITY_MACRO_MEAN_COEC<0.127144] yes=21,no=22,missing=21
				21:[C_D_U_TITLEMD5_GENDER_COEC<0.0315363] yes=43,no=44,missing=43
					43:[WORD_COUNT<2707] yes=87,no=88,missing=88
						87:leaf=-0.0153256
						88:leaf=-0.00637101
					44:[C_D_U_PUBLISHER_CITY_C<1.94946] yes=89,no=90,missing=90
						89:leaf=-0.0113278
						90:leaf=0.00350398
				22:[C_D_U_TITLEMD5_CITY_COEC<0.0658769] yes=45,no=46,missing=45
					45:[C_D_U_PUBLISHER_CITY_C<1.94946] yes=91,no=92,missing=91
						91:leaf=0.000441124
						92:leaf=0.0357886
					46:[C_D_U_GROUPID_AGE_COEC<0.0325981] yes=93,no=94,missing=93
						93:leaf=-0.0519435
						94:leaf=-0.00835677
	2:[D_TITLEMD5_COEC<0.057594] yes=5,no=6,missing=5
		5:[C_D_U_GROUPID_GENDER_COEC<0.0511249] yes=11,no=12,missing=11
			11:[TIME_OF_DAY<13] yes=23,no=24,missing=24
				23:[C_D_U_CATEGORY_CITY_MICRO_MEAN_COEC<0.0386036] yes=47,no=48,missing=48
					47:[C_D_U_TITLEMD5_CITY_COEC<0.164369] yes=95,no=96,missing=96
						95:leaf=8.40898e-05
						96:leaf=-0.0113937
					48:[WORD_COUNT<1475] yes=97,no=98,missing=98
						97:leaf=-0.00247143
						98:leaf=0.00566252
				24:[C_D_U_CATEGORY_CITY_MICRO_MAX_COEC<0.133336] yes=49,no=50,missing=49
					49:[C_D_U_PUBLISHER_CITY_COEC<0.0404771] yes=99,no=100,missing=100
						99:leaf=-0.0102483
						100:leaf=-0.00369767
					50:[C_D_U_CONID_CITY_COEC<0.228096] yes=101,no=102,missing=101
						101:leaf=0.0219453
						102:leaf=-0.0265178
			12:[C_D_U_CONID_AGE_EC<295.298] yes=25,no=26,missing=26
				25:[C_D_U_PUBLISHER_CITY_COEC<0.120692] yes=51,no=52,missing=51
					51:[C_D_U_CATEGORY_AGE_MACRO_MAX_COEC<0.0429182] yes=103,no=104,missing=104
						103:leaf=-0.0329549
						104:leaf=-0.00264493
					52:[D_PUBLISHER_C<7096.27] yes=105,no=106,missing=106
						105:leaf=0.00142133
						106:leaf=0.0780715
				26:[C_D_U_PUBLISHER_AGE_COEC<0.0377801] yes=53,no=54,missing=53
					53:[C_D_U_PUBLISHER_GENDER_COEC<0.038199] yes=107,no=108,missing=108
						107:leaf=-0.00236218
						108:leaf=0.0231997
					54:[C_D_U_PUBLISHER_CITY_COEC<0.120692] yes=109,no=110,missing=109
						109:leaf=0.00550295
						110:leaf=0.025664
		6:[D_CONID_COEC<0.0987724] yes=13,no=14,missing=14
			13:[C_D_U_CONID_AGE_C<9.6156] yes=27,no=28,missing=28
				27:[C_D_U_CATEGORY_CITY_MACRO_MAX_COEC<0.096151] yes=55,no=56,missing=55
					55:[C_D_U_PUBLISHER_AGE_C<14837] yes=111,no=112,missing=112
						111:leaf=-0.024001
						112:leaf=-0.00069272
					56:[C_D_U_PUBLISHER_CITY_C<2.95522] yes=113,no=114,missing=113
						113:leaf=0.00658101
						114:leaf=0.0467241
				28:[C_D_U_CONID_GENDER_COEC<0.0776741] yes=57,no=58,missing=57
					57:[C_D_U_PUBLISHER_CITY_COEC<0.05585] yes=115,no=116,missing=116
						115:leaf=0.00294557
						116:leaf=0.0100387
					58:[C_D_U_GROUPID_GENDER_COEC<0.0900275] yes=117,no=118,missing=118
						117:leaf=0.0153514
						118:leaf=0.0257693
			14:[D_CATEGORY_MACRO_MEAN_COEC<0.0414411] yes=29,no=30,missing=29
				29:[C_D_U_CATEGORY_CITY_MACRO_MAX_COEC<0.0467601] yes=59,no=60,missing=59
					59:[D_KEYWORD_MEAN_C<92.1003] yes=119,no=120,missing=120
						119:leaf=-0.00850861
						120:leaf=0.0114236
					60:[D_KEYWORD_MACRO_MAX_COEC<0.00981492] yes=121,no=122,missing=122
						121:leaf=0.0580288
						122:leaf=0.0227885
				30:[C_D_U_CONID_GENDER_COEC<0.112663] yes=61,no=62,missing=62
					61:[C_D_U_CONID_CITY_C<20.2217] yes=123,no=124,missing=124
						123:leaf=-0.00102782
						124:leaf=0.0143052
					62:[C_D_U_CATEGORY_CITY_MICRO_MAX_COEC<0.133336] yes=125,no=126,missing=126
						125:leaf=0.019187
						126:leaf=0.0286064
booster[18]:
0:[D_TITLEMD5_COEC<0.0391915] yes=1,no=2,missing=1
	1:[D_KEYWORD_MACRO_MEAN_COEC<0.0215996] yes=3,no=4,missing=4
		3:[D_CATEGORY_MICRO_MAX_COEC<0.0281506] yes=7,no=8,missing=8
			7:[D_CATEGORY_MACRO_MAX_COEC<0.0191754] yes=15,no=16,missing=16
				15:[C_D_U_CATEGORY_GENDER_MACRO_MAX_COEC<0.0251739] yes=31,no=32,missing=31
					31:[TIME_OF_DAY<14] yes=63,no=64,missing=64
						63:leaf=-0.0509197
						64:leaf=-0.0719037
					32:[D_KEYWORD_MACRO_MAX_COEC<0.00666195] yes=65,no=66,missing=66
						65:leaf=0.0121453
						66:leaf=0.211885
				16:[TIME_OF_DAY<17] yes=33,no=34,missing=34
					33:[C_D_U_CONID_CITY_C<0.822431] yes=67,no=68,missing=68
						67:leaf=-0.00334263
						68:leaf=-0.0358926
					34:[C_D_U_CATEGORY_AGE_MICRO_MAX_COEC<0.0285697] yes=69,no=70,missing=70
						69:leaf=-0.0380202
						70:leaf=-0.062162
			8:[C_D_U_CATEGORY_CITY_MICRO_MEAN_COEC<0.0795406] yes=17,no=18,missing=18
				17:[C_D_U_CONID_CITY_C<2.39052] yes=35,no=36,missing=36
					35:[C_D_U_GROUPID_CITY_COEC<0.0361894] yes=71,no=72,missing=72
						71:leaf=-0.0228567
						72:leaf=0.0139518
					36:[C_D_U_PUBLISHER_CITY_COEC<0.0265219] yes=73,no=74,missing=73
						73:leaf=-0.0524485
						74:leaf=-0.0315586
				18:[D_CATEGORY_MICRO_MAX_COEC<0.0451057] yes=37,no=38,missing=37
					37:[U_GENDER<2] yes=75,no=76,missing=75
						75:leaf=-0.0315609
						76:leaf=0.0053997
					38:[D_CATEGORY_MICRO_MAX_COEC<0.0568536] yes=77,no=78,missing=78
						77:leaf=0.0173252
						78:leaf=-0.0375604
		4:[IMAGE_COUNT<0.999999] yes=9,no=10,missing=10
			9:[C_D_U_CONID_AGE_EC<93.7412] yes=19,no=20,missing=19
				19:[C_D_U_CATEGORY_CITY_MACRO_MEAN_COEC<0.0404997] yes=39,no=40,missing=40
					39:[C_D_U_TITLEMD5_CITY_COEC<3.50251] yes=79,no=80,missing=80
						79:leaf=-0.03207
						80:leaf=-0.0593318
					40:[D_CATEGORY_MACRO_MEAN_COEC<0.0344163] yes=81,no=82,missing=82
						81:leaf=-0.0486477
						82:leaf=-0.0218416
				20:[WORD_COUNT<1237] yes=41,no=42,missing=42
					41:[C_D_U_PUBLISHER_CITY_COEC<0.0265219] yes=83,no=84,missing=84
						83:leaf=-0.0420628
						84:leaf=-0.0196958
					42:[C_D_U_PUBLISHER_CITY_COEC<0.0452108] yes=85,no=86,missing=86
						85:leaf=-0.0152068
						86:leaf=0.00671584
			10:[C_D_U_GROUPID_GENDER_COEC<0.0357656] yes=21,no=22,missing=21
				21:[C_D_U_CATEGORY_CITY_MACRO_MEAN_COEC<0.0454826] yes=43,no=44,missing=44
					43:[D_CATEGORY_MICRO_MAX_COEC<0.0454983] yes=87,no=88,missing=88
						87:leaf=-0.010177
						88:leaf=-0.0239586
					44:[C_D_U_CATEGORY_CITY_MACRO_MEAN_COEC<0.145043] yes=89,no=90,missing=89
						89:leaf=-0.00636241
						90:leaf=0.00955992
				22:[WORD_COUNT<4113] yes=45,no=46,missing=46
					45:[C_D_U_CATEGORY_CITY_MICRO_MEAN_COEC<0.0570548] yes=91,no=92,missing=92
						91:leaf=-0.00446934
						92:leaf=0.00567159
					46:[D_PUBLISHER_COEC<0.0361724] yes=93,no=94,missing=94
						93:leaf=0.0224106
						94:leaf=0.000480005
	2:[D_KEYWORD_MACRO_MEAN_COEC<0.0563942] yes=5,no=6,missing=6
		5:[D_KEYWORD_MEAN_EC<1690.7] yes=11,no=12,missing=12
			11:[C_D_U_CONID_AGE_EC<105.647] yes=23,no=24,missing=23
				23:[D_KEYWORD_MACRO_MEAN_COEC<0.0277749] yes=47,no=48,missing=48
					47:[D_KEYWORD_MACRO_MEAN_COEC<0.0175721] yes=95,no=96,missing=96
						95:leaf=-0.104034
						96:leaf=-0.0410264
					48:[D_KEYWORD_MEAN_C<16.5453] yes=97,no=98,missing=98
						97:leaf=-0.0345966
						98:leaf=-0.0092151
				24:[C_D_U_CATEGORY_CITY_MACRO_MEAN_COEC<0.0939858] yes=49,no=50,missing=49
					49:[D_CONID_COEC<0.0595667] yes=99,no=100,missing=100
						99:leaf=-0.00219101
						100:leaf=0.00951407
					50:[C_D_U_CONID_CITY_C<0.40769] yes=101,no=102,missing=101
						101:leaf=0.0312851
						102:leaf=-0.0213078
			12:[WORD_COUNT<2083] yes=25,no=26,missing=26
				25:[TIME_OF_DAY<16] yes=51,no=52,missing=52
					51:[C_D_U_TITLEMD5_AGE_COEC<0.0550505] yes=103,no=104,missing=103
						103:leaf=0.00024964
						104:leaf=0.00800624
					52:[C_D_U_PUBLISHER_CITY_COEC<0.0691059] yes=105,no=106,missing=105
						105:leaf=-0.00621313
						106:leaf=0.00493701
				26:[TIME_OF_DAY<22] yes=53,no=54,missing=54
					53:[C_D_U_CATEGORY_CITY_MACRO_MAX_COEC<0.0251264] yes=107,no=108,missing=108
						107:leaf=0.00195965
						108:leaf=0.00951184
					54:[C_D_U_CATEGORY_CITY_MACRO_MAX_COEC<0.0424065] yes=109,no=110,missing=109
						109:leaf=-0.00923451
						110:leaf=0.00461268
		6:[C_D_U_PUBLISHER_CITY_COEC<0.0712389] yes=13,no=14,missing=14
			13:[C_D_U_CONID_CITY_COEC<0.0831433] yes=27,no=28,missing=27
				27:[C_D_U_CONID_AGE_C<25.9057] yes=55,no=56,missing=55
					55:[D_CATEGORY_MACRO_MAX_COEC<0.0356411] yes=111,no=112,missing=112
						111:leaf=-0.0214174
						112:leaf=0.00250179
					56:[C_D_U_TITLEMD5_GENDER_COEC<0.0882458] yes=113,no=114,missing=114
						113:leaf=0.00210516
						114:leaf=0.013921
				28:[TIME_OF_DAY<18] yes=57,no=58,missing=58
					57:[C_D_U_CONID_AGE_C<22.2508] yes=115,no=116,missing=116
						115:leaf=-0.0506126
						116:leaf=0.0180609
					58:[C_D_U_PUBLISHER_GENDER_C<7160.74] yes=117,no=118,missing=117
						117:leaf=0.00844937
						118:leaf=-0.0208589
			14:[D_PUBLISHER_C<23953] yes=29,no=30,missing=30
				29:[D_PUBLISHER_COEC<0.057041] yes=59,no=60,missing=60
					59:[DAY_OF_WEEK<6] yes=119,no=120,missing=120
						119:leaf=0.000267628
						120:leaf=0.0181857
					60:[D_KEYWORD_MICRO_MEAN_COEC<0.0642356] yes=121,no=122,missing=122
						121:leaf=-0.0277006
						122:leaf=0.0174887
				30:[D_GROUPID_COEC<0.13388] yes=61,no=62,missing=62
					61:[C_D_U_PUBLISHER_CITY_COEC<0.12938] yes=123,no=124,missing=123
						123:leaf=0.0181021
						124:leaf=0.0352577
					62:[IMAGE_COUNT<0.999999] yes=125,no=126,missing=126
						125:leaf=-0.270739
						126:leaf=0.0349477
booster[19]:
0:[D_CONID_COEC<0.0329506] yes=1,no=2,missing=1
	1:[D_GROUPID_COEC<0.0136141] yes=3,no=4,missing=4
		3:[C_D_U_CATEGORY_CITY_MICRO_MEAN_COEC<0.0464347] yes=7,no=8,missing=8
			7:[IMAGE_COUNT<3] yes=15,no=16,missing=16
				15:[C_D_U_CONID_CITY_COEC<0.101973] yes=31,no=32,missing=32
					31:[C_D_U_CONID_AGE_EC<4.995] yes=63,no=64,missing=64
						63:leaf=0.105304
						64:leaf=-0.0297398
					32:[C_D_U_CONID_AGE_EC<4.995] yes=65,no=66,missing=66
						65:leaf=-0.0326071
						66:leaf=-0.0556683
				16:[C_D_U_PUBLISHER_GENDER_COEC<0.0497549] yes=33,no=34,missing=33
					33:[WORD_COUNT<2566] yes=67,no=68,missing=68
						67:leaf=-0.00466871
						68:leaf=-0.0380581
					34:[C_D_U_PUBLISHER_AGE_COEC<0.0562498] yes=69,no=70,missing=69
						69:leaf=0.114816
						70:leaf=-0.0737535
			8:[D_PUBLISHER_COEC<0.0204458] yes=17,no=18,missing=18
				17:[WORD_COUNT<1756] yes=35,no=36,missing=36
					35:[D_CATEGORY_MACRO_MEAN_COEC<0.0346134] yes=71,no=72,missing=71
						71:leaf=-0.086854
						72:leaf=-0.0426678
					36:[D_KW_LEN<13] yes=73,no=74,missing=74
						73:leaf=0.305349
						74:leaf=-0.0351633
				18:[C_D_U_CATEGORY_AGE_MACRO_MEAN_COEC<0.0487749] yes=37,no=38,missing=37
					37:[IMAGE_COUNT<0.999999] yes=75,no=76,missing=76
						75:leaf=-0.0466023
						76:leaf=-0.0188311
					38:[C_D_U_CONID_AGE_EC<111.114] yes=77,no=78,missing=77
						77:leaf=0.00849187
						78:leaf=-0.0667137
		4:[C_D_U_PUBLISHER_CITY_COEC<0.0623003] yes=9,no=10,missing=9
			9:[C_D_U_CATEGORY_CITY_MACRO_MAX_COEC<0.0260704] yes=19,no=20,missing=20
				19:[C_D_U_TITLEMD5_CITY_COEC<0.120484] yes=39,no=40,missing=40
					39:[C_D_U_PUBLISHER_CITY_EC<0.702935] yes=79,no=80,missing=80
						79:leaf=0.110461
						80:leaf=-0.0138052
					40:[C_D_U_CONID_AGE_C<0.990024] yes=81,no=82,missing=81
						81:leaf=-0.0355589
						82:leaf=-0.0211188
				20:[TIME_OF_DAY<18] yes=41,no=42,missing=42
					41:[C_D_U_GROUPID_AGE_COEC<0.0201525] yes=83,no=84,missing=83
						83:leaf=-0.0114968
						84:leaf=-0.00319735
					42:[U_GENDER<2] yes=85,no=86,missing=85
						85:leaf=-0.0203902
						86:leaf=-0.00610344
			10:[C_D_U_CATEGORY_CITY_MICRO_MEAN_COEC<0.0676066] yes=21,no=22,missing=22
				21:[D_GROUPID_COEC<0.0272439] yes=43,no=44,missing=44
					43:[D_KEYWORD_MEAN_C<209.243] yes=87,no=88,missing=88
						87:leaf=-0.0124705
						88:leaf=-0.0426632
					44:[C_D_U_CATEGORY_CITY_MACRO_MEAN_COEC<0.00844105] yes=89,no=90,missing=90
						89:leaf=0.0122699
						90:leaf=-0.00840295
				22:[C_D_U_CONID_CITY_C<0.736559] yes=45,no=46,missing=45
					45:[C_D_U_PUBLISHER_CITY_C<1.94275] yes=91,no=92,missing=92
						91:leaf=-0.00202354
						92:leaf=0.020507
					46:[C_D_U_CONID_AGE_EC<1296.02] yes=93,no=94,missing=93
						93:leaf=-0.0421285
						94:leaf=0.00128923
	2:[D_CONID_COEC<0.0560008] yes=5,no=6,missing=6
		5:[TIME_OF_DAY<19] yes=11,no=12,missing=12
			11:[C_D_U_PUBLISHER_CITY_COEC<0.0773794] yes=23,no=24,missing=23
				23:[D_KEYWORD_MEAN_EC<1969.72] yes=47,no=48,missing=48
					47:[D_KEYWORD_MACRO_MEAN_COEC<0.0258014] yes=95,no=96,missing=96
						95:leaf=-0.0411997
						96:leaf=-0.00492057
					48:[C_D_U_CONID_GENDER_COEC<0.0500348] yes=97,no=98,missing=97
						97:leaf=0.000154264
						98:leaf=0.00880955
				24:[C_D_U_PUBLISHER_CITY_C<0.994999] yes=49,no=50,missing=50
					49:[C_D_U_CONID_CITY_COEC<0.221878] yes=99,no=100,missing=99
						99:leaf=-0.00582273
						100:leaf=-0.0267189
					50:[C_D_U_PUBLISHER_CITY_COEC<0.155438] yes=101,no=102,missing=102
						101:leaf=0.0106795
						102:leaf=0.0323994
			12:[C_D_U_CATEGORY_CITY_MICRO_MAX_COEC<0.229247] yes=25,no=26,missing=25
				25:[DAY_OF_WEEK<5] yes=51,no=52,missing=52
					51:[DAY_OF_WEEK<0.999999] yes=103,no=104,missing=104
						103:leaf=-0.00400745
						104:leaf=-0.0131848
					52:[D_CATEGORY_MACRO_MEAN_COEC<0.030396] yes=105,no=106,missing=106
						105:leaf=-0.0248055
						106:leaf=-0.00160005
				26:[C_D_U_CONID_CITY_C<0.759047] yes=53,no=54,missing=53
					53:[C_D_U_PUBLISHER_CITY_C<0.994999] yes=107,no=108,missing=107
						107:leaf=0.0143118
						108:leaf=0.0665058
					54:[D_CATEGORY_MACRO_MEAN_COEC<0.0382395] yes=109,no=110,missing=110
						109:leaf=-0.0626553
						110:leaf=0.00432415
		6:[D_CONID_COEC<0.100688] yes=13,no=14,missing=14
			13:[D_KEYWORD_MEAN_EC<5151.12] yes=27,no=28,missing=28
				27:[C_D_U_CONID_AGE_C<12.3416] yes=55,no=56,missing=55
					55:[D_KEYWORD_MICRO_MEAN_COEC<0.0451806] yes=111,no=112,missing=112
						111:leaf=-0.0182019
						112:leaf=-0.000121705
					56:[C_D_U_PUBLISHER_CITY_COEC<0.0738934] yes=113,no=114,missing=113
						113:leaf=0.00402618
						114:leaf=0.01671
				28:[TIME_OF_DAY<16] yes=57,no=58,missing=58
					57:[C_D_U_CATEGORY_CITY_MACRO_MAX_COEC<0.0374767] yes=115,no=116,missing=116
						115:leaf=0.00492049
						116:leaf=0.0147638
					58:[D_CATEGORY_MICRO_MEAN_COEC<0.0446094] yes=117,no=118,missing=117
						117:leaf=0.015448
						118:leaf=0.00271886
			14:[U_GENDER<2] yes=29,no=30,missing=30
				29:[D_CATEGORY_MACRO_MAX_COEC<0.123529] yes=59,no=60,missing=59
					59:[D_KEYWORD_MEAN_EC<1084.38] yes=119,no=120,missing=120
						119:leaf=0.00460558
						120:leaf=0.0274824
					60:[D_PUBLISHER_C<44633.6] yes=121,no=122,missing=122
						121:leaf=0.0531737
						122:leaf=0.0366631
				30:[C_D_U_CONID_GENDER_COEC<0.117167] yes=61,no=62,missing=62
					61:[C_D_U_CONID_CITY_C<18.9357] yes=123,no=124,missing=124
						123:leaf=-0.00369942
						124:leaf=0.00966662
					62:[DAY_OF_WEEK<0.999999] yes=125,no=126,missing=126
						125:leaf=-0.0250057
						126:leaf=0.0166631
booster[20]:
0:[D_GROUPID_COEC<0.0327481] yes=1,no=2,missing=1
	1:[D_GROUPID_COEC<0.0146001] yes=3,no=4,missing=4
		3:[C_D_U_CATEGORY_CITY_MICRO_MEAN_COEC<0.0553914] yes=7,no=8,missing=8
			7:[C_D_U_PUBLISHER_CITY_COEC<0.0198017] yes=15,no=16,missing=15
				15:[C_D_U_CONID_AGE_C<8.21629] yes=31,no=32,missing=31
					31:[D_CATEGORY_MACRO_MAX_COEC<0.0349203] yes=63,no=64,missing=64
						63:leaf=-0.0553891
						64:leaf=-0.0365438
					32:[C_D_U_PUBLISHER_CITY_EC<1.25131] yes=65,no=66,missing=65
						65:leaf=0.131553
						66:leaf=0.00100154
				16:[C_D_U_CONID_AGE_EC<4.81339] yes=33,no=34,missing=34
					33:[D_KEYWORD_MACRO_MEAN_COEC<0.0311001] yes=67,no=68,missing=68
						67:leaf=-0.0147564
						68:leaf=0.0476677
					34:[C_D_U_PUBLISHER_GENDER_COEC<0.0274975] yes=69,no=70,missing=70
						69:leaf=-0.0778783
						70:leaf=-0.0357675
			8:[D_CATEGORY_MICRO_MAX_COEC<0.0435326] yes=17,no=18,missing=17
				17:[C_D_U_CATEGORY_CITY_MICRO_MEAN_COEC<0.195535] yes=35,no=36,missing=35
					35:[IMAGE_COUNT<0.999999] yes=71,no=72,missing=72
						71:leaf=-0.0536913
						72:leaf=-0.0259141
					36:[C_D_U_PUBLISHER_CITY_C<13.6776] yes=73,no=74,missing=73
						73:leaf=0.00299023
						74:leaf=0.130568
				18:[D_CATEGORY_MICRO_MEAN_COEC<0.0578365] yes=37,no=38,missing=38
					37:[C_D_U_CATEGORY_CITY_MICRO_MEAN_COEC<0.111932] yes=75,no=76,missing=76
						75:leaf=-0.0117717
						76:leaf=0.0172103
					38:[C_D_U_PUBLISHER_CITY_COEC<0.090824] yes=77,no=78,missing=77
						77:leaf=-0.0611983
						78:leaf=0.00626135
		4:[C_D_U_PUBLISHER_CITY_COEC<0.0283615] yes=9,no=10,missing=10
			9:[C_D_U_CONID_AGE_C<4.9305] yes=19,no=20,missing=19
				19:[C_D_U_GROUPID_CITY_COEC<0.101839] yes=39,no=40,missing=40
					39:[D_CONID_COEC<0.0754764] yes=79,no=80,missing=79
						79:leaf=-0.0170052
						80:leaf=0.0517329
					40:[IMAGE_COUNT<0.999999] yes=81,no=82,missing=82
						81:leaf=-0.0517838
						82:leaf=-0.0287939
				20:[C_D_U_PUBLISHER_GENDER_EC<62587.9] yes=41,no=42,missing=41
					41:[D_CATEGORY_MICRO_MAX_COEC<0.046129] yes=83,no=84,missing=84
						83:leaf=-0.00469677
						84:leaf=-0.0183518
					42:[C_D_U_CATEGORY_AGE_MICRO_MAX_COEC<0.0580742] yes=85,no=86,missing=86
						85:leaf=-0.0446834
						86:leaf=-0.128649
			10:[C_D_U_CATEGORY_CITY_MACRO_MEAN_COEC<0.214378] yes=21,no=22,missing=21
				21:[C_D_U_PUBLISHER_GENDER_EC<2997.98] yes=43,no=44,missing=43
					43:[D_PUBLISHER_COEC<0.0202763] yes=87,no=88,missing=88
						87:leaf=-0.0353768
						88:leaf=-0.00948394
					44:[C_D_U_CATEGORY_CITY_MACRO_MEAN_COEC<0.0630565] yes=89,no=90,missing=90
						89:leaf=-0.00581687
						90:leaf=0.00713468
				22:[C_D_U_TITLEMD5_CITY_COEC<0.257301] yes=45,no=46,missing=45
					45:[C_D_U_PUBLISHER_CITY_C<0.994999] yes=91,no=92,missing=91
						91:leaf=0.000382961
						92:leaf=0.0451071
					46:[C_D_U_CONID_CITY_C<0.941622] yes=93,no=94,missing=93
						93:leaf=-0.0879852
						94:leaf=-0.0287425
	2:[D_CONID_COEC<0.0566539] yes=5,no=6,missing=5
		5:[C_D_U_PUBLISHER_CITY_COEC<0.0990051] yes=11,no=12,missing=11
			11:[C_D_U_CATEGORY_CITY_MACRO_MAX_COEC<0.0272817] yes=23,no=24,missing=24
				23:[D_CATEGORY_MICRO_MAX_COEC<0.0514467] yes=47,no=48,missing=48
					47:[D_PUBLISHER_COEC<0.0317493] yes=95,no=96,missing=96
						95:leaf=-0.0138904
						96:leaf=-0.00319421
					48:[C_D_U_CONID_AGE_EC<3466.99] yes=97,no=98,missing=97
						97:leaf=-0.0223332
						98:leaf=-0.00301045
				24:[WORD_COUNT<1401] yes=49,no=50,missing=50
					49:[D_KW_LEN<15] yes=99,no=100,missing=100
						99:leaf=-0.0133075
						100:leaf=-0.00385495
					50:[D_CATEGORY_MICRO_MAX_COEC<0.053861] yes=101,no=102,missing=101
						101:leaf=0.00307186
						102:leaf=-0.00602717
			12:[C_D_U_PUBLISHER_CITY_C<0.994999] yes=25,no=26,missing=26
				25:[C_D_U_TITLEMD5_CITY_COEC<0.140367] yes=51,no=52,missing=51
					51:[C_D_U_CATEGORY_CITY_MICRO_MAX_COEC<0.365808] yes=103,no=104,missing=104
						103:leaf=-0.0076953
						104:leaf=0.0180762
					52:[D_KEYWORD_MACRO_MEAN_COEC<0.0409689] yes=105,no=106,missing=106
						105:leaf=-0.0352009
						106:leaf=-0.00930611
				26:[C_D_U_CONID_CITY_C<0.751476] yes=53,no=54,missing=53
					53:[C_D_U_PUBLISHER_CITY_COEC<0.168089] yes=107,no=108,missing=108
						107:leaf=0.0161376
						108:leaf=0.0459969
					54:[C_D_U_PUBLISHER_CITY_EC<30.5608] yes=109,no=110,missing=110
						109:leaf=-0.0178688
						110:leaf=0.00631581
		6:[C_D_U_CATEGORY_CITY_MICRO_MEAN_COEC<0.0583714] yes=13,no=14,missing=14
			13:[C_D_U_CONID_AGE_C<52.22] yes=27,no=28,missing=27
				27:[C_D_U_GROUPID_CITY_COEC<0.250312] yes=55,no=56,missing=56
					55:[C_D_U_CONID_CITY_COEC<0.0575386] yes=111,no=112,missing=111
						111:leaf=-0.00116931
						112:leaf=0.00812168
					56:[D_TITLEMD5_COEC<0.118959] yes=113,no=114,missing=114
						113:leaf=-0.0168977
						114:leaf=0.00673097
				28:[C_D_U_GROUPID_GENDER_COEC<0.0676278] yes=57,no=58,missing=58
					57:[C_D_U_CATEGORY_GENDER_MACRO_MAX_COEC<0.0379806] yes=115,no=116,missing=116
						115:leaf=-0.0121315
						116:leaf=0.000788612
					58:[C_D_U_CONID_GENDER_COEC<0.0995971] yes=117,no=118,missing=117
						117:leaf=0.00846433
						118:leaf=0.0225709
			14:[D_CATEGORY_MACRO_MEAN_COEC<0.0507557] yes=29,no=30,missing=29
				29:[C_D_U_PUBLISHER_AGE_C<2578.15] yes=59,no=60,missing=59
					59:[TIME_OF_DAY<20] yes=119,no=120,missing=120
						119:leaf=0.00411214
						120:leaf=-0.0073616
					60:[C_D_U_CONID_GENDER_COEC<0.0796395] yes=121,no=122,missing=122
						121:leaf=0.000518365
						122:leaf=0.0147644
				30:[D_KEYWORD_MICRO_MAX_COEC<0.122953] yes=61,no=62,missing=62
					61:[TIME_OF_DAY<22] yes=123,no=124,missing=124
						123:leaf=0.0129616
						124:leaf=0.00231681
					62:[D_KEYWORD_MAX_EC<657.643] yes=125,no=126,missing=126
						125:leaf=0.0132361
						126:leaf=0.0257447
booster[21]:
0:[D_GROUPID_COEC<0.0439667] yes=1,no=2,missing=1
	1:[D_KEYWORD_MACRO_MEAN_COEC<0.0217109] yes=3,no=4,missing=4
		3:[D_PUBLISHER_COEC<0.0203718] yes=7,no=8,missing=8
			7:[C_D_U_GROUPID_CITY_COEC<4.36368] yes=15,no=16,missing=16
				15:[C_D_U_PUBLISHER_CITY_EC<0.663907] yes=31,no=32,missing=32
					31:[C_D_U_CATEGORY_GENDER_MACRO_MAX_COEC<0.0340697] yes=63,no=64,missing=64
						63:leaf=-0.12963
						64:leaf=0.220196
					32:[C_D_U_CATEGORY_CITY_MACRO_MAX_COEC<0.0424741] yes=65,no=66,missing=65
						65:leaf=-0.0400189
						66:leaf=0.02323
				16:[D_KEYWORD_MAX_EC<3980.11] yes=33,no=34,missing=34
					33:[D_CATEGORY_MICRO_MEAN_COEC<0.0407022] yes=67,no=68,missing=68
						67:leaf=-0.057392
						68:leaf=-0.0304714
					34:[C_D_U_CATEGORY_AGE_MACRO_MEAN_COEC<0.0387738] yes=69,no=70,missing=69
						69:leaf=0.219664
						70:leaf=0.428343
			8:[C_D_U_CATEGORY_CITY_MACRO_MAX_COEC<0.0252934] yes=17,no=18,missing=18
				17:[D_PUBLISHER_COEC<0.0859441] yes=35,no=36,missing=36
					35:[D_CATEGORY_MACRO_MEAN_COEC<0.0579666] yes=71,no=72,missing=72
						71:leaf=-0.0386292
						72:leaf=0.0739008
					36:[C_D_U_PUBLISHER_CITY_EC<1.20943] yes=73,no=74,missing=73
						73:leaf=0.209637
						74:leaf=-0.116622
				18:[IMAGE_COUNT<0.999999] yes=37,no=38,missing=38
					37:[D_PUBLISHER_EC<610909] yes=75,no=76,missing=76
						75:leaf=-0.0331711
						76:leaf=-0.0677828
					38:[DAY_OF_WEEK<3] yes=77,no=78,missing=78
						77:leaf=-0.0222657
						78:leaf=-0.00765771
		4:[C_D_U_GROUPID_GENDER_COEC<0.0390404] yes=9,no=10,missing=9
			9:[WORD_COUNT<3767] yes=19,no=20,missing=20
				19:[C_D_U_PUBLISHER_CITY_COEC<0.0412307] yes=39,no=40,missing=40
					39:[D_CATEGORY_MICRO_MAX_COEC<0.0458262] yes=79,no=80,missing=80
						79:leaf=-0.0088573
						80:leaf=-0.0187382
					40:[TIME_OF_DAY<10] yes=81,no=82,missing=82
						81:leaf=-0.000881251
						82:leaf=-0.00862704
				20:[C_D_U_CATEGORY_CITY_MACRO_MEAN_COEC<0.0398375] yes=41,no=42,missing=42
					41:[C_D_U_TITLEMD5_CITY_COEC<0.123838] yes=83,no=84,missing=84
						83:leaf=0.000926617
						84:leaf=-0.0151438
					42:[D_KEYWORD_MAX_C<302.806] yes=85,no=86,missing=86
						85:leaf=0.0056994
						86:leaf=-0.0082187
			10:[C_D_U_CONID_AGE_C<25.5501] yes=21,no=22,missing=22
				21:[C_D_U_PUBLISHER_AGE_EC<47196.3] yes=43,no=44,missing=44
					43:[D_KW_LEN<15] yes=87,no=88,missing=88
						87:leaf=-0.0413912
						88:leaf=-0.00988464
					44:[C_D_U_TITLEMD5_GENDER_COEC<0.0203311] yes=89,no=90,missing=90
						89:leaf=0.0457846
						90:leaf=0.00166663
				22:[C_D_U_PUBLISHER_AGE_COEC<0.0382948] yes=45,no=46,missing=45
					45:[C_D_U_PUBLISHER_GENDER_COEC<0.0388152] yes=91,no=92,missing=91
						91:leaf=0.00455033
						92:leaf=0.0180252
					46:[C_D_U_PUBLISHER_CITY_COEC<0.0483526] yes=93,no=94,missing=93
						93:leaf=-0.000931494
						94:leaf=0.00943851
	2:[D_CONID_COEC<0.0748844] yes=5,no=6,missing=5
		5:[TIME_OF_DAY<19] yes=11,no=12,missing=12
			11:[D_KEYWORD_MACRO_MEAN_COEC<0.0337335] yes=23,no=24,missing=24
				23:[C_D_U_CONID_AGE_C<3.98] yes=47,no=48,missing=47
					47:[C_D_U_CATEGORY_CITY_MICRO_MEAN_COEC<0.0903126] yes=95,no=96,missing=95
						95:leaf=-0.0290643
						96:leaf=0.014293
					48:[D_CATEGORY_MACRO_MAX_COEC<0.0220764] yes=97,no=98,missing=97
						97:leaf=0.0249879
						98:leaf=-0.00976198
				24:[C_D_U_CATEGORY_CITY_MICRO_MEAN_COEC<0.0491704] yes=49,no=50,missing=50
					49:[C_D_U_PUBLISHER_CITY_C<482.382] yes=99,no=100,missing=100
						99:leaf=0.00213031
						100:leaf=-0.00936328
					50:[WORD_COUNT<4019] yes=101,no=102,missing=102
						101:leaf=0.00536012
						102:leaf=0.0134995
			12:[WORD_COUNT<2707] yes=25,no=26,missing=26
				25:[C_D_U_PUBLISHER_CITY_COEC<0.0463919] yes=51,no=52,missing=52
					51:[C_D_U_GROUPID_GENDER_COEC<0.0586465] yes=103,no=104,missing=103
						103:leaf=-0.0130785
						104:leaf=0.000564279
					52:[D_KEYWORD_MICRO_MEAN_COEC<0.0368724] yes=105,no=106,missing=106
						105:leaf=-0.0637092
						106:leaf=-0.00316487
				26:[D_KEYWORD_MICRO_MEAN_COEC<0.0450171] yes=53,no=54,missing=54
					53:[D_KEYWORD_MACRO_MAX_COEC<0.0130505] yes=107,no=108,missing=108
						107:leaf=-0.00964618
						108:leaf=-0.0918704
					54:[D_KEYWORD_MICRO_MEAN_COEC<0.0508523] yes=109,no=110,missing=110
						109:leaf=0.0108469
						110:leaf=-8.80172e-05
		6:[C_D_U_PUBLISHER_CITY_COEC<0.0424983] yes=13,no=14,missing=14
			13:[C_D_U_CONID_AGE_C<11.365] yes=27,no=28,missing=27
				27:[C_D_U_CATEGORY_GENDER_MACRO_MEAN_COEC<0.04679] yes=55,no=56,missing=56
					55:[C_D_U_PUBLISHER_GENDER_COEC<0.0560801] yes=111,no=112,missing=112
						111:leaf=-0.0293566
						112:leaf=-0.119274
					56:[D_CONID_COEC<0.14017] yes=113,no=114,missing=114
						113:leaf=-0.00287901
						114:leaf=0.0142604
				28:[C_D_U_CONID_GENDER_COEC<0.0890097] yes=57,no=58,missing=58
					57:[C_D_U_GROUPID_CITY_COEC<0.486218] yes=115,no=116,missing=115
						115:leaf=-0.00346542
						116:leaf=-0.244978
					58:[D_PUBLISHER_COEC<0.0396968] yes=117,no=118,missing=118
						117:leaf=0.0347386
						118:leaf=0.0104382
			14:[C_D_U_CONID_GENDER_COEC<0.111449] yes=29,no=30,missing=29
				29:[D_GROUPID_COEC<0.13388] yes=59,no=60,missing=60
					59:[TIME_OF_DAY<16] yes=119,no=120,missing=120
						119:leaf=0.0122845
						120:leaf=0.0063265
					60:[DAY_OF_WEEK<0.999999] yes=121,no=122,missing=122
						121:leaf=-0.0647387
						122:leaf=0.0223638
				30:[C_D_U_CONID_AGE_C<9.82671] yes=61,no=62,missing=62
					61:[D_PUBLISHER_EC<715731] yes=123,no=124,missing=124
						123:leaf=0.00734992
						124:leaf=-0.0539065
					62:[U_GENDER<2] yes=125,no=126,missing=126
						125:leaf=0.0283964
						126:leaf=0.0171481
booster[22]:
0:[D_GROUPID_COEC<0.033172] yes=1,no=2,missing=1
	1:[D_KEYWORD_MACRO_MEAN_COEC<0.0175721] yes=3,no=4,missing=4
		3:[C_D_U_PUBLISHER_CITY_COEC<0.0222737] yes=7,no=8,missing=8
			7:[C_D_U_PUBLISHER_GENDER_EC<127493] yes=15,no=16,missing=15
				15:[D_CATEGORY_MACRO_MEAN_COEC<0.0368309] yes=31,no=32,missing=32
					31:[D_KEYWORD_MICRO_MAX_COEC<0.0600329] yes=63,no=64,missing=64
						63:leaf=-0.0582465
						64:leaf=-0.0279182
					32:[C_D_U_PUBLISHER_CITY_EC<0.69356] yes=65,no=66,missing=66
						65:leaf=0.0386139
						66:leaf=-0.0382294
				16:[C_D_U_CATEGORY_CITY_MICRO_MAX_COEC<0.00852223] yes=33,no=34,missing=34
					33:[D_KEYWORD_MICRO_MEAN_COEC<0.0435048] yes=67,no=68,missing=68
						67:leaf=0.392536
						68:leaf=0.0407711
					34:leaf=-0.106355
			8:[WORD_COUNT<5985] yes=17,no=18,missing=18
				17:[D_CATEGORY_MICRO_MAX_COEC<0.0294611] yes=35,no=36,missing=36
					35:[D_KEYWORD_MAX_C<188.108] yes=69,no=70,missing=70
						69:leaf=-0.0433907
						70:leaf=0.171266
					36:[D_KEYWORD_MEAN_EC<1805.5] yes=71,no=72,missing=72
						71:leaf=-0.0240056
						72:leaf=0.0358885
				18:[C_D_U_PUBLISHER_CITY_COEC<0.464875] yes=37,no=38,missing=37
					37:[TIME_OF_DAY<17] yes=73,no=74,missing=74
						73:leaf=0.0108009
						74:leaf=-0.024984
					38:[C_D_U_PUBLISHER_AGE_EC<111551] yes=75,no=76,missing=76
						75:leaf=0.236859
						76:leaf=-0.134598
		4:[C_D_U_GROUPID_AGE_COEC<0.0216398] yes=9,no=10,missing=9
			9:[C_D_U_CATEGORY_CITY_MACRO_MAX_COEC<0.030062] yes=19,no=20,missing=20
				19:[IMAGE_COUNT<0.999999] yes=39,no=40,missing=40
					39:[D_PUBLISHER_EC<731428] yes=77,no=78,missing=78
						77:leaf=-0.0411909
						78:leaf=-0.0929767
					40:[D_CONID_COEC<0.0249972] yes=79,no=80,missing=80
						79:leaf=-0.0264547
						80:leaf=-0.0134427
				20:[U_GENDER<2] yes=41,no=42,missing=41
					41:[WORD_COUNT<2435] yes=81,no=82,missing=82
						81:leaf=-0.0144134
						82:leaf=-0.00575755
					42:[C_D_U_CATEGORY_CITY_MACRO_MEAN_COEC<0.152546] yes=83,no=84,missing=84
						83:leaf=-0.0128185
						84:leaf=0.0238044
			10:[TIME_OF_DAY<20] yes=21,no=22,missing=22
				21:[C_D_U_CATEGORY_CITY_MICRO_MAX_COEC<0.06187] yes=43,no=44,missing=43
					43:[C_D_U_PUBLISHER_CITY_COEC<0.0295705] yes=85,no=86,missing=86
						85:leaf=-0.0100704
						86:leaf=-0.00164669
					44:[C_D_U_CATEGORY_GENDER_MACRO_MEAN_COEC<0.0332949] yes=87,no=88,missing=88
						87:leaf=-0.0289434
						88:leaf=0.00808764
				22:[C_D_U_PUBLISHER_CITY_C<0.690093] yes=45,no=46,missing=46
					45:[D_CONID_COEC<0.0249972] yes=89,no=90,missing=89
						89:leaf=-0.0516479
						90:leaf=-0.0211299
					46:[C_D_U_CATEGORY_CITY_MACRO_MAX_COEC<0.110644] yes=91,no=92,missing=91
						91:leaf=-0.0126534
						92:leaf=0.0180745
	2:[C_D_U_PUBLISHER_CITY_COEC<0.0484035] yes=5,no=6,missing=6
		5:[C_D_U_CONID_AGE_C<71.2482] yes=11,no=12,missing=11
			11:[C_D_U_GROUPID_CITY_COEC<0.0342207] yes=23,no=24,missing=23
				23:[IMAGE_COUNT<3] yes=47,no=48,missing=48
					47:[TIME_OF_DAY<21] yes=93,no=94,missing=94
						93:leaf=-0.00833443
						94:leaf=-0.0199214
					48:[D_PUBLISHER_COEC<0.0307686] yes=95,no=96,missing=96
						95:leaf=-0.013939
						96:leaf=-0.000776446
				24:[D_CATEGORY_MACRO_MAX_COEC<0.0423982] yes=49,no=50,missing=50
					49:[D_KW_LEN<20] yes=97,no=98,missing=98
						97:leaf=-0.010182
						98:leaf=0.00724164
					50:[C_D_U_CONID_CITY_C<0.951109] yes=99,no=100,missing=100
						99:leaf=-0.0144193
						100:leaf=-0.000244989
			12:[C_D_U_CATEGORY_GENDER_MACRO_MEAN_COEC<0.0381216] yes=25,no=26,missing=26
				25:[C_D_U_PUBLISHER_GENDER_EC<5681.25] yes=51,no=52,missing=52
					51:[WORD_COUNT<3648] yes=101,no=102,missing=102
						101:leaf=-0.00569722
						102:leaf=0.0255743
					52:[C_D_U_CATEGORY_CITY_MACRO_MEAN_COEC<0.0149683] yes=103,no=104,missing=104
						103:leaf=-0.0266215
						104:leaf=-0.0131434
				26:[WORD_COUNT<2083] yes=53,no=54,missing=54
					53:[DAY_OF_WEEK<5] yes=105,no=106,missing=106
						105:leaf=-0.0023496
						106:leaf=0.00592083
					54:[C_D_U_CATEGORY_CITY_MACRO_MAX_COEC<0.0175298] yes=107,no=108,missing=107
						107:leaf=0.000252732
						108:leaf=0.00963854
		6:[D_GROUPID_COEC<0.065934] yes=13,no=14,missing=14
			13:[TIME_OF_DAY<20] yes=27,no=28,missing=28
				27:[C_D_U_PUBLISHER_AGE_EC<35098.6] yes=55,no=56,missing=55
					55:[D_KEYWORD_MEAN_EC<772.13] yes=109,no=110,missing=110
						109:leaf=-0.0136214
						110:leaf=0.00234192
					56:[C_D_U_PUBLISHER_CITY_COEC<0.124701] yes=111,no=112,missing=111
						111:leaf=0.00540476
						112:leaf=0.0224281
				28:[D_CATEGORY_MACRO_MAX_COEC<0.0321282] yes=57,no=58,missing=58
					57:[C_D_U_CATEGORY_CITY_MACRO_MAX_COEC<0.0243904] yes=113,no=114,missing=113
						113:leaf=-0.020048
						114:leaf=-0.000587199
					58:[DAY_OF_WEEK<6] yes=115,no=116,missing=116
						115:leaf=-0.00266973
						116:leaf=0.00610662
			14:[D_PUBLISHER_C<24780.3] yes=29,no=30,missing=29
				29:[D_PUBLISHER_COEC<0.0683089] yes=59,no=60,missing=59
					59:[D_PUBLISHER_C<12295.4] yes=117,no=118,missing=118
						117:leaf=0.0021583
						118:leaf=-0.023569
					60:[C_D_U_CATEGORY_CITY_MICRO_MAX_COEC<0.0532377] yes=119,no=120,missing=119
						119:leaf=0.0182377
						120:leaf=0.00743966
				30:[C_D_U_PUBLISHER_CITY_COEC<0.10895] yes=61,no=62,missing=61
					61:[C_D_U_PUBLISHER_AGE_C<289.736] yes=121,no=122,missing=122
						121:leaf=-0.0347823
						122:leaf=0.0114592
					62:[C_D_U_CONID_AGE_COEC<0.0794708] yes=123,no=124,missing=123
						123:leaf=0.0169263
						124:leaf=0.0324604
booster[23]:
0:[D_TITLEMD5_COEC<0.0312639] yes=1,no=2,missing=1
	1:[D_GROUPID_COEC<0.0139404] yes=3,no=4,missing=4
		3:[IMAGE_COUNT<0.999999] yes=7,no=8,missing=8
			7:[D_CATEGORY_MICRO_MAX_COEC<0.0387682] yes=15,no=16,missing=15
				15:[D_KEYWORD_MICRO_MAX_COEC<0.0529347] yes=31,no=32,missing=32
					31:[D_KEYWORD_MICRO_MEAN_COEC<0.0472979] yes=63,no=64,missing=64
						63:leaf=-0.04979
						64:leaf=0.0241369
					32:[D_KEYWORD_MICRO_MEAN_COEC<0.0542908] yes=65,no=66,missing=66
						65:leaf=-0.0689091
						66:leaf=-0.0327318
				16:[C_D_U_CATEGORY_CITY_MACRO_MAX_COEC<0.0495825] yes=33,no=34,missing=34
					33:[C_D_U_CATEGORY_AGE_MICRO_MEAN_COEC<0.0423025] yes=67,no=68,missing=68
						67:leaf=0.0550201
						68:leaf=-0.054611
					34:[C_D_U_CATEGORY_AGE_MICRO_MAX_COEC<0.0612264] yes=69,no=70,missing=70
						69:leaf=0.00410622
						70:leaf=-0.0325925
			8:[D_KEYWORD_MACRO_MEAN_COEC<0.0321217] yes=17,no=18,missing=18
				17:[C_D_U_CATEGORY_CITY_MICRO_MAX_COEC<0.104975] yes=35,no=36,missing=35
					35:[D_PUBLISHER_COEC<0.0252464] yes=71,no=72,missing=71
						71:leaf=-0.0397789
						72:leaf=-0.0211809
					36:[C_D_U_PUBLISHER_CITY_C<8.37993] yes=73,no=74,missing=73
						73:leaf=-0.000964618
						74:leaf=0.073838
				18:[C_D_U_CONID_AGE_EC<85.7728] yes=37,no=38,missing=37
					37:[D_KEYWORD_MICRO_MEAN_COEC<0.0677295] yes=75,no=76,missing=76
						75:leaf=0.0249246
						76:leaf=-0.046176
					38:[C_D_U_CONID_AGE_COEC<0.0258857] yes=77,no=78,missing=78
						77:leaf=-0.0783905
						78:leaf=0.100135
		4:[C_D_U_PUBLISHER_CITY_COEC<0.096062] yes=9,no=10,missing=9
			9:[TIME_OF_DAY<18] yes=19,no=20,missing=20
				19:[IMAGE_COUNT<0.999999] yes=39,no=40,missing=40
					39:[D_KEYWORD_MEAN_EC<1159.49] yes=79,no=80,missing=80
						79:leaf=-0.0320072
						80:leaf=-0.01199
					40:[D_CATEGORY_MACRO_MEAN_COEC<0.0435029] yes=81,no=82,missing=81
						81:leaf=-0.00367791
						82:leaf=-0.0112664
				20:[C_D_U_CATEGORY_CITY_MACRO_MEAN_COEC<0.0495041] yes=41,no=42,missing=42
					41:[D_KEYWORD_MEAN_EC<967.25] yes=83,no=84,missing=84
						83:leaf=-0.0316997
						84:leaf=-0.0177861
					42:[U_GENDER<2] yes=85,no=86,missing=85
						85:leaf=-0.0133716
						86:leaf=0.00473014
			10:[C_D_U_PUBLISHER_CITY_C<0.913724] yes=21,no=22,missing=22
				21:[D_PUBLISHER_C<12343.6] yes=43,no=44,missing=44
					43:[D_KEYWORD_MACRO_MEAN_COEC<0.0334427] yes=87,no=88,missing=88
						87:leaf=-0.0188163
						88:leaf=0.0154091
					44:[C_D_U_CATEGORY_AGE_MACRO_MAX_COEC<0.0289208] yes=89,no=90,missing=90
						89:leaf=0.0306663
						90:leaf=-0.0936644
				22:[C_D_U_CONID_CITY_C<0.747718] yes=45,no=46,missing=45
					45:[C_D_U_PUBLISHER_CITY_COEC<0.193656] yes=91,no=92,missing=92
						91:leaf=0.00785116
						92:leaf=0.0339758
					46:[C_D_U_GROUPID_AGE_COEC<0.0343733] yes=93,no=94,missing=93
						93:leaf=-0.0374909
						94:leaf=0.0203215
	2:[D_CONID_COEC<0.0560066] yes=5,no=6,missing=6
		5:[C_D_U_CONID_AGE_C<7.70479] yes=11,no=12,missing=11
			11:[C_D_U_PUBLISHER_AGE_COEC<0.0372178] yes=23,no=24,missing=24
				23:[C_D_U_CATEGORY_AGE_MACRO_MAX_COEC<0.0355521] yes=47,no=48,missing=47
					47:[C_D_U_GROUPID_AGE_COEC<0.0343733] yes=95,no=96,missing=96
						95:leaf=-0.0249041
						96:leaf=-0.0500231
					48:[D_CONID_COEC<0.0466925] yes=97,no=98,missing=98
						97:leaf=-0.012538
						98:leaf=-0.0370759
				24:[C_D_U_CONID_GENDER_COEC<0.0725286] yes=49,no=50,missing=50
					49:[C_D_U_TITLEMD5_AGE_COEC<0.0796664] yes=99,no=100,missing=100
						99:leaf=-0.00645039
						100:leaf=0.0149891
					50:[IMAGE_COUNT<3] yes=101,no=102,missing=102
						101:leaf=-0.00609001
						102:leaf=0.00195892
			12:[C_D_U_GROUPID_GENDER_COEC<0.0391802] yes=25,no=26,missing=26
				25:[C_D_U_CATEGORY_GENDER_MACRO_MEAN_COEC<0.0333638] yes=51,no=52,missing=51
					51:[C_D_U_PUBLISHER_GENDER_COEC<0.0283183] yes=103,no=104,missing=104
						103:leaf=-0.0307809
						104:leaf=-0.0137021
					52:[D_KEYWORD_MACRO_MEAN_COEC<0.0391883] yes=105,no=106,missing=106
						105:leaf=-0.00181242
						106:leaf=-0.0173577
				26:[C_D_U_CATEGORY_CITY_MACRO_MEAN_COEC<0.108479] yes=53,no=54,missing=53
					53:[D_CATEGORY_MICRO_MAX_COEC<0.0538287] yes=107,no=108,missing=107
						107:leaf=0.00270876
						108:leaf=-0.00666841
					54:[C_D_U_GROUPID_CITY_COEC<0.118497] yes=109,no=110,missing=109
						109:leaf=0.0233067
						110:leaf=-0.0107794
		6:[C_D_U_CONID_AGE_COEC<0.0780488] yes=13,no=14,missing=13
			13:[C_D_U_CATEGORY_CITY_MACRO_MAX_COEC<0.0265262] yes=27,no=28,missing=28
				27:[D_CATEGORY_MACRO_MAX_COEC<0.0389773] yes=55,no=56,missing=56
					55:[WORD_COUNT<1347] yes=111,no=112,missing=112
						111:leaf=-0.0346646
						112:leaf=-0.00887156
					56:[C_D_U_PUBLISHER_CITY_COEC<0.0351951] yes=113,no=114,missing=113
						113:leaf=-0.00302954
						114:leaf=0.00776019
				28:[D_KEYWORD_MEAN_EC<5150.8] yes=57,no=58,missing=58
					57:[WORD_COUNT<4019] yes=115,no=116,missing=116
						115:leaf=-6.23958e-09
						116:leaf=0.01089
					58:[TIME_OF_DAY<16] yes=117,no=118,missing=118
						117:leaf=0.0100265
						118:leaf=0.00317385
			14:[C_D_U_CONID_GENDER_COEC<0.0954667] yes=29,no=30,missing=30
				29:[C_D_U_PUBLISHER_GENDER_EC<123034] yes=59,no=60,missing=60
					59:[D_KEYWORD_MACRO_MAX_COEC<0.0115009] yes=119,no=120,missing=120
						119:leaf=0.0149759
						120:leaf=0.00349036
					60:[D_KEYWORD_MEAN_C<593.018] yes=121,no=122,missing=122
						121:leaf=-0.0313722
						122:leaf=-0.00413829
				30:[C_D_U_CONID_AGE_C<12.4813] yes=61,no=62,missing=62
					61:[D_TITLEMD5_COEC<0.0999028] yes=123,no=124,missing=124
						123:leaf=-0.00991259
						124:leaf=0.0096913
					62:[WORD_COUNT<1453] yes=125,no=126,missing=126
						125:leaf=0.0102524
						126:leaf=0.0169251
booster[24]:
0:[D_KEYWORD_MACRO_MEAN_COEC<0.0292531] yes=1,no=2,missing=2
	1:[C_D_U_CONID_AGE_C<7.88216] yes=3,no=4,missing=3
		3:[D_PUBLISHER_COEC<0.0205641] yes=7,no=8,missing=8
			7:[C_D_U_CATEGORY_CITY_MACRO_MEAN_COEC<0.0421788] yes=15,no=16,missing=15
				15:[C_D_U_CONID_CITY_COEC<0.08711] yes=31,no=32,missing=32
					31:[C_D_U_CATEGORY_AGE_MACRO_MEAN_COEC<0.0414598] yes=63,no=64,missing=64
						63:leaf=0.0124439
						64:leaf=-0.0378192
					32:[D_CATEGORY_MACRO_MEAN_COEC<0.0410203] yes=65,no=66,missing=66
						65:leaf=-0.0497121
						66:leaf=-0.0272859
				16:[C_D_U_PUBLISHER_CITY_COEC<0.203135] yes=33,no=34,missing=33
					33:[C_D_U_GROUPID_CITY_COEC<0.999999] yes=67,no=68,missing=68
						67:leaf=0.0108051
						68:leaf=-0.0289169
					34:[TIME_OF_DAY<6] yes=69,no=70,missing=70
						69:leaf=-0.100457
						70:leaf=0.0746057
			8:[C_D_U_CATEGORY_CITY_MACRO_MAX_COEC<0.0252549] yes=17,no=18,missing=18
				17:[IMAGE_COUNT<3] yes=35,no=36,missing=36
					35:[C_D_U_TITLEMD5_CITY_COEC<0.0579839] yes=71,no=72,missing=72
						71:leaf=-0.0156183
						72:leaf=-0.0311184
					36:[C_D_U_PUBLISHER_AGE_EC<3116.12] yes=73,no=74,missing=73
						73:leaf=0.00238605
						74:leaf=-0.0274116
				18:[WORD_COUNT<8972] yes=37,no=38,missing=38
					37:[WORD_COUNT<1401] yes=75,no=76,missing=76
						75:leaf=-0.022217
						76:leaf=-0.00953263
					38:[D_KEYWORD_MEAN_EC<575.097] yes=77,no=78,missing=78
						77:leaf=-0.0197518
						78:leaf=0.0313443
		4:[IMAGE_COUNT<2] yes=9,no=10,missing=10
			9:[C_D_U_CATEGORY_CITY_MACRO_MEAN_COEC<0.0316427] yes=19,no=20,missing=19
				19:[WORD_COUNT<3281] yes=39,no=40,missing=40
					39:[C_D_U_CATEGORY_AGE_MACRO_MAX_COEC<0.0578118] yes=79,no=80,missing=79
						79:leaf=-0.0111655
						80:leaf=0.0330256
					40:[C_D_U_CATEGORY_GENDER_MACRO_MEAN_COEC<0.0418866] yes=81,no=82,missing=81
						81:leaf=-0.00227084
						82:leaf=0.0274739
				20:[D_CATEGORY_MICRO_MAX_COEC<0.0444524] yes=41,no=42,missing=42
					41:[C_D_U_CATEGORY_GENDER_MICRO_MEAN_COEC<0.043014] yes=83,no=84,missing=83
						83:leaf=0.00871824
						84:leaf=0.0343863
					42:[D_KEYWORD_MAX_C<184.623] yes=85,no=86,missing=86
						85:leaf=-0.00187669
						86:leaf=-0.0609137
			10:[TIME_OF_DAY<20] yes=21,no=22,missing=22
				21:[TIME_OF_DAY<6] yes=43,no=44,missing=44
					43:[C_D_U_CATEGORY_CITY_MACRO_MEAN_COEC<0.0462268] yes=87,no=88,missing=88
						87:leaf=-0.000883996
						88:leaf=-0.0292353
					44:[C_D_U_PUBLISHER_CITY_COEC<0.0997185] yes=89,no=90,missing=89
						89:leaf=-0.00482402
						90:leaf=0.0286546
				22:[C_D_U_GROUPID_AGE_COEC<0.0212378] yes=45,no=46,missing=46
					45:[DAY_OF_WEEK<5] yes=91,no=92,missing=92
						91:leaf=-0.109126
						92:leaf=0.0415634
					46:[D_KEYWORD_MICRO_MAX_COEC<0.0541958] yes=93,no=94,missing=94
						93:leaf=-0.0130607
						94:leaf=-0.0413868
	2:[D_CONID_COEC<0.05231] yes=5,no=6,missing=6
		5:[TIME_OF_DAY<20] yes=11,no=12,missing=12
			11:[WORD_COUNT<2991] yes=23,no=24,missing=24
				23:[C_D_U_PUBLISHER_CITY_COEC<0.0434854] yes=47,no=48,missing=48
					47:[D_CATEGORY_MACRO_MEAN_COEC<0.0529665] yes=95,no=96,missing=95
						95:leaf=-0.00414764
						96:leaf=-0.0164769
					48:[C_D_U_PUBLISHER_AGE_C<2048.62] yes=97,no=98,missing=97
						97:leaf=-0.00202315
						98:leaf=0.0039117
				24:[D_KEYWORD_MAX_EC<7383.08] yes=49,no=50,missing=50
					49:[C_D_U_CATEGORY_CITY_MACRO_MEAN_COEC<0.0396692] yes=99,no=100,missing=100
						99:leaf=0.000929353
						100:leaf=0.00866144
					50:[D_KEYWORD_MAX_EC<21682.2] yes=101,no=102,missing=102
						101:leaf=-0.0122435
						102:leaf=0.00377312
			12:[C_D_U_CONID_GENDER_COEC<0.0514955] yes=25,no=26,missing=25
				25:[C_D_U_CATEGORY_CITY_MICRO_MAX_COEC<0.131134] yes=51,no=52,missing=51
					51:[DAY_OF_WEEK<6] yes=103,no=104,missing=104
						103:leaf=-0.010603
						104:leaf=-0.00230199
					52:[C_D_U_TITLEMD5_CITY_COEC<0.0913207] yes=105,no=106,missing=105
						105:leaf=0.0176141
						106:leaf=-0.0332612
				26:[C_D_U_CONID_AGE_C<4.98007] yes=53,no=54,missing=54
					53:[C_D_U_GROUPID_GENDER_COEC<0.0475809] yes=107,no=108,missing=108
						107:leaf=0.0302759
						108:leaf=-0.0497242
					54:[C_D_U_CATEGORY_AGE_MICRO_MEAN_COEC<0.0359294] yes=109,no=110,missing=109
						109:leaf=0.014694
						110:leaf=0.000421192
		6:[D_CONID_COEC<0.0972307] yes=13,no=14,missing=14
			13:[C_D_U_CATEGORY_CITY_MACRO_MAX_COEC<0.0286921] yes=27,no=28,missing=28
				27:[C_D_U_PUBLISHER_CITY_COEC<0.0576886] yes=55,no=56,missing=55
					55:[D_CATEGORY_MACRO_MAX_COEC<0.0388286] yes=111,no=112,missing=112
						111:leaf=-0.0103965
						112:leaf=-0.00134114
					56:[D_KEYWORD_MICRO_MEAN_COEC<0.0539308] yes=113,no=114,missing=114
						113:leaf=-0.000581513
						114:leaf=0.0124858
				28:[C_D_U_CONID_GENDER_COEC<0.0743416] yes=57,no=58,missing=57
					57:[TIME_OF_DAY<16] yes=115,no=116,missing=116
						115:leaf=0.0057318
						116:leaf=0.000597931
					58:[C_D_U_CONID_AGE_C<33.0218] yes=117,no=118,missing=118
						117:leaf=-0.00724289
						118:leaf=0.0143563
			14:[D_CONID_COEC<0.140445] yes=29,no=30,missing=30
				29:[WORD_COUNT<1338] yes=59,no=60,missing=60
					59:[D_PUBLISHER_C<860.566] yes=119,no=120,missing=120
						119:leaf=-0.0430427
						120:leaf=0.00248302
					60:[C_D_U_PUBLISHER_GENDER_C<6675.74] yes=121,no=122,missing=121
						121:leaf=0.012684
						122:leaf=-0.0056747
				30:[DAY_OF_WEEK<0.999999] yes=61,no=62,missing=62
					61:[D_KEYWORD_MACRO_MAX_COEC<0.0107265] yes=123,no=124,missing=124
						123:leaf=0.0153233
						124:leaf=-0.0541908
					62:[IMAGE_COUNT<0.999999] yes=125,no=126,missing=126
						125:leaf=-0.0199498
						126:leaf=0.0216724
booster[25]:
0:[D_CONID_COEC<0.036513] yes=1,no=2,missing=1
	1:[D_KEYWORD_MACRO_MEAN_COEC<0.0223916] yes=3,no=4,missing=4
		3:[C_D_U_CATEGORY_CITY_MACRO_MAX_COEC<0.0171595] yes=7,no=8,missing=8
			7:[C_D_U_PUBLISHER_CITY_COEC<0.0797238] yes=15,no=16,missing=15
				15:[C_D_U_PUBLISHER_GENDER_EC<131767] yes=31,no=32,missing=31
					31:[C_D_U_TITLEMD5_CITY_COEC<0.0176531] yes=63,no=64,missing=64
						63:leaf=-0.00804329
						64:leaf=-0.0405501
					32:[C_D_U_PUBLISHER_CITY_EC<1114.57] yes=65,no=66,missing=65
						65:leaf=0.0389851
						66:leaf=0.313599
				16:[D_PUBLISHER_EC<775281] yes=33,no=34,missing=34
					33:[WORD_COUNT<4679] yes=67,no=68,missing=68
						67:leaf=-0.0104638
						68:leaf=0.0527723
					34:[C_D_U_PUBLISHER_CITY_COEC<0.142011] yes=69,no=70,missing=70
						69:leaf=0.0141416
						70:leaf=0.313279
			8:[WORD_COUNT<1188] yes=17,no=18,missing=18
				17:[D_CATEGORY_MACRO_MAX_COEC<0.0220864] yes=35,no=36,missing=36
					35:[C_D_U_PUBLISHER_AGE_COEC<0.0265363] yes=71,no=72,missing=71
						71:leaf=-0.0774956
						72:leaf=-0.0177354
					36:[C_D_U_PUBLISHER_AGE_COEC<0.0548799] yes=73,no=74,missing=73
						73:leaf=-0.0303996
						74:leaf=0.0258834
				18:[C_D_U_CATEGORY_CITY_MICRO_MAX_COEC<0.182114] yes=37,no=38,missing=37
					37:[IMAGE_COUNT<0.999999] yes=75,no=76,missing=76
						75:leaf=-0.0316893
						76:leaf=-0.0135617
					38:[C_D_U_PUBLISHER_CITY_C<10.5066] yes=77,no=78,missing=77
						77:leaf=0.00729949
						78:leaf=0.093338
		4:[WORD_COUNT<6094] yes=9,no=10,missing=10
			9:[C_D_U_PUBLISHER_CITY_COEC<0.094881] yes=19,no=20,missing=19
				19:[TIME_OF_DAY<20] yes=39,no=40,missing=40
					39:[D_CATEGORY_MICRO_MAX_COEC<0.0408423] yes=79,no=80,missing=80
						79:leaf=-0.00189919
						80:leaf=-0.00811746
					40:[DAY_OF_WEEK<6] yes=81,no=82,missing=82
						81:leaf=-0.016734
						82:leaf=-0.00644549
				20:[C_D_U_PUBLISHER_CITY_C<0.994999] yes=41,no=42,missing=42
					41:[C_D_U_GROUPID_AGE_COEC<0.0279818] yes=83,no=84,missing=83
						83:leaf=-0.0258094
						84:leaf=-0.00896094
					42:[C_D_U_CONID_CITY_C<0.755252] yes=85,no=86,missing=85
						85:leaf=0.0174863
						86:leaf=-0.0236113
			10:[D_CATEGORY_MICRO_MAX_COEC<0.045308] yes=21,no=22,missing=22
				21:[C_D_U_CATEGORY_GENDER_MACRO_MAX_COEC<0.045248] yes=43,no=44,missing=43
					43:[D_KEYWORD_MACRO_MAX_COEC<0.0144354] yes=87,no=88,missing=88
						87:leaf=0.0103432
						88:leaf=-0.019312
					44:[C_D_U_CATEGORY_GENDER_MICRO_MEAN_COEC<0.0602055] yes=89,no=90,missing=90
						89:leaf=0.0403556
						90:leaf=-0.160638
				22:[D_PUBLISHER_EC<229557] yes=45,no=46,missing=46
					45:[C_D_U_PUBLISHER_CITY_COEC<0.122715] yes=91,no=92,missing=91
						91:leaf=-0.00211322
						92:leaf=0.0405688
					46:[C_D_U_PUBLISHER_CITY_COEC<0.010248] yes=93,no=94,missing=94
						93:leaf=-0.103206
						94:leaf=-0.0212757
	2:[C_D_U_CONID_AGE_COEC<0.057979] yes=5,no=6,missing=5
		5:[C_D_U_PUBLISHER_CITY_COEC<0.0389443] yes=11,no=12,missing=12
			11:[TIME_OF_DAY<23] yes=23,no=24,missing=24
				23:[D_KEYWORD_MEAN_C<16.2847] yes=47,no=48,missing=48
					47:[D_KEYWORD_MICRO_MAX_COEC<0.045932] yes=95,no=96,missing=96
						95:leaf=-0.0117442
						96:leaf=-0.0438151
					48:[D_CATEGORY_MICRO_MAX_COEC<0.0459016] yes=97,no=98,missing=98
						97:leaf=0.000410657
						98:leaf=-0.0057853
				24:[C_D_U_TITLEMD5_GENDER_COEC<0.0419538] yes=49,no=50,missing=49
					49:[C_D_U_GROUPID_CITY_COEC<0.0549005] yes=99,no=100,missing=99
						99:leaf=-0.025983
						100:leaf=-0.00374865
					50:[D_CATEGORY_MICRO_MAX_COEC<0.0358799] yes=101,no=102,missing=102
						101:leaf=0.0246504
						102:leaf=-0.00891928
			12:[IMAGE_COUNT<2] yes=25,no=26,missing=26
				25:[C_D_U_CONID_GENDER_COEC<0.0586262] yes=51,no=52,missing=51
					51:[D_KEYWORD_MACRO_MEAN_COEC<0.0278476] yes=103,no=104,missing=104
						103:leaf=-0.031998
						104:leaf=-0.000271664
					52:[C_D_U_PUBLISHER_AGE_EC<29136.5] yes=105,no=106,missing=106
						105:leaf=-0.0145381
						106:leaf=0.0160321
				26:[U_AGE_1<0.999999] yes=53,no=54,missing=54
					53:[C_D_U_CONID_CITY_C<6.30894] yes=107,no=108,missing=108
						107:leaf=0.00223632
						108:leaf=0.0074752
					54:[C_D_U_CATEGORY_GENDER_MICRO_MEAN_COEC<0.0554178] yes=109,no=110,missing=110
						109:leaf=-0.0598732
						110:leaf=-0.0214715
		6:[C_D_U_CATEGORY_CITY_MICRO_MEAN_COEC<0.0830935] yes=13,no=14,missing=13
			13:[C_D_U_CONID_AGE_C<4.98502] yes=27,no=28,missing=28
				27:[C_D_U_PUBLISHER_AGE_COEC<0.0605719] yes=55,no=56,missing=56
					55:[D_CONID_COEC<0.0755047] yes=111,no=112,missing=112
						111:leaf=-0.0245081
						112:leaf=-0.00597038
					56:[WORD_COUNT<6648] yes=113,no=114,missing=114
						113:leaf=0.0210432
						114:leaf=-0.034621
				28:[C_D_U_GROUPID_GENDER_COEC<0.0675443] yes=57,no=58,missing=58
					57:[C_D_U_CATEGORY_GENDER_MACRO_MAX_COEC<0.0379095] yes=115,no=116,missing=115
						115:leaf=-0.00874785
						116:leaf=0.000677143
					58:[C_D_U_CONID_AGE_C<1962.23] yes=117,no=118,missing=118
						117:leaf=0.00625258
						118:leaf=0.0135372
			14:[C_D_U_TITLEMD5_CITY_COEC<0.0409541] yes=29,no=30,missing=29
				29:[C_D_U_CATEGORY_CITY_MACRO_MEAN_COEC<0.229247] yes=59,no=60,missing=60
					59:[C_D_U_PUBLISHER_CITY_C<2.95671] yes=119,no=120,missing=119
						119:leaf=0.014999
						120:leaf=0.0270374
					60:[C_D_U_PUBLISHER_CITY_C<3.49654] yes=121,no=122,missing=121
						121:leaf=0.0433497
						122:leaf=0.07926
				30:[U_GENDER<2] yes=61,no=62,missing=61
					61:[C_D_U_CATEGORY_AGE_MACRO_MAX_COEC<0.115965] yes=123,no=124,missing=124
						123:leaf=0.00684333
						124:leaf=0.0245451
					62:[C_D_U_CONID_AGE_EC<1998.71] yes=125,no=126,missing=126
						125:leaf=-0.0402571
						126:leaf=-0.000218863
booster[26]:
0:[D_KEYWORD_MACRO_MEAN_COEC<0.0279065] yes=1,no=2,missing=2
	1:[C_D_U_CONID_AGE_C<8.10089] yes=3,no=4,missing=3
		3:[WORD_COUNT<1224] yes=7,no=8,missing=8
			7:[D_PUBLISHER_COEC<0.020533] yes=15,no=16,missing=16
				15:[IMAGE_COUNT<3] yes=31,no=32,missing=32
					31:[D_KW_LEN<11] yes=63,no=64,missing=64
						63:leaf=-0.0221155
						64:leaf=-0.0571653
					32:[D_GROUPID_COEC<0.0430859] yes=65,no=66,missing=66
						65:leaf=0.0108657
						66:leaf=0.378912
				16:[U_GENDER<2] yes=33,no=34,missing=33
					33:[D_KEYWORD_MICRO_MAX_COEC<0.0397978] yes=67,no=68,missing=68
						67:leaf=-0.00985137
						68:leaf=-0.0329774
					34:[C_D_U_PUBLISHER_CITY_C<0.705067] yes=69,no=70,missing=70
						69:leaf=-0.0445348
						70:leaf=0.00655993
			8:[C_D_U_CATEGORY_CITY_MICRO_MEAN_COEC<0.0279198] yes=17,no=18,missing=18
				17:[IMAGE_COUNT<0.999999] yes=35,no=36,missing=36
					35:[C_D_U_PUBLISHER_GENDER_EC<134601] yes=71,no=72,missing=71
						71:leaf=-0.0462729
						72:leaf=0.211243
					36:[D_PUBLISHER_COEC<0.0318385] yes=73,no=74,missing=74
						73:leaf=-0.0265106
						74:leaf=-0.0136488
				18:[C_D_U_CONID_AGE_COEC<0.0361944] yes=37,no=38,missing=37
					37:[D_PUBLISHER_C<1753.62] yes=75,no=76,missing=75
						75:leaf=-0.0151831
						76:leaf=-0.00465458
					38:[C_D_U_CATEGORY_GENDER_MACRO_MAX_COEC<0.0392788] yes=77,no=78,missing=77
						77:leaf=-0.036714
						78:leaf=-0.00348854
		4:[C_D_U_CONID_GENDER_COEC<0.0275534] yes=9,no=10,missing=10
			9:[C_D_U_PUBLISHER_AGE_C<7592.32] yes=19,no=20,missing=20
				19:[C_D_U_CATEGORY_CITY_MICRO_MEAN_COEC<0.0458638] yes=39,no=40,missing=40
					39:[D_KEYWORD_MICRO_MAX_COEC<0.0460203] yes=79,no=80,missing=80
						79:leaf=0.0159814
						80:leaf=-0.0138387
					40:[C_D_U_PUBLISHER_CITY_EC<184.766] yes=81,no=82,missing=81
						81:leaf=-0.0147085
						82:leaf=-0.0498402
				20:[C_D_U_CATEGORY_CITY_MACRO_MEAN_COEC<0.0354059] yes=41,no=42,missing=42
					41:[C_D_U_CONID_AGE_EC<3604.73] yes=83,no=84,missing=84
						83:leaf=-0.0785469
						84:leaf=0.0544751
					42:[TIME_OF_DAY<23] yes=85,no=86,missing=86
						85:leaf=-0.0177238
						86:leaf=0.0882705
			10:[IMAGE_COUNT<2] yes=21,no=22,missing=22
				21:[C_D_U_CATEGORY_CITY_MACRO_MAX_COEC<0.018087] yes=43,no=44,missing=43
					43:[TIME_OF_DAY<20] yes=87,no=88,missing=88
						87:leaf=0.00139754
						88:leaf=-0.0235129
					44:[D_CATEGORY_MACRO_MEAN_COEC<0.0322621] yes=89,no=90,missing=90
						89:leaf=0.0221805
						90:leaf=0.00839469
				22:[D_KEYWORD_MACRO_MAX_COEC<0.00956341] yes=45,no=46,missing=46
					45:[C_D_U_PUBLISHER_GENDER_EC<28192.1] yes=91,no=92,missing=92
						91:leaf=0.00720191
						92:leaf=-0.0105662
					46:[TIME_OF_DAY<4] yes=93,no=94,missing=94
						93:leaf=0.0177288
						94:leaf=-0.089767
	2:[C_D_U_CATEGORY_CITY_MICRO_MEAN_COEC<0.0492897] yes=5,no=6,missing=6
		5:[C_D_U_CONID_AGE_C<183.812] yes=11,no=12,missing=11
			11:[C_D_U_TITLEMD5_CITY_COEC<0.272216] yes=23,no=24,missing=24
				23:[D_CATEGORY_MICRO_MAX_COEC<0.045654] yes=47,no=48,missing=48
					47:[TIME_OF_DAY<14] yes=95,no=96,missing=96
						95:leaf=0.00414024
						96:leaf=-0.0019321
					48:[D_CONID_COEC<0.0452043] yes=97,no=98,missing=98
						97:leaf=-0.0131508
						98:leaf=-0.00221932
				24:[IMAGE_COUNT<3] yes=49,no=50,missing=50
					49:[C_D_U_TITLEMD5_AGE_COEC<0.0464628] yes=99,no=100,missing=99
						99:leaf=-0.0148067
						100:leaf=-0.00335341
					50:[C_D_U_PUBLISHER_CITY_COEC<0.0768377] yes=101,no=102,missing=101
						101:leaf=-0.00369801
						102:leaf=0.0139208
			12:[C_D_U_CATEGORY_GENDER_MACRO_MAX_COEC<0.0385642] yes=25,no=26,missing=26
				25:[C_D_U_CATEGORY_GENDER_MACRO_MEAN_COEC<0.0530581] yes=51,no=52,missing=52
					51:[D_CATEGORY_MACRO_MEAN_COEC<0.0474843] yes=103,no=104,missing=104
						103:leaf=-0.00894004
						104:leaf=-0.0308816
					52:[D_KEYWORD_MEAN_EC<14388] yes=105,no=106,missing=106
						105:leaf=0.0110281
						106:leaf=-0.0557488
				26:[C_D_U_PUBLISHER_CITY_EC<1443.22] yes=53,no=54,missing=54
					53:[D_CAT_LEN<2] yes=107,no=108,missing=108
						107:leaf=0.0064284
						108:leaf=-0.00372962
					54:[C_D_U_GROUPID_CITY_COEC<0.0576254] yes=109,no=110,missing=109
						109:leaf=-0.00506341
						110:leaf=0.00608477
		6:[WORD_COUNT<1347] yes=13,no=14,missing=14
			13:[D_KEYWORD_MACRO_MEAN_COEC<0.0682009] yes=27,no=28,missing=28
				27:[WORD_COUNT<581] yes=55,no=56,missing=56
					55:[C_D_U_CATEGORY_GENDER_MICRO_MAX_COEC<0.0286512] yes=111,no=112,missing=112
						111:leaf=-0.0842157
						112:leaf=-0.0124871
					56:[C_D_U_PUBLISHER_CITY_COEC<0.0549388] yes=113,no=114,missing=114
						113:leaf=-0.00654668
						114:leaf=0.00107714
				28:[TIME_OF_DAY<22] yes=57,no=58,missing=58
					57:[D_KEYWORD_MICRO_MAX_COEC<0.139243] yes=115,no=116,missing=116
						115:leaf=0.00633734
						116:leaf=0.0196884
					58:[DAY_OF_WEEK<3] yes=117,no=118,missing=118
						117:leaf=-0.181826
						118:leaf=-0.00816853
			14:[D_CONID_COEC<0.0653819] yes=29,no=30,missing=30
				29:[C_D_U_CATEGORY_AGE_MICRO_MAX_COEC<0.0611796] yes=59,no=60,missing=60
					59:[C_D_U_CATEGORY_GENDER_MACRO_MEAN_COEC<0.0465389] yes=119,no=120,missing=120
						119:leaf=-0.00515945
						120:leaf=0.00698195
					60:[C_D_U_CATEGORY_GENDER_MICRO_MAX_COEC<0.0564929] yes=121,no=122,missing=122
						121:leaf=0.0179097
						122:leaf=0.000326527
				30:[TIME_OF_DAY<19] yes=61,no=62,missing=62
					61:[C_D_U_CATEGORY_AGE_MACRO_MAX_COEC<0.0502003] yes=123,no=124,missing=124
						123:leaf=0.0173988
						124:leaf=0.00923795
					62:[C_D_U_CONID_CITY_COEC<0.0220717] yes=125,no=126,missing=125
						125:leaf=0.0077371
						126:leaf=-0.00109998
booster[27]:
0:[D_KEYWORD_MACRO_MEAN_COEC<0.0279282] yes=1,no=2,missing=2
	1:[C_D_U_CONID_AGE_C<4.96015] yes=3,no=4,missing=3
		3:[IMAGE_COUNT<0.999999] yes=7,no=8,missing=8
			7:[D_CATEGORY_MICRO_MEAN_COEC<0.0351373] yes=15,no=16,missing=15
				15:[C_D_U_PUBLISHER_CITY_COEC<0.0375194] yes=31,no=32,missing=31
					31:[D_TITLEMD5_COEC<0.0290391] yes=63,no=64,missing=64
						63:leaf=-0.0450563
						64:leaf=-0.0698813
					32:[C_D_U_GROUPID_CITY_COEC<4.36368] yes=65,no=66,missing=66
						65:leaf=0.00740769
						66:leaf=-0.0417861
				16:[C_D_U_CATEGORY_CITY_MICRO_MAX_COEC<0.0860063] yes=33,no=34,missing=34
					33:[C_D_U_GROUPID_CITY_COEC<0.0105682] yes=67,no=68,missing=68
						67:leaf=-0.00918906
						68:leaf=-0.0381171
					34:[D_KEYWORD_MEAN_C<70.0263] yes=69,no=70,missing=70
						69:leaf=-0.0203409
						70:leaf=0.0252049
			8:[D_CATEGORY_MACRO_MEAN_COEC<0.0229784] yes=17,no=18,missing=18
				17:[C_D_U_CATEGORY_AGE_MACRO_MAX_COEC<0.026081] yes=35,no=36,missing=35
					35:[C_D_U_CATEGORY_GENDER_MACRO_MAX_COEC<0.0234665] yes=71,no=72,missing=71
						71:leaf=-0.0359691
						72:leaf=0.0206602
					36:[D_KEYWORD_MACRO_MAX_COEC<0.00932018] yes=73,no=74,missing=74
						73:leaf=0.0327843
						74:leaf=0.148484
				18:[C_D_U_PUBLISHER_CITY_COEC<0.0247832] yes=37,no=38,missing=38
					37:[C_D_U_PUBLISHER_AGE_EC<14804.6] yes=75,no=76,missing=75
						75:leaf=-0.0149782
						76:leaf=-0.0354
					38:[D_GROUPID_COEC<0.0351841] yes=77,no=78,missing=77
						77:leaf=-0.0055942
						78:leaf=-0.0250035
		4:[C_D_U_CATEGORY_CITY_MACRO_MAX_COEC<0.0308644] yes=9,no=10,missing=9
			9:[C_D_U_CONID_AGE_C<77.4885] yes=19,no=20,missing=20
				19:[C_D_U_PUBLISHER_GENDER_EC<23154.6] yes=39,no=40,missing=40
					39:[D_KEYWORD_MACRO_MAX_COEC<0.00975603] yes=79,no=80,missing=80
						79:leaf=0.00481403
						80:leaf=-0.0497891
					40:[C_D_U_PUBLISHER_CITY_EC<4.70841] yes=81,no=82,missing=81
						81:leaf=-0.0037763
						82:leaf=-0.0186489
				20:[C_D_U_TITLEMD5_GENDER_COEC<0.0320952] yes=41,no=42,missing=42
					41:[C_D_U_PUBLISHER_CITY_EC<3.71183] yes=83,no=84,missing=84
						83:leaf=0.0723368
						84:leaf=-0.0294591
					42:[D_KEYWORD_MAX_EC<782.602] yes=85,no=86,missing=86
						85:leaf=0.00405519
						86:leaf=0.0312309
			10:[IMAGE_COUNT<2] yes=21,no=22,missing=22
				21:[D_CATEGORY_MICRO_MEAN_COEC<0.0389211] yes=43,no=44,missing=44
					43:[C_D_U_CATEGORY_GENDER_MACRO_MEAN_COEC<0.030594] yes=87,no=88,missing=88
						87:leaf=-0.00979663
						88:leaf=0.0195256
					44:[C_D_U_GROUPID_AGE_COEC<0.0216443] yes=89,no=90,missing=90
						89:leaf=-0.0412467
						90:leaf=0.00298834
				22:[C_D_U_CONID_CITY_COEC<0.49624] yes=45,no=46,missing=45
					45:[D_KEYWORD_MICRO_MEAN_COEC<0.0299709] yes=91,no=92,missing=92
						91:leaf=0.016927
						92:leaf=-0.00736056
					46:[C_D_U_PUBLISHER_CITY_C<2.62687] yes=93,no=94,missing=94
						93:leaf=-0.0454922
						94:leaf=-0.156855
	2:[D_CONID_COEC<0.0522512] yes=5,no=6,missing=6
		5:[C_D_U_PUBLISHER_CITY_COEC<0.123024] yes=11,no=12,missing=11
			11:[DAY_OF_WEEK<0.999999] yes=23,no=24,missing=24
				23:[WORD_COUNT<4019] yes=47,no=48,missing=48
					47:[TIME_OF_DAY<11] yes=95,no=96,missing=96
						95:leaf=0.00537131
						96:leaf=-0.00125051
					48:[D_CATEGORY_MACRO_MEAN_COEC<0.0421903] yes=97,no=98,missing=98
						97:leaf=0.015457
						98:leaf=0.00373818
				24:[D_CATEGORY_MICRO_MAX_COEC<0.0460467] yes=49,no=50,missing=50
					49:[C_D_U_CATEGORY_GENDER_MACRO_MEAN_COEC<0.0512542] yes=99,no=100,missing=99
						99:leaf=-0.00119031
						100:leaf=0.0162048
					50:[C_D_U_CATEGORY_CITY_MICRO_MEAN_COEC<0.054239] yes=101,no=102,missing=102
						101:leaf=-0.0102721
						102:leaf=-0.00205048
			12:[C_D_U_PUBLISHER_CITY_C<0.994999] yes=25,no=26,missing=26
				25:[C_D_U_GROUPID_CITY_COEC<0.204749] yes=51,no=52,missing=51
					51:[C_D_U_CATEGORY_AGE_MACRO_MAX_COEC<0.047914] yes=103,no=104,missing=104
						103:leaf=0.0036565
						104:leaf=-0.0115699
					52:[C_D_U_PUBLISHER_AGE_COEC<0.0325725] yes=105,no=106,missing=106
						105:leaf=0.0114485
						106:leaf=-0.0320882
				26:[C_D_U_TITLEMD5_CITY_COEC<0.0942969] yes=53,no=54,missing=53
					53:[C_D_U_CATEGORY_CITY_MACRO_MEAN_COEC<0.212463] yes=107,no=108,missing=108
						107:leaf=0.0197112
						108:leaf=0.0480491
					54:[C_D_U_CATEGORY_GENDER_MICRO_MAX_COEC<0.030708] yes=109,no=110,missing=110
						109:leaf=-0.102321
						110:leaf=-0.0131308
		6:[TIME_OF_DAY<22] yes=13,no=14,missing=14
			13:[C_D_U_CONID_AGE_C<1183.48] yes=27,no=28,missing=27
				27:[C_D_U_CATEGORY_CITY_MACRO_MAX_COEC<0.0226068] yes=55,no=56,missing=56
					55:[C_D_U_PUBLISHER_CITY_COEC<0.0262154] yes=111,no=112,missing=111
						111:leaf=-0.00663425
						112:leaf=0.0024509
					56:[D_CONID_COEC<0.0958077] yes=113,no=114,missing=114
						113:leaf=0.00325551
						114:leaf=0.0102766
				28:[C_D_U_CONID_GENDER_COEC<0.0608186] yes=57,no=58,missing=58
					57:[D_KEYWORD_MACRO_MEAN_COEC<0.0467517] yes=115,no=116,missing=116
						115:leaf=0.0172282
						116:leaf=-0.008236
					58:[C_D_U_PUBLISHER_AGE_COEC<0.0534093] yes=117,no=118,missing=118
						117:leaf=0.017584
						118:leaf=0.00870861
			14:[D_CATEGORY_MACRO_MAX_COEC<0.0311789] yes=29,no=30,missing=29
				29:[D_KEYWORD_MEAN_C<47.8363] yes=59,no=60,missing=60
					59:[D_TITLEMD5_COEC<0.061469] yes=119,no=120,missing=119
						119:leaf=-0.143452
						120:leaf=-0.0841789
					60:[C_D_U_CONID_AGE_EC<3059.05] yes=121,no=122,missing=122
						121:leaf=0.0100163
						122:leaf=-0.0150282
				30:[D_KEYWORD_MAX_EC<726.756] yes=61,no=62,missing=62
					61:[D_KEYWORD_MAX_EC<669.177] yes=123,no=124,missing=124
						123:leaf=0.00179109
						124:leaf=0.0246394
					62:[D_PUBLISHER_COEC<0.0454097] yes=125,no=126,missing=126
						125:leaf=-0.0215132
						126:leaf=-0.00318971
booster[28]:
0:[D_KEYWORD_MEAN_C<40.16] yes=1,no=2,missing=2
	1:[C_D_U_CONID_AGE_C<6.87632] yes=3,no=4,missing=3
		3:[C_D_U_CATEGORY_CITY_MACRO_MAX_COEC<0.0138749] yes=7,no=8,missing=8
			7:[C_D_U_PUBLISHER_CITY_COEC<0.093233] yes=15,no=16,missing=15
				15:[D_KEYWORD_MEAN_C<17.3531] yes=31,no=32,missing=32
					31:[C_D_U_PUBLISHER_GENDER_COEC<0.0309376] yes=63,no=64,missing=63
						63:leaf=-0.0393445
						64:leaf=-0.00579509
					32:[D_CATEGORY_MACRO_MAX_COEC<0.0906177] yes=65,no=66,missing=66
						65:leaf=-0.0226915
						66:leaf=0.0558668
				16:[C_D_U_PUBLISHER_CITY_C<2.91776] yes=33,no=34,missing=34
					33:[C_D_U_PUBLISHER_GENDER_COEC<0.033344] yes=67,no=68,missing=67
						67:leaf=-0.0196464
						68:leaf=0.0545608
					34:[WORD_COUNT<6648] yes=69,no=70,missing=70
						69:leaf=0.027036
						70:leaf=0.130379
			8:[WORD_COUNT<1338] yes=17,no=18,missing=18
				17:[D_CATEGORY_MICRO_MAX_COEC<0.0462828] yes=35,no=36,missing=36
					35:[D_TITLEMD5_COEC<0.118348] yes=71,no=72,missing=71
						71:leaf=-0.0312919
						72:leaf=0.0197557
					36:[C_D_U_PUBLISHER_CITY_COEC<0.0498509] yes=73,no=74,missing=74
						73:leaf=-0.0251861
						74:leaf=-0.00277556
				18:[C_D_U_CATEGORY_CITY_MICRO_MAX_COEC<0.107931] yes=37,no=38,missing=37
					37:[D_KEYWORD_MEAN_EC<770.178] yes=75,no=76,missing=76
						75:leaf=-0.0123189
						76:leaf=-0.00345221
					38:[C_D_U_PUBLISHER_CITY_C<2.91776] yes=77,no=78,missing=77
						77:leaf=-0.00115185
						78:leaf=0.0260818
		4:[TIME_OF_DAY<19] yes=9,no=10,missing=10
			9:[WORD_COUNT<2435] yes=19,no=20,missing=20
				19:[C_D_U_PUBLISHER_AGE_EC<363593] yes=39,no=40,missing=40
					39:[C_D_U_CONID_CITY_C<8.0262] yes=79,no=80,missing=79
						79:leaf=-0.00430328
						80:leaf=-0.184754
					40:[C_D_U_PUBLISHER_GENDER_C<3949.24] yes=81,no=82,missing=82
						81:leaf=0.0600341
						82:leaf=0.00578756
				20:[C_D_U_CATEGORY_GENDER_MACRO_MEAN_COEC<0.030392] yes=41,no=42,missing=42
					41:[C_D_U_CATEGORY_CITY_MICRO_MEAN_COEC<0.0599529] yes=83,no=84,missing=83
						83:leaf=-0.00818883
						84:leaf=-0.0647305
					42:[D_CATEGORY_MICRO_MAX_COEC<0.0535416] yes=85,no=86,missing=85
						85:leaf=0.0108826
						86:leaf=-0.0115029
			10:[D_KEYWORD_MACRO_MEAN_COEC<0.0834085] yes=21,no=22,missing=22
				21:[C_D_U_CATEGORY_CITY_MICRO_MAX_COEC<0.217407] yes=43,no=44,missing=43
					43:[C_D_U_PUBLISHER_AGE_COEC<0.0217892] yes=87,no=88,missing=88
						87:leaf=-0.0869998
						88:leaf=-0.0100997
					44:[C_D_U_PUBLISHER_AGE_EC<378234] yes=89,no=90,missing=90
						89:leaf=0.0302717
						90:leaf=-0.211466
				22:[C_D_U_PUBLISHER_CITY_EC<5.96673] yes=45,no=46,missing=45
					45:[C_D_U_CATEGORY_CITY_MACRO_MAX_COEC<0.167249] yes=91,no=92,missing=92
						91:leaf=0.107961
						92:leaf=0.00621619
					46:[C_D_U_PUBLISHER_CITY_EC<13.304] yes=93,no=94,missing=94
						93:leaf=-0.00394666
						94:leaf=-0.0509219
	2:[C_D_U_CONID_AGE_COEC<0.050317] yes=5,no=6,missing=5
		5:[C_D_U_PUBLISHER_CITY_C<7.8194] yes=11,no=12,missing=12
			11:[C_D_U_TITLEMD5_CITY_COEC<0.0807769] yes=23,no=24,missing=24
				23:[TIME_OF_DAY<23] yes=47,no=48,missing=48
					47:[C_D_U_PUBLISHER_AGE_EC<91307] yes=95,no=96,missing=96
						95:leaf=0.00420524
						96:leaf=-0.00231348
					48:[C_D_U_CATEGORY_AGE_MICRO_MEAN_COEC<0.0424709] yes=97,no=98,missing=98
						97:leaf=-0.00215169
						98:leaf=-0.0205534
				24:[C_D_U_CATEGORY_CITY_MACRO_MEAN_COEC<0.112402] yes=49,no=50,missing=49
					49:[D_GROUPID_COEC<0.0265272] yes=99,no=100,missing=100
						99:leaf=-0.0200614
						100:leaf=-0.00769852
					50:[C_D_U_CONID_CITY_C<0.587822] yes=101,no=102,missing=101
						101:leaf=0.012635
						102:leaf=-0.0187001
			12:[C_D_U_GROUPID_CITY_COEC<0.0544403] yes=25,no=26,missing=25
				25:[C_D_U_CATEGORY_CITY_MACRO_MEAN_COEC<0.0543227] yes=51,no=52,missing=52
					51:[WORD_COUNT<1776] yes=103,no=104,missing=104
						103:leaf=-0.00933935
						104:leaf=-0.00135249
					52:[U_GENDER<2] yes=105,no=106,missing=105
						105:leaf=0.00113139
						106:leaf=0.0126303
				26:[C_D_U_CONID_CITY_C<2.62465] yes=53,no=54,missing=54
					53:[C_D_U_TITLEMD5_AGE_COEC<0.0300766] yes=107,no=108,missing=107
						107:leaf=-0.00165987
						108:leaf=0.00780002
					54:[D_PUBLISHER_COEC<0.037671] yes=109,no=110,missing=110
						109:leaf=0.0208867
						110:leaf=0.0073237
		6:[C_D_U_GROUPID_GENDER_COEC<0.0614397] yes=13,no=14,missing=14
			13:[WORD_COUNT<2132] yes=27,no=28,missing=28
				27:[D_KEYWORD_MAX_C<204.98] yes=55,no=56,missing=56
					55:[D_KEYWORD_MACRO_MEAN_COEC<0.0500688] yes=111,no=112,missing=112
						111:leaf=-0.00102763
						112:leaf=-0.011094
					56:[C_D_U_CATEGORY_GENDER_MACRO_MAX_COEC<0.0508132] yes=113,no=114,missing=114
						113:leaf=-0.015888
						114:leaf=-0.00500511
				28:[C_D_U_CATEGORY_GENDER_MACRO_MAX_COEC<0.0383995] yes=57,no=58,missing=58
					57:[D_KEYWORD_MACRO_MEAN_COEC<0.047899] yes=115,no=116,missing=116
						115:leaf=-0.00514864
						116:leaf=-0.0387026
					58:[D_KEYWORD_MACRO_MEAN_COEC<0.0433992] yes=117,no=118,missing=118
						117:leaf=0.00951755
						118:leaf=0.00136444
			14:[C_D_U_CATEGORY_CITY_MICRO_MEAN_COEC<0.122889] yes=29,no=30,missing=29
				29:[U_GENDER<2] yes=59,no=60,missing=60
					59:[D_CATEGORY_MICRO_MEAN_COEC<0.0466036] yes=119,no=120,missing=120
						119:leaf=0.0187612
						120:leaf=0.00667364
					60:[C_D_U_PUBLISHER_CITY_COEC<0.0444862] yes=121,no=122,missing=122
						121:leaf=0.00105292
						122:leaf=0.0055379
				30:[C_D_U_TITLEMD5_CITY_COEC<0.0807769] yes=61,no=62,missing=61
					61:[C_D_U_PUBLISHER_CITY_C<0.994999] yes=123,no=124,missing=124
						123:leaf=0.0156497
						124:leaf=0.034075
					62:[D_KEYWORD_MAX_EC<860.837] yes=125,no=126,missing=126
						125:leaf=0.0131082
						126:leaf=-0.00134376
booster[29]:
0:[D_CONID_COEC<0.028973] yes=1,no=2,missing=2
	1:[D_KEYWORD_MACRO_MEAN_COEC<0.0183045] yes=3,no=4,missing=4
		3:[C_D_U_PUBLISHER_CITY_COEC<0.0198164] yes=7,no=8,missing=8
			7:[D_CATEGORY_MICRO_MAX_COEC<0.0454386] yes=15,no=16,missing=15
				15:[C_D_U_PUBLISHER_AGE_EC<828.603] yes=31,no=32,missing=32
					31:[D_KEYWORD_MICRO_MAX_COEC<0.0829748] yes=63,no=64,missing=64
						63:leaf=-0.0113679
						64:leaf=0.225201
					32:[C_D_U_TITLEMD5_AGE_COEC<0.0269377] yes=65,no=66,missing=65
						65:leaf=-0.0458096
						66:leaf=0.00889377
				16:[C_D_U_CATEGORY_CITY_MICRO_MAX_COEC<0.067712] yes=33,no=34,missing=34
					33:[C_D_U_PUBLISHER_GENDER_C<7516.61] yes=67,no=68,missing=67
						67:leaf=-0.0348826
						68:leaf=0.444145
					34:[C_D_U_PUBLISHER_AGE_C<151.459] yes=69,no=70,missing=70
						69:leaf=0.145587
						70:leaf=0.0071738
			8:[D_KEYWORD_MEAN_C<122.394] yes=17,no=18,missing=18
				17:[WORD_COUNT<1400] yes=35,no=36,missing=36
					35:[D_KEYWORD_MEAN_C<24.2265] yes=71,no=72,missing=72
						71:leaf=-0.0433257
						72:leaf=-0.0103821
					36:[TIME_OF_DAY<23] yes=73,no=74,missing=74
						73:leaf=-0.0125429
						74:leaf=-0.0520226
				18:[D_PUBLISHER_EC<70034.3] yes=37,no=38,missing=38
					37:[D_KEYWORD_MAX_EC<878.632] yes=75,no=76,missing=76
						75:leaf=0.31159
						76:leaf=-0.0751931
					38:[D_KEYWORD_MAX_C<101.136] yes=77,no=78,missing=78
						77:leaf=0.183509
						78:leaf=0.0467956
		4:[C_D_U_CATEGORY_CITY_MACRO_MEAN_COEC<0.142136] yes=9,no=10,missing=9
			9:[D_KEYWORD_MICRO_MEAN_COEC<0.0454971] yes=19,no=20,missing=20
				19:[DAY_OF_WEEK<5] yes=39,no=40,missing=40
					39:[D_CATEGORY_MICRO_MAX_COEC<0.0435015] yes=79,no=80,missing=79
						79:leaf=-0.00538901
						80:leaf=-0.0133539
					40:[D_TITLEMD5_COEC<0.0319663] yes=81,no=82,missing=82
						81:leaf=0.00197593
						82:leaf=-0.0890615
				20:[C_D_U_PUBLISHER_CITY_COEC<0.0483296] yes=41,no=42,missing=42
					41:[C_D_U_TITLEMD5_AGE_COEC<0.0212615] yes=83,no=84,missing=83
						83:leaf=-0.0255909
						84:leaf=-0.00971685
					42:[U_GENDER<2] yes=85,no=86,missing=85
						85:leaf=-0.0124729
						86:leaf=0.00739643
			10:[C_D_U_PUBLISHER_CITY_C<9.23822] yes=21,no=22,missing=21
				21:[D_PUBLISHER_EC<7018.64] yes=43,no=44,missing=44
					43:[C_D_U_CONID_CITY_C<0.918315] yes=87,no=88,missing=87
						87:leaf=0.0397632
						88:leaf=-0.116517
					44:[C_D_U_PUBLISHER_AGE_COEC<0.0327356] yes=89,no=90,missing=89
						89:leaf=-0.00816599
						90:leaf=0.0101632
				22:[D_PUBLISHER_COEC<0.0324481] yes=45,no=46,missing=46
					45:[C_D_U_CONID_CITY_C<0.985074] yes=91,no=92,missing=91
						91:leaf=0.129114
						92:leaf=-0.148327
					46:[C_D_U_PUBLISHER_AGE_EC<278422] yes=93,no=94,missing=93
						93:leaf=0.00727778
						94:leaf=0.0738238
	2:[TIME_OF_DAY<19] yes=5,no=6,missing=6
		5:[D_KEYWORD_MEAN_EC<1786.25] yes=11,no=12,missing=12
			11:[C_D_U_CONID_AGE_C<5.47969] yes=23,no=24,missing=23
				23:[WORD_COUNT<3702] yes=47,no=48,missing=48
					47:[D_PUBLISHER_C<617.477] yes=95,no=96,missing=95
						95:leaf=-0.018326
						96:leaf=-0.0061665
					48:[C_D_U_GROUPID_AGE_COEC<0.036874] yes=97,no=98,missing=97
						97:leaf=0.00275352
						98:leaf=-0.0195008
				24:[C_D_U_PUBLISHER_CITY_COEC<0.16622] yes=49,no=50,missing=49
					49:[WORD_COUNT<3648] yes=99,no=100,missing=100
						99:leaf=-0.000413014
						100:leaf=0.00752842
					50:[C_D_U_PUBLISHER_CITY_C<0.999999] yes=101,no=102,missing=102
						101:leaf=-0.00875288
						102:leaf=0.0372038
			12:[D_CONID_COEC<0.0894153] yes=25,no=26,missing=26
				25:[TIME_OF_DAY<2] yes=51,no=52,missing=52
					51:[C_D_U_PUBLISHER_CITY_COEC<0.112516] yes=103,no=104,missing=104
						103:leaf=-0.00484232
						104:leaf=0.00334775
					52:[WORD_COUNT<2991] yes=105,no=106,missing=106
						105:leaf=0.00203731
						106:leaf=0.00618054
				26:[D_CONID_COEC<0.141819] yes=53,no=54,missing=54
					53:[WORD_COUNT<1204] yes=107,no=108,missing=108
						107:leaf=0.00106914
						108:leaf=0.0110754
					54:[DAY_OF_WEEK<0.999999] yes=109,no=110,missing=110
						109:leaf=-0.0203784
						110:leaf=0.0233292
		6:[TIME_OF_DAY<23] yes=13,no=14,missing=14
			13:[D_KEYWORD_MEAN_EC<776.806] yes=27,no=28,missing=28
				27:[D_KEYWORD_MACRO_MEAN_COEC<0.097696] yes=55,no=56,missing=56
					55:[D_PUBLISHER_EC<222425] yes=111,no=112,missing=112
						111:leaf=-0.0244828
						112:leaf=-0.00980237
					56:[D_KEYWORD_MICRO_MEAN_COEC<0.0426496] yes=113,no=114,missing=114
						113:leaf=-0.121777
						114:leaf=0.0384957
				28:[WORD_COUNT<2243] yes=57,no=58,missing=58
					57:[D_CONID_COEC<0.118348] yes=115,no=116,missing=115
						115:leaf=-0.00381957
						116:leaf=0.015699
					58:[C_D_U_CATEGORY_GENDER_MICRO_MAX_COEC<0.0402333] yes=117,no=118,missing=118
						117:leaf=-0.0133036
						118:leaf=0.00222779
			14:[D_CATEGORY_MACRO_MAX_COEC<0.0303369] yes=29,no=30,missing=29
				29:[D_KEYWORD_MACRO_MEAN_COEC<0.0267692] yes=59,no=60,missing=60
					59:[WORD_COUNT<797] yes=119,no=120,missing=120
						119:leaf=0.0507241
						120:leaf=-0.0606295
					60:[C_D_U_TITLEMD5_AGE_COEC<0.0351353] yes=121,no=122,missing=122
						121:leaf=0.00682193
						122:leaf=-0.0196951
				30:[C_D_U_PUBLISHER_CITY_COEC<0.16622] yes=61,no=62,missing=61
					61:[C_D_U_TITLEMD5_AGE_COEC<0.0509857] yes=123,no=124,missing=123
						123:leaf=-0.00917837
						124:leaf=-0.000903444
					62:[D_PUBLISHER_EC<261551] yes=125,no=126,missing=126
						125:leaf=0.00322659
						126:leaf=0.0530187
