booster[0]:
0:[C_D_U_TITLEMD5_CATEGORY_MICRO_MEAN_COEC<0.105811] yes=1,no=2,missing=1
	1:[D_TITLEMD5_COEC<0.0586403] yes=3,no=4,missing=3
		3:[D_TITLEMD5_COEC<0.0370399] yes=7,no=8,missing=7
			7:[U_CATEGORY_MICRO_MAX_COEC<0.121726] yes=15,no=16,missing=15
				15:[D_TITLEMD5_C<18.5954] yes=31,no=32,missing=31
					31:[C_D_U_KEYWORD_CATEGORY_MACRO_MEAN_COEC<0.0484075] yes=63,no=64,missing=63
						63:leaf=-0.123835
						64:leaf=-0.072085
					32:[C_D_U_KEYWORD_CATEGORY_MEAN_EC<88.2606] yes=65,no=66,missing=66
						65:leaf=-0.0423306
						66:leaf=-0.0897508
				16:[U_CATEGORY_MICRO_MAX_COEC<0.155342] yes=33,no=34,missing=34
					33:[D_TITLEMD5_C<3.95525] yes=67,no=68,missing=68
						67:leaf=-0.062822
						68:leaf=-0.0139498
					34:[U_CATEGORY_MACRO_MAX_COEC<0.0765967] yes=69,no=70,missing=70
						69:leaf=0.0420504
						70:leaf=-0.0246425
			8:[U_CATEGORY_MICRO_MAX_COEC<0.101617] yes=17,no=18,missing=17
				17:[D_TITLEMD5_C<120.031] yes=35,no=36,missing=36
					35:[D_TITLEMD5_C<18.5954] yes=71,no=72,missing=72
						71:leaf=-0.0870766
						72:leaf=-0.0591992
					36:[D_TITLEMD5_COEC<0.0486472] yes=73,no=74,missing=74
						73:leaf=-0.0488827
						74:leaf=-0.0271986
				18:[U_CATEGORY_MICRO_MAX_COEC<0.134459] yes=37,no=38,missing=38
					37:[C_D_U_TITLEMD5_CATEGORY_MICRO_MEAN_COEC<0.0763217] yes=75,no=76,missing=76
						75:leaf=-0.0129971
						76:leaf=0.023598
					38:[CAT_REL<0.033578] yes=77,no=78,missing=78
						77:leaf=0.0315492
						78:leaf=0.0668647
		4:[D_KEYWORD_MACRO_MEAN_COEC<0.0791182] yes=9,no=10,missing=10
			9:[D_TITLEMD5_C<11.98] yes=19,no=20,missing=20
				19:[C_D_U_KEYWORD_CATEGORY_MICRO_MAX_COEC<0.116638] yes=39,no=40,missing=39
					39:[D_CATEGORY_MAX_EC<121942] yes=79,no=80,missing=80
						79:leaf=-0.0911064
						80:leaf=-0.0595762
					40:[C_D_U_CATEGORY_CATEGORY_MICRO_MAX_COEC<0.120752] yes=81,no=82,missing=82
						81:leaf=-0.0145946
						82:leaf=0.0480001
				20:[D_TITLEMD5_COEC<0.0738914] yes=41,no=42,missing=42
					41:[U_CATEGORY_MACRO_MEAN_COEC<0.100098] yes=83,no=84,missing=83
						83:leaf=-0.00605265
						84:leaf=0.0514092
					42:[D_KEYWORD_MAX_C<299.666] yes=85,no=86,missing=86
						85:leaf=0.00898379
						86:leaf=0.0318122
			10:[D_TITLEMD5_C<574.802] yes=21,no=22,missing=22
				21:[D_TITLEMD5_C<11.98] yes=43,no=44,missing=44
					43:[C_D_U_KEYWORD_CATEGORY_MICRO_MAX_COEC<0.184834] yes=87,no=88,missing=87
						87:leaf=-0.0274883
						88:leaf=0.0715882
					44:[DOC_AGE<59.8708] yes=89,no=90,missing=90
						89:leaf=0.025944
						90:leaf=-0.0428819
				22:[D_CATEGORY_MICRO_MEAN_COEC<0.0453432] yes=45,no=46,missing=45
					45:[C_D_U_TITLEMD5_AGE_C<542.602] yes=91,no=92,missing=91
						91:leaf=-0.0160222
						92:leaf=0.0459361
					46:[D_KEYWORD_MACRO_MEAN_COEC<0.104864] yes=93,no=94,missing=94
						93:leaf=0.0446286
						94:leaf=0.0633193
	2:[C_D_U_TITLEMD5_CATEGORY_MICRO_MAX_COEC<0.202445] yes=5,no=6,missing=6
		5:[C_D_U_TITLEMD5_CATEGORY_MICRO_MAX_COEC<0.141185] yes=11,no=12,missing=12
			11:[D_TITLEMD5_C<40.4142] yes=23,no=24,missing=24
				23:[C_D_U_KEYWORD_CATEGORY_MICRO_MAX_COEC<0.205523] yes=47,no=48,missing=48
					47:[C_D_U_CATEGORY_CITY_MACRO_MEAN_COEC<0.0898973] yes=95,no=96,missing=96
						95:leaf=-0.0209458
						96:leaf=0.0363971
					48:[C_D_U_TITLEMD5_CATEGORY_MACRO_MEAN_COEC<0.0675441] yes=97,no=98,missing=98
						97:leaf=0.100987
						98:leaf=0.0267512
				24:[U_CATEGORY_MICRO_MAX_COEC<0.125722] yes=49,no=50,missing=50
					49:[D_TITLEMD5_COEC<0.081002] yes=99,no=100,missing=100
						99:leaf=0.0392663
						100:leaf=0.0791442
					50:[U_CATEGORY_MACRO_MEAN_COEC<0.122646] yes=101,no=102,missing=102
						101:leaf=0.0959254
						102:leaf=0.0588212
			12:[D_TITLEMD5_C<100.282] yes=25,no=26,missing=26
				25:[C_D_U_KEYWORD_CATEGORY_MICRO_MEAN_COEC<0.10086] yes=51,no=52,missing=52
					51:[D_TITLEMD5_C<3.95525] yes=103,no=104,missing=104
						103:leaf=-0.0314311
						104:leaf=0.0325005
					52:[CAT_REL<0.004782] yes=105,no=106,missing=106
						105:leaf=0.0448365
						106:leaf=0.0826189
				26:[TIME_OF_DAY<9] yes=53,no=54,missing=54
					53:[C_D_U_TITLEMD5_CATEGORY_MICRO_MAX_COEC<0.168528] yes=107,no=108,missing=108
						107:leaf=0.0835415
						108:leaf=0.102701
					54:[D_KEYWORD_MICRO_MAX_COEC<0.0777978] yes=109,no=110,missing=110
						109:leaf=0.0641245
						110:leaf=0.083912
		6:[D_TITLEMD5_C<78.346] yes=13,no=14,missing=14
			13:[C_D_U_KEYWORD_CATEGORY_MICRO_MEAN_COEC<0.0950594] yes=27,no=28,missing=28
				27:[D_TITLEMD5_C<6.66967] yes=55,no=56,missing=56
					55:[C_D_U_KEYWORD_CATEGORY_MICRO_MEAN_COEC<0.0711105] yes=111,no=112,missing=112
						111:leaf=-0.0591946
						112:leaf=0.0145575
					56:[D_TITLEMD5_COEC<0.0486472] yes=113,no=114,missing=114
						113:leaf=0.0322891
						114:leaf=0.0808312
				28:[C_D_U_KEYWORD_CATEGORY_MICRO_MAX_COEC<0.292137] yes=57,no=58,missing=58
					57:[D_TITLEMD5_C<8.81226] yes=115,no=116,missing=116
						115:leaf=0.0392092
						116:leaf=0.0798777
					58:[D_TITLEMD5_C<6.66967] yes=117,no=118,missing=118
						117:leaf=0.0782276
						118:leaf=0.112706
			14:[C_D_U_TITLEMD5_CATEGORY_MICRO_MAX_COEC<0.26366] yes=29,no=30,missing=30
				29:[CAT_REL<0.033578] yes=59,no=60,missing=60
					59:[C_D_U_KEYWORD_CATEGORY_MICRO_MEAN_COEC<0.103819] yes=119,no=120,missing=120
						119:leaf=0.0566685
						120:leaf=0.10558
					60:[C_D_U_TITLEMD5_CATEGORY_MICRO_MAX_COEC<0.223183] yes=121,no=122,missing=122
						121:leaf=0.114771
						122:leaf=0.13089
				30:[CAT_REL<0.004782] yes=61,no=62,missing=62
					61:[C_D_U_KEYWORD_CATEGORY_MICRO_MEAN_COEC<0.141571] yes=123,no=124,missing=124
						123:leaf=0.108857
						124:leaf=0.134951
					62:[U_CATEGORY_MICRO_MAX_COEC<0.119301] yes=125,no=126,missing=126
						125:leaf=0.132873
						126:leaf=0.153238
booster[1]:
0:[C_D_U_TITLEMD5_CATEGORY_MICRO_MAX_COEC<0.124513] yes=1,no=2,missing=1
	1:[D_TITLEMD5_COEC<0.0574505] yes=3,no=4,missing=3
		3:[D_TITLEMD5_C<27.5332] yes=7,no=8,missing=7
			7:[C_D_U_KEYWORD_CATEGORY_MICRO_MAX_COEC<0.139332] yes=15,no=16,missing=15
				15:[D_TITLEMD5_COEC<0.0355288] yes=31,no=32,missing=31
					31:[C_D_U_KEYWORD_CATEGORY_MACRO_MEAN_COEC<0.0300331] yes=63,no=64,missing=63
						63:leaf=-0.111499
						64:leaf=-0.0713737
					32:[D_TITLEMD5_EC<87.117] yes=65,no=66,missing=66
						65:leaf=-0.098859
						66:leaf=-0.0699489
				16:[U_CATEGORY_MICRO_MAX_COEC<0.147301] yes=33,no=34,missing=34
					33:[D_TITLEMD5_COEC<0.0308587] yes=67,no=68,missing=68
						67:leaf=-0.064259
						68:leaf=-0.0150597
					34:[C_D_U_CATEGORY_CITY_MACRO_MEAN_COEC<0.0426748] yes=69,no=70,missing=70
						69:leaf=-0.0456743
						70:leaf=0.0288217
			8:[C_D_U_TITLEMD5_CATEGORY_MICRO_MAX_COEC<0.0527245] yes=17,no=18,missing=17
				17:[D_TITLEMD5_COEC<0.04308] yes=35,no=36,missing=36
					35:[C_D_U_CATEGORY_CITY_MACRO_MEAN_COEC<0.052625] yes=71,no=72,missing=72
						71:leaf=-0.0763158
						72:leaf=-0.0583448
					36:[D_TITLEMD5_C<121.716] yes=73,no=74,missing=74
						73:leaf=-0.0460263
						74:leaf=-0.0293257
				18:[U_CATEGORY_MICRO_MAX_COEC<0.13576] yes=37,no=38,missing=38
					37:[C_D_U_TITLEMD5_CATEGORY_MEAN_C<4.42198] yes=75,no=76,missing=76
						75:leaf=-0.00979511
						76:leaf=0.0197754
					38:[CAT_REL<0.184133] yes=77,no=78,missing=78
						77:leaf=0.0313011
						78:leaf=0.0734453
		4:[D_KEYWORD_MACRO_MEAN_COEC<0.0788171] yes=9,no=10,missing=10
			9:[D_TITLEMD5_C<12.7444] yes=19,no=20,missing=20
				19:[C_D_U_CATEGORY_CATEGORY_MICRO_MAX_COEC<0.102825] yes=39,no=40,missing=39
					39:[D_CATEGORY_MEAN_C<8227.75] yes=79,no=80,missing=80
						79:leaf=-0.078794
						80:leaf=-0.0494833
					40:[D_TITLEMD5_C<0.975248] yes=81,no=82,missing=82
						81:leaf=-0.0684466
						82:leaf=0.0212346
				20:[D_TITLEMD5_COEC<0.0668816] yes=41,no=42,missing=42
					41:[WORD_COUNT<1611] yes=83,no=84,missing=84
						83:leaf=-0.0162688
						84:leaf=0.00281263
					42:[DOC_AGE<59.6753] yes=85,no=86,missing=86
						85:leaf=0.00837932
						86:leaf=-0.0668648
			10:[D_TITLEMD5_C<608.983] yes=21,no=22,missing=22
				21:[D_TITLEMD5_C<12.7444] yes=43,no=44,missing=44
					43:[D_CATEGORY_MAX_EC<358299] yes=87,no=88,missing=88
						87:leaf=-0.0531532
						88:leaf=-0.00407522
					44:[D_TITLEMD5_COEC<0.0918634] yes=89,no=90,missing=90
						89:leaf=0.00930532
						90:leaf=0.0315802
				22:[D_CATEGORY_MEAN_C<5359.07] yes=45,no=46,missing=45
					45:[TIME_OF_DAY<18] yes=91,no=92,missing=92
						91:leaf=0.00270594
						92:leaf=-0.0855007
					46:[D_KEYWORD_MACRO_MEAN_COEC<0.104684] yes=93,no=94,missing=94
						93:leaf=0.0403243
						94:leaf=0.0565197
	2:[C_D_U_TITLEMD5_CATEGORY_MICRO_MEAN_COEC<0.164956] yes=5,no=6,missing=6
		5:[D_TITLEMD5_C<41.2015] yes=11,no=12,missing=12
			11:[C_D_U_CATEGORY_CATEGORY_MICRO_MAX_COEC<0.118158] yes=23,no=24,missing=24
				23:[C_D_U_KEYWORD_CATEGORY_MICRO_MEAN_COEC<0.0975766] yes=47,no=48,missing=48
					47:[D_TITLEMD5_C<3.8533] yes=95,no=96,missing=96
						95:leaf=-0.0535071
						96:leaf=-0.00242005
					48:[D_TITLEMD5_COEC<0.035629] yes=97,no=98,missing=98
						97:leaf=-0.00876355
						98:leaf=0.0362974
				24:[CAT_REL<0.019694] yes=49,no=50,missing=50
					49:[D_KEYWORD_MACRO_MEAN_COEC<0.0700609] yes=99,no=100,missing=100
						99:leaf=0.0182825
						100:leaf=0.0833268
					50:[D_TITLEMD5_C<3.8533] yes=101,no=102,missing=102
						101:leaf=0.029374
						102:leaf=0.078867
			12:[U_CATEGORY_MICRO_MAX_COEC<0.124384] yes=25,no=26,missing=26
				25:[D_TITLEMD5_COEC<0.0618652] yes=51,no=52,missing=52
					51:[D_TITLEMD5_EC<4712.67] yes=103,no=104,missing=104
						103:leaf=0.0268249
						104:leaf=0.0590773
					52:[C_D_U_CATEGORY_CITY_MEAN_EC<31781.8] yes=105,no=106,missing=105
						105:leaf=0.0693699
						106:leaf=0.0376987
				26:[CAT_REL<0.004782] yes=53,no=54,missing=54
					53:[C_D_U_CATEGORY_CATEGORY_MICRO_MAX_COEC<0.210943] yes=107,no=108,missing=108
						107:leaf=0.0590761
						108:leaf=0.0891041
					54:[TIME_OF_DAY<11] yes=109,no=110,missing=110
						109:leaf=0.105524
						110:leaf=0.0836905
		6:[D_TITLEMD5_C<10.3031] yes=13,no=14,missing=14
			13:[C_D_U_KEYWORD_CATEGORY_MICRO_MEAN_COEC<0.101545] yes=27,no=28,missing=28
				27:[U_CATEGORY_MICRO_MAX_COEC<0.119723] yes=55,no=56,missing=56
					55:[C_D_U_TITLEMD5_CATEGORY_MAX_C<1.14326] yes=111,no=112,missing=112
						111:leaf=-0.0483748
						112:leaf=0.0386386
					56:[CAT_REL<0.147744] yes=113,no=114,missing=114
						113:leaf=-0.0029656
						114:leaf=0.0506539
				28:[WORD_COUNT<1250] yes=57,no=58,missing=58
					57:[C_D_U_CATEGORY_CATEGORY_MICRO_MAX_COEC<0.116943] yes=115,no=116,missing=116
						115:leaf=-0.00277471
						116:leaf=0.0615503
					58:[C_D_U_KEYWORD_CATEGORY_MICRO_MAX_COEC<0.324978] yes=117,no=118,missing=118
						117:leaf=0.0710411
						118:leaf=0.108212
			14:[C_D_U_TITLEMD5_CATEGORY_MICRO_MAX_COEC<0.241773] yes=29,no=30,missing=30
				29:[U_CATEGORY_MACRO_MAX_COEC<0.0825309] yes=59,no=60,missing=60
					59:[CAT_REL<0.004782] yes=119,no=120,missing=120
						119:leaf=0.0934725
						120:leaf=0.111868
					60:[D_TITLEMD5_COEC<0.0555589] yes=121,no=122,missing=122
						121:leaf=0.0225453
						122:leaf=0.0859466
				30:[CAT_REL<0.004782] yes=61,no=62,missing=62
					61:[D_TITLEMD5_COEC<0.0608603] yes=123,no=124,missing=124
						123:leaf=0.0725793
						124:leaf=0.117271
					62:[U_CATEGORY_MICRO_MAX_COEC<0.121212] yes=125,no=126,missing=126
						125:leaf=0.117462
						126:leaf=0.136909
booster[2]:
0:[C_D_U_TITLEMD5_CATEGORY_MICRO_MEAN_COEC<0.105474] yes=1,no=2,missing=1
	1:[D_TITLEMD5_COEC<0.0538526] yes=3,no=4,missing=3
		3:[D_TITLEMD5_COEC<0.0333498] yes=7,no=8,missing=7
			7:[U_CATEGORY_MICRO_MAX_COEC<0.122113] yes=15,no=16,missing=15
				15:[D_KEYWORD_MACRO_MEAN_COEC<0.031044] yes=31,no=32,missing=32
					31:[IMAGE_COUNT<0.999999] yes=63,no=64,missing=64
						63:leaf=-0.131019
						64:leaf=-0.101705
					32:[C_D_U_KEYWORD_CATEGORY_MICRO_MEAN_COEC<0.0629791] yes=65,no=66,missing=65
						65:leaf=-0.090254
						66:leaf=-0.0569192
				16:[C_D_U_CATEGORY_CATEGORY_MICRO_MAX_COEC<0.112635] yes=33,no=34,missing=34
					33:[U_CITY_EC<18234.6] yes=67,no=68,missing=68
						67:leaf=-0.0951396
						68:leaf=-0.0367591
					34:[DOC_AGE<24.7506] yes=69,no=70,missing=70
						69:leaf=-0.00691509
						70:leaf=0.0718378
			8:[U_CATEGORY_MICRO_MAX_COEC<0.107427] yes=17,no=18,missing=17
				17:[D_TITLEMD5_C<98.0776] yes=35,no=36,missing=36
					35:[C_D_U_CATEGORY_CITY_MICRO_MEAN_COEC<0.0450593] yes=71,no=72,missing=72
						71:leaf=-0.0767154
						72:leaf=-0.0544354
					36:[D_TITLEMD5_COEC<0.0437646] yes=73,no=74,missing=74
						73:leaf=-0.0494993
						74:leaf=-0.0290683
				18:[CAT_REL<0.034661] yes=37,no=38,missing=38
					37:[C_D_U_CATEGORY_CATEGORY_MICRO_MAX_COEC<0.197111] yes=75,no=76,missing=76
						75:leaf=-0.00890773
						76:leaf=0.0367521
					38:[D_TITLEMD5_EC<72.8328] yes=77,no=78,missing=78
						77:leaf=-0.0181783
						78:leaf=0.0464569
		4:[D_KEYWORD_MACRO_MEAN_COEC<0.0759301] yes=9,no=10,missing=10
			9:[D_TITLEMD5_C<36.5828] yes=19,no=20,missing=20
				19:[C_D_U_KEYWORD_CATEGORY_MICRO_MAX_COEC<0.139176] yes=39,no=40,missing=39
					39:[D_TITLEMD5_C<8.93515] yes=79,no=80,missing=80
						79:leaf=-0.0623936
						80:leaf=-0.0349352
					40:[C_D_U_CATEGORY_CATEGORY_MICRO_MAX_COEC<0.148222] yes=81,no=82,missing=82
						81:leaf=0.00646789
						82:leaf=0.0563856
				20:[D_TITLEMD5_COEC<0.064441] yes=41,no=42,missing=42
					41:[U_CATEGORY_MEAN_C<4885.28] yes=83,no=84,missing=84
						83:leaf=0.0396144
						84:leaf=-0.0134514
					42:[C_D_U_TITLEMD5_AGE_COEC<0.0925748] yes=85,no=86,missing=85
						85:leaf=0.00230551
						86:leaf=0.0274216
			10:[D_TITLEMD5_C<1010.54] yes=21,no=22,missing=22
				21:[D_TITLEMD5_C<11.6184] yes=43,no=44,missing=44
					43:[C_D_U_KEYWORD_CATEGORY_MICRO_MAX_COEC<0.18216] yes=87,no=88,missing=87
						87:leaf=-0.0283643
						88:leaf=0.0661009
					44:[D_TITLEMD5_COEC<0.0924352] yes=89,no=90,missing=90
						89:leaf=0.0109337
						90:leaf=0.0309638
				22:[D_CATEGORY_MICRO_MAX_COEC<0.0522503] yes=45,no=46,missing=45
					45:[TIME_OF_DAY<10] yes=91,no=92,missing=92
						91:leaf=0.0221067
						92:leaf=-0.0167919
					46:[D_TITLEMD5_COEC<0.113931] yes=93,no=94,missing=94
						93:leaf=0.0396138
						94:leaf=0.0552601
	2:[C_D_U_KEYWORD_CATEGORY_MACRO_MEAN_COEC<0.158342] yes=5,no=6,missing=6
		5:[U_CATEGORY_MACRO_MAX_COEC<0.0570863] yes=11,no=12,missing=12
			11:[C_D_U_TITLEMD5_CATEGORY_MICRO_MEAN_COEC<0.161049] yes=23,no=24,missing=24
				23:[U_CATEGORY_MICRO_MAX_COEC<0.124902] yes=47,no=48,missing=48
					47:[D_TITLEMD5_COEC<0.0358527] yes=95,no=96,missing=96
						95:leaf=-0.0694368
						96:leaf=0.0532041
					48:[D_TITLEMD5_C<22.1398] yes=97,no=98,missing=98
						97:leaf=0.0539412
						98:leaf=0.0849444
				24:[D_TITLEMD5_C<3.9453] yes=49,no=50,missing=50
					49:[U_CATEGORY_MAX_C<1457.6] yes=99,no=100,missing=100
						99:leaf=0.0621332
						100:leaf=-0.050315
					50:[WORD_COUNT<1501] yes=101,no=102,missing=102
						101:leaf=0.0919086
						102:leaf=0.119107
			12:[D_TITLEMD5_C<81.8813] yes=25,no=26,missing=26
				25:[C_D_U_KEYWORD_CATEGORY_MICRO_MEAN_COEC<0.0959151] yes=51,no=52,missing=52
					51:[D_TITLEMD5_COEC<0.0333498] yes=103,no=104,missing=104
						103:leaf=-0.0615271
						104:leaf=0.00793092
					52:[C_D_U_KEYWORD_CATEGORY_MICRO_MAX_COEC<0.209681] yes=105,no=106,missing=106
						105:leaf=0.0247331
						106:leaf=0.0558482
				26:[C_D_U_TITLEMD5_CATEGORY_MICRO_MAX_COEC<0.220776] yes=53,no=54,missing=54
					53:[C_D_U_TITLEMD5_CATEGORY_MICRO_MEAN_COEC<0.140213] yes=107,no=108,missing=108
						107:leaf=0.046864
						108:leaf=0.0652155
					54:[TIME_OF_DAY<6] yes=109,no=110,missing=110
						109:leaf=0.106014
						110:leaf=0.0829512
		6:[C_D_U_TITLEMD5_CATEGORY_MICRO_MAX_COEC<0.251844] yes=13,no=14,missing=14
			13:[U_CATEGORY_MACRO_MAX_COEC<0.096794] yes=27,no=28,missing=28
				27:[TIME_OF_DAY<12] yes=55,no=56,missing=56
					55:[CAT_REL<0.004782] yes=111,no=112,missing=112
						111:leaf=0.0904672
						112:leaf=0.106573
					56:[D_KEYWORD_MACRO_MAX_COEC<0.0553464] yes=113,no=114,missing=114
						113:leaf=0.083369
						114:leaf=0.0353086
				28:[D_TITLEMD5_COEC<0.0582293] yes=57,no=58,missing=58
					57:[CAT_REL<0.117416] yes=115,no=116,missing=116
						115:leaf=0.00517854
						116:leaf=0.0719382
					58:[U_AGE_C<33440.9] yes=117,no=118,missing=118
						117:leaf=0.10998
						118:leaf=0.0749228
			14:[D_TITLEMD5_C<91.1797] yes=29,no=30,missing=30
				29:[U_CATEGORY_MACRO_MAX_COEC<0.097363] yes=59,no=60,missing=60
					59:[D_TITLEMD5_C<6.89594] yes=119,no=120,missing=120
						119:leaf=0.0636031
						120:leaf=0.0980037
					60:[C_D_U_CATEGORY_CITY_MICRO_MAX_COEC<0.0805401] yes=121,no=122,missing=122
						121:leaf=0.013325
						122:leaf=0.0671116
				30:[CAT_REL<0.004782] yes=61,no=62,missing=62
					61:[C_D_U_TITLEMD5_CATEGORY_MICRO_MAX_COEC<0.303304] yes=123,no=124,missing=124
						123:leaf=0.100195
						124:leaf=0.115418
					62:[U_CATEGORY_MICRO_MAX_COEC<0.122626] yes=125,no=126,missing=126
						125:leaf=0.111879
						126:leaf=0.129093
booster[3]:
0:[C_D_U_KEYWORD_CATEGORY_MACRO_MEAN_COEC<0.0941292] yes=1,no=2,missing=1
	1:[D_TITLEMD5_COEC<0.0543337] yes=3,no=4,missing=3
		3:[D_TITLEMD5_COEC<0.0345018] yes=7,no=8,missing=7
			7:[U_CATEGORY_MICRO_MAX_COEC<0.122907] yes=15,no=16,missing=15
				15:[IMAGE_COUNT<0.999999] yes=31,no=32,missing=32
					31:[D_KEYWORD_MACRO_MEAN_COEC<0.0342655] yes=63,no=64,missing=64
						63:leaf=-0.119643
						64:leaf=-0.0913078
					32:[C_D_U_KEYWORD_CATEGORY_MICRO_MEAN_COEC<0.0661996] yes=65,no=66,missing=65
						65:leaf=-0.0850389
						66:leaf=-0.0533234
				16:[U_CATEGORY_MICRO_MAX_COEC<0.154936] yes=33,no=34,missing=34
					33:[IMAGE_COUNT<0.999999] yes=67,no=68,missing=68
						67:leaf=-0.0732009
						68:leaf=-0.0233285
					34:[U_CATEGORY_MACRO_MAX_COEC<0.0790284] yes=69,no=70,missing=70
						69:leaf=0.0315972
						70:leaf=-0.0454574
			8:[C_D_U_KEYWORD_CATEGORY_MICRO_MAX_COEC<0.0939196] yes=17,no=18,missing=17
				17:[D_TITLEMD5_C<45.4607] yes=35,no=36,missing=36
					35:[D_TITLEMD5_C<3.98007] yes=71,no=72,missing=72
						71:leaf=-0.0901642
						72:leaf=-0.0588616
					36:[D_TITLEMD5_COEC<0.0458157] yes=73,no=74,missing=74
						73:leaf=-0.0456894
						74:leaf=-0.027499
				18:[CAT_REL<0.011502] yes=37,no=38,missing=38
					37:[C_D_U_CATEGORY_CATEGORY_MAX_EC<285.211] yes=75,no=76,missing=75
						75:leaf=0.0173972
						76:leaf=-0.0220172
					38:[D_TITLEMD5_C<2.72763] yes=77,no=78,missing=78
						77:leaf=-0.0326982
						78:leaf=0.0334648
		4:[D_KEYWORD_MACRO_MEAN_COEC<0.0776179] yes=9,no=10,missing=10
			9:[D_TITLEMD5_C<23.1129] yes=19,no=20,missing=20
				19:[U_CATEGORY_MEAN_C<4095.69] yes=39,no=40,missing=40
					39:[D_TITLEMD5_C<2.72763] yes=79,no=80,missing=80
						79:leaf=-0.0294656
						80:leaf=0.0326342
					40:[D_CATEGORY_MAX_C<8304.54] yes=81,no=82,missing=82
						81:leaf=-0.0648324
						82:leaf=-0.0353178
				20:[D_TITLEMD5_COEC<0.0654725] yes=41,no=42,missing=42
					41:[WORD_COUNT<1523] yes=83,no=84,missing=84
						83:leaf=-0.0172354
						84:leaf=0.00166864
					42:[D_TITLEMD5_C<586.477] yes=85,no=86,missing=86
						85:leaf=-0.00056364
						86:leaf=0.014275
			10:[D_TITLEMD5_C<586.477] yes=21,no=22,missing=22
				21:[D_CATEGORY_MAX_EC<165270] yes=43,no=44,missing=43
					43:[D_CATEGORY_MAX_C<3015.84] yes=87,no=88,missing=87
						87:leaf=0.00107274
						88:leaf=-0.0403266
					44:[D_TITLEMD5_COEC<0.0886151] yes=89,no=90,missing=90
						89:leaf=0.00317402
						90:leaf=0.0226278
				22:[D_CATEGORY_MEAN_EC<86415.7] yes=45,no=46,missing=45
					45:[D_KEYWORD_MAX_C<358.818] yes=91,no=92,missing=92
						91:leaf=-0.00963135
						92:leaf=0.0114531
					46:[D_TITLEMD5_COEC<0.0823776] yes=93,no=94,missing=94
						93:leaf=0.0170312
						94:leaf=0.0381458
	2:[C_D_U_TITLEMD5_CATEGORY_MICRO_MEAN_COEC<0.155945] yes=5,no=6,missing=6
		5:[C_D_U_TITLEMD5_CATEGORY_MICRO_MAX_COEC<0.133877] yes=11,no=12,missing=12
			11:[D_TITLEMD5_COEC<0.0543337] yes=23,no=24,missing=24
				23:[U_CATEGORY_MICRO_MAX_COEC<0.138195] yes=47,no=48,missing=48
					47:[D_TITLEMD5_COEC<0.0383425] yes=95,no=96,missing=96
						95:leaf=-0.0308201
						96:leaf=0.0133474
					48:[DOC_AGE<23.8031] yes=97,no=98,missing=98
						97:leaf=0.0259999
						98:leaf=0.0841048
				24:[U_CATEGORY_MICRO_MAX_COEC<0.137322] yes=49,no=50,missing=50
					49:[U_CATEGORY_MACRO_MAX_COEC<0.105157] yes=99,no=100,missing=100
						99:leaf=0.0404301
						100:leaf=0.0129716
					50:[IMAGE_COUNT<0.999999] yes=101,no=102,missing=102
						101:leaf=-0.00357542
						102:leaf=0.0719849
			12:[CAT_REL<0.004432] yes=25,no=26,missing=26
				25:[C_D_U_CATEGORY_CATEGORY_MICRO_MAX_COEC<0.209237] yes=51,no=52,missing=52
					51:[D_TITLEMD5_COEC<0.0458157] yes=103,no=104,missing=104
						103:leaf=-0.00473257
						104:leaf=0.0428577
					52:[U_CATEGORY_MACRO_MAX_COEC<0.0515802] yes=105,no=106,missing=106
						105:leaf=0.0862709
						106:leaf=0.0583152
				26:[C_D_U_CATEGORY_CATEGORY_MICRO_MAX_COEC<0.153427] yes=53,no=54,missing=54
					53:[D_TITLEMD5_C<3.98007] yes=107,no=108,missing=108
						107:leaf=0.00155194
						108:leaf=0.059354
					54:[C_D_U_TITLEMD5_CATEGORY_MICRO_MEAN_COEC<0.141721] yes=109,no=110,missing=110
						109:leaf=0.074878
						110:leaf=0.0991274
		6:[C_D_U_TITLEMD5_CATEGORY_MICRO_MAX_COEC<0.239962] yes=13,no=14,missing=14
			13:[D_TITLEMD5_C<63.1572] yes=27,no=28,missing=28
				27:[D_PUBLISHER_COEC<0.0787024] yes=55,no=56,missing=56
					55:[U_CATEGORY_MACRO_MAX_COEC<0.0966353] yes=111,no=112,missing=112
						111:leaf=0.054502
						112:leaf=0.00888963
					56:[D_CATEGORY_MACRO_MAX_COEC<0.0887536] yes=113,no=114,missing=114
						113:leaf=0.0921958
						114:leaf=-0.190403
				28:[CAT_REL<0.004432] yes=57,no=58,missing=58
					57:[D_TITLEMD5_COEC<0.0576738] yes=115,no=116,missing=116
						115:leaf=0.0376524
						116:leaf=0.0723407
					58:[U_CATEGORY_MACRO_MAX_COEC<0.0526887] yes=117,no=118,missing=118
						117:leaf=0.107479
						118:leaf=0.082171
			14:[D_TITLEMD5_C<90.4267] yes=29,no=30,missing=30
				29:[C_D_U_CATEGORY_CATEGORY_MICRO_MAX_COEC<0.104522] yes=59,no=60,missing=60
					59:[WORD_COUNT<1002] yes=119,no=120,missing=120
						119:leaf=-0.0134728
						120:leaf=0.0434734
					60:[CAT_REL<0.022301] yes=121,no=122,missing=122
						121:leaf=0.0588767
						122:leaf=0.0912358
				30:[C_D_U_KEYWORD_CATEGORY_MICRO_MAX_COEC<0.310641] yes=61,no=62,missing=62
					61:[CAT_REL<0.004432] yes=123,no=124,missing=124
						123:leaf=0.0907309
						124:leaf=0.105144
					62:[CAT_REL<0.004432] yes=125,no=126,missing=126
						125:leaf=0.105148
						126:leaf=0.121423
booster[4]:
0:[C_D_U_TITLEMD5_CATEGORY_MICRO_MAX_COEC<0.124059] yes=1,no=2,missing=1
	1:[D_TITLEMD5_COEC<0.0506455] yes=3,no=4,missing=3
		3:[D_TITLEMD5_C<21.6749] yes=7,no=8,missing=7
			7:[C_D_U_KEYWORD_CATEGORY_MICRO_MAX_COEC<0.124612] yes=15,no=16,missing=15
				15:[IMAGE_COUNT<0.999999] yes=31,no=32,missing=32
					31:[D_KEYWORD_MACRO_MEAN_COEC<0.0299587] yes=63,no=64,missing=64
						63:leaf=-0.115297
						64:leaf=-0.0887958
					32:[D_KEYWORD_MACRO_MEAN_COEC<0.0344772] yes=65,no=66,missing=66
						65:leaf=-0.082464
						66:leaf=-0.0616295
				16:[U_CATEGORY_MICRO_MAX_COEC<0.141608] yes=33,no=34,missing=34
					33:[U_CITY_COEC<0.0612238] yes=67,no=68,missing=68
						67:leaf=-0.0639567
						68:leaf=-0.0269202
					34:[C_D_U_PUBLISHER_AGE_COEC<0.0742464] yes=69,no=70,missing=70
						69:leaf=-0.0253637
						70:leaf=0.0223237
			8:[C_D_U_TITLEMD5_CATEGORY_MICRO_MAX_COEC<0.0576692] yes=17,no=18,missing=17
				17:[D_TITLEMD5_COEC<0.0413093] yes=35,no=36,missing=36
					35:[C_D_U_CATEGORY_CITY_MICRO_MAX_COEC<0.0419174] yes=71,no=72,missing=72
						71:leaf=-0.0705887
						72:leaf=-0.0494235
					36:[WORD_COUNT<935] yes=73,no=74,missing=74
						73:leaf=-0.0454688
						74:leaf=-0.0290016
				18:[U_CATEGORY_MICRO_MAX_COEC<0.135456] yes=37,no=38,missing=38
					37:[CAT_REL<0.004782] yes=75,no=76,missing=76
						75:leaf=-0.0207651
						76:leaf=0.0129797
					38:[CAT_REL<0.18495] yes=77,no=78,missing=78
						77:leaf=0.0200176
						78:leaf=0.0573179
		4:[D_KEYWORD_MACRO_MEAN_COEC<0.0767531] yes=9,no=10,missing=10
			9:[D_TITLEMD5_C<100.267] yes=19,no=20,missing=20
				19:[D_TITLEMD5_C<10.7876] yes=39,no=40,missing=40
					39:[U_CATEGORY_MACRO_MAX_COEC<0.0995114] yes=79,no=80,missing=80
						79:leaf=0.0042573
						80:leaf=-0.0510201
					40:[C_D_U_KEYWORD_CATEGORY_MEAN_EC<125.456] yes=81,no=82,missing=82
						81:leaf=0.0198477
						82:leaf=-0.0223049
				20:[D_TITLEMD5_COEC<0.065208] yes=41,no=42,missing=42
					41:[C_D_U_TITLEMD5_CATEGORY_MACRO_MAX_COEC<0.117563] yes=83,no=84,missing=84
						83:leaf=0.0297388
						84:leaf=-0.0109114
					42:[C_D_U_TITLEMD5_AGE_COEC<0.0953723] yes=85,no=86,missing=85
						85:leaf=0.00312783
						86:leaf=0.0277441
			10:[D_TITLEMD5_C<214.06] yes=21,no=22,missing=22
				21:[D_TITLEMD5_C<10.7876] yes=43,no=44,missing=44
					43:[C_D_U_KEYWORD_CATEGORY_MICRO_MAX_COEC<0.153795] yes=87,no=88,missing=87
						87:leaf=-0.0274602
						88:leaf=0.0485436
					44:[D_TITLEMD5_COEC<0.104944] yes=89,no=90,missing=90
						89:leaf=-0.00191109
						90:leaf=0.0195294
				22:[D_TITLEMD5_COEC<0.0941941] yes=45,no=46,missing=46
					45:[D_CATEGORY_MAX_EC<445631] yes=91,no=92,missing=92
						91:leaf=0.0240707
						92:leaf=0.0059699
					46:[DOC_AGE<62.4919] yes=93,no=94,missing=94
						93:leaf=0.0353565
						94:leaf=-0.0177756
	2:[C_D_U_TITLEMD5_CATEGORY_MICRO_MEAN_COEC<0.175632] yes=5,no=6,missing=6
		5:[C_D_U_KEYWORD_CATEGORY_MICRO_MEAN_COEC<0.101326] yes=11,no=12,missing=12
			11:[D_TITLEMD5_C<6.89594] yes=23,no=24,missing=24
				23:[D_KEYWORD_MACRO_MEAN_COEC<0.0299587] yes=47,no=48,missing=48
					47:[U_CATEGORY_MAX_EC<2611.92] yes=95,no=96,missing=96
						95:leaf=0.0731879
						96:leaf=-0.061546
					48:[U_CATEGORY_MICRO_MEAN_COEC<0.106801] yes=97,no=98,missing=98
						97:leaf=-0.0350298
						98:leaf=0.0198028
				24:[D_TITLEMD5_COEC<0.0506455] yes=49,no=50,missing=50
					49:[U_CATEGORY_MACRO_MAX_COEC<0.0534564] yes=99,no=100,missing=100
						99:leaf=0.0409713
						100:leaf=0.00557793
					50:[U_CATEGORY_MEAN_C<2997.67] yes=101,no=102,missing=102
						101:leaf=0.0590116
						102:leaf=0.0344906
			12:[C_D_U_TITLEMD5_CATEGORY_MICRO_MAX_COEC<0.165163] yes=25,no=26,missing=26
				25:[C_D_U_PUBLISHER_GENDER_EC<1769.09] yes=51,no=52,missing=52
					51:[U_CITY_COEC<0.075634] yes=103,no=104,missing=104
						103:leaf=-0.0342342
						104:leaf=0.0472115
					52:[C_D_U_CATEGORY_CATEGORY_MICRO_MAX_COEC<0.185931] yes=105,no=106,missing=106
						105:leaf=0.0394579
						106:leaf=0.0588616
				26:[D_TITLEMD5_COEC<0.0335754] yes=53,no=54,missing=54
					53:[C_D_U_KEYWORD_CATEGORY_MICRO_MAX_COEC<0.196842] yes=107,no=108,missing=108
						107:leaf=-0.0785364
						108:leaf=0.0232747
					54:[TIME_OF_DAY<12] yes=109,no=110,missing=110
						109:leaf=0.0715926
						110:leaf=0.0533532
		6:[D_TITLEMD5_C<10.7876] yes=13,no=14,missing=14
			13:[C_D_U_CATEGORY_CATEGORY_MICRO_MAX_COEC<0.116216] yes=27,no=28,missing=27
				27:[IMAGE_COUNT<0.999999] yes=55,no=56,missing=56
					55:[D_CATEGORY_MEAN_EC<72276] yes=111,no=112,missing=112
						111:leaf=0.0791805
						112:leaf=-0.093435
					56:[U_CATEGORY_MICRO_MEAN_COEC<0.113339] yes=113,no=114,missing=114
						113:leaf=-0.00463032
						114:leaf=0.0412425
				28:[CAT_REL<0.022426] yes=57,no=58,missing=58
					57:[C_D_U_PUBLISHER_GENDER_C<717.765] yes=115,no=116,missing=115
						115:leaf=0.0223913
						116:leaf=-0.127097
					58:[WORD_COUNT<1226] yes=117,no=118,missing=118
						117:leaf=0.0547832
						118:leaf=0.0902356
			14:[C_D_U_TITLEMD5_CATEGORY_MICRO_MAX_COEC<0.262745] yes=29,no=30,missing=30
				29:[C_D_U_TITLEMD5_CATEGORY_MACRO_MAX_COEC<0.121436] yes=59,no=60,missing=60
					59:[CAT_REL<0.004782] yes=119,no=120,missing=120
						119:leaf=0.0760324
						120:leaf=0.0958416
					60:[D_TITLEMD5_COEC<0.0586892] yes=121,no=122,missing=122
						121:leaf=0.0183486
						122:leaf=0.0706343
				30:[CAT_REL<0.004782] yes=61,no=62,missing=62
					61:[D_TITLEMD5_COEC<0.0603727] yes=123,no=124,missing=124
						123:leaf=0.0455737
						124:leaf=0.0931546
					62:[U_CATEGORY_MICRO_MAX_COEC<0.119277] yes=125,no=126,missing=126
						125:leaf=0.0913366
						126:leaf=0.11031
booster[5]:
0:[C_D_U_TITLEMD5_CATEGORY_MICRO_MAX_COEC<0.121512] yes=1,no=2,missing=1
	1:[D_TITLEMD5_COEC<0.0509805] yes=3,no=4,missing=3
		3:[D_TITLEMD5_C<20.8959] yes=7,no=8,missing=7
			7:[C_D_U_KEYWORD_CATEGORY_MICRO_MAX_COEC<0.138529] yes=15,no=16,missing=15
				15:[D_TITLEMD5_COEC<0.0259808] yes=31,no=32,missing=31
					31:[IMAGE_COUNT<0.999999] yes=63,no=64,missing=64
						63:leaf=-0.100395
						64:leaf=-0.0766537
					32:[U_CATEGORY_MAX_EC<39440.3] yes=65,no=66,missing=66
						65:leaf=-0.0249031
						66:leaf=-0.0632576
				16:[U_CATEGORY_MICRO_MAX_COEC<0.15534] yes=33,no=34,missing=34
					33:[IMAGE_COUNT<0.999999] yes=67,no=68,missing=68
						67:leaf=-0.060614
						68:leaf=-0.0184716
					34:[C_D_U_CATEGORY_CITY_MICRO_MEAN_COEC<0.0507169] yes=69,no=70,missing=70
						69:leaf=-0.0234909
						70:leaf=0.0425243
			8:[U_CATEGORY_MEAN_C<4456.29] yes=17,no=18,missing=18
				17:[C_D_U_CATEGORY_CITY_MACRO_MEAN_COEC<0.0647555] yes=35,no=36,missing=36
					35:[U_CATEGORY_MICRO_MEAN_COEC<0.10974] yes=71,no=72,missing=72
						71:leaf=-0.0293406
						72:leaf=0.00369125
					36:[U_GENDER_COEC<0.0709405] yes=73,no=74,missing=73
						73:leaf=0.0205599
						74:leaf=-0.0233715
				18:[D_TITLEMD5_COEC<0.0401162] yes=37,no=38,missing=38
					37:[C_D_U_CATEGORY_CITY_MACRO_MEAN_COEC<0.0370798] yes=75,no=76,missing=76
						75:leaf=-0.0735526
						76:leaf=-0.0466113
					38:[C_D_U_CATEGORY_CITY_MACRO_MEAN_COEC<0.0498096] yes=77,no=78,missing=78
						77:leaf=-0.0442721
						78:leaf=-0.0266471
		4:[D_KEYWORD_MACRO_MEAN_COEC<0.077582] yes=9,no=10,missing=10
			9:[D_TITLEMD5_C<64.1078] yes=19,no=20,missing=20
				19:[C_D_U_KEYWORD_CATEGORY_MICRO_MAX_COEC<0.117093] yes=39,no=40,missing=39
					39:[D_TITLEMD5_C<10.7872] yes=79,no=80,missing=80
						79:leaf=-0.0469089
						80:leaf=-0.0207811
					40:[C_D_U_CATEGORY_CATEGORY_MICRO_MAX_COEC<0.129817] yes=81,no=82,missing=82
						81:leaf=-0.00723155
						82:leaf=0.0355488
				20:[D_TITLEMD5_COEC<0.0669107] yes=41,no=42,missing=42
					41:[WORD_COUNT<1595] yes=83,no=84,missing=84
						83:leaf=-0.013228
						84:leaf=0.000576833
					42:[DOC_AGE<59.8708] yes=85,no=86,missing=86
						85:leaf=0.0067054
						86:leaf=-0.0620137
			10:[D_TITLEMD5_C<998.515] yes=21,no=22,missing=22
				21:[D_TITLEMD5_C<13.4068] yes=43,no=44,missing=44
					43:[C_D_U_CATEGORY_CITY_MICRO_MEAN_COEC<0.0815442] yes=87,no=88,missing=88
						87:leaf=-0.0322105
						88:leaf=0.00328117
					44:[D_TITLEMD5_COEC<0.0908682] yes=89,no=90,missing=90
						89:leaf=0.0061864
						90:leaf=0.0231275
				22:[D_CATEGORY_MICRO_MAX_COEC<0.0524885] yes=45,no=46,missing=45
					45:[D_PUBLISHER_COEC<0.0725798] yes=91,no=92,missing=92
						91:leaf=-0.0220053
						92:leaf=0.0155203
					46:[D_KEYWORD_MACRO_MEAN_COEC<0.108641] yes=93,no=94,missing=94
						93:leaf=0.0297142
						94:leaf=0.0438315
	2:[C_D_U_KEYWORD_CATEGORY_MACRO_MEAN_COEC<0.161831] yes=5,no=6,missing=6
		5:[D_TITLEMD5_C<40.6861] yes=11,no=12,missing=12
			11:[C_D_U_CATEGORY_CATEGORY_MICRO_MAX_COEC<0.111224] yes=23,no=24,missing=24
				23:[D_TITLEMD5_C<4.81505] yes=47,no=48,missing=48
					47:[U_CATEGORY_MICRO_MEAN_COEC<0.109166] yes=95,no=96,missing=96
						95:leaf=-0.0622692
						96:leaf=-0.0126089
					48:[D_TITLEMD5_COEC<0.041825] yes=97,no=98,missing=98
						97:leaf=-0.0136539
						98:leaf=0.0309251
				24:[CAT_REL<0.035044] yes=49,no=50,missing=50
					49:[D_TITLEMD5_COEC<0.0716303] yes=99,no=100,missing=100
						99:leaf=0.00454521
						100:leaf=0.0486981
					50:[C_D_U_KEYWORD_CATEGORY_MICRO_MAX_COEC<0.274814] yes=101,no=102,missing=102
						101:leaf=0.036103
						102:leaf=0.0653779
			12:[C_D_U_TITLEMD5_CATEGORY_MICRO_MAX_COEC<0.19921] yes=25,no=26,missing=26
				25:[TIME_OF_DAY<12] yes=51,no=52,missing=52
					51:[CAT_REL<0.014626] yes=103,no=104,missing=104
						103:leaf=0.0443946
						104:leaf=0.0624288
					52:[D_TITLEMD5_COEC<0.0487927] yes=105,no=106,missing=106
						105:leaf=0.0107996
						106:leaf=0.0375318
				26:[CAT_REL<0.00428671] yes=53,no=54,missing=54
					53:[WORD_COUNT<3667] yes=107,no=108,missing=108
						107:leaf=0.0502589
						108:leaf=0.0836517
					54:[U_CATEGORY_MAX_EC<9877.03] yes=109,no=110,missing=110
						109:leaf=0.0890311
						110:leaf=0.0663171
		6:[C_D_U_TITLEMD5_CATEGORY_MICRO_MAX_COEC<0.228726] yes=13,no=14,missing=14
			13:[CAT_REL<0.00428671] yes=27,no=28,missing=28
				27:[D_TITLEMD5_EC<16277.6] yes=55,no=56,missing=56
					55:[D_TITLEMD5_COEC<0.0628253] yes=111,no=112,missing=112
						111:leaf=0.0230417
						112:leaf=0.0546224
					56:[D_KEYWORD_MICRO_MEAN_COEC<0.0621525] yes=113,no=114,missing=114
						113:leaf=-0.0121991
						114:leaf=0.0741289
				28:[U_CATEGORY_MACRO_MAX_COEC<0.0849196] yes=57,no=58,missing=58
					57:[U_CITY_EC<412117] yes=115,no=116,missing=115
						115:leaf=0.0814077
						116:leaf=-0.223251
					58:[C_D_U_KEYWORD_CATEGORY_MICRO_MEAN_COEC<0.173772] yes=117,no=118,missing=118
						117:leaf=0.0457791
						118:leaf=0.0688758
			14:[D_TITLEMD5_C<72.9937] yes=29,no=30,missing=30
				29:[U_CATEGORY_MACRO_MAX_COEC<0.0662282] yes=59,no=60,missing=60
					59:[WORD_COUNT<1250] yes=119,no=120,missing=120
						119:leaf=0.0594439
						120:leaf=0.0889558
					60:[WORD_COUNT<533] yes=121,no=122,missing=122
						121:leaf=-0.0383769
						122:leaf=0.0478753
				30:[U_CATEGORY_MICRO_MAX_COEC<0.138726] yes=61,no=62,missing=62
					61:[CAT_REL<0.00428671] yes=123,no=124,missing=124
						123:leaf=0.0744128
						124:leaf=0.0885456
					62:[C_D_U_TITLEMD5_CATEGORY_MICRO_MEAN_COEC<0.229053] yes=125,no=126,missing=126
						125:leaf=0.0865677
						126:leaf=0.102584
booster[6]:
0:[C_D_U_TITLEMD5_CATEGORY_MICRO_MEAN_COEC<0.0882491] yes=1,no=2,missing=1
	1:[D_TITLEMD5_COEC<0.0593285] yes=3,no=4,missing=3
		3:[D_TITLEMD5_COEC<0.0387621] yes=7,no=8,missing=7
			7:[U_CATEGORY_MICRO_MAX_COEC<0.121074] yes=15,no=16,missing=15
				15:[D_TITLEMD5_C<10.856] yes=31,no=32,missing=31
					31:[D_KEYWORD_MACRO_MEAN_COEC<0.03085] yes=63,no=64,missing=64
						63:leaf=-0.0837889
						64:leaf=-0.0629383
					32:[C_D_U_CATEGORY_CITY_MICRO_MEAN_COEC<0.0445161] yes=65,no=66,missing=66
						65:leaf=-0.0635827
						66:leaf=-0.0450177
				16:[C_D_U_CATEGORY_CATEGORY_MICRO_MAX_COEC<0.113472] yes=33,no=34,missing=34
					33:[C_D_U_CATEGORY_CATEGORY_MAX_EC<3420.01] yes=67,no=68,missing=68
						67:leaf=-0.0421832
						68:leaf=0.0636368
					34:[U_CATEGORY_MACRO_MAX_COEC<0.0376447] yes=69,no=70,missing=70
						69:leaf=0.0790197
						70:leaf=-0.00207621
			8:[U_CATEGORY_MEAN_C<4114.57] yes=17,no=18,missing=18
				17:[U_CITY_COEC<0.0668117] yes=35,no=36,missing=35
					35:[U_CATEGORY_MACRO_MAX_COEC<0.0961534] yes=71,no=72,missing=72
						71:leaf=0.010984
						72:leaf=-0.0224507
					36:[C_D_U_CATEGORY_GENDER_MICRO_MEAN_COEC<0.0722455] yes=73,no=74,missing=74
						73:leaf=-0.0233821
						74:leaf=0.0460648
				18:[D_TITLEMD5_C<118.707] yes=37,no=38,missing=38
					37:[WORD_COUNT<1517] yes=75,no=76,missing=76
						75:leaf=-0.040173
						76:leaf=-0.0220027
					38:[U_CITY_COEC<0.0583647] yes=77,no=78,missing=78
						77:leaf=-0.0348702
						78:leaf=-0.0153819
		4:[D_KEYWORD_MACRO_MEAN_COEC<0.0813943] yes=9,no=10,missing=10
			9:[D_TITLEMD5_C<10.856] yes=19,no=20,missing=20
				19:[U_CATEGORY_MICRO_MAX_COEC<0.109242] yes=39,no=40,missing=39
					39:[C_D_U_CATEGORY_CITY_MACRO_MAX_COEC<0.0579911] yes=79,no=80,missing=80
						79:leaf=-0.0582691
						80:leaf=-0.0298162
					40:[D_TITLEMD5_C<3.88839] yes=81,no=82,missing=82
						81:leaf=-0.000230456
						82:leaf=0.047403
				20:[DOC_AGE<43.4144] yes=41,no=42,missing=42
					41:[D_TITLEMD5_COEC<0.0791063] yes=83,no=84,missing=84
						83:leaf=-0.000300342
						84:leaf=0.0137545
					42:[DAY_OF_WEEK<0.999999] yes=85,no=86,missing=86
						85:leaf=-0.016326
						86:leaf=-0.0563603
			10:[D_TITLEMD5_C<1317.92] yes=21,no=22,missing=22
				21:[D_CATEGORY_MEAN_C<8747.05] yes=43,no=44,missing=43
					43:[D_CATEGORY_MAX_EC<128036] yes=87,no=88,missing=88
						87:leaf=-0.0396794
						88:leaf=-0.00916061
					44:[C_D_U_TITLEMD5_AGE_COEC<0.0955235] yes=89,no=90,missing=89
						89:leaf=0.0143584
						90:leaf=0.0285981
				22:[TIME_OF_DAY<12] yes=45,no=46,missing=46
					45:[C_D_U_TITLEMD5_AGE_COEC<0.131571] yes=91,no=92,missing=91
						91:leaf=0.0352596
						92:leaf=0.0546722
					46:[DOC_AGE<34.9936] yes=93,no=94,missing=94
						93:leaf=0.0266082
						94:leaf=-0.0109039
	2:[C_D_U_TITLEMD5_CATEGORY_MICRO_MEAN_COEC<0.168655] yes=5,no=6,missing=6
		5:[U_CATEGORY_MICRO_MAX_COEC<0.136804] yes=11,no=12,missing=12
			11:[D_TITLEMD5_C<130.789] yes=23,no=24,missing=24
				23:[D_TITLEMD5_C<3.88839] yes=47,no=48,missing=48
					47:[C_D_U_PUBLISHER_AGE_COEC<0.079461] yes=95,no=96,missing=96
						95:leaf=-0.063085
						96:leaf=-0.00780901
					48:[CAT_REL<0.004432] yes=97,no=98,missing=98
						97:leaf=0.00154293
						98:leaf=0.028698
				24:[DOC_AGE<11.6206] yes=49,no=50,missing=50
					49:[C_D_U_TITLEMD5_CITY_COEC<0.0631001] yes=99,no=100,missing=100
						99:leaf=0.0345974
						100:leaf=0.0543383
					50:[D_TITLEMD5_C<674.286] yes=101,no=102,missing=102
						101:leaf=0.0215298
						102:leaf=0.0445804
			12:[CAT_REL<0.026743] yes=25,no=26,missing=26
				25:[D_TITLEMD5_COEC<0.0481336] yes=51,no=52,missing=52
					51:[C_D_U_CATEGORY_CITY_MACRO_MEAN_COEC<0.0720038] yes=103,no=104,missing=104
						103:leaf=-0.00414629
						104:leaf=0.0408977
					52:[C_D_U_CATEGORY_CATEGORY_MICRO_MAX_COEC<0.209484] yes=105,no=106,missing=106
						105:leaf=0.0427367
						106:leaf=0.064822
				26:[D_TITLEMD5_C<3.88839] yes=53,no=54,missing=54
					53:[D_CATEGORY_MEAN_C<4651.23] yes=107,no=108,missing=108
						107:leaf=-0.0215408
						108:leaf=0.05092
					54:[C_D_U_KEYWORD_CATEGORY_MICRO_MAX_COEC<0.285635] yes=109,no=110,missing=110
						109:leaf=0.0609656
						110:leaf=0.0839835
		6:[D_TITLEMD5_C<8.46184] yes=13,no=14,missing=14
			13:[C_D_U_CATEGORY_CATEGORY_MICRO_MAX_COEC<0.11752] yes=27,no=28,missing=27
				27:[IMAGE_COUNT<0.999999] yes=55,no=56,missing=56
					55:[U_GENDER_C<18124.5] yes=111,no=112,missing=111
						111:leaf=-0.0807063
						112:leaf=0.0342022
					56:[U_CATEGORY_MAX_EC<8465.63] yes=113,no=114,missing=114
						113:leaf=0.0443003
						114:leaf=-0.00902448
				28:[D_TITLEMD5_COEC<0.136032] yes=57,no=58,missing=58
					57:[U_CATEGORY_MACRO_MAX_COEC<0.0752805] yes=115,no=116,missing=116
						115:leaf=0.0281195
						116:leaf=-0.0290215
					58:[U_CATEGORY_MICRO_MAX_COEC<0.121414] yes=117,no=118,missing=118
						117:leaf=0.0353583
						118:leaf=0.0720591
			14:[C_D_U_TITLEMD5_CATEGORY_MICRO_MAX_COEC<0.26234] yes=29,no=30,missing=30
				29:[TIME_OF_DAY<12] yes=59,no=60,missing=60
					59:[C_D_U_TITLEMD5_CATEGORY_MACRO_MAX_COEC<0.108736] yes=119,no=120,missing=120
						119:leaf=0.0803526
						120:leaf=0.0633422
					60:[D_TITLEMD5_COEC<0.0569854] yes=121,no=122,missing=122
						121:leaf=0.0108679
						122:leaf=0.0546733
				30:[CAT_REL<0.004432] yes=61,no=62,missing=62
					61:[D_TITLEMD5_C<302.483] yes=123,no=124,missing=124
						123:leaf=0.0578667
						124:leaf=0.0833276
					62:[U_CATEGORY_MACRO_MAX_COEC<0.0542239] yes=125,no=126,missing=126
						125:leaf=0.10354
						126:leaf=0.0863411
booster[7]:
0:[C_D_U_KEYWORD_CATEGORY_MACRO_MEAN_COEC<0.0928851] yes=1,no=2,missing=1
	1:[D_TITLEMD5_COEC<0.0572473] yes=3,no=4,missing=3
		3:[D_TITLEMD5_COEC<0.0341088] yes=7,no=8,missing=7
			7:[U_CATEGORY_MICRO_MAX_COEC<0.122276] yes=15,no=16,missing=15
				15:[IMAGE_COUNT<0.999999] yes=31,no=32,missing=32
					31:[C_D_U_TITLEMD5_CITY_EC<10.4656] yes=63,no=64,missing=63
						63:leaf=-0.0884856
						64:leaf=-0.0511881
					32:[C_D_U_CATEGORY_CITY_MICRO_MEAN_COEC<0.047595] yes=65,no=66,missing=66
						65:leaf=-0.0708928
						66:leaf=-0.0528307
				16:[DOC_AGE<22.5261] yes=33,no=34,missing=34
					33:[C_D_U_CATEGORY_CITY_MICRO_MEAN_COEC<0.0510304] yes=67,no=68,missing=68
						67:leaf=-0.0447303
						68:leaf=-0.00625304
					34:[U_CATEGORY_MEAN_C<2629.6] yes=69,no=70,missing=70
						69:leaf=0.0333188
						70:leaf=0.121828
			8:[C_D_U_TITLEMD5_CATEGORY_MICRO_MAX_COEC<0.0632734] yes=17,no=18,missing=17
				17:[D_TITLEMD5_C<71.7795] yes=35,no=36,missing=36
					35:[C_D_U_CATEGORY_CITY_MICRO_MAX_COEC<0.086129] yes=71,no=72,missing=71
						71:leaf=-0.0403568
						72:leaf=-0.00715276
					36:[U_CITY_COEC<0.0585355] yes=73,no=74,missing=74
						73:leaf=-0.0366889
						74:leaf=-0.0171155
				18:[U_CATEGORY_MICRO_MAX_COEC<0.125453] yes=37,no=38,missing=38
					37:[C_D_U_TITLEMD5_CATEGORY_MEAN_C<2.43004] yes=75,no=76,missing=76
						75:leaf=-0.0159044
						76:leaf=0.0117046
					38:[CAT_REL<0.013885] yes=77,no=78,missing=78
						77:leaf=0.00979785
						78:leaf=0.0485277
		4:[D_TITLEMD5_C<287.219] yes=9,no=10,missing=10
			9:[D_TITLEMD5_C<9.83272] yes=19,no=20,missing=20
				19:[U_CATEGORY_MICRO_MAX_COEC<0.121726] yes=39,no=40,missing=39
					39:[D_CATEGORY_MICRO_MEAN_COEC<0.0718344] yes=79,no=80,missing=80
						79:leaf=-0.0431617
						80:leaf=-0.00741992
					40:[D_TITLEMD5_C<1.99] yes=81,no=82,missing=82
						81:leaf=-0.0108046
						82:leaf=0.0322517
				20:[DOC_AGE<41.8692] yes=41,no=42,missing=42
					41:[D_TITLEMD5_COEC<0.0733444] yes=83,no=84,missing=84
						83:leaf=-0.0101129
						84:leaf=0.00579266
					42:[U_AGE_EC<492751] yes=85,no=86,missing=86
						85:leaf=-0.00942704
						86:leaf=-0.0614674
			10:[D_TITLEMD5_COEC<0.0817811] yes=21,no=22,missing=22
				21:[WORD_COUNT<1140] yes=43,no=44,missing=44
					43:[DOC_AGE<41.8692] yes=87,no=88,missing=88
						87:leaf=-0.00358513
						88:leaf=-0.0383993
					44:[DAY_OF_WEEK<0.999999] yes=89,no=90,missing=90
						89:leaf=0.0176105
						90:leaf=0.00396627
				22:[D_PUBLISHER_COEC<0.0578416] yes=45,no=46,missing=46
					45:[D_KEYWORD_MAX_EC<8101.51] yes=91,no=92,missing=92
						91:leaf=0.00161607
						92:leaf=0.0625768
					46:[DOC_AGE<41.8692] yes=93,no=94,missing=94
						93:leaf=0.0261552
						94:leaf=-0.00344724
	2:[C_D_U_TITLEMD5_CATEGORY_MICRO_MEAN_COEC<0.150084] yes=5,no=6,missing=6
		5:[D_TITLEMD5_COEC<0.0391998] yes=11,no=12,missing=12
			11:[TIME_OF_DAY<11] yes=23,no=24,missing=24
				23:[C_D_U_TITLEMD5_GENDER_C<8.6991] yes=47,no=48,missing=48
					47:[U_CITY_C<553.657] yes=95,no=96,missing=96
						95:leaf=-0.110713
						96:leaf=-0.0030731
					48:[CAT_REL<0.003422] yes=97,no=98,missing=98
						97:leaf=0.00991207
						98:leaf=0.0411402
				24:[U_CATEGORY_MACRO_MAX_COEC<0.0531968] yes=49,no=50,missing=50
					49:[C_D_U_PUBLISHER_AGE_EC<18793.5] yes=99,no=100,missing=100
						99:leaf=-0.0636526
						100:leaf=0.0302367
					50:[D_PUBLISHER_C<8530.6] yes=101,no=102,missing=102
						101:leaf=-0.0169212
						102:leaf=-0.0757752
			12:[U_CATEGORY_MICRO_MAX_COEC<0.125453] yes=25,no=26,missing=26
				25:[D_TITLEMD5_COEC<0.0618804] yes=51,no=52,missing=52
					51:[CAT_REL<0.237866] yes=103,no=104,missing=104
						103:leaf=0.00314342
						104:leaf=0.0297341
					52:[C_D_U_CATEGORY_CITY_MAX_EC<33054.1] yes=105,no=106,missing=105
						105:leaf=0.0364887
						106:leaf=0.00876907
				26:[CAT_REL<0.003422] yes=53,no=54,missing=54
					53:[C_D_U_TITLEMD5_AGE_COEC<0.0694832] yes=107,no=108,missing=108
						107:leaf=0.0140398
						108:leaf=0.0399959
					54:[TIME_OF_DAY<12] yes=109,no=110,missing=110
						109:leaf=0.0660645
						110:leaf=0.0449211
		6:[C_D_U_KEYWORD_CATEGORY_MICRO_MAX_COEC<0.269281] yes=13,no=14,missing=14
			13:[D_TITLEMD5_C<58.3658] yes=27,no=28,missing=28
				27:[C_D_U_TITLEMD5_AGE_COEC<0.052574] yes=55,no=56,missing=56
					55:[U_CATEGORY_MACRO_MAX_COEC<0.0710741] yes=111,no=112,missing=112
						111:leaf=0.0259328
						112:leaf=-0.0830876
					56:[D_TITLEMD5_C<3.95517] yes=113,no=114,missing=114
						113:leaf=-0.0138025
						114:leaf=0.0330192
				28:[C_D_U_TITLEMD5_CATEGORY_MICRO_MAX_COEC<0.211484] yes=57,no=58,missing=58
					57:[TIME_OF_DAY<10] yes=115,no=116,missing=116
						115:leaf=0.0535651
						116:leaf=0.0385329
					58:[CAT_REL<0.003422] yes=117,no=118,missing=118
						117:leaf=0.0564902
						118:leaf=0.0705326
			14:[D_TITLEMD5_C<71.7795] yes=29,no=30,missing=30
				29:[CAT_REL<0.031421] yes=59,no=60,missing=60
					59:[U_CATEGORY_MACRO_MAX_COEC<0.0710741] yes=119,no=120,missing=120
						119:leaf=0.0465866
						120:leaf=0.00758071
					60:[D_TITLEMD5_C<3.95517] yes=121,no=122,missing=122
						121:leaf=0.0367542
						122:leaf=0.0753018
				30:[CAT_REL<0.003422] yes=61,no=62,missing=62
					61:[U_CATEGORY_MICRO_MAX_COEC<0.135608] yes=123,no=124,missing=124
						123:leaf=0.061001
						124:leaf=0.0778984
					62:[C_D_U_CATEGORY_CATEGORY_MICRO_MAX_COEC<0.12309] yes=125,no=126,missing=126
						125:leaf=0.0658439
						126:leaf=0.0893592
booster[8]:
0:[C_D_U_TITLEMD5_CATEGORY_MICRO_MAX_COEC<0.135586] yes=1,no=2,missing=1
	1:[D_TITLEMD5_COEC<0.0506056] yes=3,no=4,missing=3
		3:[D_TITLEMD5_C<20.6496] yes=7,no=8,missing=7
			7:[C_D_U_KEYWORD_CATEGORY_MICRO_MEAN_COEC<0.0626193] yes=15,no=16,missing=15
				15:[IMAGE_COUNT<0.999999] yes=31,no=32,missing=32
					31:[D_TITLEMD5_C<7.77437] yes=63,no=64,missing=63
						63:leaf=-0.0829878
						64:leaf=-0.057877
					32:[D_TITLEMD5_COEC<0.0281229] yes=65,no=66,missing=65
						65:leaf=-0.0618949
						66:leaf=-0.0436172
				16:[C_D_U_KEYWORD_CATEGORY_MICRO_MAX_COEC<0.234931] yes=33,no=34,missing=34
					33:[C_D_U_CATEGORY_CITY_MICRO_MAX_COEC<0.0481307] yes=67,no=68,missing=68
						67:leaf=-0.0506108
						68:leaf=-0.0170915
					34:[CAT_REL<0.077224] yes=69,no=70,missing=70
						69:leaf=-0.0206475
						70:leaf=0.02802
			8:[U_CATEGORY_MAX_C<2830.41] yes=17,no=18,missing=18
				17:[CAT_REL<0.101355] yes=35,no=36,missing=36
					35:[C_D_U_PUBLISHER_GENDER_C<692.284] yes=71,no=72,missing=72
						71:leaf=-0.0481914
						72:leaf=0.00207444
					36:[U_CATEGORY_MICRO_MAX_COEC<0.124605] yes=73,no=74,missing=74
						73:leaf=0.0040456
						74:leaf=0.0385788
				18:[C_D_U_CATEGORY_CITY_MICRO_MAX_COEC<0.0503552] yes=37,no=38,missing=38
					37:[C_D_U_TITLEMD5_CITY_C<2.86961] yes=75,no=76,missing=75
						75:leaf=-0.0453054
						76:leaf=-0.027775
					38:[D_TITLEMD5_C<50.7878] yes=77,no=78,missing=78
						77:leaf=-0.0354858
						78:leaf=-0.0191876
		4:[D_KEYWORD_MACRO_MEAN_COEC<0.0712547] yes=9,no=10,missing=10
			9:[D_TITLEMD5_C<20.6496] yes=19,no=20,missing=20
				19:[C_D_U_CATEGORY_CITY_MACRO_MAX_COEC<0.0530157] yes=39,no=40,missing=40
					39:[D_KEYWORD_MEAN_EC<900.89] yes=79,no=80,missing=80
						79:leaf=-0.0705109
						80:leaf=-0.0399293
					40:[U_CATEGORY_MICRO_MAX_COEC<0.121596] yes=81,no=82,missing=81
						81:leaf=-0.0233932
						82:leaf=0.0290268
				20:[WORD_COUNT<803] yes=41,no=42,missing=42
					41:[C_D_U_KEYWORD_CATEGORY_MICRO_MAX_COEC<0.125632] yes=83,no=84,missing=83
						83:leaf=-0.0220003
						84:leaf=0.0195462
					42:[U_AGE_EC<530212] yes=85,no=86,missing=86
						85:leaf=0.0131427
						86:leaf=-0.00381952
			10:[D_TITLEMD5_C<208.915] yes=21,no=22,missing=22
				21:[C_D_U_TITLEMD5_CATEGORY_MEAN_EC<0.610589] yes=43,no=44,missing=43
					43:[D_CATEGORY_MAX_EC<121124] yes=87,no=88,missing=88
						87:leaf=-0.0278014
						88:leaf=-0.000746504
					44:[WORD_COUNT<600] yes=89,no=90,missing=90
						89:leaf=-0.0128787
						90:leaf=0.0368859
				22:[D_TITLEMD5_COEC<0.0813056] yes=45,no=46,missing=46
					45:[C_D_U_TITLEMD5_AGE_COEC<0.0854697] yes=91,no=92,missing=91
						91:leaf=3.03736e-05
						92:leaf=0.0219928
					46:[D_CATEGORY_MACRO_MEAN_COEC<0.0516879] yes=93,no=94,missing=93
						93:leaf=-0.0117244
						94:leaf=0.0222492
	2:[C_D_U_TITLEMD5_CATEGORY_MICRO_MEAN_COEC<0.179662] yes=5,no=6,missing=6
		5:[D_TITLEMD5_C<3.93562] yes=11,no=12,missing=12
			11:[IMAGE_COUNT<0.999999] yes=23,no=24,missing=24
				23:[C_D_U_TITLEMD5_AGE_EC<19.7625] yes=47,no=48,missing=47
					47:[C_D_U_PUBLISHER_CITY_COEC<0.0375844] yes=95,no=96,missing=95
						95:leaf=-0.0815089
						96:leaf=-0.0212205
					48:[C_D_U_KEYWORD_CATEGORY_MICRO_MEAN_COEC<0.129992] yes=97,no=98,missing=98
						97:leaf=-0.163093
						98:leaf=0.0236268
				24:[U_CATEGORY_MICRO_MAX_COEC<0.154604] yes=49,no=50,missing=50
					49:[C_D_U_CATEGORY_CITY_MACRO_MEAN_COEC<0.0498033] yes=99,no=100,missing=100
						99:leaf=-0.0443118
						100:leaf=0.00747367
					50:[U_GENDER_C<17521.6] yes=101,no=102,missing=101
						101:leaf=0.0484992
						102:leaf=-0.0945462
			12:[D_TITLEMD5_COEC<0.0486789] yes=25,no=26,missing=26
				25:[U_CATEGORY_MACRO_MAX_COEC<0.0529513] yes=51,no=52,missing=52
					51:[U_CATEGORY_MICRO_MAX_COEC<0.123514] yes=103,no=104,missing=104
						103:leaf=-0.0144166
						104:leaf=0.0443626
					52:[TIME_OF_DAY<13] yes=105,no=106,missing=106
						105:leaf=0.0212646
						106:leaf=-0.0142511
				26:[CAT_REL<0.003139] yes=53,no=54,missing=54
					53:[C_D_U_CATEGORY_CATEGORY_MICRO_MAX_COEC<0.213887] yes=107,no=108,missing=108
						107:leaf=0.0303274
						108:leaf=0.0525988
					54:[U_CATEGORY_MICRO_MAX_COEC<0.122659] yes=109,no=110,missing=110
						109:leaf=0.0389183
						110:leaf=0.0622578
		6:[D_TITLEMD5_C<9.46252] yes=13,no=14,missing=14
			13:[WORD_COUNT<1026] yes=27,no=28,missing=28
				27:[D_KEYWORD_MACRO_MAX_COEC<0.00870118] yes=55,no=56,missing=56
					55:[C_D_U_CATEGORY_CATEGORY_MACRO_MEAN_COEC<0.117344] yes=111,no=112,missing=111
						111:leaf=-0.180467
						112:leaf=-0.00703932
					56:[IMAGE_COUNT<0.999999] yes=113,no=114,missing=114
						113:leaf=-0.0369253
						114:leaf=0.0152057
				28:[D_KEYWORD_MACRO_MEAN_COEC<0.0502164] yes=57,no=58,missing=58
					57:[C_D_U_TITLEMD5_CATEGORY_MACRO_MAX_COEC<0.173218] yes=115,no=116,missing=116
						115:leaf=0.0268716
						116:leaf=-0.0427999
					58:[U_CATEGORY_MICRO_MAX_COEC<0.121329] yes=117,no=118,missing=118
						117:leaf=0.0271679
						118:leaf=0.0610451
			14:[U_CATEGORY_MACRO_MAX_COEC<0.096582] yes=29,no=30,missing=30
				29:[U_CATEGORY_MICRO_MAX_COEC<0.127678] yes=59,no=60,missing=60
					59:[C_D_U_TITLEMD5_CATEGORY_MICRO_MEAN_COEC<0.236045] yes=119,no=120,missing=120
						119:leaf=0.0533177
						120:leaf=0.0696208
					60:[CAT_REL<0.003139] yes=121,no=122,missing=122
						121:leaf=0.0695077
						122:leaf=0.0872787
				30:[D_TITLEMD5_COEC<0.06341] yes=61,no=62,missing=62
					61:[C_D_U_PUBLISHER_CITY_COEC<0.0717984] yes=123,no=124,missing=124
						123:leaf=-0.0224341
						124:leaf=0.0312977
					62:[U_AGE_C<33265.9] yes=125,no=126,missing=126
						125:leaf=0.0813756
						126:leaf=0.0501163
booster[9]:
0:[C_D_U_TITLEMD5_CATEGORY_MICRO_MEAN_COEC<0.105929] yes=1,no=2,missing=1
	1:[D_TITLEMD5_COEC<0.049291] yes=3,no=4,missing=3
		3:[C_D_U_KEYWORD_CATEGORY_MACRO_MEAN_COEC<0.0480136] yes=7,no=8,missing=7
			7:[D_TITLEMD5_COEC<0.0339374] yes=15,no=16,missing=15
				15:[U_CATEGORY_MACRO_MAX_COEC<0.0529513] yes=31,no=32,missing=32
					31:[U_CATEGORY_MEAN_C<1728.62] yes=63,no=64,missing=64
						63:leaf=0.0438646
						64:leaf=-0.0154064
					32:[IMAGE_COUNT<0.999999] yes=65,no=66,missing=66
						65:leaf=-0.0723975
						66:leaf=-0.0517713
				16:[U_CITY_COEC<0.0594324] yes=33,no=34,missing=34
					33:[D_TITLEMD5_EC<975.076] yes=67,no=68,missing=68
						67:leaf=-0.0523381
						68:leaf=-0.0360457
					34:[WORD_COUNT<1026] yes=69,no=70,missing=70
						69:leaf=-0.032767
						70:leaf=-0.0179752
			8:[TIME_OF_DAY<12] yes=17,no=18,missing=18
				17:[C_D_U_CATEGORY_CITY_MICRO_MAX_COEC<0.0449503] yes=35,no=36,missing=36
					35:[C_D_U_TITLEMD5_CITY_EC<12.3092] yes=71,no=72,missing=71
						71:leaf=-0.0382955
						72:leaf=0.00765017
					36:[U_CATEGORY_MICRO_MAX_COEC<0.120915] yes=73,no=74,missing=74
						73:leaf=-0.00439655
						74:leaf=0.0260894
				18:[U_CATEGORY_MACRO_MAX_COEC<0.0535031] yes=37,no=38,missing=38
					37:[U_CATEGORY_MEAN_C<1819.38] yes=75,no=76,missing=76
						75:leaf=0.039013
						76:leaf=-0.00555489
					38:[D_TITLEMD5_COEC<0.0313028] yes=77,no=78,missing=78
						77:leaf=-0.0505826
						78:leaf=-0.0148787
		4:[D_KEYWORD_MICRO_MEAN_COEC<0.072109] yes=9,no=10,missing=10
			9:[D_TITLEMD5_C<15.6463] yes=19,no=20,missing=20
				19:[U_CATEGORY_MAX_C<1837.29] yes=39,no=40,missing=40
					39:[C_D_U_CATEGORY_CITY_MACRO_MEAN_COEC<0.0424063] yes=79,no=80,missing=80
						79:leaf=-0.0281837
						80:leaf=0.0260026
					40:[D_CATEGORY_MAX_EC<121915] yes=81,no=82,missing=82
						81:leaf=-0.045913
						82:leaf=-0.0221615
				20:[D_TITLEMD5_COEC<0.085252] yes=41,no=42,missing=42
					41:[DOC_AGE<59.8708] yes=83,no=84,missing=84
						83:leaf=-0.00450983
						84:leaf=-0.0659964
					42:[C_D_U_TITLEMD5_AGE_COEC<0.10725] yes=85,no=86,missing=85
						85:leaf=0.0100794
						86:leaf=0.0321069
			10:[D_TITLEMD5_COEC<0.0834617] yes=21,no=22,missing=22
				21:[D_TITLEMD5_C<238.603] yes=43,no=44,missing=44
					43:[C_D_U_KEYWORD_CATEGORY_MEAN_C<11.3875] yes=87,no=88,missing=88
						87:leaf=0.0281445
						88:leaf=-0.0117481
					44:[C_D_U_TITLEMD5_AGE_COEC<0.0928884] yes=89,no=90,missing=89
						89:leaf=0.00544618
						90:leaf=0.0264296
				22:[DOC_AGE<42.4231] yes=45,no=46,missing=46
					45:[DOC_AGE<12.9519] yes=91,no=92,missing=92
						91:leaf=0.0141431
						92:leaf=0.0266414
					46:[D_KEYWORD_MICRO_MEAN_COEC<0.112128] yes=93,no=94,missing=94
						93:leaf=-0.0222958
						94:leaf=0.0130419
	2:[C_D_U_TITLEMD5_CATEGORY_MICRO_MAX_COEC<0.226794] yes=5,no=6,missing=6
		5:[D_TITLEMD5_C<160.282] yes=11,no=12,missing=12
			11:[C_D_U_KEYWORD_CATEGORY_MICRO_MAX_COEC<0.167684] yes=23,no=24,missing=24
				23:[TIME_OF_DAY<11] yes=47,no=48,missing=48
					47:[C_D_U_KEYWORD_CATEGORY_MACRO_MEAN_COEC<0.0695837] yes=95,no=96,missing=96
						95:leaf=-0.04837
						96:leaf=0.0166379
					48:[C_D_U_CATEGORY_CITY_MEAN_C<937.291] yes=97,no=98,missing=97
						97:leaf=-0.00792046
						98:leaf=-0.0557628
				24:[CAT_REL<0.004782] yes=49,no=50,missing=50
					49:[C_D_U_CATEGORY_CATEGORY_MICRO_MAX_COEC<0.18799] yes=99,no=100,missing=100
						99:leaf=0.000704264
						100:leaf=0.0365931
					50:[D_TITLEMD5_C<5.01046] yes=101,no=102,missing=102
						101:leaf=0.00912708
						102:leaf=0.0430254
			12:[TIME_OF_DAY<10] yes=25,no=26,missing=26
				25:[U_CATEGORY_MAX_C<1305.62] yes=51,no=52,missing=52
					51:[U_GENDER_EC<22992.7] yes=103,no=104,missing=104
						103:leaf=-0.0431096
						104:leaf=0.0545812
					52:[U_CATEGORY_MICRO_MEAN_COEC<0.114874] yes=105,no=106,missing=106
						105:leaf=0.0431527
						106:leaf=0.00699449
				26:[C_D_U_TITLEMD5_GENDER_COEC<0.0843387] yes=53,no=54,missing=53
					53:[U_CATEGORY_MACRO_MAX_COEC<0.0572907] yes=107,no=108,missing=108
						107:leaf=0.0437737
						108:leaf=0.0226581
					54:[U_AGE_C<46435.7] yes=109,no=110,missing=110
						109:leaf=0.062676
						110:leaf=0.0237462
		6:[D_TITLEMD5_C<8.73923] yes=13,no=14,missing=14
			13:[C_D_U_KEYWORD_CATEGORY_MICRO_MEAN_COEC<0.104077] yes=27,no=28,missing=28
				27:[U_CATEGORY_MEAN_C<2611.27] yes=55,no=56,missing=56
					55:[C_D_U_PUBLISHER_CITY_COEC<0.0413282] yes=111,no=112,missing=112
						111:leaf=-0.0358507
						112:leaf=0.0226336
					56:[C_D_U_CATEGORY_CATEGORY_MAX_C<1079.53] yes=113,no=114,missing=113
						113:leaf=-0.053436
						114:leaf=0.0211509
				28:[CAT_REL<0.02355] yes=57,no=58,missing=58
					57:[C_D_U_CATEGORY_CATEGORY_MICRO_MAX_COEC<0.0822321] yes=115,no=116,missing=116
						115:leaf=-0.168835
						116:leaf=0.007853
					58:[WORD_COUNT<810] yes=117,no=118,missing=118
						117:leaf=0.00546194
						118:leaf=0.051994
			14:[D_TITLEMD5_COEC<0.0541601] yes=29,no=30,missing=30
				29:[U_CATEGORY_MACRO_MAX_COEC<0.0734522] yes=59,no=60,missing=60
					59:[U_CATEGORY_MICRO_MAX_COEC<0.150398] yes=119,no=120,missing=120
						119:leaf=0.026858
						120:leaf=0.063116
					60:[C_D_U_TITLEMD5_CATEGORY_MEAN_C<0.899988] yes=121,no=122,missing=122
						121:leaf=-0.0337682
						122:leaf=0.0136328
				30:[CAT_REL<0.004782] yes=61,no=62,missing=62
					61:[U_CATEGORY_MICRO_MAX_COEC<0.139008] yes=123,no=124,missing=124
						123:leaf=0.0485541
						124:leaf=0.0658618
					62:[U_CATEGORY_MICRO_MAX_COEC<0.121717] yes=125,no=126,missing=126
						125:leaf=0.0598813
						126:leaf=0.0786949
booster[10]:
0:[C_D_U_TITLEMD5_CATEGORY_MICRO_MEAN_COEC<0.0783586] yes=1,no=2,missing=1
	1:[D_TITLEMD5_COEC<0.0579709] yes=3,no=4,missing=3
		3:[D_TITLEMD5_COEC<0.0397939] yes=7,no=8,missing=7
			7:[U_CATEGORY_MICRO_MAX_COEC<0.123012] yes=15,no=16,missing=15
				15:[D_TITLEMD5_C<10.377] yes=31,no=32,missing=31
					31:[IMAGE_COUNT<0.999999] yes=63,no=64,missing=64
						63:leaf=-0.0711132
						64:leaf=-0.0495353
					32:[C_D_U_CATEGORY_CITY_MACRO_MAX_COEC<0.116616] yes=65,no=66,missing=65
						65:leaf=-0.0338737
						66:leaf=0.0407273
				16:[U_CATEGORY_MACRO_MAX_COEC<0.0549677] yes=33,no=34,missing=34
					33:[DOC_AGE<24.6706] yes=67,no=68,missing=68
						67:leaf=0.0105213
						68:leaf=0.089059
					34:[TIME_OF_DAY<11] yes=69,no=70,missing=70
						69:leaf=-0.000102014
						70:leaf=-0.0424664
			8:[U_CITY_COEC<0.0585936] yes=17,no=18,missing=18
				17:[U_CITY_COEC<0.0446969] yes=35,no=36,missing=36
					35:[D_TITLEMD5_EC<1187.19] yes=71,no=72,missing=72
						71:leaf=-0.0792495
						72:leaf=-0.0434137
					36:[D_CATEGORY_MEAN_EC<149318] yes=73,no=74,missing=73
						73:leaf=-0.0203182
						74:leaf=-0.0390155
				18:[WORD_COUNT<605] yes=37,no=38,missing=38
					37:[D_CATEGORY_MAX_EC<137892] yes=75,no=76,missing=76
						75:leaf=-0.0521862
						76:leaf=-0.0268157
					38:[U_CATEGORY_MACRO_MAX_COEC<0.0795963] yes=77,no=78,missing=78
						77:leaf=0.018839
						78:leaf=-0.0127716
		4:[D_TITLEMD5_C<280.638] yes=9,no=10,missing=10
			9:[D_TITLEMD5_C<10.377] yes=19,no=20,missing=20
				19:[C_D_U_CATEGORY_CATEGORY_MICRO_MAX_COEC<0.12798] yes=39,no=40,missing=39
					39:[D_CATEGORY_MACRO_MAX_COEC<0.0880336] yes=79,no=80,missing=80
						79:leaf=-0.0315095
						80:leaf=0.00122995
					40:[C_D_U_CATEGORY_CATEGORY_MACRO_MEAN_COEC<0.0993525] yes=81,no=82,missing=82
						81:leaf=0.11269
						82:leaf=0.0269661
				20:[DOC_AGE<57.6581] yes=41,no=42,missing=42
					41:[D_TITLEMD5_COEC<0.0806301] yes=83,no=84,missing=84
						83:leaf=-0.00731251
						84:leaf=0.00799347
					42:[C_D_U_TITLEMD5_AGE_EC<779.193] yes=85,no=86,missing=86
						85:leaf=-0.0183979
						86:leaf=-0.0724831
			10:[D_TITLEMD5_COEC<0.0880248] yes=21,no=22,missing=22
				21:[WORD_COUNT<1151] yes=43,no=44,missing=44
					43:[U_AGE_EC<539700] yes=87,no=88,missing=88
						87:leaf=0.00854663
						88:leaf=-0.0056601
					44:[DOC_AGE<11.6261] yes=89,no=90,missing=90
						89:leaf=0.00197451
						90:leaf=0.0151725
				22:[DOC_AGE<57.6581] yes=45,no=46,missing=46
					45:[D_TITLEMD5_COEC<0.11328] yes=91,no=92,missing=92
						91:leaf=0.0163044
						92:leaf=0.0299979
					46:[C_D_U_TITLEMD5_AGE_C<501.67] yes=93,no=94,missing=93
						93:leaf=-0.0292148
						94:leaf=0.0195639
	2:[C_D_U_KEYWORD_CATEGORY_MACRO_MEAN_COEC<0.158529] yes=5,no=6,missing=6
		5:[U_CATEGORY_MACRO_MAX_COEC<0.052895] yes=11,no=12,missing=12
			11:[U_CATEGORY_MICRO_MAX_COEC<0.125737] yes=23,no=24,missing=24
				23:[D_TITLEMD5_COEC<0.0421027] yes=47,no=48,missing=48
					47:[U_AGE_COEC<0.0733103] yes=95,no=96,missing=95
						95:leaf=-0.00931734
						96:leaf=-0.161774
					48:[WORD_COUNT<713] yes=97,no=98,missing=98
						97:leaf=-0.0197674
						98:leaf=0.0341235
				24:[CAT_REL<0.004432] yes=49,no=50,missing=50
					49:[WORD_COUNT<3667] yes=99,no=100,missing=100
						99:leaf=0.0325501
						100:leaf=0.0771897
					50:[C_D_U_CATEGORY_CATEGORY_MEAN_C<258.092] yes=101,no=102,missing=102
						101:leaf=0.0527076
						102:leaf=0.0774458
			12:[D_TITLEMD5_COEC<0.0483447] yes=25,no=26,missing=26
				25:[CAT_REL<0.013885] yes=51,no=52,missing=52
					51:[U_CATEGORY_MAX_C<1252.82] yes=103,no=104,missing=104
						103:leaf=0.00354473
						104:leaf=-0.0303393
					52:[U_CATEGORY_MICRO_MAX_COEC<0.10604] yes=105,no=106,missing=106
						105:leaf=-0.0215861
						106:leaf=0.017834
				26:[D_TITLEMD5_C<8.94055] yes=53,no=54,missing=54
					53:[D_PUBLISHER_COEC<0.0504864] yes=107,no=108,missing=108
						107:leaf=-0.0247642
						108:leaf=0.0117674
					54:[C_D_U_KEYWORD_CATEGORY_MICRO_MAX_COEC<0.221482] yes=109,no=110,missing=110
						109:leaf=0.0241472
						110:leaf=0.0421439
		6:[C_D_U_TITLEMD5_CATEGORY_MICRO_MEAN_COEC<0.221108] yes=13,no=14,missing=14
			13:[CAT_REL<0.004432] yes=27,no=28,missing=28
				27:[D_TITLEMD5_C<93.8065] yes=55,no=56,missing=56
					55:[C_D_U_CATEGORY_CATEGORY_MICRO_MAX_COEC<0.162807] yes=111,no=112,missing=112
						111:leaf=-0.0235051
						112:leaf=0.0295252
					56:[C_D_U_CATEGORY_CATEGORY_MAX_C<132.229] yes=113,no=114,missing=113
						113:leaf=0.0476899
						114:leaf=0.0338461
				28:[U_CATEGORY_MACRO_MAX_COEC<0.0826097] yes=57,no=58,missing=58
					57:[C_D_U_CATEGORY_CATEGORY_MICRO_MAX_COEC<0.116131] yes=115,no=116,missing=116
						115:leaf=0.0264708
						116:leaf=0.0625512
					58:[C_D_U_CATEGORY_CITY_MICRO_MEAN_COEC<0.0617532] yes=117,no=118,missing=118
						117:leaf=0.0110591
						118:leaf=0.0448916
			14:[U_CATEGORY_MACRO_MAX_COEC<0.09671] yes=29,no=30,missing=30
				29:[U_CATEGORY_MICRO_MAX_COEC<0.128073] yes=59,no=60,missing=60
					59:[D_KEYWORD_MICRO_MEAN_COEC<0.0393117] yes=119,no=120,missing=120
						119:leaf=-0.201096
						120:leaf=0.0556572
					60:[D_TITLEMD5_COEC<0.0340064] yes=121,no=122,missing=122
						121:leaf=-0.0966019
						122:leaf=0.0735159
				30:[D_KEYWORD_MACRO_MEAN_COEC<0.0570324] yes=61,no=62,missing=62
					61:[U_CITY_COEC<0.0639837] yes=123,no=124,missing=123
						123:leaf=0.00570483
						124:leaf=-0.106628
					62:[C_D_U_KEYWORD_CATEGORY_MICRO_MEAN_COEC<0.0876082] yes=125,no=126,missing=126
						125:leaf=-0.114664
						126:leaf=0.050014
booster[11]:
0:[C_D_U_KEYWORD_CATEGORY_MACRO_MEAN_COEC<0.0916079] yes=1,no=2,missing=1
	1:[D_TITLEMD5_COEC<0.0458417] yes=3,no=4,missing=3
		3:[C_D_U_TITLEMD5_CATEGORY_MICRO_MAX_COEC<0.0521985] yes=7,no=8,missing=7
			7:[D_TITLEMD5_C<23.8065] yes=15,no=16,missing=15
				15:[U_CATEGORY_MICRO_MAX_COEC<0.141725] yes=31,no=32,missing=31
					31:[C_D_U_CATEGORY_CITY_MICRO_MEAN_COEC<0.0371917] yes=63,no=64,missing=64
						63:leaf=-0.0659655
						64:leaf=-0.043085
					32:[IMAGE_COUNT<0.999999] yes=65,no=66,missing=66
						65:leaf=-0.0562914
						66:leaf=0.0142461
				16:[WORD_COUNT<893] yes=33,no=34,missing=34
					33:[U_CITY_COEC<0.0587664] yes=67,no=68,missing=68
						67:leaf=-0.054099
						68:leaf=-0.0333614
					34:[D_CATEGORY_MICRO_MEAN_COEC<0.0543257] yes=69,no=70,missing=70
						69:leaf=-0.0278352
						70:leaf=-0.0151581
			8:[TIME_OF_DAY<11] yes=17,no=18,missing=18
				17:[CAT_REL<0.033261] yes=35,no=36,missing=36
					35:[U_CITY_COEC<0.0585743] yes=71,no=72,missing=72
						71:leaf=-0.0613958
						72:leaf=0.00362988
					36:[U_GENDER_EC<256374] yes=73,no=74,missing=74
						73:leaf=-0.0217966
						74:leaf=0.0311733
				18:[C_D_U_CATEGORY_CITY_MACRO_MEAN_COEC<0.0637043] yes=37,no=38,missing=38
					37:[U_CATEGORY_MICRO_MEAN_COEC<0.11083] yes=75,no=76,missing=76
						75:leaf=-0.0599848
						76:leaf=-0.00872269
					38:[U_CITY_COEC<0.0587664] yes=77,no=78,missing=77
						77:leaf=-0.0120645
						78:leaf=0.0192529
		4:[D_TITLEMD5_C<623.694] yes=9,no=10,missing=10
			9:[C_D_U_CATEGORY_CITY_MACRO_MEAN_COEC<0.0938379] yes=19,no=20,missing=19
				19:[D_TITLEMD5_C<10.7932] yes=39,no=40,missing=40
					39:[C_D_U_KEYWORD_CATEGORY_MICRO_MAX_COEC<0.171125] yes=79,no=80,missing=79
						79:leaf=-0.0273347
						80:leaf=0.0124844
					40:[D_TITLEMD5_COEC<0.0791059] yes=81,no=82,missing=82
						81:leaf=-0.00871663
						82:leaf=0.00628144
				20:[C_D_U_CATEGORY_CITY_MACRO_MEAN_COEC<0.116108] yes=41,no=42,missing=42
					41:[DAY_OF_WEEK<2] yes=83,no=84,missing=84
						83:leaf=0.0153857
						84:leaf=-0.00987717
					42:[U_CITY_COEC<0.280378] yes=85,no=86,missing=86
						85:leaf=0.0293353
						86:leaf=0.106685
			10:[D_CATEGORY_MEAN_C<5794] yes=21,no=22,missing=21
				21:[C_D_U_TITLEMD5_CITY_COEC<0.0668717] yes=43,no=44,missing=44
					43:[C_D_U_TITLEMD5_GENDER_COEC<0.0958012] yes=87,no=88,missing=87
						87:leaf=-0.00968258
						88:leaf=0.0307262
					44:[TIME_OF_DAY<6] yes=89,no=90,missing=90
						89:leaf=0.0200857
						90:leaf=0.00256072
				22:[C_D_U_TITLEMD5_AGE_COEC<0.107277] yes=45,no=46,missing=45
					45:[DOC_AGE<11.8822] yes=91,no=92,missing=92
						91:leaf=0.00643192
						92:leaf=0.0168219
					46:[U_AGE_EC<500583] yes=93,no=94,missing=94
						93:leaf=0.0343277
						94:leaf=0.0205765
	2:[C_D_U_TITLEMD5_CATEGORY_MICRO_MAX_COEC<0.222509] yes=5,no=6,missing=6
		5:[C_D_U_TITLEMD5_CATEGORY_MICRO_MEAN_COEC<0.140982] yes=11,no=12,missing=12
			11:[TIME_OF_DAY<12] yes=23,no=24,missing=24
				23:[C_D_U_KEYWORD_CATEGORY_MACRO_MAX_COEC<0.0131398] yes=47,no=48,missing=48
					47:[U_CATEGORY_MACRO_MAX_COEC<0.0840463] yes=95,no=96,missing=96
						95:leaf=0.0462004
						96:leaf=-0.0234403
					48:[CAT_REL<0.003021] yes=97,no=98,missing=98
						97:leaf=0.0129542
						98:leaf=0.0303749
				24:[DOC_AGE<11.3892] yes=49,no=50,missing=50
					49:[D_TITLEMD5_C<147.239] yes=99,no=100,missing=100
						99:leaf=0.00360126
						100:leaf=0.0245185
					50:[DOC_AGE<24.9617] yes=101,no=102,missing=102
						101:leaf=-0.0204049
						102:leaf=0.0111
			12:[U_CATEGORY_MACRO_MAX_COEC<0.0840463] yes=25,no=26,missing=26
				25:[C_D_U_TITLEMD5_CATEGORY_MACRO_MAX_COEC<0.0545449] yes=51,no=52,missing=52
					51:[U_CATEGORY_MICRO_MEAN_COEC<0.133015] yes=103,no=104,missing=104
						103:leaf=0.0651387
						104:leaf=-0.0329431
					52:[CAT_REL<0.003021] yes=105,no=106,missing=106
						105:leaf=0.0316479
						106:leaf=0.0444773
				26:[C_D_U_TITLEMD5_GENDER_COEC<0.0633463] yes=53,no=54,missing=54
					53:[U_GENDER_COEC<0.0760039] yes=107,no=108,missing=108
						107:leaf=-0.0206183
						108:leaf=-0.210125
					54:[D_KEYWORD_MICRO_MAX_COEC<0.0641993] yes=109,no=110,missing=110
						109:leaf=-0.00349316
						110:leaf=0.0291344
		6:[D_TITLEMD5_C<131.622] yes=13,no=14,missing=14
			13:[U_CATEGORY_MICRO_MAX_COEC<0.154188] yes=27,no=28,missing=28
				27:[CAT_REL<0.003021] yes=55,no=56,missing=56
					55:[D_TITLEMD5_COEC<0.0737389] yes=111,no=112,missing=112
						111:leaf=-0.00667947
						112:leaf=0.0286246
					56:[D_TITLEMD5_C<5.49289] yes=113,no=114,missing=114
						113:leaf=0.0108726
						114:leaf=0.0466795
				28:[D_TITLEMD5_COEC<0.0285996] yes=57,no=58,missing=58
					57:[C_D_U_TITLEMD5_AGE_C<7.93577] yes=115,no=116,missing=116
						115:leaf=-0.0980477
						116:leaf=0.0133589
					58:[U_CATEGORY_MACRO_MAX_COEC<0.061814] yes=117,no=118,missing=118
						117:leaf=0.0659023
						118:leaf=0.0355454
			14:[C_D_U_KEYWORD_CATEGORY_MICRO_MAX_COEC<0.314368] yes=29,no=30,missing=30
				29:[TIME_OF_DAY<11] yes=59,no=60,missing=60
					59:[C_D_U_TITLEMD5_CATEGORY_MACRO_MAX_COEC<0.0924339] yes=119,no=120,missing=120
						119:leaf=0.0647217
						120:leaf=0.0528629
					60:[WORD_COUNT<1026] yes=121,no=122,missing=122
						121:leaf=0.0284623
						122:leaf=0.0478099
				30:[CAT_REL<0.003021] yes=61,no=62,missing=62
					61:[U_CATEGORY_MICRO_MAX_COEC<0.127072] yes=123,no=124,missing=124
						123:leaf=0.0397876
						124:leaf=0.0623378
					62:[U_CATEGORY_MACRO_MAX_COEC<0.0662871] yes=125,no=126,missing=126
						125:leaf=0.0817562
						126:leaf=0.0678745
booster[12]:
0:[C_D_U_KEYWORD_CATEGORY_MACRO_MEAN_COEC<0.108012] yes=1,no=2,missing=1
	1:[D_TITLEMD5_C<210.662] yes=3,no=4,missing=3
		3:[D_TITLEMD5_COEC<0.041589] yes=7,no=8,missing=7
			7:[C_D_U_KEYWORD_CATEGORY_MACRO_MEAN_COEC<0.0379142] yes=15,no=16,missing=15
				15:[D_TITLEMD5_C<8.6304] yes=31,no=32,missing=31
					31:[C_D_U_CATEGORY_CITY_MACRO_MEAN_COEC<0.0393419] yes=63,no=64,missing=64
						63:leaf=-0.068609
						64:leaf=-0.0443394
					32:[D_CATEGORY_MICRO_MEAN_COEC<0.0640654] yes=65,no=66,missing=66
						65:leaf=-0.0339556
						66:leaf=-0.0189239
				16:[U_CATEGORY_MICRO_MAX_COEC<0.15534] yes=33,no=34,missing=34
					33:[D_TITLEMD5_C<6.77023] yes=67,no=68,missing=68
						67:leaf=-0.0274906
						68:leaf=-0.00262652
					34:[C_D_U_CATEGORY_CITY_MACRO_MAX_COEC<0.071459] yes=69,no=70,missing=70
						69:leaf=-0.000301788
						70:leaf=0.0465604
			8:[U_CATEGORY_MEAN_C<2912.46] yes=17,no=18,missing=18
				17:[D_TITLEMD5_C<2.82704] yes=35,no=36,missing=36
					35:[U_CATEGORY_MAX_C<2347.52] yes=71,no=72,missing=72
						71:leaf=-0.00733146
						72:leaf=-0.128939
					36:[WORD_COUNT<1831] yes=73,no=74,missing=74
						73:leaf=0.0168014
						74:leaf=0.0518892
				18:[C_D_U_CATEGORY_CITY_MACRO_MEAN_COEC<0.068712] yes=37,no=38,missing=37
					37:[D_TITLEMD5_C<6.77023] yes=75,no=76,missing=76
						75:leaf=-0.0343803
						76:leaf=-0.0135612
					38:[C_D_U_CATEGORY_CITY_MICRO_MAX_COEC<0.100075] yes=77,no=78,missing=78
						77:leaf=-0.00490988
						78:leaf=0.014853
		4:[D_TITLEMD5_COEC<0.0820815] yes=9,no=10,missing=10
			9:[U_CITY_COEC<0.0697159] yes=19,no=20,missing=19
				19:[WORD_COUNT<1149] yes=39,no=40,missing=40
					39:[C_D_U_TITLEMD5_GENDER_COEC<0.0910087] yes=79,no=80,missing=79
						79:leaf=-0.00840422
						80:leaf=0.0185959
					40:[D_CATEGORY_MEAN_EC<407951] yes=81,no=82,missing=82
						81:leaf=0.00700759
						82:leaf=-0.00578099
				20:[U_AGE_EC<445584] yes=41,no=42,missing=42
					41:[U_AGE_COEC<0.0732339] yes=83,no=84,missing=84
						83:leaf=-0.0362889
						84:leaf=0.0576779
					42:[C_D_U_CATEGORY_CITY_MICRO_MEAN_COEC<0.11546] yes=85,no=86,missing=85
						85:leaf=0.00828602
						86:leaf=0.0366804
			10:[DOC_AGE<58.1258] yes=21,no=22,missing=22
				21:[D_TITLEMD5_COEC<0.113208] yes=43,no=44,missing=44
					43:[U_CITY_COEC<0.0507972] yes=87,no=88,missing=88
						87:leaf=-0.00725532
						88:leaf=0.013513
					44:[D_CATEGORY_MAX_C<39500.2] yes=89,no=90,missing=90
						89:leaf=0.0317173
						90:leaf=0.0137051
				22:[C_D_U_PUBLISHER_CITY_COEC<0.0808731] yes=45,no=46,missing=46
					45:[D_PUBLISHER_COEC<0.0533202] yes=91,no=92,missing=92
						91:leaf=0.0557919
						92:leaf=-0.04658
					46:[C_D_U_TITLEMD5_AGE_C<224.139] yes=93,no=94,missing=93
						93:leaf=-0.0170671
						94:leaf=0.0252335
	2:[C_D_U_TITLEMD5_CATEGORY_MICRO_MEAN_COEC<0.196184] yes=5,no=6,missing=6
		5:[CAT_REL<0.003274] yes=11,no=12,missing=12
			11:[D_TITLEMD5_COEC<0.0587797] yes=23,no=24,missing=23
				23:[U_CATEGORY_MAX_C<1310.79] yes=47,no=48,missing=48
					47:[C_D_U_CATEGORY_CITY_MICRO_MEAN_COEC<0.0940749] yes=95,no=96,missing=96
						95:leaf=0.00356812
						96:leaf=0.0305929
					48:[D_TITLEMD5_COEC<0.0460596] yes=97,no=98,missing=98
						97:leaf=-0.0539565
						98:leaf=-0.00691293
				24:[WORD_COUNT<1611] yes=49,no=50,missing=50
					49:[C_D_U_CATEGORY_CATEGORY_MICRO_MAX_COEC<0.239492] yes=99,no=100,missing=99
						99:leaf=0.0198272
						100:leaf=0.0597636
					50:[C_D_U_TITLEMD5_GENDER_COEC<0.0391559] yes=101,no=102,missing=102
						101:leaf=-0.166133
						102:leaf=0.0416059
			12:[U_CATEGORY_MACRO_MAX_COEC<0.0576283] yes=25,no=26,missing=26
				25:[C_D_U_CATEGORY_CATEGORY_MICRO_MAX_COEC<0.115478] yes=51,no=52,missing=52
					51:[C_D_U_KEYWORD_CATEGORY_MEAN_C<1.12599] yes=103,no=104,missing=104
						103:leaf=-0.0212881
						104:leaf=0.0380853
					52:[U_GENDER_C<16362.6] yes=105,no=106,missing=106
						105:leaf=-0.00203314
						106:leaf=0.0540211
				26:[TIME_OF_DAY<11] yes=53,no=54,missing=54
					53:[U_CATEGORY_MICRO_MAX_COEC<0.121778] yes=107,no=108,missing=108
						107:leaf=0.0250698
						108:leaf=0.0449969
					54:[C_D_U_CATEGORY_CITY_MICRO_MAX_COEC<0.062731] yes=109,no=110,missing=109
						109:leaf=0.00275497
						110:leaf=0.0261252
		6:[U_CATEGORY_MACRO_MAX_COEC<0.0576283] yes=13,no=14,missing=14
			13:[CAT_REL<0.003274] yes=27,no=28,missing=28
				27:[C_D_U_TITLEMD5_CATEGORY_MICRO_MEAN_COEC<0.245738] yes=55,no=56,missing=56
					55:[C_D_U_CATEGORY_CATEGORY_MEAN_EC<3308.1] yes=111,no=112,missing=111
						111:leaf=0.0539216
						112:leaf=0.0223321
					56:[D_KEYWORD_MICRO_MAX_COEC<0.0531182] yes=113,no=114,missing=114
						113:leaf=-0.239708
						114:leaf=0.0661836
				28:[D_TITLEMD5_COEC<0.0260888] yes=57,no=58,missing=58
					57:leaf=-0.217289
					58:[C_D_U_TITLEMD5_CATEGORY_MEAN_EC<0.351449] yes=115,no=116,missing=116
						115:leaf=-0.0199467
						116:leaf=0.0704947
			14:[C_D_U_TITLEMD5_CATEGORY_MEAN_C<3.07141] yes=29,no=30,missing=30
				29:[WORD_COUNT<463] yes=59,no=60,missing=60
					59:[C_D_U_TITLEMD5_CATEGORY_MAX_C<0.448733] yes=117,no=118,missing=118
						117:leaf=-0.169866
						118:leaf=-0.0352317
					60:[D_KEYWORD_MACRO_MEAN_COEC<0.0518372] yes=119,no=120,missing=120
						119:leaf=-0.00114975
						120:leaf=0.0315595
				30:[C_D_U_KEYWORD_CATEGORY_MICRO_MAX_COEC<0.303852] yes=61,no=62,missing=62
					61:[TIME_OF_DAY<12] yes=121,no=122,missing=122
						121:leaf=0.0461243
						122:leaf=0.0332603
					62:[C_D_U_CATEGORY_CATEGORY_MICRO_MAX_COEC<0.154335] yes=123,no=124,missing=123
						123:leaf=0.0466212
						124:leaf=0.0631584
booster[13]:
0:[D_TITLEMD5_COEC<0.0555727] yes=1,no=2,missing=1
	1:[C_D_U_TITLEMD5_CATEGORY_MICRO_MAX_COEC<0.063138] yes=3,no=4,missing=3
		3:[D_TITLEMD5_C<17.9294] yes=7,no=8,missing=7
			7:[C_D_U_KEYWORD_CATEGORY_MICRO_MAX_COEC<0.163909] yes=15,no=16,missing=15
				15:[IMAGE_COUNT<0.999999] yes=31,no=32,missing=32
					31:[D_KEYWORD_MACRO_MEAN_COEC<0.0287289] yes=63,no=64,missing=64
						63:leaf=-0.0703175
						64:leaf=-0.0467623
					32:[C_D_U_PUBLISHER_CITY_COEC<0.0355513] yes=65,no=66,missing=66
						65:leaf=-0.052593
						66:leaf=-0.0298268
				16:[IMAGE_COUNT<0.999999] yes=33,no=34,missing=34
					33:[U_CATEGORY_MICRO_MAX_COEC<0.154348] yes=67,no=68,missing=68
						67:leaf=-0.0457761
						68:leaf=0.00301659
					34:[U_CITY_COEC<0.0612239] yes=69,no=70,missing=70
						69:leaf=-0.020164
						70:leaf=0.0205688
			8:[U_CITY_COEC<0.0583944] yes=17,no=18,missing=18
				17:[U_CITY_COEC<0.0451523] yes=35,no=36,missing=36
					35:[C_D_U_TITLEMD5_AGE_EC<595.933] yes=71,no=72,missing=71
						71:leaf=-0.0546555
						72:leaf=-0.0166999
					36:[C_D_U_CATEGORY_GENDER_MACRO_MEAN_COEC<0.0718692] yes=73,no=74,missing=74
						73:leaf=-0.0643757
						74:leaf=-0.0225237
				18:[C_D_U_CATEGORY_CITY_MACRO_MEAN_COEC<0.101717] yes=37,no=38,missing=37
					37:[WORD_COUNT<3639] yes=75,no=76,missing=76
						75:leaf=-0.0154087
						76:leaf=0.00233472
					38:[D_PUBLISHER_EC<272007] yes=77,no=78,missing=78
						77:leaf=0.0201285
						78:leaf=0.114325
		4:[U_CATEGORY_MICRO_MAX_COEC<0.162947] yes=9,no=10,missing=10
			9:[U_CATEGORY_MACRO_MAX_COEC<0.0370337] yes=19,no=20,missing=20
				19:[U_CATEGORY_MICRO_MAX_COEC<0.136215] yes=39,no=40,missing=40
					39:[C_D_U_CATEGORY_GENDER_MACRO_MEAN_COEC<0.0524406] yes=79,no=80,missing=80
						79:leaf=-0.180383
						80:leaf=0.0353015
					40:[U_CATEGORY_MACRO_MEAN_COEC<0.118445] yes=81,no=82,missing=82
						81:leaf=0.0854525
						82:leaf=0.0412048
				20:[D_TITLEMD5_C<6.71075] yes=41,no=42,missing=42
					41:[DOC_AGE<3.98139] yes=83,no=84,missing=84
						83:leaf=-0.00484851
						84:leaf=-0.0433716
					42:[CAT_REL<0.011471] yes=85,no=86,missing=86
						85:leaf=-0.00175584
						86:leaf=0.0164328
			10:[U_CATEGORY_MACRO_MAX_COEC<0.0735085] yes=21,no=22,missing=22
				21:[U_CITY_COEC<0.0508011] yes=43,no=44,missing=44
					43:[D_CATEGORY_MAX_EC<104403] yes=87,no=88,missing=88
						87:leaf=-0.037169
						88:leaf=-0.250161
					44:[U_AGE_COEC<0.0751729] yes=89,no=90,missing=89
						89:leaf=0.0545213
						90:leaf=0.00223336
				22:[C_D_U_CATEGORY_CITY_MICRO_MEAN_COEC<0.0838838] yes=45,no=46,missing=46
					45:[U_GENDER_EC<277041] yes=91,no=92,missing=91
						91:leaf=-0.0105233
						92:leaf=-0.193629
					46:[C_D_U_CATEGORY_AGE_MAX_EC<144360] yes=93,no=94,missing=93
						93:leaf=0.0396384
						94:leaf=0.137029
	2:[C_D_U_KEYWORD_CATEGORY_MICRO_MAX_COEC<0.165414] yes=5,no=6,missing=5
		5:[D_TITLEMD5_C<298.429] yes=11,no=12,missing=12
			11:[D_TITLEMD5_C<11.7529] yes=23,no=24,missing=24
				23:[D_CATEGORY_MICRO_MEAN_COEC<0.0878679] yes=47,no=48,missing=48
					47:[D_PUBLISHER_COEC<0.0478519] yes=95,no=96,missing=96
						95:leaf=-0.0357791
						96:leaf=-0.0161302
					48:[D_KEYWORD_MEAN_C<65.4092] yes=97,no=98,missing=98
						97:leaf=-0.0162037
						98:leaf=0.0202083
				24:[DOC_AGE<41.385] yes=49,no=50,missing=50
					49:[C_D_U_TITLEMD5_AGE_COEC<0.0898355] yes=99,no=100,missing=99
						99:leaf=-0.00328924
						100:leaf=0.0176513
					50:[U_AGE_C<36322.7] yes=101,no=102,missing=102
						101:leaf=0.00458016
						102:leaf=-0.0475604
			12:[D_TITLEMD5_COEC<0.0886317] yes=25,no=26,missing=26
				25:[TIME_OF_DAY<6] yes=51,no=52,missing=52
					51:[DAY_OF_WEEK<0.999999] yes=103,no=104,missing=104
						103:leaf=0.0257663
						104:leaf=0.00655639
					52:[WORD_COUNT<1151] yes=105,no=106,missing=106
						105:leaf=-0.00496689
						106:leaf=0.00513823
				26:[D_CATEGORY_MAX_C<38024.9] yes=53,no=54,missing=54
					53:[C_D_U_TITLEMD5_CITY_COEC<0.10817] yes=107,no=108,missing=108
						107:leaf=0.012299
						108:leaf=0.025351
					54:[C_D_U_TITLEMD5_AGE_COEC<0.120109] yes=109,no=110,missing=109
						109:leaf=0.00374003
						110:leaf=0.018605
		6:[C_D_U_TITLEMD5_CATEGORY_MICRO_MAX_COEC<0.222815] yes=13,no=14,missing=14
			13:[D_TITLEMD5_C<5.48776] yes=27,no=28,missing=28
				27:[C_D_U_PUBLISHER_GENDER_C<706.027] yes=55,no=56,missing=56
					55:[U_CATEGORY_MACRO_MAX_COEC<0.0507291] yes=111,no=112,missing=112
						111:leaf=0.0296045
						112:leaf=-0.06708
					56:[C_D_U_CATEGORY_CATEGORY_MICRO_MAX_COEC<0.15284] yes=113,no=114,missing=114
						113:leaf=-0.000509543
						114:leaf=0.0333325
				28:[CAT_REL<0.088517] yes=57,no=58,missing=58
					57:[C_D_U_CATEGORY_CATEGORY_MAX_EC<1331.12] yes=115,no=116,missing=115
						115:leaf=0.0319051
						116:leaf=0.0147078
					58:[U_CATEGORY_MICRO_MAX_COEC<0.119715] yes=117,no=118,missing=118
						117:leaf=0.0290776
						118:leaf=0.0466959
			14:[D_TITLEMD5_C<9.6386] yes=29,no=30,missing=30
				29:[WORD_COUNT<1226] yes=59,no=60,missing=60
					59:[C_D_U_CATEGORY_CITY_MICRO_MAX_COEC<0.0542677] yes=119,no=120,missing=120
						119:leaf=-0.0299519
						120:leaf=0.0150624
					60:[D_KEYWORD_MICRO_MAX_COEC<0.139015] yes=121,no=122,missing=122
						121:leaf=0.00949413
						122:leaf=0.0446491
				30:[CAT_REL<0.004782] yes=61,no=62,missing=62
					61:[U_CATEGORY_MICRO_MAX_COEC<0.136215] yes=123,no=124,missing=124
						123:leaf=0.0314563
						124:leaf=0.0471196
					62:[U_CATEGORY_MICRO_MAX_COEC<0.121717] yes=125,no=126,missing=126
						125:leaf=0.0438647
						126:leaf=0.0618624
booster[14]:
0:[C_D_U_TITLEMD5_CATEGORY_MICRO_MEAN_COEC<0.085885] yes=1,no=2,missing=1
	1:[D_TITLEMD5_C<114.811] yes=3,no=4,missing=3
		3:[D_KEYWORD_MACRO_MEAN_COEC<0.0352967] yes=7,no=8,missing=8
			7:[U_CATEGORY_MICRO_MEAN_COEC<0.107014] yes=15,no=16,missing=15
				15:[D_TITLEMD5_C<6.70732] yes=31,no=32,missing=31
					31:[WORD_COUNT<3880] yes=63,no=64,missing=64
						63:leaf=-0.0536245
						64:leaf=-0.017288
					32:[WORD_COUNT<2632] yes=65,no=66,missing=66
						65:leaf=-0.0329269
						66:leaf=-0.00956619
				16:[C_D_U_CATEGORY_CATEGORY_MICRO_MAX_COEC<0.0881096] yes=33,no=34,missing=34
					33:[C_D_U_CATEGORY_AGE_MEAN_EC<16335.4] yes=67,no=68,missing=68
						67:leaf=0.0514538
						68:leaf=-0.0433445
					34:[DOC_AGE<22.6922] yes=69,no=70,missing=70
						69:leaf=-0.00445647
						70:leaf=0.0619404
			8:[C_D_U_CATEGORY_CITY_MICRO_MAX_COEC<0.0650028] yes=17,no=18,missing=18
				17:[WORD_COUNT<1491] yes=35,no=36,missing=36
					35:[DAY_OF_WEEK<0.999999] yes=71,no=72,missing=72
						71:leaf=-0.0183372
						72:leaf=-0.0331843
					36:[U_CITY_COEC<0.0560404] yes=73,no=74,missing=73
						73:leaf=-0.0382815
						74:leaf=-0.00823081
				18:[C_D_U_KEYWORD_CATEGORY_MICRO_MAX_COEC<0.158162] yes=37,no=38,missing=37
					37:[U_CITY_COEC<0.0680431] yes=75,no=76,missing=75
						75:leaf=-0.0123823
						76:leaf=0.00406467
					38:[U_CATEGORY_MICRO_MAX_COEC<0.152029] yes=77,no=78,missing=78
						77:leaf=0.0169615
						78:leaf=0.0406814
		4:[D_TITLEMD5_COEC<0.0804703] yes=9,no=10,missing=10
			9:[C_D_U_TITLEMD5_CITY_COEC<0.0677152] yes=19,no=20,missing=19
				19:[U_CITY_COEC<0.0716625] yes=39,no=40,missing=39
					39:[WORD_COUNT<730] yes=79,no=80,missing=80
						79:leaf=-0.0236955
						80:leaf=-0.00584817
					40:[C_D_U_CATEGORY_CITY_MACRO_MEAN_COEC<0.0997414] yes=81,no=82,missing=81
						81:leaf=0.00948344
						82:leaf=0.0314824
				20:[U_AGE_EC<533232] yes=41,no=42,missing=42
					41:[DOC_AGE<16.5611] yes=83,no=84,missing=84
						83:leaf=0.0280456
						84:leaf=0.000183632
					42:[WORD_COUNT<1275] yes=85,no=86,missing=86
						85:leaf=-0.00245279
						86:leaf=0.00810869
			10:[DOC_AGE<43.8758] yes=21,no=22,missing=22
				21:[D_TITLEMD5_COEC<0.113149] yes=43,no=44,missing=44
					43:[C_D_U_TITLEMD5_AGE_COEC<0.106887] yes=87,no=88,missing=87
						87:leaf=0.00779195
						88:leaf=0.0182312
					44:[D_CATEGORY_MAX_C<40070.9] yes=89,no=90,missing=90
						89:leaf=0.0273516
						90:leaf=0.0141408
				22:[C_D_U_PUBLISHER_CITY_C<308.224] yes=45,no=46,missing=45
					45:[D_CATEGORY_MAX_EC<322750] yes=91,no=92,missing=92
						91:leaf=0.00985739
						92:leaf=-0.0143473
					46:[D_KEYWORD_MICRO_MEAN_COEC<0.112128] yes=93,no=94,missing=94
						93:leaf=-0.0513077
						94:leaf=-0.00125969
	2:[C_D_U_KEYWORD_CATEGORY_MICRO_MAX_COEC<0.256366] yes=5,no=6,missing=6
		5:[D_TITLEMD5_C<150.486] yes=11,no=12,missing=12
			11:[D_TITLEMD5_C<2.8777] yes=23,no=24,missing=24
				23:[U_AGE_COEC<0.0729291] yes=47,no=48,missing=48
					47:[C_D_U_CATEGORY_CITY_MAX_C<57.2809] yes=95,no=96,missing=95
						95:leaf=-0.14395
						96:leaf=-0.035883
					48:[C_D_U_PUBLISHER_GENDER_EC<11837.9] yes=97,no=98,missing=97
						97:leaf=-0.00970806
						98:leaf=-0.108167
				24:[CAT_REL<0.004782] yes=49,no=50,missing=50
					49:[D_TITLEMD5_COEC<0.062828] yes=99,no=100,missing=100
						99:leaf=-0.00979863
						100:leaf=0.0136715
					50:[WORD_COUNT<730] yes=101,no=102,missing=102
						101:leaf=-0.000201588
						102:leaf=0.020431
			12:[CAT_REL<0.014376] yes=25,no=26,missing=26
				25:[TIME_OF_DAY<9] yes=51,no=52,missing=52
					51:[WORD_COUNT<3639] yes=103,no=104,missing=104
						103:leaf=0.0256647
						104:leaf=0.0514602
					52:[D_TITLEMD5_C<1469.7] yes=105,no=106,missing=106
						105:leaf=0.00988791
						106:leaf=0.0352082
				26:[U_CATEGORY_MACRO_MAX_COEC<0.0575833] yes=53,no=54,missing=54
					53:[C_D_U_CATEGORY_AGE_MAX_EC<141608] yes=107,no=108,missing=107
						107:leaf=0.0482918
						108:leaf=-0.0162639
					54:[C_D_U_CATEGORY_CITY_MACRO_MAX_COEC<0.0941294] yes=109,no=110,missing=109
						109:leaf=0.0267025
						110:leaf=0.0506111
		6:[D_TITLEMD5_C<73.0934] yes=13,no=14,missing=14
			13:[WORD_COUNT<935] yes=27,no=28,missing=28
				27:[U_CATEGORY_MICRO_MAX_COEC<0.149597] yes=55,no=56,missing=56
					55:[U_CATEGORY_MEAN_C<815.61] yes=111,no=112,missing=112
						111:leaf=-0.213541
						112:leaf=-0.007112
					56:[C_D_U_PUBLISHER_CITY_COEC<0.069311] yes=113,no=114,missing=114
						113:leaf=0.00599453
						114:leaf=0.05331
				28:[C_D_U_CATEGORY_CATEGORY_MICRO_MAX_COEC<0.103105] yes=57,no=58,missing=58
					57:[C_D_U_CATEGORY_CATEGORY_MAX_EC<952.659] yes=115,no=116,missing=116
						115:leaf=-0.030449
						116:leaf=0.0214116
					58:[CAT_REL<0.032515] yes=117,no=118,missing=118
						117:leaf=0.024079
						118:leaf=0.0451574
			14:[C_D_U_TITLEMD5_CATEGORY_MICRO_MAX_COEC<0.301297] yes=29,no=30,missing=30
				29:[C_D_U_TITLEMD5_GENDER_C<2.98005] yes=59,no=60,missing=60
					59:[D_PUBLISHER_EC<128763] yes=119,no=120,missing=120
						119:leaf=-0.167936
						120:leaf=0.039453
					60:[CAT_REL<0.004782] yes=121,no=122,missing=122
						121:leaf=0.0330011
						122:leaf=0.0458569
				30:[U_CATEGORY_MACRO_MAX_COEC<0.0971345] yes=61,no=62,missing=62
					61:[CAT_REL<0.004782] yes=123,no=124,missing=124
						123:leaf=0.0499098
						124:leaf=0.0619622
					62:[C_D_U_TITLEMD5_GENDER_COEC<0.0616804] yes=125,no=126,missing=126
						125:leaf=-0.149406
						126:leaf=0.0373237
booster[15]:
0:[C_D_U_TITLEMD5_CATEGORY_MICRO_MEAN_COEC<0.0797457] yes=1,no=2,missing=1
	1:[D_TITLEMD5_COEC<0.0601146] yes=3,no=4,missing=3
		3:[D_TITLEMD5_C<66.4777] yes=7,no=8,missing=7
			7:[U_CATEGORY_MICRO_MAX_COEC<0.123724] yes=15,no=16,missing=15
				15:[D_KEYWORD_MACRO_MEAN_COEC<0.0291458] yes=31,no=32,missing=32
					31:[WORD_COUNT<893] yes=63,no=64,missing=64
						63:leaf=-0.058973
						64:leaf=-0.0328921
					32:[C_D_U_CATEGORY_CITY_MICRO_MEAN_COEC<0.0861155] yes=65,no=66,missing=65
						65:leaf=-0.0242795
						66:leaf=0.00557671
				16:[C_D_U_CATEGORY_CATEGORY_MICRO_MAX_COEC<0.109011] yes=33,no=34,missing=34
					33:[C_D_U_CATEGORY_CATEGORY_MAX_EC<3203.43] yes=67,no=68,missing=68
						67:leaf=-0.028648
						68:leaf=0.086364
					34:[CAT_REL<0.051156] yes=69,no=70,missing=70
						69:leaf=-0.0102559
						70:leaf=0.0240778
			8:[WORD_COUNT<3588] yes=17,no=18,missing=18
				17:[D_TITLEMD5_EC<5585.72] yes=35,no=36,missing=36
					35:[C_D_U_CATEGORY_CITY_MICRO_MEAN_COEC<0.0972782] yes=71,no=72,missing=71
						71:leaf=-0.0145384
						72:leaf=0.0178628
					36:[C_D_U_TITLEMD5_CITY_COEC<0.0821297] yes=73,no=74,missing=73
						73:leaf=-0.00546898
						74:leaf=0.0146296
				18:[U_CITY_COEC<0.0593517] yes=37,no=38,missing=38
					37:[C_D_U_CATEGORY_CITY_MACRO_MAX_COEC<0.0362999] yes=75,no=76,missing=75
						75:leaf=-0.0341153
						76:leaf=-0.00112332
					38:[DOC_AGE<17.2225] yes=77,no=78,missing=78
						77:leaf=0.0167313
						78:leaf=-0.000493202
		4:[D_TITLEMD5_C<1181.38] yes=9,no=10,missing=10
			9:[U_CITY_COEC<0.0461911] yes=19,no=20,missing=20
				19:[D_KEYWORD_MACRO_MAX_COEC<0.0180971] yes=39,no=40,missing=40
					39:[C_D_U_CATEGORY_AGE_MEAN_EC<37176.3] yes=79,no=80,missing=79
						79:leaf=-0.056109
						80:leaf=-0.0148514
					40:[D_KEYWORD_MEAN_EC<472.315] yes=81,no=82,missing=82
						81:leaf=-0.0707833
						82:leaf=-0.0175042
				20:[C_D_U_TITLEMD5_AGE_COEC<0.0814853] yes=41,no=42,missing=41
					41:[D_KEYWORD_MICRO_MAX_COEC<0.0927237] yes=83,no=84,missing=84
						83:leaf=-0.00475039
						84:leaf=0.004509
					42:[U_AGE_EC<438979] yes=85,no=86,missing=86
						85:leaf=0.0309567
						86:leaf=0.00815944
			10:[TIME_OF_DAY<6] yes=21,no=22,missing=22
				21:[U_CITY_EC<96007.2] yes=43,no=44,missing=43
					43:[D_CATEGORY_MAX_C<37374.7] yes=87,no=88,missing=88
						87:leaf=0.0282959
						88:leaf=0.0123956
					44:[U_AGE_COEC<0.0735031] yes=89,no=90,missing=90
						89:leaf=-0.010572
						90:leaf=0.0166726
				22:[DOC_AGE<32.295] yes=45,no=46,missing=46
					45:[DOC_AGE<12.3769] yes=91,no=92,missing=92
						91:leaf=0.00511165
						92:leaf=0.0168031
					46:[C_D_U_CATEGORY_AGE_MAX_C<2491.47] yes=93,no=94,missing=94
						93:leaf=-0.0273434
						94:leaf=-0.00204201
	2:[C_D_U_TITLEMD5_CATEGORY_MICRO_MEAN_COEC<0.177066] yes=5,no=6,missing=6
		5:[U_CATEGORY_MICRO_MAX_COEC<0.136059] yes=11,no=12,missing=12
			11:[D_TITLEMD5_COEC<0.0382309] yes=23,no=24,missing=24
				23:[C_D_U_TITLEMD5_AGE_EC<48.8666] yes=47,no=48,missing=48
					47:[D_CATEGORY_MACRO_MEAN_COEC<0.0672544] yes=95,no=96,missing=95
						95:leaf=-0.156393
						96:leaf=-0.0294788
					48:[U_CITY_COEC<0.0618242] yes=97,no=98,missing=97
						97:leaf=-0.0307346
						98:leaf=0.00709299
				24:[WORD_COUNT<1117] yes=49,no=50,missing=50
					49:[C_D_U_TITLEMD5_CITY_COEC<0.0603275] yes=99,no=100,missing=99
						99:leaf=0.00107648
						100:leaf=0.0170961
					50:[U_CITY_C<24286.5] yes=101,no=102,missing=101
						101:leaf=0.0220111
						102:leaf=-0.0210233
			12:[C_D_U_CATEGORY_CITY_MICRO_MAX_COEC<0.0444546] yes=25,no=26,missing=26
				25:[C_D_U_CATEGORY_AGE_MEAN_EC<37176.3] yes=51,no=52,missing=51
					51:[D_TITLEMD5_C<11.7054] yes=103,no=104,missing=104
						103:leaf=-0.0247666
						104:leaf=0.0157079
					52:[CAT_REL<0.16278] yes=105,no=106,missing=106
						105:leaf=-0.0787714
						106:leaf=0.0231478
				26:[TIME_OF_DAY<11] yes=53,no=54,missing=54
					53:[C_D_U_TITLEMD5_CITY_EC<222.799] yes=107,no=108,missing=108
						107:leaf=0.0275272
						108:leaf=0.0472168
					54:[U_CATEGORY_MACRO_MAX_COEC<0.0546792] yes=109,no=110,missing=110
						109:leaf=0.0360467
						110:leaf=0.00940715
		6:[D_TITLEMD5_C<6.92574] yes=13,no=14,missing=14
			13:[C_D_U_KEYWORD_CATEGORY_MICRO_MEAN_COEC<0.0711585] yes=27,no=28,missing=28
				27:[C_D_U_KEYWORD_CATEGORY_MACRO_MAX_COEC<0.00792865] yes=55,no=56,missing=56
					55:[C_D_U_KEYWORD_CATEGORY_MICRO_MEAN_COEC<0.0575378] yes=111,no=112,missing=112
						111:leaf=-0.163947
						112:leaf=0.111243
					56:[U_CITY_COEC<0.0691017] yes=113,no=114,missing=113
						113:leaf=-0.117111
						114:leaf=0.0215836
				28:[D_TITLEMD5_COEC<0.093362] yes=57,no=58,missing=58
					57:[D_PUBLISHER_EC<132359] yes=115,no=116,missing=116
						115:leaf=-0.00581418
						116:leaf=-0.0851776
					58:[C_D_U_CATEGORY_CATEGORY_MICRO_MAX_COEC<0.156414] yes=117,no=118,missing=117
						117:leaf=0.00550725
						118:leaf=0.0434685
			14:[U_CATEGORY_MACRO_MAX_COEC<0.0642341] yes=29,no=30,missing=30
				29:[U_CATEGORY_MICRO_MAX_COEC<0.126185] yes=59,no=60,missing=60
					59:[C_D_U_TITLEMD5_AGE_COEC<0.0537717] yes=119,no=120,missing=120
						119:leaf=-0.108414
						120:leaf=0.0363546
					60:[CAT_REL<0.033261] yes=121,no=122,missing=122
						121:leaf=0.0480215
						122:leaf=0.0628551
				30:[D_TITLEMD5_COEC<0.0601146] yes=61,no=62,missing=62
					61:[CAT_REL<0.087549] yes=123,no=124,missing=124
						123:leaf=-0.0153184
						124:leaf=0.030576
					62:[TIME_OF_DAY<9] yes=125,no=126,missing=126
						125:leaf=0.0406348
						126:leaf=0.0263833
booster[16]:
0:[C_D_U_KEYWORD_CATEGORY_MICRO_MEAN_COEC<0.100975] yes=1,no=2,missing=1
	1:[D_TITLEMD5_COEC<0.0459601] yes=3,no=4,missing=3
		3:[D_TITLEMD5_C<12.4004] yes=7,no=8,missing=7
			7:[U_CATEGORY_MEAN_EC<45060.7] yes=15,no=16,missing=16
				15:[TIME_OF_DAY<13] yes=31,no=32,missing=32
					31:[C_D_U_CATEGORY_CATEGORY_MAX_EC<8433.21] yes=63,no=64,missing=63
						63:leaf=-0.00892416
						64:leaf=0.0303298
					32:[U_CATEGORY_MACRO_MAX_COEC<0.053439] yes=65,no=66,missing=66
						65:leaf=0.00633219
						66:leaf=-0.0454102
				16:[D_KEYWORD_MICRO_MAX_COEC<0.0533866] yes=33,no=34,missing=34
					33:[C_D_U_PUBLISHER_CITY_COEC<0.0160963] yes=67,no=68,missing=68
						67:leaf=-0.078984
						68:leaf=-0.0463384
					34:[DOC_AGE<6.49139] yes=69,no=70,missing=70
						69:leaf=-0.0222598
						70:leaf=-0.0470909
			8:[U_CATEGORY_MACRO_MAX_COEC<0.0862467] yes=17,no=18,missing=18
				17:[U_CATEGORY_MEAN_EC<45060.7] yes=35,no=36,missing=36
					35:[CAT_REL<0.296223] yes=71,no=72,missing=72
						71:leaf=0.00301042
						72:leaf=0.0300572
					36:[D_KEYWORD_MICRO_MAX_COEC<0.0515508] yes=73,no=74,missing=74
						73:leaf=0.0120934
						74:leaf=-0.0968776
				18:[U_CITY_COEC<0.046565] yes=37,no=38,missing=38
					37:[D_KEYWORD_MACRO_MAX_COEC<0.0265865] yes=75,no=76,missing=76
						75:leaf=-0.0549113
						76:leaf=0.0232464
					38:[WORD_COUNT<1045] yes=77,no=78,missing=78
						77:leaf=-0.0225592
						78:leaf=-0.0118763
		4:[D_TITLEMD5_C<627.291] yes=9,no=10,missing=10
			9:[U_CITY_COEC<0.046565] yes=19,no=20,missing=20
				19:[TIME_OF_DAY<18] yes=39,no=40,missing=40
					39:[TIME_OF_DAY<15] yes=79,no=80,missing=80
						79:leaf=-0.031055
						80:leaf=7.10222e-05
					40:[C_D_U_TITLEMD5_CITY_EC<0.877808] yes=81,no=82,missing=82
						81:leaf=-0.179607
						82:leaf=-0.0530746
				20:[U_CITY_COEC<0.0699764] yes=41,no=42,missing=41
					41:[DOC_AGE<59.6786] yes=83,no=84,missing=84
						83:leaf=-0.00310355
						84:leaf=-0.0413547
					42:[IMAGE_COUNT<0.999999] yes=85,no=86,missing=86
						85:leaf=-0.0171869
						86:leaf=0.0119011
			10:[D_CATEGORY_MEAN_C<5795.83] yes=21,no=22,missing=21
				21:[TIME_OF_DAY<6] yes=43,no=44,missing=44
					43:[DAY_OF_WEEK<0.999999] yes=87,no=88,missing=88
						87:leaf=0.0266249
						88:leaf=0.00385903
					44:[C_D_U_TITLEMD5_AGE_COEC<0.076664] yes=89,no=90,missing=89
						89:leaf=-0.00664919
						90:leaf=0.0040744
				22:[WORD_COUNT<3515] yes=45,no=46,missing=46
					45:[C_D_U_CATEGORY_CITY_MICRO_MEAN_COEC<0.0564109] yes=91,no=92,missing=92
						91:leaf=-0.00479013
						92:leaf=0.0101779
					46:[D_CATEGORY_MAX_C<33194.4] yes=93,no=94,missing=94
						93:leaf=0.022484
						94:leaf=0.0626355
	2:[C_D_U_TITLEMD5_CATEGORY_MICRO_MAX_COEC<0.223694] yes=5,no=6,missing=6
		5:[D_TITLEMD5_COEC<0.0629232] yes=11,no=12,missing=12
			11:[C_D_U_CATEGORY_CATEGORY_MACRO_MAX_COEC<0.0776755] yes=23,no=24,missing=23
				23:[WORD_COUNT<1611] yes=47,no=48,missing=48
					47:[IMAGE_COUNT<0.999999] yes=95,no=96,missing=96
						95:leaf=-0.0170654
						96:leaf=0.0120846
					48:[U_CATEGORY_MAX_EC<10350.8] yes=97,no=98,missing=98
						97:leaf=0.0373999
						98:leaf=0.0115102
				24:[C_D_U_PUBLISHER_CITY_COEC<0.0584552] yes=49,no=50,missing=50
					49:[DOC_AGE<5.88917] yes=99,no=100,missing=100
						99:leaf=0.000903074
						100:leaf=-0.030437
					50:[C_D_U_KEYWORD_CATEGORY_MICRO_MAX_COEC<0.243984] yes=101,no=102,missing=102
						101:leaf=-0.00243002
						102:leaf=0.0257615
			12:[WORD_COUNT<1206] yes=25,no=26,missing=26
				25:[C_D_U_TITLEMD5_GENDER_COEC<0.0957023] yes=51,no=52,missing=51
					51:[C_D_U_PUBLISHER_GENDER_EC<1784.6] yes=103,no=104,missing=104
						103:leaf=-0.0512453
						104:leaf=0.0151765
					52:[U_AGE_C<45457.7] yes=105,no=106,missing=106
						105:leaf=0.0453737
						106:leaf=0.013383
				26:[C_D_U_PUBLISHER_CITY_COEC<0.0531781] yes=53,no=54,missing=54
					53:[U_CATEGORY_MACRO_MAX_COEC<0.0548231] yes=107,no=108,missing=108
						107:leaf=0.0384093
						108:leaf=0.00382443
					54:[C_D_U_KEYWORD_CATEGORY_MICRO_MAX_COEC<0.297671] yes=109,no=110,missing=110
						109:leaf=0.0299216
						110:leaf=0.0591642
		6:[WORD_COUNT<1363] yes=13,no=14,missing=14
			13:[D_TITLEMD5_C<76.5874] yes=27,no=28,missing=28
				27:[D_TITLEMD5_COEC<0.0327783] yes=55,no=56,missing=56
					55:[C_D_U_PUBLISHER_CITY_EC<129.605] yes=111,no=112,missing=111
						111:leaf=0.0284332
						112:leaf=-0.0708855
					56:[C_D_U_CATEGORY_CATEGORY_MICRO_MAX_COEC<0.190219] yes=113,no=114,missing=114
						113:leaf=0.00891462
						114:leaf=0.0322044
				28:[TIME_OF_DAY<12] yes=57,no=58,missing=58
					57:[U_CATEGORY_MICRO_MAX_COEC<0.138899] yes=115,no=116,missing=116
						115:leaf=0.0311735
						116:leaf=0.045127
					58:[U_AGE_COEC<0.0752656] yes=117,no=118,missing=117
						117:leaf=0.02182
						118:leaf=-0.364949
			14:[C_D_U_KEYWORD_CATEGORY_MICRO_MAX_COEC<0.297671] yes=29,no=30,missing=30
				29:[C_D_U_KEYWORD_CATEGORY_MICRO_MAX_COEC<0.210931] yes=59,no=60,missing=60
					59:[C_D_U_PUBLISHER_CITY_COEC<0.0657576] yes=119,no=120,missing=119
						119:leaf=-0.213911
						120:leaf=0.0224499
					60:[TIME_OF_DAY<21] yes=121,no=122,missing=122
						121:leaf=0.0377566
						122:leaf=0.00257698
				30:[D_CATEGORY_MAX_EC<477780] yes=61,no=62,missing=62
					61:[C_D_U_TITLEMD5_CATEGORY_MACRO_MAX_COEC<0.183966] yes=123,no=124,missing=124
						123:leaf=0.0545377
						124:leaf=0.0404094
					62:[C_D_U_TITLEMD5_AGE_C<533.104] yes=125,no=126,missing=125
						125:leaf=0.0352767
						126:leaf=-0.0173076
booster[17]:
0:[D_TITLEMD5_COEC<0.0554358] yes=1,no=2,missing=1
	1:[U_CATEGORY_MACRO_MAX_COEC<0.084104] yes=3,no=4,missing=4
		3:[U_CITY_COEC<0.0564255] yes=7,no=8,missing=8
			7:[C_D_U_CATEGORY_AGE_MAX_EC<73004.9] yes=15,no=16,missing=15
				15:[C_D_U_CATEGORY_CITY_MICRO_MAX_COEC<0.0369727] yes=31,no=32,missing=31
					31:[D_TITLEMD5_COEC<0.0398891] yes=63,no=64,missing=63
						63:leaf=-0.0664419
						64:leaf=-0.019532
					32:[TIME_OF_DAY<13] yes=65,no=66,missing=66
						65:leaf=0.0228166
						66:leaf=-0.0360949
				16:[C_D_U_CATEGORY_CATEGORY_MACRO_MAX_COEC<0.0655502] yes=33,no=34,missing=34
					33:[U_GENDER_EC<259129] yes=67,no=68,missing=68
						67:leaf=0.0588708
						68:leaf=-0.143612
					34:[C_D_U_KEYWORD_CATEGORY_MACRO_MEAN_COEC<0.138228] yes=69,no=70,missing=70
						69:leaf=-0.0812844
						70:leaf=0.0145285
			8:[D_TITLEMD5_COEC<0.0277031] yes=17,no=18,missing=18
				17:[DOC_AGE<21.5308] yes=35,no=36,missing=36
					35:[DOC_AGE<3.94389] yes=71,no=72,missing=72
						71:leaf=0.00447358
						72:leaf=-0.030068
					36:[U_CITY_EC<43836.5] yes=73,no=74,missing=74
						73:leaf=0.0902185
						74:leaf=0.00869112
				18:[U_CATEGORY_MICRO_MAX_COEC<0.124497] yes=37,no=38,missing=38
					37:[C_D_U_CATEGORY_CATEGORY_MAX_EC<15686.3] yes=75,no=76,missing=75
						75:leaf=-1.68622e-05
						76:leaf=0.0849166
					38:[CAT_REL<0.031421] yes=77,no=78,missing=78
						77:leaf=0.00926833
						78:leaf=0.0343193
		4:[D_TITLEMD5_C<8.45641] yes=9,no=10,missing=9
			9:[IMAGE_COUNT<0.999999] yes=19,no=20,missing=20
				19:[D_KEYWORD_MACRO_MEAN_COEC<0.0375771] yes=39,no=40,missing=40
					39:[C_D_U_KEYWORD_CATEGORY_MAX_EC<49.6464] yes=79,no=80,missing=79
						79:leaf=-0.0591201
						80:leaf=0.033627
					40:[DOC_AGE<4.23694] yes=81,no=82,missing=82
						81:leaf=-0.0149849
						82:leaf=-0.0552148
				20:[DOC_AGE<2.46083] yes=41,no=42,missing=42
					41:[D_PUBLISHER_COEC<0.054597] yes=83,no=84,missing=83
						83:leaf=-0.022442
						84:leaf=0.00918808
					42:[TIME_OF_DAY<4] yes=85,no=86,missing=86
						85:leaf=-0.00401802
						86:leaf=-0.0388675
			10:[C_D_U_PUBLISHER_CITY_COEC<0.0539497] yes=21,no=22,missing=22
				21:[D_TITLEMD5_COEC<0.0348269] yes=43,no=44,missing=44
					43:[DOC_AGE<3.62528] yes=87,no=88,missing=88
						87:leaf=-0.00889515
						88:leaf=-0.0348442
					44:[WORD_COUNT<3793] yes=89,no=90,missing=90
						89:leaf=-0.0169051
						90:leaf=0.00101429
				22:[C_D_U_CATEGORY_CITY_MACRO_MAX_COEC<0.112404] yes=45,no=46,missing=45
					45:[U_AGE_C<35997.6] yes=91,no=92,missing=92
						91:leaf=0.0108669
						92:leaf=-0.00897632
					46:[TIME_OF_DAY<18] yes=93,no=94,missing=94
						93:leaf=0.0203934
						94:leaf=0.070435
	2:[C_D_U_KEYWORD_CATEGORY_MICRO_MAX_COEC<0.199249] yes=5,no=6,missing=5
		5:[D_TITLEMD5_C<130.32] yes=11,no=12,missing=12
			11:[C_D_U_CATEGORY_CITY_MACRO_MAX_COEC<0.0365479] yes=23,no=24,missing=24
				23:[U_CITY_COEC<0.0504566] yes=47,no=48,missing=47
					47:[C_D_U_KEYWORD_CATEGORY_MICRO_MAX_COEC<0.176981] yes=95,no=96,missing=95
						95:leaf=-0.0517704
						96:leaf=0.0598047
					48:[WORD_COUNT<1008] yes=97,no=98,missing=98
						97:leaf=-0.040699
						98:leaf=-0.0108092
				24:[WORD_COUNT<2454] yes=49,no=50,missing=50
					49:[D_KEYWORD_MACRO_MEAN_COEC<0.0995761] yes=99,no=100,missing=100
						99:leaf=-0.00797635
						100:leaf=0.0101385
					50:[D_PUBLISHER_EC<137515] yes=101,no=102,missing=102
						101:leaf=-0.00277858
						102:leaf=0.0263526
			12:[C_D_U_TITLEMD5_AGE_COEC<0.10584] yes=25,no=26,missing=25
				25:[WORD_COUNT<1620] yes=51,no=52,missing=52
					51:[DOC_AGE<59.0814] yes=103,no=104,missing=104
						103:leaf=0.0016138
						104:leaf=-0.0402001
					52:[D_KEYWORD_MACRO_MEAN_COEC<0.0860811] yes=105,no=106,missing=106
						105:leaf=0.00863126
						106:leaf=0.0225274
				26:[U_CITY_COEC<0.0634986] yes=53,no=54,missing=54
					53:[DOC_AGE<34.8811] yes=107,no=108,missing=108
						107:leaf=0.0135238
						108:leaf=-0.0147466
					54:[U_GENDER_COEC<0.0723337] yes=109,no=110,missing=109
						109:leaf=0.0203425
						110:leaf=0.0458432
		6:[D_TITLEMD5_C<5.81799] yes=13,no=14,missing=14
			13:[C_D_U_CATEGORY_CATEGORY_MICRO_MAX_COEC<0.116365] yes=27,no=28,missing=27
				27:[U_CATEGORY_MICRO_MEAN_COEC<0.109116] yes=55,no=56,missing=56
					55:[C_D_U_CATEGORY_CATEGORY_MACRO_MAX_COEC<0.0586708] yes=111,no=112,missing=111
						111:leaf=-0.0979598
						112:leaf=-0.0182173
					56:[C_D_U_PUBLISHER_CITY_COEC<0.0515027] yes=113,no=114,missing=114
						113:leaf=-0.0322583
						114:leaf=0.0149542
				28:[CAT_REL<0.031421] yes=57,no=58,missing=58
					57:[C_D_U_KEYWORD_CATEGORY_MICRO_MEAN_COEC<0.0953468] yes=115,no=116,missing=116
						115:leaf=-0.106212
						116:leaf=-0.00518755
					58:[C_D_U_PUBLISHER_CITY_COEC<0.0462813] yes=117,no=118,missing=118
						117:leaf=-0.000865147
						118:leaf=0.0313834
			14:[CAT_REL<0.004432] yes=29,no=30,missing=30
				29:[U_CATEGORY_MICRO_MAX_COEC<0.147982] yes=59,no=60,missing=60
					59:[D_TITLEMD5_EC<15385.3] yes=119,no=120,missing=120
						119:leaf=0.0147138
						120:leaf=0.0352165
					60:[C_D_U_TITLEMD5_CATEGORY_MICRO_MAX_COEC<0.352071] yes=121,no=122,missing=122
						121:leaf=0.0285018
						122:leaf=0.0537502
				30:[U_CATEGORY_MICRO_MAX_COEC<0.121255] yes=61,no=62,missing=62
					61:[TIME_OF_DAY<21] yes=123,no=124,missing=124
						123:leaf=0.0311739
						124:leaf=-0.00461593
					62:[U_CATEGORY_MACRO_MAX_COEC<0.0797101] yes=125,no=126,missing=126
						125:leaf=0.0509261
						126:leaf=0.0325762
booster[18]:
0:[C_D_U_KEYWORD_CATEGORY_MICRO_MEAN_COEC<0.0992312] yes=1,no=2,missing=1
	1:[D_TITLEMD5_C<51.8808] yes=3,no=4,missing=3
		3:[D_KEYWORD_MACRO_MEAN_COEC<0.0457183] yes=7,no=8,missing=8
			7:[WORD_COUNT<2454] yes=15,no=16,missing=16
				15:[U_CATEGORY_MEAN_EC<45370.1] yes=31,no=32,missing=32
					31:[D_TITLEMD5_C<4.62881] yes=63,no=64,missing=64
						63:leaf=-0.0226975
						64:leaf=3.71755e-05
					32:[D_TITLEMD5_C<6.9551] yes=65,no=66,missing=65
						65:leaf=-0.0390548
						66:leaf=-0.0223382
				16:[U_CATEGORY_MICRO_MEAN_COEC<0.111978] yes=33,no=34,missing=33
					33:[D_PUBLISHER_COEC<0.0388104] yes=67,no=68,missing=68
						67:leaf=-0.02184
						68:leaf=0.00122143
					34:[C_D_U_PUBLISHER_CITY_C<0.994999] yes=69,no=70,missing=70
						69:leaf=-0.0387051
						70:leaf=0.0334418
			8:[C_D_U_CATEGORY_CITY_MICRO_MAX_COEC<0.0615004] yes=17,no=18,missing=18
				17:[TIME_OF_DAY<6] yes=35,no=36,missing=36
					35:[DOC_AGE<5.82028] yes=71,no=72,missing=72
						71:leaf=0.0201395
						72:leaf=-0.0110565
					36:[C_D_U_CATEGORY_GENDER_MACRO_MAX_COEC<0.0695216] yes=73,no=74,missing=74
						73:leaf=-0.0546609
						74:leaf=-0.01924
				18:[D_PUBLISHER_C<10808] yes=37,no=38,missing=38
					37:[WORD_COUNT<533] yes=75,no=76,missing=76
						75:leaf=-0.0304024
						76:leaf=-0.00498827
					38:[IMAGE_COUNT<0.999999] yes=77,no=78,missing=78
						77:leaf=-0.0340812
						78:leaf=0.0125086
		4:[D_TITLEMD5_COEC<0.0814675] yes=9,no=10,missing=10
			9:[C_D_U_TITLEMD5_AGE_COEC<0.0619181] yes=19,no=20,missing=19
				19:[U_CITY_COEC<0.0582746] yes=39,no=40,missing=40
					39:[C_D_U_TITLEMD5_CITY_COEC<0.057438] yes=79,no=80,missing=79
						79:leaf=-0.0202998
						80:leaf=-0.0039077
					40:[C_D_U_CATEGORY_CITY_MICRO_MEAN_COEC<0.0963967] yes=81,no=82,missing=81
						81:leaf=-0.00387349
						82:leaf=0.0164003
				20:[DOC_AGE<13.3828] yes=41,no=42,missing=42
					41:[DAY_OF_WEEK<0.999999] yes=83,no=84,missing=84
						83:leaf=0.0197582
						84:leaf=0.00655925
					42:[DOC_AGE<35.7058] yes=85,no=86,missing=86
						85:leaf=0.00032447
						86:leaf=-0.0240318
			10:[WORD_COUNT<867] yes=21,no=22,missing=22
				21:[D_CATEGORY_MAX_EC<437947] yes=43,no=44,missing=44
					43:[WORD_COUNT<533] yes=87,no=88,missing=88
						87:leaf=-0.0137763
						88:leaf=0.00874501
					44:[TIME_OF_DAY<2] yes=89,no=90,missing=90
						89:leaf=0.031553
						90:leaf=-0.00885502
				22:[D_CATEGORY_MAX_EC<458914] yes=45,no=46,missing=46
					45:[C_D_U_TITLEMD5_GENDER_COEC<0.105336] yes=91,no=92,missing=92
						91:leaf=-0.00400669
						92:leaf=0.0136935
					46:[C_D_U_PUBLISHER_AGE_EC<6758.51] yes=93,no=94,missing=93
						93:leaf=-0.000447997
						94:leaf=0.0134563
	2:[C_D_U_KEYWORD_CATEGORY_MICRO_MAX_COEC<0.256156] yes=5,no=6,missing=6
		5:[D_TITLEMD5_C<193.645] yes=11,no=12,missing=12
			11:[U_CATEGORY_MACRO_MAX_COEC<0.0377049] yes=23,no=24,missing=24
				23:[TIME_OF_DAY<17] yes=47,no=48,missing=48
					47:[U_CATEGORY_MACRO_MEAN_COEC<0.103311] yes=95,no=96,missing=96
						95:leaf=-0.107857
						96:leaf=0.0552057
					48:[U_AGE_COEC<0.0717831] yes=97,no=98,missing=98
						97:leaf=-0.125893
						98:leaf=0.0293231
				24:[C_D_U_CATEGORY_CITY_MACRO_MEAN_COEC<0.0655955] yes=49,no=50,missing=50
					49:[D_TITLEMD5_C<2.9503] yes=99,no=100,missing=100
						99:leaf=-0.0376111
						100:leaf=-0.0021063
					50:[CAT_REL<0.004432] yes=101,no=102,missing=102
						101:leaf=-0.000604688
						102:leaf=0.0180631
			12:[U_CITY_COEC<0.161318] yes=25,no=26,missing=25
				25:[CAT_REL<0.043988] yes=51,no=52,missing=52
					51:[D_CATEGORY_MICRO_MAX_COEC<0.0876768] yes=103,no=104,missing=103
						103:leaf=0.0174654
						104:leaf=-0.00200761
					52:[TIME_OF_DAY<21] yes=105,no=106,missing=106
						105:leaf=0.0272115
						106:leaf=-0.00699592
				26:[C_D_U_CATEGORY_CATEGORY_MEAN_C<67.4137] yes=53,no=54,missing=54
					53:leaf=-0.0847177
					54:[C_D_U_CATEGORY_AGE_MACRO_MAX_COEC<0.104993] yes=107,no=108,missing=108
						107:leaf=0.0597287
						108:leaf=0.113548
		6:[WORD_COUNT<804] yes=13,no=14,missing=14
			13:[D_TITLEMD5_COEC<0.0365895] yes=27,no=28,missing=28
				27:[U_CITY_EC<125167] yes=55,no=56,missing=56
					55:[DOC_AGE<35.7058] yes=109,no=110,missing=110
						109:leaf=-0.0915635
						110:leaf=0.0912737
					56:[C_D_U_TITLEMD5_CATEGORY_MACRO_MAX_COEC<0.128306] yes=111,no=112,missing=112
						111:leaf=0.0142647
						112:leaf=-0.194741
				28:[D_TITLEMD5_EC<49.4804] yes=57,no=58,missing=57
					57:[C_D_U_CATEGORY_GENDER_MEAN_C<708.692] yes=113,no=114,missing=114
						113:leaf=-0.191618
						114:leaf=-0.0119161
					58:[CAT_REL<0.067541] yes=115,no=116,missing=116
						115:leaf=0.0086822
						116:leaf=0.0404652
			14:[C_D_U_CATEGORY_CATEGORY_MICRO_MAX_COEC<0.214995] yes=29,no=30,missing=30
				29:[CAT_REL<0.004432] yes=59,no=60,missing=60
					59:[D_TITLEMD5_COEC<0.0457604] yes=117,no=118,missing=118
						117:leaf=-0.0159187
						118:leaf=0.0231033
					60:[C_D_U_CATEGORY_CATEGORY_MICRO_MAX_COEC<0.124246] yes=119,no=120,missing=120
						119:leaf=0.0250655
						120:leaf=0.0404003
				30:[TIME_OF_DAY<14] yes=61,no=62,missing=62
					61:[C_D_U_CATEGORY_AGE_MAX_EC<140515] yes=121,no=122,missing=121
						121:leaf=0.0468072
						122:leaf=0.100035
					62:[C_D_U_CATEGORY_CITY_MAX_EC<7480.52] yes=123,no=124,missing=124
						123:leaf=0.0521279
						124:leaf=0.0145836
booster[19]:
0:[C_D_U_KEYWORD_CATEGORY_MICRO_MAX_COEC<0.168955] yes=1,no=2,missing=1
	1:[D_TITLEMD5_C<118.274] yes=3,no=4,missing=3
		3:[D_TITLEMD5_COEC<0.0304455] yes=7,no=8,missing=7
			7:[WORD_COUNT<804] yes=15,no=16,missing=16
				15:[C_D_U_CATEGORY_CITY_MACRO_MAX_COEC<0.031553] yes=31,no=32,missing=32
					31:[D_KEYWORD_MACRO_MAX_COEC<0.0346988] yes=63,no=64,missing=64
						63:leaf=-0.0770676
						64:leaf=0.0518958
					32:[D_KEYWORD_MACRO_MAX_COEC<0.00670959] yes=65,no=66,missing=66
						65:leaf=-0.054094
						66:leaf=-0.0302105
				16:[C_D_U_PUBLISHER_CITY_COEC<0.0445073] yes=33,no=34,missing=33
					33:[C_D_U_CATEGORY_CITY_MACRO_MEAN_COEC<0.030108] yes=67,no=68,missing=68
						67:leaf=-0.062419
						68:leaf=-0.0256316
					34:[C_D_U_CATEGORY_GENDER_MEAN_EC<2143.86] yes=69,no=70,missing=69
						69:leaf=-0.00666087
						70:leaf=-0.0442788
			8:[C_D_U_PUBLISHER_CITY_COEC<0.0534328] yes=17,no=18,missing=18
				17:[C_D_U_CATEGORY_CITY_MACRO_MEAN_COEC<0.0440788] yes=35,no=36,missing=36
					35:[D_KEYWORD_MACRO_MAX_COEC<0.00546717] yes=71,no=72,missing=72
						71:leaf=0.0128511
						72:leaf=-0.028496
					36:[C_D_U_CATEGORY_CITY_MICRO_MAX_COEC<0.123739] yes=73,no=74,missing=73
						73:leaf=-0.013866
						74:leaf=0.0295427
				18:[WORD_COUNT<2454] yes=37,no=38,missing=38
					37:[C_D_U_CATEGORY_CITY_MACRO_MAX_COEC<0.116606] yes=75,no=76,missing=75
						75:leaf=-0.00788161
						76:leaf=0.0311357
					38:[D_CATEGORY_MAX_EC<99316.4] yes=77,no=78,missing=77
						77:leaf=-0.00242152
						78:leaf=0.017984
		4:[D_TITLEMD5_COEC<0.0832914] yes=9,no=10,missing=10
			9:[U_AGE_EC<530212] yes=19,no=20,missing=20
				19:[DOC_AGE<13.3247] yes=39,no=40,missing=40
					39:[U_AGE_COEC<0.0729291] yes=79,no=80,missing=80
						79:leaf=-0.0345631
						80:leaf=0.0193461
					40:[C_D_U_TITLEMD5_GENDER_COEC<0.0664853] yes=81,no=82,missing=82
						81:leaf=-0.0296355
						82:leaf=0.00351158
				20:[U_CITY_COEC<0.0759433] yes=41,no=42,missing=41
					41:[DOC_AGE<41.7092] yes=83,no=84,missing=84
						83:leaf=-0.00271158
						84:leaf=-0.0327963
					42:[U_CITY_COEC<0.164381] yes=85,no=86,missing=86
						85:leaf=0.0140315
						86:leaf=0.0602949
			10:[D_CATEGORY_MAX_C<40157] yes=21,no=22,missing=22
				21:[TIME_OF_DAY<9] yes=43,no=44,missing=44
					43:[D_PUBLISHER_C<7019.26] yes=87,no=88,missing=88
						87:leaf=0.0101474
						88:leaf=0.0199769
					44:[C_D_U_CATEGORY_CITY_MACRO_MEAN_COEC<0.0583186] yes=89,no=90,missing=90
						89:leaf=-0.00803431
						90:leaf=0.00835175
				22:[C_D_U_TITLEMD5_AGE_EC<3501.62] yes=45,no=46,missing=45
					45:[D_KEYWORD_MACRO_MEAN_COEC<0.114398] yes=91,no=92,missing=92
						91:leaf=-0.00380033
						92:leaf=0.00936975
					46:[D_CATEGORY_MAX_EC<454949] yes=93,no=94,missing=94
						93:leaf=-0.0807583
						94:leaf=0.0150336
	2:[D_TITLEMD5_COEC<0.0469027] yes=5,no=6,missing=5
		5:[CAT_REL<0.080814] yes=11,no=12,missing=12
			11:[C_D_U_CATEGORY_CATEGORY_MICRO_MAX_COEC<0.210619] yes=23,no=24,missing=24
				23:[DOC_AGE<35.7906] yes=47,no=48,missing=48
					47:[U_CATEGORY_MACRO_MAX_COEC<0.0364427] yes=95,no=96,missing=96
						95:leaf=0.0376989
						96:leaf=-0.0252786
					48:[C_D_U_TITLEMD5_GENDER_C<1.9216] yes=97,no=98,missing=97
						97:leaf=0.0741156
						98:leaf=-0.11011
				24:[D_TITLEMD5_EC<4.83299] yes=49,no=50,missing=49
					49:[DOC_AGE<41.7092] yes=99,no=100,missing=100
						99:leaf=-0.0605328
						100:leaf=0.146391
					50:[U_GENDER_C<18314] yes=101,no=102,missing=101
						101:leaf=0.0226804
						102:leaf=-0.0474805
			12:[C_D_U_CATEGORY_CATEGORY_MICRO_MAX_COEC<0.111263] yes=25,no=26,missing=26
				25:[IMAGE_COUNT<0.999999] yes=51,no=52,missing=52
					51:[DOC_AGE<3.21194] yes=103,no=104,missing=104
						103:leaf=-0.000109094
						104:leaf=-0.0785351
					52:[U_CITY_EC<19994.6] yes=105,no=106,missing=106
						105:leaf=-0.0211058
						106:leaf=0.0171127
				26:[C_D_U_TITLEMD5_AGE_C<0.990024] yes=53,no=54,missing=54
					53:[TIME_OF_DAY<21] yes=107,no=108,missing=108
						107:leaf=-0.00483204
						108:leaf=-0.169829
					54:[U_GENDER_EC<275846] yes=109,no=110,missing=109
						109:leaf=0.0292658
						110:leaf=-0.0792881
		6:[WORD_COUNT<1363] yes=13,no=14,missing=14
			13:[U_CATEGORY_MICRO_MAX_COEC<0.138257] yes=27,no=28,missing=28
				27:[C_D_U_TITLEMD5_AGE_C<145.754] yes=55,no=56,missing=55
					55:[U_CATEGORY_MICRO_MEAN_COEC<0.126622] yes=111,no=112,missing=112
						111:leaf=0.00821772
						112:leaf=-0.0400004
					56:[U_CITY_EC<337406] yes=113,no=114,missing=113
						113:leaf=0.0283905
						114:leaf=0.00277602
				28:[TIME_OF_DAY<12] yes=57,no=58,missing=58
					57:[C_D_U_CATEGORY_CITY_MICRO_MAX_COEC<0.123739] yes=115,no=116,missing=116
						115:leaf=0.0261843
						116:leaf=0.0454297
					58:[U_CATEGORY_MAX_C<388.064] yes=117,no=118,missing=118
						117:leaf=0.0482885
						118:leaf=0.010698
			14:[C_D_U_KEYWORD_CATEGORY_MICRO_MAX_COEC<0.297351] yes=29,no=30,missing=30
				29:[U_CATEGORY_MACRO_MAX_COEC<0.0548391] yes=59,no=60,missing=60
					59:[U_CATEGORY_MICRO_MAX_COEC<0.125482] yes=119,no=120,missing=120
						119:leaf=0.0242185
						120:leaf=0.0421482
					60:[C_D_U_TITLEMD5_CATEGORY_MEAN_EC<2.63265] yes=121,no=122,missing=122
						121:leaf=-0.0170066
						122:leaf=0.021145
				30:[C_D_U_CATEGORY_CATEGORY_MICRO_MEAN_COEC<0.082445] yes=61,no=62,missing=62
					61:[U_CATEGORY_MEAN_C<2937.59] yes=123,no=124,missing=124
						123:leaf=0.0217034
						124:leaf=-0.0822839
					62:[U_CATEGORY_MAX_C<388.064] yes=125,no=126,missing=126
						125:leaf=0.0671668
						126:leaf=0.0395128
booster[20]:
0:[C_D_U_TITLEMD5_CATEGORY_MICRO_MAX_COEC<0.0706902] yes=1,no=2,missing=1
	1:[D_TITLEMD5_C<50.8745] yes=3,no=4,missing=3
		3:[C_D_U_CATEGORY_CITY_MACRO_MEAN_COEC<0.0449208] yes=7,no=8,missing=8
			7:[D_KW_LEN<20] yes=15,no=16,missing=16
				15:[D_TITLEMD5_C<3.74996] yes=31,no=32,missing=31
					31:[D_KEYWORD_MACRO_MAX_COEC<0.0121237] yes=63,no=64,missing=64
						63:leaf=-0.0604628
						64:leaf=-0.0341771
					32:[D_KEYWORD_MICRO_MEAN_COEC<0.0767882] yes=65,no=66,missing=66
						65:leaf=-0.0289842
						66:leaf=0.0144064
				16:[C_D_U_TITLEMD5_CITY_C<10.0339] yes=33,no=34,missing=33
					33:[DOC_AGE<2.46528] yes=67,no=68,missing=68
						67:leaf=0.0127157
						68:leaf=-0.0190865
					34:[DOC_AGE<9.38917] yes=69,no=70,missing=70
						69:leaf=0.0987832
						70:leaf=0.233539
			8:[D_KEYWORD_MICRO_MAX_COEC<0.109562] yes=17,no=18,missing=18
				17:[U_CITY_COEC<0.0663732] yes=35,no=36,missing=35
					35:[DOC_AGE<0.319999] yes=71,no=72,missing=72
						71:leaf=0.0367693
						72:leaf=-0.0164806
					36:[D_CATEGORY_MAX_EC<466440] yes=73,no=74,missing=73
						73:leaf=-0.00321272
						74:leaf=0.0333612
				18:[D_TITLEMD5_EC<40.2816] yes=37,no=38,missing=38
					37:[D_CATEGORY_MAX_C<4314.58] yes=75,no=76,missing=76
						75:leaf=0.0986473
						76:leaf=0.011609
					38:[D_CATEGORY_MAX_C<23348.6] yes=77,no=78,missing=78
						77:leaf=-0.0193301
						78:leaf=0.00362543
		4:[D_TITLEMD5_COEC<0.0724589] yes=9,no=10,missing=10
			9:[WORD_COUNT<1511] yes=19,no=20,missing=20
				19:[DAY_OF_WEEK<0.999999] yes=39,no=40,missing=40
					39:[WORD_COUNT<713] yes=79,no=80,missing=80
						79:leaf=-0.0145815
						80:leaf=9.76078e-05
					40:[U_CITY_COEC<0.0743064] yes=81,no=82,missing=81
						81:leaf=-0.0130492
						82:leaf=0.0192254
				20:[C_D_U_CATEGORY_GENDER_MICRO_MAX_COEC<0.0563035] yes=41,no=42,missing=42
					41:[C_D_U_CATEGORY_GENDER_MICRO_MAX_COEC<0.0443075] yes=83,no=84,missing=84
						83:leaf=0.000651133
						84:leaf=-0.0292045
					42:[TIME_OF_DAY<6] yes=85,no=86,missing=86
						85:leaf=0.0115424
						86:leaf=0.0005785
			10:[U_CITY_COEC<0.0650845] yes=21,no=22,missing=22
				21:[DOC_AGE<35.7597] yes=43,no=44,missing=44
					43:[C_D_U_TITLEMD5_CITY_COEC<0.112111] yes=87,no=88,missing=87
						87:leaf=0.00145028
						88:leaf=0.0115017
					44:[D_CATEGORY_MEAN_EC<331270] yes=89,no=90,missing=90
						89:leaf=-0.00296385
						90:leaf=-0.0302526
				22:[U_AGE_EC<453496] yes=45,no=46,missing=46
					45:[U_GENDER_EC<280059] yes=91,no=92,missing=91
						91:leaf=0.0312192
						92:leaf=-0.224155
					46:[WORD_COUNT<1511] yes=93,no=94,missing=94
						93:leaf=0.00685318
						94:leaf=0.0168168
	2:[C_D_U_TITLEMD5_CATEGORY_MICRO_MEAN_COEC<0.198073] yes=5,no=6,missing=6
		5:[TIME_OF_DAY<11] yes=11,no=12,missing=12
			11:[C_D_U_TITLEMD5_GENDER_COEC<0.0563472] yes=23,no=24,missing=24
				23:[U_CATEGORY_MACRO_MAX_COEC<0.100986] yes=47,no=48,missing=48
					47:[U_CATEGORY_MAX_C<395.228] yes=95,no=96,missing=96
						95:leaf=0.0649478
						96:leaf=-0.00549685
					48:[C_D_U_CATEGORY_CITY_MEAN_EC<1052.96] yes=97,no=98,missing=97
						97:leaf=-0.127507
						98:leaf=-0.0167426
				24:[WORD_COUNT<3639] yes=49,no=50,missing=50
					49:[U_CITY_COEC<0.061144] yes=99,no=100,missing=100
						99:leaf=0.00693252
						100:leaf=0.0212654
					50:[U_CATEGORY_MAX_C<5037.67] yes=101,no=102,missing=102
						101:leaf=0.0398246
						102:leaf=-0.107762
			12:[C_D_U_CATEGORY_CITY_MICRO_MAX_COEC<0.09173] yes=25,no=26,missing=25
				25:[C_D_U_TITLEMD5_CITY_COEC<0.0590339] yes=51,no=52,missing=51
					51:[C_D_U_TITLEMD5_AGE_C<0.92293] yes=103,no=104,missing=104
						103:leaf=-0.0569576
						104:leaf=-0.0021797
					52:[C_D_U_PUBLISHER_CITY_COEC<0.0272581] yes=105,no=106,missing=106
						105:leaf=-0.10773
						106:leaf=0.0116602
				26:[C_D_U_KEYWORD_CATEGORY_MICRO_MEAN_COEC<0.0686483] yes=53,no=54,missing=54
					53:[U_CATEGORY_MACRO_MEAN_COEC<0.134881] yes=107,no=108,missing=108
						107:leaf=-0.107645
						108:leaf=0.101202
					54:[U_GENDER_EC<281485] yes=109,no=110,missing=109
						109:leaf=0.0272814
						110:leaf=0.0925518
		6:[C_D_U_TITLEMD5_CATEGORY_MEAN_C<1.13694] yes=13,no=14,missing=14
			13:[U_AGE_EC<415554] yes=27,no=28,missing=28
				27:[C_D_U_PUBLISHER_CITY_COEC<0.0925696] yes=55,no=56,missing=56
					55:[D_PUBLISHER_EC<5332.29] yes=111,no=112,missing=112
						111:leaf=-0.0174035
						112:leaf=-0.261936
					56:[C_D_U_CATEGORY_CATEGORY_MICRO_MEAN_COEC<0.0887651] yes=113,no=114,missing=114
						113:leaf=0.115602
						114:leaf=-0.128543
				28:[C_D_U_CATEGORY_CATEGORY_MICRO_MAX_COEC<0.128622] yes=57,no=58,missing=58
					57:[C_D_U_TITLEMD5_CATEGORY_MACRO_MAX_COEC<0.210219] yes=115,no=116,missing=116
						115:leaf=0.0129023
						116:leaf=-0.039012
					58:[CAT_REL<0.022301] yes=117,no=118,missing=118
						117:leaf=0.00471883
						118:leaf=0.0372333
			14:[U_CATEGORY_MACRO_MAX_COEC<0.0832558] yes=29,no=30,missing=30
				29:[C_D_U_TITLEMD5_CATEGORY_MICRO_MAX_COEC<0.320663] yes=59,no=60,missing=60
					59:[C_D_U_TITLEMD5_AGE_C<0.92293] yes=119,no=120,missing=120
						119:leaf=-0.289962
						120:leaf=0.0292941
					60:[U_CATEGORY_MICRO_MAX_COEC<0.14014] yes=121,no=122,missing=122
						121:leaf=0.0338817
						122:leaf=0.0502775
				30:[D_TITLEMD5_COEC<0.0708316] yes=61,no=62,missing=62
					61:[C_D_U_PUBLISHER_CITY_COEC<0.0714879] yes=123,no=124,missing=124
						123:leaf=-0.020808
						124:leaf=0.0201237
					62:[U_CATEGORY_MAX_C<1249.59] yes=125,no=126,missing=126
						125:leaf=0.035327
						126:leaf=0.0180413
booster[21]:
0:[C_D_U_TITLEMD5_CATEGORY_MEAN_C<0.43366] yes=1,no=2,missing=1
	1:[D_KEYWORD_MACRO_MEAN_COEC<0.0487366] yes=3,no=4,missing=4
		3:[WORD_COUNT<2020] yes=7,no=8,missing=8
			7:[C_D_U_PUBLISHER_CITY_COEC<0.0431228] yes=15,no=16,missing=16
				15:[D_TITLEMD5_C<5.77041] yes=31,no=32,missing=31
					31:[D_KEYWORD_MAX_C<129.765] yes=63,no=64,missing=64
						63:leaf=-0.0414141
						64:leaf=-0.00792786
					32:[U_CITY_COEC<0.046565] yes=65,no=66,missing=66
						65:leaf=-0.0492738
						66:leaf=-0.0188795
				16:[IMAGE_COUNT<0.999999] yes=33,no=34,missing=34
					33:[C_D_U_CATEGORY_CITY_MACRO_MAX_COEC<0.0366226] yes=67,no=68,missing=68
						67:leaf=-0.0553653
						68:leaf=-0.0238107
					34:[DOC_AGE<1.46917] yes=69,no=70,missing=70
						69:leaf=0.0137156
						70:leaf=-0.012183
			8:[U_CITY_COEC<0.0552919] yes=17,no=18,missing=18
				17:[C_D_U_PUBLISHER_AGE_COEC<0.0556852] yes=35,no=36,missing=36
					35:[C_D_U_TITLEMD5_AGE_C<0.909155] yes=71,no=72,missing=71
						71:leaf=-0.0902724
						72:leaf=0.0162649
					36:[D_CATEGORY_MEAN_C<4448.28] yes=73,no=74,missing=73
						73:leaf=-0.0188897
						74:leaf=-0.0474604
				18:[WORD_COUNT<5609] yes=37,no=38,missing=38
					37:[D_PUBLISHER_COEC<0.0390639] yes=75,no=76,missing=75
						75:leaf=-0.0119273
						76:leaf=0.000960139
					38:[D_TITLEMD5_C<566.987] yes=77,no=78,missing=78
						77:leaf=0.00883794
						78:leaf=0.0520254
		4:[D_TITLEMD5_COEC<0.0898067] yes=9,no=10,missing=10
			9:[DOC_AGE<42.3689] yes=19,no=20,missing=20
				19:[WORD_COUNT<1517] yes=39,no=40,missing=40
					39:[U_CITY_COEC<0.0659192] yes=79,no=80,missing=79
						79:leaf=-0.00446891
						80:leaf=0.00472907
					40:[DAY_OF_WEEK<0.999999] yes=81,no=82,missing=82
						81:leaf=0.0127714
						82:leaf=0.00222812
				20:[D_CATEGORY_MACRO_MAX_COEC<0.0672719] yes=41,no=42,missing=41
					41:[TIME_OF_DAY<8] yes=83,no=84,missing=84
						83:leaf=-0.0189732
						84:leaf=-0.0439575
					42:[WORD_COUNT<1226] yes=85,no=86,missing=86
						85:leaf=-0.0267247
						86:leaf=0.0212838
			10:[D_CATEGORY_MAX_EC<107376] yes=21,no=22,missing=22
				21:[D_CATEGORY_MAX_EC<91051.7] yes=43,no=44,missing=44
					43:[D_CATEGORY_MEAN_EC<152743] yes=87,no=88,missing=88
						87:leaf=0.000921669
						88:leaf=-0.0960086
					44:[U_CATEGORY_MAX_C<952.053] yes=89,no=90,missing=90
						89:leaf=0.0448871
						90:leaf=-0.0304213
				22:[D_CATEGORY_MAX_C<40157] yes=45,no=46,missing=46
					45:[D_TITLEMD5_COEC<0.12376] yes=91,no=92,missing=92
						91:leaf=0.00832039
						92:leaf=0.0204626
					46:[D_CATEGORY_MAX_EC<454803] yes=93,no=94,missing=94
						93:leaf=-0.0281484
						94:leaf=0.00204745
	2:[C_D_U_KEYWORD_CATEGORY_MICRO_MAX_COEC<0.255955] yes=5,no=6,missing=6
		5:[TIME_OF_DAY<9] yes=11,no=12,missing=12
			11:[U_CITY_COEC<0.0606407] yes=23,no=24,missing=24
				23:[U_CATEGORY_MACRO_MAX_COEC<0.101576] yes=47,no=48,missing=48
					47:[C_D_U_TITLEMD5_CITY_C<0.798065] yes=95,no=96,missing=95
						95:leaf=-0.00781623
						96:leaf=0.0165917
					48:[U_GENDER_C<18133.6] yes=97,no=98,missing=97
						97:leaf=-0.0158877
						98:leaf=-0.14529
				24:[C_D_U_TITLEMD5_GENDER_COEC<0.0563522] yes=49,no=50,missing=50
					49:[C_D_U_CATEGORY_AGE_MAX_EC<90177.2] yes=99,no=100,missing=100
						99:leaf=-0.0274055
						100:leaf=0.0173274
					50:[C_D_U_CATEGORY_CATEGORY_MICRO_MEAN_COEC<0.102449] yes=101,no=102,missing=101
						101:leaf=0.0309612
						102:leaf=0.0180827
			12:[D_TITLEMD5_COEC<0.042245] yes=25,no=26,missing=26
				25:[DOC_AGE<4.94472] yes=51,no=52,missing=52
					51:[C_D_U_CATEGORY_CATEGORY_MEAN_C<1570.17] yes=103,no=104,missing=103
						103:leaf=0.0167029
						104:leaf=-0.0502966
					52:[U_CATEGORY_MACRO_MAX_COEC<0.0547327] yes=105,no=106,missing=106
						105:leaf=0.00121987
						106:leaf=-0.0294288
				26:[DOC_AGE<12.7353] yes=53,no=54,missing=54
					53:[WORD_COUNT<485] yes=107,no=108,missing=108
						107:leaf=-0.0286388
						108:leaf=0.0131306
					54:[D_TITLEMD5_C<1032.73] yes=109,no=110,missing=110
						109:leaf=-0.00901627
						110:leaf=0.0134058
		6:[WORD_COUNT<1363] yes=13,no=14,missing=14
			13:[C_D_U_CATEGORY_CATEGORY_MICRO_MAX_COEC<0.224143] yes=27,no=28,missing=28
				27:[D_TITLEMD5_C<566.987] yes=55,no=56,missing=56
					55:[CAT_REL<0.036954] yes=111,no=112,missing=112
						111:leaf=-0.000980104
						112:leaf=0.0164923
					56:[TIME_OF_DAY<12] yes=113,no=114,missing=114
						113:leaf=0.0324058
						114:leaf=0.0123121
				28:[C_D_U_CATEGORY_AGE_MAX_C<14963] yes=57,no=58,missing=57
					57:[U_CATEGORY_MICRO_MAX_COEC<0.105244] yes=115,no=116,missing=116
						115:leaf=-0.0570927
						116:leaf=0.029142
					58:[C_D_U_CATEGORY_CITY_MACRO_MAX_COEC<0.0824998] yes=117,no=118,missing=118
						117:leaf=-0.15103
						118:leaf=0.0949928
			14:[C_D_U_KEYWORD_CATEGORY_MICRO_MAX_COEC<0.297088] yes=29,no=30,missing=30
				29:[U_CATEGORY_MACRO_MAX_COEC<0.0379107] yes=59,no=60,missing=60
					59:[U_AGE_COEC<0.0751661] yes=119,no=120,missing=119
						119:leaf=0.0529248
						120:leaf=-0.172763
					60:[C_D_U_PUBLISHER_GENDER_COEC<0.0625306] yes=121,no=122,missing=122
						121:leaf=-0.0163971
						122:leaf=0.0218443
				30:[CAT_REL<0.063806] yes=61,no=62,missing=62
					61:[D_CATEGORY_MICRO_MAX_COEC<0.0622808] yes=123,no=124,missing=124
						123:leaf=0.0034751
						124:leaf=0.0340499
					62:[U_GENDER_EC<24968.2] yes=125,no=126,missing=126
						125:leaf=-0.0664402
						126:leaf=0.0440861
booster[22]:
0:[D_TITLEMD5_COEC<0.0600222] yes=1,no=2,missing=1
	1:[U_CATEGORY_MACRO_MAX_COEC<0.0971608] yes=3,no=4,missing=4
		3:[C_D_U_CATEGORY_CITY_MICRO_MAX_COEC<0.045751] yes=7,no=8,missing=8
			7:[C_D_U_TITLEMD5_CITY_EC<9.70592] yes=15,no=16,missing=15
				15:[U_CATEGORY_MACRO_MAX_COEC<0.0368811] yes=31,no=32,missing=32
					31:[U_AGE_C<43506.6] yes=63,no=64,missing=63
						63:leaf=0.0731904
						64:leaf=-0.0983048
					32:[U_CATEGORY_MICRO_MEAN_COEC<0.112698] yes=65,no=66,missing=66
						65:leaf=-0.0415249
						66:leaf=-0.0165497
				16:[CAT_REL<0.15178] yes=33,no=34,missing=34
					33:[C_D_U_CATEGORY_CATEGORY_MEAN_C<152.277] yes=67,no=68,missing=68
						67:leaf=-0.00218444
						68:leaf=-0.0534747
					34:[C_D_U_TITLEMD5_AGE_EC<2908.8] yes=69,no=70,missing=69
						69:leaf=0.0179319
						70:leaf=-0.350393
			8:[U_CATEGORY_MICRO_MAX_COEC<0.153797] yes=17,no=18,missing=18
				17:[D_CATEGORY_MEAN_C<26879.2] yes=35,no=36,missing=35
					35:[U_CATEGORY_MACRO_MEAN_COEC<0.144003] yes=71,no=72,missing=72
						71:leaf=0.0106036
						72:leaf=-0.162066
					36:[C_D_U_CATEGORY_CITY_MACRO_MAX_COEC<0.0566938] yes=73,no=74,missing=74
						73:leaf=-0.101257
						74:leaf=-0.00706518
				18:[CAT_REL<0.0121459] yes=37,no=38,missing=38
					37:[U_AGE_COEC<0.0751729] yes=75,no=76,missing=75
						75:leaf=0.0143777
						76:leaf=-0.0552823
					38:[U_CATEGORY_MAX_C<1619.26] yes=77,no=78,missing=78
						77:leaf=0.038079
						78:leaf=0.0954883
		4:[D_KEYWORD_MACRO_MEAN_COEC<0.0338653] yes=9,no=10,missing=10
			9:[C_D_U_PUBLISHER_CITY_COEC<0.027688] yes=19,no=20,missing=20
				19:[D_PUBLISHER_EC<95965.5] yes=39,no=40,missing=40
					39:[C_D_U_CATEGORY_CITY_MACRO_MAX_COEC<0.0314546] yes=79,no=80,missing=79
						79:leaf=-0.060926
						80:leaf=-0.0314179
					40:[C_D_U_TITLEMD5_GENDER_COEC<0.0814301] yes=81,no=82,missing=81
						81:leaf=-0.0870643
						82:leaf=0.170771
				20:[WORD_COUNT<3793] yes=41,no=42,missing=42
					41:[C_D_U_PUBLISHER_GENDER_COEC<0.0773705] yes=83,no=84,missing=84
						83:leaf=-0.0495878
						84:leaf=-0.0230006
					42:[C_D_U_CATEGORY_CITY_MEAN_C<24.9169] yes=85,no=86,missing=85
						85:leaf=-0.0113683
						86:leaf=0.0224048
			10:[C_D_U_CATEGORY_CITY_MICRO_MAX_COEC<0.0666794] yes=21,no=22,missing=22
				21:[WORD_COUNT<1446] yes=43,no=44,missing=44
					43:[D_KEYWORD_MACRO_MAX_COEC<0.0123375] yes=87,no=88,missing=88
						87:leaf=-0.0286387
						88:leaf=-0.0131939
					44:[C_D_U_CATEGORY_CITY_MACRO_MAX_COEC<0.0362177] yes=89,no=90,missing=90
						89:leaf=-0.0123731
						90:leaf=0.000288407
				22:[D_CATEGORY_MAX_EC<411894] yes=45,no=46,missing=46
					45:[C_D_U_PUBLISHER_CITY_C<635.69] yes=91,no=92,missing=91
						91:leaf=0.000375944
						92:leaf=0.0256979
					46:[U_CITY_COEC<0.0674125] yes=93,no=94,missing=93
						93:leaf=-0.00988908
						94:leaf=0.00629511
	2:[U_CATEGORY_MEAN_EC<46869] yes=5,no=6,missing=6
		5:[D_TITLEMD5_C<4.7808] yes=11,no=12,missing=12
			11:[IMAGE_COUNT<0.999999] yes=23,no=24,missing=24
				23:[U_CATEGORY_MACRO_MEAN_COEC<0.144003] yes=47,no=48,missing=48
					47:[U_CATEGORY_MICRO_MAX_COEC<0.124284] yes=95,no=96,missing=96
						95:leaf=-0.0602005
						96:leaf=-0.00364088
					48:[C_D_U_TITLEMD5_CATEGORY_MEAN_EC<5.84109] yes=97,no=98,missing=98
						97:leaf=-0.22189
						98:leaf=0.0130101
				24:[DOC_AGE<12.7297] yes=49,no=50,missing=50
					49:[U_CATEGORY_MAX_EC<38979.7] yes=99,no=100,missing=100
						99:leaf=0.01102
						100:leaf=-0.0446901
					50:[C_D_U_CATEGORY_CITY_MEAN_EC<19676.6] yes=101,no=102,missing=101
						101:leaf=-0.0509829
						102:leaf=0.0393983
			12:[CAT_REL<0.004432] yes=25,no=26,missing=26
				25:[C_D_U_CATEGORY_CATEGORY_MICRO_MAX_COEC<0.2184] yes=51,no=52,missing=52
					51:[D_CATEGORY_MAX_C<30217.4] yes=103,no=104,missing=104
						103:leaf=0.0179293
						104:leaf=0.00172557
					52:[C_D_U_TITLEMD5_CATEGORY_MICRO_MEAN_COEC<0.0926892] yes=105,no=106,missing=106
						105:leaf=0.068361
						106:leaf=0.0254392
				26:[U_CATEGORY_MACRO_MAX_COEC<0.0555246] yes=53,no=54,missing=54
					53:[C_D_U_TITLEMD5_CATEGORY_MICRO_MEAN_COEC<0.0893901] yes=107,no=108,missing=108
						107:leaf=0.0831878
						108:leaf=0.0382339
					54:[C_D_U_KEYWORD_CATEGORY_MICRO_MAX_COEC<0.30578] yes=109,no=110,missing=110
						109:leaf=0.0192515
						110:leaf=0.0344848
		6:[D_TITLEMD5_C<10.8342] yes=13,no=14,missing=14
			13:[D_KEYWORD_MEAN_C<61.9241] yes=27,no=28,missing=28
				27:[DOC_AGE<6.95139] yes=55,no=56,missing=56
					55:[D_KW_LEN<16] yes=111,no=112,missing=112
						111:leaf=-0.0387544
						112:leaf=-0.0135119
					56:[TIME_OF_DAY<14] yes=113,no=114,missing=114
						113:leaf=-0.0223696
						114:leaf=0.0348305
				28:[D_CATEGORY_MICRO_MAX_COEC<0.0710968] yes=57,no=58,missing=58
					57:[C_D_U_TITLEMD5_AGE_C<0.999999] yes=115,no=116,missing=116
						115:leaf=-0.0568965
						116:leaf=-0.00799026
					58:[D_PUBLISHER_C<62.0403] yes=117,no=118,missing=118
						117:leaf=-0.0578905
						118:leaf=0.022445
			14:[DOC_AGE<41.6875] yes=29,no=30,missing=30
				29:[D_TITLEMD5_COEC<0.113208] yes=59,no=60,missing=60
					59:[C_D_U_TITLEMD5_GENDER_COEC<0.103951] yes=119,no=120,missing=119
						119:leaf=0.00168706
						120:leaf=0.0172836
					60:[C_D_U_CATEGORY_AGE_MAX_C<1632.74] yes=121,no=122,missing=122
						121:leaf=-0.0338603
						122:leaf=0.0145106
				30:[D_TITLEMD5_COEC<0.0922748] yes=61,no=62,missing=62
					61:[C_D_U_CATEGORY_CITY_MACRO_MEAN_COEC<0.0849356] yes=123,no=124,missing=123
						123:leaf=-0.0286985
						124:leaf=0.018533
					62:[D_CATEGORY_MAX_EC<331270] yes=125,no=126,missing=125
						125:leaf=0.0053787
						126:leaf=-0.0245777
booster[23]:
0:[D_TITLEMD5_COEC<0.0480733] yes=1,no=2,missing=1
	1:[WORD_COUNT<763] yes=3,no=4,missing=4
		3:[C_D_U_CATEGORY_CITY_MACRO_MAX_COEC<0.0589534] yes=7,no=8,missing=8
			7:[U_GENDER_COEC<0.0723337] yes=15,no=16,missing=16
				15:[C_D_U_TITLEMD5_AGE_EC<746.354] yes=31,no=32,missing=32
					31:[C_D_U_TITLEMD5_CATEGORY_MICRO_MEAN_COEC<0.122409] yes=63,no=64,missing=63
						63:leaf=-0.0596373
						64:leaf=0.0292749
					32:[U_CATEGORY_MACRO_MAX_COEC<0.0555664] yes=65,no=66,missing=66
						65:leaf=-0.000584369
						66:leaf=-0.103696
				16:[D_CATEGORY_MACRO_MAX_COEC<0.0489391] yes=33,no=34,missing=34
					33:[D_KEYWORD_MACRO_MEAN_COEC<0.0314112] yes=67,no=68,missing=68
						67:leaf=-0.0386225
						68:leaf=-0.0141053
					34:[CAT_REL<0.086955] yes=69,no=70,missing=70
						69:leaf=-0.049153
						70:leaf=-0.00441461
			8:[D_KEYWORD_MACRO_MEAN_COEC<0.0271796] yes=17,no=18,missing=18
				17:[U_CATEGORY_MICRO_MAX_COEC<0.153817] yes=35,no=36,missing=35
					35:[D_CATEGORY_MICRO_MEAN_COEC<0.0699387] yes=71,no=72,missing=71
						71:leaf=-0.0318769
						72:leaf=-0.0692233
					36:[U_CATEGORY_MACRO_MAX_COEC<0.0824946] yes=73,no=74,missing=74
						73:leaf=0.0349869
						74:leaf=-0.118319
				18:[C_D_U_TITLEMD5_CITY_COEC<0.0638603] yes=37,no=38,missing=38
					37:[C_D_U_PUBLISHER_GENDER_EC<14237.4] yes=75,no=76,missing=75
						75:leaf=-0.0160173
						76:leaf=-0.0686284
					38:[C_D_U_PUBLISHER_CITY_C<1032.34] yes=77,no=78,missing=77
						77:leaf=-0.00344524
						78:leaf=0.0536388
		4:[U_CATEGORY_MACRO_MAX_COEC<0.0520781] yes=9,no=10,missing=10
			9:[U_CATEGORY_MEAN_C<1799.34] yes=19,no=20,missing=20
				19:[U_CATEGORY_MACRO_MEAN_COEC<0.128759] yes=39,no=40,missing=40
					39:[U_CITY_EC<133667] yes=79,no=80,missing=79
						79:leaf=0.037869
						80:leaf=0.0804871
					40:[U_CATEGORY_MACRO_MAX_COEC<0.0440943] yes=81,no=82,missing=82
						81:leaf=-0.03258
						82:leaf=0.035116
				20:[DOC_AGE<19.0678] yes=41,no=42,missing=42
					41:[C_D_U_CATEGORY_CATEGORY_MICRO_MAX_COEC<0.120296] yes=83,no=84,missing=84
						83:leaf=-0.0187625
						84:leaf=0.009809
					42:[C_D_U_CATEGORY_CATEGORY_MAX_C<236.416] yes=85,no=86,missing=85
						85:leaf=0.0546651
						86:leaf=-0.0497429
			10:[C_D_U_PUBLISHER_CITY_COEC<0.0456789] yes=21,no=22,missing=22
				21:[U_CITY_COEC<0.0456665] yes=43,no=44,missing=44
					43:[C_D_U_PUBLISHER_CITY_COEC<0.0419488] yes=87,no=88,missing=88
						87:leaf=-0.0495181
						88:leaf=0.0559095
					44:[D_TITLEMD5_COEC<0.0344562] yes=89,no=90,missing=89
						89:leaf=-0.0222154
						90:leaf=-0.00824381
				22:[DOC_AGE<3.03667] yes=45,no=46,missing=46
					45:[D_KEYWORD_MICRO_MEAN_COEC<0.0606025] yes=91,no=92,missing=92
						91:leaf=0.00305684
						92:leaf=0.0362896
					46:[D_TITLEMD5_C<45.3649] yes=93,no=94,missing=94
						93:leaf=-0.0119222
						94:leaf=-0.0022922
	2:[U_CATEGORY_MACRO_MAX_COEC<0.0966075] yes=5,no=6,missing=6
		5:[U_CATEGORY_MICRO_MAX_COEC<0.131842] yes=11,no=12,missing=12
			11:[D_TITLEMD5_C<2.88826] yes=23,no=24,missing=24
				23:[U_CATEGORY_MEAN_EC<18040.2] yes=47,no=48,missing=48
					47:[U_CITY_C<1696.82] yes=95,no=96,missing=95
						95:leaf=-0.0243051
						96:leaf=0.0704146
					48:[C_D_U_CATEGORY_CATEGORY_MICRO_MAX_COEC<0.118788] yes=97,no=98,missing=98
						97:leaf=-0.0482504
						98:leaf=-0.00506712
				24:[WORD_COUNT<1446] yes=49,no=50,missing=50
					49:[C_D_U_TITLEMD5_CATEGORY_MAX_C<8.44105] yes=99,no=100,missing=100
						99:leaf=0.00261704
						100:leaf=0.0163978
					50:[C_D_U_TITLEMD5_CATEGORY_MICRO_MAX_COEC<0.0626471] yes=101,no=102,missing=102
						101:leaf=0.0672702
						102:leaf=0.019872
			12:[CAT_REL<0.036954] yes=25,no=26,missing=26
				25:[C_D_U_KEYWORD_CATEGORY_MAX_EC<3.40975] yes=51,no=52,missing=52
					51:[D_TITLEMD5_EC<37.696] yes=103,no=104,missing=104
						103:leaf=-0.0927645
						104:leaf=0.0279465
					52:[TIME_OF_DAY<8] yes=105,no=106,missing=106
						105:leaf=0.0235253
						106:leaf=0.00126643
				26:[D_CATEGORY_MEAN_C<19956.2] yes=53,no=54,missing=54
					53:[U_CATEGORY_MACRO_MAX_COEC<0.0680825] yes=107,no=108,missing=108
						107:leaf=0.0277764
						108:leaf=-0.00431834
					54:[U_GENDER_COEC<0.0761003] yes=109,no=110,missing=109
						109:leaf=0.0435011
						110:leaf=-0.068941
		6:[D_TITLEMD5_C<1034.35] yes=13,no=14,missing=14
			13:[U_AGE_EC<538658] yes=27,no=28,missing=28
				27:[C_D_U_TITLEMD5_GENDER_COEC<0.0714768] yes=55,no=56,missing=56
					55:[U_CITY_COEC<0.0822963] yes=111,no=112,missing=112
						111:leaf=-0.0203237
						112:leaf=0.022533
					56:[DOC_AGE<13.4592] yes=113,no=114,missing=114
						113:leaf=0.0149588
						114:leaf=0.00119648
				28:[DOC_AGE<58.8678] yes=57,no=58,missing=58
					57:[U_CITY_COEC<0.0456665] yes=115,no=116,missing=116
						115:leaf=-0.0214757
						116:leaf=-0.0016388
					58:[C_D_U_TITLEMD5_CATEGORY_MAX_C<4.50293] yes=117,no=118,missing=118
						117:leaf=0.044614
						118:leaf=-0.0382088
			14:[DOC_AGE<11.9111] yes=29,no=30,missing=30
				29:[TIME_OF_DAY<18] yes=59,no=60,missing=60
					59:[DAY_OF_WEEK<2] yes=119,no=120,missing=120
						119:leaf=0.00888803
						120:leaf=-0.00437066
					60:[C_D_U_TITLEMD5_AGE_EC<3748.82] yes=121,no=122,missing=121
						121:leaf=-0.013423
						122:leaf=0.011511
				30:[D_KEYWORD_MAX_EC<494.544] yes=61,no=62,missing=62
					61:[C_D_U_CATEGORY_CITY_MICRO_MEAN_COEC<0.0788122] yes=123,no=124,missing=124
						123:leaf=0.0184354
						124:leaf=0.0421338
					62:[U_CITY_COEC<0.0623531] yes=125,no=126,missing=126
						125:leaf=0.0046737
						126:leaf=0.0133688
booster[24]:
0:[D_TITLEMD5_C<241.226] yes=1,no=2,missing=1
	1:[U_CATEGORY_MACRO_MAX_COEC<0.0548643] yes=3,no=4,missing=4
		3:[U_CATEGORY_MEAN_C<1830.03] yes=7,no=8,missing=8
			7:[U_CATEGORY_MACRO_MEAN_COEC<0.127782] yes=15,no=16,missing=16
				15:[U_CATEGORY_MICRO_MAX_COEC<0.133937] yes=31,no=32,missing=32
					31:[U_CATEGORY_MAX_EC<6494.08] yes=63,no=64,missing=64
						63:leaf=0.0266486
						64:leaf=-0.0725329
					32:[DAY_OF_WEEK<0.999999] yes=65,no=66,missing=66
						65:leaf=0.0693146
						66:leaf=0.0416451
				16:[U_CATEGORY_MICRO_MAX_COEC<0.156637] yes=33,no=34,missing=34
					33:[U_CATEGORY_MAX_EC<6074.59] yes=67,no=68,missing=68
						67:leaf=-0.0340799
						68:leaf=0.0764686
					34:[U_CITY_COEC<0.059909] yes=69,no=70,missing=69
						69:leaf=0.0598829
						70:leaf=0.0123119
			8:[D_TITLEMD5_COEC<0.0648435] yes=17,no=18,missing=17
				17:[C_D_U_TITLEMD5_AGE_EC<238.008] yes=35,no=36,missing=36
					35:[U_CATEGORY_MICRO_MEAN_COEC<0.112221] yes=71,no=72,missing=72
						71:leaf=-0.049477
						72:leaf=-0.00263033
					36:[U_CITY_COEC<0.0671301] yes=73,no=74,missing=73
						73:leaf=0.000445756
						74:leaf=0.0314869
				18:[C_D_U_CATEGORY_CITY_MACRO_MEAN_COEC<0.0419216] yes=37,no=38,missing=38
					37:[C_D_U_PUBLISHER_GENDER_C<903.884] yes=75,no=76,missing=76
						75:leaf=0.0484437
						76:leaf=-0.0305871
					38:[U_GENDER_EC<252610] yes=77,no=78,missing=78
						77:leaf=-0.0299178
						78:leaf=0.0301775
		4:[C_D_U_CATEGORY_CITY_MACRO_MEAN_COEC<0.052041] yes=9,no=10,missing=10
			9:[D_TITLEMD5_C<5.14103] yes=19,no=20,missing=19
				19:[IMAGE_COUNT<0.999999] yes=39,no=40,missing=40
					39:[D_KEYWORD_MICRO_MEAN_COEC<0.0293084] yes=79,no=80,missing=80
						79:leaf=-0.0947805
						80:leaf=-0.0432326
					40:[DOC_AGE<1.85722] yes=81,no=82,missing=82
						81:leaf=-0.000315867
						82:leaf=-0.0312001
				20:[U_CITY_EC<98288.2] yes=41,no=42,missing=41
					41:[TIME_OF_DAY<6] yes=83,no=84,missing=84
						83:leaf=-0.00458332
						84:leaf=-0.017952
					42:[WORD_COUNT<4957] yes=85,no=86,missing=86
						85:leaf=-0.00354391
						86:leaf=0.0256421
			10:[WORD_COUNT<670] yes=21,no=22,missing=22
				21:[D_KEYWORD_MACRO_MEAN_COEC<0.0367794] yes=43,no=44,missing=44
					43:[C_D_U_CATEGORY_CATEGORY_MICRO_MEAN_COEC<0.108576] yes=87,no=88,missing=88
						87:leaf=-0.00256249
						88:leaf=-0.0334232
					44:[DOC_AGE<12.2614] yes=89,no=90,missing=90
						89:leaf=-0.00728256
						90:leaf=-0.0227066
				22:[C_D_U_TITLEMD5_AGE_COEC<0.0504399] yes=45,no=46,missing=45
					45:[U_CITY_COEC<0.0667666] yes=91,no=92,missing=91
						91:leaf=-0.00568622
						92:leaf=0.00342068
					46:[U_CITY_C<9117.63] yes=93,no=94,missing=93
						93:leaf=0.00836095
						94:leaf=-0.00677479
	2:[C_D_U_TITLEMD5_CATEGORY_MICRO_MAX_COEC<0.196899] yes=5,no=6,missing=5
		5:[U_CITY_COEC<0.0469673] yes=11,no=12,missing=12
			11:[TIME_OF_DAY<21] yes=23,no=24,missing=24
				23:[C_D_U_PUBLISHER_CITY_COEC<0.0544187] yes=47,no=48,missing=48
					47:[D_KEYWORD_MEAN_C<154.399] yes=95,no=96,missing=96
						95:leaf=-0.0349342
						96:leaf=-0.0122447
					48:[C_D_U_PUBLISHER_CITY_C<24.585] yes=97,no=98,missing=97
						97:leaf=0.00281449
						98:leaf=-0.0632961
				24:[D_CATEGORY_MAX_C<42384.6] yes=49,no=50,missing=50
					49:[C_D_U_TITLEMD5_CITY_EC<5.2364] yes=99,no=100,missing=100
						99:leaf=-0.00919296
						100:leaf=-0.0858954
					50:[D_TITLEMD5_EC<2556.64] yes=101,no=102,missing=102
						101:leaf=0.121119
						102:leaf=-0.138138
			12:[U_AGE_C<34267.8] yes=25,no=26,missing=26
				25:[C_D_U_TITLEMD5_AGE_C<14.5049] yes=51,no=52,missing=52
					51:[U_GENDER_C<18314] yes=103,no=104,missing=104
						103:leaf=-0.045779
						104:leaf=-0.00227676
					52:[D_PUBLISHER_C<13890.4] yes=105,no=106,missing=106
						105:leaf=0.0180399
						106:leaf=0.0442265
				26:[C_D_U_TITLEMD5_CITY_COEC<0.0790581] yes=53,no=54,missing=54
					53:[C_D_U_CATEGORY_CITY_MICRO_MEAN_COEC<0.0947219] yes=107,no=108,missing=107
						107:leaf=-0.00113553
						108:leaf=0.0133919
					54:[WORD_COUNT<1511] yes=109,no=110,missing=110
						109:leaf=0.00373943
						110:leaf=0.0104749
		6:[C_D_U_TITLEMD5_CATEGORY_MICRO_MAX_COEC<0.303323] yes=13,no=14,missing=14
			13:[TIME_OF_DAY<12] yes=27,no=28,missing=28
				27:[WORD_COUNT<2148] yes=55,no=56,missing=56
					55:[U_CATEGORY_MAX_C<1091.46] yes=111,no=112,missing=112
						111:leaf=0.0264601
						112:leaf=0.013204
					56:[C_D_U_TITLEMD5_CATEGORY_MEAN_EC<13.0571] yes=113,no=114,missing=114
						113:leaf=-0.212715
						114:leaf=0.0329911
				28:[DOC_AGE<15.4722] yes=57,no=58,missing=58
					57:[D_CATEGORY_MACRO_MAX_COEC<0.0692461] yes=115,no=116,missing=116
						115:leaf=0.0216308
						116:leaf=0.00288455
					58:[U_CITY_C<23901.1] yes=117,no=118,missing=117
						117:leaf=-0.00859843
						118:leaf=0.0432049
			14:[C_D_U_TITLEMD5_CATEGORY_MICRO_MEAN_COEC<0.192902] yes=29,no=30,missing=30
				29:[D_CATEGORY_MICRO_MAX_COEC<0.0884748] yes=59,no=60,missing=59
					59:[D_KW_LEN<8] yes=119,no=120,missing=120
						119:leaf=0.0436409
						120:leaf=-0.00379386
					60:[U_CATEGORY_MEAN_EC<9531.88] yes=121,no=122,missing=122
						121:leaf=-0.344531
						122:leaf=-0.0536543
				30:[U_CATEGORY_MACRO_MAX_COEC<0.0584873] yes=61,no=62,missing=62
					61:[D_KEYWORD_MEAN_C<532.343] yes=123,no=124,missing=124
						123:leaf=0.0448926
						124:leaf=0.0203904
					62:[C_D_U_TITLEMD5_GENDER_COEC<0.0688456] yes=125,no=126,missing=126
						125:leaf=-0.115275
						126:leaf=0.0275935
booster[25]:
0:[D_TITLEMD5_C<61.5593] yes=1,no=2,missing=1
	1:[CAT_REL<0.022301] yes=3,no=4,missing=4
		3:[C_D_U_CATEGORY_CITY_MICRO_MAX_COEC<0.0587011] yes=7,no=8,missing=8
			7:[WORD_COUNT<994] yes=15,no=16,missing=16
				15:[D_TITLEMD5_C<7.42616] yes=31,no=32,missing=31
					31:[D_KEYWORD_MICRO_MAX_COEC<0.101985] yes=63,no=64,missing=64
						63:leaf=-0.0396473
						64:leaf=-0.00362631
					32:[D_CATEGORY_MEAN_C<20751.4] yes=65,no=66,missing=66
						65:leaf=-0.0140192
						66:leaf=-0.0347623
				16:[C_D_U_PUBLISHER_CITY_COEC<0.0567066] yes=33,no=34,missing=33
					33:[WORD_COUNT<3880] yes=67,no=68,missing=68
						67:leaf=-0.0195352
						68:leaf=-0.000568038
					34:[C_D_U_PUBLISHER_CITY_EC<30931.1] yes=69,no=70,missing=70
						69:leaf=-0.00279017
						70:leaf=0.0726167
			8:[D_KEYWORD_MACRO_MEAN_COEC<0.0312361] yes=17,no=18,missing=18
				17:[U_CATEGORY_MACRO_MEAN_COEC<0.123389] yes=35,no=36,missing=36
					35:[DOC_AGE<15.8461] yes=71,no=72,missing=72
						71:leaf=0.00508718
						72:leaf=0.0808353
					36:[C_D_U_TITLEMD5_CITY_EC<29.6628] yes=73,no=74,missing=73
						73:leaf=-0.0266505
						74:leaf=0.0176544
				18:[DOC_AGE<10.2792] yes=37,no=38,missing=38
					37:[U_AGE_C<36692.3] yes=75,no=76,missing=76
						75:leaf=0.0147127
						76:leaf=-0.00315799
					38:[D_TITLEMD5_COEC<0.0724413] yes=77,no=78,missing=78
						77:leaf=-0.0169089
						78:leaf=0.00681642
		4:[D_TITLEMD5_C<2.87252] yes=9,no=10,missing=10
			9:[DOC_AGE<1.72472] yes=19,no=20,missing=20
				19:[C_D_U_TITLEMD5_CATEGORY_MACRO_MEAN_COEC<0.0107082] yes=39,no=40,missing=40
					39:[C_D_U_CATEGORY_CITY_MICRO_MAX_COEC<0.0485733] yes=79,no=80,missing=80
						79:leaf=-0.00508971
						80:leaf=0.0423707
					40:[D_PUBLISHER_COEC<0.0588203] yes=81,no=82,missing=82
						81:leaf=-0.0171461
						82:leaf=0.0217628
				20:[IMAGE_COUNT<0.999999] yes=41,no=42,missing=42
					41:[D_CATEGORY_MACRO_MAX_COEC<0.0694903] yes=83,no=84,missing=84
						83:leaf=-0.0371699
						84:leaf=-0.0987941
					42:[U_CATEGORY_MACRO_MAX_COEC<0.0548599] yes=85,no=86,missing=86
						85:leaf=0.0128449
						86:leaf=-0.0189452
			10:[DOC_AGE<5.19889] yes=21,no=22,missing=22
				21:[C_D_U_TITLEMD5_CATEGORY_MACRO_MAX_COEC<0.0428028] yes=43,no=44,missing=44
					43:[U_CATEGORY_MEAN_C<3928.21] yes=87,no=88,missing=88
						87:leaf=0.0414763
						88:leaf=-0.00379752
					44:[U_CATEGORY_MICRO_MAX_COEC<0.150758] yes=89,no=90,missing=90
						89:leaf=0.0121764
						90:leaf=0.0382524
				22:[C_D_U_CATEGORY_CATEGORY_MICRO_MAX_COEC<0.125514] yes=45,no=46,missing=46
					45:[TIME_OF_DAY<10] yes=91,no=92,missing=92
						91:leaf=0.00667171
						92:leaf=-0.0200395
					46:[C_D_U_CATEGORY_CATEGORY_MAX_EC<14476.8] yes=93,no=94,missing=94
						93:leaf=0.0134125
						94:leaf=0.0948408
	2:[C_D_U_KEYWORD_CATEGORY_MICRO_MAX_COEC<0.192272] yes=5,no=6,missing=5
		5:[C_D_U_TITLEMD5_CITY_COEC<0.0773951] yes=11,no=12,missing=12
			11:[U_AGE_C<33265.9] yes=23,no=24,missing=24
				23:[U_GENDER_COEC<0.0708168] yes=47,no=48,missing=48
					47:[TIME_OF_DAY<23] yes=95,no=96,missing=96
						95:leaf=-0.0873184
						96:leaf=0.0732625
					48:[C_D_U_CATEGORY_AGE_MACRO_MAX_COEC<0.038238] yes=97,no=98,missing=98
						97:leaf=-0.0599244
						98:leaf=0.0237665
				24:[WORD_COUNT<730] yes=49,no=50,missing=50
					49:[D_KEYWORD_MAX_EC<2078.78] yes=99,no=100,missing=100
						99:leaf=-0.00889516
						100:leaf=-0.0264164
					50:[DOC_AGE<35.7594] yes=101,no=102,missing=102
						101:leaf=-0.0010846
						102:leaf=-0.0180999
			12:[U_CITY_COEC<0.161318] yes=25,no=26,missing=25
				25:[C_D_U_CATEGORY_CITY_MEAN_C<4.77746] yes=51,no=52,missing=52
					51:[WORD_COUNT<2454] yes=103,no=104,missing=104
						103:leaf=-0.0116826
						104:leaf=0.00674764
					52:[D_CATEGORY_MAX_C<38085.1] yes=105,no=106,missing=106
						105:leaf=0.00626025
						106:leaf=-0.000104668
				26:[TIME_OF_DAY<7] yes=53,no=54,missing=54
					53:[U_AGE_COEC<0.0721119] yes=107,no=108,missing=108
						107:leaf=-0.186985
						108:leaf=0.095572
					54:[C_D_U_CATEGORY_CITY_MACRO_MAX_COEC<0.352897] yes=109,no=110,missing=110
						109:leaf=0.0142637
						110:leaf=0.0677101
		6:[TIME_OF_DAY<12] yes=13,no=14,missing=14
			13:[U_CATEGORY_MICRO_MAX_COEC<0.1218] yes=27,no=28,missing=28
				27:[C_D_U_TITLEMD5_CATEGORY_MAX_C<9.72581] yes=55,no=56,missing=56
					55:[DOC_AGE<12.2886] yes=111,no=112,missing=112
						111:leaf=0.00845776
						112:leaf=-0.0231449
					56:[C_D_U_TITLEMD5_GENDER_C<4.23741] yes=113,no=114,missing=114
						113:leaf=-0.252889
						114:leaf=0.0181354
				28:[DOC_AGE<24.7894] yes=57,no=58,missing=58
					57:[U_CATEGORY_MACRO_MEAN_COEC<0.118381] yes=115,no=116,missing=116
						115:leaf=0.0330139
						116:leaf=0.0172314
					58:[C_D_U_KEYWORD_CATEGORY_MICRO_MEAN_COEC<0.105562] yes=117,no=118,missing=118
						117:leaf=0.0791214
						118:leaf=0.0343171
			14:[DOC_AGE<12.8194] yes=29,no=30,missing=30
				29:[U_CATEGORY_MAX_C<537.845] yes=59,no=60,missing=60
					59:[D_TITLEMD5_COEC<0.0362049] yes=119,no=120,missing=120
						119:leaf=-0.263417
						120:leaf=0.0344215
					60:[WORD_COUNT<1026] yes=121,no=122,missing=122
						121:leaf=-0.00272831
						122:leaf=0.0144831
				30:[D_TITLEMD5_C<1079.8] yes=61,no=62,missing=62
					61:[DOC_AGE<23.0086] yes=123,no=124,missing=124
						123:leaf=-0.0324316
						124:leaf=0.000623561
					62:[C_D_U_TITLEMD5_GENDER_C<17.5015] yes=125,no=126,missing=126
						125:leaf=-0.369596
						126:leaf=0.00922405
booster[26]:
0:[D_TITLEMD5_COEC<0.0649966] yes=1,no=2,missing=1
	1:[WORD_COUNT<730] yes=3,no=4,missing=4
		3:[D_KEYWORD_MACRO_MEAN_COEC<0.0370991] yes=7,no=8,missing=8
			7:[TIME_OF_DAY<11] yes=15,no=16,missing=16
				15:[C_D_U_CATEGORY_CITY_MEAN_EC<294.721] yes=31,no=32,missing=32
					31:[C_D_U_TITLEMD5_CITY_EC<0.999999] yes=63,no=64,missing=64
						63:leaf=0.0248869
						64:leaf=-0.0605773
					32:[C_D_U_CATEGORY_CATEGORY_MICRO_MEAN_COEC<0.129403] yes=65,no=66,missing=65
						65:leaf=-0.0127558
						66:leaf=-0.0848309
				16:[C_D_U_PUBLISHER_CITY_COEC<0.0650712] yes=33,no=34,missing=33
					33:[C_D_U_CATEGORY_GENDER_MAX_EC<2181.72] yes=67,no=68,missing=68
						67:leaf=0.0833119
						68:leaf=-0.0433374
					34:[D_KEYWORD_MACRO_MEAN_COEC<0.0132751] yes=69,no=70,missing=70
						69:leaf=-0.0813584
						70:leaf=-0.00321855
			8:[D_KEYWORD_MAX_EC<2868.58] yes=17,no=18,missing=18
				17:[C_D_U_PUBLISHER_CITY_COEC<0.0783841] yes=35,no=36,missing=35
					35:[D_KW_LEN<16] yes=71,no=72,missing=72
						71:leaf=-0.0110718
						72:leaf=0.0248993
					36:[C_D_U_CATEGORY_CITY_MAX_C<6.66496] yes=73,no=74,missing=74
						73:leaf=-0.0332493
						74:leaf=0.0152923
				18:[C_D_U_CATEGORY_CITY_MACRO_MAX_COEC<0.0411526] yes=37,no=38,missing=38
					37:[C_D_U_PUBLISHER_CITY_C<0.539806] yes=75,no=76,missing=75
						75:leaf=-0.0136009
						76:leaf=-0.06671
					38:[C_D_U_TITLEMD5_CITY_C<55.4018] yes=77,no=78,missing=77
						77:leaf=-0.0204541
						78:leaf=0.0560686
		4:[U_CATEGORY_MICRO_MEAN_COEC<0.112203] yes=9,no=10,missing=9
			9:[D_TITLEMD5_C<33.5768] yes=19,no=20,missing=19
				19:[D_KEYWORD_MICRO_MEAN_COEC<0.0443853] yes=39,no=40,missing=40
					39:[C_D_U_CATEGORY_CITY_MACRO_MAX_COEC<0.0314378] yes=79,no=80,missing=80
						79:leaf=-0.0382819
						80:leaf=-0.0174758
					40:[DOC_AGE<7.76805] yes=81,no=82,missing=82
						81:leaf=-0.00146629
						82:leaf=-0.0168193
				20:[WORD_COUNT<3639] yes=41,no=42,missing=42
					41:[C_D_U_TITLEMD5_GENDER_COEC<0.0802147] yes=83,no=84,missing=83
						83:leaf=-0.00378342
						84:leaf=0.0171449
					42:[C_D_U_CATEGORY_CITY_MICRO_MEAN_COEC<0.0340357] yes=85,no=86,missing=86
						85:leaf=-0.0129855
						86:leaf=0.00905803
			10:[U_CATEGORY_MACRO_MAX_COEC<0.0546792] yes=21,no=22,missing=22
				21:[WORD_COUNT<2632] yes=43,no=44,missing=44
					43:[DOC_AGE<24.8692] yes=87,no=88,missing=88
						87:leaf=0.011923
						88:leaf=0.0499564
					44:[U_CATEGORY_MEAN_EC<27937.9] yes=89,no=90,missing=90
						89:leaf=0.041491
						90:leaf=-0.130325
				22:[TIME_OF_DAY<2] yes=45,no=46,missing=46
					45:[U_AGE_COEC<0.0740336] yes=91,no=92,missing=91
						91:leaf=0.0482254
						92:leaf=-0.0559463
					46:[U_CATEGORY_MICRO_MEAN_COEC<0.125178] yes=93,no=94,missing=94
						93:leaf=0.00776448
						94:leaf=-0.0125864
	2:[U_CATEGORY_MACRO_MAX_COEC<0.115369] yes=5,no=6,missing=6
		5:[D_TITLEMD5_C<2.87742] yes=11,no=12,missing=12
			11:[IMAGE_COUNT<0.999999] yes=23,no=24,missing=24
				23:[C_D_U_PUBLISHER_CITY_COEC<0.0477555] yes=47,no=48,missing=47
					47:[D_TITLEMD5_COEC<0.0754334] yes=95,no=96,missing=96
						95:leaf=-0.145514
						96:leaf=-0.0506823
					48:[DOC_AGE<11.9258] yes=97,no=98,missing=98
						97:leaf=-0.000272922
						98:leaf=-0.178745
				24:[U_GENDER_C<1829.08] yes=49,no=50,missing=50
					49:[U_CATEGORY_MEAN_C<1379.85] yes=99,no=100,missing=100
						99:leaf=0.027111
						100:leaf=-0.190516
					50:[U_CATEGORY_MICRO_MAX_COEC<0.154321] yes=101,no=102,missing=102
						101:leaf=-0.00311732
						102:leaf=0.0347544
			12:[C_D_U_TITLEMD5_CATEGORY_MICRO_MEAN_COEC<0.0907046] yes=25,no=26,missing=26
				25:[WORD_COUNT<367] yes=51,no=52,missing=52
					51:[C_D_U_KEYWORD_CATEGORY_MAX_C<5.48202] yes=103,no=104,missing=104
						103:leaf=-0.10186
						104:leaf=0.160159
					52:[C_D_U_CATEGORY_CATEGORY_MICRO_MEAN_COEC<0.0613497] yes=105,no=106,missing=105
						105:leaf=0.0719692
						106:leaf=0.032068
				26:[C_D_U_TITLEMD5_CATEGORY_MICRO_MEAN_COEC<0.233145] yes=53,no=54,missing=54
					53:[C_D_U_TITLEMD5_GENDER_COEC<0.120043] yes=107,no=108,missing=107
						107:leaf=0.00949418
						108:leaf=0.0277793
					54:[U_CATEGORY_MICRO_MAX_COEC<0.113712] yes=109,no=110,missing=110
						109:leaf=0.0105683
						110:leaf=0.0277981
		6:[C_D_U_CATEGORY_CITY_MACRO_MEAN_COEC<0.04072] yes=13,no=14,missing=14
			13:[U_AGE_COEC<0.0717005] yes=27,no=28,missing=28
				27:[D_TITLEMD5_EC<22398] yes=55,no=56,missing=56
					55:[DAY_OF_WEEK<0.999999] yes=111,no=112,missing=112
						111:leaf=-0.18579
						112:leaf=-0.102594
					56:[C_D_U_PUBLISHER_GENDER_EC<4912.59] yes=113,no=114,missing=114
						113:leaf=0.148432
						114:leaf=-0.0059237
				28:[TIME_OF_DAY<5] yes=57,no=58,missing=58
					57:[C_D_U_PUBLISHER_AGE_EC<40448.5] yes=115,no=116,missing=115
						115:leaf=0.0119299
						116:leaf=-0.0533671
					58:[C_D_U_TITLEMD5_AGE_C<273.246] yes=117,no=118,missing=117
						117:leaf=-0.0164176
						118:leaf=0.000846287
			14:[WORD_COUNT<3639] yes=29,no=30,missing=30
				29:[C_D_U_TITLEMD5_GENDER_COEC<0.125582] yes=59,no=60,missing=59
					59:[D_KEYWORD_MICRO_MEAN_COEC<0.126137] yes=119,no=120,missing=120
						119:leaf=0.00103854
						120:leaf=0.0194106
					60:[C_D_U_CATEGORY_CITY_MICRO_MEAN_COEC<0.084348] yes=121,no=122,missing=122
						121:leaf=0.00434738
						122:leaf=0.0226768
				30:[D_PUBLISHER_EC<7969.51] yes=61,no=62,missing=62
					61:[D_PUBLISHER_EC<2022.19] yes=123,no=124,missing=124
						123:leaf=0.0031378
						124:leaf=-0.044644
					62:[D_CATEGORY_MAX_C<33289.6] yes=125,no=126,missing=125
						125:leaf=0.014516
						126:leaf=0.0490553
booster[27]:
0:[C_D_U_TITLEMD5_CATEGORY_MEAN_C<2.77711] yes=1,no=2,missing=1
	1:[C_D_U_CATEGORY_CITY_MACRO_MEAN_COEC<0.041586] yes=3,no=4,missing=4
		3:[D_TITLEMD5_C<20.3966] yes=7,no=8,missing=8
			7:[U_CITY_EC<33966.5] yes=15,no=16,missing=15
				15:[DOC_AGE<1.89111] yes=31,no=32,missing=32
					31:[C_D_U_TITLEMD5_AGE_EC<74.5788] yes=63,no=64,missing=63
						63:leaf=-0.0057342
						64:leaf=0.11275
					32:[WORD_COUNT<1008] yes=65,no=66,missing=66
						65:leaf=-0.0436219
						66:leaf=-0.0243618
				16:[U_AGE_COEC<0.0716689] yes=33,no=34,missing=34
					33:[D_CATEGORY_MEAN_EC<150010] yes=67,no=68,missing=68
						67:leaf=-0.130041
						68:leaf=0.0823881
					34:[TIME_OF_DAY<17] yes=69,no=70,missing=70
						69:leaf=-0.000676493
						70:leaf=-0.0269669
			8:[D_CATEGORY_MACRO_MEAN_COEC<0.043354] yes=17,no=18,missing=18
				17:[C_D_U_TITLEMD5_GENDER_EC<26.4601] yes=35,no=36,missing=36
					35:[D_KEYWORD_MAX_C<22.55] yes=71,no=72,missing=72
						71:leaf=-0.0526044
						72:leaf=0.131454
					36:[D_KEYWORD_MEAN_C<89.6302] yes=73,no=74,missing=74
						73:leaf=0.00561772
						74:leaf=-0.00709899
				18:[U_CITY_COEC<0.0725886] yes=37,no=38,missing=37
					37:[D_TITLEMD5_COEC<0.0484751] yes=75,no=76,missing=76
						75:leaf=-0.0272897
						76:leaf=-0.0115628
					38:[C_D_U_PUBLISHER_GENDER_C<1411.2] yes=77,no=78,missing=77
						77:leaf=0.00842018
						78:leaf=0.0826594
		4:[WORD_COUNT<800] yes=9,no=10,missing=10
			9:[D_KEYWORD_MACRO_MEAN_COEC<0.0365605] yes=19,no=20,missing=20
				19:[U_CATEGORY_MICRO_MAX_COEC<0.147189] yes=39,no=40,missing=39
					39:[D_KEYWORD_MACRO_MAX_COEC<0.0054299] yes=79,no=80,missing=80
						79:leaf=-0.0470003
						80:leaf=-0.0227737
					40:[CAT_REL<0.243608] yes=81,no=82,missing=82
						81:leaf=-0.0166719
						82:leaf=0.0392598
				20:[U_CITY_COEC<0.0699034] yes=41,no=42,missing=41
					41:[C_D_U_CATEGORY_AGE_MAX_EC<111595] yes=83,no=84,missing=83
						83:leaf=-0.00676081
						84:leaf=-0.0216184
					42:[C_D_U_PUBLISHER_GENDER_EC<9341.61] yes=85,no=86,missing=85
						85:leaf=0.0101466
						86:leaf=-0.0236275
			10:[C_D_U_TITLEMD5_GENDER_COEC<0.0656462] yes=21,no=22,missing=22
				21:[C_D_U_PUBLISHER_CITY_COEC<0.0766982] yes=43,no=44,missing=44
					43:[U_CATEGORY_MACRO_MAX_COEC<0.0534709] yes=87,no=88,missing=88
						87:leaf=0.0187823
						88:leaf=-0.0220502
					44:[C_D_U_CATEGORY_GENDER_MEAN_C<2995.78] yes=89,no=90,missing=89
						89:leaf=-0.00782729
						90:leaf=0.0239689
				22:[U_AGE_EC<531117] yes=45,no=46,missing=46
					45:[DOC_AGE<15.8206] yes=91,no=92,missing=92
						91:leaf=0.0139561
						92:leaf=0.00246903
					46:[U_CATEGORY_MICRO_MAX_COEC<0.156187] yes=93,no=94,missing=93
						93:leaf=0.000409178
						94:leaf=0.0310557
	2:[TIME_OF_DAY<11] yes=5,no=6,missing=6
		5:[U_CATEGORY_MICRO_MAX_COEC<0.121286] yes=11,no=12,missing=12
			11:[U_CITY_COEC<0.0676575] yes=23,no=24,missing=23
				23:[DOC_AGE<9.915] yes=47,no=48,missing=48
					47:[D_KEYWORD_MICRO_MEAN_COEC<0.0510963] yes=95,no=96,missing=96
						95:leaf=0.0474076
						96:leaf=0.0167156
					48:[C_D_U_TITLEMD5_CATEGORY_MAX_EC<88.7299] yes=97,no=98,missing=98
						97:leaf=-0.00753459
						98:leaf=0.01226
				24:[DAY_OF_WEEK<2] yes=49,no=50,missing=50
					49:[U_CATEGORY_MEAN_EC<43285.8] yes=99,no=100,missing=100
						99:leaf=0.0417974
						100:leaf=-0.0900216
					50:[U_CATEGORY_MACRO_MAX_COEC<0.0757506] yes=101,no=102,missing=102
						101:leaf=-0.0170097
						102:leaf=0.0228704
			12:[C_D_U_CATEGORY_CATEGORY_MAX_EC<10038.9] yes=25,no=26,missing=25
				25:[U_CITY_COEC<0.0449026] yes=51,no=52,missing=52
					51:[C_D_U_TITLEMD5_AGE_COEC<0.0966946] yes=103,no=104,missing=104
						103:leaf=-0.124788
						104:leaf=0.0158745
					52:[U_CATEGORY_MACRO_MAX_COEC<0.122505] yes=105,no=106,missing=106
						105:leaf=0.0230129
						106:leaf=-0.00356338
				26:[C_D_U_CATEGORY_CATEGORY_MACRO_MAX_COEC<0.0839618] yes=53,no=54,missing=54
					53:[C_D_U_PUBLISHER_GENDER_EC<11665] yes=107,no=108,missing=108
						107:leaf=-0.0190713
						108:leaf=0.0938255
					54:[C_D_U_CATEGORY_CITY_MACRO_MAX_COEC<0.0774613] yes=109,no=110,missing=110
						109:leaf=-0.274382
						110:leaf=0.0289735
		6:[DOC_AGE<13.4028] yes=13,no=14,missing=14
			13:[C_D_U_TITLEMD5_GENDER_C<44.6488] yes=27,no=28,missing=27
				27:[U_CATEGORY_MACRO_MAX_COEC<0.0581244] yes=55,no=56,missing=56
					55:[C_D_U_TITLEMD5_CATEGORY_MACRO_MEAN_COEC<0.23177] yes=111,no=112,missing=112
						111:leaf=0.0128454
						112:leaf=0.037053
					56:[C_D_U_CATEGORY_CITY_MAX_EC<3255.31] yes=113,no=114,missing=114
						113:leaf=0.0128551
						114:leaf=-0.00411638
				28:[U_CATEGORY_MAX_EC<26795.8] yes=57,no=58,missing=58
					57:[U_CATEGORY_MACRO_MEAN_COEC<0.115027] yes=115,no=116,missing=116
						115:leaf=0.0502196
						116:leaf=0.0204855
					58:[U_AGE_COEC<0.0725512] yes=117,no=118,missing=117
						117:leaf=-0.0175069
						118:leaf=0.023282
			14:[C_D_U_TITLEMD5_GENDER_C<22.4872] yes=29,no=30,missing=30
				29:[C_D_U_CATEGORY_CATEGORY_MEAN_EC<17566.2] yes=59,no=60,missing=60
					59:[U_AGE_COEC<0.0718636] yes=119,no=120,missing=120
						119:leaf=-0.263411
						120:leaf=-0.0254047
					60:[C_D_U_KEYWORD_CATEGORY_MAX_C<0.144307] yes=121,no=122,missing=122
						121:leaf=0.112825
						122:leaf=-0.190919
				30:[C_D_U_KEYWORD_CATEGORY_MAX_EC<2.34282] yes=61,no=62,missing=62
					61:[C_D_U_TITLEMD5_CATEGORY_MICRO_MEAN_COEC<0.0874632] yes=123,no=124,missing=124
						123:leaf=-0.174993
						124:leaf=0.0206685
					62:[C_D_U_TITLEMD5_GENDER_C<158.516] yes=125,no=126,missing=125
						125:leaf=-0.00731046
						126:leaf=0.021679
booster[28]:
0:[D_TITLEMD5_COEC<0.0676235] yes=1,no=2,missing=1
	1:[WORD_COUNT<1952] yes=3,no=4,missing=4
		3:[D_KEYWORD_MACRO_MEAN_COEC<0.044198] yes=7,no=8,missing=8
			7:[D_PUBLISHER_COEC<0.0485225] yes=15,no=16,missing=15
				15:[U_CATEGORY_MICRO_MEAN_COEC<0.110029] yes=31,no=32,missing=31
					31:[U_GENDER_C<18070.8] yes=63,no=64,missing=63
						63:leaf=-0.0204639
						64:leaf=-0.0528297
					32:[DOC_AGE<22.6711] yes=65,no=66,missing=66
						65:leaf=-0.00539668
						66:leaf=0.0380803
				16:[D_PUBLISHER_EC<164025] yes=33,no=34,missing=34
					33:[C_D_U_TITLEMD5_CATEGORY_MACRO_MAX_COEC<0.0510294] yes=67,no=68,missing=68
						67:leaf=0.0106602
						68:leaf=-0.00634103
					34:[D_TITLEMD5_C<244.995] yes=69,no=70,missing=69
						69:leaf=-0.0207134
						70:leaf=0.0728868
			8:[U_AGE_C<36112.6] yes=17,no=18,missing=18
				17:[DOC_AGE<11.6756] yes=35,no=36,missing=36
					35:[C_D_U_PUBLISHER_AGE_C<215.996] yes=71,no=72,missing=72
						71:leaf=-0.00823156
						72:leaf=0.024085
					36:[C_D_U_TITLEMD5_AGE_C<40.0922] yes=73,no=74,missing=73
						73:leaf=-0.016383
						74:leaf=0.0100814
				18:[C_D_U_CATEGORY_CITY_MICRO_MEAN_COEC<0.0941442] yes=37,no=38,missing=37
					37:[D_CATEGORY_MEAN_EC<404931] yes=75,no=76,missing=75
						75:leaf=-0.002991
						76:leaf=-0.0126769
					38:[TIME_OF_DAY<18] yes=77,no=78,missing=78
						77:leaf=0.00693856
						78:leaf=0.0355309
		4:[U_CATEGORY_MAX_EC<12031.8] yes=9,no=10,missing=10
			9:[U_CATEGORY_MACRO_MAX_COEC<0.0966731] yes=19,no=20,missing=20
				19:[D_CATEGORY_MAX_EC<462899] yes=39,no=40,missing=39
					39:[C_D_U_CATEGORY_CATEGORY_MICRO_MAX_COEC<0.117289] yes=79,no=80,missing=80
						79:leaf=0.0134457
						80:leaf=0.0307567
					40:[C_D_U_KEYWORD_CATEGORY_MACRO_MEAN_COEC<0.062245] yes=81,no=82,missing=82
						81:leaf=0.057927
						82:leaf=-0.106583
				20:[U_CITY_C<23414.3] yes=41,no=42,missing=41
					41:[TIME_OF_DAY<8] yes=83,no=84,missing=84
						83:leaf=0.027572
						84:leaf=-0.0319054
					42:[C_D_U_CATEGORY_CATEGORY_MACRO_MAX_COEC<0.191517] yes=85,no=86,missing=85
						85:leaf=-0.221474
						86:leaf=0.0556882
			10:[TIME_OF_DAY<6] yes=21,no=22,missing=22
				21:[TIME_OF_DAY<0.999999] yes=43,no=44,missing=44
					43:[D_KEYWORD_MICRO_MEAN_COEC<0.0301127] yes=87,no=88,missing=88
						87:leaf=0.277842
						88:leaf=0.0367169
					44:[C_D_U_CATEGORY_GENDER_MACRO_MEAN_COEC<0.0492486] yes=89,no=90,missing=90
						89:leaf=-0.0298943
						90:leaf=0.0107437
				22:[U_CITY_COEC<0.0564448] yes=45,no=46,missing=46
					45:[D_TITLEMD5_C<300.737] yes=91,no=92,missing=92
						91:leaf=-0.0252376
						92:leaf=-0.00136191
					46:[U_GENDER_COEC<0.0696726] yes=93,no=94,missing=93
						93:leaf=0.00190414
						94:leaf=-0.0172929
	2:[U_CATEGORY_MEAN_EC<46869] yes=5,no=6,missing=6
		5:[D_TITLEMD5_C<2.90144] yes=11,no=12,missing=12
			11:[U_CATEGORY_MICRO_MAX_COEC<0.101324] yes=23,no=24,missing=24
				23:[U_CITY_COEC<0.0625792] yes=47,no=48,missing=48
					47:[C_D_U_CATEGORY_CITY_MACRO_MEAN_COEC<0.0625446] yes=95,no=96,missing=96
						95:leaf=-0.0594941
						96:leaf=-0.151659
					48:[C_D_U_TITLEMD5_CATEGORY_MICRO_MAX_COEC<0.204618] yes=97,no=98,missing=98
						97:leaf=-0.0604584
						98:leaf=0.0485106
				24:[DOC_AGE<11.9308] yes=49,no=50,missing=50
					49:[D_PUBLISHER_COEC<0.0357516] yes=99,no=100,missing=100
						99:leaf=-0.0302188
						100:leaf=0.00916369
					50:[C_D_U_KEYWORD_CATEGORY_MACRO_MAX_COEC<0.00956147] yes=101,no=102,missing=102
						101:leaf=0.0187254
						102:leaf=-0.0704666
			12:[CAT_REL<0.036833] yes=25,no=26,missing=26
				25:[D_TITLEMD5_COEC<0.11328] yes=51,no=52,missing=52
					51:[D_CATEGORY_MAX_C<30790.5] yes=103,no=104,missing=103
						103:leaf=0.012572
						104:leaf=-0.00128809
					52:[C_D_U_CATEGORY_AGE_MACRO_MAX_COEC<0.0365849] yes=105,no=106,missing=106
						105:leaf=-0.0642129
						106:leaf=0.0263711
				26:[C_D_U_CATEGORY_GENDER_MAX_C<597.583] yes=53,no=54,missing=54
					53:[C_D_U_PUBLISHER_CITY_COEC<0.0306501] yes=107,no=108,missing=108
						107:leaf=-0.103451
						108:leaf=-0.0078828
					54:[C_D_U_TITLEMD5_GENDER_COEC<0.113267] yes=109,no=110,missing=109
						109:leaf=0.0185547
						110:leaf=0.0385277
		6:[TIME_OF_DAY<9] yes=13,no=14,missing=14
			13:[D_CATEGORY_MAX_C<38430.7] yes=27,no=28,missing=27
				27:[C_D_U_TITLEMD5_CITY_COEC<0.0963155] yes=55,no=56,missing=56
					55:[WORD_COUNT<1151] yes=111,no=112,missing=112
						111:leaf=-0.000625881
						112:leaf=0.00824523
					56:[D_TITLEMD5_C<14.1102] yes=113,no=114,missing=114
						113:leaf=-0.00652145
						114:leaf=0.0128575
				28:[DOC_AGE<9.16472] yes=57,no=58,missing=58
					57:[WORD_COUNT<1047] yes=115,no=116,missing=116
						115:leaf=0.0216942
						116:leaf=-0.00207323
					58:[U_CITY_EC<32058.1] yes=117,no=118,missing=118
						117:leaf=-0.0157296
						118:leaf=-0.00202452
			14:[DOC_AGE<59.5694] yes=29,no=30,missing=30
				29:[C_D_U_CATEGORY_CITY_MACRO_MEAN_COEC<0.0900114] yes=59,no=60,missing=59
					59:[DAY_OF_WEEK<2] yes=119,no=120,missing=120
						119:leaf=0.000506325
						120:leaf=-0.00851227
					60:[C_D_U_CATEGORY_AGE_MICRO_MAX_COEC<0.105739] yes=121,no=122,missing=121
						121:leaf=0.00677792
						122:leaf=0.0252941
				30:[D_TITLEMD5_COEC<0.0734717] yes=61,no=62,missing=62
					61:[C_D_U_PUBLISHER_GENDER_COEC<0.0701896] yes=123,no=124,missing=124
						123:leaf=0.00609548
						124:leaf=-0.0883158
					62:[D_CATEGORY_MAX_EC<156883] yes=125,no=126,missing=125
						125:leaf=-0.0182341
						126:leaf=-0.0505283
booster[29]:
0:[C_D_U_TITLEMD5_CITY_COEC<0.06716] yes=1,no=2,missing=1
	1:[U_CITY_COEC<0.0659259] yes=3,no=4,missing=4
		3:[C_D_U_TITLEMD5_GENDER_COEC<0.0505896] yes=7,no=8,missing=8
			7:[U_CATEGORY_MACRO_MEAN_COEC<0.112283] yes=15,no=16,missing=15
				15:[DOC_AGE<41.1983] yes=31,no=32,missing=32
					31:[U_CITY_COEC<0.0623526] yes=63,no=64,missing=64
						63:leaf=-0.0323604
						64:leaf=-0.00938804
					32:[U_AGE_COEC<0.0751443] yes=65,no=66,missing=66
						65:leaf=-0.100767
						66:leaf=-0.0420941
				16:[U_CATEGORY_MEAN_C<646.963] yes=33,no=34,missing=34
					33:[DOC_AGE<3.52972] yes=67,no=68,missing=68
						67:leaf=-0.0378072
						68:leaf=-0.19436
					34:[U_CATEGORY_MAX_C<331.111] yes=69,no=70,missing=70
						69:leaf=0.0730916
						70:leaf=-0.00693737
			8:[U_CATEGORY_MACRO_MAX_COEC<0.0520481] yes=17,no=18,missing=18
				17:[U_CATEGORY_MICRO_MAX_COEC<0.124854] yes=35,no=36,missing=36
					35:[D_TITLEMD5_COEC<0.0395734] yes=71,no=72,missing=72
						71:leaf=-0.0516562
						72:leaf=0.00026415
					36:[CAT_REL<0.194005] yes=73,no=74,missing=74
						73:leaf=0.0121175
						74:leaf=0.0388916
				18:[WORD_COUNT<1446] yes=37,no=38,missing=38
					37:[D_KEYWORD_MACRO_MAX_COEC<0.0121025] yes=75,no=76,missing=76
						75:leaf=-0.0160294
						76:leaf=-0.00615696
					38:[D_PUBLISHER_COEC<0.0380252] yes=77,no=78,missing=77
						77:leaf=-0.00946377
						78:leaf=0.000191003
		4:[U_CITY_COEC<0.161318] yes=9,no=10,missing=9
			9:[TIME_OF_DAY<12] yes=19,no=20,missing=20
				19:[C_D_U_TITLEMD5_AGE_C<4.85264] yes=39,no=40,missing=39
					39:[U_CATEGORY_MICRO_MAX_COEC<0.153734] yes=79,no=80,missing=79
						79:leaf=0.00137119
						80:leaf=0.0310492
					40:[U_GENDER_C<17735.2] yes=81,no=82,missing=81
						81:leaf=0.0190809
						82:leaf=-0.00633772
				20:[U_CITY_EC<11244.1] yes=41,no=42,missing=42
					41:[DAY_OF_WEEK<2] yes=83,no=84,missing=84
						83:leaf=0.00974185
						84:leaf=-0.0331302
					42:[U_CATEGORY_MACRO_MAX_COEC<0.0549753] yes=85,no=86,missing=86
						85:leaf=0.0152975
						86:leaf=-0.00922237
			10:[C_D_U_PUBLISHER_CITY_C<0.994999] yes=21,no=22,missing=21
				21:[U_CATEGORY_MAX_C<3309.81] yes=43,no=44,missing=43
					43:[D_PUBLISHER_C<4137.74] yes=87,no=88,missing=88
						87:leaf=0.0499708
						88:leaf=0.00834439
					44:[C_D_U_CATEGORY_AGE_MICRO_MAX_COEC<0.0773364] yes=89,no=90,missing=89
						89:leaf=0.16408
						90:leaf=0.0102776
				22:[C_D_U_CATEGORY_CITY_MACRO_MEAN_COEC<0.352897] yes=45,no=46,missing=45
					45:[LARGE_IMAGE<0.999999] yes=91,no=92,missing=92
						91:leaf=0.0133592
						92:leaf=0.0714581
					46:[D_CATEGORY_MEAN_C<4746.44] yes=93,no=94,missing=94
						93:leaf=-0.0493496
						94:leaf=0.103498
	2:[U_CATEGORY_MEAN_EC<46869] yes=5,no=6,missing=6
		5:[CAT_REL<0.0470421] yes=11,no=12,missing=12
			11:[D_TITLEMD5_EC<9562.53] yes=23,no=24,missing=24
				23:[D_CATEGORY_MEAN_C<7379.53] yes=47,no=48,missing=47
					47:[C_D_U_CATEGORY_GENDER_MICRO_MEAN_COEC<0.0444954] yes=95,no=96,missing=96
						95:leaf=-0.0480786
						96:leaf=0.0181533
					48:[D_TITLEMD5_COEC<0.104996] yes=97,no=98,missing=98
						97:leaf=-0.0032286
						98:leaf=0.0238583
				24:[C_D_U_CATEGORY_AGE_MAX_EC<114765] yes=49,no=50,missing=49
					49:[U_CATEGORY_MICRO_MEAN_COEC<0.100083] yes=99,no=100,missing=100
						99:leaf=-0.00894258
						100:leaf=0.0213644
					50:[U_GENDER_C<19199.6] yes=101,no=102,missing=101
						101:leaf=0.00378874
						102:leaf=-0.275232
			12:[C_D_U_CATEGORY_CATEGORY_MACRO_MAX_COEC<0.101273] yes=25,no=26,missing=26
				25:[C_D_U_CATEGORY_CATEGORY_MICRO_MAX_COEC<0.113066] yes=51,no=52,missing=52
					51:[D_TITLEMD5_C<5.66821] yes=103,no=104,missing=104
						103:leaf=-0.0198567
						104:leaf=0.017892
					52:[C_D_U_CATEGORY_CATEGORY_MICRO_MEAN_COEC<0.123117] yes=105,no=106,missing=106
						105:leaf=0.0368493
						106:leaf=0.0156461
				26:[C_D_U_CATEGORY_CATEGORY_MICRO_MAX_COEC<0.22455] yes=53,no=54,missing=54
					53:[C_D_U_KEYWORD_CATEGORY_MAX_EC<7.30639] yes=107,no=108,missing=108
						107:leaf=0.0196081
						108:leaf=-0.00251582
					54:[C_D_U_TITLEMD5_CITY_C<0.999999] yes=109,no=110,missing=110
						109:leaf=-0.042197
						110:leaf=0.0499375
		6:[DOC_AGE<41.1983] yes=13,no=14,missing=14
			13:[D_PUBLISHER_EC<141825] yes=27,no=28,missing=28
				27:[C_D_U_PUBLISHER_CITY_COEC<0.0631505] yes=55,no=56,missing=56
					55:[C_D_U_TITLEMD5_CITY_C<2.81348] yes=111,no=112,missing=112
						111:leaf=-0.00794478
						112:leaf=0.000521057
					56:[DOC_AGE<11.6075] yes=113,no=114,missing=114
						113:leaf=0.00109868
						114:leaf=0.00763568
				28:[D_KEYWORD_MAX_EC<1321.18] yes=57,no=58,missing=58
					57:[D_CATEGORY_MEAN_EC<435721] yes=115,no=116,missing=115
						115:leaf=0.0193661
						116:leaf=0.00501767
					58:[D_CATEGORY_MAX_EC<435721] yes=117,no=118,missing=117
						117:leaf=0.00656289
						118:leaf=-0.00659454
			14:[C_D_U_PUBLISHER_CITY_C<325.837] yes=29,no=30,missing=30
				29:[D_TITLEMD5_COEC<0.0805616] yes=59,no=60,missing=60
					59:[C_D_U_KEYWORD_CATEGORY_MAX_EC<19.1253] yes=119,no=120,missing=119
						119:leaf=-0.0261443
						120:leaf=0.116132
					60:[U_CITY_EC<1157.37] yes=121,no=122,missing=122
						121:leaf=-0.0583497
						122:leaf=0.0044965
				30:[U_CITY_COEC<0.0620541] yes=61,no=62,missing=62
					61:[U_GENDER_C<19096.1] yes=123,no=124,missing=123
						123:leaf=-0.0182672
						124:leaf=-0.133401
					62:[D_CATEGORY_MACRO_MEAN_COEC<0.0655551] yes=125,no=126,missing=125
						125:leaf=-0.106027
						126:leaf=-0.0463083
booster[30]:
0:[D_TITLEMD5_C<8.67272] yes=1,no=2,missing=1
	1:[DOC_AGE<1.65389] yes=3,no=4,missing=4
		3:[IMAGE_COUNT<0.999999] yes=7,no=8,missing=8
			7:[C_D_U_CATEGORY_CITY_MACRO_MEAN_COEC<0.0525114] yes=15,no=16,missing=15
				15:[C_D_U_CATEGORY_CATEGORY_MACRO_MAX_COEC<0.046295] yes=31,no=32,missing=32
					31:[C_D_U_CATEGORY_AGE_MEAN_EC<30479.7] yes=63,no=64,missing=64
						63:leaf=0.0593699
						64:leaf=-0.0156402
					32:[U_GENDER_COEC<0.069415] yes=65,no=66,missing=65
						65:leaf=-0.0346861
						66:leaf=-0.100795
				16:[D_KEYWORD_MEAN_EC<1986.11] yes=33,no=34,missing=34
					33:[U_CITY_COEC<0.0582576] yes=67,no=68,missing=68
						67:leaf=0.0523206
						68:leaf=-0.0166865
					34:[D_PUBLISHER_COEC<0.0636024] yes=69,no=70,missing=70
						69:leaf=0.047008
						70:leaf=-0.0652226
			8:[D_CATEGORY_MICRO_MAX_COEC<0.0881641] yes=17,no=18,missing=18
				17:[D_KEYWORD_MEAN_EC<1217.07] yes=35,no=36,missing=36
					35:[U_CITY_EC<31185.4] yes=71,no=72,missing=72
						71:leaf=-0.00777512
						72:leaf=0.0205388
					36:[U_AGE_COEC<0.0734467] yes=73,no=74,missing=73
						73:leaf=0.0353993
						74:leaf=-0.00457109
				18:[D_KEYWORD_MICRO_MAX_COEC<0.0635366] yes=37,no=38,missing=38
					37:[D_KEYWORD_MACRO_MAX_COEC<0.00545827] yes=75,no=76,missing=76
						75:leaf=-0.088199
						76:leaf=-0.0202481
					38:[U_CATEGORY_MAX_EC<51067.5] yes=77,no=78,missing=77
						77:leaf=-0.000211304
						78:leaf=0.0837584
		4:[D_PUBLISHER_COEC<0.0458116] yes=9,no=10,missing=9
			9:[D_TITLEMD5_C<3.97005] yes=19,no=20,missing=19
				19:[TIME_OF_DAY<2] yes=39,no=40,missing=40
					39:[C_D_U_CATEGORY_CITY_MACRO_MEAN_COEC<0.037763] yes=79,no=80,missing=80
						79:leaf=-0.0622829
						80:leaf=0.0261187
					40:[U_CATEGORY_MACRO_MAX_COEC<0.0681367] yes=81,no=82,missing=82
						81:leaf=-0.0118862
						82:leaf=-0.0352786
				20:[D_KEYWORD_MAX_C<463.182] yes=41,no=42,missing=42
					41:[D_KEYWORD_MACRO_MAX_COEC<0.0344589] yes=83,no=84,missing=84
						83:leaf=-0.0105811
						84:leaf=-0.10103
					42:[C_D_U_CATEGORY_CITY_MAX_C<70.4438] yes=85,no=86,missing=86
						85:leaf=-0.0172366
						86:leaf=0.04719
			10:[D_KEYWORD_MICRO_MAX_COEC<0.101677] yes=21,no=22,missing=22
				21:[C_D_U_PUBLISHER_GENDER_COEC<0.0773218] yes=43,no=44,missing=44
					43:[D_TITLEMD5_COEC<0.0426419] yes=87,no=88,missing=87
						87:leaf=-0.0451393
						88:leaf=-0.0139902
					44:[U_CATEGORY_MICRO_MAX_COEC<0.159097] yes=89,no=90,missing=89
						89:leaf=-0.0101161
						90:leaf=0.0238628
				22:[TIME_OF_DAY<15] yes=45,no=46,missing=46
					45:[C_D_U_PUBLISHER_CITY_EC<1312.69] yes=91,no=92,missing=92
						91:leaf=-0.0178229
						92:leaf=0.00609922
					46:[C_D_U_CATEGORY_CATEGORY_MICRO_MAX_COEC<0.115127] yes=93,no=94,missing=94
						93:leaf=-0.023002
						94:leaf=0.0287869
	2:[CAT_REL<0.005782] yes=5,no=6,missing=6
		5:[D_TITLEMD5_EC<14452.6] yes=11,no=12,missing=12
			11:[C_D_U_CATEGORY_CITY_MACRO_MAX_COEC<0.100726] yes=23,no=24,missing=23
				23:[WORD_COUNT<1517] yes=47,no=48,missing=48
					47:[D_TITLEMD5_COEC<0.104929] yes=95,no=96,missing=96
						95:leaf=-0.0040325
						96:leaf=0.00487671
					48:[U_AGE_COEC<0.0726418] yes=97,no=98,missing=97
						97:leaf=0.00117457
						98:leaf=0.0104857
				24:[C_D_U_CATEGORY_CITY_MACRO_MEAN_COEC<0.32852] yes=49,no=50,missing=50
					49:[DAY_OF_WEEK<2] yes=99,no=100,missing=100
						99:leaf=0.0131259
						100:leaf=-0.00310821
					50:[C_D_U_CATEGORY_CITY_MEAN_C<0.560421] yes=101,no=102,missing=102
						101:leaf=-0.046653
						102:leaf=0.0638642
			12:[TIME_OF_DAY<7] yes=25,no=26,missing=26
				25:[DAY_OF_WEEK<0.999999] yes=51,no=52,missing=52
					51:[C_D_U_CATEGORY_GENDER_MACRO_MAX_COEC<0.0535159] yes=103,no=104,missing=104
						103:leaf=-0.0458942
						104:leaf=0.023266
					52:[C_D_U_TITLEMD5_CITY_COEC<0.0710043] yes=105,no=106,missing=106
						105:leaf=-0.00135134
						106:leaf=0.0124658
				26:[C_D_U_TITLEMD5_GENDER_COEC<0.0836808] yes=53,no=54,missing=54
					53:[C_D_U_TITLEMD5_CITY_EC<3.88166] yes=107,no=108,missing=108
						107:leaf=0.0391419
						108:leaf=-0.015
					54:[WORD_COUNT<1831] yes=109,no=110,missing=110
						109:leaf=0.00257184
						110:leaf=0.0120423
		6:[DOC_AGE<12.6756] yes=13,no=14,missing=14
			13:[TIME_OF_DAY<11] yes=27,no=28,missing=28
				27:[C_D_U_CATEGORY_GENDER_MAX_C<550.908] yes=55,no=56,missing=56
					55:[U_CATEGORY_MEAN_EC<24872.7] yes=111,no=112,missing=112
						111:leaf=0.0136883
						112:leaf=-0.114518
					56:[C_D_U_TITLEMD5_CATEGORY_MACRO_MEAN_COEC<0.0323607] yes=113,no=114,missing=114
						113:leaf=0.0691769
						114:leaf=0.0259235
				28:[D_TITLEMD5_COEC<0.0310009] yes=57,no=58,missing=58
					57:[DOC_AGE<4.48611] yes=115,no=116,missing=116
						115:leaf=0.0225684
						116:leaf=-0.0364759
					58:[C_D_U_CATEGORY_CATEGORY_MACRO_MAX_COEC<0.0804124] yes=117,no=118,missing=118
						117:leaf=0.0209124
						118:leaf=0.00704417
			14:[TIME_OF_DAY<13] yes=29,no=30,missing=30
				29:[DOC_AGE<20.1994] yes=59,no=60,missing=60
					59:[C_D_U_CATEGORY_CITY_MACRO_MEAN_COEC<0.0304083] yes=119,no=120,missing=120
						119:leaf=-0.060792
						120:leaf=0.00459291
					60:[U_CATEGORY_MACRO_MAX_COEC<0.100745] yes=121,no=122,missing=122
						121:leaf=0.0252122
						122:leaf=-0.00587053
				30:[DAY_OF_WEEK<2] yes=61,no=62,missing=62
					61:[C_D_U_CATEGORY_CITY_MICRO_MAX_COEC<0.0923111] yes=123,no=124,missing=123
						123:leaf=-0.0169283
						124:leaf=0.0226548
					62:[C_D_U_TITLEMD5_CATEGORY_MICRO_MAX_COEC<0.172172] yes=125,no=126,missing=126
						125:leaf=-0.201991
						126:leaf=-0.372832
booster[31]:
0:[C_D_U_CATEGORY_CITY_MICRO_MEAN_COEC<0.0451056] yes=1,no=2,missing=2
	1:[WORD_COUNT<2454] yes=3,no=4,missing=4
		3:[D_KEYWORD_MACRO_MAX_COEC<0.0157211] yes=7,no=8,missing=8
			7:[C_D_U_CATEGORY_CITY_MACRO_MAX_COEC<0.0258507] yes=15,no=16,missing=16
				15:[U_CITY_COEC<0.161318] yes=31,no=32,missing=31
					31:[D_CATEGORY_MICRO_MAX_COEC<0.0486357] yes=63,no=64,missing=64
						63:leaf=-0.0225611
						64:leaf=-0.0456318
					32:[U_CITY_C<15.2563] yes=65,no=66,missing=66
						65:leaf=0.0147908
						66:leaf=0.135802
				16:[C_D_U_PUBLISHER_AGE_COEC<0.0929458] yes=33,no=34,missing=33
					33:[D_TITLEMD5_C<0.946354] yes=67,no=68,missing=68
						67:leaf=-0.0341444
						68:leaf=-0.0106683
					34:[C_D_U_PUBLISHER_CITY_C<1409.31] yes=69,no=70,missing=70
						69:leaf=0.0442732
						70:leaf=-0.151941
			8:[U_CITY_COEC<0.161318] yes=17,no=18,missing=17
				17:[U_CITY_EC<122694] yes=35,no=36,missing=35
					35:[U_AGE_COEC<0.0737131] yes=71,no=72,missing=71
						71:leaf=-0.0106793
						72:leaf=0.00475297
					36:[C_D_U_CATEGORY_AGE_MICRO_MAX_COEC<0.0556043] yes=73,no=74,missing=73
						73:leaf=0.00675925
						74:leaf=-0.0531804
				18:[D_TITLEMD5_COEC<0.099669] yes=37,no=38,missing=38
					37:[C_D_U_TITLEMD5_AGE_COEC<0.0559475] yes=75,no=76,missing=76
						75:leaf=-0.0889283
						76:leaf=0.0713388
					38:[D_KEYWORD_MAX_EC<729.696] yes=77,no=78,missing=78
						77:leaf=-0.00492287
						78:leaf=-0.231484
		4:[C_D_U_PUBLISHER_CITY_C<151.127] yes=9,no=10,missing=9
			9:[C_D_U_CATEGORY_AGE_MAX_EC<12311.5] yes=19,no=20,missing=20
				19:[U_CITY_C<1899.58] yes=39,no=40,missing=39
					39:[C_D_U_CATEGORY_CATEGORY_MACRO_MAX_COEC<0.0224856] yes=79,no=80,missing=80
						79:leaf=0.0552856
						80:leaf=-0.133516
					40:[C_D_U_CATEGORY_CITY_MICRO_MEAN_COEC<0.0310484] yes=81,no=82,missing=82
						81:leaf=0.079967
						82:leaf=-0.115324
				20:[TIME_OF_DAY<0.999999] yes=41,no=42,missing=42
					41:[U_CITY_EC<6524.2] yes=83,no=84,missing=83
						83:leaf=-0.0326152
						84:leaf=0.073526
					42:[D_TITLEMD5_EC<19358.1] yes=85,no=86,missing=86
						85:leaf=-0.0049655
						86:leaf=0.0403611
			10:[U_CITY_COEC<0.0593886] yes=21,no=22,missing=22
				21:[C_D_U_CATEGORY_GENDER_MAX_C<326.437] yes=43,no=44,missing=44
					43:[D_PUBLISHER_C<14650.9] yes=87,no=88,missing=88
						87:leaf=0.189109
						88:leaf=-0.025323
					44:[CAT_REL<0.10094] yes=89,no=90,missing=90
						89:leaf=-0.0294736
						90:leaf=0.061822
				22:[C_D_U_PUBLISHER_CITY_C<2396.85] yes=45,no=46,missing=46
					45:[U_AGE_COEC<0.0738504] yes=91,no=92,missing=91
						91:leaf=0.0164046
						92:leaf=0.0625206
					46:[TIME_OF_DAY<15] yes=93,no=94,missing=94
						93:leaf=0.0804238
						94:leaf=-0.126655
	2:[U_CATEGORY_MACRO_MAX_COEC<0.0972259] yes=5,no=6,missing=6
		5:[WORD_COUNT<1369] yes=11,no=12,missing=12
			11:[TIME_OF_DAY<12] yes=23,no=24,missing=24
				23:[DOC_AGE<24.7908] yes=47,no=48,missing=48
					47:[CAT_REL<0.02457] yes=95,no=96,missing=96
						95:leaf=-0.000126192
						96:leaf=0.0138785
					48:[U_CITY_COEC<0.0705356] yes=97,no=98,missing=97
						97:leaf=0.0305073
						98:leaf=-0.0111056
				24:[D_TITLEMD5_COEC<0.037521] yes=49,no=50,missing=50
					49:[U_CATEGORY_MICRO_MAX_COEC<0.0976292] yes=99,no=100,missing=100
						99:leaf=0.0511232
						100:leaf=-0.0237396
					50:[U_GENDER_EC<253319] yes=101,no=102,missing=102
						101:leaf=-0.0396716
						102:leaf=0.0024228
			12:[U_CATEGORY_MICRO_MAX_COEC<0.150844] yes=25,no=26,missing=26
				25:[U_GENDER_COEC<0.0708748] yes=51,no=52,missing=51
					51:[DOC_AGE<24.7908] yes=103,no=104,missing=104
						103:leaf=0.0119754
						104:leaf=0.0309229
					52:[C_D_U_TITLEMD5_AGE_C<0.994999] yes=105,no=106,missing=106
						105:leaf=-0.0776464
						106:leaf=-0.00558558
				26:[C_D_U_CATEGORY_CATEGORY_MICRO_MAX_COEC<0.141764] yes=53,no=54,missing=54
					53:[U_CATEGORY_MACRO_MAX_COEC<0.0610979] yes=107,no=108,missing=108
						107:leaf=0.029303
						108:leaf=-0.0265698
					54:[DAY_OF_WEEK<0.999999] yes=109,no=110,missing=110
						109:leaf=0.0211965
						110:leaf=0.0425833
		6:[C_D_U_TITLEMD5_CITY_COEC<0.118511] yes=13,no=14,missing=13
			13:[C_D_U_CATEGORY_CITY_MACRO_MAX_COEC<0.160137] yes=27,no=28,missing=27
				27:[DOC_AGE<41.8744] yes=55,no=56,missing=56
					55:[D_TITLEMD5_C<347.765] yes=111,no=112,missing=111
						111:leaf=-0.0031703
						112:leaf=0.00199682
					56:[DAY_OF_WEEK<0.999999] yes=113,no=114,missing=114
						113:leaf=-0.00743008
						114:leaf=-0.0248779
				28:[C_D_U_PUBLISHER_CITY_C<0.936914] yes=57,no=58,missing=58
					57:[C_D_U_PUBLISHER_CITY_COEC<0.118708] yes=115,no=116,missing=116
						115:leaf=0.0236476
						116:leaf=-0.0464187
					58:[DOC_AGE<7.59472] yes=117,no=118,missing=118
						117:leaf=0.0230536
						118:leaf=0.065329
			14:[D_PUBLISHER_C<7909.27] yes=29,no=30,missing=30
				29:[DOC_AGE<41.8744] yes=59,no=60,missing=60
					59:[D_KEYWORD_MICRO_MAX_COEC<0.0506414] yes=119,no=120,missing=120
						119:leaf=-0.0353886
						120:leaf=0.00537462
					60:[C_D_U_PUBLISHER_CITY_EC<2118.81] yes=121,no=122,missing=122
						121:leaf=-0.010213
						122:leaf=-0.0639805
				30:[D_CATEGORY_MAX_EC<66762.2] yes=61,no=62,missing=62
					61:[U_CITY_COEC<0.0615709] yes=123,no=124,missing=124
						123:leaf=0.0818121
						124:leaf=0.010582
					62:[C_D_U_TITLEMD5_CITY_C<7.87541] yes=125,no=126,missing=126
						125:leaf=0.0064078
						126:leaf=0.0185195
booster[32]:
0:[D_TITLEMD5_COEC<0.0690972] yes=1,no=2,missing=1
	1:[WORD_COUNT<3639] yes=3,no=4,missing=4
		3:[C_D_U_CATEGORY_CITY_MACRO_MAX_COEC<0.160137] yes=7,no=8,missing=7
			7:[C_D_U_TITLEMD5_CITY_COEC<0.0573192] yes=15,no=16,missing=15
				15:[CAT_REL<0.058824] yes=31,no=32,missing=32
					31:[C_D_U_CATEGORY_GENDER_MICRO_MAX_COEC<0.0625257] yes=63,no=64,missing=64
						63:leaf=-0.0214508
						64:leaf=-0.00609317
					32:[DOC_AGE<1.79778] yes=65,no=66,missing=66
						65:leaf=0.0238483
						66:leaf=0.000943884
				16:[C_D_U_TITLEMD5_CITY_C<6.9203] yes=33,no=34,missing=34
					33:[CAT_REL<0.080679] yes=67,no=68,missing=68
						67:leaf=-0.00376069
						68:leaf=0.0142121
					34:[C_D_U_TITLEMD5_CITY_COEC<0.0781137] yes=69,no=70,missing=70
						69:leaf=0.00210481
						70:leaf=0.0209312
			8:[C_D_U_CATEGORY_CITY_MEAN_C<8.21488] yes=17,no=18,missing=18
				17:[D_TITLEMD5_EC<19181.9] yes=35,no=36,missing=36
					35:[U_CITY_C<2.50148] yes=71,no=72,missing=72
						71:leaf=-0.0334813
						72:leaf=0.031245
					36:[D_KEYWORD_MACRO_MEAN_COEC<0.0346265] yes=73,no=74,missing=74
						73:leaf=-0.129577
						74:leaf=-0.213626
				18:[C_D_U_KEYWORD_CATEGORY_MAX_C<7.9099] yes=37,no=38,missing=37
					37:[D_TITLEMD5_EC<7036.56] yes=75,no=76,missing=75
						75:leaf=0.0681173
						76:leaf=-0.043241
					38:leaf=-0.204982
		4:[D_CATEGORY_MEAN_EC<411894] yes=9,no=10,missing=10
			9:[D_TITLEMD5_C<1360.96] yes=19,no=20,missing=20
				19:[C_D_U_CATEGORY_CITY_MICRO_MEAN_COEC<0.0359587] yes=39,no=40,missing=40
					39:[D_PUBLISHER_EC<287181] yes=77,no=78,missing=78
						77:leaf=-0.0021915
						78:leaf=-0.0882236
					40:[D_CATEGORY_MAX_C<3724.01] yes=79,no=80,missing=80
						79:leaf=0.00420039
						80:leaf=0.0156511
				20:[C_D_U_PUBLISHER_AGE_COEC<0.0543006] yes=41,no=42,missing=41
					41:[D_KEYWORD_MICRO_MAX_COEC<0.0997465] yes=81,no=82,missing=82
						81:leaf=0.101014
						82:leaf=-0.0869889
					42:[U_CATEGORY_MACRO_MAX_COEC<0.0436866] yes=83,no=84,missing=84
						83:leaf=0.219822
						84:leaf=-0.0969641
			10:[U_CATEGORY_MACRO_MEAN_COEC<0.0999507] yes=21,no=22,missing=21
				21:[D_KEYWORD_MACRO_MAX_COEC<0.028495] yes=43,no=44,missing=44
					43:[D_TITLEMD5_COEC<0.0627441] yes=85,no=86,missing=85
						85:leaf=-0.00816387
						86:leaf=-0.0509242
					44:[C_D_U_TITLEMD5_AGE_COEC<0.039144] yes=87,no=88,missing=88
						87:leaf=0.13429
						88:leaf=-0.0900855
				22:[U_CITY_COEC<0.0566301] yes=45,no=46,missing=46
					45:[D_PUBLISHER_COEC<0.0604772] yes=89,no=90,missing=90
						89:leaf=0.00286752
						90:leaf=-0.175712
					46:[C_D_U_TITLEMD5_AGE_EC<833.859] yes=91,no=92,missing=92
						91:leaf=0.056153
						92:leaf=0.0132493
	2:[C_D_U_TITLEMD5_GENDER_COEC<0.100235] yes=5,no=6,missing=6
		5:[DOC_AGE<17.5117] yes=11,no=12,missing=12
			11:[C_D_U_PUBLISHER_CITY_COEC<0.110272] yes=23,no=24,missing=24
				23:[C_D_U_TITLEMD5_GENDER_COEC<0.0418952] yes=47,no=48,missing=48
					47:[U_CATEGORY_MACRO_MAX_COEC<0.0603714] yes=93,no=94,missing=94
						93:leaf=0.019014
						94:leaf=-0.0359298
					48:[U_CATEGORY_MICRO_MAX_COEC<0.116809] yes=95,no=96,missing=95
						95:leaf=-0.00526553
						96:leaf=0.0151208
				24:[C_D_U_CATEGORY_GENDER_MACRO_MEAN_COEC<0.0521324] yes=49,no=50,missing=50
					49:[C_D_U_TITLEMD5_AGE_C<131.311] yes=97,no=98,missing=97
						97:leaf=-0.0115841
						98:leaf=-0.131584
					50:[C_D_U_TITLEMD5_GENDER_EC<636.448] yes=99,no=100,missing=100
						99:leaf=0.029521
						100:leaf=0.00254116
			12:[C_D_U_TITLEMD5_AGE_C<2.91648] yes=25,no=26,missing=26
				25:[C_D_U_KEYWORD_CATEGORY_MAX_C<0.265705] yes=51,no=52,missing=52
					51:[C_D_U_CATEGORY_CATEGORY_MEAN_EC<1065.21] yes=101,no=102,missing=102
						101:leaf=-0.217678
						102:leaf=0.0816343
					52:[DOC_AGE<35.6572] yes=103,no=104,missing=104
						103:leaf=-0.0779244
						104:leaf=-0.183172
				26:[TIME_OF_DAY<9] yes=53,no=54,missing=54
					53:[D_KEYWORD_MEAN_C<171.28] yes=105,no=106,missing=106
						105:leaf=0.0184931
						106:leaf=-0.0158337
					54:[U_GENDER_COEC<0.070668] yes=107,no=108,missing=108
						107:leaf=-0.0119857
						108:leaf=-0.0353325
		6:[C_D_U_KEYWORD_CATEGORY_MICRO_MAX_COEC<0.317846] yes=13,no=14,missing=13
			13:[D_CATEGORY_MAX_EC<435721] yes=27,no=28,missing=28
				27:[D_TITLEMD5_C<13.7127] yes=55,no=56,missing=56
					55:[D_CATEGORY_MAX_C<33440.1] yes=109,no=110,missing=110
						109:leaf=-0.00565126
						110:leaf=0.0370161
					56:[C_D_U_TITLEMD5_CITY_COEC<0.132691] yes=111,no=112,missing=111
						111:leaf=0.0050945
						112:leaf=0.0142894
				28:[WORD_COUNT<1491] yes=57,no=58,missing=58
					57:[DOC_AGE<3.88917] yes=113,no=114,missing=114
						113:leaf=0.00556884
						114:leaf=-0.00335503
					58:[D_KEYWORD_MACRO_MEAN_COEC<0.0964757] yes=115,no=116,missing=116
						115:leaf=0.00190286
						116:leaf=0.012089
			14:[WORD_COUNT<935] yes=29,no=30,missing=30
				29:[C_D_U_CATEGORY_CATEGORY_MICRO_MAX_COEC<0.1228] yes=59,no=60,missing=60
					59:[C_D_U_KEYWORD_CATEGORY_MAX_EC<0.560047] yes=117,no=118,missing=118
						117:leaf=-0.19905
						118:leaf=-0.0250136
					60:[U_CITY_EC<392865] yes=119,no=120,missing=119
						119:leaf=0.00613016
						120:leaf=0.0728778
				30:[D_KEYWORD_MICRO_MAX_COEC<0.0630468] yes=61,no=62,missing=62
					61:[C_D_U_TITLEMD5_CITY_COEC<0.110108] yes=121,no=122,missing=121
						121:leaf=-0.247624
						122:leaf=-0.000629362
					62:[C_D_U_PUBLISHER_GENDER_COEC<0.0334383] yes=123,no=124,missing=124
						123:leaf=-0.178083
						124:leaf=0.021129
booster[33]:
0:[C_D_U_CATEGORY_CITY_MACRO_MEAN_COEC<0.0898437] yes=1,no=2,missing=1
	1:[TIME_OF_DAY<6] yes=3,no=4,missing=4
		3:[DAY_OF_WEEK<0.999999] yes=7,no=8,missing=8
			7:[U_CITY_C<5735.02] yes=15,no=16,missing=16
				15:[D_KEYWORD_MACRO_MEAN_COEC<0.0413024] yes=31,no=32,missing=32
					31:[U_CATEGORY_MICRO_MEAN_COEC<0.121401] yes=63,no=64,missing=64
						63:leaf=-0.0520383
						64:leaf=0.00532804
					32:[U_CITY_EC<6682.5] yes=65,no=66,missing=66
						65:leaf=0.0107681
						66:leaf=0.0233346
				16:[TIME_OF_DAY<3] yes=33,no=34,missing=34
					33:[U_GENDER_COEC<0.0728992] yes=67,no=68,missing=67
						67:leaf=0.0129093
						68:leaf=0.0784997
					34:[U_CATEGORY_MEAN_C<646.963] yes=69,no=70,missing=70
						69:leaf=-0.0889269
						70:leaf=-0.00107807
			8:[WORD_COUNT<1831] yes=17,no=18,missing=18
				17:[U_CATEGORY_MACRO_MAX_COEC<0.102581] yes=35,no=36,missing=36
					35:[U_CITY_EC<146191] yes=71,no=72,missing=71
						71:leaf=0.0125492
						72:leaf=-0.00755819
					36:[D_TITLEMD5_C<576.951] yes=73,no=74,missing=73
						73:leaf=-0.00729343
						74:leaf=0.00358394
				18:[D_TITLEMD5_COEC<0.0580426] yes=37,no=38,missing=38
					37:[C_D_U_CATEGORY_CITY_MACRO_MAX_COEC<0.0316838] yes=75,no=76,missing=76
						75:leaf=-0.0151072
						76:leaf=0.00837002
					38:[D_CATEGORY_MACRO_MAX_COEC<0.0243511] yes=77,no=78,missing=78
						77:leaf=0.0371286
						78:leaf=0.0124787
		4:[U_CITY_COEC<0.0572385] yes=9,no=10,missing=10
			9:[C_D_U_CATEGORY_CITY_MICRO_MEAN_COEC<0.0356308] yes=19,no=20,missing=19
				19:[C_D_U_TITLEMD5_AGE_C<123.803] yes=39,no=40,missing=39
					39:[D_TITLEMD5_C<4.73971] yes=79,no=80,missing=79
						79:leaf=-0.0432059
						80:leaf=-0.0200897
					40:[U_CITY_C<1487.85] yes=81,no=82,missing=82
						81:leaf=0.00294493
						82:leaf=-0.0619536
				20:[D_CATEGORY_MICRO_MAX_COEC<0.0377609] yes=41,no=42,missing=42
					41:[D_TITLEMD5_EC<37.1392] yes=83,no=84,missing=83
						83:leaf=0.18754
						84:leaf=0.00797014
					42:[DOC_AGE<15.5269] yes=85,no=86,missing=86
						85:leaf=-0.00512475
						86:leaf=-0.0178732
			10:[U_CATEGORY_MICRO_MAX_COEC<0.122626] yes=21,no=22,missing=21
				21:[D_TITLEMD5_C<53.4744] yes=43,no=44,missing=43
					43:[DOC_AGE<3.75305] yes=87,no=88,missing=88
						87:leaf=-0.000938114
						88:leaf=-0.0129547
					44:[D_CATEGORY_MAX_EC<462955] yes=89,no=90,missing=90
						89:leaf=0.0009718
						90:leaf=-0.00502191
				22:[U_CITY_C<316.192] yes=45,no=46,missing=46
					45:[D_TITLEMD5_EC<1023.46] yes=91,no=92,missing=92
						91:leaf=-0.0391547
						92:leaf=-0.00399681
					46:[TIME_OF_DAY<9] yes=93,no=94,missing=94
						93:leaf=0.0197894
						94:leaf=0.00529654
	2:[TIME_OF_DAY<18] yes=5,no=6,missing=6
		5:[C_D_U_CATEGORY_CITY_MACRO_MAX_COEC<0.317634] yes=11,no=12,missing=12
			11:[D_CATEGORY_MAX_C<37429.1] yes=23,no=24,missing=24
				23:[U_CATEGORY_MAX_EC<20259.6] yes=47,no=48,missing=47
					47:[C_D_U_CATEGORY_CITY_MAX_C<6.41365] yes=95,no=96,missing=96
						95:leaf=-0.00454011
						96:leaf=0.00938091
					48:[D_CATEGORY_MICRO_MAX_COEC<0.0875563] yes=97,no=98,missing=98
						97:leaf=0.0547152
						98:leaf=0.0116078
				24:[C_D_U_CATEGORY_CATEGORY_MICRO_MAX_COEC<0.224389] yes=49,no=50,missing=49
					49:[C_D_U_TITLEMD5_CATEGORY_MICRO_MAX_COEC<0.0598202] yes=99,no=100,missing=100
						99:leaf=-0.0602249
						100:leaf=-0.000767117
					50:[C_D_U_CATEGORY_CATEGORY_MAX_EC<775.053] yes=101,no=102,missing=102
						101:leaf=-0.0633359
						102:leaf=0.052794
			12:[C_D_U_CATEGORY_CITY_MEAN_C<1.90111] yes=25,no=26,missing=26
				25:[C_D_U_CATEGORY_AGE_MAX_EC<132840] yes=51,no=52,missing=51
					51:[U_CATEGORY_MACRO_MEAN_COEC<0.122295] yes=103,no=104,missing=103
						103:leaf=0.026635
						104:leaf=-0.193945
					52:[C_D_U_TITLEMD5_GENDER_C<164.869] yes=105,no=106,missing=106
						105:leaf=-0.0403353
						106:leaf=-0.238495
				26:[C_D_U_TITLEMD5_CITY_C<0.886652] yes=53,no=54,missing=53
					53:[U_AGE_COEC<0.073004] yes=107,no=108,missing=107
						107:leaf=0.0617772
						108:leaf=0.104128
					54:[D_KEYWORD_MACRO_MAX_COEC<0.0376681] yes=109,no=110,missing=110
						109:leaf=-0.222271
						110:leaf=0.0783407
		6:[C_D_U_CATEGORY_CITY_MEAN_EC<2622.89] yes=13,no=14,missing=14
			13:[D_CATEGORY_MEAN_C<2625.64] yes=27,no=28,missing=28
				27:[U_CITY_COEC<0.069462] yes=55,no=56,missing=56
					55:[D_TITLEMD5_COEC<0.0439876] yes=111,no=112,missing=111
						111:leaf=0.225332
						112:leaf=-0.0383472
					56:[D_KEYWORD_MACRO_MAX_COEC<0.0192443] yes=113,no=114,missing=114
						113:leaf=-0.163009
						114:leaf=0.0637497
				28:[C_D_U_TITLEMD5_GENDER_C<1.93114] yes=57,no=58,missing=58
					57:[U_AGE_C<37455.3] yes=115,no=116,missing=115
						115:leaf=-0.175747
						116:leaf=-0.00864991
					58:[C_D_U_CATEGORY_CATEGORY_MEAN_EC<16522.9] yes=117,no=118,missing=117
						117:leaf=0.0236118
						118:leaf=0.0678255
			14:[U_GENDER_C<18723] yes=29,no=30,missing=30
				29:[C_D_U_CATEGORY_CITY_MICRO_MAX_COEC<0.0909736] yes=59,no=60,missing=60
					59:[C_D_U_PUBLISHER_AGE_COEC<0.0721772] yes=119,no=120,missing=119
						119:leaf=0.129887
						120:leaf=-0.0276292
					60:[D_KEYWORD_MACRO_MAX_COEC<0.04988] yes=121,no=122,missing=122
						121:leaf=-0.207054
						122:leaf=-0.0153914
				30:[U_AGE_EC<615408] yes=61,no=62,missing=61
					61:[C_D_U_CATEGORY_CITY_MAX_C<1080.51] yes=123,no=124,missing=124
						123:leaf=0.01303
						124:leaf=-0.0962956
					62:[C_D_U_TITLEMD5_CITY_EC<66.8179] yes=125,no=126,missing=126
						125:leaf=-0.0739735
						126:leaf=0.00543173
booster[34]:
0:[U_CITY_COEC<0.0446969] yes=1,no=2,missing=2
	1:[TIME_OF_DAY<18] yes=3,no=4,missing=4
		3:[U_GENDER_C<18442.4] yes=7,no=8,missing=7
			7:[D_KEYWORD_MICRO_MEAN_COEC<0.0484119] yes=15,no=16,missing=16
				15:[TIME_OF_DAY<17] yes=31,no=32,missing=32
					31:[C_D_U_TITLEMD5_CATEGORY_MEAN_C<3.74008] yes=63,no=64,missing=63
						63:leaf=-0.0409394
						64:leaf=-0.212083
					32:[D_KEYWORD_MACRO_MAX_COEC<0.0144283] yes=65,no=66,missing=66
						65:leaf=0.0867432
						66:leaf=-0.0890372
				16:[TIME_OF_DAY<15] yes=33,no=34,missing=34
					33:[C_D_U_CATEGORY_CITY_MEAN_EC<1258.92] yes=67,no=68,missing=67
						67:leaf=-0.012234
						68:leaf=-0.0942553
					34:[U_AGE_COEC<0.0741272] yes=69,no=70,missing=69
						69:leaf=0.00696772
						70:leaf=0.103079
			8:[C_D_U_KEYWORD_CATEGORY_MICRO_MEAN_COEC<0.106487] yes=17,no=18,missing=18
				17:[C_D_U_CATEGORY_CATEGORY_MICRO_MAX_COEC<0.0803552] yes=35,no=36,missing=36
					35:leaf=-0.0427628
					36:[C_D_U_TITLEMD5_AGE_C<3.60499] yes=71,no=72,missing=71
						71:leaf=0.225132
						72:leaf=0.121042
				18:[U_GENDER_COEC<0.0709405] yes=37,no=38,missing=38
					37:[D_KEYWORD_MICRO_MAX_COEC<0.0668705] yes=73,no=74,missing=74
						73:leaf=-0.027345
						74:leaf=0.0742496
					38:[C_D_U_TITLEMD5_CATEGORY_MAX_EC<11.3475] yes=75,no=76,missing=76
						75:leaf=-0.280653
						76:leaf=-0.0221269
		4:[C_D_U_TITLEMD5_AGE_C<28.9867] yes=9,no=10,missing=9
			9:[U_CITY_COEC<0.0336422] yes=19,no=20,missing=20
				19:[D_TITLEMD5_COEC<0.0557772] yes=39,no=40,missing=40
					39:[C_D_U_PUBLISHER_CITY_EC<6.54147] yes=77,no=78,missing=77
						77:leaf=0.0453834
						78:leaf=-0.0801393
					40:[C_D_U_CATEGORY_CITY_MACRO_MEAN_COEC<0.105508] yes=79,no=80,missing=79
						79:leaf=-0.0504258
						80:leaf=0.122912
				20:[U_GENDER_EC<282404] yes=41,no=42,missing=41
					41:[DOC_AGE<12.3567] yes=81,no=82,missing=82
						81:leaf=-0.056754
						82:leaf=-0.110008
					42:[C_D_U_PUBLISHER_CITY_C<0.999999] yes=83,no=84,missing=84
						83:leaf=-0.0851801
						84:leaf=0.22834
			10:[TIME_OF_DAY<21] yes=21,no=22,missing=22
				21:[C_D_U_PUBLISHER_CITY_C<41.0553] yes=43,no=44,missing=44
					43:[D_PUBLISHER_COEC<0.0378427] yes=85,no=86,missing=86
						85:leaf=-0.179514
						86:leaf=0.00164223
					44:[C_D_U_CATEGORY_GENDER_MICRO_MAX_COEC<0.075818] yes=87,no=88,missing=88
						87:leaf=0.146698
						88:leaf=0.0102012
				22:[U_CATEGORY_MICRO_MEAN_COEC<0.097002] yes=45,no=46,missing=46
					45:[U_CITY_C<2.50148] yes=89,no=90,missing=90
						89:leaf=0.142973
						90:leaf=0.0174494
					46:[DOC_AGE<10.4189] yes=91,no=92,missing=92
						91:leaf=-0.0376881
						92:leaf=-0.152927
	2:[D_KEYWORD_MACRO_MEAN_COEC<0.0318267] yes=5,no=6,missing=6
		5:[U_CATEGORY_MACRO_MAX_COEC<0.0367721] yes=11,no=12,missing=12
			11:[C_D_U_CATEGORY_AGE_MEAN_C<1179.27] yes=23,no=24,missing=24
				23:[U_CATEGORY_MAX_C<441.373] yes=47,no=48,missing=48
					47:[U_AGE_EC<502696] yes=93,no=94,missing=94
						93:leaf=-0.196318
						94:leaf=0.117063
					48:leaf=-0.181198
				24:[D_PUBLISHER_EC<42997.2] yes=49,no=50,missing=50
					49:[C_D_U_CATEGORY_CITY_MICRO_MAX_COEC<0.0393] yes=95,no=96,missing=95
						95:leaf=0.069463
						96:leaf=-0.0416355
					50:[C_D_U_PUBLISHER_CITY_COEC<0.0567035] yes=97,no=98,missing=98
						97:leaf=0.120594
						98:leaf=0.0549415
			12:[D_KEYWORD_MAX_C<37.2966] yes=25,no=26,missing=26
				25:[WORD_COUNT<1071] yes=51,no=52,missing=52
					51:[C_D_U_PUBLISHER_AGE_C<3019.04] yes=99,no=100,missing=99
						99:leaf=-0.0137569
						100:leaf=-0.0548702
					52:[U_CITY_C<409.94] yes=101,no=102,missing=101
						101:leaf=-0.0150279
						102:leaf=0.00375241
				26:[C_D_U_KEYWORD_CATEGORY_MEAN_C<3.5285] yes=53,no=54,missing=53
					53:[C_D_U_TITLEMD5_GENDER_EC<121.773] yes=103,no=104,missing=103
						103:leaf=-0.0291176
						104:leaf=0.0937472
					54:[U_CITY_COEC<0.0608078] yes=105,no=106,missing=106
						105:leaf=-0.0500641
						106:leaf=0.0396148
		6:[CAT_REL<0.0042108] yes=13,no=14,missing=14
			13:[U_AGE_C<33440.9] yes=27,no=28,missing=28
				27:[U_AGE_1<0.999999] yes=55,no=56,missing=56
					55:[U_CATEGORY_MICRO_MEAN_COEC<0.157952] yes=107,no=108,missing=107
						107:leaf=0.0187931
						108:leaf=-0.10158
					56:[U_GENDER_EC<282404] yes=109,no=110,missing=109
						109:leaf=-0.0181379
						110:leaf=-0.111315
				28:[C_D_U_TITLEMD5_GENDER_COEC<0.0482854] yes=57,no=58,missing=58
					57:[C_D_U_PUBLISHER_CITY_C<0.335297] yes=111,no=112,missing=111
						111:leaf=0.000189099
						112:leaf=-0.0223685
					58:[WORD_COUNT<1511] yes=113,no=114,missing=114
						113:leaf=-0.00149817
						114:leaf=0.00364435
			14:[IMAGE_COUNT<0.999999] yes=29,no=30,missing=30
				29:[D_TITLEMD5_C<2.88732] yes=59,no=60,missing=60
					59:[DOC_AGE<1.67583] yes=115,no=116,missing=116
						115:leaf=0.00121601
						116:leaf=-0.0370326
					60:[C_D_U_PUBLISHER_CITY_COEC<0.0711431] yes=117,no=118,missing=117
						117:leaf=-0.00469306
						118:leaf=0.032053
				30:[U_CATEGORY_MACRO_MAX_COEC<0.0526635] yes=61,no=62,missing=62
					61:[C_D_U_CATEGORY_CATEGORY_MACRO_MEAN_COEC<0.069366] yes=119,no=120,missing=120
						119:leaf=-0.0209783
						120:leaf=0.0224351
					62:[DOC_AGE<5.66111] yes=121,no=122,missing=122
						121:leaf=0.0164114
						122:leaf=0.00441082
booster[35]:
0:[C_D_U_PUBLISHER_CITY_COEC<0.0629652] yes=1,no=2,missing=2
	1:[C_D_U_TITLEMD5_GENDER_COEC<0.0634357] yes=3,no=4,missing=4
		3:[U_CATEGORY_MACRO_MAX_COEC<0.0609515] yes=7,no=8,missing=8
			7:[C_D_U_CATEGORY_CATEGORY_MEAN_EC<5184.35] yes=15,no=16,missing=15
				15:[C_D_U_CATEGORY_CITY_MEAN_EC<1500.96] yes=31,no=32,missing=32
					31:[C_D_U_TITLEMD5_GENDER_C<27.6839] yes=63,no=64,missing=64
						63:leaf=-0.0259692
						64:leaf=0.0586294
					32:[U_AGE_COEC<0.0717005] yes=65,no=66,missing=66
						65:leaf=-0.119834
						66:leaf=0.0273613
				16:[D_TITLEMD5_COEC<0.0610059] yes=33,no=34,missing=34
					33:[D_KEYWORD_MEAN_EC<977.221] yes=67,no=68,missing=68
						67:leaf=-0.0142819
						68:leaf=-0.133028
					34:[C_D_U_PUBLISHER_CITY_COEC<0.0473114] yes=69,no=70,missing=70
						69:leaf=0.0871589
						70:leaf=-0.059429
			8:[C_D_U_CATEGORY_GENDER_MEAN_EC<55665.2] yes=17,no=18,missing=17
				17:[DOC_AGE<18.1783] yes=35,no=36,missing=36
					35:[C_D_U_CATEGORY_GENDER_MAX_EC<11708] yes=71,no=72,missing=71
						71:leaf=-0.0199265
						72:leaf=-0.00165407
					36:[U_GENDER_C<18549.7] yes=73,no=74,missing=74
						73:leaf=-0.0227515
						74:leaf=-0.0594705
				18:[D_KEYWORD_MICRO_MAX_COEC<0.0625404] yes=37,no=38,missing=38
					37:[C_D_U_TITLEMD5_CATEGORY_MAX_C<7.54187] yes=75,no=76,missing=75
						75:leaf=-0.10142
						76:leaf=0.0818375
					38:[C_D_U_PUBLISHER_AGE_C<2717.98] yes=77,no=78,missing=78
						77:leaf=-0.0209534
						78:leaf=-0.0623047
		4:[WORD_COUNT<1491] yes=9,no=10,missing=10
			9:[D_KEYWORD_MACRO_MEAN_COEC<0.0245244] yes=19,no=20,missing=20
				19:[C_D_U_CATEGORY_CITY_MACRO_MAX_COEC<0.0368661] yes=39,no=40,missing=40
					39:[DOC_AGE<3.14555] yes=79,no=80,missing=80
						79:leaf=-0.0209308
						80:leaf=-0.0655592
					40:[C_D_U_PUBLISHER_CITY_EC<6.33705] yes=81,no=82,missing=82
						81:leaf=0.0578385
						82:leaf=-0.0204506
				20:[DOC_AGE<12.1358] yes=41,no=42,missing=42
					41:[DAY_OF_WEEK<0.999999] yes=83,no=84,missing=84
						83:leaf=0.00200688
						84:leaf=-0.00436262
					42:[D_CATEGORY_MEAN_EC<338194] yes=85,no=86,missing=85
						85:leaf=-0.00371541
						86:leaf=-0.0146965
			10:[U_CITY_COEC<0.0447565] yes=21,no=22,missing=22
				21:[U_CITY_EC<2828.7] yes=43,no=44,missing=44
					43:[TIME_OF_DAY<18] yes=87,no=88,missing=88
						87:leaf=-0.00493802
						88:leaf=-0.0410111
					44:[DAY_OF_WEEK<0.999999] yes=89,no=90,missing=90
						89:leaf=-0.00530582
						90:leaf=-0.0756524
				22:[D_PUBLISHER_COEC<0.0380564] yes=45,no=46,missing=46
					45:[WORD_COUNT<5610] yes=91,no=92,missing=92
						91:leaf=-0.00826095
						92:leaf=0.00893882
					46:[TIME_OF_DAY<19] yes=93,no=94,missing=94
						93:leaf=0.00321564
						94:leaf=0.0134852
	2:[U_AGE_COEC<0.0728175] yes=5,no=6,missing=5
		5:[U_CATEGORY_MICRO_MAX_COEC<0.154173] yes=11,no=12,missing=11
			11:[DOC_AGE<58.8503] yes=23,no=24,missing=24
				23:[D_TITLEMD5_C<1167.97] yes=47,no=48,missing=48
					47:[C_D_U_CATEGORY_CITY_MACRO_MEAN_COEC<0.0938413] yes=95,no=96,missing=95
						95:leaf=-0.00179184
						96:leaf=0.00766332
					48:[DOC_AGE<21.8247] yes=97,no=98,missing=98
						97:leaf=0.00212762
						98:leaf=0.0124435
				24:[C_D_U_TITLEMD5_CATEGORY_MAX_C<3.77247] yes=49,no=50,missing=50
					49:[U_CITY_C<4797.2] yes=99,no=100,missing=100
						99:leaf=0.0751479
						100:leaf=0.00394571
					50:[D_CATEGORY_MICRO_MAX_COEC<0.0690618] yes=101,no=102,missing=102
						101:leaf=-0.0547233
						102:leaf=-0.0240964
			12:[C_D_U_CATEGORY_CATEGORY_MAX_EC<1012.21] yes=25,no=26,missing=26
				25:[U_CATEGORY_MICRO_MAX_COEC<0.194958] yes=51,no=52,missing=52
					51:[U_CATEGORY_MACRO_MEAN_COEC<0.127232] yes=103,no=104,missing=104
						103:leaf=0.0353584
						104:leaf=-0.000335477
					52:[C_D_U_CATEGORY_CATEGORY_MEAN_EC<1056.61] yes=105,no=106,missing=106
						105:leaf=0.0786419
						106:leaf=-0.067452
				26:[C_D_U_TITLEMD5_CATEGORY_MACRO_MEAN_COEC<0.0458911] yes=53,no=54,missing=54
					53:[U_CITY_COEC<0.0650694] yes=107,no=108,missing=107
						107:leaf=0.0501398
						108:leaf=0.103665
					54:[U_CATEGORY_MEAN_EC<33361.5] yes=109,no=110,missing=110
						109:leaf=0.0324091
						110:leaf=0.113585
		6:[WORD_COUNT<948] yes=13,no=14,missing=14
			13:[C_D_U_CATEGORY_CITY_MICRO_MEAN_COEC<0.0850736] yes=27,no=28,missing=28
				27:[C_D_U_PUBLISHER_AGE_COEC<0.0835987] yes=55,no=56,missing=55
					55:[U_GENDER_EC<263439] yes=111,no=112,missing=112
						111:leaf=-0.0313157
						112:leaf=-0.00868163
					56:[D_KEYWORD_MICRO_MAX_COEC<0.0701971] yes=113,no=114,missing=114
						113:leaf=0.0276571
						114:leaf=-0.00503876
				28:[U_CATEGORY_MAX_C<522.466] yes=57,no=58,missing=58
					57:[C_D_U_CATEGORY_CATEGORY_MICRO_MEAN_COEC<0.176931] yes=115,no=116,missing=116
						115:leaf=0.0725403
						116:leaf=0.0126645
					58:[D_KEYWORD_MACRO_MEAN_COEC<0.0245244] yes=117,no=118,missing=118
						117:leaf=-0.0524154
						118:leaf=0.00600033
			14:[U_AGE_EC<431457] yes=29,no=30,missing=30
				29:[C_D_U_CATEGORY_CITY_MEAN_EC<2] yes=59,no=60,missing=60
					59:[C_D_U_PUBLISHER_GENDER_C<1555.58] yes=119,no=120,missing=119
						119:leaf=-0.136545
						120:leaf=0.091082
					60:[U_CITY_C<3300.78] yes=121,no=122,missing=121
						121:leaf=0.0276705
						122:leaf=0.00788884
				30:[C_D_U_CATEGORY_GENDER_MEAN_C<1598.09] yes=61,no=62,missing=62
					61:[C_D_U_CATEGORY_AGE_MICRO_MAX_COEC<0.0782721] yes=123,no=124,missing=124
						123:leaf=0.00271854
						124:leaf=-0.0218679
					62:[U_AGE_COEC<0.075237] yes=125,no=126,missing=126
						125:leaf=0.0115266
						126:leaf=-0.00347736
booster[36]:
0:[C_D_U_TITLEMD5_CITY_COEC<0.0665306] yes=1,no=2,missing=1
	1:[U_CITY_COEC<0.069988] yes=3,no=4,missing=4
		3:[WORD_COUNT<675] yes=7,no=8,missing=8
			7:[D_KEYWORD_MAX_EC<2928.56] yes=15,no=16,missing=16
				15:[D_CATEGORY_MICRO_MEAN_COEC<0.0614032] yes=31,no=32,missing=31
					31:[D_TITLEMD5_C<11.2644] yes=63,no=64,missing=63
						63:leaf=-0.0161319
						64:leaf=-0.00145271
					32:[C_D_U_TITLEMD5_AGE_COEC<0.0415929] yes=65,no=66,missing=66
						65:leaf=-0.0456024
						66:leaf=-0.0159549
				16:[D_TITLEMD5_COEC<0.056028] yes=33,no=34,missing=33
					33:[DOC_AGE<2.75194] yes=67,no=68,missing=68
						67:leaf=0.00701989
						68:leaf=-0.041306
					34:[D_KEYWORD_MEAN_EC<3710.29] yes=69,no=70,missing=70
						69:leaf=-0.10317
						70:leaf=-0.0109982
			8:[C_D_U_TITLEMD5_GENDER_COEC<0.053998] yes=17,no=18,missing=18
				17:[U_GENDER_COEC<0.0706464] yes=35,no=36,missing=36
					35:[U_AGE_EC<527181] yes=71,no=72,missing=72
						71:leaf=-0.0276121
						72:leaf=-0.00270247
					36:[D_CATEGORY_MEAN_EC<380763] yes=73,no=74,missing=74
						73:leaf=-0.0174952
						74:leaf=-0.0433702
				18:[U_CATEGORY_MACRO_MAX_COEC<0.0972166] yes=37,no=38,missing=38
					37:[DOC_AGE<24.8814] yes=75,no=76,missing=76
						75:leaf=0.00292904
						76:leaf=0.0235817
					38:[DOC_AGE<36.3483] yes=77,no=78,missing=78
						77:leaf=-0.00239316
						78:leaf=-0.020987
		4:[U_CATEGORY_MICRO_MAX_COEC<0.153526] yes=9,no=10,missing=9
			9:[U_CITY_EC<3312.43] yes=19,no=20,missing=20
				19:[U_CITY_COEC<0.280378] yes=39,no=40,missing=40
					39:[C_D_U_CATEGORY_CITY_MAX_C<9.11945] yes=79,no=80,missing=80
						79:leaf=0.00322646
						80:leaf=0.0191254
					40:[U_GENDER_COEC<0.0719496] yes=81,no=82,missing=81
						81:leaf=0.0635029
						82:leaf=-0.214945
				20:[TIME_OF_DAY<15] yes=41,no=42,missing=42
					41:[D_CATEGORY_MAX_C<3838.6] yes=83,no=84,missing=84
						83:leaf=-0.00740743
						84:leaf=0.00440078
					42:[C_D_U_TITLEMD5_GENDER_COEC<0.081487] yes=85,no=86,missing=85
						85:leaf=-0.00877568
						86:leaf=0.0161974
			10:[U_AGE_COEC<0.0751173] yes=21,no=22,missing=21
				21:[C_D_U_CATEGORY_CATEGORY_MAX_EC<1036.26] yes=43,no=44,missing=44
					43:[U_CATEGORY_MICRO_MEAN_COEC<0.124988] yes=87,no=88,missing=88
						87:leaf=-0.0108626
						88:leaf=0.0262522
					44:[D_TITLEMD5_EC<252.53] yes=89,no=90,missing=89
						89:leaf=0.0693742
						90:leaf=0.03691
				22:[U_CITY_C<207.549] yes=45,no=46,missing=45
					45:[U_CATEGORY_MAX_C<475.051] yes=91,no=92,missing=92
						91:leaf=0.0938811
						92:leaf=-0.0207473
					46:[U_CATEGORY_MEAN_C<1940.86] yes=93,no=94,missing=94
						93:leaf=-0.134104
						94:leaf=0.0117974
	2:[D_CATEGORY_MAX_C<40161.7] yes=5,no=6,missing=5
		5:[U_CATEGORY_MACRO_MAX_COEC<0.0972166] yes=11,no=12,missing=12
			11:[U_CATEGORY_MACRO_MAX_COEC<0.038405] yes=23,no=24,missing=24
				23:[D_CATEGORY_MAX_C<38004.9] yes=47,no=48,missing=48
					47:[D_CATEGORY_MICRO_MAX_COEC<0.0884538] yes=95,no=96,missing=96
						95:leaf=0.030884
						96:leaf=-0.0842925
					48:[C_D_U_PUBLISHER_CITY_C<6.22223] yes=97,no=98,missing=98
						97:leaf=-0.112025
						98:leaf=0.0773501
				24:[U_AGE_COEC<0.0739624] yes=49,no=50,missing=49
					49:[U_CATEGORY_MACRO_MAX_COEC<0.0911939] yes=99,no=100,missing=100
						99:leaf=0.0121794
						100:leaf=0.0289249
					50:[U_CATEGORY_MICRO_MEAN_COEC<0.0999349] yes=101,no=102,missing=102
						101:leaf=-0.0773065
						102:leaf=0.00420525
			12:[C_D_U_TITLEMD5_GENDER_COEC<0.103679] yes=25,no=26,missing=26
				25:[C_D_U_CATEGORY_CITY_MAX_EC<3521.27] yes=51,no=52,missing=52
					51:[C_D_U_CATEGORY_AGE_MAX_C<7738.38] yes=103,no=104,missing=104
						103:leaf=-0.00714949
						104:leaf=-0.0289468
					52:[D_CATEGORY_MACRO_MAX_COEC<0.088636] yes=105,no=106,missing=105
						105:leaf=0.000344235
						106:leaf=-0.0707175
				26:[DOC_AGE<42.1778] yes=53,no=54,missing=54
					53:[U_AGE_EC<530212] yes=107,no=108,missing=108
						107:leaf=0.0116522
						108:leaf=0.00366375
					54:[C_D_U_PUBLISHER_GENDER_EC<33344] yes=109,no=110,missing=109
						109:leaf=-0.00752431
						110:leaf=-0.172847
		6:[C_D_U_TITLEMD5_AGE_C<91.4826] yes=13,no=14,missing=13
			13:[D_TITLEMD5_COEC<0.117897] yes=27,no=28,missing=28
				27:[C_D_U_CATEGORY_CATEGORY_MACRO_MEAN_COEC<0.17728] yes=55,no=56,missing=55
					55:[C_D_U_CATEGORY_CITY_MAX_EC<2477.54] yes=111,no=112,missing=112
						111:leaf=0.00274709
						112:leaf=-0.0123487
					56:[U_CITY_C<592.392] yes=113,no=114,missing=114
						113:leaf=-0.0362452
						114:leaf=0.0285457
				28:[U_AGE_C<43292] yes=57,no=58,missing=58
					57:[C_D_U_TITLEMD5_CATEGORY_MEAN_C<4.52189] yes=115,no=116,missing=115
						115:leaf=-0.120862
						116:leaf=0.0889106
					58:[D_KEYWORD_MICRO_MAX_COEC<0.085279] yes=117,no=118,missing=118
						117:leaf=0.106147
						118:leaf=0.00710935
			14:[C_D_U_CATEGORY_AGE_MACRO_MAX_COEC<0.106496] yes=29,no=30,missing=30
				29:[U_AGE_C<47805.7] yes=59,no=60,missing=60
					59:[U_CITY_EC<373039] yes=119,no=120,missing=120
						119:leaf=0.00712382
						120:leaf=-0.00732061
					60:[D_CATEGORY_MAX_EC<470670] yes=121,no=122,missing=122
						121:leaf=-0.0477451
						122:leaf=0.0337
				30:[C_D_U_CATEGORY_AGE_MAX_C<15080.7] yes=61,no=62,missing=62
					61:leaf=-0.258905
					62:[D_KEYWORD_MICRO_MAX_COEC<0.102193] yes=123,no=124,missing=124
						123:leaf=0.101432
						124:leaf=-0.0380041
booster[37]:
0:[WORD_COUNT<497] yes=1,no=2,missing=2
	1:[IMAGE_COUNT<0.999999] yes=3,no=4,missing=4
		3:[D_CATEGORY_MEAN_EC<92739.1] yes=7,no=8,missing=8
			7:[C_D_U_PUBLISHER_CITY_EC<1984.57] yes=15,no=16,missing=15
				15:[U_AGE_COEC<0.0752904] yes=31,no=32,missing=31
					31:[D_KEYWORD_MICRO_MAX_COEC<0.0785343] yes=63,no=64,missing=64
						63:leaf=-0.0215311
						64:leaf=-0.104394
					32:[C_D_U_KEYWORD_CATEGORY_MICRO_MAX_COEC<0.144053] yes=65,no=66,missing=66
						65:leaf=0.273074
						66:leaf=0.0373125
				16:[CAT_REL<0.005594] yes=33,no=34,missing=34
					33:[D_CATEGORY_MACRO_MAX_COEC<0.0489395] yes=67,no=68,missing=68
						67:leaf=0.0906739
						68:leaf=0.0108768
					34:[D_TITLEMD5_COEC<0.0395525] yes=69,no=70,missing=69
						69:leaf=-0.167696
						70:leaf=0.0211874
			8:[C_D_U_CATEGORY_CATEGORY_MAX_C<120.149] yes=17,no=18,missing=17
				17:[U_CATEGORY_MICRO_MEAN_COEC<0.124124] yes=35,no=36,missing=35
					35:[C_D_U_KEYWORD_CATEGORY_MACRO_MAX_COEC<0.00790637] yes=71,no=72,missing=72
						71:leaf=0.0443989
						72:leaf=-0.051833
					36:[C_D_U_TITLEMD5_CATEGORY_MEAN_EC<27.1949] yes=73,no=74,missing=74
						73:leaf=-0.146336
						74:leaf=0.0687304
				18:[D_KEYWORD_MICRO_MAX_COEC<0.0965593] yes=37,no=38,missing=38
					37:[C_D_U_KEYWORD_CATEGORY_MICRO_MAX_COEC<0.138711] yes=75,no=76,missing=76
						75:leaf=-0.0508815
						76:leaf=0.00900932
					38:[C_D_U_PUBLISHER_AGE_EC<37454.5] yes=77,no=78,missing=77
						77:leaf=-0.121317
						78:leaf=-0.0065466
		4:[D_KEYWORD_MICRO_MEAN_COEC<0.0698683] yes=9,no=10,missing=10
			9:[C_D_U_CATEGORY_GENDER_MACRO_MEAN_COEC<0.0721559] yes=19,no=20,missing=20
				19:[U_CITY_C<2500.17] yes=39,no=40,missing=40
					39:[C_D_U_KEYWORD_CATEGORY_MEAN_C<2.6692] yes=79,no=80,missing=80
						79:leaf=-0.11388
						80:leaf=-0.0419575
					40:[C_D_U_TITLEMD5_CITY_COEC<0.10925] yes=81,no=82,missing=81
						81:leaf=-0.0249633
						82:leaf=0.0852326
				20:[C_D_U_CATEGORY_GENDER_MACRO_MAX_COEC<0.0777323] yes=41,no=42,missing=41
					41:[D_KEYWORD_MEAN_EC<8497.55] yes=83,no=84,missing=84
						83:leaf=-0.0023119
						84:leaf=-0.0919844
					42:[C_D_U_PUBLISHER_CITY_COEC<0.0808549] yes=85,no=86,missing=86
						85:leaf=-0.129108
						86:leaf=-0.0164141
			10:[D_TITLEMD5_C<7.50431] yes=21,no=22,missing=21
				21:[C_D_U_PUBLISHER_AGE_C<2276.64] yes=43,no=44,missing=44
					43:[C_D_U_KEYWORD_CATEGORY_MACRO_MEAN_COEC<0.213301] yes=87,no=88,missing=87
						87:leaf=-0.114991
						88:leaf=0.147946
					44:[D_PUBLISHER_C<1652.48] yes=89,no=90,missing=90
						89:leaf=0.078037
						90:leaf=-0.00584089
				22:[C_D_U_TITLEMD5_CITY_COEC<0.0465166] yes=45,no=46,missing=46
					45:[C_D_U_TITLEMD5_CATEGORY_MACRO_MEAN_COEC<0.180228] yes=91,no=92,missing=92
						91:leaf=-0.00122167
						92:leaf=-0.0712812
					46:[U_AGE_EC<610296] yes=93,no=94,missing=93
						93:leaf=-0.0222549
						94:leaf=-0.194431
	2:[CAT_REL<0.086955] yes=5,no=6,missing=6
		5:[D_TITLEMD5_C<11.9402] yes=11,no=12,missing=11
			11:[D_KEYWORD_MEAN_C<101.957] yes=23,no=24,missing=24
				23:[IMAGE_COUNT<0.999999] yes=47,no=48,missing=48
					47:[C_D_U_CATEGORY_CITY_MICRO_MAX_COEC<0.0433692] yes=95,no=96,missing=96
						95:leaf=-0.0523364
						96:leaf=-0.0207407
					48:[D_KEYWORD_MACRO_MAX_COEC<0.0406165] yes=97,no=98,missing=98
						97:leaf=-0.00746644
						98:leaf=-0.0343533
				24:[DOC_AGE<7.92583] yes=49,no=50,missing=50
					49:[C_D_U_CATEGORY_CITY_MAX_C<73.7445] yes=99,no=100,missing=100
						99:leaf=-0.00908175
						100:leaf=0.0110647
					50:[D_PUBLISHER_COEC<0.0645542] yes=101,no=102,missing=102
						101:leaf=-0.0260578
						102:leaf=0.0198711
			12:[D_TITLEMD5_COEC<0.113088] yes=25,no=26,missing=26
				25:[C_D_U_TITLEMD5_GENDER_COEC<0.102876] yes=51,no=52,missing=51
					51:[U_CITY_COEC<0.161318] yes=103,no=104,missing=103
						103:leaf=-0.000748037
						104:leaf=0.0376857
					52:[C_D_U_CATEGORY_CITY_MEAN_EC<746.073] yes=105,no=106,missing=105
						105:leaf=0.0193819
						106:leaf=0.00559249
				26:[C_D_U_TITLEMD5_GENDER_COEC<0.124473] yes=53,no=54,missing=54
					53:[C_D_U_CATEGORY_GENDER_MICRO_MAX_COEC<0.107865] yes=107,no=108,missing=108
						107:leaf=-0.00173071
						108:leaf=-0.0440172
					54:[D_CATEGORY_MICRO_MAX_COEC<0.0454313] yes=109,no=110,missing=110
						109:leaf=-0.0274852
						110:leaf=0.0103039
		6:[D_TITLEMD5_C<2.82969] yes=13,no=14,missing=14
			13:[DOC_AGE<1.8725] yes=27,no=28,missing=28
				27:[C_D_U_TITLEMD5_CATEGORY_MACRO_MEAN_COEC<0.0105138] yes=55,no=56,missing=56
					55:[CAT_REL<0.383584] yes=111,no=112,missing=112
						111:leaf=-0.00318535
						112:leaf=0.0388563
					56:[C_D_U_CATEGORY_GENDER_MICRO_MAX_COEC<0.0693002] yes=113,no=114,missing=113
						113:leaf=0.00376223
						114:leaf=-0.0569064
				28:[U_CATEGORY_MACRO_MAX_COEC<0.103869] yes=57,no=58,missing=58
					57:[C_D_U_CATEGORY_CATEGORY_MACRO_MAX_COEC<0.118355] yes=115,no=116,missing=116
						115:leaf=-0.0083288
						116:leaf=-0.0583506
					58:[CAT_REL<0.187458] yes=117,no=118,missing=118
						117:leaf=0.0647275
						118:leaf=-0.0576254
			14:[DOC_AGE<12.7925] yes=29,no=30,missing=30
				29:[D_TITLEMD5_COEC<0.0292986] yes=59,no=60,missing=60
					59:[TIME_OF_DAY<10] yes=119,no=120,missing=120
						119:leaf=0.0161125
						120:leaf=-0.0253298
					60:[C_D_U_TITLEMD5_CATEGORY_MACRO_MAX_COEC<0.0507181] yes=121,no=122,missing=122
						121:leaf=0.0267373
						122:leaf=0.0127085
				30:[U_CATEGORY_MICRO_MAX_COEC<0.122904] yes=61,no=62,missing=62
					61:[U_AGE_C<33076.3] yes=123,no=124,missing=124
						123:leaf=0.0432365
						124:leaf=-0.00722232
					62:[D_CATEGORY_MEAN_C<19919.1] yes=125,no=126,missing=126
						125:leaf=0.00186553
						126:leaf=0.027318
booster[38]:
0:[U_CITY_COEC<0.0443622] yes=1,no=2,missing=2
	1:[TIME_OF_DAY<18] yes=3,no=4,missing=4
		3:[U_GENDER_C<18420.2] yes=7,no=8,missing=7
			7:[D_KEYWORD_MACRO_MEAN_COEC<0.0502271] yes=15,no=16,missing=16
				15:[D_CATEGORY_MEAN_EC<476585] yes=31,no=32,missing=31
					31:[C_D_U_TITLEMD5_AGE_C<14.0668] yes=63,no=64,missing=63
						63:leaf=-0.0334933
						64:leaf=-0.000607731
					32:[D_PUBLISHER_C<1651.19] yes=65,no=66,missing=66
						65:leaf=0.367258
						66:leaf=-0.0312214
				16:[C_D_U_PUBLISHER_CITY_EC<261.393] yes=33,no=34,missing=33
					33:[C_D_U_CATEGORY_CATEGORY_MACRO_MAX_COEC<0.0864509] yes=67,no=68,missing=67
						67:leaf=-0.00338745
						68:leaf=-0.0410312
					34:[DAY_OF_WEEK<0.999999] yes=69,no=70,missing=70
						69:leaf=0.0317819
						70:leaf=-0.0720249
			8:[C_D_U_TITLEMD5_CATEGORY_MICRO_MEAN_COEC<0.118714] yes=17,no=18,missing=18
				17:[D_KEYWORD_MACRO_MAX_COEC<0.0132815] yes=35,no=36,missing=36
					35:[C_D_U_KEYWORD_CATEGORY_MEAN_C<0.541936] yes=71,no=72,missing=72
						71:leaf=0.251608
						72:leaf=0.147494
					36:[C_D_U_TITLEMD5_CATEGORY_MAX_C<0.282764] yes=73,no=74,missing=74
						73:leaf=-0.153663
						74:leaf=0.107743
				18:[U_GENDER_COEC<0.0709813] yes=37,no=38,missing=38
					37:[D_PUBLISHER_COEC<0.0901102] yes=75,no=76,missing=76
						75:leaf=0.0585636
						76:leaf=-0.213126
					38:[D_PUBLISHER_C<6270.85] yes=77,no=78,missing=78
						77:leaf=-0.0798007
						78:leaf=0.0179223
		4:[U_CITY_C<2.50148] yes=9,no=10,missing=10
			9:[U_AGE_EC<525091] yes=19,no=20,missing=20
				19:[D_TITLEMD5_C<166.496] yes=39,no=40,missing=40
					39:[C_D_U_TITLEMD5_AGE_C<18.7181] yes=79,no=80,missing=79
						79:leaf=-0.14068
						80:leaf=0.117611
					40:[C_D_U_CATEGORY_CATEGORY_MACRO_MAX_COEC<0.0451797] yes=81,no=82,missing=82
						81:leaf=0.0967978
						82:leaf=-0.173884
				20:[D_KEYWORD_MICRO_MAX_COEC<0.0585335] yes=41,no=42,missing=42
					41:[U_CITY_EC<36.8186] yes=83,no=84,missing=84
						83:leaf=0.0994098
						84:leaf=-0.020956
					42:[C_D_U_PUBLISHER_AGE_C<2678.21] yes=85,no=86,missing=86
						85:leaf=0.0375927
						86:leaf=-0.0205134
			10:[C_D_U_CATEGORY_CITY_MACRO_MAX_COEC<0.025454] yes=21,no=22,missing=22
				21:[C_D_U_TITLEMD5_GENDER_COEC<0.0559001] yes=43,no=44,missing=43
					43:[U_CITY_C<13.2174] yes=87,no=88,missing=88
						87:leaf=-0.0622238
						88:leaf=-0.110155
					44:[U_CITY_EC<1102.66] yes=89,no=90,missing=90
						89:leaf=0.0375871
						90:leaf=-0.13146
				22:[TIME_OF_DAY<21] yes=45,no=46,missing=46
					45:[D_CATEGORY_MACRO_MAX_COEC<0.067657] yes=91,no=92,missing=92
						91:leaf=-0.0364948
						92:leaf=0.00372788
					46:[C_D_U_CATEGORY_CITY_MAX_C<51.6218] yes=93,no=94,missing=93
						93:leaf=-0.0477244
						94:leaf=-0.170978
	2:[C_D_U_TITLEMD5_GENDER_COEC<0.0485718] yes=5,no=6,missing=6
		5:[U_CITY_EC<36.8186] yes=11,no=12,missing=11
			11:[C_D_U_CATEGORY_GENDER_MAX_EC<49780.4] yes=23,no=24,missing=23
				23:[D_KEYWORD_MAX_EC<465.925] yes=47,no=48,missing=48
					47:[D_KW_LEN<10] yes=95,no=96,missing=96
						95:leaf=-0.0505645
						96:leaf=0.0356731
					48:[DOC_AGE<13.9872] yes=97,no=98,missing=98
						97:leaf=-0.00590491
						98:leaf=-0.0445532
				24:[C_D_U_PUBLISHER_AGE_COEC<0.069471] yes=49,no=50,missing=50
					49:[D_CATEGORY_MEAN_C<25609.5] yes=99,no=100,missing=100
						99:leaf=0.0895573
						100:leaf=-0.0295287
					50:[D_TITLEMD5_COEC<0.0604923] yes=101,no=102,missing=102
						101:leaf=0.0948923
						102:leaf=0.007144
			12:[U_CATEGORY_MACRO_MAX_COEC<0.0548689] yes=25,no=26,missing=26
				25:[C_D_U_TITLEMD5_AGE_C<161.875] yes=51,no=52,missing=51
					51:[U_CATEGORY_MEAN_C<3824.1] yes=103,no=104,missing=104
						103:leaf=0.0122427
						104:leaf=-0.0938273
					52:leaf=-0.349102
				26:[U_GENDER_C<18106.6] yes=53,no=54,missing=54
					53:[U_GENDER_C<18035] yes=105,no=106,missing=106
						105:leaf=-0.0152422
						106:leaf=0.0141296
					54:[DOC_AGE<11.6528] yes=107,no=108,missing=108
						107:leaf=-0.0171323
						108:leaf=-0.0491954
		6:[C_D_U_TITLEMD5_AGE_COEC<0.0549463] yes=13,no=14,missing=13
			13:[U_AGE_COEC<0.0728926] yes=27,no=28,missing=28
				27:[D_TITLEMD5_COEC<0.039638] yes=55,no=56,missing=56
					55:[U_CITY_EC<408510] yes=109,no=110,missing=109
						109:leaf=-0.0264201
						110:leaf=-0.113839
					56:[C_D_U_KEYWORD_CATEGORY_MACRO_MAX_COEC<0.0189674] yes=111,no=112,missing=112
						111:leaf=0.016819
						112:leaf=-0.0143141
				28:[U_CATEGORY_MICRO_MAX_COEC<0.125417] yes=57,no=58,missing=57
					57:[D_TITLEMD5_EC<16112.2] yes=113,no=114,missing=113
						113:leaf=-0.00156471
						114:leaf=0.0051527
					58:[C_D_U_CATEGORY_CATEGORY_MEAN_EC<3316.65] yes=115,no=116,missing=116
						115:leaf=0.00241803
						116:leaf=0.0188899
			14:[DOC_AGE<13.1281] yes=29,no=30,missing=30
				29:[U_CITY_C<22128.9] yes=59,no=60,missing=59
					59:[WORD_COUNT<804] yes=117,no=118,missing=118
						117:leaf=-0.000497983
						118:leaf=0.0102872
					60:[U_AGE_COEC<0.075237] yes=119,no=120,missing=120
						119:leaf=-0.00303947
						120:leaf=-0.0985462
				30:[C_D_U_PUBLISHER_CITY_COEC<0.0876843] yes=61,no=62,missing=62
					61:[C_D_U_TITLEMD5_AGE_C<290.232] yes=121,no=122,missing=122
						121:leaf=-0.00944969
						122:leaf=0.00148862
					62:[U_CITY_C<6031.29] yes=123,no=124,missing=123
						123:leaf=0.0100752
						124:leaf=-0.0165649
booster[39]:
0:[C_D_U_CATEGORY_CITY_MICRO_MEAN_COEC<0.0412314] yes=1,no=2,missing=2
	1:[D_TITLEMD5_COEC<0.0291355] yes=3,no=4,missing=3
		3:[C_D_U_PUBLISHER_AGE_COEC<0.0817742] yes=7,no=8,missing=7
			7:[U_CATEGORY_MICRO_MEAN_COEC<0.100441] yes=15,no=16,missing=16
				15:[C_D_U_PUBLISHER_AGE_C<6127.93] yes=31,no=32,missing=32
					31:[U_CITY_COEC<0.0812131] yes=61,no=62,missing=61
						61:leaf=-0.0715573
						62:leaf=0.252602
					32:[D_CATEGORY_MAX_C<3030.16] yes=63,no=64,missing=64
						63:leaf=-0.117215
						64:leaf=0.154454
				16:[U_CITY_COEC<0.0627424] yes=33,no=34,missing=34
					33:[U_CATEGORY_MICRO_MEAN_COEC<0.12174] yes=65,no=66,missing=65
						65:leaf=-0.0187798
						66:leaf=0.017265
					34:[U_CATEGORY_MACRO_MEAN_COEC<0.121001] yes=67,no=68,missing=68
						67:leaf=-0.000847008
						68:leaf=-0.044904
			8:[C_D_U_CATEGORY_GENDER_MACRO_MAX_COEC<0.0225818] yes=17,no=18,missing=18
				17:leaf=0.183512
				18:[C_D_U_CATEGORY_CITY_MACRO_MEAN_COEC<0.0218098] yes=35,no=36,missing=36
					35:[U_CITY_C<711.017] yes=69,no=70,missing=69
						69:leaf=-0.128991
						70:leaf=0.223613
					36:[C_D_U_KEYWORD_CATEGORY_MACRO_MEAN_COEC<0.0422388] yes=71,no=72,missing=71
						71:leaf=-0.114895
						72:leaf=-0.175713
		4:[D_CATEGORY_MICRO_MEAN_COEC<0.0434627] yes=9,no=10,missing=10
			9:[C_D_U_CATEGORY_GENDER_MAX_C<81.553] yes=19,no=20,missing=20
				19:[D_TITLEMD5_COEC<0.0471157] yes=37,no=38,missing=38
					37:[C_D_U_CATEGORY_CATEGORY_MAX_EC<833.362] yes=73,no=74,missing=74
						73:leaf=-0.0135709
						74:leaf=0.125046
					38:[D_KEYWORD_MICRO_MAX_COEC<0.0796832] yes=75,no=76,missing=76
						75:leaf=0.0317231
						76:leaf=-0.0652093
				20:[C_D_U_CATEGORY_CATEGORY_MICRO_MAX_COEC<0.0945121] yes=39,no=40,missing=39
					39:[C_D_U_PUBLISHER_GENDER_COEC<0.0414217] yes=77,no=78,missing=78
						77:leaf=-0.0558038
						78:leaf=-0.000536521
					40:[C_D_U_CATEGORY_CATEGORY_MAX_C<63.8405] yes=79,no=80,missing=80
						79:leaf=0.00890716
						80:leaf=0.0611944
			10:[D_KEYWORD_MACRO_MAX_COEC<0.0160679] yes=21,no=22,missing=22
				21:[D_CATEGORY_MAX_C<3347.12] yes=41,no=42,missing=42
					41:[C_D_U_CATEGORY_CITY_MICRO_MAX_COEC<0.0659734] yes=81,no=82,missing=82
						81:leaf=-0.037227
						82:leaf=0.220568
					42:[C_D_U_CATEGORY_AGE_MEAN_EC<35457.7] yes=83,no=84,missing=84
						83:leaf=0.00750004
						84:leaf=-0.0180691
				22:[D_KEYWORD_MAX_C<479.446] yes=43,no=44,missing=44
					43:[C_D_U_CATEGORY_CITY_MEAN_EC<218.602] yes=85,no=86,missing=86
						85:leaf=0.00146179
						86:leaf=-0.0100507
					44:[D_CATEGORY_MACRO_MEAN_COEC<0.0531304] yes=87,no=88,missing=88
						87:leaf=-0.0554934
						88:leaf=-0.00837716
	2:[U_CATEGORY_MACRO_MAX_COEC<0.0373836] yes=5,no=6,missing=6
		5:[U_AGE_COEC<0.0726418] yes=11,no=12,missing=12
			11:[U_CITY_COEC<0.0610859] yes=23,no=24,missing=23
				23:[U_CATEGORY_MACRO_MAX_COEC<0.0315672] yes=45,no=46,missing=46
					45:[C_D_U_TITLEMD5_CITY_EC<526.048] yes=89,no=90,missing=89
						89:leaf=-0.0961814
						90:leaf=-0.31355
					46:[U_CITY_C<23324.3] yes=91,no=92,missing=92
						91:leaf=-0.0825828
						92:leaf=0.0423268
				24:[U_CATEGORY_MEAN_C<2434.2] yes=47,no=48,missing=48
					47:[C_D_U_CATEGORY_GENDER_MEAN_C<931.62] yes=93,no=94,missing=93
						93:leaf=0.069634
						94:leaf=-0.238271
					48:[C_D_U_PUBLISHER_CITY_C<116.503] yes=95,no=96,missing=96
						95:leaf=0.0048104
						96:leaf=-0.341951
			12:[U_CATEGORY_MEAN_EC<34098.6] yes=25,no=26,missing=26
				25:[U_CATEGORY_MACRO_MEAN_COEC<0.112522] yes=49,no=50,missing=50
					49:[U_CATEGORY_MICRO_MAX_COEC<0.117771] yes=97,no=98,missing=98
						97:leaf=-0.0667895
						98:leaf=0.0599697
					50:[C_D_U_CATEGORY_CATEGORY_MEAN_EC<3618.24] yes=99,no=100,missing=99
						99:leaf=0.0317668
						100:leaf=-0.00828422
				26:[C_D_U_PUBLISHER_AGE_COEC<0.077109] yes=51,no=52,missing=52
					51:[C_D_U_TITLEMD5_CATEGORY_MICRO_MEAN_COEC<0.100056] yes=101,no=102,missing=102
						101:leaf=-0.185478
						102:leaf=-0.350881
					52:[C_D_U_KEYWORD_CATEGORY_MAX_EC<6.94372] yes=103,no=104,missing=104
						103:leaf=0.0408485
						104:leaf=-0.174758
		6:[WORD_COUNT<3639] yes=13,no=14,missing=14
			13:[C_D_U_TITLEMD5_CITY_COEC<0.112472] yes=27,no=28,missing=27
				27:[C_D_U_CATEGORY_CITY_MICRO_MEAN_COEC<0.112442] yes=53,no=54,missing=53
					53:[C_D_U_TITLEMD5_GENDER_COEC<0.120043] yes=105,no=106,missing=105
						105:leaf=-0.00147394
						106:leaf=0.0118111
					54:[C_D_U_CATEGORY_CITY_MEAN_C<1.65737] yes=107,no=108,missing=108
						107:leaf=-0.0100223
						108:leaf=0.0177004
				28:[C_D_U_TITLEMD5_CITY_C<7.61618] yes=55,no=56,missing=56
					55:[WORD_COUNT<911] yes=109,no=110,missing=110
						109:leaf=-0.00361263
						110:leaf=0.00458117
					56:[D_TITLEMD5_COEC<0.0722968] yes=111,no=112,missing=112
						111:leaf=0.0460405
						112:leaf=0.00632343
			14:[D_CATEGORY_MICRO_MAX_COEC<0.0886281] yes=29,no=30,missing=30
				29:[D_KEYWORD_MICRO_MAX_COEC<0.110127] yes=57,no=58,missing=58
					57:[D_PUBLISHER_COEC<0.0691402] yes=113,no=114,missing=114
						113:leaf=0.00810433
						114:leaf=-0.0208072
					58:[D_KEYWORD_MAX_C<52.9242] yes=115,no=116,missing=116
						115:leaf=0.000296634
						116:leaf=0.0302502
				30:[U_CITY_COEC<0.0589943] yes=59,no=60,missing=60
					59:[D_CATEGORY_MAX_EC<353032] yes=117,no=118,missing=117
						117:leaf=-0.0244836
						118:leaf=-0.0915167
					60:[D_KW_LEN<19] yes=119,no=120,missing=120
						119:leaf=-0.0426498
						120:leaf=0.00306058
