booster[0]:
0:[C_D_U_TITLEMD5_CATEGORY_MICRO_MEAN_COEC<0.1103] yes=1,no=2,missing=1
	1:[D_TITLEMD5_COEC<0.07518] yes=3,no=4,missing=3
		3:[C_D_U_TITLEMD5_CATEGORY_MICRO_MEAN_COEC<0.044147] yes=7,no=8,missing=7
			7:[M_D_U_KEYWORD_KEYWORD_MICRO_MAX_COEC<0.108296] yes=15,no=16,missing=15
				15:[D_KEYWORD_MACRO_MEAN_COEC<0.051946] yes=31,no=32,missing=32
					31:[CAT_REL<0.001089] yes=63,no=64,missing=64
						63:leaf=-0.169188
						64:leaf=-0.151793
					32:[C_D_U_PUBLISHER_CITY_COEC<0.094374] yes=65,no=66,missing=65
						65:leaf=-0.151855
						66:leaf=-0.134646
				16:[C_D_U_KEYWORD_CATEGORY_MICRO_MEAN_COEC<0.12607] yes=33,no=34,missing=34
					33:[C_D_U_CATEGORY_CITY_MICRO_MEAN_COEC<0.119174] yes=67,no=68,missing=67
						67:leaf=-0.133244
						68:leaf=-0.102377
					34:[DOC_AGE<2] yes=69,no=70,missing=70
						69:leaf=-0.052238
						70:leaf=-0.101946
			8:[U_KW_LEN<683] yes=17,no=18,missing=18
				17:[C_D_U_TITLEMD5_CITY_COEC<0.516295] yes=35,no=36,missing=35
					35:[M_D_U_KEYWORD_KEYWORD_MICRO_MAX_COEC<0.103635] yes=71,no=72,missing=71
						71:leaf=-0.131878
						72:leaf=-0.107599
					36:[C_D_U_TITLEMD5_CITY_C<0.946354] yes=73,no=74,missing=74
						73:leaf=-0.0782036
						74:leaf=0.0591665
				18:[C_D_U_TITLEMD5_CITY_C<12.0942] yes=37,no=38,missing=38
					37:[U_CITY_EC<296.402] yes=75,no=76,missing=76
						75:leaf=0.0584414
						76:leaf=-0.0730026
					38:[C_D_U_CATEGORY_CITY_MICRO_MEAN_COEC<0.106923] yes=77,no=78,missing=78
						77:leaf=-0.124534
						78:leaf=-0.0874938
		4:[D_KEYWORD_MACRO_MEAN_COEC<0.10987] yes=9,no=10,missing=10
			9:[U_KW_LEN<414] yes=19,no=20,missing=20
				19:[D_TITLEMD5_COEC<0.107209] yes=39,no=40,missing=40
					39:[C_D_U_TITLEMD5_CATEGORY_MICRO_MEAN_COEC<0.079392] yes=79,no=80,missing=79
						79:leaf=-0.12311
						80:leaf=-0.0991209
					40:[D_TITLEMD5_C<5.93057] yes=81,no=82,missing=82
						81:leaf=-0.128777
						82:leaf=-0.0927973
				20:[C_D_U_TITLEMD5_CATEGORY_MICRO_MEAN_COEC<0.079392] yes=41,no=42,missing=41
					41:[C_D_U_CATEGORY_CITY_MACRO_MEAN_COEC<0.121077] yes=83,no=84,missing=83
						83:leaf=-0.100747
						84:leaf=-0.0583996
					42:[C_D_U_CATEGORY_CITY_MACRO_MEAN_COEC<0.146836] yes=85,no=86,missing=85
						85:leaf=-0.0652483
						86:leaf=-0.0227811
			10:[D_TITLEMD5_COEC<0.180427] yes=21,no=22,missing=22
				21:[U_CITY_COEC<0.060397] yes=43,no=44,missing=43
					43:[D_KEYWORD_MEAN_EC<4873.69] yes=87,no=88,missing=88
						87:leaf=-0.0910439
						88:leaf=-0.149636
					44:[WORD_COUNT<1758] yes=89,no=90,missing=90
						89:leaf=-0.0759739
						90:leaf=-0.0564935
				22:[D_TITLEMD5_C<21.601] yes=45,no=46,missing=46
					45:[D_CATEGORY_MACRO_MEAN_COEC<0.073948] yes=91,no=92,missing=92
						91:leaf=-0.144174
						92:leaf=-0.083127
					46:[D_KEYWORD_MICRO_MAX_COEC<0.223734] yes=93,no=94,missing=94
						93:leaf=-0.0477494
						94:leaf=-0.0192779
	2:[C_D_U_KEYWORD_CATEGORY_MICRO_MEAN_COEC<0.137395] yes=5,no=6,missing=6
		5:[U_KW_LEN<414] yes=11,no=12,missing=12
			11:[C_D_U_TITLEMD5_CATEGORY_MEAN_C<0.373044] yes=23,no=24,missing=24
				23:[C_D_U_TITLEMD5_CITY_COEC<0.505532] yes=47,no=48,missing=47
					47:[D_KEYWORD_MACRO_MEAN_COEC<0.082929] yes=95,no=96,missing=96
						95:leaf=-0.117434
						96:leaf=-0.0781564
					48:[C_D_U_TITLEMD5_CATEGORY_MACRO_MEAN_COEC<0.144822] yes=97,no=98,missing=98
						97:leaf=-0.0473039
						98:leaf=0.114407
				24:[C_D_U_TITLEMD5_CATEGORY_MICRO_MEAN_COEC<0.156439] yes=49,no=50,missing=50
					49:[U_KEYWORD_MICRO_MAX_COEC<0.125785] yes=99,no=100,missing=99
						99:leaf=-0.0772711
						100:leaf=-0.0516359
					50:[C_D_U_TITLEMD5_CITY_COEC<0.516295] yes=101,no=102,missing=101
						101:leaf=-0.0370221
						102:leaf=0.0457815
			12:[D_TITLEMD5_C<19.4408] yes=25,no=26,missing=26
				25:[C_D_U_TITLEMD5_CITY_COEC<0.49624] yes=51,no=52,missing=51
					51:[C_D_U_KEYWORD_CATEGORY_MICRO_MEAN_COEC<0.098749] yes=103,no=104,missing=104
						103:leaf=-0.095051
						104:leaf=-0.0499833
					52:[C_D_U_TITLEMD5_CATEGORY_MACRO_MEAN_COEC<0.089004] yes=105,no=106,missing=106
						105:leaf=-0.0290161
						106:leaf=0.140284
				26:[C_D_U_TITLEMD5_CATEGORY_MICRO_MEAN_COEC<0.153863] yes=53,no=54,missing=54
					53:[C_D_U_CATEGORY_CITY_MACRO_MEAN_COEC<0.156692] yes=107,no=108,missing=107
						107:leaf=-0.0309847
						108:leaf=0.013617
					54:[KW_REL<0.000781] yes=109,no=110,missing=110
						109:leaf=-0.0139186
						110:leaf=0.0211041
		6:[C_D_U_TITLEMD5_CATEGORY_MICRO_MAX_COEC<0.262612] yes=13,no=14,missing=14
			13:[U_KW_LEN<324] yes=27,no=28,missing=28
				27:[C_D_U_TITLEMD5_CATEGORY_MICRO_MEAN_COEC<0.167392] yes=55,no=56,missing=56
					55:[U_KEYWORD_MICRO_MAX_COEC<0.118838] yes=111,no=112,missing=111
						111:leaf=-0.0660199
						112:leaf=-0.0389009
					56:[U_KEYWORD_MICRO_MAX_COEC<0.118838] yes=113,no=114,missing=113
						113:leaf=-0.0351568
						114:leaf=-0.00370733
				28:[C_D_U_TITLEMD5_CATEGORY_MICRO_MEAN_COEC<0.156439] yes=57,no=58,missing=58
					57:[C_D_U_CATEGORY_CITY_MACRO_MEAN_COEC<0.16425] yes=115,no=116,missing=115
						115:leaf=-0.017766
						116:leaf=0.0318692
					58:[M_D_U_KEYWORD_KEYWORD_MICRO_MAX_COEC<0.126279] yes=117,no=118,missing=117
						117:leaf=0.0118585
						118:leaf=0.0414479
			14:[U_KW_LEN<390] yes=29,no=30,missing=30
				29:[C_D_U_KEYWORD_CATEGORY_MICRO_MEAN_COEC<0.169193] yes=59,no=60,missing=60
					59:[U_KEYWORD_MICRO_MAX_COEC<0.127864] yes=119,no=120,missing=120
						119:leaf=-0.0131872
						120:leaf=0.0175387
					60:[U_KEYWORD_MICRO_MAX_COEC<0.117904] yes=121,no=122,missing=121
						121:leaf=0.0114097
						122:leaf=0.0482855
				30:[C_D_U_TITLEMD5_CATEGORY_MICRO_MEAN_COEC<0.197366] yes=61,no=62,missing=62
					61:[C_D_U_TITLEMD5_CITY_C<83.7791] yes=123,no=124,missing=124
						123:leaf=0.0434796
						124:leaf=0.00650891
					62:[C_D_U_CATEGORY_CITY_MICRO_MEAN_COEC<0.119174] yes=125,no=126,missing=125
						125:leaf=0.0529811
						126:leaf=0.0793288
booster[1]:
0:[C_D_U_TITLEMD5_CATEGORY_MICRO_MEAN_COEC<0.106313] yes=1,no=2,missing=1
	1:[D_TITLEMD5_COEC<0.083731] yes=3,no=4,missing=3
		3:[C_D_U_TITLEMD5_CATEGORY_MICRO_MEAN_COEC<0.048357] yes=7,no=8,missing=7
			7:[M_D_U_KEYWORD_KEYWORD_MICRO_MAX_COEC<0.107968] yes=15,no=16,missing=15
				15:[D_TITLEMD5_COEC<0.043682] yes=31,no=32,missing=32
					31:[CAT_REL<0.001069] yes=63,no=64,missing=64
						63:leaf=-0.152202
						64:leaf=-0.134814
					32:[C_D_U_PUBLISHER_CITY_COEC<0.0898] yes=65,no=66,missing=65
						65:leaf=-0.133463
						66:leaf=-0.116752
				16:[C_D_U_PUBLISHER_CITY_COEC<0.083448] yes=33,no=34,missing=33
					33:[U_KW_LEN<773] yes=67,no=68,missing=68
						67:leaf=-0.125503
						68:leaf=-0.103165
					34:[C_D_U_KEYWORD_CATEGORY_MICRO_MAX_COEC<0.211424] yes=69,no=70,missing=69
						69:leaf=-0.10364
						70:leaf=-0.0652337
			8:[U_KW_LEN<434] yes=17,no=18,missing=18
				17:[C_D_U_TITLEMD5_CITY_C<7.98405] yes=35,no=36,missing=36
					35:[U_CITY_EC<98.7129] yes=71,no=72,missing=71
						71:leaf=0.0323855
						72:leaf=-0.101637
					36:[U_KEYWORD_MICRO_MAX_COEC<0.117567] yes=73,no=74,missing=73
						73:leaf=-0.131862
						74:leaf=-0.112743
				18:[CAT_REL<0.014978] yes=37,no=38,missing=38
					37:[C_D_U_PUBLISHER_CITY_COEC<0.10266] yes=75,no=76,missing=75
						75:leaf=-0.109611
						76:leaf=-0.0769285
					38:[C_D_U_TITLEMD5_CITY_C<13.3731] yes=77,no=78,missing=78
						77:leaf=-0.0439106
						78:leaf=-0.0812354
		4:[D_KEYWORD_MACRO_MEAN_COEC<0.109917] yes=9,no=10,missing=10
			9:[C_D_U_PUBLISHER_CITY_COEC<0.088314] yes=19,no=20,missing=19
				19:[KW_REL<0.000876] yes=39,no=40,missing=40
					39:[D_TITLEMD5_C<14.3732] yes=79,no=80,missing=80
						79:leaf=-0.123354
						80:leaf=-0.0995737
					40:[U_KW_LEN<647] yes=81,no=82,missing=82
						81:leaf=-0.0870835
						82:leaf=-0.0584257
				20:[U_KW_LEN<773] yes=41,no=42,missing=42
					41:[C_D_U_TITLEMD5_CITY_COEC<0.503758] yes=83,no=84,missing=83
						83:leaf=-0.0841873
						84:leaf=-0.0327663
					42:[C_D_U_CATEGORY_CITY_MACRO_MEAN_COEC<0.146087] yes=85,no=86,missing=85
						85:leaf=-0.0506044
						86:leaf=-0.0016255
			10:[D_KEYWORD_MACRO_MEAN_COEC<0.1326] yes=21,no=22,missing=22
				21:[U_CITY_COEC<0.062374] yes=43,no=44,missing=43
					43:[WORD_COUNT<1778] yes=87,no=88,missing=88
						87:leaf=-0.0927283
						88:leaf=-0.0743417
					44:[WORD_COUNT<1778] yes=89,no=90,missing=90
						89:leaf=-0.0703397
						90:leaf=-0.0504344
				22:[D_PUBLISHER_C<6098.99] yes=45,no=46,missing=46
					45:[D_TITLEMD5_C<4.78036] yes=91,no=92,missing=92
						91:leaf=-0.122564
						92:leaf=-0.0523164
					46:[D_KEYWORD_MICRO_MAX_COEC<0.225684] yes=93,no=94,missing=94
						93:leaf=-0.0370675
						94:leaf=-0.0145445
	2:[C_D_U_KEYWORD_CATEGORY_MICRO_MEAN_COEC<0.129372] yes=5,no=6,missing=6
		5:[U_KW_LEN<550] yes=11,no=12,missing=12
			11:[C_D_U_TITLEMD5_CITY_COEC<0.494987] yes=23,no=24,missing=23
				23:[C_D_U_TITLEMD5_CATEGORY_MEAN_C<0.539632] yes=47,no=48,missing=48
					47:[D_TITLEMD5_COEC<0.113965] yes=95,no=96,missing=96
						95:leaf=-0.103553
						96:leaf=-0.0713112
					48:[U_KW_LEN<220] yes=97,no=98,missing=98
						97:leaf=-0.0636647
						98:leaf=-0.0353501
				24:[U_CITY_C<25.3509] yes=49,no=50,missing=50
					49:[C_D_U_TITLEMD5_CITY_C<0.936914] yes=99,no=100,missing=100
						99:leaf=0.00064404
						100:leaf=0.14171
					50:[C_D_U_TITLEMD5_CATEGORY_MACRO_MEAN_COEC<0.258861] yes=101,no=102,missing=102
						101:leaf=-0.0173849
						102:leaf=0.104288
			12:[C_D_U_TITLEMD5_CATEGORY_MEAN_C<0.115611] yes=25,no=26,missing=26
				25:[C_D_U_TITLEMD5_CITY_COEC<0.503758] yes=51,no=52,missing=51
					51:[D_KEYWORD_MACRO_MEAN_COEC<0.07355] yes=103,no=104,missing=104
						103:leaf=-0.088074
						104:leaf=-0.0436749
					52:[C_D_U_TITLEMD5_CATEGORY_MACRO_MEAN_COEC<0.127648] yes=105,no=106,missing=106
						105:leaf=0.0122301
						106:leaf=0.147268
				26:[C_D_U_CATEGORY_CITY_MACRO_MEAN_COEC<0.138545] yes=53,no=54,missing=53
					53:[C_D_U_TITLEMD5_CITY_C<83.0484] yes=107,no=108,missing=108
						107:leaf=-0.00158673
						108:leaf=-0.0313488
					54:[C_D_U_PUBLISHER_CITY_COEC<0.24559] yes=109,no=110,missing=109
						109:leaf=0.0135225
						110:leaf=0.0677644
		6:[C_D_U_TITLEMD5_CATEGORY_MICRO_MEAN_COEC<0.196997] yes=13,no=14,missing=14
			13:[U_KW_LEN<296] yes=27,no=28,missing=28
				27:[C_D_U_TITLEMD5_CATEGORY_MICRO_MEAN_COEC<0.152534] yes=55,no=56,missing=56
					55:[C_D_U_TITLEMD5_CITY_COEC<0.424956] yes=111,no=112,missing=111
						111:leaf=-0.0583952
						112:leaf=0.00296946
					56:[U_KEYWORD_MICRO_MAX_COEC<0.121472] yes=113,no=114,missing=113
						113:leaf=-0.0422655
						114:leaf=-0.0144013
				28:[C_D_U_TITLEMD5_CITY_EC<0.411798] yes=57,no=58,missing=57
					57:[C_D_U_TITLEMD5_CATEGORY_MICRO_MEAN_COEC<0.156906] yes=115,no=116,missing=116
						115:leaf=-0.0263368
						116:leaf=0.00426051
					58:[U_CITY_EC<248.657] yes=117,no=118,missing=118
						117:leaf=0.0681606
						118:leaf=0.0128857
			14:[U_KW_LEN<296] yes=29,no=30,missing=30
				29:[C_D_U_PUBLISHER_AGE_COEC<0.144157] yes=59,no=60,missing=59
					59:[U_KEYWORD_MICRO_MAX_COEC<0.118251] yes=119,no=120,missing=119
						119:leaf=-0.0181511
						120:leaf=0.0135878
					60:[C_D_U_TITLEMD5_CATEGORY_MACRO_MEAN_COEC<0.304006] yes=121,no=122,missing=122
						121:leaf=0.0308393
						122:leaf=0.0895711
				30:[C_D_U_CATEGORY_CITY_MICRO_MEAN_COEC<0.135153] yes=61,no=62,missing=61
					61:[C_D_U_TITLEMD5_CATEGORY_MEAN_C<0.291315] yes=123,no=124,missing=124
						123:leaf=-0.00281612
						124:leaf=0.0431163
					62:[U_KW_LEN<811] yes=125,no=126,missing=126
						125:leaf=0.0570296
						126:leaf=0.0841549
booster[2]:
0:[C_D_U_TITLEMD5_CATEGORY_MICRO_MEAN_COEC<0.119493] yes=1,no=2,missing=1
	1:[D_TITLEMD5_COEC<0.066191] yes=3,no=4,missing=3
		3:[CAT_REL<0.001005] yes=7,no=8,missing=8
			7:[D_TITLEMD5_COEC<0.043459] yes=15,no=16,missing=16
				15:[C_D_U_TITLEMD5_CITY_COEC<0.503758] yes=31,no=32,missing=31
					31:[D_PUBLISHER_COEC<0.073129] yes=63,no=64,missing=64
						63:leaf=-0.143414
						64:leaf=-0.12923
					32:[C_D_U_TITLEMD5_CITY_C<0.975248] yes=65,no=66,missing=66
						65:leaf=-0.0771165
						66:leaf=0.0715987
				16:[C_D_U_KEYWORD_CATEGORY_MICRO_MEAN_COEC<0.080845] yes=33,no=34,missing=33
					33:[C_D_U_TITLEMD5_CITY_COEC<0.503758] yes=67,no=68,missing=67
						67:leaf=-0.128021
						68:leaf=-0.0487631
					34:[D_CATEGORY_MAX_C<22960.3] yes=69,no=70,missing=70
						69:leaf=-0.112729
						70:leaf=-0.0709471
			8:[C_D_U_TITLEMD5_CATEGORY_MICRO_MEAN_COEC<0.060153] yes=17,no=18,missing=17
				17:[M_D_U_KEYWORD_KEYWORD_MICRO_MAX_COEC<0.121894] yes=35,no=36,missing=35
					35:[C_D_U_TITLEMD5_CITY_EC<17.066] yes=71,no=72,missing=72
						71:leaf=-0.0927805
						72:leaf=-0.120821
					36:[DOC_AGE<0.999999] yes=73,no=74,missing=74
						73:leaf=-0.054788
						74:leaf=-0.095007
				18:[C_D_U_TITLEMD5_CITY_COEC<0.503758] yes=37,no=38,missing=37
					37:[U_KW_LEN<644] yes=75,no=76,missing=76
						75:leaf=-0.0936098
						76:leaf=-0.0591234
					38:[C_D_U_TITLEMD5_CATEGORY_MACRO_MEAN_COEC<0.054724] yes=77,no=78,missing=78
						77:leaf=-0.0256743
						78:leaf=0.109254
		4:[D_KEYWORD_MACRO_MEAN_COEC<0.099454] yes=9,no=10,missing=10
			9:[U_KW_LEN<280] yes=19,no=20,missing=20
				19:[C_D_U_TITLEMD5_CITY_C<83.7791] yes=39,no=40,missing=40
					39:[U_CITY_EC<167.107] yes=79,no=80,missing=79
						79:leaf=-0.0322729
						80:leaf=-0.0874118
					40:[D_KEYWORD_MACRO_MEAN_COEC<0.073959] yes=81,no=82,missing=82
						81:leaf=-0.114063
						82:leaf=-0.095951
				20:[C_D_U_TITLEMD5_CATEGORY_MICRO_MEAN_COEC<0.080185] yes=41,no=42,missing=41
					41:[CAT_REL<0.004066] yes=83,no=84,missing=84
						83:leaf=-0.0976402
						84:leaf=-0.0691372
					42:[C_D_U_TITLEMD5_CITY_C<20.7202] yes=85,no=86,missing=86
						85:leaf=-0.0342747
						86:leaf=-0.0615661
			10:[D_TITLEMD5_COEC<0.180491] yes=21,no=22,missing=22
				21:[U_CITY_COEC<0.061786] yes=43,no=44,missing=43
					43:[D_KEYWORD_MEAN_EC<3674.84] yes=87,no=88,missing=88
						87:leaf=-0.0779096
						88:leaf=-0.111105
					44:[WORD_COUNT<1758] yes=89,no=90,missing=90
						89:leaf=-0.0670017
						90:leaf=-0.0501077
				22:[D_TITLEMD5_C<7.55134] yes=45,no=46,missing=46
					45:[C_D_U_KEYWORD_CATEGORY_MICRO_MEAN_COEC<0.097554] yes=91,no=92,missing=91
						91:leaf=-0.101064
						92:leaf=-0.0486255
					46:[D_KEYWORD_MICRO_MAX_COEC<0.225854] yes=93,no=94,missing=94
						93:leaf=-0.0396424
						94:leaf=-0.0154734
	2:[C_D_U_KEYWORD_CATEGORY_MICRO_MEAN_COEC<0.13967] yes=5,no=6,missing=6
		5:[U_KW_LEN<280] yes=11,no=12,missing=12
			11:[C_D_U_TITLEMD5_CATEGORY_MEAN_C<0.3758] yes=23,no=24,missing=24
				23:[C_D_U_TITLEMD5_CITY_C<0.666299] yes=47,no=48,missing=47
					47:[D_TITLEMD5_COEC<0.094296] yes=95,no=96,missing=96
						95:leaf=-0.115962
						96:leaf=-0.0778588
					48:[U_CITY_EC<1208.23] yes=97,no=98,missing=98
						97:leaf=0.127879
						98:leaf=-0.0290712
				24:[C_D_U_TITLEMD5_CITY_COEC<0.518787] yes=49,no=50,missing=49
					49:[U_KEYWORD_MICRO_MAX_COEC<0.120346] yes=99,no=100,missing=99
						99:leaf=-0.0599972
						100:leaf=-0.0347091
					50:[C_D_U_TITLEMD5_CITY_C<0.951109] yes=101,no=102,missing=102
						101:leaf=-0.0237743
						102:leaf=0.0586853
			12:[D_TITLEMD5_C<12.7523] yes=25,no=26,missing=26
				25:[C_D_U_TITLEMD5_CITY_C<0.666299] yes=51,no=52,missing=51
					51:[KW_REL<0.001425] yes=103,no=104,missing=104
						103:leaf=-0.0837081
						104:leaf=-0.0415528
					52:[C_D_U_TITLEMD5_CATEGORY_MACRO_MEAN_COEC<0.117078] yes=105,no=106,missing=106
						105:leaf=-0.0134906
						106:leaf=0.136303
				26:[KW_REL<0.000757] yes=53,no=54,missing=54
					53:[C_D_U_PUBLISHER_CITY_COEC<0.142105] yes=107,no=108,missing=107
						107:leaf=-0.0349218
						108:leaf=-0.00176469
					54:[U_KW_LEN<916] yes=109,no=110,missing=110
						109:leaf=-0.00995052
						110:leaf=0.0208675
		6:[C_D_U_TITLEMD5_CATEGORY_MICRO_MAX_COEC<0.28586] yes=13,no=14,missing=14
			13:[U_KW_LEN<180] yes=27,no=28,missing=28
				27:[C_D_U_TITLEMD5_CATEGORY_MACRO_MEAN_COEC<0.178143] yes=55,no=56,missing=56
					55:[U_KEYWORD_MICRO_MAX_COEC<0.122009] yes=111,no=112,missing=111
						111:leaf=-0.0506812
						112:leaf=-0.029405
					56:[U_KEYWORD_MICRO_MAX_COEC<0.117891] yes=113,no=114,missing=113
						113:leaf=-0.0308435
						114:leaf=-0.00148885
				28:[U_KW_LEN<771] yes=57,no=58,missing=58
					57:[U_KEYWORD_MICRO_MAX_COEC<0.124249] yes=115,no=116,missing=115
						115:leaf=-0.0082484
						116:leaf=0.0159901
					58:[C_D_U_TITLEMD5_CITY_C<103.259] yes=117,no=118,missing=118
						117:leaf=0.0474238
						118:leaf=0.0176824
			14:[U_KW_LEN<554] yes=29,no=30,missing=30
				29:[C_D_U_KEYWORD_CATEGORY_MICRO_MEAN_COEC<0.170711] yes=59,no=60,missing=60
					59:[C_D_U_TITLEMD5_CATEGORY_MEAN_C<1.0529] yes=119,no=120,missing=120
						119:leaf=-0.0238624
						120:leaf=0.0174254
					60:[C_D_U_TITLEMD5_CATEGORY_MICRO_MEAN_COEC<0.303056] yes=121,no=122,missing=122
						121:leaf=0.0318756
						122:leaf=0.0650504
				30:[C_D_U_TITLEMD5_CATEGORY_MEAN_C<0.173933] yes=61,no=62,missing=62
					61:[C_D_U_CATEGORY_CITY_MICRO_MAX_COEC<0.105888] yes=123,no=124,missing=123
						123:leaf=-0.0115552
						124:leaf=0.0355227
					62:[C_D_U_TITLEMD5_CATEGORY_MICRO_MEAN_COEC<0.235064] yes=125,no=126,missing=126
						125:leaf=0.0443962
						126:leaf=0.0693298
booster[3]:
0:[C_D_U_TITLEMD5_CATEGORY_MICRO_MEAN_COEC<0.105787] yes=1,no=2,missing=1
	1:[D_KEYWORD_MACRO_MEAN_COEC<0.071973] yes=3,no=4,missing=3
		3:[C_D_U_TITLEMD5_CATEGORY_MICRO_MEAN_COEC<0.048688] yes=7,no=8,missing=7
			7:[U_KW_LEN<726] yes=15,no=16,missing=16
				15:[D_TITLEMD5_COEC<0.05679] yes=31,no=32,missing=31
					31:[U_KEYWORD_MICRO_MAX_COEC<0.123539] yes=63,no=64,missing=63
						63:leaf=-0.12866
						64:leaf=-0.114409
					32:[C_D_U_TITLEMD5_CITY_COEC<0.518883] yes=65,no=66,missing=65
						65:leaf=-0.107986
						66:leaf=-0.0282229
				16:[C_D_U_CATEGORY_CITY_MACRO_MEAN_COEC<0.120185] yes=33,no=34,missing=33
					33:[KW_REL<0.002044] yes=67,no=68,missing=68
						67:leaf=-0.110387
						68:leaf=-0.0798369
					34:[C_D_U_TITLEMD5_CITY_EC<1.11554] yes=69,no=70,missing=70
						69:leaf=0.0106093
						70:leaf=-0.0749536
			8:[CAT_REL<0.004029] yes=17,no=18,missing=18
				17:[C_D_U_TITLEMD5_CITY_EC<1.58021] yes=35,no=36,missing=36
					35:[U_CITY_EC<94.1887] yes=71,no=72,missing=72
						71:leaf=0.0498288
						72:leaf=-0.0828623
					36:[D_KEYWORD_MACRO_MEAN_COEC<0.065032] yes=73,no=74,missing=74
						73:leaf=-0.109364
						74:leaf=-0.0908725
				18:[U_KW_LEN<767] yes=37,no=38,missing=38
					37:[C_D_U_TITLEMD5_CITY_C<10.2435] yes=75,no=76,missing=76
						75:leaf=-0.0637741
						76:leaf=-0.0901751
					38:[C_D_U_CATEGORY_CITY_MACRO_MEAN_COEC<0.146616] yes=77,no=78,missing=77
						77:leaf=-0.0562412
						78:leaf=-0.00673359
		4:[D_TITLEMD5_COEC<0.126616] yes=9,no=10,missing=10
			9:[C_D_U_TITLEMD5_CATEGORY_MICRO_MEAN_COEC<0.074638] yes=19,no=20,missing=19
				19:[C_D_U_PUBLISHER_CITY_COEC<0.116482] yes=39,no=40,missing=39
					39:[D_TITLEMD5_COEC<0.08835] yes=79,no=80,missing=80
						79:leaf=-0.0998794
						80:leaf=-0.086431
					40:[C_D_U_TITLEMD5_CITY_COEC<0.497493] yes=81,no=82,missing=81
						81:leaf=-0.0757533
						82:leaf=-0.0247688
				20:[U_KW_LEN<726] yes=41,no=42,missing=42
					41:[U_KEYWORD_MICRO_MAX_COEC<0.125976] yes=83,no=84,missing=83
						83:leaf=-0.0810882
						84:leaf=-0.0564856
					42:[U_CITY_COEC<0.121248] yes=85,no=86,missing=85
						85:leaf=-0.0408674
						86:leaf=-0.00179915
			10:[D_KEYWORD_MICRO_MEAN_COEC<0.139327] yes=21,no=22,missing=22
				21:[U_CITY_COEC<0.060057] yes=43,no=44,missing=43
					43:[D_PUBLISHER_COEC<0.135785] yes=87,no=88,missing=87
						87:leaf=-0.0760366
						88:leaf=-0.0554332
					44:[D_TITLEMD5_C<2.51183] yes=89,no=90,missing=90
						89:leaf=-0.0821153
						90:leaf=-0.0488539
				22:[D_TITLEMD5_COEC<0.181683] yes=45,no=46,missing=45
					45:[U_CITY_COEC<0.066907] yes=91,no=92,missing=91
						91:leaf=-0.0600639
						92:leaf=-0.03552
					46:[D_TITLEMD5_COEC<0.228685] yes=93,no=94,missing=94
						93:leaf=-0.0264469
						94:leaf=-0.00944358
	2:[C_D_U_KEYWORD_CATEGORY_MICRO_MEAN_COEC<0.122717] yes=5,no=6,missing=6
		5:[C_D_U_TITLEMD5_CITY_C<83.7791] yes=11,no=12,missing=12
			11:[U_CITY_EC<248.694] yes=23,no=24,missing=23
				23:[C_D_U_TITLEMD5_CITY_C<0.951109] yes=47,no=48,missing=48
					47:[U_KW_LEN<362] yes=95,no=96,missing=96
						95:leaf=0.000877805
						96:leaf=0.0551195
					48:[D_TITLEMD5_C<158.132] yes=97,no=98,missing=98
						97:leaf=0.158892
						98:leaf=0.107008
				24:[U_KW_LEN<657] yes=49,no=50,missing=50
					49:[U_KEYWORD_MICRO_MAX_COEC<0.119587] yes=99,no=100,missing=100
						99:leaf=-0.0571866
						100:leaf=-0.0285743
					50:[CAT_REL<0.009723] yes=101,no=102,missing=102
						101:leaf=-0.0236322
						102:leaf=0.010169
			12:[D_TITLEMD5_C<6.5538] yes=25,no=26,missing=26
				25:[C_D_U_KEYWORD_CATEGORY_MICRO_MEAN_COEC<0.088607] yes=51,no=52,missing=52
					51:[KW_REL<0.000831] yes=103,no=104,missing=104
						103:leaf=-0.116739
						104:leaf=-0.0908561
					52:[D_TITLEMD5_COEC<0.118632] yes=105,no=106,missing=106
						105:leaf=-0.0890298
						106:leaf=-0.0564311
				26:[U_KW_LEN<726] yes=53,no=54,missing=54
					53:[D_TITLEMD5_COEC<0.128298] yes=107,no=108,missing=108
						107:leaf=-0.067209
						108:leaf=-0.0414746
					54:[M_D_U_KEYWORD_KEYWORD_MAX_C<0.00711] yes=109,no=110,missing=110
						109:leaf=-0.00374089
						110:leaf=-0.0368774
		6:[C_D_U_TITLEMD5_CATEGORY_MICRO_MEAN_COEC<0.182637] yes=13,no=14,missing=14
			13:[U_KW_LEN<397] yes=27,no=28,missing=28
				27:[U_KEYWORD_MICRO_MAX_COEC<0.126519] yes=55,no=56,missing=55
					55:[C_D_U_TITLEMD5_CATEGORY_MICRO_MEAN_COEC<0.137996] yes=111,no=112,missing=112
						111:leaf=-0.062205
						112:leaf=-0.0376095
					56:[C_D_U_TITLEMD5_CITY_C<10.2435] yes=113,no=114,missing=114
						113:leaf=-0.00763087
						114:leaf=-0.0321024
				28:[C_D_U_TITLEMD5_CITY_C<83.7791] yes=57,no=58,missing=58
					57:[U_CITY_EC<138.419] yes=115,no=116,missing=116
						115:leaf=0.0799633
						116:leaf=0.0104229
					58:[C_D_U_CATEGORY_CITY_MICRO_MEAN_COEC<0.103787] yes=117,no=118,missing=118
						117:leaf=-0.0368035
						118:leaf=-0.00322798
			14:[U_KW_LEN<210] yes=29,no=30,missing=30
				29:[C_D_U_TITLEMD5_CATEGORY_MACRO_MEAN_COEC<0.231905] yes=59,no=60,missing=60
					59:[U_KEYWORD_MICRO_MAX_COEC<0.118256] yes=119,no=120,missing=119
						119:leaf=-0.0298911
						120:leaf=-0.00534827
					60:[C_D_U_TITLEMD5_AGE_COEC<0.280367] yes=121,no=122,missing=121
						121:leaf=0.00908805
						122:leaf=0.0496543
				30:[C_D_U_CATEGORY_CITY_MICRO_MEAN_COEC<0.121524] yes=61,no=62,missing=61
					61:[D_TITLEMD5_C<24.493] yes=123,no=124,missing=124
						123:leaf=-0.0131397
						124:leaf=0.026402
					62:[C_D_U_PUBLISHER_CITY_COEC<0.22533] yes=125,no=126,missing=125
						125:leaf=0.0419916
						126:leaf=0.074309
booster[4]:
0:[C_D_U_TITLEMD5_CATEGORY_MICRO_MEAN_COEC<0.122821] yes=1,no=2,missing=1
	1:[D_TITLEMD5_COEC<0.067838] yes=3,no=4,missing=3
		3:[KW_REL<0.000704] yes=7,no=8,missing=8
			7:[D_TITLEMD5_COEC<0.041325] yes=15,no=16,missing=15
				15:[C_D_U_TITLEMD5_CITY_COEC<0.502543] yes=31,no=32,missing=31
					31:[D_PUBLISHER_COEC<0.094445] yes=63,no=64,missing=63
						63:leaf=-0.12142
						64:leaf=-0.10186
					32:[U_CITY_EC<272.163] yes=65,no=66,missing=66
						65:leaf=0.137295
						66:leaf=-0.0329461
				16:[U_KW_LEN<314] yes=33,no=34,missing=34
					33:[C_D_U_TITLEMD5_CITY_COEC<0.495003] yes=67,no=68,missing=67
						67:leaf=-0.107521
						68:leaf=-0.0364775
					34:[C_D_U_TITLEMD5_CITY_C<7.55391] yes=69,no=70,missing=70
						69:leaf=-0.0664397
						70:leaf=-0.0933038
			8:[C_D_U_TITLEMD5_CATEGORY_MICRO_MEAN_COEC<0.068667] yes=17,no=18,missing=17
				17:[C_D_U_KEYWORD_CATEGORY_MICRO_MEAN_COEC<0.111141] yes=35,no=36,missing=35
					35:[C_D_U_TITLEMD5_CITY_EC<1.44909] yes=71,no=72,missing=72
						71:leaf=-0.0626221
						72:leaf=-0.0977539
					36:[DOC_AGE<4] yes=73,no=74,missing=74
						73:leaf=-0.0475466
						74:leaf=-0.0791796
				18:[C_D_U_TITLEMD5_CITY_C<0.904609] yes=37,no=38,missing=37
					37:[U_KW_LEN<721] yes=75,no=76,missing=76
						75:leaf=-0.0703697
						76:leaf=-0.041182
					38:[U_CITY_EC<1248.27] yes=77,no=78,missing=78
						77:leaf=0.147747
						78:leaf=-0.000308754
		4:[D_KEYWORD_MACRO_MEAN_COEC<0.098836] yes=9,no=10,missing=10
			9:[U_KW_LEN<247] yes=19,no=20,missing=20
				19:[C_D_U_PUBLISHER_CITY_COEC<0.088425] yes=39,no=40,missing=39
					39:[D_TITLEMD5_COEC<0.094879] yes=79,no=80,missing=80
						79:leaf=-0.0927314
						80:leaf=-0.0784753
					40:[C_D_U_TITLEMD5_CITY_COEC<0.525041] yes=81,no=82,missing=81
						81:leaf=-0.0707495
						82:leaf=-0.0164684
				20:[C_D_U_CATEGORY_CITY_MACRO_MEAN_COEC<0.151915] yes=41,no=42,missing=41
					41:[C_D_U_TITLEMD5_CITY_C<14.9782] yes=83,no=84,missing=84
						83:leaf=-0.0383998
						84:leaf=-0.0660289
					42:[C_D_U_TITLEMD5_CITY_EC<2.4675] yes=85,no=86,missing=86
						85:leaf=0.0281769
						86:leaf=-0.0260425
			10:[D_TITLEMD5_COEC<0.171859] yes=21,no=22,missing=22
				21:[U_CITY_COEC<0.070417] yes=43,no=44,missing=43
					43:[D_PUBLISHER_EC<164513] yes=87,no=88,missing=88
						87:leaf=-0.0637078
						88:leaf=-0.0919417
					44:[WORD_COUNT<1758] yes=89,no=90,missing=90
						89:leaf=-0.0554116
						90:leaf=-0.0398585
				22:[D_TITLEMD5_C<4.83743] yes=45,no=46,missing=46
					45:[C_D_U_KEYWORD_CATEGORY_MICRO_MEAN_COEC<0.105116] yes=91,no=92,missing=91
						91:leaf=-0.089625
						92:leaf=-0.0295446
					46:[D_KEYWORD_MICRO_MAX_COEC<0.225952] yes=93,no=94,missing=94
						93:leaf=-0.03326
						94:leaf=-0.0114683
	2:[C_D_U_KEYWORD_CATEGORY_MICRO_MEAN_COEC<0.115884] yes=5,no=6,missing=6
		5:[C_D_U_TITLEMD5_CITY_COEC<0.333939] yes=11,no=12,missing=11
			11:[D_TITLEMD5_C<8.71084] yes=23,no=24,missing=24
				23:[C_D_U_KEYWORD_CATEGORY_MICRO_MEAN_COEC<0.081363] yes=47,no=48,missing=48
					47:[CAT_REL<0.003985] yes=95,no=96,missing=96
						95:leaf=-0.115379
						96:leaf=-0.0914833
					48:[KW_REL<0.000553] yes=97,no=98,missing=98
						97:leaf=-0.0835905
						98:leaf=-0.0535565
				24:[U_KW_LEN<588] yes=49,no=50,missing=50
					49:[U_KEYWORD_MICRO_MAX_COEC<0.119667] yes=99,no=100,missing=100
						99:leaf=-0.0564711
						100:leaf=-0.0344409
					50:[CAT_REL<0.003985] yes=101,no=102,missing=102
						101:leaf=-0.0320501
						102:leaf=-0.00146924
			12:[C_D_U_TITLEMD5_CATEGORY_MICRO_MAX_COEC<0.448127] yes=25,no=26,missing=26
				25:[U_CITY_EC<191.001] yes=51,no=52,missing=52
					51:[C_D_U_TITLEMD5_CITY_C<0.955889] yes=103,no=104,missing=104
						103:leaf=0.0336512
						104:leaf=0.133511
					52:[C_D_U_TITLEMD5_CITY_C<0.96552] yes=105,no=106,missing=106
						105:leaf=-0.029283
						106:leaf=0.0144972
				26:[U_CITY_EC<2453.39] yes=53,no=54,missing=54
					53:[C_D_U_TITLEMD5_CITY_C<0.918315] yes=107,no=108,missing=108
						107:leaf=0.0636131
						108:leaf=0.134293
					54:[C_D_U_TITLEMD5_CATEGORY_MACRO_MEAN_COEC<0.206098] yes=109,no=110,missing=110
						109:leaf=-0.00211654
						110:leaf=0.0835836
		6:[C_D_U_TITLEMD5_CATEGORY_MICRO_MEAN_COEC<0.204475] yes=13,no=14,missing=14
			13:[U_KW_LEN<222] yes=27,no=28,missing=28
				27:[U_KEYWORD_MICRO_MAX_COEC<0.128799] yes=55,no=56,missing=55
					55:[C_D_U_TITLEMD5_CATEGORY_MACRO_MEAN_COEC<0.150423] yes=111,no=112,missing=112
						111:leaf=-0.0509847
						112:leaf=-0.0317088
					56:[C_D_U_TITLEMD5_CITY_COEC<0.261533] yes=113,no=114,missing=113
						113:leaf=-0.0223913
						114:leaf=0.0177648
				28:[U_KW_LEN<870] yes=57,no=58,missing=58
					57:[U_KEYWORD_MICRO_MAX_COEC<0.129823] yes=115,no=116,missing=115
						115:leaf=-0.0169019
						116:leaf=0.00903291
					58:[C_D_U_TITLEMD5_CITY_C<83.7791] yes=117,no=118,missing=118
						117:leaf=0.0333555
						118:leaf=0.00548731
			14:[U_KW_LEN<375] yes=29,no=30,missing=30
				29:[U_KEYWORD_MICRO_MAX_COEC<0.123575] yes=59,no=60,missing=59
					59:[C_D_U_CATEGORY_AGE_MACRO_MAX_COEC<0.116501] yes=119,no=120,missing=119
						119:leaf=-0.00982181
						120:leaf=0.0265683
					60:[C_D_U_KEYWORD_CATEGORY_MICRO_MEAN_COEC<0.186332] yes=121,no=122,missing=122
						121:leaf=0.012266
						122:leaf=0.0398579
				30:[C_D_U_TITLEMD5_CATEGORY_MEAN_C<0.164703] yes=61,no=62,missing=62
					61:[C_D_U_PUBLISHER_CITY_COEC<0.126578] yes=123,no=124,missing=123
						123:leaf=-0.0185022
						124:leaf=0.0443469
					62:[U_KW_LEN<1128] yes=125,no=126,missing=126
						125:leaf=0.0344864
						126:leaf=0.059834
booster[5]:
0:[C_D_U_TITLEMD5_CATEGORY_MICRO_MEAN_COEC<0.101674] yes=1,no=2,missing=1
	1:[D_KEYWORD_MACRO_MEAN_COEC<0.070378] yes=3,no=4,missing=4
		3:[C_D_U_TITLEMD5_CATEGORY_MICRO_MEAN_COEC<0.042089] yes=7,no=8,missing=7
			7:[C_D_U_CATEGORY_CITY_MICRO_MEAN_COEC<0.11895] yes=15,no=16,missing=15
				15:[D_PUBLISHER_COEC<0.06984] yes=31,no=32,missing=31
					31:[CAT_REL<0.003897] yes=63,no=64,missing=64
						63:leaf=-0.113938
						64:leaf=-0.100044
					32:[U_KW_LEN<767] yes=65,no=66,missing=66
						65:leaf=-0.098921
						66:leaf=-0.0782576
				16:[U_KW_LEN<987] yes=33,no=34,missing=34
					33:[C_D_U_TITLEMD5_CITY_COEC<0.503758] yes=67,no=68,missing=67
						67:leaf=-0.0908374
						68:leaf=0.00753814
					34:[C_D_U_TITLEMD5_CITY_EC<0.998938] yes=69,no=70,missing=70
						69:leaf=0.0264327
						70:leaf=-0.0570984
			8:[U_KW_LEN<717] yes=17,no=18,missing=18
				17:[U_KEYWORD_MICRO_MAX_COEC<0.12056] yes=35,no=36,missing=36
					35:[C_D_U_TITLEMD5_CITY_COEC<0.196465] yes=71,no=72,missing=71
						71:leaf=-0.0927894
						72:leaf=-0.0454935
					36:[CAT_REL<0.031853] yes=73,no=74,missing=74
						73:leaf=-0.0806093
						74:leaf=-0.0571312
				18:[CAT_REL<0.014068] yes=37,no=38,missing=38
					37:[D_PUBLISHER_COEC<0.071438] yes=75,no=76,missing=76
						75:leaf=-0.0879524
						76:leaf=-0.0587945
					38:[C_D_U_TITLEMD5_CITY_EC<0.426504] yes=77,no=78,missing=77
						77:leaf=-0.0531411
						78:leaf=-0.0142015
		4:[D_TITLEMD5_COEC<0.126718] yes=9,no=10,missing=10
			9:[U_KW_LEN<535] yes=19,no=20,missing=20
				19:[D_TITLEMD5_COEC<0.080578] yes=39,no=40,missing=40
					39:[U_KEYWORD_MICRO_MAX_COEC<0.125847] yes=79,no=80,missing=79
						79:leaf=-0.091161
						80:leaf=-0.0698105
					40:[U_CITY_COEC<0.064282] yes=81,no=82,missing=81
						81:leaf=-0.0806681
						82:leaf=-0.0626084
				20:[U_CITY_COEC<0.125453] yes=41,no=42,missing=41
					41:[C_D_U_TITLEMD5_CITY_C<21.7326] yes=83,no=84,missing=84
						83:leaf=-0.0353735
						84:leaf=-0.0617932
					42:[C_D_U_TITLEMD5_CITY_EC<1.93191] yes=85,no=86,missing=86
						85:leaf=0.0765013
						86:leaf=-0.0248387
			10:[D_KEYWORD_MICRO_MEAN_COEC<0.139496] yes=21,no=22,missing=21
				21:[U_CITY_COEC<0.059756] yes=43,no=44,missing=43
					43:[IMAGE_COUNT<3] yes=87,no=88,missing=88
						87:leaf=-0.065164
						88:leaf=-0.0487128
					44:[C_D_U_CATEGORY_CITY_MACRO_MEAN_COEC<0.182473] yes=89,no=90,missing=89
						89:leaf=-0.0435353
						90:leaf=-0.0175297
				22:[D_KEYWORD_MICRO_MAX_COEC<0.214718] yes=45,no=46,missing=46
					45:[C_D_U_TITLEMD5_CITY_COEC<0.174791] yes=91,no=92,missing=91
						91:leaf=-0.0378328
						92:leaf=-0.0111726
					46:[D_KEYWORD_MACRO_MAX_COEC<0.046638] yes=93,no=94,missing=94
						93:leaf=-0.0256689
						94:leaf=-0.00674038
	2:[C_D_U_KEYWORD_CATEGORY_MICRO_MEAN_COEC<0.125929] yes=5,no=6,missing=6
		5:[C_D_U_TITLEMD5_CITY_C<82.0896] yes=11,no=12,missing=12
			11:[U_CITY_EC<275.484] yes=23,no=24,missing=23
				23:[C_D_U_TITLEMD5_CITY_C<0.927568] yes=47,no=48,missing=48
					47:[U_KW_LEN<688] yes=95,no=96,missing=96
						95:leaf=0.00833377
						96:leaf=0.0658404
					48:[C_D_U_TITLEMD5_CITY_EC<1.71322] yes=97,no=98,missing=97
						97:leaf=0.127281
						98:leaf=0.0421598
				24:[U_KW_LEN<717] yes=49,no=50,missing=50
					49:[U_KEYWORD_MICRO_MAX_COEC<0.12153] yes=99,no=100,missing=100
						99:leaf=-0.0460933
						100:leaf=-0.0215493
					50:[CAT_REL<0.017335] yes=101,no=102,missing=102
						101:leaf=-0.0154571
						102:leaf=0.0126085
			12:[C_D_U_KEYWORD_CATEGORY_MICRO_MEAN_COEC<0.093709] yes=25,no=26,missing=26
				25:[D_TITLEMD5_C<9.25251] yes=51,no=52,missing=52
					51:[D_TITLEMD5_COEC<0.108305] yes=103,no=104,missing=104
						103:leaf=-0.0972564
						104:leaf=-0.0702148
					52:[CAT_REL<0.001012] yes=105,no=106,missing=106
						105:leaf=-0.0690721
						106:leaf=-0.0410247
				26:[U_KW_LEN<608] yes=53,no=54,missing=54
					53:[D_TITLEMD5_COEC<0.154793] yes=107,no=108,missing=108
						107:leaf=-0.0508438
						108:leaf=-0.0243288
					54:[C_D_U_CATEGORY_CITY_MACRO_MAX_COEC<0.090758] yes=109,no=110,missing=110
						109:leaf=-0.0408406
						110:leaf=-0.00783145
		6:[C_D_U_TITLEMD5_CATEGORY_MICRO_MEAN_COEC<0.175609] yes=13,no=14,missing=14
			13:[U_KW_LEN<295] yes=27,no=28,missing=28
				27:[C_D_U_TITLEMD5_CITY_COEC<0.434067] yes=55,no=56,missing=55
					55:[C_D_U_TITLEMD5_CATEGORY_MICRO_MEAN_COEC<0.143432] yes=111,no=112,missing=112
						111:leaf=-0.0466812
						112:leaf=-0.0273855
					56:[U_CITY_C<17.7179] yes=113,no=114,missing=114
						113:leaf=0.0732373
						114:leaf=-0.00451792
				28:[C_D_U_PUBLISHER_CITY_COEC<0.163062] yes=57,no=58,missing=57
					57:[M_D_U_KEYWORD_KEYWORD_MICRO_MAX_COEC<0.120461] yes=115,no=116,missing=115
						115:leaf=-0.0201061
						116:leaf=0.00315351
					58:[C_D_U_TITLEMD5_CITY_EC<1.98502] yes=117,no=118,missing=118
						117:leaf=0.0537011
						118:leaf=0.0154006
			14:[U_KW_LEN<210] yes=29,no=30,missing=30
				29:[C_D_U_TITLEMD5_CATEGORY_MACRO_MEAN_COEC<0.23293] yes=59,no=60,missing=60
					59:[U_KEYWORD_MICRO_MAX_COEC<0.116028] yes=119,no=120,missing=119
						119:leaf=-0.0284943
						120:leaf=-0.00622008
					60:[C_D_U_TITLEMD5_AGE_COEC<0.374091] yes=121,no=122,missing=121
						121:leaf=0.011469
						122:leaf=0.0860798
				30:[C_D_U_PUBLISHER_CITY_COEC<0.1296] yes=61,no=62,missing=61
					61:[M_D_U_KEYWORD_KEYWORD_MICRO_MAX_COEC<0.108666] yes=123,no=124,missing=123
						123:leaf=0.00676331
						124:leaf=0.0284815
					62:[C_D_U_CATEGORY_CITY_MACRO_MEAN_COEC<0.213908] yes=125,no=126,missing=125
						125:leaf=0.0342796
						126:leaf=0.0660173
booster[6]:
0:[C_D_U_TITLEMD5_CATEGORY_MICRO_MEAN_COEC<0.096073] yes=1,no=2,missing=1
	1:[D_TITLEMD5_COEC<0.102087] yes=3,no=4,missing=3
		3:[C_D_U_TITLEMD5_CATEGORY_MICRO_MEAN_COEC<0.050645] yes=7,no=8,missing=7
			7:[D_KEYWORD_MACRO_MEAN_COEC<0.059485] yes=15,no=16,missing=16
				15:[CAT_REL<0.001154] yes=31,no=32,missing=32
					31:[D_TITLEMD5_COEC<0.02972] yes=63,no=64,missing=63
						63:leaf=-0.11201
						64:leaf=-0.0976126
					32:[C_D_U_TITLEMD5_CITY_EC<1.44183] yes=65,no=66,missing=66
						65:leaf=-0.0470597
						66:leaf=-0.0887195
				16:[C_D_U_CATEGORY_CITY_MACRO_MEAN_COEC<0.121268] yes=33,no=34,missing=33
					33:[D_PUBLISHER_COEC<0.069682] yes=67,no=68,missing=67
						67:leaf=-0.0910917
						68:leaf=-0.0777624
					34:[U_KW_LEN<696] yes=69,no=70,missing=70
						69:leaf=-0.0671673
						70:leaf=-0.0283267
			8:[M_D_U_KEYWORD_KEYWORD_MICRO_MAX_COEC<0.102814] yes=17,no=18,missing=17
				17:[C_D_U_TITLEMD5_CITY_C<21.0646] yes=35,no=36,missing=36
					35:[U_CITY_EC<189.967] yes=71,no=72,missing=71
						71:leaf=0.0340815
						72:leaf=-0.06241
					36:[D_TITLEMD5_COEC<0.056575] yes=73,no=74,missing=74
						73:leaf=-0.0904857
						74:leaf=-0.0699509
				18:[C_D_U_CATEGORY_CITY_MACRO_MEAN_COEC<0.163293] yes=37,no=38,missing=37
					37:[U_KW_LEN<1215] yes=75,no=76,missing=76
						75:leaf=-0.0550409
						76:leaf=-0.0244669
					38:[C_D_U_TITLEMD5_CITY_EC<0.413867] yes=77,no=78,missing=77
						77:leaf=-0.021197
						78:leaf=0.0492131
		4:[D_KEYWORD_MICRO_MEAN_COEC<0.135047] yes=9,no=10,missing=10
			9:[C_D_U_PUBLISHER_CITY_COEC<0.133166] yes=19,no=20,missing=19
				19:[D_TITLEMD5_C<3.94527] yes=39,no=40,missing=40
					39:[C_D_U_KEYWORD_CATEGORY_MICRO_MEAN_COEC<0.092783] yes=79,no=80,missing=79
						79:leaf=-0.0929781
						80:leaf=-0.051295
					40:[D_TITLEMD5_COEC<0.14503] yes=81,no=82,missing=82
						81:leaf=-0.0577958
						82:leaf=-0.0414429
				20:[C_D_U_TITLEMD5_CITY_COEC<0.525041] yes=41,no=42,missing=41
					41:[U_CITY_COEC<0.249999] yes=83,no=84,missing=84
						83:leaf=-0.0376965
						84:leaf=0.0159298
					42:[C_D_U_TITLEMD5_CITY_C<0.96552] yes=85,no=86,missing=86
						85:leaf=-0.0248643
						86:leaf=0.0439586
			10:[D_KEYWORD_MICRO_MAX_COEC<0.226839] yes=21,no=22,missing=22
				21:[C_D_U_PUBLISHER_CITY_COEC<0.119716] yes=43,no=44,missing=43
					43:[TIME_OF_DAY<11] yes=87,no=88,missing=88
						87:leaf=-0.0440787
						88:leaf=-0.0307579
					44:[D_KEYWORD_MACRO_MAX_COEC<0.023661] yes=89,no=90,missing=90
						89:leaf=-0.0686102
						90:leaf=-0.0123668
				22:[TIME_OF_DAY<4] yes=45,no=46,missing=46
					45:[D_KEYWORD_MAX_EC<94.6089] yes=91,no=92,missing=92
						91:leaf=0.0300045
						92:leaf=-0.0276164
					46:[D_KEYWORD_MACRO_MAX_COEC<0.044364] yes=93,no=94,missing=94
						93:leaf=-0.0277546
						94:leaf=-0.000621153
	2:[C_D_U_TITLEMD5_CATEGORY_MICRO_MEAN_COEC<0.158347] yes=5,no=6,missing=6
		5:[U_KW_LEN<232] yes=11,no=12,missing=12
			11:[C_D_U_TITLEMD5_CATEGORY_MEAN_C<0.854676] yes=23,no=24,missing=24
				23:[D_TITLEMD5_COEC<0.106485] yes=47,no=48,missing=48
					47:[C_D_U_TITLEMD5_CITY_COEC<0.525041] yes=95,no=96,missing=95
						95:leaf=-0.0771248
						96:leaf=0.028607
					48:[U_KEYWORD_MICRO_MAX_COEC<0.126375] yes=97,no=98,missing=98
						97:leaf=-0.0628748
						98:leaf=-0.0428977
				24:[U_KEYWORD_MICRO_MAX_COEC<0.117335] yes=49,no=50,missing=49
					49:[C_D_U_TITLEMD5_CITY_EC<2.65606] yes=99,no=100,missing=100
						99:leaf=-0.03916
						100:leaf=-0.057901
					50:[C_D_U_CATEGORY_CITY_MICRO_MAX_COEC<0.196454] yes=101,no=102,missing=101
						101:leaf=-0.0362601
						102:leaf=-0.0035875
			12:[C_D_U_TITLEMD5_CITY_C<82.0626] yes=25,no=26,missing=26
				25:[U_CITY_EC<203.3] yes=51,no=52,missing=51
					51:[U_CITY_EC<77.4817] yes=103,no=104,missing=103
						103:leaf=0.0926894
						104:leaf=0.0318957
					52:[M_D_U_KEYWORD_KEYWORD_MICRO_MAX_COEC<0.093801] yes=105,no=106,missing=105
						105:leaf=-0.0263392
						106:leaf=-0.00299785
				26:[U_CITY_COEC<0.102395] yes=53,no=54,missing=54
					53:[CAT_REL<0.027734] yes=107,no=108,missing=108
						107:leaf=-0.0631896
						108:leaf=-0.0396653
					54:[M_D_U_KEYWORD_KEYWORD_MICRO_MAX_COEC<0.0882] yes=109,no=110,missing=109
						109:leaf=-0.034449
						110:leaf=-0.0108801
		6:[D_TITLEMD5_C<23.667] yes=13,no=14,missing=14
			13:[C_D_U_TITLEMD5_CITY_C<0.860383] yes=27,no=28,missing=27
				27:[KW_REL<0.00173] yes=55,no=56,missing=56
					55:[D_KEYWORD_MACRO_MEAN_COEC<0.082026] yes=111,no=112,missing=112
						111:leaf=-0.0696502
						112:leaf=-0.0368396
					56:[C_D_U_CATEGORY_CITY_MACRO_MEAN_COEC<0.139819] yes=113,no=114,missing=113
						113:leaf=-0.0226787
						114:leaf=0.0204254
				28:[U_CITY_C<289.587] yes=57,no=58,missing=58
					57:[C_D_U_TITLEMD5_CATEGORY_MACRO_MEAN_COEC<0.138887] yes=115,no=116,missing=116
						115:leaf=0.0648999
						116:leaf=0.146045
					58:[C_D_U_TITLEMD5_CATEGORY_MACRO_MEAN_COEC<0.204391] yes=117,no=118,missing=118
						117:leaf=-0.00641304
						118:leaf=0.0919826
			14:[U_KW_LEN<654] yes=29,no=30,missing=30
				29:[C_D_U_TITLEMD5_CATEGORY_MICRO_MEAN_COEC<0.224354] yes=59,no=60,missing=60
					59:[U_KEYWORD_MICRO_MAX_COEC<0.120004] yes=119,no=120,missing=119
						119:leaf=-0.0232049
						120:leaf=0.000488785
					60:[U_KEYWORD_MICRO_MAX_COEC<0.116597] yes=121,no=122,missing=121
						121:leaf=-0.00198008
						122:leaf=0.0275079
				30:[C_D_U_KEYWORD_CATEGORY_MICRO_MEAN_COEC<0.15618] yes=61,no=62,missing=62
					61:[CAT_REL<0.008646] yes=123,no=124,missing=124
						123:leaf=0.00601513
						124:leaf=0.0336231
					62:[KW_REL<0.00058] yes=125,no=126,missing=126
						125:leaf=0.0325981
						126:leaf=0.0578009
booster[7]:
0:[C_D_U_TITLEMD5_CATEGORY_MICRO_MEAN_COEC<0.095298] yes=1,no=2,missing=1
	1:[D_TITLEMD5_COEC<0.085566] yes=3,no=4,missing=3
		3:[M_D_U_KEYWORD_KEYWORD_MICRO_MAX_COEC<0.106655] yes=7,no=8,missing=7
			7:[D_TITLEMD5_COEC<0.044876] yes=15,no=16,missing=15
				15:[CAT_REL<0.001104] yes=31,no=32,missing=32
					31:[D_PUBLISHER_COEC<0.094996] yes=63,no=64,missing=63
						63:leaf=-0.103097
						64:leaf=-0.0844147
					32:[C_D_U_CATEGORY_CITY_MACRO_MEAN_COEC<0.120501] yes=65,no=66,missing=65
						65:leaf=-0.087554
						66:leaf=-0.0623819
				16:[U_CAT_LEN<12] yes=33,no=34,missing=34
					33:[C_D_U_TITLEMD5_CITY_C<82.4658] yes=67,no=68,missing=68
						67:leaf=-0.0687431
						68:leaf=-0.0836283
					34:[C_D_U_TITLEMD5_CITY_C<8.05836] yes=69,no=70,missing=70
						69:leaf=-0.0363987
						70:leaf=-0.0622429
			8:[C_D_U_CATEGORY_CITY_MACRO_MEAN_COEC<0.164149] yes=17,no=18,missing=17
				17:[C_D_U_TITLEMD5_CATEGORY_MICRO_MEAN_COEC<0.064971] yes=35,no=36,missing=36
					35:[U_KW_LEN<398] yes=71,no=72,missing=72
						71:leaf=-0.0803956
						72:leaf=-0.0566168
					36:[U_KW_LEN<273] yes=73,no=74,missing=74
						73:leaf=-0.0598425
						74:leaf=-0.0327645
				18:[C_D_U_TITLEMD5_CITY_EC<1.03487] yes=37,no=38,missing=38
					37:[U_CITY_EC<277.255] yes=75,no=76,missing=76
						75:leaf=0.121195
						76:leaf=0.0142532
					38:[U_KW_LEN<1302] yes=77,no=78,missing=78
						77:leaf=-0.0401542
						78:leaf=0.00830781
		4:[D_TITLEMD5_COEC<0.130829] yes=9,no=10,missing=10
			9:[C_D_U_CATEGORY_CITY_MICRO_MEAN_COEC<0.132568] yes=19,no=20,missing=19
				19:[C_D_U_TITLEMD5_CITY_C<82.4658] yes=39,no=40,missing=40
					39:[U_CITY_EC<155.92] yes=79,no=80,missing=80
						79:leaf=-0.0140716
						80:leaf=-0.0530552
					40:[KW_REL<0.000689] yes=81,no=82,missing=82
						81:leaf=-0.0690248
						82:leaf=-0.0491985
				20:[C_D_U_TITLEMD5_CITY_COEC<0.999999] yes=41,no=42,missing=41
					41:[CAT_REL<0.001104] yes=83,no=84,missing=84
						83:leaf=-0.0450053
						84:leaf=-0.0152442
					42:[C_D_U_TITLEMD5_CITY_C<0.975248] yes=85,no=86,missing=86
						85:leaf=-0.0272583
						86:leaf=0.0923695
			10:[D_TITLEMD5_C<2.985] yes=21,no=22,missing=22
				21:[C_D_U_KEYWORD_CATEGORY_MICRO_MEAN_COEC<0.090595] yes=43,no=44,missing=43
					43:[D_CATEGORY_MICRO_MEAN_COEC<0.080826] yes=87,no=88,missing=88
						87:leaf=-0.100337
						88:leaf=-0.0687861
					44:[C_D_U_CATEGORY_CITY_MACRO_MEAN_COEC<0.114387] yes=89,no=90,missing=89
						89:leaf=-0.0524074
						90:leaf=-0.00752554
				22:[D_KEYWORD_MICRO_MAX_COEC<0.214246] yes=45,no=46,missing=46
					45:[U_CITY_COEC<0.057434] yes=91,no=92,missing=91
						91:leaf=-0.0479863
						92:leaf=-0.029948
					46:[D_CATEGORY_MAX_EC<2483.75] yes=93,no=94,missing=94
						93:leaf=-0.0823879
						94:leaf=-0.00995509
	2:[C_D_U_KEYWORD_CATEGORY_MICRO_MEAN_COEC<0.11306] yes=5,no=6,missing=6
		5:[KW_REL<0.000689] yes=11,no=12,missing=12
			11:[C_D_U_TITLEMD5_CITY_COEC<0.334444] yes=23,no=24,missing=23
				23:[D_TITLEMD5_C<14.2725] yes=47,no=48,missing=48
					47:[D_PUBLISHER_COEC<0.089416] yes=95,no=96,missing=95
						95:leaf=-0.0824759
						96:leaf=-0.053436
					48:[CAT_REL<0.001104] yes=97,no=98,missing=98
						97:leaf=-0.0508814
						98:leaf=-0.0309372
				24:[U_CITY_EC<124.258] yes=49,no=50,missing=50
					49:[D_TITLEMD5_EC<1502.06] yes=99,no=100,missing=100
						99:leaf=0.127573
						100:leaf=0.0340211
					50:[C_D_U_TITLEMD5_CATEGORY_MACRO_MEAN_COEC<0.173482] yes=101,no=102,missing=102
						101:leaf=-0.019268
						102:leaf=0.0579576
			12:[C_D_U_CATEGORY_CITY_MACRO_MEAN_COEC<0.135791] yes=25,no=26,missing=25
				25:[D_TITLEMD5_C<6.92542] yes=51,no=52,missing=52
					51:[C_D_U_TITLEMD5_CITY_C<0.633915] yes=103,no=104,missing=103
						103:leaf=-0.0582756
						104:leaf=0.06847
					52:[U_KW_LEN<415] yes=105,no=106,missing=106
						105:leaf=-0.0360581
						106:leaf=-0.0128864
				26:[C_D_U_TITLEMD5_CITY_COEC<0.506264] yes=53,no=54,missing=53
					53:[U_KW_LEN<1147] yes=107,no=108,missing=108
						107:leaf=-0.0122239
						108:leaf=0.0277833
					54:[C_D_U_TITLEMD5_CITY_C<0.975248] yes=109,no=110,missing=110
						109:leaf=0.0141257
						110:leaf=0.101601
		6:[C_D_U_TITLEMD5_CATEGORY_MICRO_MEAN_COEC<0.186025] yes=13,no=14,missing=14
			13:[U_KW_LEN<221] yes=27,no=28,missing=28
				27:[C_D_U_TITLEMD5_CITY_EC<0.413867] yes=55,no=56,missing=55
					55:[U_KEYWORD_MICRO_MAX_COEC<0.135068] yes=111,no=112,missing=111
						111:leaf=-0.0471533
						112:leaf=-0.0276129
					56:[U_CITY_EC<124.258] yes=113,no=114,missing=114
						113:leaf=0.0356753
						114:leaf=-0.0262728
				28:[C_D_U_CATEGORY_CITY_MICRO_MAX_COEC<0.178362] yes=57,no=58,missing=57
					57:[C_D_U_TITLEMD5_CITY_EC<0.413867] yes=115,no=116,missing=115
						115:leaf=-0.0196035
						116:leaf=0.000479453
					58:[C_D_U_TITLEMD5_CITY_EC<1.98007] yes=117,no=118,missing=118
						117:leaf=0.0532266
						118:leaf=0.0132118
			14:[U_KW_LEN<180] yes=29,no=30,missing=30
				29:[C_D_U_KEYWORD_CATEGORY_MACRO_MEAN_COEC<0.161149] yes=59,no=60,missing=60
					59:[C_D_U_TITLEMD5_CATEGORY_MEAN_C<1.29871] yes=119,no=120,missing=120
						119:leaf=-0.0402952
						120:leaf=-0.010684
					60:[C_D_U_TITLEMD5_AGE_COEC<0.316348] yes=121,no=122,missing=121
						121:leaf=0.00543568
						122:leaf=0.0571826
				30:[C_D_U_TITLEMD5_CITY_C<103.259] yes=61,no=62,missing=62
					61:[U_CITY_EC<218.991] yes=123,no=124,missing=123
						123:leaf=0.0661626
						124:leaf=0.0261781
					62:[D_TITLEMD5_C<4.88146] yes=125,no=126,missing=126
						125:leaf=-0.0332525
						126:leaf=0.0127779
booster[8]:
0:[C_D_U_TITLEMD5_CATEGORY_MICRO_MEAN_COEC<0.126477] yes=1,no=2,missing=1
	1:[D_TITLEMD5_COEC<0.065927] yes=3,no=4,missing=3
		3:[C_D_U_KEYWORD_CATEGORY_MICRO_MEAN_COEC<0.089617] yes=7,no=8,missing=7
			7:[C_D_U_TITLEMD5_CATEGORY_MICRO_MEAN_COEC<0.027465] yes=15,no=16,missing=15
				15:[C_D_U_TITLEMD5_CITY_COEC<0.704155] yes=31,no=32,missing=31
					31:[D_PUBLISHER_COEC<0.06991] yes=63,no=64,missing=63
						63:leaf=-0.0955478
						64:leaf=-0.0834021
					32:[U_CITY_C<14.8159] yes=65,no=66,missing=66
						65:leaf=0.161187
						66:leaf=-0.0334645
				16:[C_D_U_TITLEMD5_CITY_C<2.93739] yes=33,no=34,missing=34
					33:[U_CITY_EC<272.973] yes=67,no=68,missing=67
						67:leaf=0.0415781
						68:leaf=-0.0592901
					34:[U_KW_LEN<767] yes=69,no=70,missing=70
						69:leaf=-0.0846257
						70:leaf=-0.06075
			8:[C_D_U_CATEGORY_CITY_MACRO_MEAN_COEC<0.173276] yes=17,no=18,missing=17
				17:[U_KW_LEN<410] yes=35,no=36,missing=36
					35:[C_D_U_TITLEMD5_CATEGORY_MICRO_MEAN_COEC<0.071738] yes=71,no=72,missing=72
						71:leaf=-0.0788908
						72:leaf=-0.0591751
					36:[KW_REL<0.002643] yes=73,no=74,missing=74
						73:leaf=-0.0599437
						74:leaf=-0.0284164
				18:[C_D_U_TITLEMD5_CITY_EC<1.60771] yes=37,no=38,missing=38
					37:[U_CITY_EC<450.492] yes=75,no=76,missing=76
						75:leaf=0.121031
						76:leaf=0.00402923
					38:[U_KW_LEN<1524] yes=77,no=78,missing=78
						77:leaf=-0.0408593
						78:leaf=0.0091336
		4:[C_D_U_PUBLISHER_CITY_COEC<0.120107] yes=9,no=10,missing=9
			9:[D_TITLEMD5_C<64.9514] yes=19,no=20,missing=20
				19:[CAT_REL<0.004565] yes=39,no=40,missing=40
					39:[D_CATEGORY_MACRO_MAX_COEC<0.074012] yes=79,no=80,missing=80
						79:leaf=-0.0754393
						80:leaf=-0.0603244
					40:[U_KW_LEN<767] yes=81,no=82,missing=82
						81:leaf=-0.0493608
						82:leaf=-0.0243225
				20:[U_KW_LEN<410] yes=41,no=42,missing=42
					41:[D_TITLEMD5_COEC<0.148869] yes=83,no=84,missing=84
						83:leaf=-0.050541
						84:leaf=-0.0273189
					42:[CAT_REL<0.015386] yes=85,no=86,missing=86
						85:leaf=-0.0346139
						86:leaf=-0.00921022
			10:[C_D_U_CATEGORY_CITY_MACRO_MEAN_COEC<0.214275] yes=21,no=22,missing=21
				21:[D_TITLEMD5_COEC<0.146578] yes=43,no=44,missing=44
					43:[U_KW_LEN<369] yes=87,no=88,missing=88
						87:leaf=-0.0439736
						88:leaf=-0.0154563
					44:[D_KEYWORD_MACRO_MEAN_COEC<0.13762] yes=89,no=90,missing=90
						89:leaf=-0.0227465
						90:leaf=-0.00739608
				22:[C_D_U_TITLEMD5_CITY_C<0.932229] yes=45,no=46,missing=45
					45:[U_KW_LEN<767] yes=91,no=92,missing=92
						91:leaf=-0.0187149
						92:leaf=0.0382955
					46:[U_CITY_EC<108.218] yes=93,no=94,missing=94
						93:leaf=0.131388
						94:leaf=0.0164584
	2:[C_D_U_KEYWORD_CATEGORY_MICRO_MEAN_COEC<0.109726] yes=5,no=6,missing=6
		5:[C_D_U_TITLEMD5_CITY_COEC<0.333889] yes=11,no=12,missing=11
			11:[D_TITLEMD5_C<8.46137] yes=23,no=24,missing=24
				23:[CAT_REL<0.007216] yes=47,no=48,missing=48
					47:[D_PUBLISHER_COEC<0.06991] yes=95,no=96,missing=96
						95:leaf=-0.0918529
						96:leaf=-0.0567358
					48:[D_TITLEMD5_C<1.98005] yes=97,no=98,missing=98
						97:leaf=-0.0635971
						98:leaf=-0.0322221
				24:[KW_REL<0.000758] yes=49,no=50,missing=50
					49:[D_TITLEMD5_COEC<0.180694] yes=99,no=100,missing=100
						99:leaf=-0.0412033
						100:leaf=-0.00125918
					50:[U_KW_LEN<1138] yes=101,no=102,missing=102
						101:leaf=-0.019537
						102:leaf=0.00822791
			12:[D_KEYWORD_MACRO_MEAN_COEC<0.0762] yes=25,no=26,missing=26
				25:[C_D_U_TITLEMD5_CATEGORY_MACRO_MEAN_COEC<0.132223] yes=51,no=52,missing=52
					51:[U_CITY_C<204.366] yes=103,no=104,missing=104
						103:leaf=0.0642395
						104:leaf=-0.0334281
					52:[C_D_U_CATEGORY_CITY_MEAN_EC<237.207] yes=105,no=106,missing=106
						105:leaf=0.121133
						106:leaf=0.0480418
				26:[U_CITY_EC<134.653] yes=53,no=54,missing=54
					53:[C_D_U_TITLEMD5_CITY_C<0.640108] yes=107,no=108,missing=108
						107:leaf=-0.0672319
						108:leaf=0.0905933
					54:[C_D_U_TITLEMD5_CITY_C<0.936914] yes=109,no=110,missing=110
						109:leaf=-0.0284521
						110:leaf=0.010927
		6:[U_KW_LEN<651] yes=13,no=14,missing=14
			13:[C_D_U_KEYWORD_CATEGORY_MICRO_MEAN_COEC<0.151994] yes=27,no=28,missing=28
				27:[U_KEYWORD_MICRO_MAX_COEC<0.12966] yes=55,no=56,missing=55
					55:[C_D_U_PUBLISHER_CITY_COEC<0.157226] yes=111,no=112,missing=111
						111:leaf=-0.0254402
						112:leaf=-0.00197805
					56:[C_D_U_PUBLISHER_CITY_COEC<0.136434] yes=113,no=114,missing=113
						113:leaf=-0.00747138
						114:leaf=0.0170612
				28:[C_D_U_TITLEMD5_CATEGORY_MICRO_MAX_COEC<0.311134] yes=57,no=58,missing=58
					57:[U_KEYWORD_MICRO_MAX_COEC<0.123719] yes=115,no=116,missing=115
						115:leaf=-0.00924589
						116:leaf=0.0114149
					58:[C_D_U_CATEGORY_AGE_MACRO_MAX_COEC<0.121505] yes=117,no=118,missing=117
						117:leaf=0.0204812
						118:leaf=0.0418382
			14:[C_D_U_PUBLISHER_CITY_COEC<0.130615] yes=29,no=30,missing=29
				29:[C_D_U_TITLEMD5_CATEGORY_MEAN_C<0.568014] yes=59,no=60,missing=60
					59:[M_D_U_KEYWORD_KEYWORD_MICRO_MAX_COEC<0.088858] yes=119,no=120,missing=119
						119:leaf=-0.0241429
						120:leaf=0.00287552
					60:[U_KW_LEN<1377] yes=121,no=122,missing=122
						121:leaf=0.0151617
						122:leaf=0.0392376
				30:[C_D_U_CATEGORY_CITY_MACRO_MEAN_COEC<0.232991] yes=61,no=62,missing=61
					61:[KW_REL<0.000921] yes=123,no=124,missing=124
						123:leaf=0.0187121
						124:leaf=0.0402958
					62:[C_D_U_TITLEMD5_CITY_C<1.97209] yes=125,no=126,missing=126
						125:leaf=0.0899457
						126:leaf=0.0523279
booster[9]:
0:[C_D_U_TITLEMD5_CATEGORY_MICRO_MEAN_COEC<0.089899] yes=1,no=2,missing=1
	1:[D_KEYWORD_MACRO_MEAN_COEC<0.085351] yes=3,no=4,missing=4
		3:[D_TITLEMD5_COEC<0.04324] yes=7,no=8,missing=8
			7:[CAT_REL<0.001138] yes=15,no=16,missing=16
				15:[C_D_U_TITLEMD5_CITY_COEC<0.334385] yes=31,no=32,missing=31
					31:[D_PUBLISHER_COEC<0.096117] yes=63,no=64,missing=64
						63:leaf=-0.0932596
						64:leaf=-0.0756827
					32:[C_D_U_TITLEMD5_CITY_C<0.975248] yes=65,no=66,missing=66
						65:leaf=-0.0430133
						66:leaf=0.0654498
				16:[C_D_U_TITLEMD5_CITY_EC<1.08807] yes=33,no=34,missing=34
					33:[U_CITY_EC<453.808] yes=67,no=68,missing=68
						67:leaf=0.0766159
						68:leaf=-0.0526448
					34:[M_D_U_KEYWORD_KEYWORD_MICRO_MAX_COEC<0.123295] yes=69,no=70,missing=69
						69:leaf=-0.0765707
						70:leaf=-0.0527859
			8:[KW_REL<0.000496] yes=17,no=18,missing=18
				17:[C_D_U_TITLEMD5_CITY_C<82.8894] yes=35,no=36,missing=36
					35:[U_CITY_EC<125.575] yes=71,no=72,missing=71
						71:leaf=0.0207604
						72:leaf=-0.05781
					36:[D_PUBLISHER_COEC<0.075407] yes=73,no=74,missing=73
						73:leaf=-0.079182
						74:leaf=-0.0644378
				18:[U_KW_LEN<821] yes=37,no=38,missing=38
					37:[U_KEYWORD_MICRO_MAX_COEC<0.123499] yes=75,no=76,missing=76
						75:leaf=-0.0623051
						76:leaf=-0.0373767
					38:[C_D_U_CATEGORY_CITY_MACRO_MEAN_COEC<0.123814] yes=77,no=78,missing=77
						77:leaf=-0.0340804
						78:leaf=0.00132994
		4:[D_TITLEMD5_COEC<0.143541] yes=9,no=10,missing=10
			9:[U_CITY_COEC<0.06982] yes=19,no=20,missing=19
				19:[D_TITLEMD5_COEC<0.115575] yes=39,no=40,missing=40
					39:[IMAGE_COUNT<2] yes=79,no=80,missing=80
						79:leaf=-0.0661352
						80:leaf=-0.0481773
					40:[C_D_U_TITLEMD5_CITY_COEC<0.52254] yes=81,no=82,missing=81
						81:leaf=-0.0483288
						82:leaf=0.0216365
				20:[U_CITY_COEC<0.198389] yes=41,no=42,missing=42
					41:[D_TITLEMD5_COEC<0.114452] yes=83,no=84,missing=84
						83:leaf=-0.0454611
						84:leaf=-0.0317391
					42:[C_D_U_TITLEMD5_CITY_EC<1.08807] yes=85,no=86,missing=86
						85:leaf=0.0525268
						86:leaf=-0.00404006
			10:[C_D_U_CATEGORY_CITY_MACRO_MAX_COEC<0.109372] yes=21,no=22,missing=21
				21:[IMAGE_COUNT<2] yes=43,no=44,missing=44
					43:[D_TITLEMD5_C<18.2242] yes=87,no=88,missing=88
						87:leaf=-0.0540795
						88:leaf=-0.0308749
					44:[TIME_OF_DAY<17] yes=89,no=90,missing=90
						89:leaf=-0.0215561
						90:leaf=-0.00717915
				22:[C_D_U_TITLEMD5_CITY_COEC<0.52254] yes=45,no=46,missing=45
					45:[D_TITLEMD5_COEC<0.182268] yes=91,no=92,missing=92
						91:leaf=-0.0194243
						92:leaf=-0.00543248
					46:[U_CITY_C<2.13465] yes=93,no=94,missing=94
						93:leaf=0.111179
						94:leaf=0.0145329
	2:[C_D_U_TITLEMD5_CATEGORY_MICRO_MEAN_COEC<0.153399] yes=5,no=6,missing=6
		5:[U_KW_LEN<728] yes=11,no=12,missing=12
			11:[U_KEYWORD_MICRO_MAX_COEC<0.119703] yes=23,no=24,missing=23
				23:[C_D_U_TITLEMD5_CATEGORY_MEAN_C<0.499875] yes=47,no=48,missing=48
					47:[C_D_U_TITLEMD5_CITY_COEC<0.506264] yes=95,no=96,missing=95
						95:leaf=-0.0623324
						96:leaf=0.0027338
					48:[U_KW_LEN<154] yes=97,no=98,missing=98
						97:leaf=-0.0478263
						98:leaf=-0.031669
				24:[C_D_U_TITLEMD5_CITY_C<82.8894] yes=49,no=50,missing=50
					49:[U_CITY_EC<90.4766] yes=99,no=100,missing=99
						99:leaf=0.0719728
						100:leaf=-0.0159405
					50:[U_CITY_COEC<0.13771] yes=101,no=102,missing=101
						101:leaf=-0.0365787
						102:leaf=-0.0077376
			12:[C_D_U_TITLEMD5_CATEGORY_MEAN_EC<2.04861] yes=25,no=26,missing=26
				25:[C_D_U_CATEGORY_CITY_MACRO_MEAN_COEC<0.157921] yes=51,no=52,missing=51
					51:[M_D_U_KEYWORD_KEYWORD_MEAN_EC<0.04282] yes=103,no=104,missing=104
						103:leaf=-0.0168078
						104:leaf=-0.0408192
					52:[C_D_U_TITLEMD5_CITY_C<3.06545] yes=105,no=106,missing=106
						105:leaf=0.0576145
						106:leaf=0.00329051
				26:[U_KW_LEN<1535] yes=53,no=54,missing=54
					53:[CAT_REL<0.028886] yes=107,no=108,missing=108
						107:leaf=-0.0154753
						108:leaf=0.00683639
					54:[KW_REL<0.001139] yes=109,no=110,missing=110
						109:leaf=0.00606759
						110:leaf=0.0337878
		6:[D_TITLEMD5_C<13.7375] yes=13,no=14,missing=14
			13:[C_D_U_TITLEMD5_CITY_C<0.559083] yes=27,no=28,missing=27
				27:[KW_REL<0.001693] yes=55,no=56,missing=56
					55:[D_PUBLISHER_COEC<0.083171] yes=111,no=112,missing=112
						111:leaf=-0.0631551
						112:leaf=-0.0340116
					56:[D_TITLEMD5_C<1.94567] yes=113,no=114,missing=114
						113:leaf=-0.0413595
						114:leaf=-0.00807932
				28:[C_D_U_TITLEMD5_CATEGORY_MACRO_MEAN_COEC<0.187352] yes=57,no=58,missing=58
					57:[U_CITY_EC<806.247] yes=115,no=116,missing=116
						115:leaf=0.115567
						116:leaf=-0.00773279
					58:[C_D_U_PUBLISHER_CITY_EC<763.886] yes=117,no=118,missing=117
						117:leaf=0.125007
						118:leaf=0.0049941
			14:[U_KW_LEN<145] yes=29,no=30,missing=30
				29:[C_D_U_TITLEMD5_CATEGORY_MACRO_MEAN_COEC<0.217523] yes=59,no=60,missing=60
					59:[U_KEYWORD_MICRO_MAX_COEC<0.1137] yes=119,no=120,missing=119
						119:leaf=-0.0359033
						120:leaf=-0.0167791
					60:[C_D_U_PUBLISHER_AGE_COEC<0.154524] yes=121,no=122,missing=121
						121:leaf=-0.00380805
						122:leaf=0.0275252
				30:[C_D_U_TITLEMD5_CATEGORY_MICRO_MEAN_COEC<0.226448] yes=61,no=62,missing=62
					61:[M_D_U_KEYWORD_KEYWORD_MICRO_MAX_COEC<0.109377] yes=123,no=124,missing=123
						123:leaf=-0.00448077
						124:leaf=0.0167371
					62:[C_D_U_KEYWORD_CATEGORY_MICRO_MAX_COEC<0.314701] yes=125,no=126,missing=126
						125:leaf=0.0146753
						126:leaf=0.0342978
booster[10]:
0:[C_D_U_TITLEMD5_CATEGORY_MICRO_MEAN_COEC<0.090728] yes=1,no=2,missing=1
	1:[D_KEYWORD_MACRO_MEAN_COEC<0.069451] yes=3,no=4,missing=4
		3:[CAT_REL<0.00436] yes=7,no=8,missing=8
			7:[D_TITLEMD5_COEC<0.043531] yes=15,no=16,missing=15
				15:[C_D_U_TITLEMD5_CITY_COEC<0.336563] yes=31,no=32,missing=31
					31:[D_PUBLISHER_COEC<0.069651] yes=63,no=64,missing=64
						63:leaf=-0.0907148
						64:leaf=-0.0770016
					32:[U_CITY_C<131.003] yes=65,no=66,missing=66
						65:leaf=0.0608261
						66:leaf=-0.0543727
				16:[C_D_U_PUBLISHER_CITY_COEC<0.130542] yes=33,no=34,missing=33
					33:[D_TITLEMD5_C<27.8052] yes=67,no=68,missing=68
						67:leaf=-0.0751041
						68:leaf=-0.061623
					34:[C_D_U_TITLEMD5_CITY_C<0.955889] yes=69,no=70,missing=69
						69:leaf=-0.0508594
						70:leaf=0.0488788
			8:[C_D_U_TITLEMD5_CITY_C<12.0523] yes=17,no=18,missing=18
				17:[U_CITY_EC<445.654] yes=35,no=36,missing=36
					35:[U_CITY_EC<113.153] yes=71,no=72,missing=72
						71:leaf=0.130295
						72:leaf=0.0285217
					36:[U_KW_LEN<822] yes=73,no=74,missing=74
						73:leaf=-0.0515868
						74:leaf=-0.0199064
				18:[C_D_U_CATEGORY_CITY_MACRO_MEAN_COEC<0.090395] yes=37,no=38,missing=38
					37:[D_PUBLISHER_C<2591.9] yes=75,no=76,missing=75
						75:leaf=-0.0799207
						76:leaf=-0.0572405
					38:[U_KW_LEN<772] yes=77,no=78,missing=78
						77:leaf=-0.0615576
						78:leaf=-0.0338066
		4:[D_TITLEMD5_COEC<0.115163] yes=9,no=10,missing=10
			9:[U_KW_LEN<625] yes=19,no=20,missing=20
				19:[U_CITY_COEC<0.117165] yes=39,no=40,missing=39
					39:[C_D_U_TITLEMD5_CITY_C<82.0896] yes=79,no=80,missing=80
						79:leaf=-0.0468717
						80:leaf=-0.0612306
					40:[C_D_U_TITLEMD5_CITY_EC<1.16366] yes=81,no=82,missing=82
						81:leaf=-0.000917176
						82:leaf=-0.0392185
				20:[U_CITY_COEC<0.106263] yes=41,no=42,missing=41
					41:[CAT_REL<0.019365] yes=83,no=84,missing=84
						83:leaf=-0.0487214
						84:leaf=-0.0242947
					42:[C_D_U_TITLEMD5_CITY_EC<2.55204] yes=85,no=86,missing=86
						85:leaf=0.0480024
						86:leaf=-0.0162391
			10:[C_D_U_PUBLISHER_CITY_COEC<0.130542] yes=21,no=22,missing=21
				21:[D_KEYWORD_MICRO_MEAN_COEC<0.133411] yes=43,no=44,missing=43
					43:[U_CITY_COEC<0.059377] yes=87,no=88,missing=87
						87:leaf=-0.0436991
						88:leaf=-0.0301482
					44:[D_KEYWORD_MICRO_MAX_COEC<0.226886] yes=89,no=90,missing=90
						89:leaf=-0.0225402
						90:leaf=-0.00218401
				22:[C_D_U_TITLEMD5_CITY_COEC<0.521289] yes=45,no=46,missing=45
					45:[D_TITLEMD5_COEC<0.177041] yes=91,no=92,missing=92
						91:leaf=-0.0224677
						92:leaf=-0.00680498
					46:[C_D_U_TITLEMD5_CITY_C<0.955889] yes=93,no=94,missing=94
						93:leaf=-0.0110713
						94:leaf=0.038323
	2:[C_D_U_KEYWORD_CATEGORY_MICRO_MEAN_COEC<0.10928] yes=5,no=6,missing=6
		5:[CAT_REL<0.001039] yes=11,no=12,missing=12
			11:[D_PUBLISHER_COEC<0.07301] yes=23,no=24,missing=24
				23:[C_D_U_TITLEMD5_CITY_C<0.537107] yes=47,no=48,missing=47
					47:[D_TITLEMD5_C<4.94027] yes=95,no=96,missing=96
						95:leaf=-0.0906654
						96:leaf=-0.0603853
					48:[U_CITY_EC<544.506] yes=97,no=98,missing=97
						97:leaf=0.0934858
						98:leaf=-0.0329464
				24:[U_CITY_COEC<0.131648] yes=49,no=50,missing=49
					49:[D_CATEGORY_MAX_EC<179740] yes=99,no=100,missing=100
						99:leaf=-0.0397491
						100:leaf=-0.014966
					50:[C_D_U_TITLEMD5_CITY_C<2.57689] yes=101,no=102,missing=102
						101:leaf=0.0443081
						102:leaf=-0.0135837
			12:[C_D_U_CATEGORY_CITY_MACRO_MEAN_COEC<0.139145] yes=25,no=26,missing=25
				25:[C_D_U_TITLEMD5_CITY_C<82.0896] yes=51,no=52,missing=52
					51:[U_CITY_EC<661.595] yes=103,no=104,missing=104
						103:leaf=0.0227401
						104:leaf=-0.017289
					52:[D_TITLEMD5_C<3.3663] yes=105,no=106,missing=106
						105:leaf=-0.0594974
						106:leaf=-0.0275647
				26:[C_D_U_TITLEMD5_CITY_C<0.927568] yes=53,no=54,missing=53
					53:[U_KW_LEN<459] yes=107,no=108,missing=108
						107:leaf=-0.013436
						108:leaf=0.015078
					54:[C_D_U_CATEGORY_CITY_MEAN_EC<11.7021] yes=109,no=110,missing=110
						109:leaf=0.112879
						110:leaf=0.0329333
		6:[C_D_U_KEYWORD_CATEGORY_MICRO_MAX_COEC<0.246331] yes=13,no=14,missing=14
			13:[U_KW_LEN<127] yes=27,no=28,missing=28
				27:[C_D_U_TITLEMD5_CATEGORY_MACRO_MEAN_COEC<0.140284] yes=55,no=56,missing=56
					55:[U_KEYWORD_MICRO_MAX_COEC<0.115927] yes=111,no=112,missing=111
						111:leaf=-0.0518423
						112:leaf=-0.034287
					56:[C_D_U_TITLEMD5_CITY_COEC<0.194011] yes=113,no=114,missing=113
						113:leaf=-0.0251828
						114:leaf=-0.00363975
				28:[U_CITY_COEC<0.117165] yes=57,no=58,missing=57
					57:[C_D_U_TITLEMD5_CITY_EC<0.413867] yes=115,no=116,missing=115
						115:leaf=-0.0217417
						116:leaf=-0.0052783
					58:[C_D_U_TITLEMD5_CITY_EC<1.99] yes=117,no=118,missing=118
						117:leaf=0.0375884
						118:leaf=0.00209214
			14:[C_D_U_TITLEMD5_CITY_C<82.0896] yes=29,no=30,missing=30
				29:[U_CITY_EC<445.654] yes=59,no=60,missing=59
					59:[C_D_U_TITLEMD5_CITY_C<0.955889] yes=119,no=120,missing=120
						119:leaf=0.0348398
						120:leaf=0.0938515
					60:[U_KW_LEN<989] yes=121,no=122,missing=122
						121:leaf=0.00592581
						122:leaf=0.0296935
				30:[D_TITLEMD5_C<40.0459] yes=61,no=62,missing=62
					61:[KW_REL<0.001027] yes=123,no=124,missing=124
						123:leaf=-0.0358102
						124:leaf=-0.00843567
					62:[KW_REL<0.000592] yes=125,no=126,missing=126
						125:leaf=-0.00844745
						126:leaf=0.0115922
booster[11]:
0:[D_TITLEMD5_COEC<0.093813] yes=1,no=2,missing=1
	1:[C_D_U_TITLEMD5_CATEGORY_MICRO_MEAN_COEC<0.053422] yes=3,no=4,missing=3
		3:[D_KEYWORD_MACRO_MEAN_COEC<0.052918] yes=7,no=8,missing=8
			7:[U_KW_LEN<398] yes=15,no=16,missing=16
				15:[C_D_U_TITLEMD5_CITY_EC<22.2215] yes=31,no=32,missing=32
					31:[U_CITY_EC<100.398] yes=63,no=64,missing=64
						63:leaf=0.0499661
						64:leaf=-0.0719936
					32:[D_TITLEMD5_COEC<0.025803] yes=65,no=66,missing=65
						65:leaf=-0.0906175
						66:leaf=-0.0792878
				16:[C_D_U_TITLEMD5_CITY_C<5.57026] yes=33,no=34,missing=34
					33:[U_CITY_EC<430.914] yes=67,no=68,missing=68
						67:leaf=0.0670487
						68:leaf=-0.0467772
					34:[C_D_U_CATEGORY_CITY_MACRO_MEAN_COEC<0.085284] yes=69,no=70,missing=70
						69:leaf=-0.0794326
						70:leaf=-0.0578014
			8:[C_D_U_KEYWORD_CATEGORY_MICRO_MEAN_COEC<0.114248] yes=17,no=18,missing=17
				17:[C_D_U_PUBLISHER_CITY_COEC<0.131729] yes=35,no=36,missing=35
					35:[D_TITLEMD5_COEC<0.053796] yes=71,no=72,missing=72
						71:leaf=-0.070062
						72:leaf=-0.057453
					36:[C_D_U_TITLEMD5_CITY_C<0.932229] yes=73,no=74,missing=73
						73:leaf=-0.0455999
						74:leaf=0.00512654
				18:[DOC_AGE<3] yes=37,no=38,missing=38
					37:[U_KW_LEN<659] yes=75,no=76,missing=76
						75:leaf=-0.0235612
						76:leaf=0.0164148
					38:[C_D_U_PUBLISHER_CITY_COEC<0.123039] yes=77,no=78,missing=77
						77:leaf=-0.0497028
						78:leaf=-0.0133138
		4:[M_D_U_KEYWORD_KEYWORD_MICRO_MAX_COEC<0.10338] yes=9,no=10,missing=9
			9:[C_D_U_TITLEMD5_CITY_COEC<0.504444] yes=19,no=20,missing=19
				19:[D_TITLEMD5_C<9.66823] yes=39,no=40,missing=40
					39:[CAT_REL<0.001106] yes=79,no=80,missing=80
						79:leaf=-0.0737103
						80:leaf=-0.0546934
					40:[CAT_REL<0.004376] yes=81,no=82,missing=82
						81:leaf=-0.0489446
						82:leaf=-0.0297265
				20:[C_D_U_TITLEMD5_CITY_C<0.955889] yes=41,no=42,missing=42
					41:[C_D_U_TITLEMD5_CATEGORY_MACRO_MEAN_COEC<0.105181] yes=83,no=84,missing=84
						83:leaf=-0.0358942
						84:leaf=0.0624724
					42:[U_CITY_EC<1094] yes=85,no=86,missing=86
						85:leaf=0.131781
						86:leaf=0.0308518
			10:[C_D_U_TITLEMD5_CITY_C<0.904609] yes=21,no=22,missing=21
				21:[M_D_U_KEYWORD_KEYWORD_MICRO_MAX_COEC<0.193474] yes=43,no=44,missing=44
					43:[U_KW_LEN<1320] yes=87,no=88,missing=88
						87:leaf=-0.0295607
						88:leaf=-0.00244245
					44:[D_KEYWORD_MICRO_MAX_COEC<0.131513] yes=89,no=90,missing=90
						89:leaf=0.0241895
						90:leaf=-0.0113204
				22:[U_CITY_EC<2070.59] yes=45,no=46,missing=46
					45:[C_D_U_TITLEMD5_CITY_C<0.96552] yes=91,no=92,missing=92
						91:leaf=0.0510315
						92:leaf=0.124048
					46:[C_D_U_TITLEMD5_CATEGORY_MICRO_MAX_COEC<0.185813] yes=93,no=94,missing=94
						93:leaf=-0.0099434
						94:leaf=0.0359965
	2:[C_D_U_TITLEMD5_CATEGORY_MICRO_MEAN_COEC<0.145308] yes=5,no=6,missing=5
		5:[U_CITY_COEC<0.103984] yes=11,no=12,missing=11
			11:[C_D_U_TITLEMD5_CITY_C<82.8894] yes=23,no=24,missing=24
				23:[U_CITY_EC<157.685] yes=47,no=48,missing=47
					47:[C_D_U_TITLEMD5_CITY_C<0.955889] yes=95,no=96,missing=96
						95:leaf=-0.00114558
						96:leaf=0.105279
					48:[C_D_U_TITLEMD5_CITY_COEC<0.16514] yes=97,no=98,missing=98
						97:leaf=-0.0288634
						98:leaf=-0.014165
				24:[D_TITLEMD5_C<2.88295] yes=49,no=50,missing=50
					49:[C_D_U_KEYWORD_CATEGORY_MICRO_MEAN_COEC<0.092211] yes=99,no=100,missing=99
						99:leaf=-0.0734826
						100:leaf=-0.039464
					50:[D_KEYWORD_MICRO_MAX_COEC<0.19539] yes=101,no=102,missing=102
						101:leaf=-0.0374821
						102:leaf=-0.0136802
			12:[U_KW_LEN<1125] yes=25,no=26,missing=26
				25:[C_D_U_TITLEMD5_CITY_EC<0.564716] yes=51,no=52,missing=51
					51:[U_CITY_COEC<0.156699] yes=103,no=104,missing=104
						103:leaf=-0.0275391
						104:leaf=-0.00721023
					52:[U_CITY_EC<61.0691] yes=105,no=106,missing=106
						105:leaf=0.0631249
						106:leaf=-0.00905979
				26:[C_D_U_TITLEMD5_CITY_EC<2.54463] yes=53,no=54,missing=54
					53:[U_CITY_EC<249.082] yes=107,no=108,missing=108
						107:leaf=0.0953128
						108:leaf=0.0365538
					54:[C_D_U_CATEGORY_CITY_MACRO_MEAN_COEC<0.142432] yes=109,no=110,missing=110
						109:leaf=-0.00898235
						110:leaf=0.0270394
		6:[U_KW_LEN<563] yes=13,no=14,missing=14
			13:[U_KEYWORD_MICRO_MAX_COEC<0.116027] yes=27,no=28,missing=27
				27:[C_D_U_TITLEMD5_AGE_C<72.0029] yes=55,no=56,missing=55
					55:[C_D_U_TITLEMD5_CATEGORY_MEAN_C<0.117254] yes=111,no=112,missing=112
						111:leaf=-0.060372
						112:leaf=-0.0225922
					56:[C_D_U_KEYWORD_CATEGORY_MICRO_MAX_COEC<0.305855] yes=113,no=114,missing=114
						113:leaf=-0.00681181
						114:leaf=0.0218265
				28:[C_D_U_PUBLISHER_CITY_COEC<0.137218] yes=57,no=58,missing=57
					57:[C_D_U_TITLEMD5_CATEGORY_MEAN_C<0.7078] yes=115,no=116,missing=116
						115:leaf=-0.0255075
						116:leaf=-0.000253089
					58:[C_D_U_KEYWORD_CATEGORY_MICRO_MAX_COEC<0.298674] yes=117,no=118,missing=118
						117:leaf=0.00801173
						118:leaf=0.0286527
			14:[C_D_U_CATEGORY_CITY_MACRO_MEAN_COEC<0.13622] yes=29,no=30,missing=29
				29:[C_D_U_TITLEMD5_CATEGORY_MEAN_C<1.15396] yes=59,no=60,missing=60
					59:[M_D_U_KEYWORD_KEYWORD_MEAN_C<0.007113] yes=119,no=120,missing=120
						119:leaf=0.0128299
						120:leaf=-0.00992591
					60:[C_D_U_KEYWORD_CATEGORY_MICRO_MAX_COEC<0.333689] yes=121,no=122,missing=122
						121:leaf=0.0163803
						122:leaf=0.0389011
				30:[CAT_REL<0.007732] yes=61,no=62,missing=62
					61:[U_CITY_COEC<0.19765] yes=123,no=124,missing=124
						123:leaf=0.0135732
						124:leaf=0.059587
					62:[C_D_U_TITLEMD5_CITY_EC<1.13781] yes=125,no=126,missing=126
						125:leaf=0.0681919
						126:leaf=0.0394024
booster[12]:
0:[C_D_U_TITLEMD5_CATEGORY_MICRO_MEAN_COEC<0.087081] yes=1,no=2,missing=1
	1:[D_TITLEMD5_COEC<0.09875] yes=3,no=4,missing=3
		3:[KW_REL<0.000887] yes=7,no=8,missing=8
			7:[D_TITLEMD5_COEC<0.052636] yes=15,no=16,missing=15
				15:[U_KEYWORD_MICRO_MAX_COEC<0.122372] yes=31,no=32,missing=31
					31:[C_D_U_TITLEMD5_CITY_COEC<0.331097] yes=63,no=64,missing=63
						63:leaf=-0.0759091
						64:leaf=-0.0039679
					32:[C_D_U_TITLEMD5_CITY_C<6.62952] yes=65,no=66,missing=66
						65:leaf=-0.0331721
						66:leaf=-0.0631342
				16:[U_CITY_COEC<0.156804] yes=33,no=34,missing=33
					33:[C_D_U_TITLEMD5_CITY_C<82.0896] yes=67,no=68,missing=68
						67:leaf=-0.0427538
						68:leaf=-0.0572118
					34:[C_D_U_TITLEMD5_CITY_EC<1.20177] yes=69,no=70,missing=70
						69:leaf=0.0471229
						70:leaf=-0.0244196
			8:[U_KW_LEN<420] yes=17,no=18,missing=18
				17:[U_KEYWORD_MICRO_MAX_COEC<0.119341] yes=35,no=36,missing=36
					35:[C_D_U_TITLEMD5_CATEGORY_MACRO_MEAN_COEC<0.031086] yes=71,no=72,missing=72
						71:leaf=-0.0757418
						72:leaf=-0.0538256
					36:[D_TITLEMD5_COEC<0.047235] yes=73,no=74,missing=74
						73:leaf=-0.0538831
						74:leaf=-0.0307417
				18:[C_D_U_CATEGORY_CITY_MICRO_MEAN_COEC<0.167364] yes=37,no=38,missing=37
					37:[C_D_U_TITLEMD5_CITY_EC<14.4984] yes=75,no=76,missing=76
						75:leaf=-0.0132784
						76:leaf=-0.0401921
					38:[C_D_U_TITLEMD5_CITY_EC<1.99] yes=77,no=78,missing=78
						77:leaf=0.0826496
						78:leaf=-0.00410024
		4:[C_D_U_TITLEMD5_CITY_COEC<0.16429] yes=9,no=10,missing=9
			9:[D_KEYWORD_MICRO_MAX_COEC<0.153546] yes=19,no=20,missing=20
				19:[U_CITY_COEC<0.060031] yes=39,no=40,missing=39
					39:[IMAGE_COUNT<3] yes=79,no=80,missing=80
						79:leaf=-0.0494277
						80:leaf=-0.032971
					40:[D_KEYWORD_MACRO_MEAN_COEC<0.062709] yes=81,no=82,missing=82
						81:leaf=-0.0669193
						82:leaf=-0.0291449
				20:[D_TITLEMD5_C<1.99] yes=41,no=42,missing=42
					41:[C_D_U_KEYWORD_CATEGORY_MICRO_MEAN_COEC<0.081261] yes=83,no=84,missing=83
						83:leaf=-0.0696767
						84:leaf=-0.0307307
					42:[D_KEYWORD_MICRO_MAX_COEC<0.207394] yes=85,no=86,missing=86
						85:leaf=-0.0240008
						86:leaf=-0.00787903
			10:[U_CITY_EC<116.196] yes=21,no=22,missing=22
				21:[C_D_U_TITLEMD5_CITY_C<0.960692] yes=43,no=44,missing=44
					43:[C_D_U_TITLEMD5_CITY_C<0.686642] yes=87,no=88,missing=88
						87:leaf=-0.0255124
						88:leaf=0.0185939
					44:[C_D_U_TITLEMD5_CITY_C<1.10648] yes=89,no=90,missing=90
						89:leaf=0.117672
						90:leaf=0.0176275
				22:[TIME_OF_DAY<6] yes=45,no=46,missing=46
					45:[D_CATEGORY_MAX_EC<66399.1] yes=91,no=92,missing=91
						91:leaf=-0.0323499
						92:leaf=-0.0158265
					46:[U_CITY_EC<496.213] yes=93,no=94,missing=94
						93:leaf=0.0107814
						94:leaf=-0.0101681
	2:[C_D_U_KEYWORD_CATEGORY_MICRO_MEAN_COEC<0.131869] yes=5,no=6,missing=6
		5:[C_D_U_PUBLISHER_CITY_COEC<0.131572] yes=11,no=12,missing=11
			11:[KW_REL<0.000662] yes=23,no=24,missing=24
				23:[D_TITLEMD5_C<72.5393] yes=47,no=48,missing=48
					47:[C_D_U_TITLEMD5_CITY_C<0.975248] yes=95,no=96,missing=95
						95:leaf=-0.0452412
						96:leaf=0.00579957
					48:[CAT_REL<0.001106] yes=97,no=98,missing=98
						97:leaf=-0.0289916
						98:leaf=-0.0120185
				24:[U_KW_LEN<1322] yes=49,no=50,missing=50
					49:[U_KEYWORD_MICRO_MAX_COEC<0.128772] yes=99,no=100,missing=100
						99:leaf=-0.0240606
						100:leaf=-0.00424597
					50:[C_D_U_TITLEMD5_CATEGORY_MEAN_C<0.080193] yes=101,no=102,missing=102
						101:leaf=-0.019975
						102:leaf=0.0148375
			12:[C_D_U_TITLEMD5_CITY_COEC<0.505011] yes=25,no=26,missing=25
				25:[U_KW_LEN<905] yes=51,no=52,missing=52
					51:[U_KEYWORD_MICRO_MAX_COEC<0.130208] yes=103,no=104,missing=103
						103:leaf=-0.018696
						104:leaf=0.00487594
					52:[U_CITY_COEC<0.156804] yes=105,no=106,missing=106
						105:leaf=0.0138682
						106:leaf=0.0468552
				26:[C_D_U_TITLEMD5_CITY_C<0.960692] yes=53,no=54,missing=54
					53:[TIME_OF_DAY<5] yes=107,no=108,missing=108
						107:leaf=-0.0451811
						108:leaf=0.019087
					54:[U_CITY_C<55.8342] yes=109,no=110,missing=110
						109:leaf=0.102053
						110:leaf=0.0290567
		6:[U_KW_LEN<127] yes=13,no=14,missing=14
			13:[C_D_U_KEYWORD_CATEGORY_MACRO_MEAN_COEC<0.127455] yes=27,no=28,missing=28
				27:[M_D_U_KEYWORD_KEYWORD_MACRO_MAX_COEC<0.002048] yes=55,no=56,missing=55
					55:[C_D_U_TITLEMD5_CITY_COEC<0.518787] yes=111,no=112,missing=111
						111:leaf=-0.0335442
						112:leaf=0.0206304
					56:[D_CATEGORY_MEAN_EC<29832.6] yes=113,no=114,missing=113
						113:leaf=0.0378045
						114:leaf=-0.0155323
				28:[C_D_U_TITLEMD5_AGE_COEC<0.363937] yes=57,no=58,missing=57
					57:[TIME_OF_DAY<3] yes=115,no=116,missing=116
						115:leaf=-0.0252412
						116:leaf=-0.00425457
					58:[TIME_OF_DAY<17] yes=117,no=118,missing=118
						117:leaf=-0.0234163
						118:leaf=0.0819013
			14:[C_D_U_TITLEMD5_CATEGORY_MICRO_MEAN_COEC<0.233452] yes=29,no=30,missing=30
				29:[M_D_U_KEYWORD_KEYWORD_MICRO_MAX_COEC<0.122036] yes=59,no=60,missing=59
					59:[D_KEYWORD_MAX_C<304.619] yes=119,no=120,missing=120
						119:leaf=-0.00248424
						120:leaf=-0.0484985
					60:[C_D_U_CATEGORY_CITY_MACRO_MEAN_COEC<0.165714] yes=121,no=122,missing=121
						121:leaf=0.011046
						122:leaf=0.0374234
				30:[U_KEYWORD_MICRO_MAX_COEC<0.122372] yes=61,no=62,missing=61
					61:[U_KW_LEN<669] yes=123,no=124,missing=124
						123:leaf=0.00631189
						124:leaf=0.0286493
					62:[CAT_REL<0.004246] yes=125,no=126,missing=126
						125:leaf=0.0228631
						126:leaf=0.0405504
booster[13]:
0:[D_TITLEMD5_COEC<0.084864] yes=1,no=2,missing=1
	1:[C_D_U_KEYWORD_CATEGORY_MICRO_MEAN_COEC<0.082896] yes=3,no=4,missing=3
		3:[D_TITLEMD5_COEC<0.037256] yes=7,no=8,missing=7
			7:[C_D_U_TITLEMD5_CITY_COEC<0.497321] yes=15,no=16,missing=15
				15:[CAT_REL<0.007982] yes=31,no=32,missing=32
					31:[D_PUBLISHER_COEC<0.072871] yes=63,no=64,missing=64
						63:leaf=-0.0813695
						64:leaf=-0.0683589
					32:[U_KW_LEN<446] yes=65,no=66,missing=66
						65:leaf=-0.07335
						66:leaf=-0.0551851
				16:[C_D_U_TITLEMD5_CATEGORY_MACRO_MEAN_COEC<0.021461] yes=33,no=34,missing=34
					33:[D_PUBLISHER_C<797.969] yes=67,no=68,missing=68
						67:leaf=-0.0492632
						68:leaf=-0.113894
					34:[C_D_U_TITLEMD5_CITY_C<0.863985] yes=69,no=70,missing=70
						69:leaf=-0.0198506
						70:leaf=0.102254
			8:[C_D_U_TITLEMD5_CITY_C<0.918315] yes=17,no=18,missing=17
				17:[CAT_REL<0.001086] yes=35,no=36,missing=36
					35:[D_TITLEMD5_C<23.9543] yes=71,no=72,missing=72
						71:leaf=-0.063873
						72:leaf=-0.0520528
					36:[C_D_U_CATEGORY_CITY_MACRO_MAX_COEC<0.158073] yes=73,no=74,missing=73
						73:leaf=-0.0414311
						74:leaf=-0.00516291
				18:[U_CITY_C<33.7385] yes=37,no=38,missing=38
					37:[C_D_U_TITLEMD5_CITY_C<0.985074] yes=75,no=76,missing=76
						75:leaf=0.0862452
						76:leaf=0.182678
					38:[U_CITY_C<124.629] yes=77,no=78,missing=78
						77:leaf=0.0287682
						78:leaf=-0.0353897
		4:[C_D_U_TITLEMD5_CITY_C<9.01917] yes=9,no=10,missing=10
			9:[U_CITY_EC<334.267] yes=19,no=20,missing=19
				19:[U_CITY_EC<91.3516] yes=39,no=40,missing=39
					39:[D_TITLEMD5_EC<795.029] yes=79,no=80,missing=80
						79:leaf=0.14821
						80:leaf=0.0748112
					40:[D_TITLEMD5_EC<353.063] yes=81,no=82,missing=82
						81:leaf=0.0943352
						82:leaf=0.0206283
				20:[C_D_U_TITLEMD5_CITY_C<0.909155] yes=41,no=42,missing=42
					41:[U_KW_LEN<1209] yes=83,no=84,missing=84
						83:leaf=-0.0363751
						84:leaf=-0.00457002
					42:[C_D_U_TITLEMD5_CATEGORY_MICRO_MAX_COEC<0.206337] yes=85,no=86,missing=85
						85:leaf=-0.0129871
						86:leaf=0.0526076
			10:[C_D_U_CATEGORY_CITY_MACRO_MEAN_COEC<0.088039] yes=21,no=22,missing=22
				21:[C_D_U_PUBLISHER_CITY_COEC<0.052643] yes=43,no=44,missing=43
					43:[C_D_U_TITLEMD5_CATEGORY_MEAN_C<0.227139] yes=87,no=88,missing=88
						87:leaf=-0.0715918
						88:leaf=-0.0521278
					44:[DOC_AGE<3] yes=89,no=90,missing=90
						89:leaf=-0.0297459
						90:leaf=-0.0511061
				22:[U_KW_LEN<1322] yes=45,no=46,missing=46
					45:[U_KEYWORD_MICRO_MAX_COEC<0.132979] yes=91,no=92,missing=91
						91:leaf=-0.0453283
						92:leaf=-0.0215395
					46:[C_D_U_PUBLISHER_CITY_COEC<0.165746] yes=93,no=94,missing=93
						93:leaf=-0.0149198
						94:leaf=0.0270027
	2:[C_D_U_TITLEMD5_CATEGORY_MICRO_MEAN_COEC<0.13745] yes=5,no=6,missing=5
		5:[C_D_U_CATEGORY_CITY_MACRO_MAX_COEC<0.097014] yes=11,no=12,missing=11
			11:[D_TITLEMD5_C<17.3804] yes=23,no=24,missing=24
				23:[C_D_U_KEYWORD_CATEGORY_MICRO_MEAN_COEC<0.091169] yes=47,no=48,missing=47
					47:[D_PUBLISHER_COEC<0.069324] yes=95,no=96,missing=96
						95:leaf=-0.0667356
						96:leaf=-0.046095
					48:[D_PUBLISHER_COEC<0.086331] yes=97,no=98,missing=98
						97:leaf=-0.0365478
						98:leaf=-0.0164952
				24:[U_KW_LEN<737] yes=49,no=50,missing=50
					49:[D_TITLEMD5_COEC<0.125793] yes=99,no=100,missing=100
						99:leaf=-0.033491
						100:leaf=-0.0205811
					50:[D_KEYWORD_MEAN_EC<959.994] yes=101,no=102,missing=102
						101:leaf=0.00275686
						102:leaf=-0.0197345
			12:[U_KW_LEN<1561] yes=25,no=26,missing=26
				25:[C_D_U_PUBLISHER_CITY_COEC<0.308216] yes=51,no=52,missing=51
					51:[WORD_COUNT<1686] yes=103,no=104,missing=104
						103:leaf=-0.0269067
						104:leaf=-0.0129801
					52:[C_D_U_TITLEMD5_CITY_C<0.941622] yes=105,no=106,missing=105
						105:leaf=0.00166861
						106:leaf=0.0752858
				26:[CAT_REL<0.001086] yes=53,no=54,missing=54
					53:[C_D_U_CATEGORY_AGE_MICRO_MAX_COEC<0.113172] yes=107,no=108,missing=108
						107:leaf=-0.0335968
						108:leaf=0.0101004
					54:[U_KW_LEN<3139] yes=109,no=110,missing=110
						109:leaf=0.0266424
						110:leaf=0.0683608
		6:[U_KW_LEN<351] yes=13,no=14,missing=14
			13:[C_D_U_TITLEMD5_CATEGORY_MEAN_C<1.6117] yes=27,no=28,missing=28
				27:[C_D_U_TITLEMD5_CITY_COEC<0.497321] yes=55,no=56,missing=55
					55:[DOC_AGE<3] yes=111,no=112,missing=112
						111:leaf=-0.0142065
						112:leaf=-0.0324102
					56:[U_CITY_EC<668.934] yes=113,no=114,missing=114
						113:leaf=0.0795637
						114:leaf=0.00181214
				28:[C_D_U_KEYWORD_CATEGORY_MICRO_MAX_COEC<0.282538] yes=57,no=58,missing=58
					57:[U_KEYWORD_MICRO_MAX_COEC<0.116027] yes=115,no=116,missing=115
						115:leaf=-0.0201879
						116:leaf=-0.00261854
					58:[C_D_U_TITLEMD5_CATEGORY_MICRO_MEAN_COEC<0.36763] yes=117,no=118,missing=118
						117:leaf=0.0103877
						118:leaf=0.0668529
			14:[C_D_U_CATEGORY_CITY_MICRO_MEAN_COEC<0.117873] yes=29,no=30,missing=29
				29:[D_TITLEMD5_C<83.0127] yes=59,no=60,missing=60
					59:[KW_REL<0.002112] yes=119,no=120,missing=120
						119:leaf=-0.0201323
						120:leaf=0.00444634
					60:[KW_REL<0.000978] yes=121,no=122,missing=122
						121:leaf=0.000892211
						122:leaf=0.0185696
				30:[CAT_REL<0.001086] yes=61,no=62,missing=62
					61:[C_D_U_PUBLISHER_CITY_COEC<0.282833] yes=123,no=124,missing=123
						123:leaf=0.00137041
						124:leaf=0.0416915
					62:[C_D_U_CATEGORY_CITY_MACRO_MEAN_COEC<0.268978] yes=125,no=126,missing=126
						125:leaf=0.0270787
						126:leaf=0.0517048
booster[14]:
0:[D_TITLEMD5_COEC<0.0854] yes=1,no=2,missing=1
	1:[C_D_U_KEYWORD_CATEGORY_MICRO_MEAN_COEC<0.08636] yes=3,no=4,missing=3
		3:[D_TITLEMD5_COEC<0.037875] yes=7,no=8,missing=7
			7:[C_D_U_TITLEMD5_CITY_EC<2.49271] yes=15,no=16,missing=16
				15:[U_CITY_EC<189.09] yes=31,no=32,missing=32
					31:[D_TITLEMD5_EC<594.942] yes=63,no=64,missing=64
						63:leaf=0.0938022
						64:leaf=-0.0248187
					32:[C_D_U_TITLEMD5_CITY_C<0.941622] yes=65,no=66,missing=66
						65:leaf=-0.0575113
						66:leaf=0.0595202
				16:[CAT_REL<0.007386] yes=33,no=34,missing=34
					33:[D_PUBLISHER_COEC<0.095391] yes=67,no=68,missing=68
						67:leaf=-0.0780916
						68:leaf=-0.0572674
					34:[IMAGE_COUNT<0.999999] yes=69,no=70,missing=70
						69:leaf=-0.0812434
						70:leaf=-0.0557178
			8:[CAT_REL<0.003975] yes=17,no=18,missing=18
				17:[C_D_U_TITLEMD5_CITY_COEC<0.495663] yes=35,no=36,missing=35
					35:[D_TITLEMD5_C<43.5689] yes=71,no=72,missing=72
						71:leaf=-0.0570526
						72:leaf=-0.0441347
					36:[C_D_U_TITLEMD5_CITY_C<0.980149] yes=73,no=74,missing=74
						73:leaf=-0.0272823
						74:leaf=0.0680558
				18:[C_D_U_TITLEMD5_CITY_EC<14.4415] yes=37,no=38,missing=38
					37:[U_CITY_EC<189.09] yes=75,no=76,missing=76
						75:leaf=0.0700881
						76:leaf=-0.0224491
					38:[C_D_U_CATEGORY_CITY_MACRO_MAX_COEC<0.123252] yes=77,no=78,missing=78
						77:leaf=-0.0497869
						78:leaf=-0.0268199
		4:[C_D_U_TITLEMD5_CITY_C<8.14066] yes=9,no=10,missing=10
			9:[U_CITY_EC<610.091] yes=19,no=20,missing=19
				19:[U_CITY_EC<88.2999] yes=39,no=40,missing=39
					39:[D_TITLEMD5_EC<1161.63] yes=79,no=80,missing=79
						79:leaf=0.127565
						80:leaf=0.0542863
					40:[C_D_U_TITLEMD5_CITY_C<0.941622] yes=81,no=82,missing=82
						81:leaf=0.0190051
						82:leaf=0.123838
				20:[CAT_REL<0.018885] yes=41,no=42,missing=42
					41:[U_KEYWORD_MICRO_MAX_COEC<0.122754] yes=83,no=84,missing=84
						83:leaf=-0.0466939
						84:leaf=-0.0257539
					42:[U_KW_LEN<1522] yes=85,no=86,missing=86
						85:leaf=-0.0184833
						86:leaf=0.0211325
			10:[C_D_U_CATEGORY_CITY_MICRO_MEAN_COEC<0.10738] yes=21,no=22,missing=22
				21:[DOC_AGE<4] yes=43,no=44,missing=44
					43:[C_D_U_KEYWORD_CATEGORY_MICRO_MEAN_COEC<0.123878] yes=87,no=88,missing=88
						87:leaf=-0.0406902
						88:leaf=-0.00778
					44:[D_TITLEMD5_C<9.28117] yes=89,no=90,missing=89
						89:leaf=-0.0662199
						90:leaf=-0.0454852
				22:[U_KW_LEN<319] yes=45,no=46,missing=46
					45:[C_D_U_TITLEMD5_CATEGORY_MACRO_MEAN_COEC<0.05017] yes=91,no=92,missing=92
						91:leaf=-0.053341
						92:leaf=-0.0332743
					46:[C_D_U_PUBLISHER_CITY_COEC<0.212257] yes=93,no=94,missing=93
						93:leaf=-0.0214134
						94:leaf=0.0193138
	2:[C_D_U_TITLEMD5_CATEGORY_MICRO_MEAN_COEC<0.143123] yes=5,no=6,missing=5
		5:[U_CITY_COEC<0.100588] yes=11,no=12,missing=11
			11:[C_D_U_TITLEMD5_CITY_EC<0.415947] yes=23,no=24,missing=23
				23:[D_PUBLISHER_COEC<0.069618] yes=47,no=48,missing=48
					47:[D_TITLEMD5_C<2.88749] yes=95,no=96,missing=96
						95:leaf=-0.06706
						96:leaf=-0.0396694
					48:[M_D_U_KEYWORD_KEYWORD_MAX_EC<0.063721] yes=97,no=98,missing=98
						97:leaf=-0.0123983
						98:leaf=-0.0305056
				24:[U_CITY_EC<101.74] yes=49,no=50,missing=50
					49:[D_TITLEMD5_EC<1161.63] yes=99,no=100,missing=100
						99:leaf=0.08149
						100:leaf=0.00570709
					50:[U_KW_LEN<704] yes=101,no=102,missing=102
						101:leaf=-0.0217386
						102:leaf=-0.000177476
			12:[U_CITY_COEC<0.15623] yes=25,no=26,missing=26
				25:[C_D_U_TITLEMD5_CITY_C<82.0896] yes=51,no=52,missing=52
					51:[U_CITY_C<26.0985] yes=103,no=104,missing=104
						103:leaf=0.0158865
						104:leaf=-0.0107208
					52:[U_KW_LEN<1099] yes=105,no=106,missing=106
						105:leaf=-0.024005
						106:leaf=0.00411255
				26:[C_D_U_TITLEMD5_CITY_EC<0.913724] yes=53,no=54,missing=53
					53:[U_KW_LEN<366] yes=107,no=108,missing=108
						107:leaf=-0.00593835
						108:leaf=0.0179585
					54:[U_CITY_EC<42.1807] yes=109,no=110,missing=110
						109:leaf=0.117871
						110:leaf=0.0336454
		6:[C_D_U_PUBLISHER_CITY_COEC<0.140563] yes=13,no=14,missing=13
			13:[KW_REL<0.00056] yes=27,no=28,missing=28
				27:[D_TITLEMD5_C<60.4356] yes=55,no=56,missing=56
					55:[D_CATEGORY_MACRO_MAX_COEC<0.078803] yes=111,no=112,missing=112
						111:leaf=-0.0442366
						112:leaf=-0.0222589
					56:[C_D_U_TITLEMD5_CATEGORY_MICRO_MAX_COEC<0.303641] yes=113,no=114,missing=114
						113:leaf=-0.0130521
						114:leaf=0.00367795
				28:[U_KW_LEN<823] yes=57,no=58,missing=58
					57:[U_KEYWORD_MICRO_MAX_COEC<0.125465] yes=115,no=116,missing=116
						115:leaf=-0.00999351
						116:leaf=0.00752611
					58:[C_D_U_KEYWORD_CATEGORY_MACRO_MEAN_COEC<0.059599] yes=117,no=118,missing=118
						117:leaf=0.00264835
						118:leaf=0.0261354
			14:[C_D_U_CATEGORY_CITY_MACRO_MEAN_COEC<0.256395] yes=29,no=30,missing=29
				29:[C_D_U_KEYWORD_CATEGORY_MICRO_MAX_COEC<0.299897] yes=59,no=60,missing=60
					59:[U_KEYWORD_MICRO_MAX_COEC<0.121886] yes=119,no=120,missing=120
						119:leaf=-0.00518465
						120:leaf=0.00990036
					60:[U_KW_LEN<1302] yes=121,no=122,missing=122
						121:leaf=0.0181609
						122:leaf=0.0399171
				30:[C_D_U_TITLEMD5_CITY_C<0.941622] yes=61,no=62,missing=61
					61:[U_CITY_COEC<0.15623] yes=123,no=124,missing=124
						123:leaf=0.0178574
						124:leaf=0.044331
					62:[U_CITY_EC<175.49] yes=125,no=126,missing=126
						125:leaf=0.111959
						126:leaf=0.0385178
booster[15]:
0:[D_TITLEMD5_COEC<0.086077] yes=1,no=2,missing=1
	1:[C_D_U_KEYWORD_CATEGORY_MICRO_MEAN_COEC<0.089443] yes=3,no=4,missing=3
		3:[D_TITLEMD5_COEC<0.032815] yes=7,no=8,missing=7
			7:[CAT_REL<0.014078] yes=15,no=16,missing=16
				15:[D_PUBLISHER_COEC<0.094499] yes=31,no=32,missing=32
					31:[C_D_U_TITLEMD5_CITY_COEC<0.120464] yes=63,no=64,missing=63
						63:leaf=-0.0733264
						64:leaf=0.00365472
					32:[D_TITLEMD5_EC<24.5703] yes=65,no=66,missing=65
						65:leaf=-0.0436914
						66:leaf=-0.0627714
				16:[D_PUBLISHER_EC<48627.7] yes=33,no=34,missing=33
					33:[C_D_U_TITLEMD5_CITY_C<3.79096] yes=67,no=68,missing=68
						67:leaf=-0.0336255
						68:leaf=-0.0624836
					34:[U_KW_LEN<771] yes=69,no=70,missing=70
						69:leaf=-0.0446489
						70:leaf=-0.0141199
			8:[CAT_REL<0.003601] yes=17,no=18,missing=18
				17:[C_D_U_TITLEMD5_CITY_COEC<0.498746] yes=35,no=36,missing=35
					35:[D_TITLEMD5_COEC<0.059491] yes=71,no=72,missing=72
						71:leaf=-0.057494
						72:leaf=-0.0441053
					36:[U_CITY_C<14.6334] yes=73,no=74,missing=74
						73:leaf=0.10699
						74:leaf=-0.0126366
				18:[C_D_U_TITLEMD5_CITY_C<3.59612] yes=37,no=38,missing=38
					37:[U_CITY_EC<139.641] yes=75,no=76,missing=76
						75:leaf=0.0775752
						76:leaf=-0.0187702
					38:[U_CITY_COEC<0.090466] yes=77,no=78,missing=78
						77:leaf=-0.0502591
						78:leaf=-0.0275221
		4:[M_D_U_KEYWORD_KEYWORD_MICRO_MAX_COEC<0.12222] yes=9,no=10,missing=9
			9:[C_D_U_PUBLISHER_CITY_COEC<0.124352] yes=19,no=20,missing=19
				19:[D_TITLEMD5_C<16.2786] yes=39,no=40,missing=40
					39:[D_KEYWORD_MAX_C<41.1314] yes=79,no=80,missing=80
						79:leaf=-0.0412131
						80:leaf=-0.059516
					40:[D_KEYWORD_MEAN_C<75.0162] yes=81,no=82,missing=82
						81:leaf=-0.0196716
						82:leaf=-0.0424116
				20:[C_D_U_CATEGORY_CITY_MICRO_MAX_COEC<0.288029] yes=41,no=42,missing=41
					41:[U_KW_LEN<1677] yes=83,no=84,missing=84
						83:leaf=-0.0230822
						84:leaf=0.0190423
					42:[C_D_U_TITLEMD5_CITY_C<1.6896] yes=85,no=86,missing=86
						85:leaf=0.0829653
						86:leaf=0.0176891
			10:[D_KEYWORD_MICRO_MEAN_COEC<0.079985] yes=21,no=22,missing=22
				21:[KW_REL<0.002248] yes=43,no=44,missing=44
					43:[C_D_U_TITLEMD5_CITY_C<0.895586] yes=87,no=88,missing=87
						87:leaf=-0.00782526
						88:leaf=0.0714045
					44:[M_D_U_KEYWORD_KEYWORD_MICRO_MAX_COEC<0.194189] yes=89,no=90,missing=90
						89:leaf=0.0173581
						90:leaf=0.0491915
				22:[C_D_U_PUBLISHER_CITY_COEC<0.095538] yes=45,no=46,missing=45
					45:[D_TITLEMD5_COEC<0.05198] yes=91,no=92,missing=92
						91:leaf=-0.040312
						92:leaf=-0.0163241
					46:[C_D_U_CATEGORY_CITY_MACRO_MEAN_COEC<0.215662] yes=93,no=94,missing=94
						93:leaf=-0.00449858
						94:leaf=0.0323575
	2:[C_D_U_KEYWORD_CATEGORY_MICRO_MEAN_COEC<0.105631] yes=5,no=6,missing=5
		5:[C_D_U_PUBLISHER_CITY_COEC<0.115205] yes=11,no=12,missing=11
			11:[D_TITLEMD5_C<4.80989] yes=23,no=24,missing=24
				23:[C_D_U_KEYWORD_CATEGORY_MICRO_MEAN_COEC<0.080171] yes=47,no=48,missing=47
					47:[D_CATEGORY_MACRO_MEAN_COEC<0.074534] yes=95,no=96,missing=96
						95:leaf=-0.0708001
						96:leaf=-0.0487511
					48:[CAT_REL<0.025174] yes=97,no=98,missing=98
						97:leaf=-0.0474383
						98:leaf=-0.0225763
				24:[D_TITLEMD5_COEC<0.143124] yes=49,no=50,missing=50
					49:[CAT_REL<0.017948] yes=99,no=100,missing=100
						99:leaf=-0.0311754
						100:leaf=-0.0135063
					50:[D_KEYWORD_MICRO_MAX_COEC<0.209542] yes=101,no=102,missing=102
						101:leaf=-0.0163103
						102:leaf=0.00255888
			12:[C_D_U_TITLEMD5_CITY_COEC<0.251247] yes=25,no=26,missing=25
				25:[U_CITY_COEC<0.157791] yes=51,no=52,missing=52
					51:[D_TITLEMD5_COEC<0.151203] yes=103,no=104,missing=104
						103:leaf=-0.0211698
						104:leaf=-0.00602732
					52:[C_D_U_PUBLISHER_CITY_C<0.950004] yes=105,no=106,missing=106
						105:leaf=-0.00976165
						106:leaf=0.0178796
				26:[U_CITY_C<8.64305] yes=53,no=54,missing=54
					53:[C_D_U_TITLEMD5_CITY_C<0.960692] yes=107,no=108,missing=108
						107:leaf=0.0166554
						108:leaf=0.112772
					54:[C_D_U_TITLEMD5_CITY_C<0.960692] yes=109,no=110,missing=110
						109:leaf=-0.0153266
						110:leaf=0.00757238
		6:[C_D_U_KEYWORD_CATEGORY_MICRO_MAX_COEC<0.227391] yes=13,no=14,missing=14
			13:[U_KW_LEN<138] yes=27,no=28,missing=28
				27:[C_D_U_KEYWORD_CATEGORY_MACRO_MEAN_COEC<0.101335] yes=55,no=56,missing=56
					55:[U_KEYWORD_MICRO_MAX_COEC<0.116042] yes=111,no=112,missing=111
						111:leaf=-0.0427375
						112:leaf=-0.0268403
					56:[TIME_OF_DAY<3] yes=113,no=114,missing=114
						113:leaf=-0.0326299
						114:leaf=-0.0146
				28:[U_KEYWORD_MICRO_MAX_COEC<0.1321] yes=57,no=58,missing=58
					57:[U_KW_LEN<1127] yes=115,no=116,missing=116
						115:leaf=-0.0146516
						116:leaf=0.00758483
					58:[U_CITY_COEC<0.146831] yes=117,no=118,missing=117
						117:leaf=0.00296484
						118:leaf=0.0305153
			14:[U_CITY_COEC<0.121711] yes=29,no=30,missing=29
				29:[C_D_U_TITLEMD5_CITY_EC<0.913724] yes=59,no=60,missing=59
					59:[CAT_REL<0.012811] yes=119,no=120,missing=120
						119:leaf=-0.0129648
						120:leaf=0.0026931
					60:[CAT_REL<0.001106] yes=121,no=122,missing=122
						121:leaf=0.00228434
						122:leaf=0.0188728
				30:[C_D_U_TITLEMD5_CITY_C<2.17575] yes=61,no=62,missing=62
					61:[U_CITY_EC<62.5943] yes=123,no=124,missing=124
						123:leaf=0.0866258
						124:leaf=0.0354483
					62:[C_D_U_CATEGORY_CITY_MICRO_MEAN_COEC<0.199398] yes=125,no=126,missing=126
						125:leaf=0.00325567
						126:leaf=0.0264712
booster[16]:
0:[D_TITLEMD5_COEC<0.080296] yes=1,no=2,missing=1
	1:[KW_REL<0.000479] yes=3,no=4,missing=4
		3:[D_TITLEMD5_COEC<0.046987] yes=7,no=8,missing=7
			7:[C_D_U_TITLEMD5_CITY_C<0.941622] yes=15,no=16,missing=15
				15:[D_PUBLISHER_COEC<0.068215] yes=31,no=32,missing=32
					31:[D_TITLEMD5_COEC<0.025334] yes=63,no=64,missing=63
						63:leaf=-0.0715735
						64:leaf=-0.0567828
					32:[DOC_AGE<3] yes=65,no=66,missing=66
						65:leaf=-0.0376873
						66:leaf=-0.0588765
				16:[U_CITY_EC<2750.84] yes=33,no=34,missing=34
					33:[C_D_U_TITLEMD5_CATEGORY_MACRO_MEAN_COEC<0.032382] yes=67,no=68,missing=68
						67:leaf=-0.0381775
						68:leaf=0.124278
					34:[C_D_U_TITLEMD5_CATEGORY_MACRO_MEAN_COEC<0.06355] yes=69,no=70,missing=69
						69:leaf=-0.0349165
						70:leaf=0.122362
			8:[C_D_U_TITLEMD5_CITY_COEC<0.497493] yes=17,no=18,missing=17
				17:[U_KEYWORD_MICRO_MAX_COEC<0.138624] yes=35,no=36,missing=35
					35:[U_CITY_COEC<0.19786] yes=71,no=72,missing=71
						71:leaf=-0.0456255
						72:leaf=-0.00439592
					36:[U_CAT_LEN<6] yes=73,no=74,missing=74
						73:leaf=-0.0385956
						74:leaf=-0.0140184
				18:[U_CITY_C<29.1401] yes=37,no=38,missing=38
					37:[C_D_U_TITLEMD5_CITY_C<0.92293] yes=75,no=76,missing=76
						75:leaf=0.0129163
						76:leaf=0.127047
					38:[C_D_U_TITLEMD5_CATEGORY_MACRO_MEAN_COEC<0.105099] yes=77,no=78,missing=77
						77:leaf=-0.0214168
						78:leaf=0.0900889
		4:[D_TITLEMD5_C<12.5665] yes=9,no=10,missing=10
			9:[C_D_U_PUBLISHER_CITY_COEC<0.077776] yes=19,no=20,missing=19
				19:[M_D_U_KEYWORD_KEYWORD_MICRO_MAX_COEC<0.167716] yes=39,no=40,missing=39
					39:[C_D_U_TITLEMD5_CITY_EC<1.2361] yes=79,no=80,missing=80
						79:leaf=-0.0161579
						80:leaf=-0.0485358
					40:[KW_REL<0.002557] yes=81,no=82,missing=82
						81:leaf=-0.0398583
						82:leaf=0.00276845
				20:[C_D_U_CATEGORY_CITY_MICRO_MAX_COEC<0.232941] yes=41,no=42,missing=41
					41:[U_KW_LEN<1729] yes=83,no=84,missing=84
						83:leaf=-0.0296937
						84:leaf=0.000927172
					42:[C_D_U_TITLEMD5_CITY_EC<0.630043] yes=85,no=86,missing=85
						85:leaf=0.020547
						86:leaf=0.107478
			10:[U_KW_LEN<264] yes=21,no=22,missing=22
				21:[C_D_U_KEYWORD_CATEGORY_MACRO_MEAN_COEC<0.06851] yes=43,no=44,missing=44
					43:[U_KEYWORD_MICRO_MAX_COEC<0.117996] yes=87,no=88,missing=88
						87:leaf=-0.0572145
						88:leaf=-0.0354015
					44:[CAT_REL<0.261354] yes=89,no=90,missing=90
						89:leaf=-0.0284659
						90:leaf=0.00228104
				22:[CAT_REL<0.044336] yes=45,no=46,missing=46
					45:[U_CITY_COEC<0.117646] yes=91,no=92,missing=91
						91:leaf=-0.0225662
						92:leaf=0.0109579
					46:[C_D_U_KEYWORD_CATEGORY_MICRO_MAX_COEC<0.184212] yes=93,no=94,missing=94
						93:leaf=-0.00805516
						94:leaf=0.0144926
	2:[C_D_U_KEYWORD_CATEGORY_MICRO_MEAN_COEC<0.104959] yes=5,no=6,missing=5
		5:[D_TITLEMD5_COEC<0.148344] yes=11,no=12,missing=12
			11:[CAT_REL<0.003893] yes=23,no=24,missing=24
				23:[D_TITLEMD5_C<18.4727] yes=47,no=48,missing=48
					47:[D_PUBLISHER_COEC<0.068215] yes=95,no=96,missing=96
						95:leaf=-0.0588015
						96:leaf=-0.0383445
					48:[U_CITY_COEC<0.064774] yes=97,no=98,missing=97
						97:leaf=-0.0333757
						98:leaf=-0.0205359
				24:[U_KW_LEN<537] yes=49,no=50,missing=50
					49:[U_KEYWORD_MICRO_MAX_COEC<0.119199] yes=99,no=100,missing=100
						99:leaf=-0.0303002
						100:leaf=-0.0083315
					50:[D_KEYWORD_MEAN_C<120.172] yes=101,no=102,missing=102
						101:leaf=0.00312023
						102:leaf=-0.0278466
			12:[D_TITLEMD5_C<4.769] yes=25,no=26,missing=26
				25:[D_CATEGORY_MEAN_EC<57778.5] yes=51,no=52,missing=52
					51:[CAT_REL<0.027021] yes=103,no=104,missing=104
						103:leaf=-0.0562219
						104:leaf=-0.0251073
					52:[C_D_U_KEYWORD_CATEGORY_MICRO_MEAN_COEC<0.08912] yes=105,no=106,missing=105
						105:leaf=-0.0258499
						106:leaf=0.00808721
				26:[D_KEYWORD_MICRO_MAX_COEC<0.209442] yes=53,no=54,missing=54
					53:[U_CITY_COEC<0.054728] yes=107,no=108,missing=107
						107:leaf=-0.0202887
						108:leaf=-0.0069166
					54:[U_KEYWORD_MEAN_EC<166.344] yes=109,no=110,missing=109
						109:leaf=0.00123082
						110:leaf=0.0269814
		6:[U_KW_LEN<986] yes=13,no=14,missing=14
			13:[U_KEYWORD_MICRO_MAX_COEC<0.128832] yes=27,no=28,missing=27
				27:[C_D_U_TITLEMD5_CATEGORY_MEAN_C<1.4307] yes=55,no=56,missing=55
					55:[D_KEYWORD_MEAN_C<139.428] yes=111,no=112,missing=112
						111:leaf=-0.0168542
						112:leaf=-0.034597
					56:[C_D_U_KEYWORD_CATEGORY_MICRO_MAX_COEC<0.299154] yes=113,no=114,missing=114
						113:leaf=-0.0101439
						114:leaf=0.00940793
				28:[U_KW_LEN<174] yes=57,no=58,missing=58
					57:[C_D_U_KEYWORD_CATEGORY_MACRO_MEAN_COEC<0.128136] yes=115,no=116,missing=116
						115:leaf=-0.012979
						116:leaf=0.00621495
					58:[C_D_U_TITLEMD5_CATEGORY_MEAN_C<3.71462] yes=117,no=118,missing=117
						117:leaf=0.00542059
						118:leaf=0.0225676
			14:[CAT_REL<0.010296] yes=29,no=30,missing=30
				29:[D_CATEGORY_MACRO_MAX_COEC<0.114262] yes=59,no=60,missing=60
					59:[D_CATEGORY_MACRO_MAX_COEC<0.073859] yes=119,no=120,missing=120
						119:leaf=-0.0289027
						120:leaf=2.29226e-05
					60:[C_D_U_CATEGORY_AGE_MAX_EC<5644.07] yes=121,no=122,missing=121
						121:leaf=0.032598
						122:leaf=-0.00114348
				30:[D_KEYWORD_MEAN_C<92.5331] yes=61,no=62,missing=62
					61:[U_KW_LEN<2133] yes=123,no=124,missing=124
						123:leaf=0.0290435
						124:leaf=0.0547372
					62:[KW_REL<0.004016] yes=125,no=126,missing=126
						125:leaf=0.00853241
						126:leaf=0.0347394
booster[17]:
0:[D_TITLEMD5_COEC<0.099193] yes=1,no=2,missing=1
	1:[C_D_U_TITLEMD5_CATEGORY_MICRO_MEAN_COEC<0.065972] yes=3,no=4,missing=3
		3:[C_D_U_CATEGORY_CITY_MICRO_MEAN_COEC<0.122077] yes=7,no=8,missing=7
			7:[D_PUBLISHER_COEC<0.073429] yes=15,no=16,missing=15
				15:[C_D_U_TITLEMD5_CITY_C<7.1612] yes=31,no=32,missing=32
					31:[U_CITY_EC<278.862] yes=63,no=64,missing=64
						63:leaf=0.0209101
						64:leaf=-0.0409407
					32:[KW_REL<0.002146] yes=65,no=66,missing=66
						65:leaf=-0.0580368
						66:leaf=-0.0345471
				16:[C_D_U_KEYWORD_CATEGORY_MICRO_MAX_COEC<0.202912] yes=33,no=34,missing=33
					33:[D_TITLEMD5_COEC<0.053573] yes=67,no=68,missing=68
						67:leaf=-0.048446
						68:leaf=-0.0345933
					34:[DOC_AGE<2] yes=69,no=70,missing=70
						69:leaf=0.00479128
						70:leaf=-0.0288685
			8:[U_KW_LEN<1676] yes=17,no=18,missing=18
				17:[U_KEYWORD_MICRO_MAX_COEC<0.139192] yes=35,no=36,missing=35
					35:[C_D_U_TITLEMD5_CITY_C<0.932229] yes=71,no=72,missing=71
						71:leaf=-0.0325368
						72:leaf=0.012409
					36:[U_CITY_COEC<0.131817] yes=73,no=74,missing=74
						73:leaf=-0.0127757
						74:leaf=0.0294123
				18:[C_D_U_TITLEMD5_CITY_COEC<0.068788] yes=37,no=38,missing=38
					37:[U_CITY_EC<928.648] yes=75,no=76,missing=76
						75:leaf=0.117991
						76:leaf=0.0299423
					38:[C_D_U_PUBLISHER_CITY_C<0.990024] yes=77,no=78,missing=77
						77:leaf=-0.00851395
						78:leaf=0.0285882
		4:[CAT_REL<0.026997] yes=9,no=10,missing=10
			9:[D_TITLEMD5_C<21.0926] yes=19,no=20,missing=20
				19:[C_D_U_TITLEMD5_CITY_C<0.92293] yes=39,no=40,missing=39
					39:[U_CITY_COEC<0.090476] yes=79,no=80,missing=80
						79:leaf=-0.0545204
						80:leaf=-0.0363345
					40:[C_D_U_TITLEMD5_CATEGORY_MACRO_MEAN_COEC<0.091827] yes=81,no=82,missing=82
						81:leaf=-0.0224478
						82:leaf=0.0931091
				20:[D_CATEGORY_MAX_C<166.151] yes=41,no=42,missing=41
					41:[KW_REL<0.00018] yes=83,no=84,missing=84
						83:leaf=-0.0219192
						84:leaf=0.0128155
					42:[U_KEYWORD_MICRO_MAX_COEC<0.122684] yes=85,no=86,missing=85
						85:leaf=-0.0326373
						86:leaf=-0.0149532
			10:[C_D_U_TITLEMD5_CITY_C<0.909155] yes=21,no=22,missing=21
				21:[U_KW_LEN<369] yes=43,no=44,missing=44
					43:[M_D_U_KEYWORD_KEYWORD_MICRO_MAX_COEC<0.194682] yes=87,no=88,missing=87
						87:leaf=-0.0241693
						88:leaf=0.0162535
					44:[D_TITLEMD5_EC<136.461] yes=89,no=90,missing=90
						89:leaf=-0.022738
						90:leaf=0.00537352
				22:[U_CITY_C<115.624] yes=45,no=46,missing=46
					45:[TIME_OF_DAY<0.999999] yes=91,no=92,missing=92
						91:leaf=-0.0384533
						92:leaf=0.107537
					46:[C_D_U_TITLEMD5_CATEGORY_MICRO_MAX_COEC<0.304659] yes=93,no=94,missing=94
						93:leaf=0.00906156
						94:leaf=0.0810506
	2:[C_D_U_KEYWORD_CATEGORY_MICRO_MAX_COEC<0.215156] yes=5,no=6,missing=5
		5:[D_TITLEMD5_C<86.0503] yes=11,no=12,missing=12
			11:[C_D_U_CATEGORY_CITY_MICRO_MEAN_COEC<0.140618] yes=23,no=24,missing=23
				23:[D_TITLEMD5_C<4.96505] yes=47,no=48,missing=48
					47:[D_CATEGORY_MACRO_MEAN_COEC<0.074395] yes=95,no=96,missing=96
						95:leaf=-0.0590359
						96:leaf=-0.0359955
					48:[DOC_AGE<4] yes=97,no=98,missing=98
						97:leaf=-0.0166944
						98:leaf=-0.029795
				24:[C_D_U_TITLEMD5_CITY_EC<1.96522] yes=49,no=50,missing=50
					49:[U_CITY_C<37.404] yes=99,no=100,missing=100
						99:leaf=0.0794736
						100:leaf=-0.00267805
					50:[U_KEYWORD_MICRO_MAX_COEC<0.135215] yes=101,no=102,missing=101
						101:leaf=-0.0153525
						102:leaf=0.0136641
			12:[TIME_OF_DAY<3] yes=25,no=26,missing=26
				25:[D_TITLEMD5_COEC<0.202924] yes=51,no=52,missing=52
					51:[CAT_REL<0.036846] yes=103,no=104,missing=104
						103:leaf=-0.0275485
						104:leaf=-0.0113346
					52:[D_KEYWORD_MEAN_EC<465.162] yes=105,no=106,missing=106
						105:leaf=0.0341339
						106:leaf=-0.00846237
				26:[U_CITY_COEC<0.063008] yes=53,no=54,missing=53
					53:[IMAGE_COUNT<2] yes=107,no=108,missing=108
						107:leaf=-0.0227546
						108:leaf=-0.00621362
					54:[U_CITY_COEC<0.172905] yes=109,no=110,missing=110
						109:leaf=-0.00661848
						110:leaf=0.0165439
		6:[KW_REL<0.000348] yes=13,no=14,missing=14
			13:[D_CATEGORY_MACRO_MAX_COEC<0.080511] yes=27,no=28,missing=28
				27:[C_D_U_TITLEMD5_CATEGORY_MEAN_C<0.126299] yes=55,no=56,missing=55
					55:[C_D_U_KEYWORD_CATEGORY_MICRO_MEAN_COEC<0.082507] yes=111,no=112,missing=112
						111:leaf=-0.0642402
						112:leaf=-0.0343259
					56:[D_KEYWORD_MEAN_EC<1131.67] yes=113,no=114,missing=114
						113:leaf=-0.0126291
						114:leaf=-0.0412482
				28:[U_KEYWORD_MICRO_MAX_COEC<0.122684] yes=57,no=58,missing=57
					57:[D_TITLEMD5_COEC<0.235961] yes=115,no=116,missing=116
						115:leaf=-0.0175138
						116:leaf=0.0054559
					58:[C_D_U_TITLEMD5_AGE_COEC<0.212988] yes=117,no=118,missing=118
						117:leaf=-0.0139507
						118:leaf=0.00843257
			14:[C_D_U_TITLEMD5_CITY_C<82.4658] yes=29,no=30,missing=30
				29:[U_CITY_EC<186.647] yes=59,no=60,missing=59
					59:[D_TITLEMD5_C<156.069] yes=119,no=120,missing=120
						119:leaf=0.092999
						120:leaf=0.0390784
					60:[U_KW_LEN<240] yes=121,no=122,missing=122
						121:leaf=-0.00127745
						122:leaf=0.0154187
				30:[C_D_U_CATEGORY_CITY_MACRO_MAX_COEC<0.089655] yes=61,no=62,missing=62
					61:[C_D_U_TITLEMD5_AGE_COEC<0.1335] yes=123,no=124,missing=124
						123:leaf=-0.0349138
						124:leaf=-0.00985822
					62:[U_KW_LEN<1859] yes=125,no=126,missing=126
						125:leaf=0.00285914
						126:leaf=0.029273
booster[18]:
0:[D_TITLEMD5_COEC<0.073709] yes=1,no=2,missing=1
	1:[CAT_REL<0.007437] yes=3,no=4,missing=4
		3:[D_PUBLISHER_COEC<0.073776] yes=7,no=8,missing=8
			7:[D_TITLEMD5_COEC<0.027452] yes=15,no=16,missing=15
				15:[C_D_U_TITLEMD5_CITY_C<0.951109] yes=31,no=32,missing=31
					31:[D_CATEGORY_MAX_C<4320.15] yes=63,no=64,missing=64
						63:leaf=-0.0688123
						64:leaf=-0.0461807
					32:[C_D_U_TITLEMD5_CATEGORY_MACRO_MEAN_COEC<0.02918] yes=65,no=66,missing=65
						65:leaf=0.0117794
						66:leaf=0.186663
				16:[C_D_U_TITLEMD5_CITY_C<0.869052] yes=33,no=34,missing=33
					33:[U_CITY_COEC<0.139925] yes=67,no=68,missing=67
						67:leaf=-0.0489056
						68:leaf=-0.0240136
					34:[U_CITY_EC<1535.18] yes=69,no=70,missing=69
						69:leaf=0.0753233
						70:leaf=-0.0285547
			8:[U_CAT_LEN<8] yes=17,no=18,missing=18
				17:[C_D_U_TITLEMD5_CITY_COEC<0.158535] yes=35,no=36,missing=35
					35:[D_TITLEMD5_COEC<0.060578] yes=71,no=72,missing=72
						71:leaf=-0.0468751
						72:leaf=-0.0349073
					36:[U_CITY_EC<340.177] yes=73,no=74,missing=74
						73:leaf=0.0650893
						74:leaf=-0.0178021
				18:[D_CATEGORY_MEAN_EC<1209.69] yes=37,no=38,missing=37
					37:[U_CITY_COEC<0.158062] yes=75,no=76,missing=75
						75:leaf=0.00510722
						76:leaf=0.0785563
					38:[U_CITY_COEC<0.109039] yes=77,no=78,missing=77
						77:leaf=-0.0349493
						78:leaf=-0.00376531
		4:[M_D_U_KEYWORD_KEYWORD_MICRO_MAX_COEC<0.124555] yes=9,no=10,missing=9
			9:[C_D_U_TITLEMD5_CITY_C<11.4205] yes=19,no=20,missing=20
				19:[U_CITY_EC<660.967] yes=39,no=40,missing=40
					39:[D_TITLEMD5_EC<240.065] yes=79,no=80,missing=79
						79:leaf=0.0997673
						80:leaf=0.0212594
					40:[D_KEYWORD_MAX_C<41.9429] yes=81,no=82,missing=82
						81:leaf=-0.0137372
						82:leaf=-0.0451212
				20:[C_D_U_CATEGORY_CITY_MACRO_MEAN_COEC<0.08218] yes=41,no=42,missing=42
					41:[D_PUBLISHER_EC<44692.7] yes=83,no=84,missing=83
						83:leaf=-0.0549574
						84:leaf=-0.0306648
					42:[U_KW_LEN<1658] yes=85,no=86,missing=86
						85:leaf=-0.0323689
						86:leaf=0.00102895
			10:[D_KEYWORD_MAX_C<24.8339] yes=21,no=22,missing=22
				21:[KW_REL<0.001916] yes=43,no=44,missing=44
					43:[C_D_U_TITLEMD5_CITY_EC<0.413867] yes=87,no=88,missing=87
						87:leaf=-0.0155017
						88:leaf=0.0170666
					44:[C_D_U_CATEGORY_CITY_MACRO_MAX_COEC<0.076033] yes=89,no=90,missing=90
						89:leaf=0.0108219
						90:leaf=0.0390295
				22:[C_D_U_KEYWORD_CATEGORY_MICRO_MEAN_COEC<0.128949] yes=45,no=46,missing=46
					45:[C_D_U_TITLEMD5_CITY_C<0.92293] yes=91,no=92,missing=91
						91:leaf=-0.0260336
						92:leaf=0.0326326
					46:[DOC_AGE<2] yes=93,no=94,missing=94
						93:leaf=0.0365724
						94:leaf=-0.00197223
	2:[C_D_U_KEYWORD_CATEGORY_MICRO_MEAN_COEC<0.106139] yes=5,no=6,missing=5
		5:[C_D_U_CATEGORY_CITY_MACRO_MAX_COEC<0.105467] yes=11,no=12,missing=11
			11:[IMAGE_COUNT<2] yes=23,no=24,missing=24
				23:[D_TITLEMD5_C<14.7714] yes=47,no=48,missing=48
					47:[CAT_REL<0.004239] yes=95,no=96,missing=96
						95:leaf=-0.0445261
						96:leaf=-0.0245894
					48:[D_TITLEMD5_COEC<0.124962] yes=97,no=98,missing=98
						97:leaf=-0.0264617
						98:leaf=-0.014936
				24:[D_TITLEMD5_COEC<0.160925] yes=49,no=50,missing=50
					49:[D_TITLEMD5_C<51.1732] yes=99,no=100,missing=100
						99:leaf=-0.0232747
						100:leaf=-0.0110362
					50:[D_TITLEMD5_C<4.92547] yes=101,no=102,missing=102
						101:leaf=-0.0249562
						102:leaf=0.00516531
			12:[C_D_U_PUBLISHER_CITY_COEC<0.312482] yes=25,no=26,missing=25
				25:[D_TITLEMD5_COEC<0.152121] yes=51,no=52,missing=52
					51:[CAT_REL<0.004239] yes=103,no=104,missing=104
						103:leaf=-0.0161754
						104:leaf=0.000691959
					52:[U_KW_LEN<728] yes=105,no=106,missing=106
						105:leaf=-0.00103337
						106:leaf=0.0233243
				26:[C_D_U_TITLEMD5_CITY_C<0.975248] yes=53,no=54,missing=53
					53:[C_D_U_PUBLISHER_CITY_C<0.898127] yes=107,no=108,missing=108
						107:leaf=-0.0148786
						108:leaf=0.0191246
					54:[C_D_U_TITLEMD5_CITY_C<1.13145] yes=109,no=110,missing=110
						109:leaf=0.103579
						110:leaf=0.00672274
		6:[U_KW_LEN<129] yes=13,no=14,missing=14
			13:[C_D_U_KEYWORD_CATEGORY_MACRO_MEAN_COEC<0.11991] yes=27,no=28,missing=28
				27:[C_D_U_TITLEMD5_CATEGORY_MEAN_C<1.87577] yes=55,no=56,missing=55
					55:[U_CITY_COEC<0.132032] yes=111,no=112,missing=111
						111:leaf=-0.0345423
						112:leaf=-0.00376506
					56:[TIME_OF_DAY<5] yes=113,no=114,missing=114
						113:leaf=-0.0311053
						114:leaf=-0.0134333
				28:[C_D_U_TITLEMD5_AGE_COEC<0.2425] yes=57,no=58,missing=57
					57:[U_KW_LEN<51] yes=115,no=116,missing=116
						115:leaf=-0.0360801
						116:leaf=-0.0071729
					58:[DOC_AGE<11] yes=117,no=118,missing=118
						117:leaf=0.0310402
						118:leaf=-0.0107852
			14:[M_D_U_KEYWORD_KEYWORD_MICRO_MAX_COEC<0.188771] yes=29,no=30,missing=29
				29:[C_D_U_CATEGORY_CITY_MICRO_MEAN_COEC<0.180319] yes=59,no=60,missing=59
					59:[C_D_U_TITLEMD5_CATEGORY_MICRO_MEAN_COEC<0.228497] yes=119,no=120,missing=119
						119:leaf=-0.00373786
						120:leaf=0.0129126
					60:[C_D_U_TITLEMD5_CITY_C<0.951109] yes=121,no=122,missing=121
						121:leaf=0.0165939
						122:leaf=0.0526324
				30:[U_KW_LEN<700] yes=61,no=62,missing=62
					61:[TIME_OF_DAY<4] yes=123,no=124,missing=124
						123:leaf=0.00336895
						124:leaf=0.0251796
					62:[M_D_U_KEYWORD_KEYWORD_MACRO_MEAN_COEC<0.000121] yes=125,no=126,missing=126
						125:leaf=0.0163493
						126:leaf=0.0450892
booster[19]:
0:[C_D_U_KEYWORD_CATEGORY_MICRO_MEAN_COEC<0.098349] yes=1,no=2,missing=1
	1:[D_TITLEMD5_C<23.7069] yes=3,no=4,missing=3
		3:[C_D_U_TITLEMD5_CITY_EC<1.53635] yes=7,no=8,missing=8
			7:[U_CITY_EC<282.193] yes=15,no=16,missing=16
				15:[U_CITY_EC<51.74] yes=31,no=32,missing=32
					31:[C_D_U_TITLEMD5_CITY_COEC<0.030505] yes=63,no=64,missing=64
						63:leaf=0.191547
						64:leaf=0.113651
					32:[D_TITLEMD5_EC<177.353] yes=65,no=66,missing=66
						65:leaf=0.107377
						66:leaf=0.0415203
				16:[U_CITY_EC<929.647] yes=33,no=34,missing=34
					33:[D_TITLEMD5_EC<100.963] yes=67,no=68,missing=68
						67:leaf=0.0592073
						68:leaf=-0.00870577
					34:[C_D_U_TITLEMD5_CITY_C<0.975248] yes=69,no=70,missing=70
						69:leaf=-0.0363103
						70:leaf=0.0259282
			8:[D_PUBLISHER_COEC<0.068215] yes=17,no=18,missing=17
				17:[CAT_REL<0.00988] yes=35,no=36,missing=36
					35:[D_TITLEMD5_C<4.50976] yes=71,no=72,missing=71
						71:leaf=-0.0633554
						72:leaf=-0.0471531
					36:[D_TITLEMD5_C<1.82769] yes=73,no=74,missing=73
						73:leaf=-0.050301
						74:leaf=-0.0243042
				18:[DOC_AGE<2] yes=37,no=38,missing=38
					37:[U_CAT_LEN<12] yes=75,no=76,missing=76
						75:leaf=-0.022939
						76:leaf=0.00854767
					38:[U_CITY_COEC<0.062646] yes=77,no=78,missing=78
						77:leaf=-0.0570301
						78:leaf=-0.0353524
		4:[D_TITLEMD5_COEC<0.118493] yes=9,no=10,missing=10
			9:[U_KW_LEN<346] yes=19,no=20,missing=20
				19:[C_D_U_TITLEMD5_CITY_C<0.932229] yes=39,no=40,missing=39
					39:[U_CITY_COEC<0.109375] yes=79,no=80,missing=79
						79:leaf=-0.0304227
						80:leaf=-0.0148731
					40:[U_CITY_EC<459.62] yes=81,no=82,missing=81
						81:leaf=0.0815505
						82:leaf=-0.0147642
				20:[D_KEYWORD_MEAN_C<110.092] yes=41,no=42,missing=42
					41:[CAT_REL<0.022652] yes=83,no=84,missing=84
						83:leaf=-0.0119175
						84:leaf=0.00912081
					42:[U_KEYWORD_MEAN_C<29.8464] yes=85,no=86,missing=86
						85:leaf=-0.0555084
						86:leaf=-0.0226816
			10:[D_TITLEMD5_COEC<0.178591] yes=21,no=22,missing=22
				21:[TIME_OF_DAY<10] yes=43,no=44,missing=44
					43:[U_CITY_COEC<0.094418] yes=87,no=88,missing=87
						87:leaf=-0.0239351
						88:leaf=-0.0124213
					44:[U_CITY_COEC<0.051845] yes=89,no=90,missing=90
						89:leaf=-0.0241099
						90:leaf=-0.0059206
				22:[WORD_COUNT<3745] yes=45,no=46,missing=46
					45:[D_CATEGORY_MAX_EC<66144] yes=91,no=92,missing=92
						91:leaf=-0.00761877
						92:leaf=0.00393463
					46:[D_PUBLISHER_COEC<0.170579] yes=93,no=94,missing=94
						93:leaf=0.0246357
						94:leaf=-0.0197126
	2:[C_D_U_PUBLISHER_CITY_COEC<0.135644] yes=5,no=6,missing=5
		5:[D_TITLEMD5_C<41.3432] yes=11,no=12,missing=12
			11:[DOC_AGE<3] yes=23,no=24,missing=24
				23:[U_KW_LEN<878] yes=47,no=48,missing=48
					47:[U_KEYWORD_MICRO_MAX_COEC<0.135978] yes=95,no=96,missing=96
						95:leaf=-0.0165128
						96:leaf=0.00682092
					48:[CAT_REL<0.008859] yes=97,no=98,missing=98
						97:leaf=-0.00577952
						98:leaf=0.0262315
				24:[D_KEYWORD_MICRO_MEAN_COEC<0.090547] yes=49,no=50,missing=50
					49:[KW_REL<0.001432] yes=99,no=100,missing=100
						99:leaf=-0.0197953
						100:leaf=0.00425535
					50:[C_D_U_TITLEMD5_CITY_EC<1.99] yes=101,no=102,missing=102
						101:leaf=-0.00884151
						102:leaf=-0.0328284
			12:[U_KW_LEN<171] yes=25,no=26,missing=26
				25:[C_D_U_TITLEMD5_CATEGORY_MACRO_MEAN_COEC<0.155587] yes=51,no=52,missing=51
					51:[U_KEYWORD_MICRO_MAX_COEC<0.139766] yes=103,no=104,missing=103
						103:leaf=-0.0252517
						104:leaf=-0.00985407
					52:[TIME_OF_DAY<3] yes=105,no=106,missing=106
						105:leaf=-0.0205739
						106:leaf=-0.0033625
				26:[CAT_REL<0.025434] yes=53,no=54,missing=54
					53:[D_KEYWORD_MEAN_EC<2620.04] yes=107,no=108,missing=108
						107:leaf=-0.00289378
						108:leaf=-0.0357008
					54:[D_KEYWORD_MEAN_C<110.092] yes=109,no=110,missing=110
						109:leaf=0.0195157
						110:leaf=0.00176215
		6:[C_D_U_CATEGORY_CITY_MICRO_MAX_COEC<0.327932] yes=13,no=14,missing=13
			13:[C_D_U_KEYWORD_CATEGORY_MICRO_MAX_COEC<0.295821] yes=27,no=28,missing=28
				27:[KW_REL<0.000394] yes=55,no=56,missing=56
					55:[C_D_U_TITLEMD5_CATEGORY_MEAN_C<5.6755] yes=111,no=112,missing=112
						111:leaf=-0.0164049
						112:leaf=-0.000902296
					56:[U_KEYWORD_MICRO_MAX_COEC<0.130123] yes=113,no=114,missing=114
						113:leaf=-0.00169512
						114:leaf=0.0139396
				28:[U_KW_LEN<988] yes=57,no=58,missing=58
					57:[U_KEYWORD_MICRO_MAX_COEC<0.122503] yes=115,no=116,missing=115
						115:leaf=0.00136837
						116:leaf=0.0202511
					58:[C_D_U_CATEGORY_AGE_MICRO_MEAN_COEC<0.120075] yes=117,no=118,missing=118
						117:leaf=0.0158041
						118:leaf=0.0384379
			14:[C_D_U_TITLEMD5_CITY_C<0.932229] yes=29,no=30,missing=29
				29:[C_D_U_CATEGORY_CITY_MEAN_C<5.1212] yes=59,no=60,missing=60
					59:[TIME_OF_DAY<4] yes=119,no=120,missing=120
						119:leaf=0.00102627
						120:leaf=0.0298772
					60:[C_D_U_TITLEMD5_CATEGORY_MACRO_MEAN_COEC<0.01848] yes=121,no=122,missing=121
						121:leaf=0.129064
						122:leaf=0.0516724
				30:[C_D_U_PUBLISHER_CITY_EC<11.0856] yes=61,no=62,missing=62
					61:[TIME_OF_DAY<0.999999] yes=123,no=124,missing=124
						123:leaf=-0.0150469
						124:leaf=0.106745
					62:[U_CITY_EC<459.62] yes=125,no=126,missing=126
						125:leaf=0.0548776
						126:leaf=-0.00111147
booster[20]:
0:[D_TITLEMD5_COEC<0.058528] yes=1,no=2,missing=1
	1:[CAT_REL<0.004142] yes=3,no=4,missing=4
		3:[D_PUBLISHER_COEC<0.096234] yes=7,no=8,missing=8
			7:[C_D_U_TITLEMD5_CITY_C<3.31384] yes=15,no=16,missing=16
				15:[U_CITY_EC<279.813] yes=31,no=32,missing=31
					31:[D_TITLEMD5_EC<392.398] yes=63,no=64,missing=63
						63:leaf=0.0815543
						64:leaf=0.00400544
					32:[C_D_U_TITLEMD5_CITY_C<0.96552] yes=65,no=66,missing=66
						65:leaf=-0.0431579
						66:leaf=-0.00109277
				16:[D_KEYWORD_MACRO_MEAN_COEC<0.044932] yes=33,no=34,missing=34
					33:[D_CATEGORY_MACRO_MEAN_COEC<0.073381] yes=67,no=68,missing=68
						67:leaf=-0.0662704
						68:leaf=-0.0509653
					34:[U_CITY_COEC<0.126032] yes=69,no=70,missing=69
						69:leaf=-0.0498675
						70:leaf=-0.0299791
			8:[U_CATEGORY_MICRO_MEAN_COEC<0.085805] yes=17,no=18,missing=17
				17:[C_D_U_TITLEMD5_CITY_C<0.980149] yes=35,no=36,missing=35
					35:[DOC_AGE<4] yes=71,no=72,missing=72
						71:leaf=-0.0312729
						72:leaf=-0.0470257
					36:[C_D_U_CATEGORY_CITY_MAX_EC<16.5125] yes=73,no=74,missing=74
						73:leaf=0.139595
						74:leaf=0.00680108
				18:[D_TITLEMD5_EC<11.5806] yes=37,no=38,missing=37
					37:[C_D_U_KEYWORD_CATEGORY_MICRO_MEAN_COEC<0.130681] yes=75,no=76,missing=76
						75:leaf=-0.00244777
						76:leaf=0.0473136
					38:[U_CITY_COEC<0.104562] yes=77,no=78,missing=77
						77:leaf=-0.0274963
						78:leaf=5.81334e-05
		4:[D_PUBLISHER_C<2463.44] yes=9,no=10,missing=9
			9:[U_KW_LEN<726] yes=19,no=20,missing=20
				19:[U_KEYWORD_MICRO_MAX_COEC<0.132704] yes=39,no=40,missing=40
					39:[C_D_U_TITLEMD5_CITY_COEC<0.235121] yes=79,no=80,missing=79
						79:leaf=-0.0480465
						80:leaf=0.0257702
					40:[C_D_U_TITLEMD5_CITY_C<0.778312] yes=81,no=82,missing=81
						81:leaf=-0.0228302
						82:leaf=0.0519695
				20:[KW_REL<0.003281] yes=41,no=42,missing=42
					41:[C_D_U_CATEGORY_CITY_MACRO_MEAN_COEC<0.167499] yes=83,no=84,missing=83
						83:leaf=-0.0271146
						84:leaf=0.00804681
					42:[U_KW_LEN<2083] yes=85,no=86,missing=86
						85:leaf=0.00216406
						86:leaf=0.0479028
			10:[DOC_AGE<2] yes=21,no=22,missing=22
				21:[C_D_U_KEYWORD_CATEGORY_MICRO_MEAN_COEC<0.101021] yes=43,no=44,missing=44
					43:[C_D_U_CATEGORY_CITY_MACRO_MAX_COEC<0.246578] yes=87,no=88,missing=87
						87:leaf=-0.00121607
						88:leaf=0.0788893
					44:[C_D_U_KEYWORD_CATEGORY_MICRO_MAX_COEC<0.204184] yes=89,no=90,missing=90
						89:leaf=0.012479
						90:leaf=0.0490144
				22:[C_D_U_TITLEMD5_CITY_C<0.932229] yes=45,no=46,missing=45
					45:[U_KW_LEN<350] yes=91,no=92,missing=92
						91:leaf=-0.0325312
						92:leaf=-0.00615595
					46:[C_D_U_CATEGORY_CITY_MEAN_EC<280.174] yes=93,no=94,missing=94
						93:leaf=0.111112
						94:leaf=0.0119675
	2:[KW_REL<0.000375] yes=5,no=6,missing=6
		5:[D_TITLEMD5_COEC<0.125711] yes=11,no=12,missing=12
			11:[C_D_U_TITLEMD5_CITY_C<0.932229] yes=23,no=24,missing=23
				23:[U_CITY_COEC<0.126032] yes=47,no=48,missing=47
					47:[D_TITLEMD5_C<55.001] yes=95,no=96,missing=96
						95:leaf=-0.0331456
						96:leaf=-0.0236225
					48:[C_D_U_TITLEMD5_CITY_COEC<0.264683] yes=97,no=98,missing=98
						97:leaf=0.0155375
						98:leaf=-0.0111206
				24:[U_CITY_EC<489.045] yes=49,no=50,missing=49
					49:[C_D_U_TITLEMD5_CITY_C<0.980149] yes=99,no=100,missing=100
						99:leaf=0.0366191
						100:leaf=0.10669
					50:[U_CITY_C<371.875] yes=101,no=102,missing=102
						101:leaf=0.00144032
						102:leaf=-0.0153786
			12:[D_TITLEMD5_C<2.97507] yes=25,no=26,missing=26
				25:[D_CATEGORY_MAX_C<5164.56] yes=51,no=52,missing=52
					51:[D_PUBLISHER_COEC<0.075732] yes=103,no=104,missing=104
						103:leaf=-0.0581518
						104:leaf=-0.0339494
					52:[D_PUBLISHER_COEC<0.096626] yes=105,no=106,missing=106
						105:leaf=-0.0280186
						106:leaf=-0.0001494
				26:[D_KEYWORD_MICRO_MAX_COEC<0.210718] yes=53,no=54,missing=54
					53:[U_CITY_COEC<0.09272] yes=107,no=108,missing=107
						107:leaf=-0.013092
						108:leaf=-0.00316377
					54:[C_D_U_PUBLISHER_AGE_COEC<0.162918] yes=109,no=110,missing=109
						109:leaf=0.00175187
						110:leaf=0.0203047
		6:[C_D_U_KEYWORD_CATEGORY_MICRO_MAX_COEC<0.206457] yes=13,no=14,missing=13
			13:[U_KEYWORD_MICRO_MAX_COEC<0.117766] yes=27,no=28,missing=28
				27:[D_KEYWORD_MEAN_EC<700.375] yes=55,no=56,missing=56
					55:[U_KW_LEN<1381] yes=111,no=112,missing=112
						111:leaf=-0.0116559
						112:leaf=0.017073
					56:[C_D_U_TITLEMD5_CATEGORY_MICRO_MEAN_COEC<0.081429] yes=113,no=114,missing=113
						113:leaf=-0.03988
						114:leaf=-0.0208195
				28:[C_D_U_TITLEMD5_CITY_EC<2.04094] yes=57,no=58,missing=58
					57:[U_CITY_EC<231.807] yes=115,no=116,missing=116
						115:leaf=0.0455086
						116:leaf=-0.00136256
					58:[CAT_REL<0.028992] yes=117,no=118,missing=118
						117:leaf=-0.0144775
						118:leaf=-0.0018788
			14:[C_D_U_TITLEMD5_CITY_C<103.259] yes=29,no=30,missing=30
				29:[U_CITY_EC<616.364] yes=59,no=60,missing=59
					59:[D_TITLEMD5_EC<533.231] yes=119,no=120,missing=120
						119:leaf=0.0777577
						120:leaf=0.0269725
					60:[C_D_U_TITLEMD5_CITY_C<0.932229] yes=121,no=122,missing=122
						121:leaf=-0.00249843
						122:leaf=0.0140516
				30:[C_D_U_CATEGORY_CITY_MACRO_MEAN_COEC<0.113909] yes=61,no=62,missing=62
					61:[DOC_AGE<6] yes=123,no=124,missing=124
						123:leaf=-0.00398998
						124:leaf=-0.0224903
					62:[U_KW_LEN<2083] yes=125,no=126,missing=126
						125:leaf=0.00186801
						126:leaf=0.0286386
booster[21]:
0:[D_TITLEMD5_COEC<0.060281] yes=1,no=2,missing=1
	1:[KW_REL<0.001415] yes=3,no=4,missing=4
		3:[C_D_U_PUBLISHER_CITY_COEC<0.080159] yes=7,no=8,missing=7
			7:[D_TITLEMD5_COEC<0.028911] yes=15,no=16,missing=15
				15:[IMAGE_COUNT<0.999999] yes=31,no=32,missing=32
					31:[D_PUBLISHER_COEC<0.038273] yes=63,no=64,missing=63
						63:leaf=-0.081201
						64:leaf=-0.0630056
					32:[D_KEYWORD_MACRO_MEAN_COEC<0.067523] yes=65,no=66,missing=66
						65:leaf=-0.0485433
						66:leaf=-0.019485
				16:[CAT_REL<0.017286] yes=33,no=34,missing=34
					33:[C_D_U_TITLEMD5_CITY_C<11.7191] yes=67,no=68,missing=68
						67:leaf=-0.0299027
						68:leaf=-0.0436575
					34:[C_D_U_KEYWORD_CATEGORY_MEAN_EC<3.68502] yes=69,no=70,missing=70
						69:leaf=-0.017209
						70:leaf=-0.0361169
			8:[U_KW_LEN<289] yes=17,no=18,missing=18
				17:[C_D_U_TITLEMD5_CITY_C<0.951109] yes=35,no=36,missing=35
					35:[U_KEYWORD_MICRO_MAX_COEC<0.132844] yes=71,no=72,missing=71
						71:leaf=-0.0406371
						72:leaf=-0.0137884
					36:[U_CITY_C<142.121] yes=73,no=74,missing=74
						73:leaf=0.0961176
						74:leaf=-0.0109071
				18:[C_D_U_CATEGORY_CITY_MACRO_MAX_COEC<0.118375] yes=37,no=38,missing=38
					37:[C_D_U_TITLEMD5_CITY_COEC<0.275246] yes=75,no=76,missing=75
						75:leaf=-0.0218279
						76:leaf=0.0405297
					38:[U_CITY_COEC<0.174122] yes=77,no=78,missing=78
						77:leaf=0.00121373
						78:leaf=0.0464398
		4:[D_KEYWORD_MAX_C<17.6031] yes=9,no=10,missing=10
			9:[D_PUBLISHER_EC<47048.8] yes=19,no=20,missing=19
				19:[U_KW_LEN<473] yes=39,no=40,missing=40
					39:[U_KEYWORD_MICRO_MAX_COEC<0.128339] yes=79,no=80,missing=80
						79:leaf=-0.0382412
						80:leaf=-0.00636506
					40:[C_D_U_PUBLISHER_AGE_COEC<0.048797] yes=81,no=82,missing=82
						81:leaf=-0.0356012
						82:leaf=0.0106217
				20:[U_KW_LEN<164] yes=41,no=42,missing=42
					41:[C_D_U_CATEGORY_CITY_MACRO_MAX_COEC<0.126586] yes=83,no=84,missing=83
						83:leaf=-0.0298581
						84:leaf=0.0338377
					42:[KW_REL<0.004397] yes=85,no=86,missing=86
						85:leaf=0.0284048
						86:leaf=0.0677641
			10:[C_D_U_KEYWORD_CATEGORY_MICRO_MEAN_COEC<0.121629] yes=21,no=22,missing=22
				21:[D_KEYWORD_MEAN_C<97.3246] yes=43,no=44,missing=44
					43:[C_D_U_TITLEMD5_CITY_EC<6.72368] yes=87,no=88,missing=88
						87:leaf=0.00574255
						88:leaf=-0.0244978
					44:[D_TITLEMD5_COEC<0.048797] yes=89,no=90,missing=90
						89:leaf=-0.0465855
						90:leaf=-0.0243166
				22:[DOC_AGE<3] yes=45,no=46,missing=46
					45:[IMAGE_COUNT<0.999999] yes=91,no=92,missing=92
						91:leaf=-0.0118421
						92:leaf=0.0301959
					46:[U_CATEGORY_MEAN_EC<9104.1] yes=93,no=94,missing=93
						93:leaf=0.00101828
						94:leaf=-0.0276024
	2:[KW_REL<0.000324] yes=5,no=6,missing=6
		5:[D_TITLEMD5_COEC<0.125574] yes=11,no=12,missing=12
			11:[C_D_U_TITLEMD5_CITY_C<0.951109] yes=23,no=24,missing=23
				23:[U_CITY_COEC<0.107373] yes=47,no=48,missing=47
					47:[D_TITLEMD5_C<65.6683] yes=95,no=96,missing=96
						95:leaf=-0.0312905
						96:leaf=-0.0217362
					48:[U_CITY_COEC<0.258508] yes=97,no=98,missing=98
						97:leaf=-0.013328
						98:leaf=0.0229841
				24:[U_CITY_C<34.3801] yes=49,no=50,missing=50
					49:[D_TITLEMD5_EC<2073.57] yes=99,no=100,missing=100
						99:leaf=0.104752
						100:leaf=0.0384685
					50:[C_D_U_TITLEMD5_CATEGORY_MACRO_MEAN_COEC<0.198969] yes=101,no=102,missing=101
						101:leaf=-0.00931532
						102:leaf=0.0741174
			12:[D_TITLEMD5_C<8.60112] yes=25,no=26,missing=26
				25:[D_CATEGORY_MEAN_EC<58098.4] yes=51,no=52,missing=52
					51:[D_PUBLISHER_COEC<0.072983] yes=103,no=104,missing=104
						103:leaf=-0.0482017
						104:leaf=-0.0275858
					52:[D_TITLEMD5_COEC<0.250313] yes=105,no=106,missing=106
						105:leaf=-0.019383
						106:leaf=0.00632492
				26:[D_TITLEMD5_COEC<0.23671] yes=53,no=54,missing=54
					53:[U_CITY_COEC<0.100072] yes=107,no=108,missing=107
						107:leaf=-0.0104979
						108:leaf=1.06979e-05
					54:[D_KEYWORD_MEAN_EC<493.449] yes=109,no=110,missing=110
						109:leaf=0.028865
						110:leaf=0.0055584
		6:[U_KEYWORD_MICRO_MAX_COEC<0.126355] yes=13,no=14,missing=14
			13:[U_KW_LEN<992] yes=27,no=28,missing=28
				27:[C_D_U_TITLEMD5_CATEGORY_MEAN_C<0.853895] yes=55,no=56,missing=55
					55:[D_KEYWORD_MEAN_EC<701.878] yes=111,no=112,missing=112
						111:leaf=-0.0154794
						112:leaf=-0.0299562
					56:[M_D_U_KEYWORD_KEYWORD_MICRO_MAX_COEC<0.188229] yes=113,no=114,missing=113
						113:leaf=-0.00642852
						114:leaf=0.0206448
				28:[U_CITY_COEC<0.067593] yes=57,no=58,missing=58
					57:[C_D_U_TITLEMD5_CITY_C<2.63181] yes=115,no=116,missing=116
						115:leaf=0.0121678
						116:leaf=-0.0333609
					58:[D_KEYWORD_MEAN_EC<797.455] yes=117,no=118,missing=118
						117:leaf=0.0201209
						118:leaf=0.00274256
			14:[C_D_U_CATEGORY_AGE_MICRO_MEAN_COEC<0.119957] yes=29,no=30,missing=30
				29:[CAT_REL<0.051439] yes=59,no=60,missing=60
					59:[C_D_U_TITLEMD5_AGE_COEC<0.122661] yes=119,no=120,missing=119
						119:leaf=-0.024804
						120:leaf=-0.00596084
					60:[C_D_U_CATEGORY_CITY_MICRO_MAX_COEC<0.136688] yes=121,no=122,missing=121
						121:leaf=0.00187543
						122:leaf=0.0244507
				30:[U_KW_LEN<199] yes=61,no=62,missing=62
					61:[TIME_OF_DAY<5] yes=123,no=124,missing=124
						123:leaf=-0.0153358
						124:leaf=0.00398855
					62:[U_KEYWORD_MICRO_MAX_COEC<0.1648] yes=125,no=126,missing=126
						125:leaf=0.0130688
						126:leaf=0.0303241
booster[22]:
0:[D_TITLEMD5_C<20.6529] yes=1,no=2,missing=1
	1:[C_D_U_KEYWORD_CATEGORY_MICRO_MEAN_COEC<0.082618] yes=3,no=4,missing=3
		3:[D_TITLEMD5_COEC<0.029052] yes=7,no=8,missing=7
			7:[IMAGE_COUNT<0.999999] yes=15,no=16,missing=16
				15:[C_D_U_TITLEMD5_CITY_EC<3.74931] yes=31,no=32,missing=32
					31:[U_CITY_EC<102.391] yes=63,no=64,missing=64
						63:leaf=0.106938
						64:leaf=-0.0393804
					32:[U_CITY_COEC<0.258822] yes=65,no=66,missing=65
						65:leaf=-0.0676876
						66:leaf=0.00110871
				16:[KW_REL<0.002029] yes=33,no=34,missing=34
					33:[D_KEYWORD_MICRO_MEAN_COEC<0.099895] yes=67,no=68,missing=68
						67:leaf=-0.0459834
						68:leaf=-0.0113897
					34:[D_KEYWORD_MEAN_C<17.3381] yes=69,no=70,missing=70
						69:leaf=0.0157723
						70:leaf=-0.02874
			8:[C_D_U_TITLEMD5_CITY_C<0.918315] yes=17,no=18,missing=17
				17:[DOC_AGE<3] yes=35,no=36,missing=36
					35:[D_PUBLISHER_COEC<0.0689] yes=71,no=72,missing=72
						71:leaf=-0.0337104
						72:leaf=-0.0163262
					36:[C_D_U_TITLEMD5_CITY_EC<3.55021] yes=73,no=74,missing=74
						73:leaf=-0.0215178
						74:leaf=-0.0390851
				18:[U_CITY_C<118.672] yes=37,no=38,missing=38
					37:[C_D_U_TITLEMD5_CATEGORY_MACRO_MEAN_COEC<0.041649] yes=75,no=76,missing=76
						75:leaf=-0.0427051
						76:leaf=0.117824
					38:[DOC_AGE<12] yes=77,no=78,missing=78
						77:leaf=-0.0174087
						78:leaf=0.0666268
		4:[DOC_AGE<3] yes=9,no=10,missing=10
			9:[U_KW_LEN<469] yes=19,no=20,missing=20
				19:[U_KEYWORD_MICRO_MAX_COEC<0.118931] yes=39,no=40,missing=39
					39:[IMAGE_COUNT<0.999999] yes=79,no=80,missing=80
						79:leaf=-0.060079
						80:leaf=-0.0221448
					40:[D_PUBLISHER_COEC<0.074806] yes=81,no=82,missing=81
						81:leaf=-0.0172835
						82:leaf=0.00710758
				20:[D_PUBLISHER_COEC<0.080022] yes=41,no=42,missing=41
					41:[CAT_REL<0.027043] yes=83,no=84,missing=84
						83:leaf=-0.0231829
						84:leaf=0.00961038
					42:[U_KW_LEN<2123] yes=85,no=86,missing=86
						85:leaf=0.0153429
						86:leaf=0.0478242
			10:[C_D_U_TITLEMD5_CITY_EC<1.50673] yes=21,no=22,missing=22
				21:[U_CITY_EC<673.321] yes=43,no=44,missing=44
					43:[D_TITLEMD5_EC<94.6883] yes=87,no=88,missing=88
						87:leaf=0.130325
						88:leaf=0.0626118
					44:[C_D_U_TITLEMD5_CITY_C<0.975248] yes=89,no=90,missing=90
						89:leaf=-0.0182229
						90:leaf=0.0794161
				22:[C_D_U_CATEGORY_CITY_MACRO_MAX_COEC<0.050326] yes=45,no=46,missing=46
					45:[U_CITY_COEC<0.072071] yes=91,no=92,missing=92
						91:leaf=-0.0566161
						92:leaf=-0.0336484
					46:[U_KW_LEN<2123] yes=93,no=94,missing=94
						93:leaf=-0.0243618
						94:leaf=0.00181284
	2:[C_D_U_KEYWORD_CATEGORY_MICRO_MAX_COEC<0.202838] yes=5,no=6,missing=5
		5:[D_TITLEMD5_COEC<0.105174] yes=11,no=12,missing=12
			11:[U_KEYWORD_MICRO_MAX_COEC<0.117766] yes=23,no=24,missing=23
				23:[U_KW_LEN<1315] yes=47,no=48,missing=48
					47:[TIME_OF_DAY<10] yes=95,no=96,missing=96
						95:leaf=-0.0311994
						96:leaf=-0.0190152
					48:[CAT_REL<0.018834] yes=97,no=98,missing=98
						97:leaf=-0.0087167
						98:leaf=0.0257763
				24:[U_KW_LEN<113] yes=49,no=50,missing=50
					49:[C_D_U_KEYWORD_CATEGORY_MACRO_MEAN_COEC<0.069514] yes=99,no=100,missing=100
						99:leaf=-0.0311106
						100:leaf=-0.0162033
					50:[D_KEYWORD_MAX_C<40.8368] yes=101,no=102,missing=102
						101:leaf=0.00339617
						102:leaf=-0.0121757
			12:[TIME_OF_DAY<3] yes=25,no=26,missing=26
				25:[U_CITY_EC<173.819] yes=51,no=52,missing=52
					51:[C_D_U_TITLEMD5_CITY_EC<0.941622] yes=103,no=104,missing=103
						103:leaf=-0.0140464
						104:leaf=0.0139956
					52:[U_KEYWORD_MICRO_MAX_COEC<0.327168] yes=105,no=106,missing=105
						105:leaf=-0.0218144
						106:leaf=0.0320414
				26:[D_KEYWORD_MEAN_EC<2795.4] yes=53,no=54,missing=54
					53:[C_D_U_TITLEMD5_CITY_EC<2.37042] yes=107,no=108,missing=108
						107:leaf=0.00522886
						108:leaf=-0.00641464
					54:[D_PUBLISHER_EC<165836] yes=109,no=110,missing=110
						109:leaf=-0.0161439
						110:leaf=-0.0331384
		6:[CAT_REL<0.007067] yes=13,no=14,missing=14
			13:[D_CATEGORY_MAX_EC<5780.62] yes=27,no=28,missing=27
				27:[KW_REL<0.001567] yes=55,no=56,missing=56
					55:[U_KEYWORD_MICRO_MAX_COEC<0.112218] yes=111,no=112,missing=111
						111:leaf=-0.0109527
						112:leaf=0.00944867
					56:[U_KW_LEN<303] yes=113,no=114,missing=114
						113:leaf=0.0112221
						114:leaf=0.0389123
				28:[C_D_U_TITLEMD5_AGE_COEC<0.160027] yes=57,no=58,missing=58
					57:[D_KEYWORD_MAX_EC<1332.6] yes=115,no=116,missing=116
						115:leaf=-0.0211277
						116:leaf=-0.0552012
					58:[U_KEYWORD_MICRO_MAX_COEC<0.117766] yes=117,no=118,missing=117
						117:leaf=-0.0137458
						118:leaf=0.000911691
			14:[U_KW_LEN<931] yes=29,no=30,missing=30
				29:[U_KEYWORD_MICRO_MAX_COEC<0.131392] yes=59,no=60,missing=59
					59:[C_D_U_TITLEMD5_AGE_COEC<0.187112] yes=119,no=120,missing=119
						119:leaf=-0.00368711
						120:leaf=0.0187843
					60:[C_D_U_CATEGORY_CITY_MACRO_MEAN_COEC<0.161263] yes=121,no=122,missing=121
						121:leaf=0.0113283
						122:leaf=0.0332162
				30:[U_KW_LEN<2351] yes=61,no=62,missing=62
					61:[C_D_U_TITLEMD5_CATEGORY_MAX_EC<1.35911] yes=123,no=124,missing=124
						123:leaf=0.0062675
						124:leaf=0.0253102
					62:[D_KEYWORD_MEAN_EC<722.85] yes=125,no=126,missing=126
						125:leaf=0.0553794
						126:leaf=0.0284744
booster[23]:
0:[D_TITLEMD5_C<41.4078] yes=1,no=2,missing=1
	1:[CAT_REL<0.004351] yes=3,no=4,missing=4
		3:[D_PUBLISHER_COEC<0.071428] yes=7,no=8,missing=7
			7:[D_TITLEMD5_C<2.97507] yes=15,no=16,missing=15
				15:[D_CATEGORY_MACRO_MAX_COEC<0.07118] yes=31,no=32,missing=32
					31:[C_D_U_TITLEMD5_CITY_EC<1.98007] yes=63,no=64,missing=64
						63:leaf=-0.0288014
						64:leaf=-0.0581764
					32:[WORD_COUNT<11332] yes=65,no=66,missing=66
						65:leaf=-0.0390271
						66:leaf=0.0102739
				16:[C_D_U_TITLEMD5_CITY_C<0.960692] yes=33,no=34,missing=33
					33:[U_KEYWORD_MICRO_MAX_COEC<0.139048] yes=67,no=68,missing=67
						67:leaf=-0.0355684
						68:leaf=-0.0176823
					34:[U_CITY_EC<2117.25] yes=69,no=70,missing=70
						69:leaf=0.0823196
						70:leaf=-0.0153718
			8:[D_CATEGORY_MAX_EC<191662] yes=17,no=18,missing=18
				17:[DOC_AGE<3] yes=35,no=36,missing=36
					35:[D_KEYWORD_MACRO_MEAN_COEC<0.066692] yes=71,no=72,missing=71
						71:leaf=-0.0240394
						72:leaf=-0.00940902
					36:[C_D_U_TITLEMD5_CITY_C<0.960692] yes=73,no=74,missing=73
						73:leaf=-0.0297618
						74:leaf=0.0207692
				18:[U_CATEGORY_MICRO_MEAN_COEC<0.086804] yes=37,no=38,missing=37
					37:[U_CITY_COEC<0.12701] yes=75,no=76,missing=75
						75:leaf=-0.0147299
						76:leaf=0.0240508
					38:[U_KW_LEN<1010] yes=77,no=78,missing=78
						77:leaf=0.0106617
						78:leaf=0.0391127
		4:[C_D_U_CATEGORY_CITY_MACRO_MEAN_COEC<0.145148] yes=9,no=10,missing=9
			9:[IMAGE_COUNT<0.999999] yes=19,no=20,missing=20
				19:[D_TITLEMD5_C<1.8928] yes=39,no=40,missing=39
					39:[U_CATEGORY_MICRO_MAX_COEC<0.116772] yes=79,no=80,missing=80
						79:leaf=-0.0568128
						80:leaf=-0.0277044
					40:[U_KW_LEN<744] yes=81,no=82,missing=82
						81:leaf=-0.0357938
						82:leaf=-0.0103503
				20:[DOC_AGE<3] yes=41,no=42,missing=42
					41:[D_PUBLISHER_C<2849.8] yes=83,no=84,missing=83
						83:leaf=-0.00697146
						84:leaf=0.0140479
					42:[D_TITLEMD5_C<2.97507] yes=85,no=86,missing=85
						85:leaf=-0.0328928
						86:leaf=-0.0119742
			10:[C_D_U_TITLEMD5_CITY_C<3.05511] yes=21,no=22,missing=22
				21:[U_CITY_EC<748.481] yes=43,no=44,missing=44
					43:[C_D_U_TITLEMD5_CITY_EC<0.985074] yes=87,no=88,missing=88
						87:leaf=0.0711026
						88:leaf=0.118413
					44:[U_KW_LEN<3428] yes=89,no=90,missing=90
						89:leaf=0.0170056
						90:leaf=0.110341
				22:[U_KW_LEN<2102] yes=45,no=46,missing=46
					45:[DOC_AGE<4] yes=91,no=92,missing=92
						91:leaf=0.0138652
						92:leaf=-0.0095781
					46:[C_D_U_CATEGORY_CITY_MICRO_MAX_COEC<0.324464] yes=93,no=94,missing=94
						93:leaf=0.0220186
						94:leaf=0.0609932
	2:[U_KW_LEN<174] yes=5,no=6,missing=6
		5:[D_TITLEMD5_COEC<0.116127] yes=11,no=12,missing=12
			11:[TIME_OF_DAY<5] yes=23,no=24,missing=24
				23:[U_KEYWORD_MICRO_MAX_COEC<0.173108] yes=47,no=48,missing=47
					47:[D_TITLEMD5_COEC<0.075871] yes=95,no=96,missing=96
						95:leaf=-0.0386369
						96:leaf=-0.0255805
					48:[U_CITY_COEC<0.067808] yes=97,no=98,missing=98
						97:leaf=-0.0371016
						98:leaf=-0.00257523
				24:[U_CITY_COEC<0.054911] yes=49,no=50,missing=49
					49:[IMAGE_COUNT<2] yes=99,no=100,missing=100
						99:leaf=-0.0287707
						100:leaf=-0.00927306
					50:[C_D_U_CATEGORY_CITY_MICRO_MAX_COEC<0.21672] yes=101,no=102,missing=101
						101:leaf=-0.0119078
						102:leaf=0.00875269
			12:[TIME_OF_DAY<10] yes=25,no=26,missing=26
				25:[DOC_AGE<3] yes=51,no=52,missing=52
					51:[D_KEYWORD_MICRO_MAX_COEC<0.2112] yes=103,no=104,missing=104
						103:leaf=0.000710104
						104:leaf=0.0300816
					52:[U_CITY_COEC<0.054911] yes=105,no=106,missing=105
						105:leaf=-0.0215277
						106:leaf=-0.010451
				26:[IMAGE_COUNT<3] yes=53,no=54,missing=54
					53:[C_D_U_TITLEMD5_CITY_COEC<0.231675] yes=107,no=108,missing=107
						107:leaf=-0.00774866
						108:leaf=0.00649799
					54:[C_D_U_TITLEMD5_CATEGORY_MICRO_MEAN_COEC<0.366238] yes=109,no=110,missing=109
						109:leaf=0.00403256
						110:leaf=0.0606605
		6:[CAT_REL<0.032882] yes=13,no=14,missing=14
			13:[D_CATEGORY_MACRO_MAX_COEC<0.077694] yes=27,no=28,missing=28
				27:[D_KEYWORD_MEAN_C<111.795] yes=55,no=56,missing=56
					55:[U_KEYWORD_MICRO_MAX_COEC<0.141488] yes=111,no=112,missing=112
						111:leaf=-0.0115166
						112:leaf=0.0117793
					56:[C_D_U_TITLEMD5_AGE_C<50.1722] yes=113,no=114,missing=114
						113:leaf=-0.056103
						114:leaf=-0.02571
				28:[U_KW_LEN<1536] yes=57,no=58,missing=58
					57:[U_KEYWORD_MICRO_MAX_COEC<0.13169] yes=115,no=116,missing=116
						115:leaf=-0.00480275
						116:leaf=0.00991362
					58:[C_D_U_CATEGORY_AGE_MICRO_MEAN_COEC<0.110331] yes=117,no=118,missing=118
						117:leaf=-0.000686656
						118:leaf=0.0269524
			14:[D_KEYWORD_MEAN_EC<1112.68] yes=29,no=30,missing=30
				29:[M_D_U_KEYWORD_KEYWORD_MICRO_MAX_COEC<0.103096] yes=59,no=60,missing=59
					59:[U_KEYWORD_MICRO_MAX_COEC<0.144019] yes=119,no=120,missing=120
						119:leaf=0.00907841
						120:leaf=0.0254306
					60:[KW_REL<0.001849] yes=121,no=122,missing=122
						121:leaf=0.0207527
						122:leaf=0.0348443
				30:[M_D_U_KEYWORD_KEYWORD_MACRO_MEAN_COEC<0.000816] yes=61,no=62,missing=61
					61:[D_TITLEMD5_EC<2556.99] yes=123,no=124,missing=124
						123:leaf=-0.00710945
						124:leaf=0.0118249
					62:[D_KEYWORD_MICRO_MEAN_COEC<0.119289] yes=125,no=126,missing=126
						125:leaf=0.0323138
						126:leaf=0.0099145
booster[24]:
0:[D_TITLEMD5_COEC<0.056835] yes=1,no=2,missing=1
	1:[U_KW_LEN<265] yes=3,no=4,missing=4
		3:[C_D_U_KEYWORD_CATEGORY_MACRO_MEAN_COEC<0.07389] yes=7,no=8,missing=7
			7:[IMAGE_COUNT<0.999999] yes=15,no=16,missing=16
				15:[D_TITLEMD5_COEC<0.0187] yes=31,no=32,missing=31
					31:[C_D_U_TITLEMD5_CITY_COEC<0.999999] yes=63,no=64,missing=63
						63:leaf=-0.0647312
						64:leaf=0.11258
					32:[C_D_U_CATEGORY_CITY_MACRO_MEAN_COEC<0.149886] yes=65,no=66,missing=65
						65:leaf=-0.0492087
						66:leaf=-0.0203384
				16:[D_KEYWORD_MACRO_MEAN_COEC<0.033544] yes=33,no=34,missing=34
					33:[C_D_U_TITLEMD5_CITY_C<0.955889] yes=67,no=68,missing=67
						67:leaf=-0.0540346
						68:leaf=0.0709838
					34:[DOC_AGE<4] yes=69,no=70,missing=70
						69:leaf=-0.0252472
						70:leaf=-0.0376703
			8:[C_D_U_TITLEMD5_CITY_C<0.92293] yes=17,no=18,missing=17
				17:[DOC_AGE<2] yes=35,no=36,missing=36
					35:[IMAGE_COUNT<0.999999] yes=71,no=72,missing=72
						71:leaf=-0.0484226
						72:leaf=0.0127764
					36:[D_CATEGORY_MICRO_MEAN_COEC<0.072012] yes=73,no=74,missing=73
						73:leaf=-0.00881762
						74:leaf=-0.0358869
				18:[C_D_U_TITLEMD5_CATEGORY_MACRO_MEAN_COEC<0.046645] yes=37,no=38,missing=38
					37:[U_KEYWORD_MEAN_C<59.6759] yes=75,no=76,missing=76
						75:leaf=-0.11416
						76:leaf=0.0325727
					38:[C_D_U_CATEGORY_CITY_MAX_C<5.70526] yes=77,no=78,missing=78
						77:leaf=0.1358
						78:leaf=0.071374
		4:[KW_REL<0.002741] yes=9,no=10,missing=10
			9:[U_CITY_COEC<0.075604] yes=19,no=20,missing=20
				19:[C_D_U_TITLEMD5_CITY_C<4.06638] yes=39,no=40,missing=40
					39:[U_CITY_C<26.5412] yes=79,no=80,missing=80
						79:leaf=0.0364813
						80:leaf=-0.0211862
					40:[C_D_U_PUBLISHER_CITY_COEC<0.03971] yes=81,no=82,missing=81
						81:leaf=-0.0544023
						82:leaf=-0.0298596
				20:[U_KW_LEN<1834] yes=41,no=42,missing=42
					41:[U_KEYWORD_MICRO_MAX_COEC<0.165271] yes=83,no=84,missing=83
						83:leaf=-0.0239544
						84:leaf=0.0152087
					42:[U_KEYWORD_MEAN_C<12.583] yes=85,no=86,missing=86
						85:leaf=-0.0363297
						86:leaf=0.00780888
			10:[D_KEYWORD_MEAN_EC<867.204] yes=21,no=22,missing=22
				21:[M_D_U_KEYWORD_KEYWORD_MICRO_MAX_COEC<0.106618] yes=43,no=44,missing=43
					43:[U_KW_LEN<833] yes=87,no=88,missing=88
						87:leaf=-0.0159204
						88:leaf=0.0251393
					44:[KW_REL<0.004404] yes=89,no=90,missing=90
						89:leaf=0.0247388
						90:leaf=0.0564544
				22:[C_D_U_KEYWORD_CATEGORY_MICRO_MEAN_COEC<0.12977] yes=45,no=46,missing=46
					45:[KW_REL<0.005773] yes=91,no=92,missing=92
						91:leaf=-0.0249279
						92:leaf=0.00629554
					46:[DOC_AGE<14] yes=93,no=94,missing=94
						93:leaf=0.0322393
						94:leaf=-0.00851896
	2:[U_KEYWORD_MICRO_MAX_COEC<0.117217] yes=5,no=6,missing=5
		5:[U_KW_LEN<1289] yes=11,no=12,missing=12
			11:[D_TITLEMD5_C<90.9754] yes=23,no=24,missing=24
				23:[C_D_U_TITLEMD5_CITY_COEC<0.497618] yes=47,no=48,missing=47
					47:[M_D_U_KEYWORD_KEYWORD_MICRO_MAX_COEC<0.184482] yes=95,no=96,missing=95
						95:leaf=-0.0213328
						96:leaf=0.0183425
					48:[U_CITY_C<28.9693] yes=97,no=98,missing=98
						97:leaf=0.0797308
						98:leaf=-0.00245922
				24:[TIME_OF_DAY<11] yes=49,no=50,missing=50
					49:[WORD_COUNT<1369] yes=99,no=100,missing=100
						99:leaf=-0.0219526
						100:leaf=-0.011532
					50:[U_CATEGORY_MICRO_MEAN_COEC<0.098396] yes=101,no=102,missing=101
						101:leaf=-0.00291387
						102:leaf=-0.0193228
			12:[CAT_REL<0.007791] yes=25,no=26,missing=26
				25:[D_CATEGORY_MACRO_MAX_COEC<0.073765] yes=51,no=52,missing=52
					51:[U_KEYWORD_MEAN_EC<161.769] yes=103,no=104,missing=104
						103:leaf=-0.0562726
						104:leaf=-0.0192214
					52:[U_KEYWORD_MEAN_EC<129.771] yes=105,no=106,missing=106
						105:leaf=-0.0316161
						106:leaf=0.00981755
				26:[C_D_U_TITLEMD5_AGE_C<5.48175] yes=53,no=54,missing=54
					53:[U_CITY_COEC<0.070573] yes=107,no=108,missing=108
						107:leaf=-0.0433535
						108:leaf=-0.00151502
					54:[D_KEYWORD_MEAN_EC<801.906] yes=109,no=110,missing=110
						109:leaf=0.0301546
						110:leaf=0.00756934
		6:[U_CITY_COEC<0.12238] yes=13,no=14,missing=13
			13:[C_D_U_TITLEMD5_AGE_C<40.0424] yes=27,no=28,missing=28
				27:[CAT_REL<0.033547] yes=55,no=56,missing=56
					55:[DOC_AGE<3] yes=111,no=112,missing=112
						111:leaf=-0.00297038
						112:leaf=-0.0281383
					56:[DOC_AGE<5] yes=113,no=114,missing=114
						113:leaf=0.00998736
						114:leaf=-0.00991332
				28:[C_D_U_KEYWORD_CATEGORY_MICRO_MAX_COEC<0.263293] yes=57,no=58,missing=57
					57:[U_KW_LEN<78] yes=115,no=116,missing=116
						115:leaf=-0.0168072
						116:leaf=-0.00120195
					58:[CAT_REL<0.001084] yes=117,no=118,missing=118
						117:leaf=0.000980375
						118:leaf=0.0157552
			14:[C_D_U_TITLEMD5_CITY_C<2.49278] yes=29,no=30,missing=30
				29:[U_CITY_EC<53.2162] yes=59,no=60,missing=60
					59:[D_TITLEMD5_EC<1973.37] yes=119,no=120,missing=120
						119:leaf=0.12772
						120:leaf=0.0664255
					60:[D_TITLEMD5_EC<924.614] yes=121,no=122,missing=122
						121:leaf=0.0505628
						122:leaf=0.02078
				30:[C_D_U_CATEGORY_CITY_MACRO_MEAN_COEC<0.352532] yes=61,no=62,missing=61
					61:[C_D_U_PUBLISHER_CITY_COEC<0.313071] yes=123,no=124,missing=123
						123:leaf=0.00277733
						124:leaf=0.0242104
					62:[C_D_U_CATEGORY_CITY_MEAN_C<1.64389] yes=125,no=126,missing=126
						125:leaf=0.0203734
						126:leaf=0.0522478
booster[25]:
0:[D_TITLEMD5_C<11.4863] yes=1,no=2,missing=1
	1:[KW_REL<0.002033] yes=3,no=4,missing=4
		3:[D_PUBLISHER_COEC<0.094715] yes=7,no=8,missing=7
			7:[C_D_U_TITLEMD5_CITY_EC<2.43557] yes=15,no=16,missing=16
				15:[U_CITY_EC<674.958] yes=31,no=32,missing=32
					31:[U_CITY_EC<140.947] yes=63,no=64,missing=64
						63:leaf=0.133987
						64:leaf=0.0475652
					32:[C_D_U_TITLEMD5_CATEGORY_MACRO_MEAN_COEC<0.264311] yes=65,no=66,missing=65
						65:leaf=-0.0258145
						66:leaf=0.0748689
				16:[C_D_U_CATEGORY_CITY_MACRO_MAX_COEC<0.055109] yes=33,no=34,missing=34
					33:[DOC_AGE<4] yes=67,no=68,missing=68
						67:leaf=-0.0376073
						68:leaf=-0.0526171
					34:[U_KW_LEN<2154] yes=69,no=70,missing=70
						69:leaf=-0.0308824
						70:leaf=-0.00540298
			8:[U_KEYWORD_MICRO_MAX_COEC<0.127065] yes=17,no=18,missing=17
				17:[U_CATEGORY_MICRO_MAX_COEC<0.110662] yes=35,no=36,missing=35
					35:[IMAGE_COUNT<2] yes=71,no=72,missing=72
						71:leaf=-0.024886
						72:leaf=-0.00774923
					36:[D_KEYWORD_MEAN_EC<596.186] yes=73,no=74,missing=74
						73:leaf=0.0137021
						74:leaf=-0.0201072
				18:[C_D_U_CATEGORY_AGE_MACRO_MAX_COEC<0.102748] yes=37,no=38,missing=38
					37:[DOC_AGE<4] yes=75,no=76,missing=76
						75:leaf=-0.00603675
						76:leaf=-0.0306189
					38:[DOC_AGE<2] yes=77,no=78,missing=78
						77:leaf=0.0268819
						78:leaf=0.00364147
		4:[DOC_AGE<2] yes=9,no=10,missing=10
			9:[U_KW_LEN<466] yes=19,no=20,missing=20
				19:[U_KEYWORD_MICRO_MAX_COEC<0.154757] yes=39,no=40,missing=40
					39:[IMAGE_COUNT<0.999999] yes=79,no=80,missing=80
						79:leaf=-0.0427558
						80:leaf=-0.00213547
					40:[U_KW_LEN<137] yes=81,no=82,missing=82
						81:leaf=0.00224094
						82:leaf=0.0484146
				20:[C_D_U_CATEGORY_CITY_MACRO_MEAN_COEC<0.090432] yes=41,no=42,missing=41
					41:[D_KEYWORD_MEAN_C<57.5705] yes=83,no=84,missing=84
						83:leaf=0.038653
						84:leaf=0.0033897
					42:[U_KW_LEN<2154] yes=85,no=86,missing=86
						85:leaf=0.037658
						86:leaf=0.0731077
			10:[C_D_U_TITLEMD5_CITY_EC<1.27832] yes=21,no=22,missing=22
				21:[U_CITY_EC<750.009] yes=43,no=44,missing=44
					43:[U_CITY_EC<283.819] yes=87,no=88,missing=88
						87:leaf=0.116255
						88:leaf=0.0558876
					44:[C_D_U_TITLEMD5_CITY_EC<0.960692] yes=89,no=90,missing=90
						89:leaf=-0.0157244
						90:leaf=0.026834
				22:[M_D_U_KEYWORD_KEYWORD_MICRO_MAX_COEC<0.211807] yes=45,no=46,missing=45
					45:[D_KEYWORD_MEAN_C<94.5734] yes=91,no=92,missing=92
						91:leaf=-0.00802033
						92:leaf=-0.0264591
					46:[D_KEYWORD_MICRO_MEAN_COEC<0.143472] yes=93,no=94,missing=94
						93:leaf=0.0303999
						94:leaf=-0.0793334
	2:[U_KW_LEN<374] yes=5,no=6,missing=6
		5:[D_TITLEMD5_COEC<0.114133] yes=11,no=12,missing=12
			11:[U_KEYWORD_MICRO_MAX_COEC<0.139535] yes=23,no=24,missing=23
				23:[C_D_U_TITLEMD5_CATEGORY_MEAN_C<0.383715] yes=47,no=48,missing=48
					47:[DOC_AGE<4] yes=95,no=96,missing=96
						95:leaf=-0.0188774
						96:leaf=-0.0367206
					48:[C_D_U_TITLEMD5_CITY_COEC<0.334516] yes=97,no=98,missing=97
						97:leaf=-0.0172472
						98:leaf=0.0105767
				24:[U_KW_LEN<97] yes=49,no=50,missing=50
					49:[U_CITY_COEC<0.174365] yes=99,no=100,missing=99
						99:leaf=-0.0158652
						100:leaf=0.0276092
					50:[C_D_U_CATEGORY_AGE_MEAN_C<157.367] yes=101,no=102,missing=101
						101:leaf=0.00958427
						102:leaf=-0.00658218
			12:[IMAGE_COUNT<2] yes=25,no=26,missing=26
				25:[D_KEYWORD_MEAN_EC<3718.59] yes=51,no=52,missing=52
					51:[D_TITLEMD5_COEC<0.220919] yes=103,no=104,missing=104
						103:leaf=-0.00684809
						104:leaf=0.0096546
					52:[KW_REL<0.009029] yes=105,no=106,missing=106
						105:leaf=-0.027407
						106:leaf=0.00578527
				26:[C_D_U_KEYWORD_CATEGORY_MICRO_MAX_COEC<0.417006] yes=53,no=54,missing=53
					53:[U_CITY_COEC<0.159627] yes=107,no=108,missing=107
						107:leaf=0.000657811
						108:leaf=0.0219526
					54:[C_D_U_TITLEMD5_CATEGORY_MICRO_MEAN_COEC<0.365644] yes=109,no=110,missing=109
						109:leaf=0.0172195
						110:leaf=0.0612847
		6:[CAT_REL<0.037054] yes=13,no=14,missing=14
			13:[D_CATEGORY_MACRO_MAX_COEC<0.077925] yes=27,no=28,missing=28
				27:[D_KEYWORD_MEAN_C<112.535] yes=55,no=56,missing=56
					55:[U_KEYWORD_MEAN_EC<217.508] yes=111,no=112,missing=112
						111:leaf=-0.0169585
						112:leaf=-7.05834e-05
					56:[U_KEYWORD_MAX_EC<93.6451] yes=113,no=114,missing=114
						113:leaf=-0.0432686
						114:leaf=-0.0128676
				28:[U_CITY_COEC<0.159627] yes=57,no=58,missing=57
					57:[KW_REL<0.001021] yes=115,no=116,missing=116
						115:leaf=-0.00373099
						116:leaf=0.0103196
					58:[C_D_U_TITLEMD5_CITY_COEC<0.265955] yes=117,no=118,missing=118
						117:leaf=0.0716308
						118:leaf=0.0247485
			14:[C_D_U_TITLEMD5_CATEGORY_MACRO_MEAN_COEC<0.097531] yes=29,no=30,missing=29
				29:[U_KW_LEN<1128] yes=59,no=60,missing=60
					59:[D_KEYWORD_MEAN_EC<696.924] yes=119,no=120,missing=120
						119:leaf=0.0122559
						120:leaf=-0.00527869
					60:[D_KEYWORD_MEAN_EC<410.455] yes=121,no=122,missing=122
						121:leaf=0.0351883
						122:leaf=0.0146826
				30:[M_D_U_KEYWORD_KEYWORD_MACRO_MEAN_COEC<0.001183] yes=61,no=62,missing=61
					61:[D_KEYWORD_MEAN_EC<1471.77] yes=123,no=124,missing=124
						123:leaf=0.0249105
						124:leaf=0.00906936
					62:[DOC_AGE<28] yes=125,no=126,missing=126
						125:leaf=0.0541228
						126:leaf=0.018319
booster[26]:
0:[D_TITLEMD5_COEC<0.047581] yes=1,no=2,missing=2
	1:[C_D_U_KEYWORD_CATEGORY_MICRO_MAX_COEC<0.160547] yes=3,no=4,missing=3
		3:[C_D_U_TITLEMD5_CITY_COEC<0.064123] yes=7,no=8,missing=7
			7:[D_TITLEMD5_COEC<0.029931] yes=15,no=16,missing=16
				15:[D_KEYWORD_MACRO_MEAN_COEC<0.066754] yes=31,no=32,missing=32
					31:[U_KEYWORD_MICRO_MAX_COEC<0.127032] yes=63,no=64,missing=63
						63:leaf=-0.0464831
						64:leaf=-0.0301373
					32:[DOC_AGE<3] yes=65,no=66,missing=66
						65:leaf=-0.000504455
						66:leaf=-0.0399777
				16:[C_D_U_TITLEMD5_CITY_EC<1.21306] yes=33,no=34,missing=34
					33:[U_CITY_EC<101.377] yes=67,no=68,missing=68
						67:leaf=0.0763692
						68:leaf=-0.0180564
					34:[C_D_U_CATEGORY_CITY_MICRO_MAX_COEC<0.215882] yes=69,no=70,missing=69
						69:leaf=-0.0331671
						70:leaf=-0.00391515
			8:[U_CITY_C<125.254] yes=17,no=18,missing=18
				17:[C_D_U_TITLEMD5_CATEGORY_MEAN_C<0.07762] yes=35,no=36,missing=36
					35:[U_CATEGORY_MACRO_MAX_COEC<0.013284] yes=71,no=72,missing=72
						71:leaf=0.00533669
						72:leaf=-0.135029
					36:[C_D_U_TITLEMD5_CITY_C<0.951109] yes=73,no=74,missing=74
						73:leaf=0.0277178
						74:leaf=0.0988788
				18:[C_D_U_TITLEMD5_CATEGORY_MICRO_MAX_COEC<0.05571] yes=37,no=38,missing=38
					37:[D_PUBLISHER_C<7292.03] yes=75,no=76,missing=76
						75:leaf=-0.0664477
						76:leaf=0.114693
					38:[M_D_U_KEYWORD_KEYWORD_MICRO_MAX_COEC<0.149825] yes=77,no=78,missing=77
						77:leaf=-0.000364532
						78:leaf=0.124207
		4:[C_D_U_TITLEMD5_CITY_C<0.895586] yes=9,no=10,missing=9
			9:[CAT_REL<0.013146] yes=19,no=20,missing=20
				19:[U_CITY_COEC<0.200299] yes=39,no=40,missing=39
					39:[D_PUBLISHER_COEC<0.089902] yes=79,no=80,missing=80
						79:leaf=-0.0362669
						80:leaf=-0.0154003
					40:[C_D_U_TITLEMD5_CITY_EC<1.51442] yes=81,no=82,missing=82
						81:leaf=0.186595
						82:leaf=0.0220079
				20:[DOC_AGE<2] yes=41,no=42,missing=42
					41:[U_KW_LEN<1846] yes=83,no=84,missing=84
						83:leaf=0.00370407
						84:leaf=0.0439261
					42:[D_PUBLISHER_EC<45839.6] yes=85,no=86,missing=86
						85:leaf=-0.0222616
						86:leaf=-0.000788278
			10:[C_D_U_TITLEMD5_CATEGORY_MACRO_MEAN_COEC<0.065441] yes=21,no=22,missing=22
				21:[C_D_U_TITLEMD5_CATEGORY_MACRO_MEAN_COEC<0.030501] yes=43,no=44,missing=44
					43:[U_KEYWORD_MAX_EC<29.86] yes=87,no=88,missing=88
						87:leaf=-0.0779574
						88:leaf=-0.00374604
					44:[C_D_U_TITLEMD5_CATEGORY_MACRO_MAX_COEC<0.029939] yes=89,no=90,missing=90
						89:leaf=0.0795547
						90:leaf=-0.0658538
				22:[C_D_U_TITLEMD5_GENDER_C<0.856081] yes=45,no=46,missing=46
					45:[C_D_U_TITLEMD5_CITY_EC<2.71576] yes=91,no=92,missing=92
						91:leaf=-0.166259
						92:leaf=0.0467937
					46:[U_CAT_LEN<8] yes=93,no=94,missing=94
						93:leaf=0.104014
						94:leaf=0.154729
	2:[M_D_U_KEYWORD_KEYWORD_MICRO_MAX_COEC<0.105152] yes=5,no=6,missing=5
		5:[D_TITLEMD5_C<166.894] yes=11,no=12,missing=11
			11:[U_CITY_COEC<0.123103] yes=23,no=24,missing=23
				23:[C_D_U_TITLEMD5_CITY_C<0.975248] yes=47,no=48,missing=47
					47:[U_KEYWORD_MICRO_MAX_COEC<0.13949] yes=95,no=96,missing=95
						95:leaf=-0.0182612
						96:leaf=-0.0041595
					48:[U_CITY_C<211.847] yes=97,no=98,missing=98
						97:leaf=0.0605128
						98:leaf=-0.00539852
				24:[C_D_U_TITLEMD5_CITY_C<1.2409] yes=49,no=50,missing=50
					49:[U_CITY_EC<126.081] yes=99,no=100,missing=100
						99:leaf=0.0894887
						100:leaf=0.0113522
					50:[U_CITY_COEC<0.255134] yes=101,no=102,missing=102
						101:leaf=-0.00500879
						102:leaf=0.0254574
			12:[C_D_U_TITLEMD5_CATEGORY_MICRO_MAX_COEC<0.232411] yes=25,no=26,missing=25
				25:[IMAGE_COUNT<2] yes=51,no=52,missing=52
					51:[U_CITY_COEC<0.072464] yes=103,no=104,missing=103
						103:leaf=-0.0140253
						104:leaf=-0.00370113
					52:[TIME_OF_DAY<5] yes=105,no=106,missing=106
						105:leaf=-0.00603037
						106:leaf=0.00402526
				26:[D_KEYWORD_MEAN_EC<3750.43] yes=53,no=54,missing=54
					53:[U_KEYWORD_MICRO_MAX_COEC<0.115455] yes=107,no=108,missing=107
						107:leaf=-0.00322594
						108:leaf=0.0100952
					54:[C_D_U_TITLEMD5_CATEGORY_MEAN_EC<36.2272] yes=109,no=110,missing=110
						109:leaf=-0.0611493
						110:leaf=-0.0176846
		6:[M_D_U_KEYWORD_KEYWORD_MICRO_MAX_COEC<0.194716] yes=13,no=14,missing=14
			13:[D_KEYWORD_MEAN_C<76.0606] yes=27,no=28,missing=28
				27:[KW_REL<0.001668] yes=55,no=56,missing=56
					55:[D_CATEGORY_MACRO_MAX_COEC<0.077617] yes=111,no=112,missing=112
						111:leaf=-0.00678337
						112:leaf=0.0100146
					56:[U_KW_LEN<229] yes=113,no=114,missing=114
						113:leaf=0.0024413
						114:leaf=0.0275375
				28:[U_KEYWORD_MICRO_MAX_COEC<0.117956] yes=57,no=58,missing=58
					57:[C_D_U_TITLEMD5_AGE_C<54.8274] yes=115,no=116,missing=115
						115:leaf=-0.0141882
						116:leaf=0.00897277
					58:[C_D_U_TITLEMD5_CATEGORY_MEAN_C<2.7468] yes=117,no=118,missing=118
						117:leaf=-0.00173209
						118:leaf=0.01205
			14:[DOC_AGE<8] yes=29,no=30,missing=30
				29:[KW_REL<0.00152] yes=59,no=60,missing=60
					59:[C_D_U_TITLEMD5_AGE_COEC<0.229801] yes=119,no=120,missing=119
						119:leaf=0.0056454
						120:leaf=0.0472093
					60:[U_KW_LEN<1220] yes=121,no=122,missing=122
						121:leaf=0.0336878
						122:leaf=0.0588216
				30:[D_KEYWORD_MICRO_MAX_COEC<0.178447] yes=61,no=62,missing=62
					61:[U_KW_LEN<88] yes=123,no=124,missing=124
						123:leaf=-0.00946711
						124:leaf=0.0225957
					62:[KW_REL<0.00657] yes=125,no=126,missing=126
						125:leaf=0.0046984
						126:leaf=-0.0409848
booster[27]:
0:[D_TITLEMD5_COEC<0.103857] yes=1,no=2,missing=1
	1:[KW_REL<0.000918] yes=3,no=4,missing=4
		3:[C_D_U_TITLEMD5_CITY_C<80.6168] yes=7,no=8,missing=8
			7:[U_CITY_EC<71.3415] yes=15,no=16,missing=15
				15:[D_TITLEMD5_EC<645.878] yes=31,no=32,missing=31
					31:[U_CITY_EC<28.8194] yes=63,no=64,missing=63
						63:leaf=0.176578
						64:leaf=0.110496
					32:[C_D_U_TITLEMD5_CITY_EC<0.985074] yes=65,no=66,missing=66
						65:leaf=0.0333957
						66:leaf=0.107295
				16:[U_CITY_EC<676.026] yes=33,no=34,missing=34
					33:[D_TITLEMD5_EC<327.004] yes=67,no=68,missing=68
						67:leaf=0.047939
						68:leaf=0.000199983
					34:[C_D_U_TITLEMD5_CITY_C<0.951109] yes=69,no=70,missing=70
						69:leaf=-0.0196761
						70:leaf=-0.0029087
			8:[D_KEYWORD_MACRO_MEAN_COEC<0.050915] yes=17,no=18,missing=18
				17:[C_D_U_CATEGORY_CITY_MACRO_MAX_COEC<0.046466] yes=35,no=36,missing=36
					35:[D_TITLEMD5_C<5.60752] yes=71,no=72,missing=71
						71:leaf=-0.0527251
						72:leaf=-0.0377067
					36:[U_KW_LEN<803] yes=73,no=74,missing=74
						73:leaf=-0.0349808
						74:leaf=-0.0136361
				18:[U_CITY_COEC<0.062245] yes=37,no=38,missing=38
					37:[C_D_U_TITLEMD5_CATEGORY_MEAN_EC<4.23045] yes=75,no=76,missing=76
						75:leaf=-0.046296
						76:leaf=-0.029564
					38:[U_CITY_COEC<0.17551] yes=77,no=78,missing=77
						77:leaf=-0.0177162
						78:leaf=0.00924477
		4:[D_KEYWORD_MAX_C<20.7268] yes=9,no=10,missing=10
			9:[U_KW_LEN<146] yes=19,no=20,missing=20
				19:[C_D_U_KEYWORD_CATEGORY_MACRO_MEAN_COEC<0.098595] yes=39,no=40,missing=39
					39:[C_D_U_TITLEMD5_GENDER_C<3.2288] yes=79,no=80,missing=79
						79:leaf=-0.0259038
						80:leaf=0.0147995
					40:[C_D_U_TITLEMD5_CITY_COEC<0.150218] yes=81,no=82,missing=81
						81:leaf=0.00532168
						82:leaf=0.0806892
				20:[D_TITLEMD5_C<3.72805] yes=41,no=42,missing=41
					41:[D_PUBLISHER_COEC<0.047408] yes=83,no=84,missing=83
						83:leaf=-0.0299297
						84:leaf=0.00354044
					42:[U_KW_LEN<2473] yes=85,no=86,missing=86
						85:leaf=0.015429
						86:leaf=0.0452431
			10:[M_D_U_KEYWORD_KEYWORD_MACRO_MEAN_COEC<0.000206] yes=21,no=22,missing=21
				21:[D_TITLEMD5_C<38.7149] yes=43,no=44,missing=44
					43:[D_KEYWORD_MEAN_EC<1542.51] yes=87,no=88,missing=88
						87:leaf=-0.021139
						88:leaf=-0.0454924
					44:[D_KEYWORD_MEAN_C<109.325] yes=89,no=90,missing=90
						89:leaf=0.000609212
						90:leaf=-0.0155471
				22:[U_KW_LEN<230] yes=45,no=46,missing=46
					45:[M_D_U_KEYWORD_KEYWORD_MACRO_MEAN_COEC<0.002268] yes=91,no=92,missing=92
						91:leaf=-0.0202147
						92:leaf=0.0310294
					46:[C_D_U_CATEGORY_CITY_MICRO_MAX_COEC<0.111569] yes=93,no=94,missing=94
						93:leaf=-0.00582398
						94:leaf=0.0124132
	2:[CAT_REL<0.001069] yes=5,no=6,missing=6
		5:[IMAGE_COUNT<2] yes=11,no=12,missing=12
			11:[C_D_U_TITLEMD5_AGE_COEC<0.157575] yes=23,no=24,missing=24
				23:[D_KEYWORD_MAX_EC<1348.64] yes=47,no=48,missing=48
					47:[D_CATEGORY_MEAN_C<184.077] yes=95,no=96,missing=95
						95:leaf=0.000789643
						96:leaf=-0.0230953
					48:[U_KEYWORD_MACRO_MEAN_COEC<0.035485] yes=97,no=98,missing=98
						97:leaf=-0.0644104
						98:leaf=-0.032946
				24:[D_TITLEMD5_C<1.95545] yes=49,no=50,missing=50
					49:[D_CATEGORY_MICRO_MAX_COEC<0.073204] yes=99,no=100,missing=100
						99:leaf=-0.0569942
						100:leaf=-0.0278886
					50:[U_CITY_COEC<0.055384] yes=101,no=102,missing=101
						101:leaf=-0.012966
						102:leaf=-0.00326393
			12:[M_D_U_KEYWORD_KEYWORD_MICRO_MAX_COEC<0.120071] yes=25,no=26,missing=25
				25:[C_D_U_PUBLISHER_CITY_COEC<0.331657] yes=51,no=52,missing=51
					51:[TIME_OF_DAY<3] yes=103,no=104,missing=104
						103:leaf=-0.00918484
						104:leaf=0.00124753
					52:[C_D_U_TITLEMD5_CITY_C<0.960692] yes=105,no=106,missing=105
						105:leaf=0.0163624
						106:leaf=0.0703726
				26:[D_CATEGORY_MAX_EC<16926.8] yes=53,no=54,missing=53
					53:[U_CATEGORY_MEAN_C<396.293] yes=107,no=108,missing=108
						107:leaf=0.0441036
						108:leaf=0.0202016
					54:[D_KEYWORD_MEAN_EC<3142.73] yes=109,no=110,missing=110
						109:leaf=0.00712487
						110:leaf=-0.0378375
		6:[C_D_U_CATEGORY_CITY_MACRO_MAX_COEC<0.098322] yes=13,no=14,missing=13
			13:[D_KEYWORD_MEAN_EC<1542.51] yes=27,no=28,missing=28
				27:[U_KW_LEN<258] yes=55,no=56,missing=56
					55:[U_KEYWORD_MICRO_MAX_COEC<0.109615] yes=111,no=112,missing=111
						111:leaf=-0.0168502
						112:leaf=-0.000779216
					56:[KW_REL<0.002453] yes=113,no=114,missing=114
						113:leaf=0.00608988
						114:leaf=0.0240314
				28:[KW_REL<0.005175] yes=57,no=58,missing=58
					57:[D_TITLEMD5_EC<3605.11] yes=115,no=116,missing=116
						115:leaf=-0.0236101
						116:leaf=0.00567311
					58:[DOC_AGE<13] yes=117,no=118,missing=118
						117:leaf=0.0161811
						118:leaf=-0.00134283
			14:[TIME_OF_DAY<3] yes=29,no=30,missing=30
				29:[U_KW_LEN<497] yes=59,no=60,missing=60
					59:[U_KEYWORD_MICRO_MAX_COEC<0.130687] yes=119,no=120,missing=120
						119:leaf=-0.0174703
						120:leaf=0.000347038
					60:[C_D_U_TITLEMD5_AGE_COEC<0.149189] yes=121,no=122,missing=122
						121:leaf=-0.0140692
						122:leaf=0.0149523
				30:[C_D_U_PUBLISHER_CITY_COEC<0.232497] yes=61,no=62,missing=61
					61:[D_KEYWORD_MEAN_C<98.6789] yes=123,no=124,missing=124
						123:leaf=0.0211283
						124:leaf=0.00833088
					62:[C_D_U_TITLEMD5_CITY_C<0.92293] yes=125,no=126,missing=125
						125:leaf=0.0275646
						126:leaf=0.0632899
booster[28]:
0:[D_PUBLISHER_COEC<0.089351] yes=1,no=2,missing=1
	1:[C_D_U_TITLEMD5_CITY_EC<0.430801] yes=3,no=4,missing=3
		3:[C_D_U_CATEGORY_CITY_MACRO_MAX_COEC<0.056114] yes=7,no=8,missing=8
			7:[D_TITLEMD5_C<4.5552] yes=15,no=16,missing=15
				15:[DOC_AGE<4] yes=31,no=32,missing=32
					31:[CAT_REL<0.039367] yes=63,no=64,missing=64
						63:leaf=-0.0385215
						64:leaf=-0.0208116
					32:[U_CITY_COEC<0.058821] yes=65,no=66,missing=66
						65:leaf=-0.0665815
						66:leaf=-0.0445381
				16:[U_CITY_COEC<0.068413] yes=33,no=34,missing=34
					33:[C_D_U_TITLEMD5_CATEGORY_MEAN_C<0.128412] yes=67,no=68,missing=68
						67:leaf=-0.0448802
						68:leaf=-0.0287392
					34:[M_D_U_KEYWORD_KEYWORD_MACRO_MEAN_COEC<0.001357] yes=69,no=70,missing=69
						69:leaf=-0.0178243
						70:leaf=0.0249318
			8:[CAT_REL<0.013944] yes=17,no=18,missing=18
				17:[D_TITLEMD5_C<5.83231] yes=35,no=36,missing=35
					35:[D_CATEGORY_MAX_EC<50380.5] yes=71,no=72,missing=72
						71:leaf=-0.0368704
						72:leaf=-0.0150961
					36:[U_CITY_COEC<0.123003] yes=73,no=74,missing=73
						73:leaf=-0.0183329
						74:leaf=-0.00314278
				18:[D_TITLEMD5_C<2.83738] yes=37,no=38,missing=38
					37:[DOC_AGE<2] yes=75,no=76,missing=76
						75:leaf=0.00134388
						76:leaf=-0.0258773
					38:[D_KEYWORD_MEAN_EC<597.191] yes=77,no=78,missing=78
						77:leaf=0.00737831
						78:leaf=-0.00904818
		4:[U_CITY_EC<285.588] yes=9,no=10,missing=10
			9:[D_TITLEMD5_EC<358.936] yes=19,no=20,missing=20
				19:[U_CITY_EC<82.2029] yes=39,no=40,missing=40
					39:[C_D_U_TITLEMD5_CATEGORY_MACRO_MEAN_COEC<0.02346] yes=79,no=80,missing=80
						79:leaf=0.165696
						80:leaf=0.112596
					40:[U_CATEGORY_MICRO_MEAN_COEC<0.086912] yes=81,no=82,missing=81
						81:leaf=0.043017
						82:leaf=0.0907566
				20:[U_CITY_EC<43.8075] yes=41,no=42,missing=42
					41:[D_TITLEMD5_EC<1528.38] yes=83,no=84,missing=84
						83:leaf=0.11136
						84:leaf=0.0551781
					42:[C_D_U_TITLEMD5_CITY_EC<0.970372] yes=85,no=86,missing=86
						85:leaf=0.00427453
						86:leaf=0.0424075
			10:[CAT_REL<0.022118] yes=21,no=22,missing=22
				21:[C_D_U_CATEGORY_CITY_MAX_EC<8.56809] yes=43,no=44,missing=43
					43:[U_KW_LEN<663] yes=87,no=88,missing=88
						87:leaf=0.00087164
						88:leaf=0.0349006
					44:[C_D_U_TITLEMD5_CITY_C<0.96552] yes=89,no=90,missing=90
						89:leaf=-0.0204834
						90:leaf=-0.00437355
				22:[U_CITY_C<166.837] yes=45,no=46,missing=46
					45:[D_TITLEMD5_EC<50.6804] yes=91,no=92,missing=92
						91:leaf=0.096521
						92:leaf=0.0150259
					46:[C_D_U_TITLEMD5_CITY_C<0.951109] yes=93,no=94,missing=94
						93:leaf=-0.0091054
						94:leaf=0.0124516
	2:[U_KEYWORD_MICRO_MAX_COEC<0.115443] yes=5,no=6,missing=5
		5:[U_KW_LEN<1527] yes=11,no=12,missing=12
			11:[D_TITLEMD5_COEC<0.122382] yes=23,no=24,missing=24
				23:[IMAGE_COUNT<2] yes=47,no=48,missing=48
					47:[C_D_U_CATEGORY_CITY_MACRO_MAX_COEC<0.09948] yes=95,no=96,missing=95
						95:leaf=-0.0192195
						96:leaf=-0.0085416
					48:[C_D_U_PUBLISHER_CITY_COEC<0.192402] yes=97,no=98,missing=97
						97:leaf=-0.00780723
						98:leaf=0.0100074
				24:[U_CATEGORY_MEAN_C<613.041] yes=49,no=50,missing=49
					49:[TIME_OF_DAY<11] yes=99,no=100,missing=100
						99:leaf=-0.00743145
						100:leaf=0.00127874
					50:[WORD_COUNT<1918] yes=101,no=102,missing=102
						101:leaf=-0.0186527
						102:leaf=-0.0063365
			12:[U_KEYWORD_MEAN_EC<129.391] yes=25,no=26,missing=26
				25:[M_D_U_KEYWORD_KEYWORD_MACRO_MEAN_COEC<3.6e-05] yes=51,no=52,missing=51
					51:[U_CITY_COEC<0.092198] yes=103,no=104,missing=104
						103:leaf=-0.0611167
						104:leaf=-0.0207992
					52:[U_CITY_EC<4909.26] yes=105,no=106,missing=105
						105:leaf=0.00795574
						106:leaf=-0.0797162
				26:[U_CITY_COEC<0.068413] yes=53,no=54,missing=54
					53:[C_D_U_TITLEMD5_AGE_C<67.0201] yes=107,no=108,missing=108
						107:leaf=-0.0336274
						108:leaf=0.00944045
					54:[C_D_U_PUBLISHER_AGE_EC<20343.3] yes=109,no=110,missing=109
						109:leaf=0.0277826
						110:leaf=-0.015543
		6:[C_D_U_TITLEMD5_AGE_COEC<0.171883] yes=13,no=14,missing=14
			13:[CAT_REL<0.02488] yes=27,no=28,missing=28
				27:[C_D_U_CATEGORY_AGE_MEAN_EC<2653.49] yes=55,no=56,missing=55
					55:[U_CITY_COEC<0.068413] yes=111,no=112,missing=112
						111:leaf=-0.0148173
						112:leaf=0.0087956
					56:[U_KEYWORD_MEAN_EC<299.966] yes=113,no=114,missing=114
						113:leaf=-0.02485
						114:leaf=-0.00769265
				28:[DOC_AGE<8] yes=57,no=58,missing=58
					57:[C_D_U_CATEGORY_CITY_MACRO_MEAN_COEC<0.104308] yes=115,no=116,missing=116
						115:leaf=0.00109045
						116:leaf=0.0209118
					58:[C_D_U_TITLEMD5_AGE_EC<380.07] yes=117,no=118,missing=118
						117:leaf=-0.0102189
						118:leaf=0.00857516
			14:[U_KW_LEN<109] yes=29,no=30,missing=30
				29:[TIME_OF_DAY<3] yes=59,no=60,missing=60
					59:[U_KW_LEN<59] yes=119,no=120,missing=120
						119:leaf=-0.0370418
						120:leaf=-0.0158952
					60:[C_D_U_CATEGORY_GENDER_MICRO_MAX_COEC<0.126032] yes=121,no=122,missing=121
						121:leaf=-0.0026491
						122:leaf=0.0272064
				30:[DOC_AGE<3] yes=61,no=62,missing=62
					61:[U_KW_LEN<777] yes=123,no=124,missing=124
						123:leaf=0.0203695
						124:leaf=0.0396716
					62:[U_CITY_COEC<0.199999] yes=125,no=126,missing=125
						125:leaf=0.00711423
						126:leaf=0.0414577
booster[29]:
0:[C_D_U_TITLEMD5_CITY_C<80.1089] yes=1,no=2,missing=2
	1:[U_CITY_EC<103.587] yes=3,no=4,missing=3
		3:[D_TITLEMD5_EC<1115.58] yes=7,no=8,missing=7
			7:[U_CITY_EC<38.2634] yes=15,no=16,missing=15
				15:[C_D_U_TITLEMD5_CATEGORY_MICRO_MEAN_COEC<0.096349] yes=31,no=32,missing=32
					31:[C_D_U_TITLEMD5_CITY_COEC<0.365519] yes=63,no=64,missing=63
						63:leaf=0.158368
						64:leaf=0.0641661
					32:[U_CITY_EC<10.9687] yes=65,no=66,missing=65
						65:leaf=0.149269
						66:leaf=0.101742
				16:[C_D_U_TITLEMD5_CITY_EC<0.994999] yes=33,no=34,missing=34
					33:[DOC_AGE<13] yes=67,no=68,missing=68
						67:leaf=0.0354139
						68:leaf=0.079819
					34:[C_D_U_TITLEMD5_CITY_EC<1.64282] yes=69,no=70,missing=69
						69:leaf=0.135998
						70:leaf=0.0469522
			8:[U_CITY_EC<24.5121] yes=17,no=18,missing=17
				17:[D_TITLEMD5_EC<3046.46] yes=35,no=36,missing=36
					35:[U_CITY_EC<16.3311] yes=71,no=72,missing=71
						71:leaf=0.118766
						72:leaf=0.0804982
					36:[C_D_U_TITLEMD5_CITY_EC<0.913724] yes=73,no=74,missing=74
						73:leaf=0.0335426
						74:leaf=0.0760045
				18:[C_D_U_TITLEMD5_CITY_EC<0.946354] yes=37,no=38,missing=38
					37:[U_KW_LEN<452] yes=75,no=76,missing=76
						75:leaf=-0.0017088
						76:leaf=0.0271631
					38:[U_KEYWORD_MICRO_MEAN_COEC<0.089998] yes=77,no=78,missing=77
						77:leaf=0.0208397
						78:leaf=0.0580419
		4:[U_CITY_EC<680.476] yes=9,no=10,missing=10
			9:[C_D_U_TITLEMD5_CITY_C<0.975248] yes=19,no=20,missing=20
				19:[D_TITLEMD5_EC<385.771] yes=39,no=40,missing=39
					39:[U_KEYWORD_MICRO_MEAN_COEC<0.092796] yes=79,no=80,missing=79
						79:leaf=0.0150087
						80:leaf=0.0574628
					40:[C_D_U_TITLEMD5_CITY_EC<0.946354] yes=81,no=82,missing=82
						81:leaf=-0.00591058
						82:leaf=0.00968801
				20:[C_D_U_TITLEMD5_CITY_C<1.22545] yes=41,no=42,missing=42
					41:[D_KEYWORD_MACRO_MEAN_COEC<0.107003] yes=83,no=84,missing=84
						83:leaf=0.091876
						84:leaf=0.0490826
					42:[C_D_U_TITLEMD5_CITY_C<1.86595] yes=85,no=86,missing=86
						85:leaf=0.00329135
						86:leaf=0.0260078
			10:[C_D_U_TITLEMD5_CITY_C<0.936914] yes=21,no=22,missing=22
				21:[U_KW_LEN<1558] yes=43,no=44,missing=44
					43:[U_KEYWORD_MICRO_MAX_COEC<0.129211] yes=87,no=88,missing=87
						87:leaf=-0.0152564
						88:leaf=-0.000902433
					44:[C_D_U_CATEGORY_AGE_MACRO_MAX_COEC<0.114085] yes=89,no=90,missing=90
						89:leaf=-0.00676582
						90:leaf=0.0209506
				22:[C_D_U_KEYWORD_CATEGORY_MICRO_MAX_COEC<0.346761] yes=45,no=46,missing=45
					45:[U_CITY_C<359.658] yes=91,no=92,missing=92
						91:leaf=0.00676176
						92:leaf=-0.0035024
					46:[C_D_U_TITLEMD5_CATEGORY_MICRO_MAX_COEC<0.580236] yes=93,no=94,missing=94
						93:leaf=0.0181602
						94:leaf=0.052382
	2:[U_CITY_COEC<0.090819] yes=5,no=6,missing=6
		5:[D_TITLEMD5_COEC<0.108827] yes=11,no=12,missing=12
			11:[DOC_AGE<5] yes=23,no=24,missing=24
				23:[D_KEYWORD_MACRO_MEAN_COEC<0.049639] yes=47,no=48,missing=48
					47:[CAT_REL<0.078493] yes=95,no=96,missing=96
						95:leaf=-0.0383196
						96:leaf=-0.0108297
					48:[C_D_U_CATEGORY_CITY_MICRO_MEAN_COEC<0.078919] yes=97,no=98,missing=97
						97:leaf=-0.0171205
						98:leaf=-0.00139731
				24:[D_TITLEMD5_C<3.66499] yes=49,no=50,missing=50
					49:[KW_REL<0.003093] yes=99,no=100,missing=100
						99:leaf=-0.0461819
						100:leaf=-0.0205182
					50:[U_CITY_COEC<0.048516] yes=101,no=102,missing=102
						101:leaf=-0.0353177
						102:leaf=-0.0216139
			12:[C_D_U_CATEGORY_CITY_MACRO_MAX_COEC<0.055466] yes=25,no=26,missing=26
				25:[DAY_OF_WEEK<2] yes=51,no=52,missing=52
					51:[D_TITLEMD5_C<1.8841] yes=103,no=104,missing=103
						103:leaf=-0.0310015
						104:leaf=-0.00506094
					52:[D_PUBLISHER_COEC<0.058879] yes=105,no=106,missing=105
						105:leaf=-0.0408999
						106:leaf=-0.0194398
				26:[DOC_AGE<3] yes=53,no=54,missing=54
					53:[D_CATEGORY_MAX_C<2212.86] yes=107,no=108,missing=108
						107:leaf=-0.0132021
						108:leaf=0.00950728
					54:[C_D_U_TITLEMD5_AGE_COEC<0.164539] yes=109,no=110,missing=110
						109:leaf=-0.0239583
						110:leaf=-0.00780367
		6:[U_KW_LEN<1298] yes=13,no=14,missing=14
			13:[U_KEYWORD_MICRO_MAX_COEC<0.139192] yes=27,no=28,missing=27
				27:[D_KEYWORD_MACRO_MEAN_COEC<0.061603] yes=55,no=56,missing=56
					55:[C_D_U_TITLEMD5_CATEGORY_MEAN_C<0.155283] yes=111,no=112,missing=111
						111:leaf=-0.0281617
						112:leaf=-0.00729526
					56:[IMAGE_COUNT<0.999999] yes=113,no=114,missing=114
						113:leaf=-0.0261913
						114:leaf=-0.00642221
				28:[U_KW_LEN<123] yes=57,no=58,missing=58
					57:[C_D_U_CATEGORY_CITY_MACRO_MEAN_COEC<0.298084] yes=115,no=116,missing=115
						115:leaf=-0.0118786
						116:leaf=0.0228994
					58:[U_KEYWORD_MICRO_MAX_COEC<0.322872] yes=117,no=118,missing=118
						117:leaf=0.00841291
						118:leaf=0.0415683
			14:[C_D_U_CATEGORY_AGE_MACRO_MAX_COEC<0.065403] yes=29,no=30,missing=30
				29:[CAT_REL<0.037669] yes=59,no=60,missing=60
					59:[U_CATEGORY_MICRO_MAX_COEC<0.142681] yes=119,no=120,missing=120
						119:leaf=-0.0299506
						120:leaf=0.0332448
					60:[C_D_U_CATEGORY_AGE_MACRO_MEAN_COEC<0.079062] yes=121,no=122,missing=122
						121:leaf=-0.00945779
						122:leaf=0.0191001
				30:[U_KW_LEN<3985] yes=61,no=62,missing=62
					61:[CAT_REL<0.10821] yes=123,no=124,missing=124
						123:leaf=0.008543
						124:leaf=0.0400585
					62:[U_CATEGORY_MICRO_MAX_COEC<0.119872] yes=125,no=126,missing=126
						125:leaf=0.0196282
						126:leaf=0.0593891
booster[30]:
0:[D_TITLEMD5_COEC<0.051965] yes=1,no=2,missing=2
	1:[U_KW_LEN<408] yes=3,no=4,missing=4
		3:[IMAGE_COUNT<0.999999] yes=7,no=8,missing=8
			7:[U_KEYWORD_MICRO_MAX_COEC<0.112634] yes=15,no=16,missing=16
				15:[C_D_U_KEYWORD_CATEGORY_MACRO_MAX_COEC<0.034695] yes=31,no=32,missing=31
					31:[C_D_U_TITLEMD5_GENDER_C<4.91552] yes=63,no=64,missing=63
						63:leaf=-0.0614432
						64:leaf=0.0502451
					32:[M_D_U_KEYWORD_KEYWORD_MACRO_MEAN_COEC<0.000141] yes=65,no=66,missing=65
						65:leaf=-0.0356767
						66:leaf=0.2368
				16:[C_D_U_TITLEMD5_CATEGORY_MICRO_MEAN_COEC<0.026335] yes=33,no=34,missing=33
					33:[D_KEYWORD_MACRO_MEAN_COEC<0.041803] yes=67,no=68,missing=68
						67:leaf=-0.0574822
						68:leaf=-0.0398421
					34:[C_D_U_KEYWORD_CATEGORY_MAX_C<0.02191] yes=69,no=70,missing=70
						69:leaf=0.0242122
						70:leaf=-0.0227371
			8:[U_KEYWORD_MICRO_MAX_COEC<0.139744] yes=17,no=18,missing=17
				17:[DOC_AGE<4] yes=35,no=36,missing=36
					35:[D_KEYWORD_MACRO_MEAN_COEC<0.069696] yes=71,no=72,missing=72
						71:leaf=-0.0207515
						72:leaf=0.00748842
					36:[D_TITLEMD5_COEC<0.030529] yes=73,no=74,missing=74
						73:leaf=-0.0388312
						74:leaf=-0.0232424
				18:[DOC_AGE<2] yes=37,no=38,missing=38
					37:[C_D_U_KEYWORD_CATEGORY_MACRO_MEAN_COEC<0.043642] yes=75,no=76,missing=75
						75:leaf=-0.00716444
						76:leaf=0.0216699
					38:[C_D_U_TITLEMD5_CITY_EC<7.96196] yes=77,no=78,missing=78
						77:leaf=0.00886363
						78:leaf=-0.0182651
		4:[CAT_REL<0.143342] yes=9,no=10,missing=10
			9:[U_CITY_COEC<0.06985] yes=19,no=20,missing=20
				19:[C_D_U_PUBLISHER_CITY_COEC<0.043395] yes=39,no=40,missing=39
					39:[C_D_U_TITLEMD5_CITY_EC<1.8139] yes=79,no=80,missing=80
						79:leaf=-0.00832951
						80:leaf=-0.0463824
					40:[C_D_U_CATEGORY_CITY_MACRO_MAX_COEC<0.05377] yes=81,no=82,missing=82
						81:leaf=-0.0300749
						82:leaf=-0.000128155
				20:[U_KW_LEN<2113] yes=41,no=42,missing=42
					41:[U_KEYWORD_MICRO_MAX_COEC<0.129273] yes=83,no=84,missing=84
						83:leaf=-0.0199569
						84:leaf=0.00595689
					42:[U_KEYWORD_MEAN_C<12.8815] yes=85,no=86,missing=86
						85:leaf=-0.0286257
						86:leaf=0.01346
			10:[D_PUBLISHER_EC<53842.6] yes=21,no=22,missing=22
				21:[IMAGE_COUNT<0.999999] yes=43,no=44,missing=44
					43:[D_TITLEMD5_C<0.994999] yes=87,no=88,missing=88
						87:leaf=-0.0389605
						88:leaf=0.00934299
					44:[C_D_U_CATEGORY_CITY_MACRO_MAX_COEC<0.178686] yes=89,no=90,missing=89
						89:leaf=0.00931949
						90:leaf=0.048924
				22:[D_CATEGORY_MICRO_MAX_COEC<0.05617] yes=45,no=46,missing=46
					45:[U_KEYWORD_MICRO_MAX_COEC<0.113517] yes=91,no=92,missing=92
						91:leaf=0.0391256
						92:leaf=0.0872227
					46:[U_KEYWORD_MEAN_C<5.97285] yes=93,no=94,missing=94
						93:leaf=0.0852369
						94:leaf=0.0207384
	2:[U_KEYWORD_MICRO_MAX_COEC<0.139744] yes=5,no=6,missing=5
		5:[U_KW_LEN<882] yes=11,no=12,missing=12
			11:[C_D_U_TITLEMD5_CATEGORY_MEAN_C<0.831667] yes=23,no=24,missing=24
				23:[CAT_REL<0.050879] yes=47,no=48,missing=48
					47:[D_CATEGORY_MEAN_EC<6317.22] yes=95,no=96,missing=95
						95:leaf=-0.00498513
						96:leaf=-0.0231196
					48:[DOC_AGE<3] yes=97,no=98,missing=98
						97:leaf=0.00576786
						98:leaf=-0.0112564
				24:[TIME_OF_DAY<3] yes=49,no=50,missing=50
					49:[D_TITLEMD5_COEC<0.094212] yes=99,no=100,missing=99
						99:leaf=-0.0236226
						100:leaf=-0.0119418
					50:[WORD_COUNT<1654] yes=101,no=102,missing=102
						101:leaf=-0.00918985
						102:leaf=-0.000222594
			12:[U_CITY_COEC<0.06985] yes=25,no=26,missing=26
				25:[C_D_U_TITLEMD5_CITY_C<2.8769] yes=51,no=52,missing=52
					51:[U_CITY_C<11.1563] yes=103,no=104,missing=104
						103:leaf=0.0410237
						104:leaf=-0.000406456
					52:[KW_REL<0.002758] yes=105,no=106,missing=106
						105:leaf=-0.0294291
						106:leaf=0.00293469
				26:[U_KW_LEN<2113] yes=53,no=54,missing=54
					53:[C_D_U_TITLEMD5_CATEGORY_MAX_EC<1.4986] yes=107,no=108,missing=107
						107:leaf=-0.00383933
						108:leaf=0.0124364
					54:[U_KEYWORD_MEAN_C<12.8815] yes=109,no=110,missing=110
						109:leaf=-0.0222041
						110:leaf=0.023366
		6:[U_KW_LEN<219] yes=13,no=14,missing=14
			13:[C_D_U_TITLEMD5_CATEGORY_MEAN_C<1.923] yes=27,no=28,missing=27
				27:[C_D_U_TITLEMD5_AGE_COEC<0.143762] yes=55,no=56,missing=56
					55:[D_KEYWORD_MEAN_C<76.6118] yes=111,no=112,missing=112
						111:leaf=-0.011804
						112:leaf=-0.0293015
					56:[U_CITY_COEC<0.17589] yes=113,no=114,missing=113
						113:leaf=-0.00408585
						114:leaf=0.0317987
				28:[TIME_OF_DAY<6] yes=57,no=58,missing=58
					57:[U_KEYWORD_MICRO_MEAN_COEC<0.114488] yes=115,no=116,missing=116
						115:leaf=-0.00449623
						116:leaf=0.0520517
					58:[WORD_COUNT<4216] yes=117,no=118,missing=118
						117:leaf=0.00851029
						118:leaf=0.0280572
			14:[U_KEYWORD_MACRO_MEAN_COEC<0.038321] yes=29,no=30,missing=30
				29:[U_CITY_COEC<0.141306] yes=59,no=60,missing=59
					59:[U_KW_LEN<708] yes=119,no=120,missing=120
						119:leaf=0.00571645
						120:leaf=0.019591
					60:[C_D_U_TITLEMD5_CITY_COEC<0.230465] yes=121,no=122,missing=122
						121:leaf=0.0738427
						122:leaf=0.0237215
				30:[U_CATEGORY_MICRO_MEAN_COEC<0.084367] yes=61,no=62,missing=62
					61:[C_D_U_KEYWORD_CATEGORY_MACRO_MAX_COEC<0.004875] yes=123,no=124,missing=124
						123:leaf=-0.0105685
						124:leaf=0.137966
					62:[U_CATEGORY_MAX_C<1303.44] yes=125,no=126,missing=126
						125:leaf=0.0379166
						126:leaf=0.0692595
booster[31]:
0:[D_PUBLISHER_COEC<0.074073] yes=1,no=2,missing=1
	1:[CAT_REL<0.027405] yes=3,no=4,missing=4
		3:[D_TITLEMD5_C<1.97017] yes=7,no=8,missing=7
			7:[D_CATEGORY_MACRO_MEAN_COEC<0.077921] yes=15,no=16,missing=16
				15:[C_D_U_TITLEMD5_CITY_C<0.683209] yes=31,no=32,missing=31
					31:[IMAGE_COUNT<0.999999] yes=63,no=64,missing=64
						63:leaf=-0.0560697
						64:leaf=-0.0389946
					32:[C_D_U_TITLEMD5_CATEGORY_MEAN_C<0.047974] yes=65,no=66,missing=66
						65:leaf=-0.0583042
						66:leaf=0.113932
				16:[DOC_AGE<2] yes=33,no=34,missing=34
					33:[U_CATEGORY_MICRO_MAX_COEC<0.123304] yes=67,no=68,missing=67
						67:leaf=-0.00880415
						68:leaf=0.041665
					34:[C_D_U_KEYWORD_CATEGORY_MAX_C<0.047501] yes=69,no=70,missing=69
						69:leaf=-0.0223079
						70:leaf=-0.0435934
			8:[D_CATEGORY_MACRO_MAX_COEC<0.074674] yes=17,no=18,missing=18
				17:[C_D_U_CATEGORY_CITY_MICRO_MEAN_COEC<0.294867] yes=35,no=36,missing=35
					35:[U_KEYWORD_MICRO_MAX_COEC<0.125806] yes=71,no=72,missing=72
						71:leaf=-0.0288286
						72:leaf=-0.0176181
					36:[C_D_U_CATEGORY_CITY_MEAN_C<0.883042] yes=73,no=74,missing=74
						73:leaf=-0.00640111
						74:leaf=0.046293
				18:[WORD_COUNT<1004] yes=37,no=38,missing=38
					37:[D_CATEGORY_MICRO_MAX_COEC<0.094479] yes=75,no=76,missing=75
						75:leaf=-0.0147023
						76:leaf=-0.0289262
					38:[D_KEYWORD_MEAN_EC<729.779] yes=77,no=78,missing=78
						77:leaf=-0.00216129
						78:leaf=-0.0125069
		4:[D_TITLEMD5_C<2.90171] yes=9,no=10,missing=9
			9:[IMAGE_COUNT<0.999999] yes=19,no=20,missing=20
				19:[D_PUBLISHER_COEC<0.03976] yes=39,no=40,missing=39
					39:[U_KEYWORD_MICRO_MAX_COEC<0.131913] yes=79,no=80,missing=80
						79:leaf=-0.0670887
						80:leaf=-0.0357953
					40:[C_D_U_TITLEMD5_CITY_EC<1.26582] yes=81,no=82,missing=82
						81:leaf=0.0222699
						82:leaf=-0.0335328
				20:[U_KW_LEN<455] yes=41,no=42,missing=42
					41:[M_D_U_KEYWORD_KEYWORD_MACRO_MEAN_COEC<0.000848] yes=83,no=84,missing=83
						83:leaf=-0.0275238
						84:leaf=0.0220556
					42:[KW_REL<0.003321] yes=85,no=86,missing=86
						85:leaf=-0.00908095
						86:leaf=0.0244915
			10:[D_CATEGORY_MICRO_MAX_COEC<0.058728] yes=21,no=22,missing=22
				21:[D_PUBLISHER_C<1093.6] yes=43,no=44,missing=43
					43:[D_KEYWORD_MEAN_C<17.2643] yes=87,no=88,missing=88
						87:leaf=0.019552
						88:leaf=-0.00555697
					44:[U_KW_LEN<241] yes=89,no=90,missing=90
						89:leaf=0.00496058
						90:leaf=0.0385035
				22:[U_KW_LEN<1140] yes=45,no=46,missing=46
					45:[C_D_U_TITLEMD5_CATEGORY_MACRO_MEAN_COEC<0.068721] yes=91,no=92,missing=91
						91:leaf=-0.0131893
						92:leaf=0.000423746
					46:[D_KEYWORD_MEAN_EC<378.592] yes=93,no=94,missing=94
						93:leaf=0.0277426
						94:leaf=0.00599544
	2:[U_KEYWORD_MICRO_MAX_COEC<0.123485] yes=5,no=6,missing=5
		5:[U_KW_LEN<1540] yes=11,no=12,missing=12
			11:[D_TITLEMD5_COEC<0.109137] yes=23,no=24,missing=24
				23:[U_CITY_COEC<0.100899] yes=47,no=48,missing=47
					47:[TIME_OF_DAY<9] yes=95,no=96,missing=96
						95:leaf=-0.0205572
						96:leaf=-0.0114731
					48:[U_CITY_COEC<0.260214] yes=97,no=98,missing=98
						97:leaf=-0.00535963
						98:leaf=0.0250201
				24:[D_KEYWORD_MEAN_EC<3174.56] yes=49,no=50,missing=49
					49:[TIME_OF_DAY<3] yes=99,no=100,missing=100
						99:leaf=-0.0108687
						100:leaf=2.25421e-05
					50:[KW_REL<0.007059] yes=101,no=102,missing=102
						101:leaf=-0.0212983
						102:leaf=0.00574438
			12:[C_D_U_TITLEMD5_AGE_COEC<0.128422] yes=25,no=26,missing=26
				25:[U_CITY_COEC<0.067843] yes=51,no=52,missing=52
					51:[C_D_U_TITLEMD5_CITY_EC<2.61127] yes=103,no=104,missing=104
						103:leaf=-0.00208293
						104:leaf=-0.0445809
					52:[D_KEYWORD_MEAN_EC<475.097] yes=105,no=106,missing=106
						105:leaf=0.015295
						106:leaf=-0.0093257
				26:[U_KEYWORD_MEAN_C<11.4939] yes=53,no=54,missing=54
					53:[CAT_REL<0.007991] yes=107,no=108,missing=108
						107:leaf=-0.0400706
						108:leaf=-0.00014718
					54:[U_CAT_LEN<40] yes=109,no=110,missing=110
						109:leaf=0.0218885
						110:leaf=-0.0378098
		6:[C_D_U_CATEGORY_AGE_MICRO_MEAN_COEC<0.122087] yes=13,no=14,missing=14
			13:[C_D_U_TITLEMD5_CITY_EC<0.955889] yes=27,no=28,missing=27
				27:[U_CITY_COEC<0.133399] yes=55,no=56,missing=56
					55:[DOC_AGE<7] yes=111,no=112,missing=112
						111:leaf=-0.00572596
						112:leaf=-0.0230399
					56:[U_KW_LEN<353] yes=113,no=114,missing=114
						113:leaf=-0.00867499
						114:leaf=0.00991773
				28:[U_CITY_EC<192.116] yes=57,no=58,missing=58
					57:[D_TITLEMD5_EC<2437.21] yes=115,no=116,missing=116
						115:leaf=0.0899138
						116:leaf=0.0188045
					58:[U_CITY_EC<1169.11] yes=117,no=118,missing=118
						117:leaf=0.0155888
						118:leaf=-0.0018638
			14:[U_KW_LEN<220] yes=29,no=30,missing=30
				29:[TIME_OF_DAY<5] yes=59,no=60,missing=60
					59:[U_CITY_COEC<0.118912] yes=119,no=120,missing=119
						119:leaf=-0.0116305
						120:leaf=0.00727516
					60:[WORD_COUNT<1721] yes=121,no=122,missing=122
						121:leaf=-0.00319204
						122:leaf=0.00893698
				30:[U_KEYWORD_MICRO_MAX_COEC<0.165268] yes=61,no=62,missing=62
					61:[DOC_AGE<6] yes=123,no=124,missing=124
						123:leaf=0.0193539
						124:leaf=0.00637156
					62:[U_KW_LEN<615] yes=125,no=126,missing=126
						125:leaf=0.0200286
						126:leaf=0.0381344
booster[32]:
0:[M_D_U_KEYWORD_KEYWORD_MICRO_MAX_COEC<0.121943] yes=1,no=2,missing=1
	1:[D_PUBLISHER_COEC<0.087632] yes=3,no=4,missing=3
		3:[D_TITLEMD5_C<4.68534] yes=7,no=8,missing=7
			7:[C_D_U_TITLEMD5_CITY_EC<1.23766] yes=15,no=16,missing=16
				15:[U_CITY_EC<1054.71] yes=31,no=32,missing=32
					31:[D_TITLEMD5_EC<82.2344] yes=63,no=64,missing=64
						63:leaf=0.0948112
						64:leaf=0.0242078
					32:[D_TITLEMD5_EC<13.5157] yes=65,no=66,missing=66
						65:leaf=0.0229507
						66:leaf=-0.0218346
				16:[U_CITY_COEC<0.055671] yes=33,no=34,missing=34
					33:[DOC_AGE<3] yes=67,no=68,missing=68
						67:leaf=-0.0344863
						68:leaf=-0.0548988
					34:[D_PUBLISHER_COEC<0.040003] yes=69,no=70,missing=69
						69:leaf=-0.0451753
						70:leaf=-0.0204732
			8:[D_KEYWORD_MEAN_EC<1089.3] yes=17,no=18,missing=18
				17:[CAT_REL<0.001094] yes=35,no=36,missing=36
					35:[D_PUBLISHER_EC<46078.2] yes=71,no=72,missing=72
						71:leaf=-0.00778892
						72:leaf=-0.0222362
					36:[D_CATEGORY_MICRO_MAX_COEC<0.059576] yes=73,no=74,missing=74
						73:leaf=0.0175331
						74:leaf=-0.00063945
				18:[C_D_U_TITLEMD5_CATEGORY_MEAN_C<1.8231] yes=37,no=38,missing=38
					37:[U_KEYWORD_MAX_EC<55.1845] yes=75,no=76,missing=75
						75:leaf=-0.0422348
						76:leaf=-0.0245462
					38:[D_TITLEMD5_COEC<0.09641] yes=77,no=78,missing=78
						77:leaf=-0.0181554
						78:leaf=-0.00454927
		4:[U_CITY_COEC<0.158901] yes=9,no=10,missing=9
			9:[D_TITLEMD5_COEC<0.203692] yes=19,no=20,missing=20
				19:[WORD_COUNT<1593] yes=39,no=40,missing=40
					39:[D_PUBLISHER_EC<89208.6] yes=79,no=80,missing=80
						79:leaf=-0.00808121
						80:leaf=-0.0212376
					40:[U_KEYWORD_MICRO_MEAN_COEC<0.086731] yes=81,no=82,missing=82
						81:leaf=-0.0232595
						82:leaf=-0.00163084
				20:[C_D_U_KEYWORD_CATEGORY_MICRO_MAX_COEC<0.373127] yes=41,no=42,missing=41
					41:[DOC_AGE<26] yes=83,no=84,missing=84
						83:leaf=0.00627573
						84:leaf=-0.0165578
					42:[DAY_OF_WEEK<2] yes=85,no=86,missing=86
						85:leaf=0.0388261
						86:leaf=0.0168852
			10:[U_CITY_COEC<0.258422] yes=21,no=22,missing=22
				21:[U_KEYWORD_MICRO_MAX_COEC<0.213841] yes=43,no=44,missing=43
					43:[C_D_U_PUBLISHER_CITY_EC<0.976682] yes=87,no=88,missing=87
						87:leaf=-0.00618659
						88:leaf=0.0122926
					44:[U_KEYWORD_MAX_EC<48.2004] yes=89,no=90,missing=90
						89:leaf=0.069671
						90:leaf=0.028133
				22:[C_D_U_PUBLISHER_CITY_C<0.882219] yes=45,no=46,missing=45
					45:[C_D_U_TITLEMD5_CITY_COEC<0.307459] yes=91,no=92,missing=92
						91:leaf=0.0856777
						92:leaf=0.0146018
					46:[C_D_U_PUBLISHER_CITY_COEC<0.391639] yes=93,no=94,missing=94
						93:leaf=0.0230459
						94:leaf=0.0629661
	2:[D_CATEGORY_MEAN_C<2768.3] yes=5,no=6,missing=5
		5:[CAT_REL<0.180716] yes=11,no=12,missing=12
			11:[D_PUBLISHER_C<1279.17] yes=23,no=24,missing=23
				23:[M_D_U_KEYWORD_KEYWORD_MICRO_MAX_COEC<0.177769] yes=47,no=48,missing=48
					47:[M_D_U_KEYWORD_KEYWORD_MACRO_MEAN_COEC<0.001355] yes=95,no=96,missing=96
						95:leaf=-0.0130311
						96:leaf=0.0194719
					48:[KW_REL<0.006578] yes=97,no=98,missing=98
						97:leaf=0.00993539
						98:leaf=0.0399398
				24:[KW_REL<0.001452] yes=49,no=50,missing=50
					49:[D_TITLEMD5_EC<1950.73] yes=99,no=100,missing=99
						99:leaf=-0.000416707
						100:leaf=0.0183482
					50:[U_CATEGORY_MACRO_MEAN_COEC<0.056408] yes=101,no=102,missing=102
						101:leaf=0.0295181
						102:leaf=0.014467
			12:[DOC_AGE<28] yes=25,no=26,missing=26
				25:[KW_REL<0.004139] yes=51,no=52,missing=52
					51:[C_D_U_TITLEMD5_CITY_COEC<0.228833] yes=103,no=104,missing=103
						103:leaf=0.0181734
						104:leaf=0.0651618
					52:[D_KEYWORD_MICRO_MEAN_COEC<0.100526] yes=105,no=106,missing=106
						105:leaf=0.0469088
						106:leaf=0.0200025
				26:[U_KW_LEN<178] yes=53,no=54,missing=54
					53:[U_CITY_EC<207.068] yes=107,no=108,missing=108
						107:leaf=0.021601
						108:leaf=-0.0279018
					54:[U_KEYWORD_MACRO_MAX_COEC<0.002789] yes=109,no=110,missing=110
						109:leaf=0.00466699
						110:leaf=0.0363413
		6:[U_KW_LEN<1134] yes=13,no=14,missing=14
			13:[U_KEYWORD_MICRO_MAX_COEC<0.130667] yes=27,no=28,missing=28
				27:[C_D_U_TITLEMD5_CATEGORY_MEAN_C<0.611775] yes=55,no=56,missing=56
					55:[D_KEYWORD_MAX_C<31.129] yes=111,no=112,missing=112
						111:leaf=0.00114479
						112:leaf=-0.0217628
					56:[DAY_OF_WEEK<4] yes=113,no=114,missing=114
						113:leaf=0.00319158
						114:leaf=-0.0100089
				28:[DOC_AGE<5] yes=57,no=58,missing=58
					57:[C_D_U_CATEGORY_AGE_MACRO_MEAN_COEC<0.110658] yes=115,no=116,missing=116
						115:leaf=0.00225707
						116:leaf=0.0237598
					58:[C_D_U_TITLEMD5_CITY_EC<0.913724] yes=117,no=118,missing=117
						117:leaf=-0.00283831
						118:leaf=0.0129851
			14:[CAT_REL<0.044446] yes=29,no=30,missing=30
				29:[M_D_U_KEYWORD_KEYWORD_MEAN_C<0.004625] yes=59,no=60,missing=60
					59:[U_CATEGORY_MICRO_MAX_COEC<0.143825] yes=119,no=120,missing=120
						119:leaf=0.0121898
						120:leaf=0.0614149
					60:[C_D_U_TITLEMD5_CATEGORY_MEAN_EC<3.98293] yes=121,no=122,missing=122
						121:leaf=-0.0223718
						122:leaf=0.0058367
				30:[C_D_U_TITLEMD5_CITY_EC<0.624265] yes=61,no=62,missing=61
					61:[U_KEYWORD_MACRO_MEAN_COEC<0.025473] yes=123,no=124,missing=124
						123:leaf=0.011694
						124:leaf=0.0424613
					62:[U_CITY_EC<2313.43] yes=125,no=126,missing=126
						125:leaf=0.0581683
						126:leaf=0.0260086
booster[33]:
0:[C_D_U_TITLEMD5_CITY_EC<0.441734] yes=1,no=2,missing=1
	1:[C_D_U_CATEGORY_CITY_MACRO_MAX_COEC<0.072534] yes=3,no=4,missing=4
		3:[D_PUBLISHER_COEC<0.09143] yes=7,no=8,missing=7
			7:[D_TITLEMD5_C<2.87737] yes=15,no=16,missing=16
				15:[DOC_AGE<2] yes=31,no=32,missing=32
					31:[KW_REL<0.000181] yes=63,no=64,missing=64
						63:leaf=-0.0295522
						64:leaf=-0.00715465
					32:[U_CITY_COEC<0.07115] yes=65,no=66,missing=66
						65:leaf=-0.0491218
						66:leaf=-0.0309484
				16:[DOC_AGE<6] yes=33,no=34,missing=34
					33:[D_TITLEMD5_C<28.1214] yes=67,no=68,missing=67
						67:leaf=-0.0141907
						68:leaf=-0.00103953
					34:[U_CITY_COEC<0.055555] yes=69,no=70,missing=70
						69:leaf=-0.0318297
						70:leaf=-0.0187604
			8:[U_CITY_COEC<0.04749] yes=17,no=18,missing=18
				17:[C_D_U_CATEGORY_CITY_MAX_EC<8.95774] yes=35,no=36,missing=36
					35:[D_KEYWORD_MACRO_MEAN_COEC<0.108231] yes=71,no=72,missing=71
						71:leaf=-0.0219986
						72:leaf=-0.00726926
					36:[D_TITLEMD5_COEC<0.13935] yes=73,no=74,missing=74
						73:leaf=-0.0466505
						74:leaf=-0.0195769
				18:[DOC_AGE<7] yes=37,no=38,missing=38
					37:[CAT_REL<0.057167] yes=75,no=76,missing=76
						75:leaf=-0.00501979
						76:leaf=0.0124154
					38:[C_D_U_CATEGORY_AGE_MEAN_C<648.249] yes=77,no=78,missing=77
						77:leaf=-0.00849933
						78:leaf=-0.0263707
		4:[U_KW_LEN<750] yes=9,no=10,missing=10
			9:[D_KEYWORD_MACRO_MEAN_COEC<0.058653] yes=19,no=20,missing=20
				19:[C_D_U_KEYWORD_CATEGORY_MACRO_MEAN_COEC<0.047143] yes=39,no=40,missing=39
					39:[U_KEYWORD_MICRO_MAX_COEC<0.117426] yes=79,no=80,missing=80
						79:leaf=-0.0354175
						80:leaf=-0.0191958
					40:[U_KW_LEN<370] yes=81,no=82,missing=82
						81:leaf=-0.0102771
						82:leaf=0.0192426
				20:[DOC_AGE<4] yes=41,no=42,missing=42
					41:[IMAGE_COUNT<0.999999] yes=83,no=84,missing=84
						83:leaf=-0.0227127
						84:leaf=0.0048435
					42:[D_TITLEMD5_C<174.075] yes=85,no=86,missing=85
						85:leaf=-0.0107226
						86:leaf=-0.00188412
			10:[DOC_AGE<3] yes=21,no=22,missing=22
				21:[D_PUBLISHER_COEC<0.108071] yes=43,no=44,missing=43
					43:[U_KW_LEN<3944] yes=87,no=88,missing=88
						87:leaf=0.0126835
						88:leaf=0.0435488
					44:[C_D_U_CATEGORY_GENDER_MACRO_MAX_COEC<0.100716] yes=89,no=90,missing=90
						89:leaf=0.00522033
						90:leaf=0.0396415
				22:[C_D_U_TITLEMD5_CATEGORY_MEAN_C<0.058275] yes=45,no=46,missing=45
					45:[U_CATEGORY_MICRO_MAX_COEC<0.124685] yes=91,no=92,missing=92
						91:leaf=-0.0154164
						92:leaf=0.0104518
					46:[D_KEYWORD_MEAN_C<74.9075] yes=93,no=94,missing=94
						93:leaf=0.0142475
						94:leaf=-0.000520346
	2:[U_CITY_EC<142.69] yes=5,no=6,missing=6
		5:[D_TITLEMD5_EC<1133.11] yes=11,no=12,missing=12
			11:[U_CITY_EC<53.5847] yes=23,no=24,missing=24
				23:[DOC_AGE<12] yes=47,no=48,missing=48
					47:[C_D_U_TITLEMD5_CITY_EC<0.985074] yes=95,no=96,missing=96
						95:leaf=0.0588694
						96:leaf=0.119688
					48:[C_D_U_CATEGORY_CITY_MEAN_C<0.336988] yes=97,no=98,missing=97
						97:leaf=0.141131
						98:leaf=0.100862
				24:[C_D_U_TITLEMD5_CITY_EC<0.994999] yes=49,no=50,missing=50
					49:[DOC_AGE<12] yes=99,no=100,missing=100
						99:leaf=0.0252573
						100:leaf=0.0719499
					50:[C_D_U_TITLEMD5_CITY_EC<1.54851] yes=101,no=102,missing=102
						101:leaf=0.119976
						102:leaf=0.04656
			12:[U_CITY_EC<23.1306] yes=25,no=26,missing=26
				25:[D_TITLEMD5_EC<2623.94] yes=51,no=52,missing=52
					51:[C_D_U_TITLEMD5_CITY_EC<0.985074] yes=103,no=104,missing=104
						103:leaf=0.0940736
						104:leaf=0.138669
					52:[U_KEYWORD_MICRO_MEAN_COEC<0.087161] yes=105,no=106,missing=105
						105:leaf=0.0317618
						106:leaf=0.0695911
				26:[C_D_U_TITLEMD5_CITY_C<0.970372] yes=53,no=54,missing=54
					53:[C_D_U_TITLEMD5_CITY_EC<0.980149] yes=107,no=108,missing=108
						107:leaf=0.00472699
						108:leaf=0.0250692
					54:[C_D_U_TITLEMD5_CITY_C<1.27315] yes=109,no=110,missing=110
						109:leaf=0.0821062
						110:leaf=0.00777271
		6:[U_CITY_EC<1065.53] yes=13,no=14,missing=14
			13:[C_D_U_TITLEMD5_CITY_C<0.960692] yes=27,no=28,missing=28
				27:[D_TITLEMD5_EC<68.0005] yes=55,no=56,missing=56
					55:[DOC_AGE<24] yes=111,no=112,missing=112
						111:leaf=0.0615616
						112:leaf=0.157395
					56:[U_KW_LEN<936] yes=113,no=114,missing=114
						113:leaf=0.000853021
						114:leaf=0.0232325
				28:[D_TITLEMD5_EC<2010.51] yes=57,no=58,missing=58
					57:[DOC_AGE<12] yes=115,no=116,missing=116
						115:leaf=0.0461411
						116:leaf=0.102675
					58:[C_D_U_TITLEMD5_CITY_C<1.27315] yes=117,no=118,missing=118
						117:leaf=0.0272095
						118:leaf=0.00678768
			14:[C_D_U_TITLEMD5_CITY_C<0.936914] yes=29,no=30,missing=30
				29:[U_KW_LEN<1556] yes=59,no=60,missing=60
					59:[U_CITY_C<499.664] yes=119,no=120,missing=120
						119:leaf=-0.0066823
						120:leaf=-0.0172265
					60:[U_KEYWORD_MEAN_C<12.9366] yes=121,no=122,missing=122
						121:leaf=-0.0360531
						122:leaf=0.0116303
				30:[C_D_U_TITLEMD5_CATEGORY_MICRO_MAX_COEC<0.449113] yes=61,no=62,missing=61
					61:[U_CITY_EC<11916.1] yes=123,no=124,missing=124
						123:leaf=0.00337867
						124:leaf=-0.00642005
					62:[D_TITLEMD5_COEC<0.07988] yes=125,no=126,missing=126
						125:leaf=0.0937513
						126:leaf=0.0261815
booster[34]:
0:[KW_REL<0.002087] yes=1,no=2,missing=2
	1:[D_CATEGORY_MACRO_MAX_COEC<0.072809] yes=3,no=4,missing=4
		3:[D_TITLEMD5_C<3.73895] yes=7,no=8,missing=7
			7:[U_KEYWORD_MICRO_MAX_COEC<0.125199] yes=15,no=16,missing=15
				15:[C_D_U_TITLEMD5_CITY_C<0.946354] yes=31,no=32,missing=31
					31:[IMAGE_COUNT<0.999999] yes=63,no=64,missing=64
						63:leaf=-0.0440515
						64:leaf=-0.0269248
					32:[C_D_U_TITLEMD5_CATEGORY_MEAN_C<0.04815] yes=65,no=66,missing=66
						65:leaf=-0.0462498
						66:leaf=0.0923128
				16:[C_D_U_TITLEMD5_CITY_EC<0.704069] yes=33,no=34,missing=34
					33:[U_CITY_C<280.978] yes=67,no=68,missing=68
						67:leaf=0.123883
						68:leaf=0.0156884
					34:[U_CAT_LEN<12] yes=69,no=70,missing=70
						69:leaf=-0.0192233
						70:leaf=-0.000667629
			8:[C_D_U_CATEGORY_CITY_MICRO_MEAN_COEC<0.188853] yes=17,no=18,missing=17
				17:[D_KEYWORD_MEAN_C<81.2897] yes=35,no=36,missing=36
					35:[CAT_REL<0.035624] yes=71,no=72,missing=72
						71:leaf=-0.0104132
						72:leaf=0.00327469
					36:[U_KEYWORD_MEAN_EC<347.281] yes=73,no=74,missing=74
						73:leaf=-0.0315653
						74:leaf=-0.00983948
				18:[C_D_U_TITLEMD5_CITY_C<0.975248] yes=37,no=38,missing=37
					37:[C_D_U_CATEGORY_CITY_MEAN_C<0.832842] yes=75,no=76,missing=76
						75:leaf=-0.00193963
						76:leaf=0.0176935
					38:[C_D_U_CATEGORY_CITY_MAX_C<1.76255] yes=77,no=78,missing=78
						77:leaf=0.0983818
						78:leaf=0.00232517
		4:[WORD_COUNT<1315] yes=9,no=10,missing=10
			9:[D_CATEGORY_MEAN_EC<7393.4] yes=19,no=20,missing=19
				19:[C_D_U_PUBLISHER_CITY_COEC<0.155095] yes=39,no=40,missing=39
					39:[D_KEYWORD_MACRO_MAX_COEC<0.042327] yes=79,no=80,missing=80
						79:leaf=-0.00475902
						80:leaf=0.0124835
					40:[C_D_U_TITLEMD5_CITY_C<0.932229] yes=81,no=82,missing=81
						81:leaf=0.0141256
						82:leaf=0.0448229
				20:[D_TITLEMD5_C<500.966] yes=41,no=42,missing=42
					41:[D_KEYWORD_MAX_C<118.197] yes=83,no=84,missing=84
						83:leaf=-0.0132754
						84:leaf=-0.0308184
					42:[U_KEYWORD_MICRO_MAX_COEC<0.116513] yes=85,no=86,missing=86
						85:leaf=-0.0146542
						86:leaf=0.000645107
			10:[U_CITY_COEC<0.058963] yes=21,no=22,missing=22
				21:[C_D_U_TITLEMD5_CITY_EC<1.47505] yes=43,no=44,missing=44
					43:[C_D_U_TITLEMD5_CITY_C<0.970372] yes=87,no=88,missing=88
						87:leaf=0.00427
						88:leaf=0.0979168
					44:[C_D_U_PUBLISHER_CITY_COEC<0.075994] yes=89,no=90,missing=89
						89:leaf=-0.0190665
						90:leaf=-0.00466691
				22:[U_KEYWORD_MICRO_MAX_COEC<0.139727] yes=45,no=46,missing=45
					45:[TIME_OF_DAY<3] yes=91,no=92,missing=92
						91:leaf=-0.00913101
						92:leaf=0.000921329
					46:[D_KEYWORD_MEAN_EC<1061.14] yes=93,no=94,missing=94
						93:leaf=0.0137154
						94:leaf=0.00123315
	2:[D_KEYWORD_MEAN_EC<1615.75] yes=5,no=6,missing=6
		5:[U_KW_LEN<142] yes=11,no=12,missing=12
			11:[C_D_U_KEYWORD_CATEGORY_MACRO_MEAN_COEC<0.087264] yes=23,no=24,missing=23
				23:[D_TITLEMD5_C<13.6102] yes=47,no=48,missing=48
					47:[C_D_U_CATEGORY_CITY_MACRO_MEAN_COEC<0.13231] yes=95,no=96,missing=95
						95:leaf=-0.0302733
						96:leaf=0.00127569
					48:[U_CATEGORY_MAX_C<349.772] yes=97,no=98,missing=98
						97:leaf=0.0014995
						98:leaf=-0.0164322
				24:[D_CATEGORY_MEAN_EC<26984.3] yes=49,no=50,missing=49
					49:[WORD_COUNT<1315] yes=99,no=100,missing=100
						99:leaf=-0.00797507
						100:leaf=0.0210302
					50:[DOC_AGE<17] yes=101,no=102,missing=102
						101:leaf=-7.26316e-05
						102:leaf=-0.0169698
			12:[D_PUBLISHER_C<83.4198] yes=25,no=26,missing=25
				25:[U_CATEGORY_MEAN_C<1708.76] yes=51,no=52,missing=52
					51:[KW_REL<0.004811] yes=103,no=104,missing=104
						103:leaf=-0.013212
						104:leaf=0.020675
					52:[WORD_COUNT<5848] yes=105,no=106,missing=106
						105:leaf=-0.0947703
						106:leaf=0.0417438
				26:[U_KW_LEN<930] yes=53,no=54,missing=54
					53:[CAT_REL<0.142784] yes=107,no=108,missing=108
						107:leaf=0.00761879
						108:leaf=0.0243718
					54:[KW_REL<0.004413] yes=109,no=110,missing=110
						109:leaf=0.0212853
						110:leaf=0.0530436
		6:[KW_REL<0.00571] yes=13,no=14,missing=14
			13:[D_TITLEMD5_EC<2678.11] yes=27,no=28,missing=28
				27:[D_KEYWORD_MEAN_EC<2462.64] yes=55,no=56,missing=56
					55:[U_KEYWORD_MICRO_MAX_COEC<0.114986] yes=111,no=112,missing=112
						111:leaf=-0.0244674
						112:leaf=-0.00416757
					56:[KW_REL<0.003805] yes=113,no=114,missing=114
						113:leaf=-0.0376646
						114:leaf=-0.0190803
				28:[D_PUBLISHER_EC<57346.2] yes=57,no=58,missing=58
					57:[WORD_COUNT<11263] yes=115,no=116,missing=116
						115:leaf=0.0188425
						116:leaf=0.0607109
					58:[D_KEYWORD_MEAN_EC<3767.31] yes=117,no=118,missing=118
						117:leaf=0.00408961
						118:leaf=-0.0240241
			14:[U_KW_LEN<473] yes=29,no=30,missing=30
				29:[M_D_U_KEYWORD_KEYWORD_MACRO_MAX_COEC<0.002025] yes=59,no=60,missing=59
					59:[U_KW_LEN<142] yes=119,no=120,missing=120
						119:leaf=-0.0129854
						120:leaf=0.00603749
					60:[D_CATEGORY_MACRO_MEAN_COEC<0.087598] yes=121,no=122,missing=121
						121:leaf=0.0489626
						122:leaf=0.00300214
				30:[U_KEYWORD_MACRO_MAX_COEC<0.002388] yes=61,no=62,missing=62
					61:[U_KW_LEN<1148] yes=123,no=124,missing=124
						123:leaf=0.00549367
						124:leaf=0.0299075
					62:[DOC_AGE<16] yes=125,no=126,missing=126
						125:leaf=0.05134
						126:leaf=0.0252573
booster[35]:
0:[C_D_U_PUBLISHER_CITY_COEC<0.137589] yes=1,no=2,missing=1
	1:[D_TITLEMD5_C<8.79216] yes=3,no=4,missing=3
		3:[IMAGE_COUNT<0.999999] yes=7,no=8,missing=8
			7:[U_CATEGORY_MICRO_MAX_COEC<0.116086] yes=15,no=16,missing=15
				15:[C_D_U_TITLEMD5_CATEGORY_MICRO_MEAN_COEC<0.016389] yes=31,no=32,missing=31
					31:[C_D_U_CATEGORY_AGE_MICRO_MEAN_COEC<0.105395] yes=63,no=64,missing=64
						63:leaf=-0.0542515
						64:leaf=-0.0359396
					32:[U_KW_LEN<1204] yes=65,no=66,missing=66
						65:leaf=-0.0269809
						66:leaf=-0.00444113
				16:[U_KW_LEN<3872] yes=33,no=34,missing=34
					33:[C_D_U_TITLEMD5_CATEGORY_MEAN_EC<0.11515] yes=67,no=68,missing=67
						67:leaf=-0.0318183
						68:leaf=-0.00448593
					34:[U_CATEGORY_MACRO_MEAN_COEC<0.032189] yes=69,no=70,missing=70
						69:leaf=-0.0370421
						70:leaf=0.0546242
			8:[CAT_REL<0.043767] yes=17,no=18,missing=18
				17:[D_CATEGORY_MACRO_MAX_COEC<0.075432] yes=35,no=36,missing=36
					35:[D_KEYWORD_MACRO_MEAN_COEC<0.051006] yes=71,no=72,missing=72
						71:leaf=-0.0306244
						72:leaf=-0.0190334
					36:[DOC_AGE<3] yes=73,no=74,missing=74
						73:leaf=0.00289009
						74:leaf=-0.0148896
				18:[DOC_AGE<2] yes=37,no=38,missing=38
					37:[U_KW_LEN<657] yes=75,no=76,missing=76
						75:leaf=0.00479287
						76:leaf=0.0270415
					38:[U_KW_LEN<397] yes=77,no=78,missing=78
						77:leaf=-0.0204314
						78:leaf=-0.00207034
		4:[CAT_REL<0.027031] yes=9,no=10,missing=10
			9:[IMAGE_COUNT<2] yes=19,no=20,missing=20
				19:[C_D_U_TITLEMD5_AGE_COEC<0.130628] yes=39,no=40,missing=40
					39:[D_KEYWORD_MEAN_C<109.853] yes=79,no=80,missing=80
						79:leaf=-0.0144833
						80:leaf=-0.0331272
					40:[TIME_OF_DAY<10] yes=81,no=82,missing=82
						81:leaf=-0.0116577
						82:leaf=-0.00381662
				20:[U_CITY_COEC<0.105] yes=41,no=42,missing=42
					41:[C_D_U_TITLEMD5_CITY_EC<0.955889] yes=83,no=84,missing=83
						83:leaf=-0.00623176
						84:leaf=0.0019526
					42:[C_D_U_TITLEMD5_CITY_EC<1.27737] yes=85,no=86,missing=86
						85:leaf=0.0254748
						86:leaf=0.00456539
			10:[D_KEYWORD_MEAN_C<78.0872] yes=21,no=22,missing=22
				21:[U_KW_LEN<178] yes=43,no=44,missing=44
					43:[C_D_U_TITLEMD5_CATEGORY_MEAN_C<1.83001] yes=87,no=88,missing=88
						87:leaf=-0.00901256
						88:leaf=0.00866306
					44:[C_D_U_KEYWORD_CATEGORY_MACRO_MEAN_COEC<0.086919] yes=89,no=90,missing=90
						89:leaf=0.0103522
						90:leaf=0.0259548
				22:[M_D_U_KEYWORD_KEYWORD_MACRO_MEAN_COEC<0.000193] yes=45,no=46,missing=45
					45:[D_TITLEMD5_C<172.694] yes=91,no=92,missing=92
						91:leaf=-0.0179325
						92:leaf=0.00278739
					46:[U_KW_LEN<526] yes=93,no=94,missing=94
						93:leaf=-0.00106843
						94:leaf=0.0134129
	2:[C_D_U_CATEGORY_CITY_MICRO_MAX_COEC<0.401601] yes=5,no=6,missing=5
		5:[U_CATEGORY_MICRO_MAX_COEC<0.112836] yes=11,no=12,missing=11
			11:[TIME_OF_DAY<3] yes=23,no=24,missing=24
				23:[DAY_OF_WEEK<2] yes=47,no=48,missing=48
					47:[D_TITLEMD5_COEC<0.205229] yes=95,no=96,missing=96
						95:leaf=-0.00246954
						96:leaf=0.030304
					48:[U_KEYWORD_MICRO_MEAN_COEC<0.089554] yes=97,no=98,missing=98
						97:leaf=-0.0420571
						98:leaf=-0.0118385
				24:[DAY_OF_WEEK<3] yes=49,no=50,missing=50
					49:[U_KEYWORD_MICRO_MAX_COEC<0.110194] yes=99,no=100,missing=100
						99:leaf=-0.00445787
						100:leaf=0.0119447
					50:[WORD_COUNT<1654] yes=101,no=102,missing=102
						101:leaf=-0.00640818
						102:leaf=0.00257128
			12:[U_KW_LEN<3872] yes=25,no=26,missing=26
				25:[C_D_U_CATEGORY_AGE_MAX_EC<3232.1] yes=51,no=52,missing=51
					51:[U_KEYWORD_MICRO_MAX_COEC<0.139728] yes=103,no=104,missing=103
						103:leaf=0.0123729
						104:leaf=0.0270726
					52:[C_D_U_TITLEMD5_CITY_C<0.946354] yes=105,no=106,missing=105
						105:leaf=-0.00346159
						106:leaf=0.0203014
				26:[D_KEYWORD_MAX_EC<93.529] yes=53,no=54,missing=54
					53:[C_D_U_CATEGORY_CITY_MEAN_C<25.4977] yes=107,no=108,missing=108
						107:leaf=0.0658876
						108:leaf=0.12895
					54:[D_KEYWORD_MEAN_C<288.412] yes=109,no=110,missing=110
						109:leaf=0.0395939
						110:leaf=-0.0232926
		6:[C_D_U_TITLEMD5_CITY_C<0.975248] yes=13,no=14,missing=13
			13:[C_D_U_CATEGORY_CITY_MEAN_C<3.89536] yes=27,no=28,missing=28
				27:[U_CITY_COEC<0.258422] yes=55,no=56,missing=56
					55:[TIME_OF_DAY<0.999999] yes=111,no=112,missing=112
						111:leaf=-0.0370817
						112:leaf=0.0117352
					56:[C_D_U_PUBLISHER_CITY_C<0.655217] yes=113,no=114,missing=114
						113:leaf=0.0090831
						114:leaf=0.0436929
				28:[C_D_U_TITLEMD5_CITY_COEC<0.130698] yes=57,no=58,missing=57
					57:[D_KEYWORD_MEAN_C<43.5968] yes=115,no=116,missing=116
						115:leaf=0.106935
						116:leaf=0.0530257
					58:[D_KEYWORD_MAX_EC<2653.26] yes=117,no=118,missing=118
						117:leaf=-0.0319262
						118:leaf=0.0779433
			14:[C_D_U_TITLEMD5_CITY_C<1.24235] yes=29,no=30,missing=30
				29:[U_CITY_EC<415.528] yes=59,no=60,missing=60
					59:[TIME_OF_DAY<0.999999] yes=119,no=120,missing=120
						119:leaf=0.000388397
						120:leaf=0.0972089
					60:[D_PUBLISHER_COEC<0.142457] yes=121,no=122,missing=122
						121:leaf=0.0319324
						122:leaf=-0.103466
				30:[D_CATEGORY_MEAN_C<1138.38] yes=61,no=62,missing=62
					61:[U_CATEGORY_MACRO_MAX_COEC<0.014466] yes=123,no=124,missing=124
						123:leaf=0.0512186
						124:leaf=-0.0424772
					62:[D_PUBLISHER_C<1752.89] yes=125,no=126,missing=126
						125:leaf=0.0829558
						126:leaf=0.00355242
booster[36]:
0:[U_KEYWORD_MICRO_MAX_COEC<0.117635] yes=1,no=2,missing=1
	1:[D_TITLEMD5_C<39.8926] yes=3,no=4,missing=3
		3:[U_KW_LEN<2121] yes=7,no=8,missing=8
			7:[IMAGE_COUNT<0.999999] yes=15,no=16,missing=16
				15:[D_TITLEMD5_C<1.98502] yes=31,no=32,missing=31
					31:[U_CITY_COEC<0.035417] yes=63,no=64,missing=64
						63:leaf=-0.0776363
						64:leaf=-0.0423196
					32:[D_KEYWORD_MAX_EC<301.603] yes=65,no=66,missing=66
						65:leaf=-0.0191851
						66:leaf=-0.0325123
				16:[DOC_AGE<4] yes=33,no=34,missing=34
					33:[D_CATEGORY_MACRO_MAX_COEC<0.06067] yes=67,no=68,missing=68
						67:leaf=-0.0137112
						68:leaf=-0.0021152
					34:[C_D_U_TITLEMD5_CITY_C<0.936914] yes=69,no=70,missing=69
						69:leaf=-0.0165052
						70:leaf=0.0224921
			8:[U_CATEGORY_MICRO_MAX_COEC<0.120414] yes=17,no=18,missing=18
				17:[U_KEYWORD_MEAN_C<12.9512] yes=35,no=36,missing=36
					35:[U_CATEGORY_MICRO_MEAN_COEC<0.080393] yes=71,no=72,missing=72
						71:leaf=-0.0681198
						72:leaf=-0.0201419
					36:[U_CITY_COEC<0.074745] yes=73,no=74,missing=74
						73:leaf=-0.0208899
						74:leaf=0.0148148
				18:[U_CAT_LEN<39] yes=37,no=38,missing=38
					37:[C_D_U_CATEGORY_CITY_MACRO_MEAN_COEC<0.08939] yes=75,no=76,missing=76
						75:leaf=0.0173461
						76:leaf=0.0481672
					38:[U_KEYWORD_MAX_C<4.47564] yes=77,no=78,missing=78
						77:leaf=-0.016141
						78:leaf=-0.0896213
		4:[U_CATEGORY_MEAN_C<681.413] yes=9,no=10,missing=9
			9:[KW_REL<0.002769] yes=19,no=20,missing=20
				19:[TIME_OF_DAY<10] yes=39,no=40,missing=40
					39:[D_TITLEMD5_COEC<0.167855] yes=79,no=80,missing=80
						79:leaf=-0.00898042
						80:leaf=0.0025106
					40:[U_CITY_COEC<0.048493] yes=81,no=82,missing=82
						81:leaf=-0.0121174
						82:leaf=0.00211512
				20:[D_KEYWORD_MEAN_EC<1714.7] yes=41,no=42,missing=42
					41:[U_KW_LEN<668] yes=83,no=84,missing=84
						83:leaf=0.0139045
						84:leaf=0.033512
					42:[KW_REL<0.004804] yes=85,no=86,missing=86
						85:leaf=-0.012373
						86:leaf=0.0155627
			10:[C_D_U_TITLEMD5_CATEGORY_MACRO_MEAN_COEC<0.12655] yes=21,no=22,missing=22
				21:[D_CATEGORY_MICRO_MEAN_COEC<0.088951] yes=43,no=44,missing=43
					43:[M_D_U_KEYWORD_KEYWORD_MICRO_MAX_COEC<0.132392] yes=87,no=88,missing=87
						87:leaf=-0.0111871
						88:leaf=0.0102826
					44:[TIME_OF_DAY<3] yes=89,no=90,missing=90
						89:leaf=-0.0366168
						90:leaf=-0.0187968
				22:[DAY_OF_WEEK<0.999999] yes=45,no=46,missing=46
					45:[D_TITLEMD5_COEC<0.281337] yes=91,no=92,missing=92
						91:leaf=0.00598061
						92:leaf=-0.140734
					46:[C_D_U_PUBLISHER_AGE_EC<29217.7] yes=93,no=94,missing=94
						93:leaf=0.00392231
						94:leaf=-0.011416
	2:[C_D_U_CATEGORY_AGE_MACRO_MAX_COEC<0.112218] yes=5,no=6,missing=6
		5:[CAT_REL<0.041658] yes=11,no=12,missing=12
			11:[C_D_U_TITLEMD5_CITY_EC<0.955889] yes=23,no=24,missing=23
				23:[U_CITY_COEC<0.132579] yes=47,no=48,missing=48
					47:[DOC_AGE<4] yes=95,no=96,missing=96
						95:leaf=-0.0102484
						96:leaf=-0.0262682
					48:[U_CATEGORY_MEAN_EC<1512.23] yes=97,no=98,missing=98
						97:leaf=0.0277311
						98:leaf=-0.00978693
				24:[C_D_U_CATEGORY_CITY_MEAN_EC<9.47979] yes=49,no=50,missing=50
					49:[U_CITY_EC<38.2192] yes=99,no=100,missing=100
						99:leaf=0.107262
						100:leaf=0.0297184
					50:[C_D_U_CATEGORY_CITY_MEAN_C<11.639] yes=101,no=102,missing=102
						101:leaf=0.00150974
						102:leaf=-0.012039
			12:[KW_REL<0.001453] yes=25,no=26,missing=26
				25:[C_D_U_TITLEMD5_CITY_EC<0.932229] yes=51,no=52,missing=51
					51:[D_KEYWORD_MEAN_EC<381.225] yes=103,no=104,missing=104
						103:leaf=-0.000764746
						104:leaf=-0.0158165
					52:[U_CITY_EC<257.262] yes=105,no=106,missing=106
						105:leaf=0.0571829
						106:leaf=0.00365412
				26:[D_KEYWORD_MEAN_EC<1291.01] yes=53,no=54,missing=54
					53:[C_D_U_CATEGORY_CITY_MACRO_MEAN_COEC<0.135851] yes=107,no=108,missing=107
						107:leaf=0.0135575
						108:leaf=0.0351171
					54:[DOC_AGE<13] yes=109,no=110,missing=110
						109:leaf=0.00999196
						110:leaf=-0.00923939
		6:[U_KW_LEN<115] yes=13,no=14,missing=14
			13:[TIME_OF_DAY<5] yes=27,no=28,missing=28
				27:[U_CATEGORY_MAX_C<130.768] yes=55,no=56,missing=56
					55:[U_KEYWORD_MACRO_MEAN_COEC<0.056365] yes=111,no=112,missing=112
						111:leaf=0.0253123
						112:leaf=0.185324
					56:[U_KEYWORD_MACRO_MEAN_COEC<0.050309] yes=113,no=114,missing=114
						113:leaf=-0.0263863
						114:leaf=-0.010778
				28:[U_KEYWORD_MACRO_MEAN_COEC<0.043564] yes=57,no=58,missing=58
					57:[U_CATEGORY_MICRO_MEAN_COEC<0.088591] yes=115,no=116,missing=116
						115:leaf=-0.0127957
						116:leaf=-0.0506575
					58:[U_KW_LEN<50] yes=117,no=118,missing=118
						117:leaf=-0.0247767
						118:leaf=0.00112659
			14:[U_KEYWORD_MICRO_MAX_COEC<0.196335] yes=29,no=30,missing=30
				29:[U_KEYWORD_MEAN_EC<265.908] yes=59,no=60,missing=60
					59:[DAY_OF_WEEK<4] yes=119,no=120,missing=120
						119:leaf=0.00668804
						120:leaf=-0.00838744
					60:[D_PUBLISHER_COEC<0.08461] yes=121,no=122,missing=121
						121:leaf=0.00145051
						122:leaf=0.0118244
				30:[C_D_U_CATEGORY_CITY_MICRO_MEAN_COEC<0.258317] yes=61,no=62,missing=61
					61:[U_KW_LEN<706] yes=123,no=124,missing=124
						123:leaf=0.0164523
						124:leaf=0.0390589
					62:[C_D_U_CATEGORY_CITY_MEAN_C<1.63944] yes=125,no=126,missing=126
						125:leaf=0.0346995
						126:leaf=0.0756114
booster[37]:
0:[C_D_U_CATEGORY_CITY_MACRO_MEAN_COEC<0.201425] yes=1,no=2,missing=1
	1:[C_D_U_TITLEMD5_CITY_EC<0.946354] yes=3,no=4,missing=3
		3:[D_PUBLISHER_COEC<0.083629] yes=7,no=8,missing=7
			7:[KW_REL<0.003511] yes=15,no=16,missing=16
				15:[D_TITLEMD5_C<1.98005] yes=31,no=32,missing=31
					31:[D_CATEGORY_MEAN_EC<46326.4] yes=63,no=64,missing=64
						63:leaf=-0.0263801
						64:leaf=-0.0115764
					32:[D_KEYWORD_MEAN_EC<1108.27] yes=65,no=66,missing=66
						65:leaf=-0.00780401
						66:leaf=-0.0206177
				16:[M_D_U_KEYWORD_KEYWORD_MICRO_MAX_COEC<0.195023] yes=33,no=34,missing=33
					33:[D_KEYWORD_MEAN_C<114.833] yes=67,no=68,missing=68
						67:leaf=0.0101444
						68:leaf=-0.00793105
					34:[D_CATEGORY_MACRO_MAX_COEC<0.060257] yes=69,no=70,missing=69
						69:leaf=0.0451315
						70:leaf=0.0193252
			8:[DOC_AGE<4] yes=17,no=18,missing=18
				17:[U_CATEGORY_MICRO_MAX_COEC<0.116249] yes=35,no=36,missing=35
					35:[D_TITLEMD5_COEC<0.208455] yes=71,no=72,missing=72
						71:leaf=0.000522649
						72:leaf=0.0132877
					36:[D_KEYWORD_MICRO_MEAN_COEC<0.097641] yes=73,no=74,missing=74
						73:leaf=0.0317167
						74:leaf=0.0148833
				18:[C_D_U_TITLEMD5_AGE_C<25.8861] yes=37,no=38,missing=38
					37:[D_KEYWORD_MAX_EC<153.178] yes=75,no=76,missing=76
						75:leaf=-0.00653005
						76:leaf=-0.0229948
					38:[D_KEYWORD_MEAN_EC<3783.68] yes=77,no=78,missing=78
						77:leaf=-0.00298819
						78:leaf=-0.0228206
		4:[U_CITY_EC<418.404] yes=9,no=10,missing=10
			9:[D_TITLEMD5_EC<801.198] yes=19,no=20,missing=20
				19:[C_D_U_TITLEMD5_CITY_EC<0.985074] yes=39,no=40,missing=40
					39:[DOC_AGE<14] yes=79,no=80,missing=80
						79:leaf=0.019191
						80:leaf=0.101963
					40:[U_CITY_EC<113.831] yes=81,no=82,missing=82
						81:leaf=0.106673
						82:leaf=0.0613398
				20:[U_CITY_EC<43.7979] yes=41,no=42,missing=42
					41:[D_TITLEMD5_EC<5734.77] yes=83,no=84,missing=84
						83:leaf=0.0767517
						84:leaf=0.0277212
					42:[U_KEYWORD_MICRO_MEAN_COEC<0.087834] yes=85,no=86,missing=85
						85:leaf=0.00245032
						86:leaf=0.0225737
			10:[CAT_REL<0.018994] yes=21,no=22,missing=22
				21:[U_CITY_EC<2811.8] yes=43,no=44,missing=44
					43:[U_CITY_COEC<0.052047] yes=87,no=88,missing=88
						87:leaf=-0.0257609
						88:leaf=0.00234904
					44:[C_D_U_TITLEMD5_CITY_C<0.980149] yes=89,no=90,missing=90
						89:leaf=-0.0121267
						90:leaf=-0.00269399
				22:[U_KW_LEN<822] yes=45,no=46,missing=46
					45:[U_KEYWORD_MICRO_MAX_COEC<0.115446] yes=91,no=92,missing=91
						91:leaf=-0.00671842
						92:leaf=0.00578678
					46:[D_KEYWORD_MEAN_EC<519.246] yes=93,no=94,missing=94
						93:leaf=0.0297547
						94:leaf=0.010023
	2:[C_D_U_CATEGORY_CITY_MEAN_C<0.975248] yes=5,no=6,missing=6
		5:[C_D_U_TITLEMD5_CITY_EC<0.636908] yes=11,no=12,missing=11
			11:[C_D_U_TITLEMD5_CITY_C<0.653072] yes=23,no=24,missing=23
				23:[C_D_U_TITLEMD5_CITY_COEC<0.999999] yes=47,no=48,missing=47
					47:[CAT_REL<0.064069] yes=95,no=96,missing=96
						95:leaf=-0.0107232
						96:leaf=0.00278827
					48:[KW_REL<0.004146] yes=97,no=98,missing=98
						97:leaf=-0.0364965
						98:leaf=-0.185724
				24:[TIME_OF_DAY<4] yes=49,no=50,missing=50
					49:[C_D_U_TITLEMD5_CITY_C<0.891108] yes=99,no=100,missing=100
						99:leaf=-0.150874
						100:leaf=0.0979179
					50:[D_KEYWORD_MICRO_MEAN_COEC<0.120476] yes=101,no=102,missing=102
						101:leaf=0.13725
						102:leaf=0.0351763
			12:[TIME_OF_DAY<5] yes=25,no=26,missing=26
				25:[KW_REL<0.004146] yes=51,no=52,missing=52
					51:[CAT_REL<0.014667] yes=103,no=104,missing=104
						103:leaf=-0.0149219
						104:leaf=0.0350856
					52:[M_D_U_KEYWORD_KEYWORD_MEAN_EC<0.130436] yes=105,no=106,missing=105
						105:leaf=-0.165012
						106:leaf=0.0269213
				26:[U_CITY_C<6.89106] yes=53,no=54,missing=54
					53:[D_TITLEMD5_C<409.867] yes=107,no=108,missing=108
						107:leaf=0.0934232
						108:leaf=0.0282418
					54:[D_TITLEMD5_C<25.5196] yes=109,no=110,missing=110
						109:leaf=0.0676126
						110:leaf=0.015414
		6:[C_D_U_CATEGORY_CITY_MICRO_MAX_COEC<0.402686] yes=13,no=14,missing=14
			13:[U_CAT_LEN<29] yes=27,no=28,missing=28
				27:[CAT_REL<0.077703] yes=55,no=56,missing=56
					55:[C_D_U_CATEGORY_CITY_MEAN_C<1.0253] yes=111,no=112,missing=112
						111:leaf=0.0400547
						112:leaf=0.0039652
					56:[C_D_U_TITLEMD5_CITY_EC<0.932229] yes=113,no=114,missing=113
						113:leaf=0.0158972
						114:leaf=0.0407145
				28:[U_CATEGORY_MACRO_MAX_COEC<0.009864] yes=57,no=58,missing=58
					57:[U_KEYWORD_MAX_C<6.6098] yes=115,no=116,missing=116
						115:leaf=0.0627152
						116:leaf=0.0115571
					58:[C_D_U_TITLEMD5_GENDER_COEC<0.183184] yes=117,no=118,missing=118
						117:leaf=-0.145027
						118:leaf=0.089135
			14:[C_D_U_CATEGORY_CITY_MEAN_C<1.0253] yes=29,no=30,missing=30
				29:[C_D_U_TITLEMD5_CITY_C<0.990024] yes=59,no=60,missing=59
					59:[U_CATEGORY_MACRO_MAX_COEC<0.019296] yes=119,no=120,missing=120
						119:leaf=0.0256569
						120:leaf=0.059271
					60:[U_CITY_EC<1288.32] yes=121,no=122,missing=122
						121:leaf=0.108873
						122:leaf=-0.0804488
				30:[U_CITY_COEC<0.258047] yes=61,no=62,missing=62
					61:[C_D_U_CATEGORY_CITY_MICRO_MEAN_COEC<0.202064] yes=123,no=124,missing=124
						123:leaf=-0.00744885
						124:leaf=0.0289055
					62:[D_TITLEMD5_C<27.5041] yes=125,no=126,missing=125
						125:leaf=0.0730674
						126:leaf=0.0420759
booster[38]:
0:[U_CITY_COEC<0.176497] yes=1,no=2,missing=1
	1:[C_D_U_TITLEMD5_CITY_EC<0.437328] yes=3,no=4,missing=3
		3:[C_D_U_CATEGORY_CITY_MACRO_MAX_COEC<0.058051] yes=7,no=8,missing=8
			7:[C_D_U_TITLEMD5_AGE_COEC<0.088952] yes=15,no=16,missing=16
				15:[CAT_REL<0.083771] yes=31,no=32,missing=32
					31:[DOC_AGE<3] yes=63,no=64,missing=64
						63:leaf=-0.0181529
						64:leaf=-0.0390264
					32:[D_CATEGORY_MAX_C<2592.08] yes=65,no=66,missing=66
						65:leaf=-0.00328975
						66:leaf=-0.0275652
				16:[D_KEYWORD_MACRO_MEAN_COEC<0.059162] yes=33,no=34,missing=34
					33:[KW_REL<0.002187] yes=67,no=68,missing=68
						67:leaf=-0.0233422
						68:leaf=-0.00159929
					34:[DOC_AGE<8] yes=69,no=70,missing=70
						69:leaf=-0.00412873
						70:leaf=-0.0144264
			8:[DOC_AGE<7] yes=17,no=18,missing=18
				17:[CAT_REL<0.001196] yes=35,no=36,missing=36
					35:[D_KEYWORD_MACRO_MEAN_COEC<0.067621] yes=71,no=72,missing=72
						71:leaf=-0.0124971
						72:leaf=-0.000283541
					36:[C_D_U_KEYWORD_CATEGORY_MICRO_MAX_COEC<0.190657] yes=73,no=74,missing=74
						73:leaf=-0.00491146
						74:leaf=0.0110487
				18:[D_TITLEMD5_EC<667.558] yes=37,no=38,missing=37
					37:[C_D_U_TITLEMD5_CITY_C<0.886653] yes=75,no=76,missing=75
						75:leaf=-0.0125558
						76:leaf=0.1803
					38:[U_KW_LEN<450] yes=77,no=78,missing=78
						77:leaf=-0.00584156
						78:leaf=0.00376735
		4:[U_CITY_EC<504.891] yes=9,no=10,missing=10
			9:[D_TITLEMD5_EC<594.134] yes=19,no=20,missing=20
				19:[U_CITY_EC<129.671] yes=39,no=40,missing=40
					39:[DOC_AGE<12] yes=79,no=80,missing=80
						79:leaf=0.0593862
						80:leaf=0.101413
					40:[C_D_U_TITLEMD5_CITY_EC<0.994999] yes=81,no=82,missing=82
						81:leaf=0.0214564
						82:leaf=0.0715997
				20:[C_D_U_TITLEMD5_CITY_C<0.970372] yes=41,no=42,missing=42
					41:[U_CITY_EC<44.9803] yes=83,no=84,missing=84
						83:leaf=0.0377071
						84:leaf=0.00459369
					42:[C_D_U_TITLEMD5_CITY_C<1.29024] yes=85,no=86,missing=86
						85:leaf=0.0607058
						86:leaf=0.0121243
			10:[U_CATEGORY_MICRO_MAX_COEC<0.116249] yes=21,no=22,missing=21
				21:[C_D_U_TITLEMD5_CITY_C<0.975248] yes=43,no=44,missing=44
					43:[U_CITY_EC<2896.62] yes=87,no=88,missing=88
						87:leaf=-0.0030693
						88:leaf=-0.0114584
					44:[C_D_U_TITLEMD5_CITY_EC<2.67682] yes=89,no=90,missing=90
						89:leaf=0.0240348
						90:leaf=-0.000204001
				22:[U_KW_LEN<4040] yes=45,no=46,missing=46
					45:[U_KEYWORD_MICRO_MAX_COEC<0.136153] yes=91,no=92,missing=91
						91:leaf=0.00273137
						92:leaf=0.0171294
					46:[TIME_OF_DAY<7] yes=93,no=94,missing=94
						93:leaf=0.0143606
						94:leaf=0.0615349
	2:[C_D_U_TITLEMD5_CITY_COEC<0.246503] yes=5,no=6,missing=6
		5:[C_D_U_TITLEMD5_CATEGORY_MEAN_EC<7.06031] yes=11,no=12,missing=12
			11:[U_CITY_EC<129.671] yes=23,no=24,missing=24
				23:[D_TITLEMD5_C<102.23] yes=47,no=48,missing=48
					47:[C_D_U_CATEGORY_CITY_MEAN_EC<1.8165] yes=95,no=96,missing=96
						95:leaf=0.138609
						96:leaf=0.10553
					48:[C_D_U_KEYWORD_CATEGORY_MICRO_MAX_COEC<0.180357] yes=97,no=98,missing=98
						97:leaf=-0.0369082
						98:leaf=0.0765723
				24:[U_CAT_LEN<20] yes=49,no=50,missing=50
					49:[U_KEYWORD_MACRO_MAX_COEC<0.001694] yes=99,no=100,missing=100
						99:leaf=-0.0609008
						100:leaf=0.0465948
					50:[C_D_U_TITLEMD5_GENDER_EC<40.6975] yes=101,no=102,missing=101
						101:leaf=0.107143
						102:leaf=-0.00659578
			12:[U_CITY_EC<37.8478] yes=25,no=26,missing=26
				25:[C_D_U_KEYWORD_CATEGORY_MACRO_MAX_COEC<0.013711] yes=51,no=52,missing=52
					51:[U_CITY_EC<23.7602] yes=103,no=104,missing=104
						103:leaf=0.11054
						104:leaf=0.0646727
					52:[U_CITY_COEC<0.258699] yes=105,no=106,missing=106
						105:leaf=0.0270259
						106:leaf=0.0796772
				26:[U_KW_LEN<358] yes=53,no=54,missing=54
					53:[C_D_U_TITLEMD5_CITY_EC<0.970372] yes=107,no=108,missing=108
						107:leaf=-0.00546301
						108:leaf=0.0243707
					54:[U_KEYWORD_MICRO_MEAN_COEC<0.094127] yes=109,no=110,missing=110
						109:leaf=-0.0142516
						110:leaf=0.0588913
		6:[C_D_U_PUBLISHER_CITY_C<0.88454] yes=13,no=14,missing=13
			13:[C_D_U_CATEGORY_CITY_MEAN_C<1.82226] yes=27,no=28,missing=27
				27:[U_CITY_COEC<0.258699] yes=55,no=56,missing=56
					55:[DAY_OF_WEEK<2] yes=111,no=112,missing=112
						111:leaf=0.008708
						112:leaf=-0.006824
					56:[U_KEYWORD_MEAN_C<15.5391] yes=113,no=114,missing=114
						113:leaf=-0.0132531
						114:leaf=0.0181465
				28:[C_D_U_PUBLISHER_CITY_C<0.288485] yes=57,no=58,missing=57
					57:[C_D_U_CATEGORY_CITY_MACRO_MAX_COEC<0.34488] yes=115,no=116,missing=116
						115:leaf=0.0256336
						116:leaf=0.0658179
					58:[U_KW_LEN<271] yes=117,no=118,missing=118
						117:leaf=-0.0246474
						118:leaf=0.0107686
			14:[C_D_U_CATEGORY_CITY_MICRO_MAX_COEC<0.56151] yes=29,no=30,missing=30
				29:[C_D_U_KEYWORD_CATEGORY_MEAN_C<0.118694] yes=59,no=60,missing=60
					59:[TIME_OF_DAY<3] yes=119,no=120,missing=120
						119:leaf=0.00285211
						120:leaf=0.0502416
					60:[C_D_U_PUBLISHER_CITY_COEC<0.329164] yes=121,no=122,missing=122
						121:leaf=-0.000158042
						122:leaf=0.0202811
				30:[C_D_U_TITLEMD5_CITY_C<0.927568] yes=61,no=62,missing=62
					61:[TIME_OF_DAY<4] yes=123,no=124,missing=124
						123:leaf=-0.0739698
						124:leaf=0.00919904
					62:[D_PUBLISHER_EC<60222.7] yes=125,no=126,missing=126
						125:leaf=0.0648562
						126:leaf=0.0360836
booster[39]:
0:[U_KEYWORD_MICRO_MAX_COEC<0.140224] yes=1,no=2,missing=1
	1:[D_TITLEMD5_C<43.0795] yes=3,no=4,missing=3
		3:[U_KW_LEN<1303] yes=7,no=8,missing=8
			7:[IMAGE_COUNT<0.999999] yes=15,no=16,missing=16
				15:[D_TITLEMD5_C<1.98502] yes=31,no=32,missing=31
					31:[D_PUBLISHER_COEC<0.040802] yes=63,no=64,missing=63
						63:leaf=-0.0506343
						64:leaf=-0.0333902
					32:[CAT_REL<0.089541] yes=65,no=66,missing=66
						65:leaf=-0.0233626
						66:leaf=-0.00661328
				16:[DOC_AGE<4] yes=33,no=34,missing=34
					33:[M_D_U_KEYWORD_KEYWORD_MACRO_MEAN_COEC<0.00083] yes=67,no=68,missing=67
						67:leaf=-0.00398886
						68:leaf=0.0232307
					34:[C_D_U_TITLEMD5_CITY_C<0.918243] yes=69,no=70,missing=69
						69:leaf=-0.013526
						70:leaf=0.0206435
			8:[U_CITY_COEC<0.068734] yes=17,no=18,missing=18
				17:[C_D_U_CATEGORY_AGE_MAX_EC<14285.2] yes=35,no=36,missing=36
					35:[CAT_REL<0.074286] yes=71,no=72,missing=72
						71:leaf=-0.0525128
						72:leaf=-0.00136574
					36:[U_CATEGORY_MICRO_MAX_COEC<0.145286] yes=73,no=74,missing=74
						73:leaf=-0.0119501
						74:leaf=0.0832976
				18:[D_KEYWORD_MEAN_EC<423.069] yes=37,no=38,missing=38
					37:[U_CATEGORY_MICRO_MEAN_COEC<0.089184] yes=75,no=76,missing=76
						75:leaf=0.00317666
						76:leaf=0.024092
					38:[KW_REL<0.002967] yes=77,no=78,missing=78
						77:leaf=-0.0102815
						78:leaf=0.016738
		4:[U_KW_LEN<1153] yes=9,no=10,missing=10
			9:[DOC_AGE<3] yes=19,no=20,missing=20
				19:[D_CATEGORY_MACRO_MEAN_COEC<0.152374] yes=39,no=40,missing=39
					39:[D_KEYWORD_MICRO_MAX_COEC<0.213441] yes=79,no=80,missing=80
						79:leaf=0.00837637
						80:leaf=0.0231814
					40:[D_KEYWORD_MACRO_MAX_COEC<0.018697] yes=81,no=82,missing=82
						81:leaf=-0.0843684
						82:leaf=-0.00673594
				20:[C_D_U_TITLEMD5_CATEGORY_MEAN_C<1.85976] yes=41,no=42,missing=42
					41:[D_KEYWORD_MEAN_C<115.47] yes=83,no=84,missing=84
						83:leaf=-0.00400942
						84:leaf=-0.020222
					42:[TIME_OF_DAY<3] yes=85,no=86,missing=86
						85:leaf=-0.0088108
						86:leaf=0.000514387
			10:[D_KEYWORD_MEAN_C<81.8694] yes=21,no=22,missing=22
				21:[KW_REL<0.001197] yes=43,no=44,missing=44
					43:[CAT_REL<0.000987] yes=87,no=88,missing=88
						87:leaf=0.00221791
						88:leaf=0.0191562
					44:[U_KW_LEN<2447] yes=89,no=90,missing=90
						89:leaf=0.0221636
						90:leaf=0.0403911
				22:[C_D_U_TITLEMD5_CATEGORY_MEAN_C<0.989424] yes=45,no=46,missing=46
					45:[M_D_U_KEYWORD_KEYWORD_MACRO_MEAN_COEC<0.000133] yes=91,no=92,missing=91
						91:leaf=-0.0175568
						92:leaf=0.00850674
					46:[C_D_U_TITLEMD5_CATEGORY_MEAN_C<4.0964] yes=93,no=94,missing=94
						93:leaf=0.0109928
						94:leaf=0.0306435
	2:[U_KEYWORD_MICRO_MAX_COEC<0.326772] yes=5,no=6,missing=6
		5:[U_CAT_LEN<12] yes=11,no=12,missing=12
			11:[TIME_OF_DAY<3] yes=23,no=24,missing=24
				23:[D_TITLEMD5_C<66.2832] yes=47,no=48,missing=48
					47:[U_KEYWORD_MAX_EC<91.2208] yes=95,no=96,missing=96
						95:leaf=-0.0220078
						96:leaf=-0.00649906
					48:[DAY_OF_WEEK<3] yes=97,no=98,missing=98
						97:leaf=0.00607861
						98:leaf=-0.00769706
				24:[C_D_U_CATEGORY_AGE_MICRO_MEAN_COEC<0.122168] yes=49,no=50,missing=50
					49:[C_D_U_TITLEMD5_CITY_C<0.936914] yes=99,no=100,missing=99
						99:leaf=-0.0054852
						100:leaf=0.0151429
					50:[U_KEYWORD_MICRO_MEAN_COEC<0.11316] yes=101,no=102,missing=102
						101:leaf=0.00661012
						102:leaf=0.0335743
			12:[U_KW_LEN<1644] yes=25,no=26,missing=26
				25:[C_D_U_CATEGORY_AGE_MACRO_MEAN_COEC<0.112145] yes=51,no=52,missing=52
					51:[D_KEYWORD_MAX_EC<286.394] yes=103,no=104,missing=104
						103:leaf=0.0114343
						104:leaf=-0.00643636
					52:[U_KEYWORD_MICRO_MAX_COEC<0.160301] yes=105,no=106,missing=106
						105:leaf=0.0102296
						106:leaf=0.022219
				26:[U_KEYWORD_MACRO_MAX_COEC<0.001867] yes=53,no=54,missing=54
					53:[U_KEYWORD_MAX_EC<61.8524] yes=107,no=108,missing=108
						107:leaf=0.0489227
						108:leaf=0.0033414
					54:[U_CITY_COEC<0.097892] yes=109,no=110,missing=109
						109:leaf=0.122986
						110:leaf=0.0123834
		6:[U_KW_LEN<157] yes=13,no=14,missing=14
			13:[U_KEYWORD_MACRO_MEAN_COEC<0.07231] yes=27,no=28,missing=28
				27:[U_CAT_LEN<6] yes=55,no=56,missing=56
					55:[C_D_U_TITLEMD5_CATEGORY_MEAN_C<2.75401] yes=111,no=112,missing=111
						111:leaf=-0.00722243
						112:leaf=0.0203019
					56:[U_KEYWORD_MAX_C<2.12589] yes=113,no=114,missing=114
						113:leaf=0.135479
						114:leaf=0.0247564
				28:[U_KEYWORD_MICRO_MEAN_COEC<0.085735] yes=57,no=58,missing=58
					57:[U_CITY_EC<82.5174] yes=115,no=116,missing=115
						115:leaf=-0.107339
						116:leaf=0.0648903
					58:[U_CATEGORY_MICRO_MEAN_COEC<0.08631] yes=117,no=118,missing=117
						117:leaf=0.0829479
						118:leaf=0.0279663
			14:[U_KEYWORD_MACRO_MEAN_COEC<0.054067] yes=29,no=30,missing=30
				29:[U_KW_LEN<775] yes=59,no=60,missing=60
					59:[U_KEYWORD_MACRO_MEAN_COEC<0.02661] yes=119,no=120,missing=120
						119:leaf=-0.042417
						120:leaf=0.0306055
					60:[TIME_OF_DAY<23] yes=121,no=122,missing=122
						121:leaf=0.0751001
						122:leaf=-0.0258699
				30:[U_CATEGORY_MACRO_MEAN_COEC<0.066612] yes=61,no=62,missing=62
					61:[C_D_U_TITLEMD5_CATEGORY_MAX_EC<0.085551] yes=123,no=124,missing=124
						123:leaf=0.160624
						124:leaf=-0.0941065
					62:[D_KEYWORD_MEAN_C<100.237] yes=125,no=126,missing=126
						125:leaf=0.19496
						126:leaf=0.087659
booster[40]:
0:[U_CATEGORY_MICRO_MAX_COEC<0.116012] yes=1,no=2,missing=1
	1:[WORD_COUNT<1315] yes=3,no=4,missing=4
		3:[D_CATEGORY_MACRO_MAX_COEC<0.604206] yes=7,no=8,missing=8
			7:[D_TITLEMD5_COEC<0.048209] yes=15,no=16,missing=16
				15:[DOC_AGE<2] yes=31,no=32,missing=32
					31:[D_CATEGORY_MACRO_MEAN_COEC<0.068479] yes=63,no=64,missing=64
						63:leaf=-0.0272773
						64:leaf=-0.00589978
					32:[D_TITLEMD5_COEC<0.019191] yes=65,no=66,missing=66
						65:leaf=-0.0354855
						66:leaf=-0.0218782
				16:[WORD_COUNT<1004] yes=33,no=34,missing=34
					33:[IMAGE_COUNT<3] yes=67,no=68,missing=68
						67:leaf=-0.0149685
						68:leaf=-0.00349754
					34:[DAY_OF_WEEK<2] yes=69,no=70,missing=70
						69:leaf=0.00129593
						70:leaf=-0.00830506
			8:[DAY_OF_WEEK<5] yes=17,no=18,missing=18
				17:[C_D_U_PUBLISHER_CITY_COEC<0.204999] yes=35,no=36,missing=35
					35:[U_KEYWORD_MICRO_MEAN_COEC<0.088436] yes=71,no=72,missing=71
						71:leaf=-0.000692365
						72:leaf=0.0141839
					36:[C_D_U_TITLEMD5_CITY_EC<0.707607] yes=73,no=74,missing=73
						73:leaf=0.0204998
						74:leaf=0.0646224
				18:[U_KW_LEN<339] yes=37,no=38,missing=38
					37:[U_KEYWORD_MEAN_C<15.6513] yes=75,no=76,missing=76
						75:leaf=-0.0519875
						76:leaf=-0.00893583
					38:[U_CATEGORY_MICRO_MEAN_COEC<0.107615] yes=77,no=78,missing=78
						77:leaf=0.0172163
						78:leaf=-0.102626
		4:[CAT_REL<0.144121] yes=9,no=10,missing=10
			9:[D_KEYWORD_MACRO_MEAN_COEC<0.067784] yes=19,no=20,missing=20
				19:[C_D_U_TITLEMD5_CITY_C<0.960692] yes=39,no=40,missing=39
					39:[U_CAT_LEN<12] yes=79,no=80,missing=80
						79:leaf=-0.0138223
						80:leaf=-0.00316005
					40:[U_CITY_C<361.259] yes=81,no=82,missing=82
						81:leaf=0.0539386
						82:leaf=-0.000143962
				20:[C_D_U_TITLEMD5_AGE_COEC<0.102094] yes=41,no=42,missing=42
					41:[D_KEYWORD_MAX_C<50.0145] yes=83,no=84,missing=84
						83:leaf=-0.00861807
						84:leaf=-0.0243075
					42:[DAY_OF_WEEK<3] yes=85,no=86,missing=86
						85:leaf=0.00436482
						86:leaf=-0.00251743
			10:[U_KW_LEN<207] yes=21,no=22,missing=22
				21:[C_D_U_KEYWORD_CATEGORY_MACRO_MEAN_COEC<0.101963] yes=43,no=44,missing=43
					43:[C_D_U_KEYWORD_CATEGORY_MACRO_MEAN_COEC<0.054924] yes=87,no=88,missing=87
						87:leaf=-0.0227572
						88:leaf=-0.0036883
					44:[D_KEYWORD_MICRO_MEAN_COEC<0.101019] yes=89,no=90,missing=90
						89:leaf=0.0267212
						90:leaf=0.0059181
				22:[U_KEYWORD_MACRO_MAX_COEC<0.003241] yes=45,no=46,missing=46
					45:[U_KW_LEN<447] yes=91,no=92,missing=92
						91:leaf=0.00819638
						92:leaf=0.0239253
					46:[U_CATEGORY_MEAN_C<754.221] yes=93,no=94,missing=94
						93:leaf=0.059066
						94:leaf=0.0316714
	2:[U_KW_LEN<3920] yes=5,no=6,missing=6
		5:[U_KEYWORD_MICRO_MAX_COEC<0.13178] yes=11,no=12,missing=11
			11:[U_KEYWORD_MICRO_MEAN_COEC<0.105732] yes=23,no=24,missing=24
				23:[CAT_REL<0.01887] yes=47,no=48,missing=48
					47:[D_CATEGORY_MEAN_EC<10155.7] yes=95,no=96,missing=95
						95:leaf=0.0170638
						96:leaf=-0.00493554
					48:[U_KW_LEN<2196] yes=97,no=98,missing=98
						97:leaf=0.011656
						98:leaf=0.0319714
				24:[U_KEYWORD_MEAN_EC<269.252] yes=49,no=50,missing=49
					49:[DOC_AGE<8] yes=99,no=100,missing=100
						99:leaf=-0.00499109
						100:leaf=-0.0314218
					50:[C_D_U_TITLEMD5_CATEGORY_MEAN_C<1.69661] yes=101,no=102,missing=101
						101:leaf=-0.0043294
						102:leaf=0.0114319
			12:[C_D_U_CATEGORY_AGE_MACRO_MEAN_COEC<0.113301] yes=25,no=26,missing=26
				25:[U_KW_LEN<98] yes=51,no=52,missing=52
					51:[C_D_U_TITLEMD5_GENDER_EC<4.72752] yes=103,no=104,missing=104
						103:leaf=0.0990125
						104:leaf=-0.0566064
					52:[D_CATEGORY_MICRO_MEAN_COEC<0.098661] yes=105,no=106,missing=106
						105:leaf=0.0107212
						106:leaf=-0.0100092
				26:[U_KEYWORD_MICRO_MEAN_COEC<0.099534] yes=53,no=54,missing=54
					53:[U_KW_LEN<308] yes=107,no=108,missing=108
						107:leaf=0.0144584
						108:leaf=0.0364035
					54:[U_KEYWORD_MEAN_EC<255.812] yes=109,no=110,missing=110
						109:leaf=0.00252861
						110:leaf=0.0165272
		6:[U_CATEGORY_MACRO_MEAN_COEC<0.032683] yes=13,no=14,missing=14
			13:[TIME_OF_DAY<10] yes=27,no=28,missing=28
				27:[U_CAT_LEN<43] yes=55,no=56,missing=56
					55:[U_CITY_C<144.179] yes=111,no=112,missing=112
						111:leaf=0.0187899
						112:leaf=-0.0307831
					56:[C_D_U_TITLEMD5_AGE_EC<6.55424] yes=113,no=114,missing=113
						113:leaf=-0.0217378
						114:leaf=-0.107303
				28:[U_CITY_COEC<0.096095] yes=57,no=58,missing=58
					57:[U_KEYWORD_MICRO_MEAN_COEC<0.094811] yes=115,no=116,missing=116
						115:leaf=0.0646498
						116:leaf=-0.023218
					58:[C_D_U_TITLEMD5_AGE_C<9.55413] yes=117,no=118,missing=118
						117:leaf=0.000255545
						118:leaf=0.0787735
			14:[U_KEYWORD_MAX_C<7.52565] yes=29,no=30,missing=30
				29:[U_KEYWORD_MICRO_MEAN_COEC<0.087161] yes=59,no=60,missing=60
					59:[C_D_U_PUBLISHER_CITY_COEC<0.01329] yes=119,no=120,missing=120
						119:leaf=0.016862
						120:leaf=-0.114852
					60:[C_D_U_CATEGORY_CITY_MEAN_EC<876.362] yes=121,no=122,missing=122
						121:leaf=0.0473645
						122:leaf=0.084638
				30:[U_KEYWORD_MEAN_EC<263.002] yes=61,no=62,missing=62
					61:[TIME_OF_DAY<0.999999] yes=123,no=124,missing=124
						123:leaf=0.364347
						124:leaf=0.07422
					62:[U_CAT_LEN<34] yes=125,no=126,missing=126
						125:leaf=0.0103324
						126:leaf=0.0775186
booster[41]:
0:[U_CITY_COEC<0.056089] yes=1,no=2,missing=2
	1:[C_D_U_TITLEMD5_CITY_EC<2.10549] yes=3,no=4,missing=4
		3:[C_D_U_TITLEMD5_CITY_C<0.990024] yes=7,no=8,missing=8
			7:[U_CITY_EC<22.2571] yes=15,no=16,missing=16
				15:[D_TITLEMD5_EC<3134.19] yes=31,no=32,missing=32
					31:[DOC_AGE<13] yes=63,no=64,missing=64
						63:leaf=0.0610472
						64:leaf=0.120686
					32:[U_CITY_EC<10.3529] yes=65,no=66,missing=66
						65:leaf=0.0494517
						66:leaf=0.00736617
				16:[D_TITLEMD5_EC<93.6861] yes=33,no=34,missing=34
					33:[DOC_AGE<18] yes=67,no=68,missing=68
						67:leaf=0.0348607
						68:leaf=0.110571
					34:[TIME_OF_DAY<20] yes=69,no=70,missing=70
						69:leaf=-0.00551006
						70:leaf=0.0168283
			8:[C_D_U_TITLEMD5_CITY_C<1.26718] yes=17,no=18,missing=18
				17:[C_D_U_PUBLISHER_CITY_EC<58.0096] yes=35,no=36,missing=36
					35:[TIME_OF_DAY<0.999999] yes=71,no=72,missing=72
						71:leaf=0.03249
						72:leaf=0.119719
					36:[C_D_U_CATEGORY_CITY_MEAN_C<1.31288] yes=73,no=74,missing=73
						73:leaf=-0.0900162
						74:leaf=0.0789428
				18:[D_KEYWORD_MACRO_MEAN_COEC<0.113557] yes=37,no=38,missing=38
					37:[C_D_U_CATEGORY_CITY_MAX_C<1.85951] yes=75,no=76,missing=76
						75:leaf=-0.0518812
						76:leaf=-0.1624
					38:[D_TITLEMD5_C<511.022] yes=77,no=78,missing=78
						77:leaf=0.176196
						78:leaf=0.0136824
		4:[C_D_U_KEYWORD_CATEGORY_MACRO_MEAN_COEC<0.052824] yes=9,no=10,missing=10
			9:[C_D_U_PUBLISHER_AGE_C<457.421] yes=19,no=20,missing=20
				19:[C_D_U_TITLEMD5_CATEGORY_MEAN_EC<0.879325] yes=39,no=40,missing=39
					39:[DOC_AGE<12] yes=79,no=80,missing=80
						79:leaf=-0.0440948
						80:leaf=-0.0780778
					40:[CAT_REL<0.069324] yes=81,no=82,missing=82
						81:leaf=-0.0358468
						82:leaf=-0.00532472
				20:[U_CITY_COEC<0.035118] yes=41,no=42,missing=42
					41:[U_CITY_EC<130.277] yes=83,no=84,missing=84
						83:leaf=-0.0231981
						84:leaf=-0.0573372
					42:[U_CATEGORY_MICRO_MEAN_COEC<0.094095] yes=85,no=86,missing=86
						85:leaf=-0.0114217
						86:leaf=-0.0295944
			10:[C_D_U_TITLEMD5_CITY_COEC<0.127795] yes=21,no=22,missing=22
				21:[U_KEYWORD_MACRO_MAX_COEC<0.005626] yes=43,no=44,missing=44
					43:[C_D_U_PUBLISHER_CITY_COEC<0.040728] yes=87,no=88,missing=88
						87:leaf=-0.0174037
						88:leaf=0.0181324
					44:[C_D_U_TITLEMD5_CITY_EC<4.7046] yes=89,no=90,missing=90
						89:leaf=-0.0315286
						90:leaf=-0.0614342
				22:[U_CATEGORY_MICRO_MEAN_COEC<0.099514] yes=45,no=46,missing=45
					45:[D_KEYWORD_MACRO_MAX_COEC<0.012186] yes=91,no=92,missing=92
						91:leaf=-0.0296289
						92:leaf=-0.00830111
					46:[U_KEYWORD_MICRO_MEAN_COEC<0.112147] yes=93,no=94,missing=94
						93:leaf=-0.0244646
						94:leaf=0.00624119
	2:[U_KEYWORD_MICRO_MAX_COEC<0.12213] yes=5,no=6,missing=5
		5:[TIME_OF_DAY<5] yes=11,no=12,missing=12
			11:[D_TITLEMD5_COEC<0.097485] yes=23,no=24,missing=24
				23:[U_KW_LEN<806] yes=47,no=48,missing=48
					47:[U_CITY_EC<2338.98] yes=95,no=96,missing=95
						95:leaf=-0.0144902
						96:leaf=-0.0251143
					48:[D_KEYWORD_MEAN_EC<471.6] yes=97,no=98,missing=98
						97:leaf=0.00657034
						98:leaf=-0.0145928
				24:[U_CATEGORY_MEAN_C<592.444] yes=49,no=50,missing=49
					49:[DAY_OF_WEEK<2] yes=99,no=100,missing=100
						99:leaf=0.00266461
						100:leaf=-0.00599997
					50:[U_CITY_C<29.4695] yes=101,no=102,missing=102
						101:leaf=-0.00166391
						102:leaf=-0.0150059
			12:[U_CITY_EC<1928.72] yes=25,no=26,missing=26
				25:[C_D_U_TITLEMD5_CITY_EC<0.653072] yes=51,no=52,missing=51
					51:[C_D_U_KEYWORD_CATEGORY_MICRO_MAX_COEC<0.18622] yes=103,no=104,missing=104
						103:leaf=-0.0126069
						104:leaf=-0.000360714
					52:[U_CITY_EC<62.0214] yes=105,no=106,missing=106
						105:leaf=0.0504484
						106:leaf=0.00878904
				26:[IMAGE_COUNT<0.999999] yes=53,no=54,missing=54
					53:[D_TITLEMD5_C<98.9906] yes=107,no=108,missing=107
						107:leaf=-0.0236146
						108:leaf=-0.000117633
					54:[U_KW_LEN<1545] yes=109,no=110,missing=110
						109:leaf=-0.00488728
						110:leaf=0.00973197
		6:[U_KW_LEN<207] yes=13,no=14,missing=14
			13:[U_KEYWORD_MICRO_MAX_COEC<0.328132] yes=27,no=28,missing=28
				27:[C_D_U_KEYWORD_CATEGORY_MACRO_MEAN_COEC<0.101669] yes=55,no=56,missing=56
					55:[D_KEYWORD_MEAN_C<116.277] yes=111,no=112,missing=112
						111:leaf=-0.00462985
						112:leaf=-0.0167987
					56:[U_KW_LEN<51] yes=113,no=114,missing=114
						113:leaf=-0.0265641
						114:leaf=0.00334777
				28:[U_CATEGORY_MACRO_MAX_COEC<0.026785] yes=57,no=58,missing=57
					57:[U_KEYWORD_MACRO_MEAN_COEC<0.052253] yes=115,no=116,missing=116
						115:leaf=0.0255859
						116:leaf=0.0849086
					58:[U_KEYWORD_MACRO_MEAN_COEC<0.040956] yes=117,no=118,missing=118
						117:leaf=-0.0398353
						118:leaf=0.0178488
			14:[U_KEYWORD_MICRO_MAX_COEC<0.214306] yes=29,no=30,missing=30
				29:[C_D_U_CATEGORY_AGE_MICRO_MAX_COEC<0.132639] yes=59,no=60,missing=60
					59:[CAT_REL<0.138628] yes=119,no=120,missing=120
						119:leaf=-0.00503613
						120:leaf=0.0157443
					60:[DAY_OF_WEEK<3] yes=121,no=122,missing=122
						121:leaf=0.0152102
						122:leaf=0.00555581
				30:[D_KEYWORD_MEAN_C<74.0949] yes=61,no=62,missing=61
					61:[U_CITY_C<16.5265] yes=123,no=124,missing=124
						123:leaf=0.0125663
						124:leaf=0.0370661
					62:[U_KEYWORD_MAX_EC<76.7515] yes=125,no=126,missing=126
						125:leaf=0.00266133
						126:leaf=0.0239969
booster[42]:
0:[KW_REL<0.001881] yes=1,no=2,missing=2
	1:[IMAGE_COUNT<2] yes=3,no=4,missing=4
		3:[C_D_U_CATEGORY_CITY_MACRO_MAX_COEC<0.099963] yes=7,no=8,missing=7
			7:[D_TITLEMD5_C<30.6091] yes=15,no=16,missing=15
				15:[D_KEYWORD_MEAN_EC<521.079] yes=31,no=32,missing=31
					31:[C_D_U_KEYWORD_CATEGORY_MICRO_MEAN_COEC<0.077243] yes=63,no=64,missing=63
						63:leaf=-0.0147592
						64:leaf=-0.00326808
					32:[U_KEYWORD_MEAN_EC<282.645] yes=65,no=66,missing=66
						65:leaf=-0.031517
						66:leaf=-0.0115942
				16:[D_KEYWORD_MAX_EC<397.859] yes=33,no=34,missing=34
					33:[KW_REL<0.000654] yes=67,no=68,missing=68
						67:leaf=-0.00264553
						68:leaf=0.00630254
					34:[C_D_U_TITLEMD5_CATEGORY_MEAN_C<2.51656] yes=69,no=70,missing=70
						69:leaf=-0.0205175
						70:leaf=-0.00532569
			8:[WORD_COUNT<1721] yes=17,no=18,missing=18
				17:[CAT_REL<0.001099] yes=35,no=36,missing=36
					35:[U_KEYWORD_MEAN_EC<282.645] yes=71,no=72,missing=72
						71:leaf=-0.0197461
						72:leaf=-0.00525973
					36:[D_KEYWORD_MAX_C<18.8006] yes=73,no=74,missing=74
						73:leaf=0.0110015
						74:leaf=-0.0046944
				18:[C_D_U_CATEGORY_CITY_MACRO_MAX_COEC<0.286709] yes=37,no=38,missing=38
					37:[U_KEYWORD_MICRO_MAX_COEC<0.33164] yes=75,no=76,missing=75
						75:leaf=0.00201186
						76:leaf=0.043651
					38:[C_D_U_CATEGORY_CITY_MAX_C<0.951109] yes=77,no=78,missing=78
						77:leaf=-0.000196998
						78:leaf=0.0282297
		4:[U_KEYWORD_MICRO_MEAN_COEC<0.086725] yes=9,no=10,missing=10
			9:[DAY_OF_WEEK<2] yes=19,no=20,missing=20
				19:[U_KEYWORD_MICRO_MAX_COEC<0.109117] yes=39,no=40,missing=40
					39:[C_D_U_PUBLISHER_CITY_C<9.41949] yes=79,no=80,missing=79
						79:leaf=-0.00958939
						80:leaf=-0.0376884
					40:[U_CATEGORY_MAX_EC<2683.14] yes=81,no=82,missing=82
						81:leaf=0.0116269
						82:leaf=-0.010951
				20:[D_CATEGORY_MAX_C<1557.6] yes=41,no=42,missing=41
					41:[C_D_U_CATEGORY_AGE_MAX_C<688.162] yes=83,no=84,missing=83
						83:leaf=-0.0175881
						84:leaf=0.178745
					42:[C_D_U_PUBLISHER_CITY_COEC<0.049039] yes=85,no=86,missing=86
						85:leaf=-0.0703411
						86:leaf=-0.0346652
			10:[U_CITY_COEC<0.200684] yes=21,no=22,missing=21
				21:[TIME_OF_DAY<5] yes=43,no=44,missing=44
					43:[D_TITLEMD5_EC<1259.89] yes=87,no=88,missing=87
						87:leaf=-0.00724858
						88:leaf=0.000561537
					44:[U_CAT_LEN<21] yes=89,no=90,missing=90
						89:leaf=0.00378703
						90:leaf=0.0205391
				22:[C_D_U_TITLEMD5_CITY_EC<1.67623] yes=45,no=46,missing=46
					45:[C_D_U_PUBLISHER_CITY_EC<1.99] yes=91,no=92,missing=92
						91:leaf=0.0898361
						92:leaf=0.0355606
					46:[U_CAT_LEN<21] yes=93,no=94,missing=94
						93:leaf=0.0148489
						94:leaf=0.064444
	2:[D_KEYWORD_MEAN_EC<1466.94] yes=5,no=6,missing=6
		5:[U_KW_LEN<140] yes=11,no=12,missing=12
			11:[C_D_U_KEYWORD_CATEGORY_MACRO_MEAN_COEC<0.072412] yes=23,no=24,missing=23
				23:[D_TITLEMD5_C<73.9805] yes=47,no=48,missing=47
					47:[U_KEYWORD_MICRO_MAX_COEC<0.147721] yes=95,no=96,missing=96
						95:leaf=-0.0247159
						96:leaf=-0.00470475
					48:[U_CATEGORY_MEAN_C<384.685] yes=97,no=98,missing=98
						97:leaf=0.133705
						98:leaf=0.00130984
				24:[D_CATEGORY_MEAN_EC<25786.9] yes=49,no=50,missing=49
					49:[U_CATEGORY_MICRO_MEAN_COEC<0.097448] yes=99,no=100,missing=100
						99:leaf=0.0170334
						100:leaf=-0.00647708
					50:[C_D_U_TITLEMD5_CATEGORY_MEAN_EC<0.55795] yes=101,no=102,missing=102
						101:leaf=-0.0380064
						102:leaf=-0.00349762
			12:[D_PUBLISHER_C<84.9676] yes=25,no=26,missing=25
				25:[D_KEYWORD_MEAN_C<91.9034] yes=51,no=52,missing=52
					51:[C_D_U_TITLEMD5_CATEGORY_MAX_EC<1.54071] yes=103,no=104,missing=103
						103:leaf=-0.00495459
						104:leaf=0.0267981
					52:[M_D_U_KEYWORD_KEYWORD_MEAN_EC<0.149949] yes=105,no=106,missing=105
						105:leaf=-0.0413779
						106:leaf=0.00996688
				26:[TIME_OF_DAY<4] yes=53,no=54,missing=54
					53:[DOC_AGE<8] yes=107,no=108,missing=108
						107:leaf=0.0118116
						108:leaf=-0.000668365
					54:[D_KEYWORD_MAX_C<8.35086] yes=109,no=110,missing=110
						109:leaf=0.0343287
						110:leaf=0.0158991
		6:[KW_REL<0.006631] yes=13,no=14,missing=14
			13:[D_TITLEMD5_EC<1259.89] yes=27,no=28,missing=28
				27:[D_KEYWORD_MEAN_EC<2095.33] yes=55,no=56,missing=56
					55:[U_KEYWORD_MICRO_MAX_COEC<0.115186] yes=111,no=112,missing=112
						111:leaf=-0.0201814
						112:leaf=0.000956687
					56:[KW_REL<0.003884] yes=113,no=114,missing=114
						113:leaf=-0.032175
						114:leaf=-0.0127888
				28:[D_KEYWORD_MEAN_EC<3801.4] yes=57,no=58,missing=58
					57:[U_KEYWORD_MICRO_MEAN_COEC<0.087925] yes=115,no=116,missing=116
						115:leaf=-0.0329166
						116:leaf=0.00733113
					58:[KW_REL<0.005229] yes=117,no=118,missing=118
						117:leaf=-0.0274405
						118:leaf=-0.00534745
			14:[DOC_AGE<14] yes=29,no=30,missing=30
				29:[U_KW_LEN<197] yes=59,no=60,missing=60
					59:[M_D_U_KEYWORD_KEYWORD_MACRO_MEAN_COEC<0.002304] yes=119,no=120,missing=120
						119:leaf=0.000562693
						120:leaf=0.0340092
					60:[U_KEYWORD_MACRO_MAX_COEC<0.003497] yes=121,no=122,missing=122
						121:leaf=0.0251331
						122:leaf=0.0599922
				30:[U_KW_LEN<87] yes=61,no=62,missing=62
					61:[U_KEYWORD_MICRO_MEAN_COEC<0.101664] yes=123,no=124,missing=124
						123:leaf=-0.00226084
						124:leaf=-0.0324333
					62:[WORD_COUNT<3518] yes=125,no=126,missing=126
						125:leaf=-0.000266632
						126:leaf=0.0214705
booster[43]:
0:[U_CATEGORY_MICRO_MAX_COEC<0.115914] yes=1,no=2,missing=1
	1:[D_TITLEMD5_C<8.67549] yes=3,no=4,missing=3
		3:[IMAGE_COUNT<0.999999] yes=7,no=8,missing=8
			7:[C_D_U_TITLEMD5_CITY_EC<1.82288] yes=15,no=16,missing=16
				15:[U_CITY_EC<1570.34] yes=31,no=32,missing=32
					31:[DOC_AGE<13] yes=63,no=64,missing=64
						63:leaf=0.0168243
						64:leaf=0.0716114
					32:[M_D_U_KEYWORD_KEYWORD_MACRO_MAX_COEC<0.00076] yes=65,no=66,missing=65
						65:leaf=-0.0236118
						66:leaf=0.0399762
				16:[C_D_U_CATEGORY_AGE_MACRO_MEAN_COEC<0.102727] yes=33,no=34,missing=34
					33:[C_D_U_TITLEMD5_AGE_C<0.990024] yes=67,no=68,missing=67
						67:leaf=-0.0435385
						68:leaf=-0.0215788
					34:[U_KW_LEN<725] yes=69,no=70,missing=70
						69:leaf=-0.0272984
						70:leaf=-0.00954571
			8:[DOC_AGE<2] yes=17,no=18,missing=18
				17:[D_CATEGORY_MAX_C<3509.1] yes=35,no=36,missing=36
					35:[CAT_REL<0.063244] yes=71,no=72,missing=72
						71:leaf=-0.0106939
						72:leaf=0.00800283
					36:[D_KEYWORD_MEAN_EC<657.457] yes=73,no=74,missing=74
						73:leaf=0.0172859
						74:leaf=-0.000395452
				18:[C_D_U_TITLEMD5_CITY_C<0.77442] yes=37,no=38,missing=37
					37:[DOC_AGE<80] yes=75,no=76,missing=76
						75:leaf=-0.0128063
						76:leaf=0.017199
					38:[C_D_U_TITLEMD5_CATEGORY_MACRO_MEAN_COEC<0.124441] yes=77,no=78,missing=78
						77:leaf=-0.00816875
						78:leaf=0.080077
		4:[DAY_OF_WEEK<3] yes=9,no=10,missing=10
			9:[U_KEYWORD_MICRO_MAX_COEC<0.102608] yes=19,no=20,missing=20
				19:[U_CITY_C<198.222] yes=39,no=40,missing=39
					39:[U_KW_LEN<1670] yes=79,no=80,missing=80
						79:leaf=-0.00738275
						80:leaf=0.0156823
					40:[DAY_OF_WEEK<0.999999] yes=81,no=82,missing=82
						81:leaf=-0.0116483
						82:leaf=-0.0276619
				20:[CAT_REL<0.041839] yes=41,no=42,missing=42
					41:[D_CATEGORY_MEAN_EC<88433.4] yes=83,no=84,missing=83
						83:leaf=0.00353947
						84:leaf=-0.00608551
					42:[U_CATEGORY_MEAN_EC<6006.15] yes=85,no=86,missing=86
						85:leaf=0.0181119
						86:leaf=0.00650525
			10:[TIME_OF_DAY<3] yes=21,no=22,missing=22
				21:[U_KEYWORD_MICRO_MEAN_COEC<0.1103] yes=43,no=44,missing=43
					43:[U_KEYWORD_MICRO_MEAN_COEC<0.091209] yes=87,no=88,missing=88
						87:leaf=-0.0264126
						88:leaf=-0.0112538
					44:[C_D_U_CATEGORY_CITY_MACRO_MEAN_COEC<0.189645] yes=89,no=90,missing=90
						89:leaf=-0.00573571
						90:leaf=0.0196173
				22:[WORD_COUNT<1654] yes=45,no=46,missing=46
					45:[U_CITY_COEC<0.261912] yes=91,no=92,missing=91
						91:leaf=-0.00738122
						92:leaf=0.0277476
					46:[CAT_REL<0.080558] yes=93,no=94,missing=94
						93:leaf=-0.00150657
						94:leaf=0.0061799
	2:[U_KEYWORD_MICRO_MEAN_COEC<0.102545] yes=5,no=6,missing=6
		5:[U_KEYWORD_MEAN_C<12.9152] yes=11,no=12,missing=12
			11:[U_CITY_COEC<0.115321] yes=23,no=24,missing=24
				23:[CAT_REL<0.01956] yes=47,no=48,missing=48
					47:[U_KW_LEN<1152] yes=95,no=96,missing=96
						95:leaf=-0.0109256
						96:leaf=-0.0454028
					48:[C_D_U_KEYWORD_CATEGORY_MACRO_MEAN_COEC<0.028975] yes=97,no=98,missing=98
						97:leaf=-0.0357671
						98:leaf=0.0111047
				24:[D_KEYWORD_MEAN_EC<1173.93] yes=49,no=50,missing=50
					49:[U_CITY_C<2.97181] yes=99,no=100,missing=100
						99:leaf=-0.0538508
						100:leaf=0.0249367
					50:[C_D_U_CATEGORY_GENDER_MACRO_MAX_COEC<0.114994] yes=101,no=102,missing=101
						101:leaf=-0.0340692
						102:leaf=0.108167
			12:[C_D_U_CATEGORY_AGE_MACRO_MAX_COEC<0.063107] yes=25,no=26,missing=26
				25:[CAT_REL<0.043671] yes=51,no=52,missing=52
					51:[U_CITY_EC<1128.89] yes=103,no=104,missing=104
						103:leaf=-0.00297622
						104:leaf=-0.0322008
					52:[C_D_U_CATEGORY_CITY_MICRO_MEAN_COEC<0.078983] yes=105,no=106,missing=105
						105:leaf=-0.00253118
						106:leaf=0.032743
				26:[U_CATEGORY_MAX_C<187.44] yes=53,no=54,missing=54
					53:[DOC_AGE<25] yes=107,no=108,missing=108
						107:leaf=0.0210681
						108:leaf=0.0483955
					54:[U_CATEGORY_MICRO_MEAN_COEC<0.100564] yes=109,no=110,missing=110
						109:leaf=0.0128782
						110:leaf=-0.00934447
		6:[U_KEYWORD_MEAN_C<30.4125] yes=13,no=14,missing=13
			13:[U_CATEGORY_MAX_EC<4576.05] yes=27,no=28,missing=28
				27:[U_CATEGORY_MICRO_MAX_COEC<0.143735] yes=55,no=56,missing=56
					55:[D_KEYWORD_MEAN_EC<3193.95] yes=111,no=112,missing=112
						111:leaf=-0.0143248
						112:leaf=-0.068809
					56:[U_KEYWORD_MAX_C<5.83501] yes=113,no=114,missing=114
						113:leaf=0.048345
						114:leaf=-0.021776
				28:[U_KEYWORD_MICRO_MAX_COEC<0.160364] yes=57,no=58,missing=58
					57:[U_KEYWORD_MICRO_MEAN_COEC<0.110621] yes=115,no=116,missing=116
						115:leaf=-0.00272976
						116:leaf=0.0235816
					58:[U_KEYWORD_MACRO_MAX_COEC<0.004772] yes=117,no=118,missing=118
						117:leaf=0.015861
						118:leaf=0.0852452
			14:[U_CITY_COEC<0.10267] yes=29,no=30,missing=30
				29:[C_D_U_TITLEMD5_CITY_EC<0.873419] yes=59,no=60,missing=59
					59:[DOC_AGE<9] yes=119,no=120,missing=120
						119:leaf=0.00423
						120:leaf=-0.0150006
					60:[U_KEYWORD_MICRO_MEAN_COEC<0.113096] yes=121,no=122,missing=122
						121:leaf=0.00637769
						122:leaf=0.0310965
				30:[U_CAT_LEN<33] yes=61,no=62,missing=62
					61:[U_CATEGORY_MAX_EC<8866.61] yes=123,no=124,missing=124
						123:leaf=0.00907992
						124:leaf=0.0278286
					62:[U_KEYWORD_MICRO_MAX_COEC<0.117856] yes=125,no=126,missing=126
						125:leaf=-0.0502528
						126:leaf=0.0685356
booster[44]:
0:[U_CITY_COEC<0.048482] yes=1,no=2,missing=2
	1:[C_D_U_TITLEMD5_CITY_EC<1.52945] yes=3,no=4,missing=4
		3:[U_CITY_EC<52.9408] yes=7,no=8,missing=8
			7:[D_TITLEMD5_EC<1883.99] yes=15,no=16,missing=16
				15:[U_CITY_EC<10.7899] yes=31,no=32,missing=32
					31:[WORD_COUNT<2897] yes=63,no=64,missing=64
						63:leaf=0.100373
						64:leaf=0.167076
					32:[DOC_AGE<12] yes=65,no=66,missing=66
						65:leaf=0.0252747
						66:leaf=0.0787097
				16:[U_CITY_EC<5.00656] yes=33,no=34,missing=34
					33:[C_D_U_PUBLISHER_CITY_EC<0.783801] yes=67,no=68,missing=68
						67:leaf=0.0271335
						68:leaf=0.0916717
					34:[D_TITLEMD5_EC<6761.2] yes=69,no=70,missing=70
						69:leaf=0.0259362
						70:leaf=-0.00637943
			8:[C_D_U_TITLEMD5_CITY_C<0.936914] yes=17,no=18,missing=18
				17:[U_KEYWORD_MICRO_MAX_COEC<0.123712] yes=35,no=36,missing=36
					35:[DOC_AGE<19] yes=71,no=72,missing=72
						71:leaf=-0.0027547
						72:leaf=0.02923
					36:[C_D_U_PUBLISHER_CITY_COEC<0.234699] yes=73,no=74,missing=73
						73:leaf=-0.0134799
						74:leaf=0.0509214
				18:[DOC_AGE<10] yes=37,no=38,missing=38
					37:[C_D_U_TITLEMD5_CATEGORY_MACRO_MEAN_COEC<0.076852] yes=75,no=76,missing=75
						75:leaf=0.00317634
						76:leaf=0.0730344
					38:[C_D_U_PUBLISHER_CITY_C<2.38314] yes=77,no=78,missing=78
						77:leaf=0.121516
						78:leaf=0.0213706
		4:[U_CITY_EC<52.9408] yes=9,no=10,missing=10
			9:[D_PUBLISHER_COEC<0.073372] yes=19,no=20,missing=20
				19:[C_D_U_PUBLISHER_AGE_COEC<0.076717] yes=39,no=40,missing=39
					39:[D_KEYWORD_MICRO_MAX_COEC<0.145131] yes=79,no=80,missing=80
						79:leaf=-0.0227213
						80:leaf=-0.00395249
					40:[D_KEYWORD_MAX_C<29.3297] yes=81,no=82,missing=82
						81:leaf=0.0422933
						82:leaf=-0.039104
				20:[U_CATEGORY_MEAN_C<429.856] yes=41,no=42,missing=42
					41:[U_KEYWORD_MEAN_C<33.691] yes=83,no=84,missing=83
						83:leaf=0.00268898
						84:leaf=0.0560564
					42:[TIME_OF_DAY<15] yes=85,no=86,missing=86
						85:leaf=-0.00352774
						86:leaf=-0.0140932
			10:[C_D_U_KEYWORD_CATEGORY_MACRO_MEAN_COEC<0.068178] yes=21,no=22,missing=21
				21:[C_D_U_PUBLISHER_AGE_COEC<0.145466] yes=43,no=44,missing=44
					43:[U_KEYWORD_MACRO_MEAN_COEC<0.020701] yes=87,no=88,missing=87
						87:leaf=-0.0555567
						88:leaf=-0.0307932
					44:[C_D_U_TITLEMD5_CITY_EC<3.60502] yes=89,no=90,missing=89
						89:leaf=-0.0192399
						90:leaf=-0.0515093
				22:[U_CATEGORY_MICRO_MEAN_COEC<0.08722] yes=45,no=46,missing=46
					45:[U_KEYWORD_MACRO_MAX_COEC<0.006963] yes=91,no=92,missing=92
						91:leaf=0.00552391
						92:leaf=-0.0338205
					46:[D_TITLEMD5_COEC<0.198194] yes=93,no=94,missing=93
						93:leaf=-0.0213142
						94:leaf=0.00567806
	2:[U_KEYWORD_MICRO_MAX_COEC<0.160719] yes=5,no=6,missing=5
		5:[TIME_OF_DAY<5] yes=11,no=12,missing=12
			11:[D_TITLEMD5_C<91.463] yes=23,no=24,missing=24
				23:[D_KEYWORD_MEAN_C<109.144] yes=47,no=48,missing=48
					47:[KW_REL<0.001033] yes=95,no=96,missing=96
						95:leaf=-0.0107275
						96:leaf=0.000767848
					48:[C_D_U_KEYWORD_CATEGORY_MICRO_MEAN_COEC<0.127463] yes=97,no=98,missing=98
						97:leaf=-0.0294541
						98:leaf=-0.00872905
				24:[DOC_AGE<5] yes=49,no=50,missing=50
					49:[DAY_OF_WEEK<3] yes=99,no=100,missing=100
						99:leaf=0.013936
						100:leaf=-0.00134781
					50:[U_KEYWORD_MACRO_MAX_COEC<0.004601] yes=101,no=102,missing=101
						101:leaf=-0.00320997
						102:leaf=-0.0142985
			12:[C_D_U_PUBLISHER_CITY_COEC<0.202428] yes=25,no=26,missing=25
				25:[C_D_U_KEYWORD_CATEGORY_MICRO_MEAN_COEC<0.081652] yes=51,no=52,missing=52
					51:[D_KEYWORD_MEAN_C<126.393] yes=103,no=104,missing=104
						103:leaf=-0.0095867
						104:leaf=-0.0390533
					52:[U_KW_LEN<1561] yes=105,no=106,missing=106
						105:leaf=-0.000579095
						106:leaf=0.010788
				26:[C_D_U_TITLEMD5_CITY_C<0.92293] yes=53,no=54,missing=53
					53:[U_CAT_LEN<22] yes=107,no=108,missing=108
						107:leaf=0.00698424
						108:leaf=0.0288475
					54:[U_CITY_C<10.4477] yes=109,no=110,missing=110
						109:leaf=0.0751946
						110:leaf=0.0167852
		6:[U_KW_LEN<243] yes=13,no=14,missing=14
			13:[U_KEYWORD_MACRO_MEAN_COEC<0.034928] yes=27,no=28,missing=28
				27:[U_KEYWORD_MICRO_MEAN_COEC<0.087945] yes=55,no=56,missing=56
					55:[U_CATEGORY_MICRO_MEAN_COEC<0.083642] yes=111,no=112,missing=112
						111:leaf=0.0223402
						112:leaf=-0.0243332
					56:[U_CITY_EC<312.78] yes=113,no=114,missing=114
						113:leaf=-0.000120861
						114:leaf=-0.029476
				28:[U_CITY_COEC<0.159496] yes=57,no=58,missing=57
					57:[U_KW_LEN<99] yes=115,no=116,missing=116
						115:leaf=-0.00166149
						116:leaf=0.00851891
					58:[U_KEYWORD_MEAN_C<16.656] yes=117,no=118,missing=118
						117:leaf=0.046099
						118:leaf=0.0103498
			14:[U_KEYWORD_MACRO_MAX_COEC<0.003329] yes=29,no=30,missing=30
				29:[TIME_OF_DAY<4] yes=59,no=60,missing=60
					59:[D_PUBLISHER_C<336.872] yes=119,no=120,missing=119
						119:leaf=-0.0300222
						120:leaf=0.00346661
					60:[U_CATEGORY_MICRO_MEAN_COEC<0.08095] yes=121,no=122,missing=122
						121:leaf=-0.0118605
						122:leaf=0.0164686
				30:[D_CATEGORY_MAX_C<7792.62] yes=61,no=62,missing=62
					61:[TIME_OF_DAY<3] yes=123,no=124,missing=124
						123:leaf=0.0184554
						124:leaf=0.0426176
					62:[U_CITY_COEC<0.118892] yes=125,no=126,missing=126
						125:leaf=0.00492919
						126:leaf=0.0360132
booster[45]:
0:[WORD_COUNT<1189] yes=1,no=2,missing=2
	1:[D_CATEGORY_MICRO_MAX_COEC<0.15632] yes=3,no=4,missing=4
		3:[D_TITLEMD5_C<2.92223] yes=7,no=8,missing=8
			7:[DOC_AGE<3] yes=15,no=16,missing=16
				15:[WORD_COUNT<618] yes=31,no=32,missing=32
					31:[D_KEYWORD_MEAN_EC<622.93] yes=63,no=64,missing=64
						63:leaf=-0.0140474
						64:leaf=-0.0442193
					32:[D_CATEGORY_MEAN_EC<48705.5] yes=65,no=66,missing=66
						65:leaf=-0.0154586
						66:leaf=0.00731657
				16:[C_D_U_TITLEMD5_CITY_EC<1.28305] yes=33,no=34,missing=34
					33:[U_CITY_EC<1988.28] yes=67,no=68,missing=68
						67:leaf=0.063927
						68:leaf=-0.0180769
					34:[U_KW_LEN<3944] yes=69,no=70,missing=70
						69:leaf=-0.0330475
						70:leaf=0.00409364
			8:[D_KEYWORD_MEAN_EC<1891.54] yes=17,no=18,missing=17
				17:[U_CATEGORY_MICRO_MAX_COEC<0.133851] yes=35,no=36,missing=35
					35:[D_CATEGORY_MEAN_C<15854.3] yes=71,no=72,missing=72
						71:leaf=-0.00579716
						72:leaf=-0.022152
					36:[U_KW_LEN<3944] yes=73,no=74,missing=74
						73:leaf=0.0129824
						74:leaf=0.067368
				18:[C_D_U_TITLEMD5_CATEGORY_MICRO_MEAN_COEC<0.213434] yes=37,no=38,missing=38
					37:[KW_REL<0.004149] yes=75,no=76,missing=76
						75:leaf=-0.0318785
						76:leaf=-0.0108791
					38:[U_KEYWORD_MEAN_C<46.6141] yes=77,no=78,missing=77
						77:leaf=-0.0137335
						78:leaf=0.00761748
		4:[DAY_OF_WEEK<5] yes=9,no=10,missing=10
			9:[C_D_U_PUBLISHER_CITY_COEC<0.20118] yes=19,no=20,missing=19
				19:[TIME_OF_DAY<12] yes=39,no=40,missing=40
					39:[U_KEYWORD_MICRO_MEAN_COEC<0.08862] yes=79,no=80,missing=79
						79:leaf=-0.0137231
						80:leaf=0.00913422
					40:[D_PUBLISHER_C<2296.57] yes=81,no=82,missing=82
						81:leaf=0.00191768
						82:leaf=0.0184404
				20:[C_D_U_TITLEMD5_CITY_EC<0.960692] yes=41,no=42,missing=41
					41:[U_CITY_COEC<0.042402] yes=83,no=84,missing=84
						83:leaf=-0.068426
						84:leaf=0.026316
					42:[U_KEYWORD_MICRO_MAX_COEC<0.0985] yes=85,no=86,missing=86
						85:leaf=-0.107611
						86:leaf=0.0677689
			10:[U_KW_LEN<331] yes=21,no=22,missing=22
				21:[DOC_AGE<41] yes=43,no=44,missing=44
					43:[U_KEYWORD_MEAN_C<10.8691] yes=87,no=88,missing=88
						87:leaf=-0.0646113
						88:leaf=-0.0110942
					44:[U_KEYWORD_MEAN_EC<334.83] yes=89,no=90,missing=90
						89:leaf=-0.0330555
						90:leaf=0.0186081
				22:[IMAGE_COUNT<0.999999] yes=45,no=46,missing=46
					45:[C_D_U_PUBLISHER_CITY_EC<2.01676] yes=91,no=92,missing=91
						91:leaf=0.00603732
						92:leaf=-0.0483752
					46:[D_TITLEMD5_COEC<0.06593] yes=93,no=94,missing=94
						93:leaf=0.0485133
						94:leaf=0.0150306
	2:[CAT_REL<0.041986] yes=5,no=6,missing=6
		5:[D_CATEGORY_MACRO_MAX_COEC<0.073482] yes=11,no=12,missing=12
			11:[U_KEYWORD_MICRO_MAX_COEC<0.128863] yes=23,no=24,missing=24
				23:[D_KEYWORD_MEAN_EC<686.466] yes=47,no=48,missing=48
					47:[D_TITLEMD5_C<1.98502] yes=95,no=96,missing=95
						95:leaf=-0.0214763
						96:leaf=-0.00546157
					48:[U_KEYWORD_MEAN_EC<270.119] yes=97,no=98,missing=98
						97:leaf=-0.0313463
						98:leaf=-0.013662
				24:[C_D_U_CATEGORY_CITY_MICRO_MEAN_COEC<0.176493] yes=49,no=50,missing=49
					49:[D_KEYWORD_MACRO_MEAN_COEC<0.047868] yes=99,no=100,missing=99
						99:leaf=-0.0176534
						100:leaf=-0.00322806
					50:[C_D_U_CATEGORY_CITY_MEAN_C<0.734611] yes=101,no=102,missing=102
						101:leaf=0.00210619
						102:leaf=0.0199589
			12:[DAY_OF_WEEK<3] yes=25,no=26,missing=26
				25:[DOC_AGE<3] yes=51,no=52,missing=52
					51:[KW_REL<0.002071] yes=103,no=104,missing=104
						103:leaf=0.0113599
						104:leaf=0.0369435
					52:[C_D_U_TITLEMD5_AGE_C<28.1481] yes=105,no=106,missing=106
						105:leaf=-0.00792641
						106:leaf=0.00413317
				26:[U_KEYWORD_MEAN_EC<162.064] yes=53,no=54,missing=54
					53:[D_CATEGORY_MICRO_MAX_COEC<0.083458] yes=107,no=108,missing=107
						107:leaf=-0.00272923
						108:leaf=-0.0162346
					54:[U_CITY_COEC<0.262422] yes=109,no=110,missing=109
						109:leaf=-0.000802469
						110:leaf=0.0300996
		6:[U_KW_LEN<488] yes=13,no=14,missing=14
			13:[C_D_U_KEYWORD_CATEGORY_MACRO_MEAN_COEC<0.074453] yes=27,no=28,missing=27
				27:[U_KEYWORD_MICRO_MAX_COEC<0.117546] yes=55,no=56,missing=56
					55:[C_D_U_KEYWORD_CATEGORY_MEAN_EC<8.97785] yes=111,no=112,missing=112
						111:leaf=-0.00869698
						112:leaf=-0.0229043
					56:[DOC_AGE<7] yes=113,no=114,missing=114
						113:leaf=0.00562558
						114:leaf=-0.00645503
				28:[U_KW_LEN<140] yes=57,no=58,missing=58
					57:[C_D_U_PUBLISHER_AGE_EC<20543.4] yes=115,no=116,missing=116
						115:leaf=0.00907761
						116:leaf=-0.00441693
					58:[DOC_AGE<6] yes=117,no=118,missing=118
						117:leaf=0.0202219
						118:leaf=0.00643308
			14:[KW_REL<0.004882] yes=29,no=30,missing=30
				29:[D_KEYWORD_MEAN_EC<1409.09] yes=59,no=60,missing=60
					59:[C_D_U_PUBLISHER_AGE_COEC<0.059554] yes=119,no=120,missing=120
						119:leaf=-0.00741966
						120:leaf=0.0139269
					60:[U_KEYWORD_MACRO_MAX_COEC<0.001909] yes=121,no=122,missing=121
						121:leaf=-0.0134914
						122:leaf=0.00478508
				30:[D_KEYWORD_MAX_C<87.5869] yes=61,no=62,missing=62
					61:[DOC_AGE<9] yes=123,no=124,missing=124
						123:leaf=0.0530729
						124:leaf=0.0309812
					62:[U_KEYWORD_MACRO_MAX_COEC<0.001961] yes=125,no=126,missing=126
						125:leaf=0.00565261
						126:leaf=0.0278233
booster[46]:
0:[KW_REL<0.00139] yes=1,no=2,missing=2
	1:[U_KEYWORD_MICRO_MAX_COEC<0.113892] yes=3,no=4,missing=4
		3:[D_KEYWORD_MEAN_EC<809.671] yes=7,no=8,missing=8
			7:[D_TITLEMD5_C<2.89212] yes=15,no=16,missing=15
				15:[DOC_AGE<77] yes=31,no=32,missing=32
					31:[DOC_AGE<2] yes=63,no=64,missing=64
						63:leaf=-0.00780715
						64:leaf=-0.025764
					32:[U_KEYWORD_MEAN_EC<131.042] yes=65,no=66,missing=66
						65:leaf=-0.064531
						66:leaf=0.0393758
				16:[U_CATEGORY_MAX_EC<3328.88] yes=33,no=34,missing=34
					33:[DOC_AGE<24] yes=67,no=68,missing=68
						67:leaf=-0.0022131
						68:leaf=0.0169938
					34:[C_D_U_KEYWORD_CATEGORY_MACRO_MEAN_COEC<0.112706] yes=69,no=70,missing=69
						69:leaf=-0.0147096
						70:leaf=-0.00216515
			8:[C_D_U_KEYWORD_CATEGORY_MACRO_MEAN_COEC<0.080703] yes=17,no=18,missing=18
				17:[U_KEYWORD_MEAN_EC<168.486] yes=35,no=36,missing=36
					35:[C_D_U_TITLEMD5_CATEGORY_MEAN_EC<7.86766] yes=71,no=72,missing=72
						71:leaf=-0.0505212
						72:leaf=-0.0266128
					36:[D_CATEGORY_MICRO_MAX_COEC<0.088706] yes=73,no=74,missing=73
						73:leaf=-0.0139335
						74:leaf=-0.0303395
				18:[C_D_U_PUBLISHER_AGE_EC<18823] yes=37,no=38,missing=38
					37:[C_D_U_KEYWORD_CATEGORY_MACRO_MEAN_COEC<0.112706] yes=75,no=76,missing=76
						75:leaf=-0.00588848
						76:leaf=0.0148285
					38:[DAY_OF_WEEK<2] yes=77,no=78,missing=78
						77:leaf=-0.00579069
						78:leaf=-0.017541
		4:[U_CITY_COEC<0.062509] yes=9,no=10,missing=10
			9:[C_D_U_PUBLISHER_CITY_COEC<0.073248] yes=19,no=20,missing=19
				19:[C_D_U_CATEGORY_CITY_MEAN_EC<6.83266] yes=39,no=40,missing=39
					39:[C_D_U_TITLEMD5_CITY_EC<1.27887] yes=79,no=80,missing=80
						79:leaf=0.0124451
						80:leaf=-0.00975531
					40:[DAY_OF_WEEK<4] yes=81,no=82,missing=82
						81:leaf=-0.0140514
						82:leaf=-0.0300064
				20:[C_D_U_TITLEMD5_CITY_COEC<0.523791] yes=41,no=42,missing=41
					41:[U_KEYWORD_MICRO_MEAN_COEC<0.101076] yes=83,no=84,missing=83
						83:leaf=0.00158751
						84:leaf=-0.0122386
					42:[C_D_U_TITLEMD5_CITY_C<0.653072] yes=85,no=86,missing=86
						85:leaf=-0.0583907
						86:leaf=0.04165
			10:[U_CITY_COEC<0.259928] yes=21,no=22,missing=21
				21:[DAY_OF_WEEK<3] yes=43,no=44,missing=44
					43:[C_D_U_TITLEMD5_CATEGORY_MEAN_EC<28.8285] yes=87,no=88,missing=87
						87:leaf=0.00201063
						88:leaf=0.0142771
					44:[U_KEYWORD_MEAN_C<19.3637] yes=89,no=90,missing=90
						89:leaf=-0.00976004
						90:leaf=-0.00132372
				22:[C_D_U_TITLEMD5_CITY_COEC<0.183453] yes=45,no=46,missing=46
					45:[U_CITY_EC<437.438] yes=91,no=92,missing=92
						91:leaf=0.0706505
						92:leaf=-0.0407744
					46:[C_D_U_CATEGORY_AGE_MEAN_C<4802.85] yes=93,no=94,missing=94
						93:leaf=0.00181351
						94:leaf=0.0279454
	2:[D_KEYWORD_MEAN_EC<1522.69] yes=5,no=6,missing=6
		5:[U_KW_LEN<156] yes=11,no=12,missing=12
			11:[C_D_U_KEYWORD_CATEGORY_MACRO_MEAN_COEC<0.090903] yes=23,no=24,missing=23
				23:[U_KEYWORD_MEAN_EC<144.969] yes=47,no=48,missing=48
					47:[M_D_U_KEYWORD_KEYWORD_MICRO_MAX_COEC<0.134224] yes=95,no=96,missing=95
						95:leaf=-0.00551262
						96:leaf=0.0210155
					48:[D_TITLEMD5_COEC<0.08476] yes=97,no=98,missing=98
						97:leaf=-0.0198165
						98:leaf=-0.00659502
				24:[C_D_U_CATEGORY_AGE_MEAN_EC<11736.3] yes=49,no=50,missing=50
					49:[WORD_COUNT<2622] yes=99,no=100,missing=100
						99:leaf=0.0103792
						100:leaf=0.039581
					50:[U_CITY_C<29.8249] yes=101,no=102,missing=102
						101:leaf=0.00952057
						102:leaf=-0.00379898
			12:[D_KEYWORD_MAX_EC<93.821] yes=25,no=26,missing=26
				25:[C_D_U_TITLEMD5_CATEGORY_MICRO_MEAN_COEC<0.12061] yes=51,no=52,missing=52
					51:[U_KEYWORD_MICRO_MEAN_COEC<0.091693] yes=103,no=104,missing=104
						103:leaf=0.022023
						104:leaf=0.0440253
					52:[C_D_U_TITLEMD5_CITY_C<0.900086] yes=105,no=106,missing=105
						105:leaf=0.0138283
						106:leaf=0.0469795
				26:[C_D_U_KEYWORD_CATEGORY_MACRO_MEAN_COEC<0.063134] yes=53,no=54,missing=54
					53:[KW_REL<0.003193] yes=107,no=108,missing=108
						107:leaf=0.000338384
						108:leaf=0.0148822
					54:[TIME_OF_DAY<2] yes=109,no=110,missing=110
						109:leaf=-0.000254731
						110:leaf=0.0160618
		6:[KW_REL<0.005238] yes=13,no=14,missing=14
			13:[D_TITLEMD5_EC<2698.34] yes=27,no=28,missing=28
				27:[D_KEYWORD_MEAN_EC<2630.13] yes=55,no=56,missing=56
					55:[D_PUBLISHER_EC<593.236] yes=111,no=112,missing=112
						111:leaf=-0.080034
						112:leaf=-0.00749293
					56:[U_KEYWORD_MAX_C<14.2744] yes=113,no=114,missing=114
						113:leaf=-0.0308739
						114:leaf=-0.0113367
				28:[D_KEYWORD_MAX_C<521.778] yes=57,no=58,missing=58
					57:[DAY_OF_WEEK<0.999999] yes=115,no=116,missing=116
						115:leaf=0.0194823
						116:leaf=0.00376502
					58:[D_KEYWORD_MACRO_MAX_COEC<0.038655] yes=117,no=118,missing=118
						117:leaf=-0.0471463
						118:leaf=-0.0106302
			14:[DOC_AGE<16] yes=29,no=30,missing=30
				29:[KW_REL<0.009153] yes=59,no=60,missing=60
					59:[U_KW_LEN<748] yes=119,no=120,missing=120
						119:leaf=0.00228356
						120:leaf=0.0208839
					60:[U_KW_LEN<138] yes=121,no=122,missing=122
						121:leaf=0.0112387
						122:leaf=0.0348281
				30:[D_TITLEMD5_COEC<0.282514] yes=61,no=62,missing=61
					61:[U_CATEGORY_MICRO_MEAN_COEC<0.095242] yes=123,no=124,missing=124
						123:leaf=0.0106894
						124:leaf=-0.00619377
					62:[D_CATEGORY_MACRO_MAX_COEC<0.083293] yes=125,no=126,missing=126
						125:leaf=0.001337
						126:leaf=-0.205299
booster[47]:
0:[IMAGE_COUNT<2] yes=1,no=2,missing=2
	1:[WORD_COUNT<1004] yes=3,no=4,missing=4
		3:[D_KEYWORD_MEAN_EC<2023.04] yes=7,no=8,missing=7
			7:[D_TITLEMD5_C<2.91604] yes=15,no=16,missing=15
				15:[C_D_U_TITLEMD5_CITY_C<1.8518] yes=31,no=32,missing=32
					31:[U_CITY_C<455.453] yes=63,no=64,missing=64
						63:leaf=0.032021
						64:leaf=-0.0192778
					32:[DOC_AGE<5] yes=65,no=66,missing=66
						65:leaf=-0.0150624
						66:leaf=-0.031701
				16:[U_KW_LEN<635] yes=33,no=34,missing=34
					33:[D_KEYWORD_MACRO_MAX_COEC<0.026805] yes=67,no=68,missing=68
						67:leaf=-0.0144118
						68:leaf=-0.00587236
					34:[D_PUBLISHER_C<5079.07] yes=69,no=70,missing=70
						69:leaf=0.00350023
						70:leaf=-0.0163791
			8:[M_D_U_KEYWORD_KEYWORD_MACRO_MAX_COEC<0.000523] yes=17,no=18,missing=17
				17:[C_D_U_TITLEMD5_CATEGORY_MEAN_C<7.66378] yes=35,no=36,missing=36
					35:[D_CATEGORY_MAX_C<9813.4] yes=71,no=72,missing=71
						71:leaf=-0.0412151
						72:leaf=-0.0152133
					36:[D_PUBLISHER_COEC<0.103614] yes=73,no=74,missing=74
						73:leaf=0.000642045
						74:leaf=-0.0241115
				18:[D_KEYWORD_MACRO_MAX_COEC<0.046421] yes=37,no=38,missing=38
					37:[C_D_U_KEYWORD_CATEGORY_MICRO_MEAN_COEC<0.111722] yes=75,no=76,missing=76
						75:leaf=-0.0300593
						76:leaf=0.00030266
					38:[CAT_REL<0.042291] yes=77,no=78,missing=78
						77:leaf=-0.062445
						78:leaf=-0.0178212
		4:[CAT_REL<0.043938] yes=9,no=10,missing=10
			9:[U_KEYWORD_MEAN_EC<181.635] yes=19,no=20,missing=20
				19:[U_KEYWORD_MICRO_MAX_COEC<0.150778] yes=39,no=40,missing=40
					39:[C_D_U_TITLEMD5_CATEGORY_MEAN_C<0.274029] yes=79,no=80,missing=79
						79:leaf=-0.0224969
						80:leaf=-0.00942223
					40:[U_CITY_COEC<0.140327] yes=81,no=82,missing=81
						81:leaf=-0.00300146
						82:leaf=0.0232832
				20:[U_CITY_COEC<0.048584] yes=41,no=42,missing=42
					41:[C_D_U_TITLEMD5_CITY_EC<2.62224] yes=83,no=84,missing=83
						83:leaf=-0.0110208
						84:leaf=-0.0529105
					42:[TIME_OF_DAY<3] yes=85,no=86,missing=86
						85:leaf=-0.00810788
						86:leaf=0.000173705
			10:[U_KW_LEN<252] yes=21,no=22,missing=22
				21:[C_D_U_KEYWORD_CATEGORY_MACRO_MEAN_COEC<0.0815] yes=43,no=44,missing=43
					43:[U_KEYWORD_MICRO_MAX_COEC<0.118189] yes=87,no=88,missing=88
						87:leaf=-0.018819
						88:leaf=-0.00609117
					44:[D_KEYWORD_MICRO_MEAN_COEC<0.104427] yes=89,no=90,missing=90
						89:leaf=0.00957226
						90:leaf=-0.0022631
				22:[D_KEYWORD_MAX_EC<143.015] yes=45,no=46,missing=46
					45:[D_PUBLISHER_EC<19875.4] yes=91,no=92,missing=91
						91:leaf=0.00797278
						92:leaf=0.022622
					46:[M_D_U_KEYWORD_KEYWORD_MACRO_MEAN_COEC<0.000169] yes=93,no=94,missing=93
						93:leaf=-0.00203379
						94:leaf=0.0113401
	2:[DOC_AGE<3] yes=5,no=6,missing=6
		5:[C_D_U_PUBLISHER_AGE_COEC<0.152165] yes=11,no=12,missing=11
			11:[D_CATEGORY_MACRO_MAX_COEC<0.152581] yes=23,no=24,missing=23
				23:[U_KEYWORD_MICRO_MAX_COEC<0.11518] yes=47,no=48,missing=47
					47:[DAY_OF_WEEK<4] yes=95,no=96,missing=96
						95:leaf=0.00918289
						96:leaf=-0.00204403
					48:[D_PUBLISHER_COEC<0.139509] yes=97,no=98,missing=97
						97:leaf=0.0119242
						98:leaf=0.0288349
				24:[D_KEYWORD_MACRO_MAX_COEC<0.019104] yes=49,no=50,missing=50
					49:[U_CATEGORY_MICRO_MEAN_COEC<0.091899] yes=99,no=100,missing=100
						99:leaf=0.0158015
						100:leaf=-0.0892675
					50:[D_TITLEMD5_COEC<0.09107] yes=101,no=102,missing=101
						101:leaf=0.124146
						102:leaf=-0.00822813
			12:[C_D_U_CATEGORY_AGE_MEAN_C<14.608] yes=25,no=26,missing=26
				25:[D_TITLEMD5_C<0.994999] yes=51,no=52,missing=52
					51:[U_KEYWORD_MICRO_MAX_COEC<0.124464] yes=103,no=104,missing=104
						103:leaf=0.123324
						104:leaf=0.345521
					52:[U_CATEGORY_MICRO_MEAN_COEC<0.091899] yes=105,no=106,missing=105
						105:leaf=0.0429864
						106:leaf=0.126778
				26:[D_KEYWORD_MEAN_EC<450.736] yes=53,no=54,missing=54
					53:[U_KEYWORD_MEAN_EC<99.6639] yes=107,no=108,missing=108
						107:leaf=0.0155814
						108:leaf=0.0569685
					54:[D_PUBLISHER_COEC<0.148199] yes=109,no=110,missing=110
						109:leaf=0.0441032
						110:leaf=0.0124259
		6:[U_CAT_LEN<21] yes=13,no=14,missing=14
			13:[C_D_U_PUBLISHER_AGE_EC<40366.5] yes=27,no=28,missing=27
				27:[U_KEYWORD_MICRO_MEAN_COEC<0.085789] yes=55,no=56,missing=56
					55:[M_D_U_KEYWORD_KEYWORD_MICRO_MEAN_COEC<0.158787] yes=111,no=112,missing=111
						111:leaf=-0.0165165
						112:leaf=0.0208763
					56:[C_D_U_TITLEMD5_CATEGORY_MEAN_EC<0.921506] yes=113,no=114,missing=114
						113:leaf=-0.00976072
						114:leaf=0.00272487
				28:[C_D_U_TITLEMD5_AGE_COEC<0.249372] yes=57,no=58,missing=58
					57:[D_CATEGORY_MICRO_MAX_COEC<0.093628] yes=115,no=116,missing=115
						115:leaf=-0.0104731
						116:leaf=-0.0434422
					58:leaf=-0.205619
			14:[C_D_U_PUBLISHER_AGE_COEC<0.099698] yes=29,no=30,missing=30
				29:[C_D_U_KEYWORD_CATEGORY_MACRO_MEAN_COEC<0.060764] yes=59,no=60,missing=60
					59:[U_KEYWORD_MACRO_MAX_COEC<0.001247] yes=117,no=118,missing=118
						117:leaf=0.00785322
						118:leaf=-0.0190028
					60:[C_D_U_TITLEMD5_CATEGORY_MACRO_MAX_COEC<0.087513] yes=119,no=120,missing=120
						119:leaf=0.038735
						120:leaf=0.166985
				30:[D_KEYWORD_MEAN_C<30.1343] yes=61,no=62,missing=62
					61:[M_D_U_KEYWORD_KEYWORD_MICRO_MEAN_COEC<0.137006] yes=121,no=122,missing=122
						121:leaf=0.0602683
						122:leaf=0.0285523
					62:[C_D_U_KEYWORD_CATEGORY_MACRO_MAX_COEC<0.003868] yes=123,no=124,missing=124
						123:leaf=0.00653672
						124:leaf=0.0239559
booster[48]:
0:[U_CITY_COEC<0.119854] yes=1,no=2,missing=1
	1:[C_D_U_TITLEMD5_CITY_EC<0.970372] yes=3,no=4,missing=3
		3:[DOC_AGE<4] yes=7,no=8,missing=8
			7:[D_PUBLISHER_COEC<0.069744] yes=15,no=16,missing=15
				15:[D_PUBLISHER_COEC<0.040906] yes=31,no=32,missing=31
					31:[D_PUBLISHER_EC<5538.41] yes=63,no=64,missing=63
						63:leaf=-0.0311643
						64:leaf=0.0300309
					32:[DAY_OF_WEEK<2] yes=65,no=66,missing=66
						65:leaf=0.00333718
						66:leaf=-0.00769026
				16:[U_KW_LEN<603] yes=33,no=34,missing=34
					33:[CAT_REL<0.156326] yes=67,no=68,missing=68
						67:leaf=0.000505273
						68:leaf=0.0137405
					34:[DOC_AGE<2] yes=69,no=70,missing=70
						69:leaf=0.0202048
						70:leaf=0.00606968
			8:[D_TITLEMD5_C<86.3654] yes=17,no=18,missing=17
				17:[C_D_U_TITLEMD5_CITY_C<0.970372] yes=35,no=36,missing=35
					35:[D_KEYWORD_MEAN_EC<539.138] yes=71,no=72,missing=71
						71:leaf=-0.00590296
						72:leaf=-0.0131751
					36:[DOC_AGE<11] yes=73,no=74,missing=74
						73:leaf=0.079321
						74:leaf=0.154223
				18:[D_PUBLISHER_EC<169363] yes=37,no=38,missing=38
					37:[D_CATEGORY_MAX_EC<30784.3] yes=75,no=76,missing=75
						75:leaf=0.0029755
						76:leaf=-0.00330214
					38:[D_TITLEMD5_COEC<0.252873] yes=77,no=78,missing=78
						77:leaf=-0.0154627
						78:leaf=-0.180712
		4:[U_CITY_EC<421.118] yes=9,no=10,missing=10
			9:[D_TITLEMD5_EC<2054.41] yes=19,no=20,missing=20
				19:[C_D_U_TITLEMD5_CITY_C<0.985074] yes=39,no=40,missing=40
					39:[DOC_AGE<13] yes=79,no=80,missing=80
						79:leaf=0.0251271
						80:leaf=0.0580841
					40:[DOC_AGE<11] yes=81,no=82,missing=82
						81:leaf=0.0697632
						82:leaf=0.11694
				20:[U_CITY_COEC<0.03586] yes=41,no=42,missing=42
					41:[C_D_U_TITLEMD5_CITY_EC<1.28796] yes=83,no=84,missing=84
						83:leaf=0.0207247
						84:leaf=-0.0320045
					42:[C_D_U_TITLEMD5_CITY_C<0.985074] yes=85,no=86,missing=86
						85:leaf=0.0101342
						86:leaf=0.0316247
			10:[U_CITY_C<489.139] yes=21,no=22,missing=22
				21:[U_KW_LEN<730] yes=43,no=44,missing=44
					43:[CAT_REL<0.072738] yes=87,no=88,missing=88
						87:leaf=-0.000443036
						88:leaf=0.00920914
					44:[CAT_REL<0.043687] yes=89,no=90,missing=90
						89:leaf=0.0109656
						90:leaf=0.0245824
				22:[U_KEYWORD_MICRO_MAX_COEC<0.123728] yes=45,no=46,missing=46
					45:[C_D_U_TITLEMD5_CITY_C<1.93327] yes=91,no=92,missing=92
						91:leaf=-0.0145636
						92:leaf=-0.00238487
					46:[U_KEYWORD_MICRO_MEAN_COEC<0.113049] yes=93,no=94,missing=93
						93:leaf=-0.00181607
						94:leaf=0.0232317
	2:[C_D_U_TITLEMD5_CITY_COEC<0.141265] yes=5,no=6,missing=6
		5:[U_CITY_EC<71.8943] yes=11,no=12,missing=12
			11:[C_D_U_TITLEMD5_CATEGORY_MEAN_C<2.12865] yes=23,no=24,missing=24
				23:[D_TITLEMD5_C<54.1868] yes=47,no=48,missing=48
					47:[C_D_U_CATEGORY_CITY_MEAN_EC<1.16229] yes=95,no=96,missing=95
						95:leaf=0.137396
						96:leaf=0.0996413
					48:[DOC_AGE<14] yes=97,no=98,missing=98
						97:leaf=0.0457315
						98:leaf=0.0871776
				24:[U_CITY_EC<10.5818] yes=49,no=50,missing=50
					49:[D_TITLEMD5_EC<7659.7] yes=99,no=100,missing=100
						99:leaf=0.107381
						100:leaf=0.0292416
					50:[C_D_U_TITLEMD5_CITY_EC<0.980149] yes=101,no=102,missing=102
						101:leaf=0.0150459
						102:leaf=0.0579596
			12:[U_KW_LEN<548] yes=25,no=26,missing=26
				25:[C_D_U_TITLEMD5_CITY_EC<0.960692] yes=51,no=52,missing=52
					51:[D_CATEGORY_MEAN_C<347.821] yes=103,no=104,missing=103
						103:leaf=0.0205339
						104:leaf=-0.00673401
					52:[D_TITLEMD5_C<74.8947] yes=105,no=106,missing=106
						105:leaf=0.0376961
						106:leaf=0.00775378
				26:[D_TITLEMD5_C<31.4146] yes=53,no=54,missing=54
					53:[U_CITY_EC<1465.44] yes=107,no=108,missing=108
						107:leaf=0.0719595
						108:leaf=-0.00589375
					54:[U_CITY_EC<964.65] yes=109,no=110,missing=110
						109:leaf=0.0283899
						110:leaf=-0.00812369
		6:[C_D_U_CATEGORY_CITY_MICRO_MEAN_COEC<0.308436] yes=13,no=14,missing=13
			13:[DOC_AGE<7] yes=27,no=28,missing=28
				27:[U_CAT_LEN<21] yes=55,no=56,missing=56
					55:[U_KEYWORD_MICRO_MAX_COEC<0.108931] yes=111,no=112,missing=112
						111:leaf=-0.012352
						112:leaf=0.00741068
					56:[U_CATEGORY_MEAN_C<67.4646] yes=113,no=114,missing=114
						113:leaf=0.0566218
						114:leaf=0.017336
				28:[C_D_U_CATEGORY_AGE_MACRO_MAX_COEC<0.115587] yes=57,no=58,missing=58
					57:[C_D_U_TITLEMD5_CITY_C<0.936914] yes=115,no=116,missing=115
						115:leaf=-0.0131212
						116:leaf=0.0250004
					58:[U_CITY_COEC<0.261027] yes=117,no=118,missing=118
						117:leaf=-0.00127534
						118:leaf=0.0172927
			14:[C_D_U_CATEGORY_CITY_MEAN_C<0.975248] yes=29,no=30,missing=30
				29:[C_D_U_TITLEMD5_CITY_C<0.602741] yes=59,no=60,missing=60
					59:[KW_REL<0.00278] yes=119,no=120,missing=120
						119:leaf=-0.0397581
						120:leaf=-0.163903
					60:[C_D_U_TITLEMD5_CITY_C<0.975248] yes=121,no=122,missing=121
						121:leaf=0.000796189
						122:leaf=0.0957687
				30:[C_D_U_TITLEMD5_CITY_C<0.900086] yes=61,no=62,missing=62
					61:[TIME_OF_DAY<11] yes=123,no=124,missing=124
						123:leaf=-0.0517458
						124:leaf=-0.00333548
					62:[C_D_U_CATEGORY_CITY_MICRO_MAX_COEC<0.582579] yes=125,no=126,missing=126
						125:leaf=0.0201
						126:leaf=0.0427664
booster[49]:
0:[U_KEYWORD_MICRO_MAX_COEC<0.133551] yes=1,no=2,missing=1
	1:[D_TITLEMD5_COEC<0.128914] yes=3,no=4,missing=3
		3:[KW_REL<0.002992] yes=7,no=8,missing=8
			7:[D_KEYWORD_MEAN_EC<996.366] yes=15,no=16,missing=15
				15:[D_TITLEMD5_C<4.95027] yes=31,no=32,missing=31
					31:[D_CATEGORY_MACRO_MEAN_COEC<0.075703] yes=63,no=64,missing=64
						63:leaf=-0.0149482
						64:leaf=-0.00349017
					32:[U_CAT_LEN<22] yes=65,no=66,missing=66
						65:leaf=-0.00242933
						66:leaf=0.0117545
				16:[C_D_U_TITLEMD5_CATEGORY_MEAN_C<0.986727] yes=33,no=34,missing=34
					33:[U_KEYWORD_MEAN_EC<333.74] yes=67,no=68,missing=67
						67:leaf=-0.0333801
						68:leaf=-0.0141686
					34:[D_KEYWORD_MEAN_EC<4926.49] yes=69,no=70,missing=70
						69:leaf=-0.00472022
						70:leaf=-0.0298203
			8:[D_KEYWORD_MEAN_C<110.223] yes=17,no=18,missing=18
				17:[U_KW_LEN<800] yes=35,no=36,missing=36
					35:[WORD_COUNT<1695] yes=71,no=72,missing=72
						71:leaf=-0.00593923
						72:leaf=0.0120202
					36:[KW_REL<0.005179] yes=73,no=74,missing=74
						73:leaf=0.0226103
						74:leaf=0.0503208
				18:[M_D_U_KEYWORD_KEYWORD_MACRO_MEAN_COEC<0.001079] yes=37,no=38,missing=37
					37:[D_PUBLISHER_C<173.757] yes=75,no=76,missing=75
						75:leaf=-0.0359857
						76:leaf=-0.00399914
					38:[D_KEYWORD_MICRO_MEAN_COEC<0.118961] yes=77,no=78,missing=78
						77:leaf=0.0203142
						78:leaf=-0.00871639
		4:[DAY_OF_WEEK<2] yes=9,no=10,missing=10
			9:[U_KEYWORD_MICRO_MEAN_COEC<0.086773] yes=19,no=20,missing=20
				19:[U_CITY_C<216.404] yes=39,no=40,missing=40
					39:[D_TITLEMD5_EC<1966.2] yes=79,no=80,missing=80
						79:leaf=0.00844826
						80:leaf=-0.0147419
					40:[DOC_AGE<41] yes=81,no=82,missing=82
						81:leaf=-0.0160582
						82:leaf=-0.0640015
				20:[D_PUBLISHER_EC<178931] yes=41,no=42,missing=42
					41:[D_TITLEMD5_COEC<0.184886] yes=83,no=84,missing=84
						83:leaf=0.00614003
						84:leaf=0.0175094
					42:[D_TITLEMD5_COEC<0.28173] yes=85,no=86,missing=86
						85:leaf=-0.00342124
						86:leaf=-0.0928895
			10:[D_PUBLISHER_EC<168901] yes=21,no=22,missing=22
				21:[U_KEYWORD_MICRO_MEAN_COEC<0.090314] yes=43,no=44,missing=44
					43:[C_D_U_TITLEMD5_AGE_COEC<0.165382] yes=87,no=88,missing=87
						87:leaf=-0.0210169
						88:leaf=0.00325026
					44:[C_D_U_PUBLISHER_AGE_COEC<0.137259] yes=89,no=90,missing=89
						89:leaf=-6.36266e-05
						90:leaf=0.011047
				22:[D_KEYWORD_MICRO_MEAN_COEC<0.1124] yes=45,no=46,missing=46
					45:[D_KEYWORD_MICRO_MAX_COEC<0.176703] yes=91,no=92,missing=92
						91:leaf=-0.0111646
						92:leaf=0.0213576
					46:[D_TITLEMD5_COEC<0.28173] yes=93,no=94,missing=94
						93:leaf=-0.0167291
						94:leaf=-0.129583
	2:[U_KW_LEN<714] yes=5,no=6,missing=6
		5:[U_KEYWORD_MACRO_MEAN_COEC<0.028081] yes=11,no=12,missing=12
			11:[U_KW_LEN<412] yes=23,no=24,missing=24
				23:[U_CATEGORY_MACRO_MAX_COEC<0.022411] yes=47,no=48,missing=48
					47:[U_KEYWORD_MACRO_MEAN_COEC<0.0265] yes=95,no=96,missing=96
						95:leaf=-0.0558445
						96:leaf=-0.0297503
					48:[TIME_OF_DAY<14] yes=97,no=98,missing=98
						97:leaf=0.00753906
						98:leaf=-0.0326517
				24:[U_KEYWORD_MACRO_MEAN_COEC<0.023852] yes=49,no=50,missing=50
					49:[C_D_U_PUBLISHER_GENDER_COEC<0.116935] yes=99,no=100,missing=99
						99:leaf=-0.0397345
						100:leaf=0.0263473
					50:[DAY_OF_WEEK<4] yes=101,no=102,missing=102
						101:leaf=0.00324843
						102:leaf=-0.016086
			12:[U_KW_LEN<358] yes=25,no=26,missing=26
				25:[TIME_OF_DAY<3] yes=51,no=52,missing=52
					51:[U_CAT_LEN<6] yes=103,no=104,missing=104
						103:leaf=-0.012981
						104:leaf=-0.00129656
					52:[U_KEYWORD_MACRO_MEAN_COEC<0.033521] yes=105,no=106,missing=106
						105:leaf=-0.0078586
						106:leaf=0.00581401
				26:[DAY_OF_WEEK<3] yes=53,no=54,missing=54
					53:[TIME_OF_DAY<11] yes=107,no=108,missing=108
						107:leaf=0.0136611
						108:leaf=0.0351852
					54:[TIME_OF_DAY<4] yes=109,no=110,missing=110
						109:leaf=-0.00437248
						110:leaf=0.0120556
		6:[U_KEYWORD_MICRO_MAX_COEC<0.184083] yes=13,no=14,missing=14
			13:[U_KW_LEN<1575] yes=27,no=28,missing=28
				27:[U_CAT_LEN<26] yes=55,no=56,missing=56
					55:[U_KEYWORD_MACRO_MEAN_COEC<0.019232] yes=111,no=112,missing=112
						111:leaf=-0.0407972
						112:leaf=0.00941547
					56:[U_CATEGORY_MICRO_MEAN_COEC<0.104953] yes=113,no=114,missing=114
						113:leaf=0.0371226
						114:leaf=-0.13724
				28:[U_CATEGORY_MICRO_MEAN_COEC<0.091373] yes=57,no=58,missing=58
					57:[TIME_OF_DAY<22] yes=115,no=116,missing=116
						115:leaf=0.00436271
						116:leaf=-0.113933
					58:[U_KEYWORD_MEAN_EC<131.166] yes=117,no=118,missing=118
						117:leaf=0.111875
						118:leaf=0.0390196
			14:[U_CATEGORY_MAX_EC<629.124] yes=29,no=30,missing=30
				29:[U_CITY_C<6.30953] yes=59,no=60,missing=60
					59:[U_CITY_C<1.80378] yes=119,no=120,missing=120
						119:leaf=0.0507122
						120:leaf=-0.124799
					60:[C_D_U_CATEGORY_CITY_MEAN_EC<329.109] yes=121,no=122,missing=121
						121:leaf=0.0029359
						122:leaf=-0.118492
				30:[D_KEYWORD_MEAN_C<174.743] yes=61,no=62,missing=61
					61:[U_CAT_LEN<19] yes=123,no=124,missing=124
						123:leaf=0.0314689
						124:leaf=0.0644532
					62:[U_KEYWORD_MEAN_C<16.7297] yes=125,no=126,missing=126
						125:leaf=-0.0394945
						126:leaf=0.0112168
booster[50]:
0:[U_CITY_COEC<0.107876] yes=1,no=2,missing=1
	1:[C_D_U_CATEGORY_CITY_MACRO_MAX_COEC<0.064893] yes=3,no=4,missing=4
		3:[C_D_U_TITLEMD5_CITY_EC<0.960692] yes=7,no=8,missing=7
			7:[C_D_U_CATEGORY_CITY_MEAN_EC<6.44672] yes=15,no=16,missing=16
				15:[C_D_U_TITLEMD5_CITY_EC<0.834892] yes=31,no=32,missing=32
					31:[D_TITLEMD5_EC<594.224] yes=63,no=64,missing=64
						63:leaf=0.0519549
						64:leaf=0.00663207
					32:[C_D_U_KEYWORD_CATEGORY_MACRO_MEAN_COEC<0.089141] yes=65,no=66,missing=66
						65:leaf=-0.0102011
						66:leaf=-0.00179131
				16:[DOC_AGE<6] yes=33,no=34,missing=34
					33:[KW_REL<0.003841] yes=67,no=68,missing=68
						67:leaf=-0.00808393
						68:leaf=0.00910815
					34:[C_D_U_TITLEMD5_AGE_EC<407.684] yes=69,no=70,missing=70
						69:leaf=-0.0254725
						70:leaf=-0.0131341
			8:[U_CITY_EC<410.446] yes=17,no=18,missing=18
				17:[C_D_U_TITLEMD5_CITY_EC<1.29951] yes=35,no=36,missing=36
					35:[C_D_U_TITLEMD5_CITY_EC<0.994999] yes=71,no=72,missing=72
						71:leaf=0.0177597
						72:leaf=0.0497358
					36:[U_CITY_COEC<0.035921] yes=73,no=74,missing=74
						73:leaf=-0.0339067
						74:leaf=0.00886326
				18:[D_KEYWORD_MEAN_C<80.0881] yes=37,no=38,missing=38
					37:[U_KEYWORD_MICRO_MEAN_COEC<0.091674] yes=75,no=76,missing=75
						75:leaf=-0.00328687
						76:leaf=0.00724325
					38:[M_D_U_KEYWORD_KEYWORD_MACRO_MAX_COEC<0.000136] yes=77,no=78,missing=77
						77:leaf=-0.0121117
						78:leaf=0.00299419
		4:[CAT_REL<0.019182] yes=9,no=10,missing=10
			9:[U_KEYWORD_MEAN_C<12.9453] yes=19,no=20,missing=20
				19:[U_KEYWORD_MICRO_MAX_COEC<0.154556] yes=39,no=40,missing=40
					39:[D_CATEGORY_MEAN_C<436.909] yes=79,no=80,missing=79
						79:leaf=-0.00267453
						80:leaf=-0.0177296
					40:[U_KEYWORD_MICRO_MAX_COEC<0.331233] yes=81,no=82,missing=82
						81:leaf=-0.00252502
						82:leaf=0.0240941
				20:[D_KEYWORD_MEAN_EC<3723.36] yes=41,no=42,missing=41
					41:[TIME_OF_DAY<10] yes=83,no=84,missing=84
						83:leaf=-0.00448094
						84:leaf=0.000833741
					42:[U_KEYWORD_MAX_C<13.1086] yes=85,no=86,missing=86
						85:leaf=-0.0416008
						86:leaf=-0.00913996
			10:[D_KEYWORD_MEAN_EC<659.135] yes=21,no=22,missing=22
				21:[KW_REL<0.000693] yes=43,no=44,missing=44
					43:[D_PUBLISHER_C<1032.27] yes=87,no=88,missing=87
						87:leaf=-0.00525089
						88:leaf=0.0079453
					44:[D_KEYWORD_MEAN_EC<197.926] yes=89,no=90,missing=90
						89:leaf=0.0264056
						90:leaf=0.0113313
				22:[D_TITLEMD5_C<117.615] yes=45,no=46,missing=46
					45:[M_D_U_KEYWORD_KEYWORD_MACRO_MEAN_COEC<0.000193] yes=91,no=92,missing=91
						91:leaf=-0.0121219
						92:leaf=0.00265747
					46:[U_KW_LEN<339] yes=93,no=94,missing=94
						93:leaf=8.96422e-05
						94:leaf=0.0096376
	2:[C_D_U_TITLEMD5_CITY_COEC<0.149964] yes=5,no=6,missing=6
		5:[U_CITY_EC<71.8709] yes=11,no=12,missing=12
			11:[D_TITLEMD5_EC<1399.57] yes=23,no=24,missing=24
				23:[U_CITY_EC<22.5145] yes=47,no=48,missing=48
					47:[U_KEYWORD_MICRO_MEAN_COEC<0.085994] yes=95,no=96,missing=95
						95:leaf=0.0806374
						96:leaf=0.131676
					48:[DOC_AGE<13] yes=97,no=98,missing=98
						97:leaf=0.0406847
						98:leaf=0.092166
				24:[U_KEYWORD_MICRO_MEAN_COEC<0.090229] yes=49,no=50,missing=49
					49:[D_KEYWORD_MACRO_MEAN_COEC<0.09583] yes=99,no=100,missing=100
						99:leaf=0.036086
						100:leaf=0.00396871
					50:[C_D_U_TITLEMD5_CITY_EC<0.985074] yes=101,no=102,missing=102
						101:leaf=0.0345646
						102:leaf=0.0785857
			12:[U_KW_LEN<867] yes=25,no=26,missing=26
				25:[D_TITLEMD5_EC<113.542] yes=51,no=52,missing=52
					51:[C_D_U_TITLEMD5_CATEGORY_MAX_EC<0.611188] yes=103,no=104,missing=104
						103:leaf=0.0747467
						104:leaf=0.0144309
					52:[D_TITLEMD5_COEC<0.032278] yes=105,no=106,missing=106
						105:leaf=-0.0379553
						106:leaf=0.00456922
				26:[U_CITY_C<193.731] yes=53,no=54,missing=54
					53:[D_TITLEMD5_EC<172.944] yes=107,no=108,missing=108
						107:leaf=0.0847748
						108:leaf=0.0321637
					54:[U_KEYWORD_MACRO_MEAN_COEC<0.025854] yes=109,no=110,missing=110
						109:leaf=-0.00424885
						110:leaf=0.0496832
		6:[C_D_U_CATEGORY_CITY_MICRO_MEAN_COEC<0.256444] yes=13,no=14,missing=14
			13:[C_D_U_KEYWORD_CATEGORY_MICRO_MAX_COEC<0.199074] yes=27,no=28,missing=28
				27:[D_KEYWORD_MAX_EC<202.761] yes=55,no=56,missing=56
					55:[C_D_U_KEYWORD_CATEGORY_MICRO_MEAN_COEC<0.076317] yes=111,no=112,missing=112
						111:leaf=-0.0128778
						112:leaf=0.00641928
					56:[C_D_U_CATEGORY_GENDER_MACRO_MEAN_COEC<0.095404] yes=113,no=114,missing=114
						113:leaf=-0.032876
						114:leaf=-0.0104624
				28:[TIME_OF_DAY<3] yes=57,no=58,missing=58
					57:[C_D_U_TITLEMD5_AGE_COEC<0.078158] yes=115,no=116,missing=116
						115:leaf=-0.0313176
						116:leaf=-0.00670206
					58:[TIME_OF_DAY<15] yes=117,no=118,missing=118
						117:leaf=0.00745543
						118:leaf=-6.70523e-05
			14:[C_D_U_PUBLISHER_CITY_C<0.969464] yes=29,no=30,missing=29
				29:[C_D_U_CATEGORY_CITY_MEAN_C<2.98742] yes=59,no=60,missing=59
					59:[C_D_U_CATEGORY_AGE_MACRO_MAX_COEC<0.131795] yes=119,no=120,missing=120
						119:leaf=-0.00662559
						120:leaf=0.00385332
					60:[C_D_U_PUBLISHER_CITY_COEC<0.022336] yes=121,no=122,missing=121
						121:leaf=0.0396009
						122:leaf=0.00825324
				30:[C_D_U_PUBLISHER_CITY_EC<2.04606] yes=61,no=62,missing=61
					61:[C_D_U_TITLEMD5_CITY_C<0.970372] yes=123,no=124,missing=123
						123:leaf=0.03863
						124:leaf=0.0877527
					62:[D_KEYWORD_MICRO_MEAN_COEC<0.092698] yes=125,no=126,missing=126
						125:leaf=0.0269414
						126:leaf=0.00800608
booster[51]:
0:[U_KEYWORD_MICRO_MAX_COEC<0.115186] yes=1,no=2,missing=2
	1:[U_KW_LEN<1841] yes=3,no=4,missing=4
		3:[C_D_U_TITLEMD5_AGE_C<10.8068] yes=7,no=8,missing=7
			7:[C_D_U_KEYWORD_CATEGORY_MACRO_MEAN_COEC<0.053319] yes=15,no=16,missing=15
				15:[C_D_U_KEYWORD_CATEGORY_MEAN_EC<3.6009] yes=31,no=32,missing=32
					31:[C_D_U_TITLEMD5_CATEGORY_MEAN_EC<0.234271] yes=63,no=64,missing=63
						63:leaf=-0.0205297
						64:leaf=-0.00600782
					32:[KW_REL<0.004197] yes=65,no=66,missing=66
						65:leaf=-0.0263192
						66:leaf=-0.0083463
				16:[D_KEYWORD_MEAN_C<115.639] yes=33,no=34,missing=34
					33:[U_KW_LEN<124] yes=67,no=68,missing=68
						67:leaf=-0.0110514
						68:leaf=0.000947725
					34:[M_D_U_KEYWORD_KEYWORD_MACRO_MAX_COEC<0.001418] yes=69,no=70,missing=69
						69:leaf=-0.0131917
						70:leaf=0.0212604
			8:[U_KEYWORD_MICRO_MEAN_COEC<0.100049] yes=17,no=18,missing=18
				17:[CAT_REL<0.046405] yes=35,no=36,missing=36
					35:[C_D_U_TITLEMD5_AGE_COEC<0.157265] yes=71,no=72,missing=72
						71:leaf=-0.00425011
						72:leaf=0.00830715
					36:[CAT_REL<0.229404] yes=73,no=74,missing=74
						73:leaf=0.0117297
						74:leaf=0.0302828
				18:[U_CATEGORY_MICRO_MAX_COEC<0.101675] yes=37,no=38,missing=37
					37:[C_D_U_TITLEMD5_GENDER_EC<36.5099] yes=75,no=76,missing=76
						75:leaf=-0.0704738
						76:leaf=0.0138925
					38:[C_D_U_KEYWORD_CATEGORY_MACRO_MEAN_COEC<0.130401] yes=77,no=78,missing=78
						77:leaf=-0.0191425
						78:leaf=0.00210499
		4:[U_CATEGORY_MICRO_MEAN_COEC<0.078949] yes=9,no=10,missing=10
			9:[U_KEYWORD_MEAN_C<10.8428] yes=19,no=20,missing=20
				19:[U_CATEGORY_MAX_C<79.8385] yes=39,no=40,missing=40
					39:[C_D_U_TITLEMD5_AGE_COEC<0.046487] yes=79,no=80,missing=79
						79:leaf=-0.0717608
						80:leaf=-0.106775
					40:[D_TITLEMD5_COEC<0.124282] yes=81,no=82,missing=82
						81:leaf=-0.0292129
						82:leaf=0.124572
				20:[U_CITY_EC<2355.48] yes=41,no=42,missing=41
					41:[U_KW_LEN<3892] yes=83,no=84,missing=84
						83:leaf=-0.00504245
						84:leaf=0.0645525
					42:[C_D_U_CATEGORY_AGE_MEAN_EC<13477.5] yes=85,no=86,missing=85
						85:leaf=-0.0806491
						86:leaf=0.0136562
			10:[U_CAT_LEN<39] yes=21,no=22,missing=22
				21:[D_KEYWORD_MEAN_EC<311.404] yes=43,no=44,missing=44
					43:[D_CATEGORY_MEAN_C<4189.55] yes=87,no=88,missing=88
						87:leaf=0.0149471
						88:leaf=0.0397834
					44:[KW_REL<0.002811] yes=89,no=90,missing=90
						89:leaf=-0.00106859
						90:leaf=0.0213477
				22:[U_KEYWORD_MAX_C<2.41404] yes=45,no=46,missing=46
					45:[U_CATEGORY_MICRO_MEAN_COEC<0.099369] yes=91,no=92,missing=92
						91:leaf=0.0506755
						92:leaf=-0.0490578
					46:[U_CATEGORY_MICRO_MEAN_COEC<0.103417] yes=93,no=94,missing=94
						93:leaf=-0.0622885
						94:leaf=0.0138279
	2:[U_CITY_COEC<0.060292] yes=5,no=6,missing=6
		5:[C_D_U_PUBLISHER_CITY_COEC<0.076563] yes=11,no=12,missing=11
			11:[U_CITY_EC<53.7708] yes=23,no=24,missing=24
				23:[C_D_U_TITLEMD5_CITY_EC<1.56924] yes=47,no=48,missing=48
					47:[D_TITLEMD5_EC<412.706] yes=95,no=96,missing=96
						95:leaf=0.0873602
						96:leaf=0.0184897
					48:[U_KW_LEN<608] yes=97,no=98,missing=98
						97:leaf=-0.00547202
						98:leaf=0.0174372
				24:[C_D_U_CATEGORY_CITY_MACRO_MEAN_COEC<0.051792] yes=49,no=50,missing=50
					49:[U_CITY_EC<1422.86] yes=99,no=100,missing=100
						99:leaf=-0.0171553
						100:leaf=-0.0472165
					50:[C_D_U_TITLEMD5_AGE_COEC<0.159593] yes=101,no=102,missing=102
						101:leaf=-0.0197798
						102:leaf=-0.00420372
			12:[C_D_U_TITLEMD5_CITY_C<0.895586] yes=25,no=26,missing=25
				25:[C_D_U_CATEGORY_AGE_MEAN_EC<5430.53] yes=51,no=52,missing=51
					51:[C_D_U_TITLEMD5_CITY_COEC<0.028685] yes=103,no=104,missing=104
						103:leaf=0.0106285
						104:leaf=-0.00201754
					52:[C_D_U_CATEGORY_GENDER_MAX_EC<2363.84] yes=105,no=106,missing=105
						105:leaf=-0.0207282
						106:leaf=0.000591064
				26:[C_D_U_TITLEMD5_CITY_COEC<0.526423] yes=53,no=54,missing=54
					53:[U_KEYWORD_MICRO_MAX_COEC<0.121251] yes=107,no=108,missing=107
						107:leaf=-0.00403401
						108:leaf=0.0390326
					54:[U_CITY_C<16.7386] yes=109,no=110,missing=110
						109:leaf=0.0676226
						110:leaf=0.0279157
		6:[TIME_OF_DAY<3] yes=13,no=14,missing=14
			13:[U_KW_LEN<537] yes=27,no=28,missing=28
				27:[D_TITLEMD5_C<34.4171] yes=55,no=56,missing=56
					55:[WORD_COUNT<956] yes=111,no=112,missing=112
						111:leaf=-0.0265679
						112:leaf=-0.0104627
					56:[DOC_AGE<5] yes=113,no=114,missing=114
						113:leaf=0.00231997
						114:leaf=-0.0063717
				28:[C_D_U_TITLEMD5_CATEGORY_MEAN_EC<7.49314] yes=57,no=58,missing=57
					57:[D_KEYWORD_MEAN_C<106.837] yes=115,no=116,missing=116
						115:leaf=0.00213065
						116:leaf=-0.0143111
					58:[DOC_AGE<4] yes=117,no=118,missing=118
						117:leaf=0.0408299
						118:leaf=0.00919097
			14:[DAY_OF_WEEK<5] yes=29,no=30,missing=30
				29:[U_CATEGORY_MICRO_MAX_COEC<0.11368] yes=59,no=60,missing=59
					59:[WORD_COUNT<2314] yes=119,no=120,missing=120
						119:leaf=0.00128635
						120:leaf=0.0066515
					60:[U_KEYWORD_MICRO_MAX_COEC<0.123136] yes=121,no=122,missing=122
						121:leaf=0.00714491
						122:leaf=0.0174782
				30:[U_KEYWORD_MEAN_C<28.8973] yes=61,no=62,missing=61
					61:[D_TITLEMD5_C<242.543] yes=123,no=124,missing=123
						123:leaf=-0.00684858
						124:leaf=0.000345952
					62:[TIME_OF_DAY<16] yes=125,no=126,missing=126
						125:leaf=0.00861404
						126:leaf=-0.00154008
booster[52]:
0:[D_PUBLISHER_C<89.1676] yes=1,no=2,missing=1
	1:[D_CATEGORY_MACRO_MAX_COEC<0.096725] yes=3,no=4,missing=3
		3:[D_TITLEMD5_EC<14.748] yes=7,no=8,missing=7
			7:[C_D_U_TITLEMD5_CITY_C<1.00931] yes=15,no=16,missing=16
				15:[U_CITY_C<76.9171] yes=31,no=32,missing=32
					31:[DOC_AGE<9] yes=63,no=64,missing=64
						63:leaf=0.0635033
						64:leaf=0.175969
					32:[D_CATEGORY_MACRO_MAX_COEC<0.060235] yes=65,no=66,missing=65
						65:leaf=-0.0288259
						66:leaf=0.067697
				16:[C_D_U_KEYWORD_CATEGORY_MACRO_MEAN_COEC<0.047713] yes=33,no=34,missing=34
					33:[U_CITY_COEC<0.261488] yes=67,no=68,missing=67
						67:leaf=-0.0362491
						68:leaf=0.0558837
					34:[U_KW_LEN<706] yes=69,no=70,missing=70
						69:leaf=-0.0187107
						70:leaf=0.0180261
			8:[IMAGE_COUNT<3] yes=17,no=18,missing=18
				17:[M_D_U_KEYWORD_KEYWORD_MACRO_MEAN_COEC<0.001602] yes=35,no=36,missing=35
					35:[U_CATEGORY_MICRO_MEAN_COEC<0.089703] yes=71,no=72,missing=72
						71:leaf=-0.0176497
						72:leaf=-0.00429123
					36:[U_KEYWORD_MICRO_MEAN_COEC<0.09309] yes=73,no=74,missing=74
						73:leaf=0.0530632
						74:leaf=0.00534145
				18:[U_KEYWORD_MICRO_MAX_COEC<0.197705] yes=37,no=38,missing=37
					37:[DOC_AGE<23] yes=75,no=76,missing=76
						75:leaf=0.00774583
						76:leaf=0.0416754
					38:[C_D_U_CATEGORY_CITY_MACRO_MAX_COEC<0.105444] yes=77,no=78,missing=77
						77:leaf=0.091305
						78:leaf=-0.080343
		4:[D_KEYWORD_MEAN_C<89.2024] yes=9,no=10,missing=9
			9:[D_CATEGORY_MEAN_C<4433.01] yes=19,no=20,missing=20
				19:[U_CATEGORY_MICRO_MEAN_COEC<0.107515] yes=39,no=40,missing=39
					39:[WORD_COUNT<2501] yes=79,no=80,missing=80
						79:leaf=-0.05269
						80:leaf=-0.0195433
					40:[U_CATEGORY_MACRO_MAX_COEC<0.011563] yes=81,no=82,missing=82
						81:leaf=0.183118
						82:leaf=-0.0590465
				20:[U_CATEGORY_MICRO_MEAN_COEC<0.098622] yes=41,no=42,missing=41
					41:[D_CATEGORY_MAX_EC<135827] yes=83,no=84,missing=84
						83:leaf=0.00331096
						84:leaf=0.172095
					42:[DOC_AGE<14] yes=85,no=86,missing=86
						85:leaf=-0.0141738
						86:leaf=-0.0765441
			10:[D_CATEGORY_MAX_EC<90818.6] yes=21,no=22,missing=22
				21:[D_CATEGORY_MAX_C<6018.67] yes=43,no=44,missing=44
					43:[M_D_U_KEYWORD_KEYWORD_MAX_C<0.000641] yes=87,no=88,missing=88
						87:leaf=-0.114315
						88:leaf=-0.0287624
					44:[DAY_OF_WEEK<3] yes=89,no=90,missing=90
						89:leaf=-0.00223508
						90:leaf=-0.106251
				22:[M_D_U_KEYWORD_KEYWORD_MACRO_MEAN_COEC<0.000263] yes=45,no=46,missing=45
					45:[C_D_U_CATEGORY_GENDER_MACRO_MAX_COEC<0.111624] yes=91,no=92,missing=92
						91:leaf=0.160149
						92:leaf=-0.0458761
					46:[D_KEYWORD_MACRO_MEAN_COEC<0.072901] yes=93,no=94,missing=94
						93:leaf=0.0996151
						94:leaf=-0.00383993
	2:[DOC_AGE<3] yes=5,no=6,missing=6
		5:[U_KW_LEN<197] yes=11,no=12,missing=12
			11:[D_TITLEMD5_C<14.3045] yes=23,no=24,missing=23
				23:[D_CATEGORY_MICRO_MAX_COEC<0.060736] yes=47,no=48,missing=48
					47:[D_PUBLISHER_EC<107402] yes=95,no=96,missing=96
						95:leaf=-0.0126426
						96:leaf=-0.0401877
					48:[IMAGE_COUNT<0.999999] yes=97,no=98,missing=98
						97:leaf=-0.0217863
						98:leaf=0.00112811
				24:[D_CATEGORY_MICRO_MEAN_COEC<0.152581] yes=49,no=50,missing=49
					49:[D_KEYWORD_MICRO_MAX_COEC<0.214013] yes=99,no=100,missing=100
						99:leaf=0.00496275
						100:leaf=0.0158633
					50:[D_KEYWORD_MACRO_MAX_COEC<0.018844] yes=101,no=102,missing=102
						101:leaf=-0.0656367
						102:leaf=0.00276831
			12:[C_D_U_PUBLISHER_CITY_COEC<0.147459] yes=25,no=26,missing=25
				25:[C_D_U_KEYWORD_CATEGORY_MACRO_MEAN_COEC<0.064362] yes=51,no=52,missing=52
					51:[D_KEYWORD_MEAN_C<57.5624] yes=103,no=104,missing=104
						103:leaf=0.00894284
						104:leaf=-0.00369337
					52:[C_D_U_TITLEMD5_CATEGORY_MICRO_MEAN_COEC<0.096616] yes=105,no=106,missing=105
						105:leaf=0.0269198
						106:leaf=0.0110239
				26:[D_KEYWORD_MAX_C<23.0084] yes=53,no=54,missing=54
					53:[C_D_U_CATEGORY_CITY_MACRO_MEAN_COEC<0.366621] yes=107,no=108,missing=107
						107:leaf=0.0261774
						108:leaf=0.0583029
					54:[KW_REL<0.002097] yes=109,no=110,missing=110
						109:leaf=0.0057176
						110:leaf=0.024704
		6:[C_D_U_TITLEMD5_AGE_EC<156.161] yes=13,no=14,missing=14
			13:[CAT_REL<0.122154] yes=27,no=28,missing=28
				27:[C_D_U_TITLEMD5_CITY_EC<1.65967] yes=55,no=56,missing=56
					55:[U_CITY_EC<684.191] yes=111,no=112,missing=112
						111:leaf=0.0386229
						112:leaf=-0.0125609
					56:[C_D_U_CATEGORY_AGE_MACRO_MAX_COEC<0.115498] yes=113,no=114,missing=114
						113:leaf=-0.0168488
						114:leaf=-0.00184022
				28:[U_KW_LEN<386] yes=57,no=58,missing=58
					57:[CAT_REL<0.235454] yes=115,no=116,missing=116
						115:leaf=-0.0136713
						116:leaf=0.00674888
					58:[U_CITY_EC<569.759] yes=117,no=118,missing=117
						117:leaf=0.0215545
						118:leaf=0.00287633
			14:[U_KW_LEN<1169] yes=29,no=30,missing=30
				29:[U_KEYWORD_MICRO_MAX_COEC<0.102523] yes=59,no=60,missing=60
					59:[C_D_U_PUBLISHER_AGE_C<1950.6] yes=119,no=120,missing=120
						119:leaf=-0.00141064
						120:leaf=-0.015723
					60:[TIME_OF_DAY<3] yes=121,no=122,missing=122
						121:leaf=-0.00586891
						122:leaf=0.000478791
				30:[CAT_REL<0.008558] yes=61,no=62,missing=62
					61:[D_CATEGORY_MEAN_EC<6206.1] yes=123,no=124,missing=123
						123:leaf=0.0188365
						124:leaf=-0.0055691
					62:[D_KEYWORD_MEAN_EC<421.22] yes=125,no=126,missing=126
						125:leaf=0.0224985
						126:leaf=0.00808097
booster[53]:
0:[DAY_OF_WEEK<3] yes=1,no=2,missing=2
	1:[U_KEYWORD_MICRO_MAX_COEC<0.113101] yes=3,no=4,missing=3
		3:[U_CATEGORY_MEAN_EC<3708.15] yes=7,no=8,missing=7
			7:[U_KEYWORD_MEAN_C<7.27344] yes=15,no=16,missing=16
				15:[U_CITY_EC<6666.63] yes=31,no=32,missing=31
					31:[CAT_REL<0.177572] yes=63,no=64,missing=64
						63:leaf=-0.0229229
						64:leaf=0.0446213
					32:[TIME_OF_DAY<23] yes=65,no=66,missing=66
						65:leaf=-0.0898399
						66:leaf=0.18298
				16:[U_KW_LEN<3139] yes=33,no=34,missing=34
					33:[C_D_U_CATEGORY_AGE_MACRO_MAX_COEC<0.072764] yes=67,no=68,missing=68
						67:leaf=-0.0125094
						68:leaf=0.00249565
					34:[U_CAT_LEN<36] yes=69,no=70,missing=70
						69:leaf=0.028429
						70:leaf=-0.0153612
			8:[CAT_REL<0.198592] yes=17,no=18,missing=18
				17:[C_D_U_KEYWORD_CATEGORY_MACRO_MEAN_COEC<0.067858] yes=35,no=36,missing=35
					35:[U_CATEGORY_MACRO_MEAN_COEC<0.060103] yes=71,no=72,missing=72
						71:leaf=-0.00539315
						72:leaf=-0.017423
					36:[U_KEYWORD_MACRO_MAX_COEC<0.004131] yes=73,no=74,missing=74
						73:leaf=-0.00139535
						74:leaf=-0.0114276
				18:[U_KEYWORD_MACRO_MEAN_COEC<0.045107] yes=37,no=38,missing=38
					37:[C_D_U_CATEGORY_AGE_MAX_EC<4103.45] yes=75,no=76,missing=76
						75:leaf=0.0423899
						76:leaf=0.0123915
					38:[U_KEYWORD_MEAN_EC<291.813] yes=77,no=78,missing=78
						77:leaf=0.00669672
						78:leaf=-0.0221504
		4:[U_CAT_LEN<3] yes=9,no=10,missing=10
			9:[C_D_U_KEYWORD_CATEGORY_MACRO_MEAN_COEC<0.095316] yes=19,no=20,missing=19
				19:[TIME_OF_DAY<2] yes=39,no=40,missing=40
					39:[U_KEYWORD_MAX_EC<90.4621] yes=79,no=80,missing=80
						79:leaf=-0.0332695
						80:leaf=-0.0853586
					40:[C_D_U_CATEGORY_AGE_MAX_C<529.14] yes=81,no=82,missing=81
						81:leaf=-0.0142265
						82:leaf=-0.0344062
				20:[D_KEYWORD_MICRO_MAX_COEC<0.196082] yes=41,no=42,missing=42
					41:[CAT_REL<0.173803] yes=83,no=84,missing=84
						83:leaf=-0.017267
						84:leaf=0.0148103
					42:[C_D_U_CATEGORY_AGE_MACRO_MEAN_COEC<0.108143] yes=85,no=86,missing=86
						85:leaf=-0.0469503
						86:leaf=0.0311733
			10:[U_CITY_COEC<0.10033] yes=21,no=22,missing=21
				21:[CAT_REL<0.234265] yes=43,no=44,missing=44
					43:[C_D_U_TITLEMD5_AGE_COEC<0.140942] yes=87,no=88,missing=88
						87:leaf=-0.00300211
						88:leaf=0.00594271
					44:[U_KW_LEN<132] yes=89,no=90,missing=90
						89:leaf=0.00893395
						90:leaf=0.0279219
				22:[C_D_U_TITLEMD5_CITY_COEC<0.436151] yes=45,no=46,missing=46
					45:[C_D_U_CATEGORY_CITY_MAX_EC<4.63548] yes=91,no=92,missing=91
						91:leaf=0.0442614
						92:leaf=0.0136724
					46:[DOC_AGE<7] yes=93,no=94,missing=94
						93:leaf=0.0157922
						94:leaf=0.00485945
	2:[WORD_COUNT<1655] yes=5,no=6,missing=6
		5:[D_CATEGORY_MACRO_MAX_COEC<0.067704] yes=11,no=12,missing=12
			11:[U_KEYWORD_MICRO_MEAN_COEC<0.092639] yes=23,no=24,missing=24
				23:[D_CATEGORY_MAX_EC<26547.7] yes=47,no=48,missing=48
					47:[D_TITLEMD5_EC<2071.28] yes=95,no=96,missing=95
						95:leaf=-0.0203612
						96:leaf=0.0404457
					48:[DOC_AGE<28] yes=97,no=98,missing=98
						97:leaf=-0.0538941
						98:leaf=-0.0121054
				24:[D_CATEGORY_MEAN_C<7172.76] yes=49,no=50,missing=50
					49:[U_CITY_COEC<0.176823] yes=99,no=100,missing=99
						99:leaf=-0.00933401
						100:leaf=0.0141957
					50:[WORD_COUNT<627] yes=101,no=102,missing=102
						101:leaf=-0.0625852
						102:leaf=-0.0200889
			12:[D_CATEGORY_MEAN_EC<9530.4] yes=25,no=26,missing=25
				25:[U_KEYWORD_MEAN_EC<125.161] yes=51,no=52,missing=51
					51:[D_KEYWORD_MICRO_MEAN_COEC<0.130534] yes=103,no=104,missing=104
						103:leaf=-0.00790176
						104:leaf=0.0231034
					52:[M_D_U_KEYWORD_KEYWORD_MACRO_MEAN_COEC<0.00049] yes=105,no=106,missing=105
						105:leaf=0.00563843
						106:leaf=0.0293283
				26:[D_KEYWORD_MEAN_EC<2525.01] yes=53,no=54,missing=54
					53:[D_PUBLISHER_COEC<0.062627] yes=107,no=108,missing=107
						107:leaf=-0.0147984
						108:leaf=-0.00360467
					54:[U_KEYWORD_MAX_EC<104.903] yes=109,no=110,missing=110
						109:leaf=-0.0311563
						110:leaf=-0.00669262
		6:[U_KEYWORD_MICRO_MEAN_COEC<0.110819] yes=13,no=14,missing=13
			13:[D_PUBLISHER_COEC<0.041094] yes=27,no=28,missing=27
				27:[D_PUBLISHER_C<115.47] yes=55,no=56,missing=55
					55:[D_CATEGORY_MACRO_MAX_COEC<0.098298] yes=111,no=112,missing=112
						111:leaf=-0.0247189
						112:leaf=-0.0575853
					56:[WORD_COUNT<2565] yes=113,no=114,missing=114
						113:leaf=-0.0251279
						114:leaf=0.0159339
				28:[D_KEYWORD_MEAN_EC<669.708] yes=57,no=58,missing=58
					57:[KW_REL<0.000596] yes=115,no=116,missing=116
						115:leaf=-0.00176422
						116:leaf=0.00894251
					58:[C_D_U_TITLEMD5_CATEGORY_MEAN_C<1.74016] yes=117,no=118,missing=118
						117:leaf=-0.0110172
						118:leaf=1.66544e-05
			14:[C_D_U_CATEGORY_AGE_MICRO_MEAN_COEC<0.122934] yes=29,no=30,missing=30
				29:[U_KEYWORD_MEAN_C<33.6733] yes=59,no=60,missing=60
					59:[U_KEYWORD_MACRO_MEAN_COEC<0.037361] yes=119,no=120,missing=120
						119:leaf=-0.0231597
						120:leaf=0.00728118
					60:[U_CITY_COEC<0.123078] yes=121,no=122,missing=122
						121:leaf=-0.00523685
						122:leaf=0.0125343
				30:[U_CITY_COEC<0.088178] yes=61,no=62,missing=62
					61:[U_KEYWORD_MAX_C<3.70418] yes=123,no=124,missing=124
						123:leaf=-0.0550401
						124:leaf=-0.000323487
					62:[D_CATEGORY_MICRO_MEAN_COEC<0.109774] yes=125,no=126,missing=126
						125:leaf=0.00949722
						126:leaf=0.0216302
booster[54]:
0:[U_KEYWORD_MICRO_MAX_COEC<0.161266] yes=1,no=2,missing=1
	1:[KW_REL<0.002463] yes=3,no=4,missing=4
		3:[U_KEYWORD_MEAN_EC<204.186] yes=7,no=8,missing=8
			7:[D_KEYWORD_MEAN_EC<666.405] yes=15,no=16,missing=16
				15:[C_D_U_TITLEMD5_CATEGORY_MEAN_C<0.253602] yes=31,no=32,missing=31
					31:[D_CATEGORY_MEAN_EC<44002.8] yes=63,no=64,missing=64
						63:leaf=-0.0126664
						64:leaf=0.00104863
					32:[CAT_REL<0.001181] yes=65,no=66,missing=66
						65:leaf=-0.00245771
						66:leaf=0.00995393
				16:[C_D_U_KEYWORD_CATEGORY_MACRO_MEAN_COEC<0.080722] yes=33,no=34,missing=34
					33:[D_KEYWORD_MEAN_C<153.727] yes=67,no=68,missing=68
						67:leaf=-0.0216827
						68:leaf=-0.0398554
					34:[C_D_U_TITLEMD5_CATEGORY_MICRO_MEAN_COEC<0.277296] yes=69,no=70,missing=70
						69:leaf=-0.00754748
						70:leaf=0.0155549
			8:[U_KEYWORD_MACRO_MAX_COEC<0.003562] yes=17,no=18,missing=17
				17:[U_CITY_COEC<0.106746] yes=35,no=36,missing=35
					35:[C_D_U_TITLEMD5_CATEGORY_MACRO_MEAN_COEC<0.162211] yes=71,no=72,missing=71
						71:leaf=-0.0015347
						72:leaf=0.00993836
					36:[C_D_U_KEYWORD_CATEGORY_MAX_C<0.048391] yes=73,no=74,missing=74
						73:leaf=0.0147512
						74:leaf=0.00329074
				18:[U_KEYWORD_MACRO_MEAN_COEC<0.032362] yes=37,no=38,missing=38
					37:[U_KEYWORD_MACRO_MAX_COEC<0.004537] yes=75,no=76,missing=76
						75:leaf=-0.0356337
						76:leaf=-0.0753381
					38:[DOC_AGE<59] yes=77,no=78,missing=78
						77:leaf=-0.00724705
						78:leaf=0.0119349
		4:[D_KEYWORD_MEAN_EC<2105.85] yes=9,no=10,missing=10
			9:[U_KW_LEN<888] yes=19,no=20,missing=20
				19:[M_D_U_KEYWORD_KEYWORD_MEAN_C<0.063231] yes=39,no=40,missing=39
					39:[C_D_U_TITLEMD5_AGE_EC<125.365] yes=79,no=80,missing=79
						79:leaf=0.000767351
						80:leaf=0.0125268
					40:[D_CATEGORY_MICRO_MEAN_COEC<0.085283] yes=81,no=82,missing=81
						81:leaf=0.0470424
						82:leaf=0.00496479
				20:[KW_REL<0.004193] yes=41,no=42,missing=42
					41:[C_D_U_CATEGORY_AGE_MACRO_MEAN_COEC<0.10103] yes=83,no=84,missing=84
						83:leaf=0.00103289
						84:leaf=0.0173818
					42:[U_KEYWORD_MACRO_MAX_COEC<0.001697] yes=85,no=86,missing=86
						85:leaf=0.0227814
						86:leaf=0.0404194
			10:[KW_REL<0.007094] yes=21,no=22,missing=22
				21:[D_CATEGORY_MEAN_EC<124786] yes=43,no=44,missing=44
					43:[KW_REL<0.004506] yes=87,no=88,missing=88
						87:leaf=-0.017366
						88:leaf=-0.00611485
					44:[U_KEYWORD_MICRO_MAX_COEC<0.115237] yes=89,no=90,missing=90
						89:leaf=-0.0187693
						90:leaf=0.0123571
				22:[U_KW_LEN<397] yes=45,no=46,missing=46
					45:[U_CATEGORY_MEAN_C<933.262] yes=91,no=92,missing=92
						91:leaf=0.0174176
						92:leaf=-0.00275708
					46:[U_KEYWORD_MACRO_MAX_COEC<0.002346] yes=93,no=94,missing=94
						93:leaf=0.0109267
						94:leaf=0.0297197
	2:[U_KEYWORD_MICRO_MAX_COEC<0.333332] yes=5,no=6,missing=6
		5:[TIME_OF_DAY<6] yes=11,no=12,missing=12
			11:[U_CATEGORY_MACRO_MEAN_COEC<0.045595] yes=23,no=24,missing=24
				23:[U_KEYWORD_MEAN_EC<438.584] yes=47,no=48,missing=48
					47:[U_KEYWORD_MACRO_MAX_COEC<0.001555] yes=95,no=96,missing=96
						95:leaf=-0.0371565
						96:leaf=0.0312825
					48:[U_KEYWORD_MICRO_MAX_COEC<0.220609] yes=97,no=98,missing=98
						97:leaf=0.153451
						98:leaf=-0.0549545
				24:[U_CITY_COEC<0.093173] yes=49,no=50,missing=50
					49:[U_CAT_LEN<16] yes=99,no=100,missing=100
						99:leaf=-0.00937544
						100:leaf=0.0229868
					50:[U_CATEGORY_MACRO_MAX_COEC<0.05153] yes=101,no=102,missing=102
						101:leaf=0.00439294
						102:leaf=-0.024398
			12:[TIME_OF_DAY<16] yes=25,no=26,missing=26
				25:[U_KW_LEN<98] yes=51,no=52,missing=52
					51:[U_CITY_COEC<0.119199] yes=103,no=104,missing=103
						103:leaf=-0.00701696
						104:leaf=0.0331607
					52:[U_KEYWORD_MACRO_MAX_COEC<0.001376] yes=105,no=106,missing=106
						105:leaf=-0.0638313
						106:leaf=0.0204925
				26:[DOC_AGE<3] yes=53,no=54,missing=54
					53:[CAT_REL<0.004467] yes=107,no=108,missing=108
						107:leaf=0.00406517
						108:leaf=0.0205738
					54:[D_CATEGORY_MEAN_EC<9791.92] yes=109,no=110,missing=109
						109:leaf=0.013103
						110:leaf=-0.00234461
		6:[C_D_U_KEYWORD_CATEGORY_MICRO_MAX_COEC<0.356309] yes=13,no=14,missing=13
			13:[TIME_OF_DAY<17] yes=27,no=28,missing=28
				27:[TIME_OF_DAY<12] yes=55,no=56,missing=56
					55:[U_CATEGORY_MAX_C<1300.96] yes=111,no=112,missing=111
						111:leaf=0.0178575
						112:leaf=-0.0241823
					56:[C_D_U_PUBLISHER_CITY_EC<1031.87] yes=113,no=114,missing=114
						113:leaf=0.0446619
						114:leaf=0.0113808
				28:[C_D_U_CATEGORY_GENDER_MACRO_MAX_COEC<0.074709] yes=57,no=58,missing=57
					57:[U_CITY_COEC<0.160004] yes=115,no=116,missing=116
						115:leaf=-0.00878418
						116:leaf=0.0190283
					58:[C_D_U_TITLEMD5_CITY_C<0.860383] yes=117,no=118,missing=117
						117:leaf=0.0184333
						118:leaf=0.0816915
			14:[U_CAT_LEN<20] yes=29,no=30,missing=30
				29:[U_KEYWORD_MAX_EC<69.2762] yes=59,no=60,missing=60
					59:[U_CATEGORY_MICRO_MAX_COEC<0.142803] yes=119,no=120,missing=120
						119:leaf=0.0258786
						120:leaf=-0.0584341
					60:[C_D_U_TITLEMD5_CATEGORY_MICRO_MEAN_COEC<0.108074] yes=121,no=122,missing=121
						121:leaf=0.0781466
						122:leaf=0.0380446
				30:[U_KW_LEN<1862] yes=61,no=62,missing=62
					61:[TIME_OF_DAY<15] yes=123,no=124,missing=124
						123:leaf=0.193613
						124:leaf=-0.0127944
					62:leaf=-0.183652
booster[55]:
0:[C_D_U_TITLEMD5_CITY_C<0.96552] yes=1,no=2,missing=1
	1:[DOC_AGE<3] yes=3,no=4,missing=4
		3:[IMAGE_COUNT<0.999999] yes=7,no=8,missing=8
			7:[D_PUBLISHER_COEC<0.041262] yes=15,no=16,missing=15
				15:[C_D_U_CATEGORY_GENDER_MACRO_MEAN_COEC<0.120216] yes=31,no=32,missing=31
					31:[U_KEYWORD_MICRO_MAX_COEC<0.17432] yes=63,no=64,missing=63
						63:leaf=-0.0463068
						64:leaf=0.0163793
					32:[U_KEYWORD_MICRO_MEAN_COEC<0.091492] yes=65,no=66,missing=65
						65:leaf=-0.0919729
						66:leaf=0.170908
				16:[D_KEYWORD_MICRO_MEAN_COEC<0.119221] yes=33,no=34,missing=34
					33:[U_CATEGORY_MICRO_MAX_COEC<0.10792] yes=67,no=68,missing=67
						67:leaf=-0.0114806
						68:leaf=0.00835786
					34:[U_KEYWORD_MICRO_MAX_COEC<0.134877] yes=69,no=70,missing=69
						69:leaf=-0.0733419
						70:leaf=-0.0142217
			8:[U_KEYWORD_MICRO_MAX_COEC<0.114819] yes=17,no=18,missing=17
				17:[DAY_OF_WEEK<5] yes=35,no=36,missing=36
					35:[D_KEYWORD_MACRO_MAX_COEC<0.012181] yes=71,no=72,missing=71
						71:leaf=-0.00698959
						72:leaf=0.00587246
					36:[D_CATEGORY_MACRO_MAX_COEC<0.061866] yes=73,no=74,missing=74
						73:leaf=-0.0210221
						74:leaf=-0.00273733
				18:[U_KW_LEN<649] yes=37,no=38,missing=38
					37:[D_PUBLISHER_COEC<0.058186] yes=75,no=76,missing=75
						75:leaf=-0.00334718
						76:leaf=0.00853709
					38:[CAT_REL<0.004582] yes=77,no=78,missing=78
						77:leaf=0.00710048
						78:leaf=0.0225867
		4:[D_TITLEMD5_COEC<0.032259] yes=9,no=10,missing=10
			9:[D_KEYWORD_MEAN_EC<476.539] yes=19,no=20,missing=20
				19:[C_D_U_TITLEMD5_CITY_EC<3.80595] yes=39,no=40,missing=40
					39:[U_CITY_EC<2151.17] yes=79,no=80,missing=80
						79:leaf=0.0300481
						80:leaf=-0.00757654
					40:[C_D_U_CATEGORY_CITY_MEAN_C<2.51909] yes=81,no=82,missing=82
						81:leaf=-0.0200024
						82:leaf=-0.00413906
				20:[D_KEYWORD_MACRO_MEAN_COEC<0.059372] yes=41,no=42,missing=42
					41:[D_KEYWORD_MEAN_C<116.031] yes=83,no=84,missing=84
						83:leaf=-0.0264931
						84:leaf=-0.0516948
					42:[D_PUBLISHER_COEC<0.055641] yes=85,no=86,missing=86
						85:leaf=-0.0288666
						86:leaf=-0.00860534
			10:[D_KEYWORD_MEAN_EC<2894.3] yes=21,no=22,missing=21
				21:[KW_REL<0.002971] yes=43,no=44,missing=44
					43:[C_D_U_TITLEMD5_AGE_C<28.5994] yes=87,no=88,missing=88
						87:leaf=-0.00830651
						88:leaf=-0.000793242
					44:[C_D_U_TITLEMD5_CITY_COEC<0.507568] yes=89,no=90,missing=89
						89:leaf=0.00666172
						90:leaf=-0.0245969
				22:[M_D_U_KEYWORD_KEYWORD_MACRO_MEAN_COEC<0.000976] yes=45,no=46,missing=45
					45:[C_D_U_TITLEMD5_CATEGORY_MEAN_EC<28.9219] yes=91,no=92,missing=92
						91:leaf=-0.0257543
						92:leaf=-0.00658852
					46:[U_CATEGORY_MACRO_MEAN_COEC<0.085693] yes=93,no=94,missing=94
						93:leaf=0.0122724
						94:leaf=-0.00521644
	2:[C_D_U_TITLEMD5_CITY_EC<1.77225] yes=5,no=6,missing=5
		5:[DOC_AGE<12] yes=11,no=12,missing=12
			11:[C_D_U_TITLEMD5_CITY_C<0.994999] yes=23,no=24,missing=24
				23:[C_D_U_CATEGORY_CITY_MEAN_C<6.60103] yes=47,no=48,missing=47
					47:[TIME_OF_DAY<0.999999] yes=95,no=96,missing=96
						95:leaf=-0.0609548
						96:leaf=0.0256795
					48:[C_D_U_TITLEMD5_CATEGORY_MACRO_MEAN_COEC<0.141855] yes=97,no=98,missing=97
						97:leaf=-0.0257001
						98:leaf=0.0141352
				24:[U_CITY_C<190.759] yes=49,no=50,missing=50
					49:[C_D_U_TITLEMD5_CITY_C<1.32282] yes=99,no=100,missing=100
						99:leaf=0.0802928
						100:leaf=-0.0332497
					50:[C_D_U_TITLEMD5_CATEGORY_MACRO_MEAN_COEC<0.111232] yes=101,no=102,missing=102
						101:leaf=-0.0299671
						102:leaf=0.0326161
			12:[C_D_U_TITLEMD5_CITY_EC<0.995567] yes=25,no=26,missing=25
				25:[C_D_U_TITLEMD5_CITY_EC<0.990024] yes=51,no=52,missing=52
					51:[TIME_OF_DAY<0.999999] yes=103,no=104,missing=104
						103:leaf=-0.0287371
						104:leaf=0.0870277
					52:[DOC_AGE<54] yes=105,no=106,missing=106
						105:leaf=0.122126
						106:leaf=0.170556
				26:[C_D_U_TITLEMD5_CITY_COEC<0.999999] yes=53,no=54,missing=54
					53:[D_TITLEMD5_C<115.427] yes=107,no=108,missing=108
						107:leaf=0.101315
						108:leaf=0.0488624
					54:[C_D_U_TITLEMD5_CITY_C<1.43062] yes=109,no=110,missing=110
						109:leaf=-0.0449483
						110:leaf=0.0103302
		6:[WORD_COUNT<6660] yes=13,no=14,missing=14
			13:[C_D_U_PUBLISHER_CITY_EC<569.472] yes=27,no=28,missing=28
				27:[C_D_U_TITLEMD5_CATEGORY_MICRO_MAX_COEC<0.193437] yes=55,no=56,missing=55
					55:[C_D_U_TITLEMD5_CITY_COEC<0.101796] yes=111,no=112,missing=112
						111:leaf=-0.00869225
						112:leaf=0.00350547
					56:[D_KEYWORD_MACRO_MEAN_COEC<0.078259] yes=113,no=114,missing=114
						113:leaf=0.0374577
						114:leaf=0.00832431
				28:[U_KEYWORD_MICRO_MEAN_COEC<0.110803] yes=57,no=58,missing=57
					57:[C_D_U_KEYWORD_CATEGORY_MACRO_MEAN_COEC<0.109321] yes=115,no=116,missing=116
						115:leaf=-0.0106637
						116:leaf=-0.00153465
					58:[C_D_U_CATEGORY_AGE_MICRO_MEAN_COEC<0.121831] yes=117,no=118,missing=118
						117:leaf=-0.0102585
						118:leaf=0.0153839
			14:[C_D_U_TITLEMD5_CATEGORY_MICRO_MAX_COEC<0.265864] yes=29,no=30,missing=29
				29:[U_CITY_EC<10762.6] yes=59,no=60,missing=60
					59:[U_CATEGORY_MICRO_MEAN_COEC<0.088341] yes=119,no=120,missing=120
						119:leaf=0.00386346
						120:leaf=0.0415318
					60:[D_TITLEMD5_EC<2724.03] yes=121,no=122,missing=122
						121:leaf=-0.00386188
						122:leaf=0.0312657
				30:[C_D_U_PUBLISHER_CITY_C<34.4989] yes=61,no=62,missing=62
					61:[D_TITLEMD5_COEC<0.116941] yes=123,no=124,missing=124
						123:leaf=0.120551
						124:leaf=0.0564708
					62:[U_CATEGORY_MEAN_EC<4479.84] yes=125,no=126,missing=126
						125:leaf=-0.0260738
						126:leaf=0.0374156
booster[56]:
0:[WORD_COUNT<1004] yes=1,no=2,missing=2
	1:[IMAGE_COUNT<2] yes=3,no=4,missing=4
		3:[D_KEYWORD_MEAN_EC<2107.96] yes=7,no=8,missing=7
			7:[D_TITLEMD5_C<2.91163] yes=15,no=16,missing=15
				15:[C_D_U_TITLEMD5_CITY_EC<1.54884] yes=31,no=32,missing=32
					31:[C_D_U_TITLEMD5_CATEGORY_MAX_EC<0.395413] yes=63,no=64,missing=64
						63:leaf=0.0323419
						64:leaf=-0.0252501
					32:[U_CITY_COEC<0.122889] yes=65,no=66,missing=66
						65:leaf=-0.0237071
						66:leaf=-0.00761635
				16:[TIME_OF_DAY<9] yes=33,no=34,missing=34
					33:[U_KW_LEN<101] yes=67,no=68,missing=68
						67:leaf=-0.0189161
						68:leaf=-0.00612579
					34:[U_KW_LEN<306] yes=69,no=70,missing=70
						69:leaf=-0.00637759
						70:leaf=0.00151565
			8:[D_CATEGORY_MAX_EC<34102.4] yes=17,no=18,missing=18
				17:[U_KEYWORD_MAX_C<12.3104] yes=35,no=36,missing=36
					35:[D_KEYWORD_MACRO_MEAN_COEC<0.121264] yes=71,no=72,missing=72
						71:leaf=-0.013335
						72:leaf=-0.065568
					36:[D_KEYWORD_MICRO_MAX_COEC<0.151469] yes=73,no=74,missing=74
						73:leaf=0.0143437
						74:leaf=-0.00828835
				18:[D_CATEGORY_MAX_C<9071.53] yes=37,no=38,missing=37
					37:[KW_REL<0.004468] yes=75,no=76,missing=76
						75:leaf=-0.0361051
						76:leaf=-0.0185394
					38:[KW_REL<0.002641] yes=77,no=78,missing=78
						77:leaf=-0.0158323
						78:leaf=0.00998695
		4:[D_PUBLISHER_COEC<0.098878] yes=9,no=10,missing=10
			9:[U_KEYWORD_MACRO_MAX_COEC<0.004101] yes=19,no=20,missing=20
				19:[U_KEYWORD_MICRO_MEAN_COEC<0.113038] yes=39,no=40,missing=40
					39:[C_D_U_CATEGORY_AGE_MACRO_MAX_COEC<0.044025] yes=79,no=80,missing=80
						79:leaf=-0.0876603
						80:leaf=0.00123498
					40:[D_KEYWORD_MACRO_MEAN_COEC<0.056378] yes=81,no=82,missing=82
						81:leaf=0.242717
						82:leaf=0.0374792
				20:[D_CATEGORY_MEAN_EC<96883.9] yes=41,no=42,missing=41
					41:[C_D_U_TITLEMD5_CATEGORY_MICRO_MAX_COEC<0.307802] yes=83,no=84,missing=83
						83:leaf=-0.0123718
						84:leaf=0.0327451
					42:[D_KEYWORD_MACRO_MEAN_COEC<0.086331] yes=85,no=86,missing=86
						85:leaf=-0.0167768
						86:leaf=-0.0887073
			10:[DOC_AGE<22] yes=21,no=22,missing=22
				21:[D_CATEGORY_MACRO_MAX_COEC<0.08688] yes=43,no=44,missing=44
					43:[D_KEYWORD_MICRO_MAX_COEC<0.11179] yes=87,no=88,missing=88
						87:leaf=0.0110224
						88:leaf=-0.0201409
					44:[C_D_U_PUBLISHER_AGE_C<153.906] yes=89,no=90,missing=90
						89:leaf=0.0919376
						90:leaf=0.00971182
				22:[D_CATEGORY_MAX_EC<118798] yes=45,no=46,missing=45
					45:[U_KEYWORD_MICRO_MEAN_COEC<0.090716] yes=91,no=92,missing=92
						91:leaf=-0.000810294
						92:leaf=0.0352321
					46:[U_CITY_C<32.9392] yes=93,no=94,missing=94
						93:leaf=0.0493766
						94:leaf=-0.0299972
	2:[KW_REL<0.001477] yes=5,no=6,missing=6
		5:[D_CATEGORY_MACRO_MAX_COEC<0.068139] yes=11,no=12,missing=12
			11:[C_D_U_CATEGORY_CITY_MACRO_MAX_COEC<0.122545] yes=23,no=24,missing=23
				23:[D_TITLEMD5_C<1.98005] yes=47,no=48,missing=47
					47:[DOC_AGE<80] yes=95,no=96,missing=96
						95:leaf=-0.015173
						96:leaf=0.025707
					48:[D_CATEGORY_MAX_C<2488.98] yes=97,no=98,missing=98
						97:leaf=-0.00127534
						98:leaf=-0.0103724
				24:[C_D_U_TITLEMD5_CITY_C<0.985074] yes=49,no=50,missing=49
					49:[C_D_U_CATEGORY_CITY_MEAN_C<0.813584] yes=99,no=100,missing=100
						99:leaf=-0.00454228
						100:leaf=0.0105823
					50:[C_D_U_TITLEMD5_CITY_C<1.00818] yes=101,no=102,missing=102
						101:leaf=0.0707073
						102:leaf=0.0080226
			12:[D_KEYWORD_MEAN_EC<633.669] yes=25,no=26,missing=25
				25:[DOC_AGE<2] yes=51,no=52,missing=52
					51:[D_CATEGORY_MAX_C<2795.46] yes=103,no=104,missing=104
						103:leaf=0.00800607
						104:leaf=0.0201156
					52:[U_KEYWORD_MICRO_MEAN_COEC<0.087608] yes=105,no=106,missing=106
						105:leaf=-0.00998358
						106:leaf=0.00294643
				26:[C_D_U_TITLEMD5_CATEGORY_MEAN_C<2.44543] yes=53,no=54,missing=54
					53:[D_KEYWORD_MEAN_C<142.383] yes=107,no=108,missing=108
						107:leaf=-0.00557017
						108:leaf=-0.0185084
					54:[U_KEYWORD_MICRO_MEAN_COEC<0.108758] yes=109,no=110,missing=109
						109:leaf=0.000747851
						110:leaf=0.0111472
		6:[D_KEYWORD_MEAN_C<127.825] yes=13,no=14,missing=14
			13:[U_KW_LEN<143] yes=27,no=28,missing=28
				27:[D_TITLEMD5_C<3.89144] yes=55,no=56,missing=56
					55:[C_D_U_CATEGORY_AGE_MACRO_MAX_COEC<0.063801] yes=111,no=112,missing=112
						111:leaf=-0.0515161
						112:leaf=-0.0115986
					56:[U_KW_LEN<78] yes=113,no=114,missing=114
						113:leaf=-0.00701693
						114:leaf=0.00584714
				28:[D_KEYWORD_MAX_EC<117.831] yes=57,no=58,missing=58
					57:[C_D_U_TITLEMD5_CATEGORY_MICRO_MEAN_COEC<0.118683] yes=115,no=116,missing=116
						115:leaf=0.0282379
						116:leaf=0.0118445
					58:[C_D_U_TITLEMD5_CATEGORY_MEAN_C<0.337066] yes=117,no=118,missing=118
						117:leaf=0.00493169
						118:leaf=0.0140038
			14:[M_D_U_KEYWORD_KEYWORD_MACRO_MEAN_COEC<0.000901] yes=29,no=30,missing=29
				29:[D_TITLEMD5_C<119.527] yes=59,no=60,missing=60
					59:[U_KEYWORD_MACRO_MAX_COEC<0.001669] yes=119,no=120,missing=120
						119:leaf=-0.0200264
						120:leaf=-0.00491198
					60:[D_KEYWORD_MEAN_C<444.85] yes=121,no=122,missing=122
						121:leaf=0.00381722
						122:leaf=-0.0137447
				30:[D_CATEGORY_MICRO_MAX_COEC<0.107032] yes=61,no=62,missing=61
					61:[DOC_AGE<31] yes=123,no=124,missing=124
						123:leaf=0.0162595
						124:leaf=-0.00607084
					62:[U_KW_LEN<395] yes=125,no=126,missing=126
						125:leaf=-0.00687052
						126:leaf=0.0124518
booster[57]:
0:[U_CITY_COEC<0.048985] yes=1,no=2,missing=2
	1:[C_D_U_TITLEMD5_CITY_EC<1.55295] yes=3,no=4,missing=4
		3:[U_CITY_EC<10.4749] yes=7,no=8,missing=8
			7:[D_TITLEMD5_C<294.405] yes=15,no=16,missing=16
				15:[DOC_AGE<24] yes=31,no=32,missing=32
					31:[U_KEYWORD_MACRO_MAX_COEC<0.005982] yes=63,no=64,missing=63
						63:leaf=0.0882202
						64:leaf=-0.103439
					32:[TIME_OF_DAY<6] yes=65,no=66,missing=66
						65:leaf=0.0752096
						66:leaf=0.175822
				16:[C_D_U_TITLEMD5_CITY_EC<0.630555] yes=33,no=34,missing=34
					33:[DOC_AGE<32] yes=67,no=68,missing=68
						67:leaf=-0.0966945
						68:leaf=0.0121593
					34:[U_KEYWORD_MICRO_MEAN_COEC<0.100827] yes=69,no=70,missing=70
						69:leaf=0.0965873
						70:leaf=0.0309293
			8:[C_D_U_TITLEMD5_CITY_C<0.932229] yes=17,no=18,missing=18
				17:[U_CATEGORY_MAX_C<82.6128] yes=35,no=36,missing=35
					35:[U_CITY_EC<1418.78] yes=71,no=72,missing=72
						71:leaf=-0.00585289
						72:leaf=-0.0588833
					36:[D_TITLEMD5_EC<626.423] yes=73,no=74,missing=74
						73:leaf=0.0343548
						74:leaf=0.00428169
				18:[C_D_U_TITLEMD5_CATEGORY_MACRO_MEAN_COEC<0.03501] yes=37,no=38,missing=38
					37:leaf=-0.171022
					38:[U_CITY_EC<1645.69] yes=75,no=76,missing=76
						75:leaf=0.0710545
						76:leaf=-0.106802
		4:[U_CITY_EC<100.778] yes=9,no=10,missing=10
			9:[IMAGE_COUNT<0.999999] yes=19,no=20,missing=20
				19:[C_D_U_TITLEMD5_CATEGORY_MAX_EC<2.14433] yes=39,no=40,missing=39
					39:[U_KW_LEN<651] yes=77,no=78,missing=78
						77:leaf=-0.0395806
						78:leaf=-0.00353743
					40:[D_CATEGORY_MEAN_EC<79053.8] yes=79,no=80,missing=79
						79:leaf=0.0123267
						80:leaf=-0.057559
				20:[U_KW_LEN<1708] yes=41,no=42,missing=42
					41:[TIME_OF_DAY<18] yes=81,no=82,missing=82
						81:leaf=-0.00265464
						82:leaf=-0.0119594
					42:[U_KEYWORD_MICRO_MEAN_COEC<0.088684] yes=83,no=84,missing=84
						83:leaf=0.145865
						84:leaf=0.0196905
			10:[C_D_U_TITLEMD5_CATEGORY_MAX_C<0.16742] yes=21,no=22,missing=21
				21:[C_D_U_PUBLISHER_CITY_COEC<0.063468] yes=43,no=44,missing=43
					43:[C_D_U_PUBLISHER_CITY_EC<69.782] yes=85,no=86,missing=85
						85:leaf=-0.024554
						86:leaf=-0.0572191
					44:[U_CAT_LEN<39] yes=87,no=88,missing=88
						87:leaf=-0.0102729
						88:leaf=0.0554405
				22:[U_CATEGORY_MAX_C<809.732] yes=45,no=46,missing=46
					45:[U_KEYWORD_MACRO_MEAN_COEC<0.03098] yes=89,no=90,missing=90
						89:leaf=-0.0104027
						90:leaf=0.00636484
					46:[C_D_U_PUBLISHER_AGE_COEC<0.170512] yes=91,no=92,missing=91
						91:leaf=-0.0270853
						92:leaf=0.0469034
	2:[TIME_OF_DAY<3] yes=5,no=6,missing=6
		5:[DAY_OF_WEEK<3] yes=11,no=12,missing=12
			11:[C_D_U_KEYWORD_CATEGORY_MEAN_EC<5.23619] yes=23,no=24,missing=24
				23:[U_KEYWORD_MICRO_MAX_COEC<0.094415] yes=47,no=48,missing=48
					47:[DOC_AGE<0.999999] yes=93,no=94,missing=94
						93:leaf=0.0729603
						94:leaf=-0.0367097
					48:[U_CAT_LEN<42] yes=95,no=96,missing=96
						95:leaf=0.00591924
						96:leaf=0.160352
				24:[D_TITLEMD5_COEC<0.206614] yes=49,no=50,missing=50
					49:[D_TITLEMD5_C<38.6195] yes=97,no=98,missing=98
						97:leaf=-0.0145078
						98:leaf=-0.00386767
					50:[WORD_COUNT<3435] yes=99,no=100,missing=100
						99:leaf=0.00311795
						100:leaf=0.0303218
			12:[U_CATEGORY_MICRO_MAX_COEC<0.127063] yes=25,no=26,missing=25
				25:[C_D_U_TITLEMD5_CATEGORY_MEAN_C<0.247721] yes=51,no=52,missing=52
					51:[D_KEYWORD_MAX_EC<163.454] yes=101,no=102,missing=102
						101:leaf=-0.00822019
						102:leaf=-0.0203338
					52:[U_KEYWORD_MICRO_MEAN_COEC<0.109581] yes=103,no=104,missing=103
						103:leaf=-0.00779125
						104:leaf=0.00189154
				26:[U_KW_LEN<4027] yes=53,no=54,missing=54
					53:[U_KEYWORD_MACRO_MAX_COEC<0.00133] yes=105,no=106,missing=105
						105:leaf=-0.0331362
						106:leaf=0.00867742
					54:[U_CATEGORY_MACRO_MEAN_COEC<0.04458] yes=107,no=108,missing=108
						107:leaf=0.0227554
						108:leaf=0.145327
		6:[TIME_OF_DAY<16] yes=13,no=14,missing=14
			13:[U_KEYWORD_MICRO_MAX_COEC<0.122287] yes=27,no=28,missing=27
				27:[U_CITY_EC<692.011] yes=55,no=56,missing=56
					55:[C_D_U_TITLEMD5_CITY_EC<0.980149] yes=109,no=110,missing=109
						109:leaf=0.0032466
						110:leaf=0.0168712
					56:[C_D_U_TITLEMD5_CITY_C<0.980149] yes=111,no=112,missing=111
						111:leaf=-0.00310307
						112:leaf=0.00561277
				28:[TIME_OF_DAY<8] yes=57,no=58,missing=58
					57:[DOC_AGE<16] yes=113,no=114,missing=114
						113:leaf=0.00625296
						114:leaf=-0.00340315
					58:[U_CATEGORY_MACRO_MEAN_COEC<0.042061] yes=115,no=116,missing=116
						115:leaf=0.0369023
						116:leaf=0.0100585
			14:[U_CITY_C<229.081] yes=29,no=30,missing=29
				29:[C_D_U_TITLEMD5_CITY_EC<0.980149] yes=59,no=60,missing=59
					59:[DOC_AGE<2] yes=117,no=118,missing=118
						117:leaf=0.0071996
						118:leaf=-0.00295457
					60:[C_D_U_TITLEMD5_CITY_EC<1.37632] yes=119,no=120,missing=120
						119:leaf=0.0281733
						120:leaf=0.00609758
				30:[U_KW_LEN<2485] yes=61,no=62,missing=62
					61:[C_D_U_TITLEMD5_CITY_C<0.882219] yes=121,no=122,missing=121
						121:leaf=-0.00999806
						122:leaf=-0.00223767
					62:[C_D_U_PUBLISHER_AGE_COEC<0.219221] yes=123,no=124,missing=124
						123:leaf=-0.0130751
						124:leaf=0.0453856
booster[58]:
0:[DAY_OF_WEEK<3] yes=1,no=2,missing=2
	1:[U_KEYWORD_MICRO_MAX_COEC<0.102495] yes=3,no=4,missing=4
		3:[U_CITY_C<403.59] yes=7,no=8,missing=7
			7:[C_D_U_PUBLISHER_AGE_COEC<0.054628] yes=15,no=16,missing=15
				15:[U_KEYWORD_MAX_C<8.28455] yes=31,no=32,missing=32
					31:[U_KEYWORD_MICRO_MEAN_COEC<0.08806] yes=63,no=64,missing=64
						63:leaf=-0.0184258
						64:leaf=-0.00516663
					32:[U_CATEGORY_MACRO_MEAN_COEC<0.077818] yes=65,no=66,missing=66
						65:leaf=0.00766505
						66:leaf=-0.0129995
				16:[U_CAT_LEN<33] yes=33,no=34,missing=34
					33:[U_CATEGORY_MEAN_EC<9168.89] yes=67,no=68,missing=68
						67:leaf=0.00433631
						68:leaf=-0.0173432
					34:[TIME_OF_DAY<6] yes=69,no=70,missing=70
						69:leaf=-0.0924916
						70:leaf=0.127744
			8:[U_KEYWORD_MACRO_MEAN_COEC<0.017681] yes=17,no=18,missing=18
				17:[TIME_OF_DAY<19] yes=35,no=36,missing=36
					35:[U_CAT_LEN<18] yes=71,no=72,missing=72
						71:leaf=-0.100831
						72:leaf=-0.0403452
					36:[C_D_U_PUBLISHER_CITY_EC<1036.03] yes=73,no=74,missing=73
						73:leaf=-0.0201098
						74:leaf=0.222488
				18:[U_KW_LEN<1537] yes=37,no=38,missing=38
					37:[U_CATEGORY_MICRO_MAX_COEC<0.109181] yes=75,no=76,missing=76
						75:leaf=-0.0180616
						76:leaf=-0.0644663
					38:[U_CITY_COEC<0.088861] yes=77,no=78,missing=78
						77:leaf=0.0319868
						78:leaf=-0.0862029
		4:[U_CATEGORY_MICRO_MAX_COEC<0.11041] yes=9,no=10,missing=9
			9:[CAT_REL<0.157343] yes=19,no=20,missing=20
				19:[C_D_U_TITLEMD5_AGE_COEC<0.142406] yes=39,no=40,missing=40
					39:[U_KEYWORD_MEAN_EC<100.784] yes=79,no=80,missing=79
						79:leaf=-0.0151962
						80:leaf=-0.00220598
					40:[WORD_COUNT<1086] yes=81,no=82,missing=82
						81:leaf=-0.00416822
						82:leaf=0.00363287
				20:[U_KW_LEN<126] yes=41,no=42,missing=42
					41:[C_D_U_TITLEMD5_CATEGORY_MACRO_MEAN_COEC<0.131041] yes=83,no=84,missing=84
						83:leaf=-0.00575779
						84:leaf=0.00900869
					42:[C_D_U_KEYWORD_CATEGORY_MACRO_MAX_COEC<0.012683] yes=85,no=86,missing=86
						85:leaf=0.010327
						86:leaf=0.027635
			10:[TIME_OF_DAY<7] yes=21,no=22,missing=22
				21:[U_CATEGORY_MACRO_MEAN_COEC<0.104541] yes=43,no=44,missing=44
					43:[U_KEYWORD_MICRO_MAX_COEC<0.120009] yes=87,no=88,missing=88
						87:leaf=-0.00462339
						88:leaf=0.00800191
					44:[U_CITY_COEC<0.100522] yes=89,no=90,missing=89
						89:leaf=-0.0409095
						90:leaf=0.0247077
				22:[U_CITY_COEC<0.043215] yes=45,no=46,missing=46
					45:[U_KEYWORD_MACRO_MEAN_COEC<0.023496] yes=91,no=92,missing=92
						91:leaf=0.0185629
						92:leaf=-0.0351452
					46:[TIME_OF_DAY<16] yes=93,no=94,missing=94
						93:leaf=0.0239637
						94:leaf=0.0114231
	2:[U_KEYWORD_MICRO_MEAN_COEC<0.09079] yes=5,no=6,missing=6
		5:[M_D_U_KEYWORD_KEYWORD_MICRO_MAX_COEC<0.161895] yes=11,no=12,missing=11
			11:[D_CATEGORY_MACRO_MAX_COEC<0.099213] yes=23,no=24,missing=24
				23:[D_KEYWORD_MEAN_EC<665.503] yes=47,no=48,missing=47
					47:[C_D_U_PUBLISHER_AGE_EC<17623.6] yes=95,no=96,missing=95
						95:leaf=-0.0150166
						96:leaf=0.00410357
					48:[D_TITLEMD5_EC<4904.46] yes=97,no=98,missing=97
						97:leaf=-0.0337678
						98:leaf=0.0071134
				24:[DAY_OF_WEEK<5] yes=49,no=50,missing=50
					49:[U_KEYWORD_MACRO_MAX_COEC<0.008383] yes=99,no=100,missing=100
						99:leaf=0.00458927
						100:leaf=-0.0532003
					50:[U_CATEGORY_MICRO_MEAN_COEC<0.073994] yes=101,no=102,missing=101
						101:leaf=0.0544051
						102:leaf=-0.0281101
			12:[M_D_U_KEYWORD_KEYWORD_MACRO_MAX_COEC<0.001429] yes=25,no=26,missing=26
				25:[WORD_COUNT<2166] yes=51,no=52,missing=52
					51:[C_D_U_KEYWORD_CATEGORY_MACRO_MAX_COEC<0.004947] yes=103,no=104,missing=104
						103:leaf=0.0306772
						104:leaf=-0.0204292
					52:[C_D_U_TITLEMD5_CATEGORY_MEAN_C<1.87683] yes=105,no=106,missing=105
						105:leaf=0.000122681
						106:leaf=0.0407568
				26:[D_CATEGORY_MICRO_MEAN_COEC<0.102921] yes=53,no=54,missing=53
					53:[U_KW_LEN<212] yes=107,no=108,missing=108
						107:leaf=0.0322483
						108:leaf=0.0878068
					54:leaf=-0.170688
		6:[WORD_COUNT<1655] yes=13,no=14,missing=14
			13:[D_PUBLISHER_COEC<0.095807] yes=27,no=28,missing=27
				27:[D_PUBLISHER_EC<84628.3] yes=55,no=56,missing=55
					55:[U_KW_LEN<3955] yes=109,no=110,missing=110
						109:leaf=-0.00864379
						110:leaf=0.0184088
					56:[D_TITLEMD5_C<31.5661] yes=111,no=112,missing=111
						111:leaf=-0.0139404
						112:leaf=-0.0455778
				28:[D_CATEGORY_MAX_EC<18780.7] yes=57,no=58,missing=57
					57:[U_KEYWORD_MEAN_EC<123.507] yes=113,no=114,missing=113
						113:leaf=-0.00444824
						114:leaf=0.00885094
					58:[C_D_U_PUBLISHER_AGE_EC<24568.9] yes=115,no=116,missing=115
						115:leaf=-0.0042167
						116:leaf=-0.0181146
			14:[U_KEYWORD_MICRO_MAX_COEC<0.218668] yes=29,no=30,missing=29
				29:[C_D_U_TITLEMD5_CITY_EC<0.946354] yes=59,no=60,missing=59
					59:[C_D_U_PUBLISHER_GENDER_COEC<0.072202] yes=117,no=118,missing=118
						117:leaf=-0.0188613
						118:leaf=-0.00130122
					60:[U_CITY_EC<270.309] yes=119,no=120,missing=120
						119:leaf=0.0233321
						120:leaf=0.00116296
				30:[C_D_U_TITLEMD5_CATEGORY_MICRO_MEAN_COEC<0.106088] yes=61,no=62,missing=61
					61:[U_CAT_LEN<7] yes=121,no=122,missing=122
						121:leaf=0.0105247
						122:leaf=0.0330466
					62:[C_D_U_TITLEMD5_GENDER_COEC<0.13015] yes=123,no=124,missing=124
						123:leaf=-0.0174868
						124:leaf=0.0109818
booster[59]:
0:[U_CITY_COEC<0.177161] yes=1,no=2,missing=1
	1:[C_D_U_TITLEMD5_CITY_EC<0.980149] yes=3,no=4,missing=3
		3:[C_D_U_TITLEMD5_CITY_C<0.985074] yes=7,no=8,missing=7
			7:[DOC_AGE<5] yes=15,no=16,missing=16
				15:[D_PUBLISHER_COEC<0.041456] yes=31,no=32,missing=31
					31:[D_TITLEMD5_EC<31.8217] yes=63,no=64,missing=63
						63:leaf=-0.0289928
						64:leaf=-0.00520051
					32:[KW_REL<0.00209] yes=65,no=66,missing=66
						65:leaf=0.000599064
						66:leaf=0.00803489
				16:[C_D_U_TITLEMD5_AGE_EC<167.262] yes=33,no=34,missing=34
					33:[D_KEYWORD_MAX_EC<204.336] yes=67,no=68,missing=68
						67:leaf=-0.0051886
						68:leaf=-0.0167235
					34:[C_D_U_CATEGORY_CITY_MEAN_EC<11.2579] yes=69,no=70,missing=69
						69:leaf=-0.00121298
						70:leaf=-0.00656642
			8:[C_D_U_TITLEMD5_CITY_C<1.02465] yes=17,no=18,missing=18
				17:[DOC_AGE<11] yes=35,no=36,missing=36
					35:[C_D_U_PUBLISHER_CITY_C<6.15103] yes=71,no=72,missing=72
						71:leaf=0.0979743
						72:leaf=0.0230557
					36:[C_D_U_CATEGORY_CITY_MICRO_MEAN_COEC<0.125217] yes=73,no=74,missing=73
						73:leaf=0.151336
						74:leaf=0.119301
				18:[U_CITY_COEC<0.134159] yes=37,no=38,missing=38
					37:[IMAGE_COUNT<2] yes=75,no=76,missing=76
						75:leaf=0.0633401
						76:leaf=-0.0557261
					38:leaf=-0.12135
		4:[U_CITY_EC<513.37] yes=9,no=10,missing=10
			9:[D_TITLEMD5_EC<1310.3] yes=19,no=20,missing=20
				19:[U_CITY_EC<113.049] yes=39,no=40,missing=40
					39:[U_CITY_COEC<0.043226] yes=77,no=78,missing=78
						77:leaf=0.0322926
						78:leaf=0.0799003
					40:[DOC_AGE<12] yes=79,no=80,missing=80
						79:leaf=0.0256427
						80:leaf=0.059487
				20:[C_D_U_TITLEMD5_CITY_EC<1.35106] yes=41,no=42,missing=42
					41:[U_CITY_EC<101.041] yes=81,no=82,missing=82
						81:leaf=0.0447311
						82:leaf=0.0138424
					42:[U_CITY_COEC<0.035562] yes=83,no=84,missing=84
						83:leaf=-0.0307009
						84:leaf=0.00744474
			10:[U_CITY_C<500.796] yes=21,no=22,missing=22
				21:[U_KW_LEN<721] yes=43,no=44,missing=44
					43:[U_CATEGORY_MICRO_MAX_COEC<0.112949] yes=85,no=86,missing=85
						85:leaf=0.000230952
						86:leaf=0.0104286
					44:[D_KEYWORD_MEAN_EC<519.823] yes=87,no=88,missing=88
						87:leaf=0.0207541
						88:leaf=0.00779208
				22:[U_KEYWORD_MICRO_MEAN_COEC<0.114496] yes=45,no=46,missing=45
					45:[C_D_U_TITLEMD5_CATEGORY_MAX_EC<7.13141] yes=89,no=90,missing=90
						89:leaf=-0.00767728
						90:leaf=-0.000682787
					46:[U_KEYWORD_MEAN_C<17.4938] yes=91,no=92,missing=92
						91:leaf=-0.0727384
						92:leaf=0.039767
	2:[C_D_U_TITLEMD5_CITY_COEC<0.245876] yes=5,no=6,missing=6
		5:[U_KW_LEN<412] yes=11,no=12,missing=12
			11:[U_CITY_EC<45.3546] yes=23,no=24,missing=24
				23:[C_D_U_TITLEMD5_CATEGORY_MAX_C<3.6532] yes=47,no=48,missing=48
					47:[U_KEYWORD_MACRO_MEAN_COEC<0.027742] yes=93,no=94,missing=94
						93:leaf=-0.0263325
						94:leaf=0.0812276
					48:[C_D_U_TITLEMD5_CITY_EC<0.547985] yes=95,no=96,missing=96
						95:leaf=-0.0215247
						96:leaf=0.0377102
				24:[DOC_AGE<39] yes=49,no=50,missing=50
					49:[U_KEYWORD_MICRO_MAX_COEC<0.199999] yes=97,no=98,missing=97
						97:leaf=-0.00816326
						98:leaf=0.0538823
					50:[C_D_U_TITLEMD5_CITY_EC<0.547985] yes=99,no=100,missing=100
						99:leaf=0.00962337
						100:leaf=0.074227
			12:[C_D_U_PUBLISHER_CITY_EC<2.38115] yes=25,no=26,missing=26
				25:[C_D_U_KEYWORD_CATEGORY_MACRO_MAX_COEC<0.01525] yes=51,no=52,missing=52
					51:[C_D_U_TITLEMD5_GENDER_COEC<0.176869] yes=101,no=102,missing=101
						101:leaf=0.0897516
						102:leaf=-0.00298228
					52:leaf=-0.13861
				26:[D_CATEGORY_MAX_EC<44723.7] yes=53,no=54,missing=53
					53:[U_KEYWORD_MICRO_MEAN_COEC<0.088669] yes=103,no=104,missing=104
						103:leaf=-0.0309013
						104:leaf=0.0680019
					54:[U_CATEGORY_MICRO_MAX_COEC<0.100162] yes=105,no=106,missing=106
						105:leaf=-0.0609835
						106:leaf=0.0312463
		6:[C_D_U_CATEGORY_CITY_MEAN_C<0.828706] yes=13,no=14,missing=14
			13:[C_D_U_TITLEMD5_AGE_C<1.85849] yes=27,no=28,missing=28
				27:[U_CATEGORY_MAX_EC<8757.22] yes=55,no=56,missing=55
					55:[C_D_U_PUBLISHER_GENDER_C<1320.24] yes=107,no=108,missing=107
						107:leaf=-0.0334023
						108:leaf=0.110173
					56:[U_KW_LEN<290] yes=109,no=110,missing=110
						109:leaf=0.00386746
						110:leaf=0.144506
				28:[U_KEYWORD_MEAN_EC<46.86] yes=57,no=58,missing=58
					57:[CAT_REL<0.0637] yes=111,no=112,missing=112
						111:leaf=-0.0833959
						112:leaf=0.0310008
					58:[D_CATEGORY_MAX_EC<8430.83] yes=113,no=114,missing=114
						113:leaf=0.0241395
						114:leaf=0.000465474
			14:[C_D_U_CATEGORY_CITY_MICRO_MAX_COEC<0.572315] yes=29,no=30,missing=29
				29:[C_D_U_TITLEMD5_CITY_C<0.900086] yes=59,no=60,missing=60
					59:[TIME_OF_DAY<2] yes=115,no=116,missing=116
						115:leaf=-0.0931338
						116:leaf=-0.0195748
					60:[U_CITY_C<1.92895] yes=117,no=118,missing=118
						117:leaf=-0.00668062
						118:leaf=0.0126284
				30:[U_KEYWORD_MEAN_EC<46.86] yes=61,no=62,missing=62
					61:[U_KEYWORD_MACRO_MAX_COEC<0.001825] yes=119,no=120,missing=120
						119:leaf=0.130693
						120:leaf=-0.115852
					62:[C_D_U_TITLEMD5_CITY_C<0.92293] yes=121,no=122,missing=122
						121:leaf=-0.0169524
						122:leaf=0.0358432
booster[60]:
0:[CAT_REL<0.144002] yes=1,no=2,missing=2
	1:[U_KEYWORD_MEAN_EC<156.691] yes=3,no=4,missing=4
		3:[D_KEYWORD_MEAN_EC<1538.51] yes=7,no=8,missing=7
			7:[C_D_U_KEYWORD_CATEGORY_MACRO_MEAN_COEC<0.06551] yes=15,no=16,missing=16
				15:[U_KEYWORD_MICRO_MAX_COEC<0.151315] yes=31,no=32,missing=32
					31:[M_D_U_KEYWORD_KEYWORD_MAX_EC<0.016467] yes=63,no=64,missing=64
						63:leaf=-0.00423861
						64:leaf=-0.0161575
					32:[C_D_U_CATEGORY_AGE_MEAN_EC<17992.5] yes=65,no=66,missing=66
						65:leaf=-0.00980629
						66:leaf=0.00734886
				16:[D_TITLEMD5_COEC<0.223836] yes=33,no=34,missing=34
					33:[U_KEYWORD_MICRO_MEAN_COEC<0.086751] yes=67,no=68,missing=68
						67:leaf=-0.011259
						68:leaf=0.000639721
					34:[DOC_AGE<26] yes=69,no=70,missing=70
						69:leaf=0.0199145
						70:leaf=-0.0242907
			8:[C_D_U_KEYWORD_CATEGORY_MACRO_MEAN_COEC<0.077877] yes=17,no=18,missing=18
				17:[DAY_OF_WEEK<4] yes=35,no=36,missing=36
					35:[M_D_U_KEYWORD_KEYWORD_MACRO_MEAN_COEC<0.000463] yes=71,no=72,missing=71
						71:leaf=-0.0312406
						72:leaf=0.00080261
					36:[U_KEYWORD_MICRO_MAX_COEC<0.121552] yes=73,no=74,missing=74
						73:leaf=-0.0666926
						74:leaf=-0.0385637
				18:[U_KEYWORD_MACRO_MEAN_COEC<0.033193] yes=37,no=38,missing=38
					37:[D_PUBLISHER_COEC<0.135227] yes=75,no=76,missing=76
						75:leaf=-0.0270322
						76:leaf=-0.00323352
					38:[C_D_U_PUBLISHER_AGE_C<2185.8] yes=77,no=78,missing=78
						77:leaf=0.0125611
						78:leaf=-0.00906889
		4:[U_KW_LEN<2126] yes=9,no=10,missing=10
			9:[U_KEYWORD_MICRO_MAX_COEC<0.11484] yes=19,no=20,missing=20
				19:[DOC_AGE<13] yes=39,no=40,missing=40
					39:[DAY_OF_WEEK<2] yes=79,no=80,missing=80
						79:leaf=-0.00303942
						80:leaf=-0.0117356
					40:[U_KEYWORD_MICRO_MEAN_COEC<0.100454] yes=81,no=82,missing=82
						81:leaf=0.00722498
						82:leaf=-0.0118726
				20:[DAY_OF_WEEK<5] yes=41,no=42,missing=42
					41:[TIME_OF_DAY<5] yes=83,no=84,missing=84
						83:leaf=-0.00246767
						84:leaf=0.00349572
					42:[C_D_U_TITLEMD5_CATEGORY_MEAN_C<3.68971] yes=85,no=86,missing=85
						85:leaf=-0.00379761
						86:leaf=0.00467245
			10:[U_CITY_COEC<0.074135] yes=21,no=22,missing=22
				21:[C_D_U_KEYWORD_CATEGORY_MACRO_MEAN_COEC<0.046269] yes=43,no=44,missing=43
					43:[CAT_REL<0.008737] yes=87,no=88,missing=88
						87:leaf=-0.03502
						88:leaf=-0.00724344
					44:[C_D_U_TITLEMD5_AGE_COEC<0.183524] yes=89,no=90,missing=90
						89:leaf=-0.00453626
						90:leaf=0.0271246
				22:[U_CATEGORY_MACRO_MEAN_COEC<0.05908] yes=45,no=46,missing=46
					45:[C_D_U_CATEGORY_GENDER_MEAN_EC<202.76] yes=91,no=92,missing=91
						91:leaf=0.0198494
						92:leaf=0.00198294
					46:[U_KEYWORD_MICRO_MEAN_COEC<0.103475] yes=93,no=94,missing=94
						93:leaf=0.0201272
						94:leaf=-0.0287583
	2:[U_KW_LEN<282] yes=5,no=6,missing=6
		5:[C_D_U_KEYWORD_CATEGORY_MACRO_MEAN_COEC<0.085679] yes=11,no=12,missing=11
			11:[C_D_U_KEYWORD_CATEGORY_MEAN_EC<23.5734] yes=23,no=24,missing=24
				23:[C_D_U_KEYWORD_CATEGORY_MACRO_MEAN_COEC<0.053516] yes=47,no=48,missing=48
					47:[C_D_U_KEYWORD_CATEGORY_MEAN_C<0.886952] yes=95,no=96,missing=96
						95:leaf=-0.00878363
						96:leaf=-0.0389745
					48:[C_D_U_TITLEMD5_CATEGORY_MICRO_MEAN_COEC<0.108312] yes=97,no=98,missing=97
						97:leaf=0.00797988
						98:leaf=-0.00767322
				24:[D_KEYWORD_MACRO_MEAN_COEC<0.052947] yes=49,no=50,missing=50
					49:[C_D_U_TITLEMD5_CATEGORY_MEAN_EC<4.78999] yes=99,no=100,missing=99
						99:leaf=-0.0218583
						100:leaf=-0.0883253
					50:[KW_REL<0.005805] yes=101,no=102,missing=102
						101:leaf=-0.0210164
						102:leaf=-0.00440545
			12:[U_KW_LEN<76] yes=25,no=26,missing=26
				25:[C_D_U_CATEGORY_AGE_MACRO_MAX_COEC<0.103567] yes=51,no=52,missing=51
					51:[U_KW_LEN<51] yes=103,no=104,missing=104
						103:leaf=-0.0276743
						104:leaf=-0.00627852
					52:[C_D_U_TITLEMD5_CITY_EC<74.2068] yes=105,no=106,missing=105
						105:leaf=0.0134635
						106:leaf=0.0909636
				26:[U_CATEGORY_MICRO_MEAN_COEC<0.098121] yes=53,no=54,missing=54
					53:[M_D_U_KEYWORD_KEYWORD_MACRO_MAX_COEC<0.002156] yes=107,no=108,missing=107
						107:leaf=0.0122903
						108:leaf=0.045297
					54:[D_PUBLISHER_EC<595.125] yes=109,no=110,missing=109
						109:leaf=-0.101695
						110:leaf=0.0024907
		6:[U_KEYWORD_MACRO_MAX_COEC<0.003278] yes=13,no=14,missing=14
			13:[U_KW_LEN<940] yes=27,no=28,missing=28
				27:[DOC_AGE<15] yes=55,no=56,missing=56
					55:[C_D_U_PUBLISHER_AGE_EC<6165.07] yes=111,no=112,missing=111
						111:leaf=0.010012
						112:leaf=0.0241134
					56:[C_D_U_KEYWORD_CATEGORY_MAX_C<0.212235] yes=113,no=114,missing=114
						113:leaf=0.013162
						114:leaf=-0.00565975
				28:[C_D_U_CATEGORY_CITY_MICRO_MAX_COEC<0.117372] yes=57,no=58,missing=58
					57:[U_CATEGORY_MACRO_MEAN_COEC<0.055481] yes=115,no=116,missing=116
						115:leaf=0.047179
						116:leaf=0.0084216
					58:[U_KEYWORD_MAX_EC<16.736] yes=117,no=118,missing=118
						117:leaf=0.0799352
						118:leaf=0.0310837
			14:[U_KEYWORD_MACRO_MEAN_COEC<0.039322] yes=29,no=30,missing=30
				29:[U_CATEGORY_MAX_EC<3181.1] yes=59,no=60,missing=60
					59:[U_CITY_COEC<0.076241] yes=119,no=120,missing=120
						119:leaf=0.014127
						120:leaf=0.0550483
					60:[C_D_U_KEYWORD_CATEGORY_MACRO_MEAN_COEC<0.093519] yes=121,no=122,missing=122
						121:leaf=0.00940937
						122:leaf=0.041087
				30:[C_D_U_PUBLISHER_AGE_COEC<0.056428] yes=61,no=62,missing=62
					61:leaf=-0.106411
					62:[D_CATEGORY_MACRO_MAX_COEC<0.087763] yes=123,no=124,missing=124
						123:leaf=0.110653
						124:leaf=0.0524611
booster[61]:
0:[IMAGE_COUNT<2] yes=1,no=2,missing=2
	1:[KW_REL<0.002964] yes=3,no=4,missing=4
		3:[D_KEYWORD_MAX_EC<400.412] yes=7,no=8,missing=7
			7:[D_PUBLISHER_COEC<0.076167] yes=15,no=16,missing=16
				15:[CAT_REL<0.001193] yes=31,no=32,missing=32
					31:[D_PUBLISHER_EC<35995.8] yes=63,no=64,missing=64
						63:leaf=-0.0030634
						64:leaf=-0.0150122
					32:[U_KW_LEN<178] yes=65,no=66,missing=66
						65:leaf=-0.0133332
						66:leaf=0.00229585
				16:[CAT_REL<0.001193] yes=33,no=34,missing=34
					33:[C_D_U_TITLEMD5_GENDER_COEC<0.134676] yes=67,no=68,missing=68
						67:leaf=-0.0119237
						68:leaf=0.000597864
					34:[U_KEYWORD_MICRO_MEAN_COEC<0.089663] yes=69,no=70,missing=70
						69:leaf=-0.00378723
						70:leaf=0.00739132
			8:[C_D_U_TITLEMD5_CATEGORY_MEAN_C<1.96392] yes=17,no=18,missing=18
				17:[D_KEYWORD_MEAN_EC<2150.03] yes=35,no=36,missing=36
					35:[U_KEYWORD_MEAN_EC<218.294] yes=71,no=72,missing=71
						71:leaf=-0.0180223
						72:leaf=-0.00672222
					36:[U_KEYWORD_MACRO_MEAN_COEC<0.031913] yes=73,no=74,missing=73
						73:leaf=-0.0376329
						74:leaf=-0.0189595
				18:[C_D_U_TITLEMD5_CATEGORY_MEAN_C<16.8349] yes=37,no=38,missing=37
					37:[C_D_U_PUBLISHER_AGE_EC<18166.5] yes=75,no=76,missing=75
						75:leaf=-0.00174057
						76:leaf=-0.0155468
					38:[U_KEYWORD_MICRO_MEAN_COEC<0.105026] yes=77,no=78,missing=78
						77:leaf=0.00428508
						78:leaf=0.0177999
		4:[U_KW_LEN<123] yes=9,no=10,missing=10
			9:[D_CATEGORY_MICRO_MEAN_COEC<0.084949] yes=19,no=20,missing=19
				19:[M_D_U_KEYWORD_KEYWORD_MEAN_EC<1.19171] yes=39,no=40,missing=39
					39:[U_KEYWORD_MACRO_MAX_COEC<0.002933] yes=79,no=80,missing=80
						79:leaf=0.142347
						80:leaf=0.00313629
					40:[U_CATEGORY_MEAN_C<3658.3] yes=81,no=82,missing=81
						81:leaf=0.0487539
						82:leaf=-0.135673
				20:[C_D_U_TITLEMD5_GENDER_C<0.936914] yes=41,no=42,missing=42
					41:[D_CATEGORY_MACRO_MEAN_COEC<0.080034] yes=83,no=84,missing=84
						83:leaf=0.0471505
						84:leaf=-0.0689366
					42:[C_D_U_KEYWORD_CATEGORY_MACRO_MAX_COEC<0.012149] yes=85,no=86,missing=85
						85:leaf=-0.0166746
						86:leaf=-0.00565549
			10:[D_KEYWORD_MEAN_EC<2150.03] yes=21,no=22,missing=22
				21:[WORD_COUNT<1343] yes=43,no=44,missing=44
					43:[D_CATEGORY_MAX_C<20149.8] yes=87,no=88,missing=88
						87:leaf=-0.000940882
						88:leaf=0.0306195
					44:[D_PUBLISHER_COEC<0.062747] yes=89,no=90,missing=89
						89:leaf=0.00509379
						90:leaf=0.0155903
				22:[M_D_U_KEYWORD_KEYWORD_MACRO_MEAN_COEC<0.001214] yes=45,no=46,missing=45
					45:[D_TITLEMD5_EC<630.853] yes=91,no=92,missing=92
						91:leaf=-0.0112428
						92:leaf=0.00142128
					46:[D_KEYWORD_MICRO_MEAN_COEC<0.089949] yes=93,no=94,missing=94
						93:leaf=-0.00511072
						94:leaf=0.0171104
	2:[C_D_U_PUBLISHER_CITY_EC<164.201] yes=5,no=6,missing=5
		5:[C_D_U_TITLEMD5_CITY_C<0.955889] yes=11,no=12,missing=11
			11:[DOC_AGE<3] yes=23,no=24,missing=24
				23:[C_D_U_PUBLISHER_AGE_COEC<0.152828] yes=47,no=48,missing=47
					47:[D_PUBLISHER_COEC<0.094404] yes=95,no=96,missing=95
						95:leaf=0.0037033
						96:leaf=0.0115849
					48:[C_D_U_CATEGORY_AGE_MICRO_MEAN_COEC<0.067843] yes=97,no=98,missing=98
						97:leaf=0.0933353
						98:leaf=0.0262928
				24:[D_CATEGORY_MEAN_C<2936.75] yes=49,no=50,missing=49
					49:[KW_REL<0.000556] yes=99,no=100,missing=100
						99:leaf=0.00176368
						100:leaf=0.0102778
					50:[D_PUBLISHER_C<33.3458] yes=101,no=102,missing=102
						101:leaf=-0.0761354
						102:leaf=-0.000390349
			12:[C_D_U_TITLEMD5_CITY_EC<1.53898] yes=25,no=26,missing=25
				25:[DOC_AGE<12] yes=51,no=52,missing=52
					51:[C_D_U_TITLEMD5_CITY_C<0.994999] yes=103,no=104,missing=104
						103:leaf=0.0106209
						104:leaf=0.0669913
					52:[D_TITLEMD5_EC<2484.02] yes=105,no=106,missing=106
						105:leaf=0.100069
						106:leaf=0.0447815
				26:[D_PUBLISHER_COEC<0.173924] yes=53,no=54,missing=54
					53:[WORD_COUNT<4222] yes=107,no=108,missing=108
						107:leaf=0.0092927
						108:leaf=0.0275152
					54:[U_KEYWORD_MICRO_MEAN_COEC<0.092521] yes=109,no=110,missing=110
						109:leaf=-0.0831632
						110:leaf=-0.010054
		6:[U_KW_LEN<2481] yes=13,no=14,missing=14
			13:[C_D_U_TITLEMD5_GENDER_C<73.3483] yes=27,no=28,missing=27
				27:[U_KEYWORD_MICRO_MAX_COEC<0.102624] yes=55,no=56,missing=56
					55:[M_D_U_KEYWORD_KEYWORD_MAX_EC<0.00512] yes=111,no=112,missing=112
						111:leaf=0.00437235
						112:leaf=-0.0269968
					56:[U_CATEGORY_MICRO_MAX_COEC<0.101766] yes=113,no=114,missing=114
						113:leaf=0.00548776
						114:leaf=-0.00380638
				28:[C_D_U_KEYWORD_CATEGORY_MAX_EC<12.7446] yes=57,no=58,missing=58
					57:[C_D_U_CATEGORY_AGE_MACRO_MAX_COEC<0.103581] yes=115,no=116,missing=116
						115:leaf=-0.0826567
						116:leaf=0.0165147
					58:[C_D_U_PUBLISHER_CITY_COEC<0.140741] yes=117,no=118,missing=118
						117:leaf=0.00220353
						118:leaf=0.0729978
			14:[C_D_U_PUBLISHER_AGE_COEC<0.168564] yes=29,no=30,missing=30
				29:[U_CATEGORY_MICRO_MAX_COEC<0.12029] yes=59,no=60,missing=60
					59:[U_CATEGORY_MACRO_MAX_COEC<0.012692] yes=119,no=120,missing=120
						119:leaf=-0.0124583
						120:leaf=-0.0765095
					60:[C_D_U_PUBLISHER_GENDER_EC<2352.13] yes=121,no=122,missing=122
						121:leaf=0.121247
						122:leaf=0.0122008
				30:[U_CITY_EC<6850.39] yes=61,no=62,missing=62
					61:[D_KEYWORD_MICRO_MEAN_COEC<0.092207] yes=123,no=124,missing=124
						123:leaf=0.0473129
						124:leaf=-0.00709501
					62:[C_D_U_PUBLISHER_GENDER_COEC<0.210341] yes=125,no=126,missing=125
						125:leaf=0.0545751
						126:leaf=-0.146312
booster[62]:
0:[D_KEYWORD_MEAN_EC<3633.77] yes=1,no=2,missing=1
	1:[KW_REL<0.001984] yes=3,no=4,missing=4
		3:[C_D_U_CATEGORY_GENDER_MACRO_MAX_COEC<0.058201] yes=7,no=8,missing=8
			7:[CAT_REL<0.371761] yes=15,no=16,missing=16
				15:[C_D_U_PUBLISHER_GENDER_COEC<0.072776] yes=31,no=32,missing=31
					31:[C_D_U_TITLEMD5_AGE_C<19.3039] yes=63,no=64,missing=64
						63:leaf=-0.0181198
						64:leaf=-0.0400636
					32:[C_D_U_CATEGORY_CITY_MAX_EC<0.406279] yes=65,no=66,missing=66
						65:leaf=0.0339189
						66:leaf=-0.0106453
				16:[U_CATEGORY_MEAN_EC<5138.66] yes=33,no=34,missing=34
					33:[C_D_U_PUBLISHER_CITY_EC<35.1455] yes=67,no=68,missing=68
						67:leaf=0.328706
						68:leaf=0.00842095
					34:[D_CATEGORY_MICRO_MEAN_COEC<0.055566] yes=69,no=70,missing=70
						69:leaf=0.0868572
						70:leaf=-0.0197416
			8:[IMAGE_COUNT<0.999999] yes=17,no=18,missing=18
				17:[D_TITLEMD5_COEC<0.02009] yes=35,no=36,missing=35
					35:[C_D_U_CATEGORY_AGE_MICRO_MAX_COEC<0.11871] yes=71,no=72,missing=71
						71:leaf=-0.0250804
						72:leaf=0.0200775
					36:[D_KEYWORD_MAX_C<28.746] yes=73,no=74,missing=74
						73:leaf=-0.000964344
						74:leaf=-0.0146375
				18:[DAY_OF_WEEK<2] yes=37,no=38,missing=38
					37:[D_CATEGORY_MEAN_EC<88180.7] yes=75,no=76,missing=75
						75:leaf=0.0044284
						76:leaf=-0.00296794
					38:[U_KEYWORD_MICRO_MEAN_COEC<0.089716] yes=77,no=78,missing=78
						77:leaf=-0.0134661
						78:leaf=-0.000475958
		4:[U_KW_LEN<2119] yes=9,no=10,missing=10
			9:[WORD_COUNT<1004] yes=19,no=20,missing=20
				19:[D_PUBLISHER_COEC<0.067638] yes=39,no=40,missing=39
					39:[C_D_U_PUBLISHER_AGE_C<320.297] yes=79,no=80,missing=80
						79:leaf=-0.00267786
						80:leaf=-0.0243492
					40:[C_D_U_PUBLISHER_GENDER_C<173.413] yes=81,no=82,missing=81
						81:leaf=-0.00438351
						82:leaf=0.0173711
				20:[DOC_AGE<6] yes=41,no=42,missing=42
					41:[M_D_U_KEYWORD_KEYWORD_MICRO_MAX_COEC<0.19528] yes=83,no=84,missing=83
						83:leaf=0.0080889
						84:leaf=0.0237807
					42:[D_CATEGORY_MICRO_MAX_COEC<0.095151] yes=85,no=86,missing=85
						85:leaf=0.00590254
						86:leaf=-0.00170773
			10:[KW_REL<0.003835] yes=21,no=22,missing=22
				21:[D_KEYWORD_MEAN_EC<1999.12] yes=43,no=44,missing=44
					43:[U_CATEGORY_MICRO_MAX_COEC<0.11955] yes=87,no=88,missing=88
						87:leaf=0.0106141
						88:leaf=0.0282732
					44:[U_KEYWORD_MEAN_EC<326.362] yes=89,no=90,missing=90
						89:leaf=-0.0359643
						90:leaf=0.00235269
				22:[D_CATEGORY_MICRO_MAX_COEC<0.077713] yes=45,no=46,missing=46
					45:[M_D_U_KEYWORD_KEYWORD_MAX_C<0.015919] yes=91,no=92,missing=91
						91:leaf=0.038713
						92:leaf=-0.0201009
					46:[C_D_U_CATEGORY_CITY_MEAN_EC<37.5426] yes=93,no=94,missing=94
						93:leaf=0.0231281
						94:leaf=0.049163
	2:[U_KEYWORD_MAX_C<12.7738] yes=5,no=6,missing=6
		5:[D_PUBLISHER_COEC<0.14154] yes=11,no=12,missing=11
			11:[U_KEYWORD_MACRO_MEAN_COEC<0.032665] yes=23,no=24,missing=24
				23:[KW_REL<0.002483] yes=47,no=48,missing=48
					47:[C_D_U_PUBLISHER_AGE_EC<13714.4] yes=95,no=96,missing=96
						95:leaf=-0.0190503
						96:leaf=-0.065848
					48:[U_KW_LEN<2119] yes=97,no=98,missing=98
						97:leaf=-0.0302082
						98:leaf=0.00194135
				24:[C_D_U_TITLEMD5_CITY_EC<0.570406] yes=49,no=50,missing=49
					49:[U_CATEGORY_MICRO_MAX_COEC<0.130509] yes=99,no=100,missing=100
						99:leaf=-0.0238271
						100:leaf=-0.0914503
					50:[U_CITY_EC<516.831] yes=101,no=102,missing=102
						101:leaf=0.0203694
						102:leaf=-0.0124189
			12:[D_KEYWORD_MACRO_MAX_COEC<0.032816] yes=25,no=26,missing=26
				25:[D_KEYWORD_MACRO_MEAN_COEC<0.119788] yes=51,no=52,missing=52
					51:[U_CATEGORY_MEAN_C<976.215] yes=103,no=104,missing=104
						103:leaf=-0.0319396
						104:leaf=0.0114764
					52:[C_D_U_TITLEMD5_CATEGORY_MEAN_C<0.204325] yes=105,no=106,missing=106
						105:leaf=0.0290399
						106:leaf=-0.138231
				26:[U_CAT_LEN<3] yes=53,no=54,missing=54
					53:[C_D_U_CATEGORY_CITY_MEAN_C<34.0927] yes=107,no=108,missing=108
						107:leaf=0.0436359
						108:leaf=0.211048
					54:[D_CATEGORY_MAX_EC<31407.3] yes=109,no=110,missing=110
						109:leaf=-0.00344474
						110:leaf=0.0381237
		6:[U_CATEGORY_MACRO_MAX_COEC<0.029816] yes=13,no=14,missing=14
			13:[M_D_U_KEYWORD_KEYWORD_MACRO_MEAN_COEC<0.001309] yes=27,no=28,missing=27
				27:[D_CATEGORY_MEAN_EC<113450] yes=55,no=56,missing=55
					55:[D_TITLEMD5_COEC<0.134106] yes=111,no=112,missing=111
						111:leaf=-0.0125229
						112:leaf=0.00256962
					56:[U_KEYWORD_MEAN_EC<685.827] yes=113,no=114,missing=114
						113:leaf=-0.00223404
						114:leaf=0.0401225
				28:[U_KW_LEN<356] yes=57,no=58,missing=58
					57:[C_D_U_TITLEMD5_CATEGORY_MACRO_MAX_COEC<0.066609] yes=115,no=116,missing=115
						115:leaf=0.000242674
						116:leaf=0.0318558
					58:[U_KEYWORD_MACRO_MEAN_COEC<0.033454] yes=117,no=118,missing=118
						117:leaf=0.0148919
						118:leaf=0.0527501
			14:[U_CATEGORY_MEAN_EC<13955.3] yes=29,no=30,missing=30
				29:[D_CATEGORY_MICRO_MAX_COEC<0.095151] yes=59,no=60,missing=60
					59:[C_D_U_CATEGORY_AGE_MACRO_MEAN_COEC<0.093671] yes=119,no=120,missing=119
						119:leaf=-0.0116856
						120:leaf=0.118348
					60:[U_KW_LEN<745] yes=121,no=122,missing=122
						121:leaf=-0.0562199
						122:leaf=0.0872
				30:[U_KEYWORD_MICRO_MEAN_COEC<0.110627] yes=61,no=62,missing=61
					61:[D_KEYWORD_MICRO_MEAN_COEC<0.114975] yes=123,no=124,missing=124
						123:leaf=-0.0012211
						124:leaf=-0.0146614
					62:[C_D_U_KEYWORD_CATEGORY_MICRO_MAX_COEC<0.230169] yes=125,no=126,missing=125
						125:leaf=-0.00476384
						126:leaf=0.0387668
booster[63]:
0:[C_D_U_PUBLISHER_CITY_COEC<0.321844] yes=1,no=2,missing=1
	1:[U_KEYWORD_MICRO_MAX_COEC<0.117519] yes=3,no=4,missing=4
		3:[C_D_U_TITLEMD5_AGE_C<5.477] yes=7,no=8,missing=7
			7:[U_CATEGORY_MICRO_MEAN_COEC<0.099544] yes=15,no=16,missing=16
				15:[U_KEYWORD_MICRO_MAX_COEC<0.111361] yes=31,no=32,missing=32
					31:[DOC_AGE<20] yes=63,no=64,missing=64
						63:leaf=-0.00833489
						64:leaf=0.00191027
					32:[D_TITLEMD5_COEC<0.09781] yes=65,no=66,missing=65
						65:leaf=-0.00328887
						66:leaf=0.00660758
				16:[U_KW_LEN<2222] yes=33,no=34,missing=34
					33:[U_KEYWORD_MACRO_MAX_COEC<0.001655] yes=67,no=68,missing=68
						67:leaf=-0.0293142
						68:leaf=-0.0116763
					34:[U_CATEGORY_MACRO_MEAN_COEC<0.032484] yes=69,no=70,missing=70
						69:leaf=-0.0220601
						70:leaf=0.018479
			8:[D_PUBLISHER_EC<69791.9] yes=17,no=18,missing=18
				17:[U_KEYWORD_MICRO_MEAN_COEC<0.100438] yes=35,no=36,missing=36
					35:[U_KEYWORD_MICRO_MEAN_COEC<0.086634] yes=71,no=72,missing=72
						71:leaf=-0.00553611
						72:leaf=0.00930121
					36:[C_D_U_TITLEMD5_CATEGORY_MEAN_EC<0.47994] yes=73,no=74,missing=73
						73:leaf=-0.0580589
						74:leaf=-0.00485862
				18:[D_CATEGORY_MICRO_MAX_COEC<0.089137] yes=37,no=38,missing=37
					37:[CAT_REL<0.272081] yes=75,no=76,missing=76
						75:leaf=-0.000319246
						76:leaf=0.0292157
					38:[C_D_U_TITLEMD5_AGE_COEC<0.19251] yes=77,no=78,missing=78
						77:leaf=-0.0242428
						78:leaf=-0.00168879
		4:[DOC_AGE<6] yes=9,no=10,missing=10
			9:[CAT_REL<0.001101] yes=19,no=20,missing=20
				19:[D_TITLEMD5_EC<3174.43] yes=39,no=40,missing=39
					39:[D_KEYWORD_MEAN_C<4.79158] yes=79,no=80,missing=79
						79:leaf=-0.0207643
						80:leaf=0.000702052
					40:[D_CATEGORY_MACRO_MAX_COEC<0.074751] yes=81,no=82,missing=82
						81:leaf=0.0821308
						82:leaf=0.0138977
				20:[D_PUBLISHER_C<2929] yes=41,no=42,missing=41
					41:[U_KW_LEN<743] yes=83,no=84,missing=84
						83:leaf=0.00174452
						84:leaf=0.0120075
					42:[U_KEYWORD_MICRO_MEAN_COEC<0.111521] yes=85,no=86,missing=86
						85:leaf=0.011753
						86:leaf=0.0280055
			10:[C_D_U_TITLEMD5_AGE_EC<398.821] yes=21,no=22,missing=22
				21:[D_KEYWORD_MEAN_EC<1292.7] yes=43,no=44,missing=44
					43:[C_D_U_TITLEMD5_CITY_C<4.45151] yes=87,no=88,missing=88
						87:leaf=0.00361443
						88:leaf=-0.00769463
					44:[KW_REL<0.00392] yes=89,no=90,missing=90
						89:leaf=-0.0218024
						90:leaf=-0.00361792
				22:[WORD_COUNT<1918] yes=45,no=46,missing=46
					45:[D_TITLEMD5_COEC<0.282705] yes=91,no=92,missing=91
						91:leaf=-0.00231777
						92:leaf=-0.0580607
					46:[U_CITY_COEC<0.052819] yes=93,no=94,missing=94
						93:leaf=-0.00708302
						94:leaf=0.00287167
	2:[C_D_U_PUBLISHER_CITY_C<0.980149] yes=5,no=6,missing=6
		5:[C_D_U_TITLEMD5_CITY_EC<0.561893] yes=11,no=12,missing=11
			11:[C_D_U_TITLEMD5_CITY_COEC<0.486145] yes=23,no=24,missing=23
				23:[C_D_U_TITLEMD5_CITY_C<0.596728] yes=47,no=48,missing=47
					47:[U_KEYWORD_MEAN_EC<197.829] yes=95,no=96,missing=95
						95:leaf=-0.0124028
						96:leaf=-0.000153694
					48:[TIME_OF_DAY<4] yes=97,no=98,missing=98
						97:leaf=-0.0790108
						98:leaf=0.134723
				24:[KW_REL<0.002994] yes=49,no=50,missing=50
					49:[C_D_U_TITLEMD5_CITY_C<0.559083] yes=99,no=100,missing=100
						99:leaf=-0.0559559
						100:leaf=0.0746651
					50:[D_KEYWORD_MAX_EC<867.162] yes=101,no=102,missing=102
						101:leaf=-0.229299
						102:leaf=-0.0653937
			12:[TIME_OF_DAY<3] yes=25,no=26,missing=26
				25:[C_D_U_TITLEMD5_CITY_C<0.401605] yes=51,no=52,missing=52
					51:[DOC_AGE<23] yes=103,no=104,missing=104
						103:leaf=0.000365585
						104:leaf=0.110371
					52:[C_D_U_TITLEMD5_CITY_EC<0.960692] yes=105,no=106,missing=106
						105:leaf=-0.0990056
						106:leaf=-0.0249112
				26:[U_CITY_C<7.2543] yes=53,no=54,missing=54
					53:[D_TITLEMD5_EC<3594.07] yes=107,no=108,missing=108
						107:leaf=0.0691311
						108:leaf=0.0212532
					54:[D_TITLEMD5_C<42.8193] yes=109,no=110,missing=110
						109:leaf=0.04394
						110:leaf=0.00117207
		6:[C_D_U_PUBLISHER_CITY_C<1.10342] yes=13,no=14,missing=14
			13:[C_D_U_TITLEMD5_CITY_C<0.985993] yes=27,no=28,missing=27
				27:[U_KEYWORD_MACRO_MEAN_COEC<0.033659] yes=55,no=56,missing=56
					55:[U_KEYWORD_MICRO_MEAN_COEC<0.085763] yes=111,no=112,missing=112
						111:leaf=-0.0726616
						112:leaf=0.0131087
					56:[C_D_U_CATEGORY_AGE_MAX_C<3917.68] yes=113,no=114,missing=113
						113:leaf=0.045405
						114:leaf=-0.0876104
				28:[U_CITY_C<367.547] yes=57,no=58,missing=58
					57:[C_D_U_TITLEMD5_CATEGORY_MEAN_C<0.042327] yes=115,no=116,missing=116
						115:leaf=-0.0826905
						116:leaf=0.0899064
					58:leaf=-0.114022
			14:[D_TITLEMD5_EC<2082.2] yes=29,no=30,missing=29
				29:[C_D_U_PUBLISHER_CITY_C<2.60217] yes=59,no=60,missing=60
					59:[C_D_U_TITLEMD5_CITY_COEC<0.029444] yes=117,no=118,missing=118
						117:leaf=0.0462701
						118:leaf=0.00976023
					60:[D_CATEGORY_MICRO_MAX_COEC<0.088041] yes=119,no=120,missing=119
						119:leaf=0.0435842
						120:leaf=0.0209536
				30:[C_D_U_TITLEMD5_CITY_EC<0.913724] yes=61,no=62,missing=62
					61:[U_CITY_C<6.12431] yes=121,no=122,missing=122
						121:leaf=0.0178208
						122:leaf=-0.0249367
					62:[DOC_AGE<45] yes=123,no=124,missing=124
						123:leaf=0.00471337
						124:leaf=0.0438357
booster[64]:
0:[U_CITY_COEC<0.258699] yes=1,no=2,missing=1
	1:[C_D_U_TITLEMD5_CITY_EC<0.946354] yes=3,no=4,missing=3
		3:[C_D_U_TITLEMD5_CITY_C<0.96552] yes=7,no=8,missing=7
			7:[DOC_AGE<7] yes=15,no=16,missing=16
				15:[D_TITLEMD5_C<3.92557] yes=31,no=32,missing=31
					31:[C_D_U_TITLEMD5_CATEGORY_MICRO_MEAN_COEC<0.097815] yes=61,no=62,missing=61
						61:leaf=-0.00102361
						62:leaf=-0.0157338
					32:[D_TITLEMD5_COEC<0.251718] yes=63,no=64,missing=64
						63:leaf=0.00204762
						64:leaf=0.0195596
				16:[DOC_AGE<87] yes=33,no=34,missing=34
					33:[C_D_U_TITLEMD5_CATEGORY_MEAN_EC<0.40604] yes=65,no=66,missing=66
						65:leaf=-0.0153003
						66:leaf=-0.00318663
					34:[U_KEYWORD_MEAN_EC<217.746] yes=67,no=68,missing=67
						67:leaf=-0.0106686
						68:leaf=0.0339996
			8:[DOC_AGE<13] yes=17,no=18,missing=18
				17:[D_PUBLISHER_COEC<0.104717] yes=35,no=36,missing=36
					35:[U_CATEGORY_MICRO_MEAN_COEC<0.083392] yes=69,no=70,missing=69
						69:leaf=0.00419414
						70:leaf=0.0962209
					36:[D_KEYWORD_MEAN_C<331.181] yes=71,no=72,missing=72
						71:leaf=0.00608325
						72:leaf=-0.155725
				18:[C_D_U_TITLEMD5_CITY_C<1.2432] yes=37,no=38,missing=38
					37:[TIME_OF_DAY<0.999999] yes=73,no=74,missing=74
						73:leaf=0.0147301
						74:leaf=0.123041
					38:[C_D_U_CATEGORY_CITY_MAX_EC<74.6882] yes=75,no=76,missing=75
						75:leaf=-0.0271172
						76:leaf=0.14923
		4:[U_CITY_EC<259.406] yes=9,no=10,missing=10
			9:[D_TITLEMD5_EC<2703.63] yes=19,no=20,missing=20
				19:[DOC_AGE<12] yes=39,no=40,missing=40
					39:[C_D_U_TITLEMD5_CITY_EC<0.985074] yes=77,no=78,missing=78
						77:leaf=0.00632826
						78:leaf=0.0396829
					40:[D_TITLEMD5_EC<771.407] yes=79,no=80,missing=80
						79:leaf=0.0988321
						80:leaf=0.0467652
				20:[U_CITY_EC<16.7463] yes=41,no=42,missing=42
					41:[C_D_U_CATEGORY_CITY_MEAN_EC<2.91032] yes=81,no=82,missing=81
						81:leaf=0.0605281
						82:leaf=-0.0579277
					42:[U_CITY_COEC<0.035417] yes=83,no=84,missing=84
						83:leaf=-0.0198849
						84:leaf=0.00647634
			10:[U_CITY_EC<1979.54] yes=21,no=22,missing=22
				21:[D_TITLEMD5_EC<383.892] yes=43,no=44,missing=44
					43:[DOC_AGE<12] yes=85,no=86,missing=86
						85:leaf=0.0179018
						86:leaf=0.0571808
					44:[U_KW_LEN<479] yes=87,no=88,missing=88
						87:leaf=0.00141656
						88:leaf=0.0115259
				22:[WORD_COUNT<1695] yes=45,no=46,missing=46
					45:[D_PUBLISHER_EC<81403.5] yes=89,no=90,missing=90
						89:leaf=-0.00318438
						90:leaf=-0.0108677
					46:[C_D_U_TITLEMD5_CITY_C<0.985074] yes=91,no=92,missing=92
						91:leaf=-0.00210329
						92:leaf=0.00352156
	2:[C_D_U_TITLEMD5_CITY_COEC<0.140523] yes=5,no=6,missing=6
		5:[C_D_U_PUBLISHER_CITY_EC<3.12127] yes=11,no=12,missing=12
			11:[U_CATEGORY_MICRO_MAX_COEC<0.092683] yes=23,no=24,missing=23
				23:[U_KEYWORD_MEAN_EC<93.3725] yes=47,no=48,missing=48
					47:leaf=-0.140385
					48:[DOC_AGE<13] yes=93,no=94,missing=94
						93:leaf=0.00724861
						94:leaf=0.073897
				24:[U_CITY_C<32.5008] yes=49,no=50,missing=50
					49:[D_TITLEMD5_EC<6744.75] yes=95,no=96,missing=96
						95:leaf=0.0986629
						96:leaf=0.028992
					50:[U_KW_LEN<479] yes=97,no=98,missing=98
						97:leaf=-0.0895969
						98:leaf=0.0760259
			12:[U_CATEGORY_MICRO_MEAN_COEC<0.081187] yes=25,no=26,missing=26
				25:leaf=-0.147346
				26:[D_CATEGORY_MICRO_MAX_COEC<0.085771] yes=51,no=52,missing=52
					51:[D_KEYWORD_MICRO_MAX_COEC<0.128523] yes=99,no=100,missing=100
						99:leaf=0.0304589
						100:leaf=0.119852
					52:[C_D_U_KEYWORD_CATEGORY_MACRO_MAX_COEC<0.009932] yes=101,no=102,missing=102
						101:leaf=0.0445606
						102:leaf=-0.00721923
		6:[U_CATEGORY_MICRO_MEAN_COEC<0.08424] yes=13,no=14,missing=14
			13:[U_KEYWORD_MICRO_MAX_COEC<0.160736] yes=27,no=28,missing=28
				27:[DOC_AGE<32] yes=53,no=54,missing=54
					53:[D_CATEGORY_MACRO_MAX_COEC<0.068812] yes=103,no=104,missing=103
						103:leaf=-0.0530644
						104:leaf=-0.0118275
					54:[D_KEYWORD_MACRO_MEAN_COEC<0.109443] yes=105,no=106,missing=106
						105:leaf=0.0984153
						106:leaf=-0.109981
				28:[C_D_U_CATEGORY_AGE_MACRO_MAX_COEC<0.115552] yes=55,no=56,missing=56
					55:[C_D_U_CATEGORY_GENDER_MACRO_MEAN_COEC<0.088686] yes=107,no=108,missing=107
						107:leaf=-0.0474761
						108:leaf=0.0951503
					56:[U_CATEGORY_MAX_EC<2562.9] yes=109,no=110,missing=110
						109:leaf=0.0291342
						110:leaf=0.1187
			14:[D_CATEGORY_MEAN_EC<4752.27] yes=29,no=30,missing=30
				29:[C_D_U_PUBLISHER_CITY_C<1.62506] yes=57,no=58,missing=57
					57:[M_D_U_KEYWORD_KEYWORD_MICRO_MEAN_COEC<0.107749] yes=111,no=112,missing=112
						111:leaf=-0.0542653
						112:leaf=0.0526495
					58:[U_KEYWORD_MACRO_MEAN_COEC<0.036241] yes=113,no=114,missing=113
						113:leaf=0.106834
						114:leaf=-0.0789285
				30:[C_D_U_TITLEMD5_CITY_C<0.593745] yes=59,no=60,missing=60
					59:[U_KEYWORD_MEAN_C<60.9471] yes=115,no=116,missing=116
						115:leaf=-0.211569
						116:leaf=-0.019005
					60:[U_KEYWORD_MAX_EC<200.294] yes=117,no=118,missing=117
						117:leaf=0.0174987
						118:leaf=-0.0126491
booster[65]:
0:[U_KEYWORD_MICRO_MAX_COEC<0.21591] yes=1,no=2,missing=1
	1:[U_KW_LEN<1132] yes=3,no=4,missing=4
		3:[C_D_U_KEYWORD_CATEGORY_MACRO_MEAN_COEC<0.057576] yes=7,no=8,missing=8
			7:[D_KEYWORD_MAX_C<27.3182] yes=15,no=16,missing=16
				15:[U_CAT_LEN<12] yes=31,no=32,missing=32
					31:[C_D_U_KEYWORD_CATEGORY_MACRO_MEAN_COEC<0.03103] yes=63,no=64,missing=64
						63:leaf=-0.0192631
						64:leaf=-0.00388873
					32:[DOC_AGE<23] yes=65,no=66,missing=66
						65:leaf=0.000675368
						66:leaf=0.0167574
				16:[U_KEYWORD_MAX_EC<110.989] yes=33,no=34,missing=33
					33:[D_CATEGORY_MEAN_C<194.542] yes=67,no=68,missing=67
						67:leaf=0.00856652
						68:leaf=-0.0189879
					34:[D_CATEGORY_MACRO_MAX_COEC<0.087454] yes=69,no=70,missing=69
						69:leaf=0.00186661
						70:leaf=-0.0140614
			8:[DAY_OF_WEEK<5] yes=17,no=18,missing=18
				17:[TIME_OF_DAY<3] yes=35,no=36,missing=36
					35:[D_CATEGORY_MACRO_MAX_COEC<0.076167] yes=71,no=72,missing=72
						71:leaf=-0.0087717
						72:leaf=-0.00162314
					36:[WORD_COUNT<1918] yes=73,no=74,missing=74
						73:leaf=2.51623e-05
						74:leaf=0.00419358
				18:[U_KEYWORD_MICRO_MEAN_COEC<0.111178] yes=37,no=38,missing=37
					37:[DOC_AGE<42] yes=75,no=76,missing=76
						75:leaf=-0.00455314
						76:leaf=0.00444255
					38:[U_CITY_COEC<0.088872] yes=77,no=78,missing=78
						77:leaf=-0.00718595
						78:leaf=0.0105496
		4:[C_D_U_CATEGORY_AGE_MICRO_MAX_COEC<0.11021] yes=9,no=10,missing=10
			9:[CAT_REL<0.02007] yes=19,no=20,missing=20
				19:[C_D_U_CATEGORY_AGE_MAX_C<1334.14] yes=39,no=40,missing=40
					39:[D_CATEGORY_MEAN_C<441.678] yes=79,no=80,missing=80
						79:leaf=0.00381313
						80:leaf=-0.0252755
					40:[D_CATEGORY_MICRO_MAX_COEC<0.095239] yes=81,no=82,missing=82
						81:leaf=0.0105628
						82:leaf=-0.025993
				20:[D_CATEGORY_MICRO_MEAN_COEC<0.098217] yes=41,no=42,missing=42
					41:[C_D_U_TITLEMD5_AGE_C<0.975248] yes=83,no=84,missing=83
						83:leaf=-0.00669062
						84:leaf=0.0085337
					42:[CAT_REL<0.12726] yes=85,no=86,missing=86
						85:leaf=-0.0190007
						86:leaf=0.0313934
			10:[D_KEYWORD_MEAN_C<32.2488] yes=21,no=22,missing=22
				21:[KW_REL<0.000607] yes=43,no=44,missing=44
					43:[C_D_U_CATEGORY_GENDER_MICRO_MAX_COEC<0.10441] yes=87,no=88,missing=88
						87:leaf=-0.0476743
						88:leaf=0.00900716
					44:[U_CATEGORY_MICRO_MEAN_COEC<0.090849] yes=89,no=90,missing=90
						89:leaf=0.0139339
						90:leaf=0.0311287
				22:[M_D_U_KEYWORD_KEYWORD_MACRO_MEAN_COEC<0.000133] yes=45,no=46,missing=45
					45:[D_TITLEMD5_EC<1181.25] yes=91,no=92,missing=91
						91:leaf=-0.00482079
						92:leaf=0.00912025
					46:[D_KEYWORD_MEAN_EC<1753.22] yes=93,no=94,missing=94
						93:leaf=0.0179091
						94:leaf=0.00460256
	2:[U_KW_LEN<360] yes=5,no=6,missing=6
		5:[U_KEYWORD_MACRO_MEAN_COEC<0.038937] yes=11,no=12,missing=12
			11:[U_KW_LEN<159] yes=23,no=24,missing=24
				23:[U_KEYWORD_MAX_EC<27.3865] yes=47,no=48,missing=48
					47:[U_CATEGORY_MAX_EC<5902.83] yes=95,no=96,missing=96
						95:leaf=-0.0817283
						96:leaf=0.0705877
					48:[U_KEYWORD_MICRO_MEAN_COEC<0.087943] yes=97,no=98,missing=98
						97:leaf=0.0183785
						98:leaf=-0.0474478
				24:[U_KW_LEN<282] yes=49,no=50,missing=50
					49:[U_CATEGORY_MICRO_MEAN_COEC<0.096576] yes=99,no=100,missing=100
						99:leaf=-0.0031315
						100:leaf=-0.0317716
					50:[U_KEYWORD_MACRO_MEAN_COEC<0.033461] yes=101,no=102,missing=102
						101:leaf=-0.00970774
						102:leaf=0.0212172
			12:[U_CATEGORY_MICRO_MEAN_COEC<0.092285] yes=25,no=26,missing=26
				25:[U_CAT_LEN<6] yes=51,no=52,missing=52
					51:[U_KEYWORD_MACRO_MEAN_COEC<0.071961] yes=103,no=104,missing=104
						103:leaf=0.00809483
						104:leaf=0.0420918
					52:[U_CATEGORY_MAX_EC<4967.13] yes=105,no=106,missing=106
						105:leaf=0.0352048
						106:leaf=0.109217
				26:[U_KW_LEN<256] yes=53,no=54,missing=54
					53:[C_D_U_CATEGORY_AGE_MEAN_EC<31611.5] yes=107,no=108,missing=108
						107:leaf=0.014071
						108:leaf=-0.00457414
					54:[U_CATEGORY_MICRO_MEAN_COEC<0.107491] yes=109,no=110,missing=110
						109:leaf=0.0404188
						110:leaf=-0.0736193
		6:[U_KEYWORD_MACRO_MEAN_COEC<0.032163] yes=13,no=14,missing=14
			13:[U_CITY_C<17.1395] yes=27,no=28,missing=28
				27:[U_CATEGORY_MEAN_EC<2548.86] yes=55,no=56,missing=56
					55:[U_KEYWORD_MACRO_MEAN_COEC<0.02349] yes=111,no=112,missing=112
						111:leaf=0.0188974
						112:leaf=-0.0582806
					56:[U_CATEGORY_MAX_C<94.5244] yes=113,no=114,missing=114
						113:leaf=0.0564049
						114:leaf=-0.00328291
				28:[D_TITLEMD5_COEC<0.07637] yes=57,no=58,missing=57
					57:[U_CAT_LEN<20] yes=115,no=116,missing=116
						115:leaf=0.0288943
						116:leaf=0.0880924
					58:[D_KEYWORD_MICRO_MEAN_COEC<0.092727] yes=117,no=118,missing=118
						117:leaf=0.0261141
						118:leaf=0.00433648
			14:[DAY_OF_WEEK<5] yes=29,no=30,missing=30
				29:[U_CATEGORY_MEAN_C<245.714] yes=59,no=60,missing=60
					59:[TIME_OF_DAY<11] yes=119,no=120,missing=120
						119:leaf=0.0299654
						120:leaf=0.121812
					60:[U_KEYWORD_MACRO_MEAN_COEC<0.038041] yes=121,no=122,missing=122
						121:leaf=0.0352123
						122:leaf=0.0944691
				30:[U_CITY_COEC<0.082675] yes=61,no=62,missing=61
					61:[U_KW_LEN<578] yes=123,no=124,missing=124
						123:leaf=0.0308076
						124:leaf=0.122865
					62:[U_CATEGORY_MICRO_MEAN_COEC<0.092285] yes=125,no=126,missing=126
						125:leaf=0.0991313
						126:leaf=-0.00494663
booster[66]:
0:[U_CATEGORY_MICRO_MAX_COEC<0.113694] yes=1,no=2,missing=1
	1:[CAT_REL<0.137976] yes=3,no=4,missing=4
		3:[U_CATEGORY_MACRO_MEAN_COEC<0.059359] yes=7,no=8,missing=7
			7:[U_KEYWORD_MACRO_MEAN_COEC<0.028556] yes=15,no=16,missing=15
				15:[D_TITLEMD5_C<18.4527] yes=31,no=32,missing=31
					31:[DOC_AGE<4] yes=63,no=64,missing=64
						63:leaf=0.000147814
						64:leaf=-0.00830025
					32:[DAY_OF_WEEK<6] yes=65,no=66,missing=66
						65:leaf=0.00175461
						66:leaf=-0.00403524
				16:[U_KEYWORD_MICRO_MEAN_COEC<0.099667] yes=33,no=34,missing=34
					33:[U_KW_LEN<523] yes=67,no=68,missing=68
						67:leaf=0.0198141
						68:leaf=0.0674019
					34:[U_CAT_LEN<19] yes=69,no=70,missing=70
						69:leaf=-8.94395e-05
						70:leaf=0.0938821
			8:[U_KEYWORD_MACRO_MEAN_COEC<0.031395] yes=17,no=18,missing=17
				17:[C_D_U_TITLEMD5_CATEGORY_MEAN_EC<7.59769] yes=35,no=36,missing=35
					35:[D_CATEGORY_MAX_EC<44852] yes=71,no=72,missing=72
						71:leaf=-0.0164145
						72:leaf=-0.00557747
					36:[U_CATEGORY_MEAN_C<466.319] yes=73,no=74,missing=74
						73:leaf=0.00696502
						74:leaf=-0.00647705
				18:[D_CATEGORY_MEAN_EC<31709.1] yes=37,no=38,missing=37
					37:[DOC_AGE<59] yes=75,no=76,missing=76
						75:leaf=0.00248311
						76:leaf=0.022936
					38:[U_KW_LEN<110] yes=77,no=78,missing=78
						77:leaf=-0.0108203
						78:leaf=-0.00133214
		4:[U_KW_LEN<433] yes=9,no=10,missing=10
			9:[DOC_AGE<16] yes=19,no=20,missing=20
				19:[C_D_U_PUBLISHER_AGE_C<629.528] yes=39,no=40,missing=39
					39:[C_D_U_KEYWORD_CATEGORY_MACRO_MEAN_COEC<0.076511] yes=79,no=80,missing=79
						79:leaf=-0.00492108
						80:leaf=0.00552227
					40:[CAT_REL<0.371231] yes=81,no=82,missing=82
						81:leaf=0.0114044
						82:leaf=0.0312026
				20:[D_TITLEMD5_COEC<0.284064] yes=41,no=42,missing=41
					41:[C_D_U_TITLEMD5_CATEGORY_MACRO_MEAN_COEC<0.02864] yes=83,no=84,missing=83
						83:leaf=-0.0240705
						84:leaf=-0.00290928
					42:[C_D_U_TITLEMD5_CATEGORY_MEAN_EC<14.0613] yes=85,no=86,missing=86
						85:leaf=-0.0302935
						86:leaf=-0.177875
			10:[U_KEYWORD_MACRO_MAX_COEC<0.002556] yes=21,no=22,missing=22
				21:[C_D_U_KEYWORD_CATEGORY_MEAN_C<0.26518] yes=43,no=44,missing=44
					43:[CAT_REL<0.371231] yes=87,no=88,missing=88
						87:leaf=0.0205953
						88:leaf=0.101479
					44:[DOC_AGE<29] yes=89,no=90,missing=90
						89:leaf=0.00954485
						90:leaf=-0.00944746
				22:[C_D_U_CATEGORY_AGE_MACRO_MAX_COEC<0.08689] yes=45,no=46,missing=45
					45:[C_D_U_CATEGORY_GENDER_MACRO_MAX_COEC<0.105108] yes=91,no=92,missing=91
						91:leaf=0.032821
						92:leaf=0.134675
					46:[C_D_U_KEYWORD_CATEGORY_MICRO_MEAN_COEC<0.094677] yes=93,no=94,missing=94
						93:leaf=-0.0802826
						94:leaf=0.0155636
	2:[D_CATEGORY_MEAN_EC<6217.92] yes=5,no=6,missing=5
		5:[D_KEYWORD_MEAN_C<28.512] yes=11,no=12,missing=12
			11:[TIME_OF_DAY<8] yes=23,no=24,missing=24
				23:[M_D_U_KEYWORD_KEYWORD_MAX_EC<5.1e-05] yes=47,no=48,missing=48
					47:[C_D_U_TITLEMD5_CATEGORY_MICRO_MAX_COEC<0.581845] yes=95,no=96,missing=96
						95:leaf=0.124853
						96:leaf=-0.101789
					48:[C_D_U_CATEGORY_CITY_MAX_EC<3.54704] yes=97,no=98,missing=97
						97:leaf=0.0168034
						98:leaf=-0.0211356
				24:[C_D_U_PUBLISHER_AGE_COEC<0.076995] yes=49,no=50,missing=50
					49:[U_KEYWORD_MEAN_EC<117.98] yes=99,no=100,missing=100
						99:leaf=0.0693195
						100:leaf=-0.0123197
					50:[U_KEYWORD_MICRO_MEAN_COEC<0.08929] yes=101,no=102,missing=102
						101:leaf=-0.00549106
						102:leaf=0.0441961
			12:[C_D_U_TITLEMD5_AGE_EC<8.89545] yes=25,no=26,missing=26
				25:[D_CATEGORY_MACRO_MAX_COEC<0.10499] yes=51,no=52,missing=52
					51:[D_PUBLISHER_C<7480.95] yes=103,no=104,missing=104
						103:leaf=-0.0768249
						104:leaf=0.00197865
					52:[U_CATEGORY_MAX_EC<2130.68] yes=105,no=106,missing=106
						105:leaf=0.0518826
						106:leaf=-0.0418299
				26:[U_CITY_COEC<0.062241] yes=53,no=54,missing=54
					53:[U_KEYWORD_MACRO_MAX_COEC<0.001341] yes=107,no=108,missing=108
						107:leaf=-0.0599146
						108:leaf=-0.00360684
					54:[U_CITY_EC<5518.15] yes=109,no=110,missing=109
						109:leaf=0.0169351
						110:leaf=0.000154353
		6:[CAT_REL<0.00843] yes=13,no=14,missing=14
			13:[C_D_U_TITLEMD5_CATEGORY_MEAN_EC<8.44946] yes=27,no=28,missing=27
				27:[D_KEYWORD_MAX_C<35.6235] yes=55,no=56,missing=56
					55:[U_KEYWORD_MICRO_MEAN_COEC<0.100467] yes=111,no=112,missing=112
						111:leaf=0.00396673
						112:leaf=-0.00760496
					56:[U_KEYWORD_MACRO_MEAN_COEC<0.032451] yes=113,no=114,missing=113
						113:leaf=-0.0200062
						114:leaf=-0.00263716
				28:[U_CITY_COEC<0.078046] yes=57,no=58,missing=58
					57:[D_KEYWORD_MEAN_EC<4887.38] yes=115,no=116,missing=116
						115:leaf=-0.00855445
						116:leaf=-0.0778991
					58:[D_KEYWORD_MEAN_EC<3704.34] yes=117,no=118,missing=118
						117:leaf=0.00939984
						118:leaf=-0.0208596
			14:[DOC_AGE<13] yes=29,no=30,missing=30
				29:[U_KEYWORD_MICRO_MAX_COEC<0.117723] yes=59,no=60,missing=60
					59:[U_KW_LEN<2145] yes=119,no=120,missing=120
						119:leaf=-0.00320444
						120:leaf=0.0175359
					60:[TIME_OF_DAY<0.999999] yes=121,no=122,missing=122
						121:leaf=-0.00356149
						122:leaf=0.0141583
				30:[U_KEYWORD_MICRO_MEAN_COEC<0.101365] yes=61,no=62,missing=62
					61:[U_CATEGORY_MEAN_C<403.086] yes=123,no=124,missing=124
						123:leaf=0.0200541
						124:leaf=0.00183073
					62:[D_CATEGORY_MICRO_MAX_COEC<0.118586] yes=125,no=126,missing=126
						125:leaf=-0.00613077
						126:leaf=0.00812237
booster[67]:
0:[D_PUBLISHER_C<90.246] yes=1,no=2,missing=1
	1:[D_TITLEMD5_EC<72.3944] yes=3,no=4,missing=3
		3:[D_KEYWORD_MEAN_C<94.9283] yes=7,no=8,missing=7
			7:[C_D_U_TITLEMD5_CITY_C<1.01407] yes=15,no=16,missing=16
				15:[U_CITY_EC<2355.75] yes=31,no=32,missing=32
					31:[DOC_AGE<24] yes=63,no=64,missing=64
						63:leaf=0.0529109
						64:leaf=0.125226
					32:[WORD_COUNT<5848] yes=65,no=66,missing=66
						65:leaf=-0.0111669
						66:leaf=0.0724229
				16:[M_D_U_KEYWORD_KEYWORD_MACRO_MEAN_COEC<0.000338] yes=33,no=34,missing=33
					33:[C_D_U_CATEGORY_CITY_MEAN_C<3.46919] yes=67,no=68,missing=68
						67:leaf=-0.0264101
						68:leaf=-0.0124449
					34:[C_D_U_CATEGORY_CITY_MICRO_MAX_COEC<0.113541] yes=69,no=70,missing=70
						69:leaf=-0.00893305
						70:leaf=0.0261575
			8:[D_CATEGORY_MICRO_MEAN_COEC<0.09575] yes=17,no=18,missing=17
				17:[U_CATEGORY_MICRO_MEAN_COEC<0.105345] yes=35,no=36,missing=36
					35:[M_D_U_KEYWORD_KEYWORD_MAX_C<0.032803] yes=71,no=72,missing=71
						71:leaf=-0.0362894
						72:leaf=0.0012047
					36:[C_D_U_KEYWORD_CATEGORY_MICRO_MAX_COEC<0.193646] yes=73,no=74,missing=74
						73:leaf=0.18217
						74:leaf=0.0242503
				18:[D_CATEGORY_MAX_C<16706.3] yes=37,no=38,missing=38
					37:[D_CATEGORY_MICRO_MAX_COEC<0.101581] yes=75,no=76,missing=76
						75:leaf=-0.0972825
						76:leaf=-0.0520619
					38:[KW_REL<0.0034] yes=77,no=78,missing=78
						77:leaf=-0.00398411
						78:leaf=0.127248
		4:[D_PUBLISHER_EC<3587.37] yes=9,no=10,missing=10
			9:[C_D_U_KEYWORD_CATEGORY_MAX_C<0.061571] yes=19,no=20,missing=19
				19:[D_TITLEMD5_EC<871.698] yes=39,no=40,missing=40
					39:[D_CATEGORY_MAX_C<6435.83] yes=79,no=80,missing=80
						79:leaf=0.00216919
						80:leaf=0.0240029
					40:[D_KEYWORD_MICRO_MAX_COEC<0.14255] yes=81,no=82,missing=82
						81:leaf=-0.0556301
						82:leaf=0.017524
				20:[D_KEYWORD_MEAN_EC<1897.57] yes=41,no=42,missing=42
					41:[C_D_U_KEYWORD_CATEGORY_MICRO_MEAN_COEC<0.111953] yes=83,no=84,missing=84
						83:leaf=-0.0138091
						84:leaf=0.0101402
					42:[D_CATEGORY_MACRO_MAX_COEC<0.094051] yes=85,no=86,missing=85
						85:leaf=-0.0202664
						86:leaf=-0.117478
			10:[U_KW_LEN<709] yes=21,no=22,missing=22
				21:[CAT_REL<0.001155] yes=43,no=44,missing=44
					43:[C_D_U_TITLEMD5_AGE_EC<73.6412] yes=87,no=88,missing=87
						87:leaf=-0.0755051
						88:leaf=0.00479296
					44:[C_D_U_TITLEMD5_CATEGORY_MEAN_EC<18.0918] yes=89,no=90,missing=90
						89:leaf=-0.111714
						90:leaf=-0.0423238
				22:[U_CATEGORY_MACRO_MEAN_COEC<0.050242] yes=45,no=46,missing=46
					45:[U_KEYWORD_MICRO_MAX_COEC<0.113064] yes=91,no=92,missing=92
						91:leaf=-0.00275631
						92:leaf=-0.106529
					46:[D_KEYWORD_MICRO_MAX_COEC<0.098576] yes=93,no=94,missing=94
						93:leaf=0.235717
						94:leaf=-0.00300263
	2:[CAT_REL<0.037491] yes=5,no=6,missing=6
		5:[C_D_U_CATEGORY_AGE_MACRO_MAX_COEC<0.080862] yes=11,no=12,missing=12
			11:[D_CATEGORY_MEAN_EC<15447.1] yes=23,no=24,missing=24
				23:[C_D_U_TITLEMD5_CATEGORY_MAX_EC<0.307612] yes=47,no=48,missing=47
					47:[C_D_U_PUBLISHER_AGE_COEC<0.116462] yes=95,no=96,missing=95
						95:leaf=-0.0171921
						96:leaf=0.0164447
					48:[D_KEYWORD_MEAN_C<38.9702] yes=97,no=98,missing=98
						97:leaf=0.0199915
						98:leaf=0.00191309
				24:[D_CATEGORY_MACRO_MEAN_COEC<0.099141] yes=49,no=50,missing=50
					49:[C_D_U_CATEGORY_AGE_MACRO_MEAN_COEC<0.102258] yes=99,no=100,missing=100
						99:leaf=-0.0134121
						100:leaf=0.0101807
					50:[D_KEYWORD_MICRO_MEAN_COEC<0.103525] yes=101,no=102,missing=102
						101:leaf=-0.00493668
						102:leaf=-0.0321234
			12:[U_KEYWORD_MEAN_C<12.508] yes=25,no=26,missing=26
				25:[U_KEYWORD_MACRO_MEAN_COEC<0.033734] yes=51,no=52,missing=52
					51:[U_CITY_EC<381.888] yes=103,no=104,missing=103
						103:leaf=-0.00541229
						104:leaf=-0.017053
					52:[U_KW_LEN<78] yes=105,no=106,missing=106
						105:leaf=-0.0100385
						106:leaf=0.00578279
				26:[D_CATEGORY_MEAN_EC<1457.24] yes=53,no=54,missing=53
					53:[U_CAT_LEN<8] yes=107,no=108,missing=108
						107:leaf=0.00162497
						108:leaf=0.0128589
					54:[D_KEYWORD_MEAN_EC<4935.15] yes=109,no=110,missing=110
						109:leaf=-0.000298425
						110:leaf=-0.0190038
		6:[U_KW_LEN<123] yes=13,no=14,missing=14
			13:[C_D_U_KEYWORD_CATEGORY_MACRO_MEAN_COEC<0.095529] yes=27,no=28,missing=27
				27:[U_KEYWORD_MACRO_MAX_COEC<0.0027] yes=55,no=56,missing=56
					55:[U_CATEGORY_MICRO_MEAN_COEC<0.081236] yes=111,no=112,missing=112
						111:leaf=0.28593
						112:leaf=-0.0353826
					56:[C_D_U_CATEGORY_CITY_MACRO_MAX_COEC<0.114992] yes=113,no=114,missing=113
						113:leaf=-0.0126972
						114:leaf=-0.000184459
				28:[C_D_U_TITLEMD5_CATEGORY_MICRO_MEAN_COEC<0.042749] yes=57,no=58,missing=58
					57:[D_KEYWORD_MEAN_C<447.645] yes=115,no=116,missing=116
						115:leaf=0.0566381
						116:leaf=-0.102754
					58:[U_KW_LEN<51] yes=117,no=118,missing=118
						117:leaf=-0.022961
						118:leaf=-0.000862023
			14:[D_KEYWORD_MEAN_EC<471.581] yes=29,no=30,missing=30
				29:[C_D_U_TITLEMD5_CATEGORY_MICRO_MEAN_COEC<0.105049] yes=59,no=60,missing=60
					59:[C_D_U_TITLEMD5_CATEGORY_MAX_EC<0.741441] yes=119,no=120,missing=120
						119:leaf=0.00902117
						120:leaf=0.0197474
					60:[C_D_U_KEYWORD_CATEGORY_MACRO_MEAN_COEC<0.12197] yes=121,no=122,missing=122
						121:leaf=0.00357842
						122:leaf=0.0279267
				30:[C_D_U_KEYWORD_CATEGORY_MACRO_MEAN_COEC<0.046426] yes=61,no=62,missing=62
					61:[U_CATEGORY_MACRO_MEAN_COEC<0.053419] yes=123,no=124,missing=124
						123:leaf=-0.000927064
						124:leaf=-0.0155029
					62:[U_KW_LEN<638] yes=125,no=126,missing=126
						125:leaf=0.00178946
						126:leaf=0.009251
booster[68]:
0:[TIME_OF_DAY<0.999999] yes=1,no=2,missing=2
	1:[C_D_U_TITLEMD5_CITY_COEC<0.711412] yes=3,no=4,missing=3
		3:[D_TITLEMD5_C<68.3422] yes=7,no=8,missing=7
			7:[D_KEYWORD_MAX_EC<142.301] yes=15,no=16,missing=16
				15:[DOC_AGE<3] yes=31,no=32,missing=32
					31:[WORD_COUNT<2227] yes=63,no=64,missing=64
						63:leaf=0.0205845
						64:leaf=-0.00671765
					32:[C_D_U_CATEGORY_CITY_MACRO_MAX_COEC<0.073574] yes=65,no=66,missing=66
						65:leaf=-0.0169942
						66:leaf=-0.00133811
				16:[C_D_U_TITLEMD5_AGE_C<7.46533] yes=33,no=34,missing=34
					33:[U_CATEGORY_MACRO_MEAN_COEC<0.103963] yes=67,no=68,missing=67
						67:leaf=-0.028753
						68:leaf=0.0849786
					34:[D_KEYWORD_MICRO_MEAN_COEC<0.093793] yes=69,no=70,missing=70
						69:leaf=-0.00756637
						70:leaf=-0.0183264
			8:[C_D_U_PUBLISHER_AGE_EC<37113.8] yes=17,no=18,missing=17
				17:[C_D_U_KEYWORD_CATEGORY_MEAN_EC<36.6501] yes=35,no=36,missing=35
					35:[U_CITY_COEC<0.076107] yes=71,no=72,missing=71
						71:leaf=-0.00617792
						72:leaf=0.00112382
					36:[C_D_U_KEYWORD_CATEGORY_MICRO_MAX_COEC<0.337174] yes=73,no=74,missing=74
						73:leaf=-0.0184399
						74:leaf=0.0340926
				18:[U_CATEGORY_MAX_EC<2129.81] yes=37,no=38,missing=37
					37:[U_CATEGORY_MACRO_MAX_COEC<0.022181] yes=75,no=76,missing=75
						75:leaf=0.00021018
						76:leaf=0.104015
					38:[C_D_U_CATEGORY_AGE_MACRO_MEAN_COEC<0.09099] yes=77,no=78,missing=77
						77:leaf=0.00103864
						78:leaf=-0.0446408
		4:[KW_REL<0.003428] yes=9,no=10,missing=10
			9:[C_D_U_TITLEMD5_CITY_C<0.980149] yes=19,no=20,missing=20
				19:[CAT_REL<0.015336] yes=39,no=40,missing=40
					39:[C_D_U_KEYWORD_CATEGORY_MACRO_MAX_COEC<0.003475] yes=79,no=80,missing=80
						79:leaf=-0.142685
						80:leaf=-0.0278638
					40:[U_KEYWORD_MICRO_MAX_COEC<0.121077] yes=81,no=82,missing=82
						81:leaf=-0.0452872
						82:leaf=-0.128276
				20:[C_D_U_TITLEMD5_CITY_EC<1.29338] yes=41,no=42,missing=42
					41:[C_D_U_CATEGORY_CITY_MICRO_MAX_COEC<0.087335] yes=83,no=84,missing=84
						83:leaf=-0.0780037
						84:leaf=0.0293241
					42:[D_KEYWORD_MACRO_MEAN_COEC<0.083408] yes=85,no=86,missing=86
						85:leaf=0.029123
						86:leaf=-0.0756015
			10:[M_D_U_KEYWORD_KEYWORD_MAX_C<0.005734] yes=21,no=22,missing=21
				21:[U_CITY_EC<850.016] yes=43,no=44,missing=44
					43:[C_D_U_TITLEMD5_CITY_EC<0.860383] yes=87,no=88,missing=88
						87:leaf=-0.159399
						88:leaf=-0.309986
					44:[D_KEYWORD_MACRO_MAX_COEC<0.029072] yes=89,no=90,missing=90
						89:leaf=-0.11526
						90:leaf=0.0448117
				22:[U_CITY_EC<81.2034] yes=45,no=46,missing=46
					45:[U_CATEGORY_MICRO_MEAN_COEC<0.091996] yes=91,no=92,missing=92
						91:leaf=-0.099866
						92:leaf=-0.292146
					46:[D_TITLEMD5_COEC<0.169151] yes=93,no=94,missing=94
						93:leaf=-0.000228732
						94:leaf=-0.110012
	2:[U_KEYWORD_MICRO_MAX_COEC<0.133705] yes=5,no=6,missing=5
		5:[IMAGE_COUNT<0.999999] yes=11,no=12,missing=12
			11:[D_TITLEMD5_C<1.98502] yes=23,no=24,missing=23
				23:[C_D_U_CATEGORY_AGE_MICRO_MAX_COEC<0.11894] yes=47,no=48,missing=47
					47:[C_D_U_CATEGORY_AGE_MICRO_MAX_COEC<0.102568] yes=95,no=96,missing=96
						95:leaf=-0.0338086
						96:leaf=-0.0169825
					48:[C_D_U_KEYWORD_CATEGORY_MAX_C<0.020407] yes=97,no=98,missing=98
						97:leaf=0.052207
						98:leaf=-0.00685912
				24:[U_KW_LEN<749] yes=49,no=50,missing=50
					49:[U_CITY_COEC<0.123325] yes=99,no=100,missing=99
						99:leaf=-0.0109007
						100:leaf=0.00564469
					50:[C_D_U_TITLEMD5_CATEGORY_MAX_EC<1.99945] yes=101,no=102,missing=102
						101:leaf=-0.00117802
						102:leaf=0.0187999
			12:[U_CITY_EC<14691.1] yes=25,no=26,missing=25
				25:[C_D_U_TITLEMD5_CITY_C<0.936914] yes=51,no=52,missing=51
					51:[DOC_AGE<4] yes=103,no=104,missing=104
						103:leaf=0.00314168
						104:leaf=-0.00154614
					52:[C_D_U_TITLEMD5_CITY_C<1.02465] yes=105,no=106,missing=106
						105:leaf=0.0179356
						106:leaf=0.00101177
				26:[U_KEYWORD_MEAN_EC<143.908] yes=53,no=54,missing=54
					53:[U_CATEGORY_MICRO_MEAN_COEC<0.078799] yes=107,no=108,missing=108
						107:leaf=0.0123382
						108:leaf=-0.0332834
					54:[U_CATEGORY_MICRO_MEAN_COEC<0.10971] yes=109,no=110,missing=109
						109:leaf=-0.00540481
						110:leaf=-0.0463605
		6:[U_KW_LEN<1841] yes=13,no=14,missing=14
			13:[TIME_OF_DAY<16] yes=27,no=28,missing=28
				27:[TIME_OF_DAY<6] yes=55,no=56,missing=56
					55:[U_CITY_C<5.37168] yes=111,no=112,missing=112
						111:leaf=-0.0119423
						112:leaf=0.00292958
					56:[U_CITY_COEC<0.079646] yes=113,no=114,missing=114
						113:leaf=0.00181863
						114:leaf=0.0128693
				28:[DOC_AGE<2] yes=57,no=58,missing=58
					57:[C_D_U_TITLEMD5_CATEGORY_MICRO_MEAN_COEC<0.116032] yes=115,no=116,missing=116
						115:leaf=0.020245
						116:leaf=0.00520389
					58:[C_D_U_TITLEMD5_CATEGORY_MEAN_C<5.24405] yes=117,no=118,missing=117
						117:leaf=-0.00319689
						118:leaf=0.00609851
			14:[U_CITY_COEC<0.068405] yes=29,no=30,missing=30
				29:[U_CITY_EC<421.433] yes=59,no=60,missing=60
					59:[C_D_U_CATEGORY_CITY_MICRO_MAX_COEC<0.103405] yes=119,no=120,missing=119
						119:leaf=0.084843
						120:leaf=-0.120381
					60:[D_KEYWORD_MACRO_MEAN_COEC<0.091189] yes=121,no=122,missing=122
						121:leaf=0.316274
						122:leaf=0.101317
				30:[U_CATEGORY_MEAN_EC<8436.95] yes=61,no=62,missing=62
					61:[U_KEYWORD_MACRO_MAX_COEC<0.002383] yes=123,no=124,missing=124
						123:leaf=0.028127
						124:leaf=-0.148056
					62:[M_D_U_KEYWORD_KEYWORD_MACRO_MEAN_COEC<0.000423] yes=125,no=126,missing=125
						125:leaf=0.118483
						126:leaf=-0.0179416
booster[69]:
0:[C_D_U_PUBLISHER_AGE_EC<37113.8] yes=1,no=2,missing=1
	1:[C_D_U_TITLEMD5_GENDER_COEC<0.148047] yes=3,no=4,missing=3
		3:[DAY_OF_WEEK<2] yes=7,no=8,missing=8
			7:[D_TITLEMD5_COEC<0.198586] yes=15,no=16,missing=16
				15:[U_KEYWORD_MICRO_MAX_COEC<0.120185] yes=31,no=32,missing=31
					31:[D_CATEGORY_MEAN_EC<86761.9] yes=63,no=64,missing=63
						63:leaf=0.00182206
						64:leaf=-0.0059327
					32:[U_KW_LEN<95] yes=65,no=66,missing=66
						65:leaf=-0.00588522
						66:leaf=0.00738105
				16:[D_CATEGORY_MEAN_EC<55825.8] yes=33,no=34,missing=34
					33:[C_D_U_CATEGORY_AGE_MACRO_MEAN_COEC<0.134113] yes=67,no=68,missing=67
						67:leaf=-7.53821e-05
						68:leaf=0.0525378
					34:[D_KEYWORD_MEAN_C<398.741] yes=69,no=70,missing=70
						69:leaf=0.0214913
						70:leaf=-0.0141102
			8:[U_KEYWORD_MICRO_MEAN_COEC<0.089811] yes=17,no=18,missing=18
				17:[M_D_U_KEYWORD_KEYWORD_MACRO_MEAN_COEC<0.0006] yes=35,no=36,missing=35
					35:[U_CATEGORY_MEAN_C<872.051] yes=71,no=72,missing=71
						71:leaf=-0.0123646
						72:leaf=-0.0318858
					36:[C_D_U_KEYWORD_CATEGORY_MEAN_C<0.07112] yes=73,no=74,missing=74
						73:leaf=0.204462
						74:leaf=0.00849373
				18:[U_KEYWORD_MICRO_MAX_COEC<0.133574] yes=37,no=38,missing=37
					37:[D_PUBLISHER_COEC<0.069632] yes=75,no=76,missing=75
						75:leaf=-0.00566608
						76:leaf=-0.000947944
					38:[D_KEYWORD_MEAN_C<74.9529] yes=77,no=78,missing=78
						77:leaf=0.00719283
						78:leaf=-0.000243887
		4:[D_KEYWORD_MICRO_MEAN_COEC<0.111662] yes=9,no=10,missing=10
			9:[C_D_U_TITLEMD5_GENDER_C<27.1476] yes=19,no=20,missing=20
				19:[C_D_U_TITLEMD5_CATEGORY_MACRO_MEAN_COEC<0.268973] yes=39,no=40,missing=39
					39:[C_D_U_TITLEMD5_GENDER_C<0.985074] yes=79,no=80,missing=80
						79:leaf=-0.0128124
						80:leaf=0.00942979
					40:[U_CATEGORY_MICRO_MEAN_COEC<0.074033] yes=81,no=82,missing=82
						81:leaf=-0.129776
						82:leaf=0.0420072
				20:[C_D_U_KEYWORD_CATEGORY_MICRO_MEAN_COEC<0.114358] yes=41,no=42,missing=41
					41:[D_PUBLISHER_COEC<0.083702] yes=83,no=84,missing=84
						83:leaf=0.0391817
						84:leaf=0.00981869
					42:[WORD_COUNT<2565] yes=85,no=86,missing=86
						85:leaf=0.0263979
						86:leaf=0.0499734
			10:[C_D_U_TITLEMD5_GENDER_COEC<0.257749] yes=21,no=22,missing=22
				21:[C_D_U_CATEGORY_GENDER_MAX_EC<6922.1] yes=43,no=44,missing=44
					43:[C_D_U_PUBLISHER_AGE_EC<30085.4] yes=87,no=88,missing=88
						87:leaf=-0.000684508
						88:leaf=-0.0139311
					44:[M_D_U_KEYWORD_KEYWORD_MICRO_MEAN_COEC<0.132907] yes=89,no=90,missing=89
						89:leaf=0.00385267
						90:leaf=0.0218024
				22:[D_CATEGORY_MEAN_C<3824.78] yes=45,no=46,missing=46
					45:[DOC_AGE<26] yes=91,no=92,missing=92
						91:leaf=0.0358343
						92:leaf=-0.0079403
					46:[DOC_AGE<50] yes=93,no=94,missing=94
						93:leaf=0.00693958
						94:leaf=-0.0683625
	2:[U_KEYWORD_MEAN_C<57.7745] yes=5,no=6,missing=5
		5:[C_D_U_TITLEMD5_AGE_C<239.738] yes=11,no=12,missing=12
			11:[U_CATEGORY_MACRO_MEAN_COEC<0.101547] yes=23,no=24,missing=23
				23:[D_TITLEMD5_COEC<0.237872] yes=47,no=48,missing=48
					47:[M_D_U_KEYWORD_KEYWORD_MACRO_MAX_COEC<6.2e-05] yes=95,no=96,missing=95
						95:leaf=-0.0315685
						96:leaf=-0.0136295
					48:[DOC_AGE<30] yes=97,no=98,missing=98
						97:leaf=-0.0586229
						98:leaf=-0.167687
				24:[C_D_U_TITLEMD5_CITY_C<1.36932] yes=49,no=50,missing=50
					49:[C_D_U_CATEGORY_CITY_MICRO_MEAN_COEC<0.093521] yes=99,no=100,missing=99
						99:leaf=0.0105159
						100:leaf=-0.0618852
					50:[C_D_U_PUBLISHER_GENDER_C<1886.83] yes=101,no=102,missing=101
						101:leaf=0.0117107
						102:leaf=0.0931693
			12:[D_TITLEMD5_COEC<0.122129] yes=25,no=26,missing=26
				25:[C_D_U_CATEGORY_CITY_MEAN_EC<2.02156] yes=51,no=52,missing=52
					51:[U_CATEGORY_MICRO_MEAN_COEC<0.099551] yes=103,no=104,missing=104
						103:leaf=0.132578
						104:leaf=-0.0593432
					52:[U_CATEGORY_MICRO_MAX_COEC<0.117453] yes=105,no=106,missing=106
						105:leaf=-0.0444867
						106:leaf=-0.12068
				26:[U_KEYWORD_MICRO_MEAN_COEC<0.101244] yes=53,no=54,missing=53
					53:[U_CATEGORY_MICRO_MEAN_COEC<0.098071] yes=107,no=108,missing=107
						107:leaf=0.0387286
						108:leaf=-0.0381057
					54:[C_D_U_KEYWORD_CATEGORY_MICRO_MAX_COEC<0.254793] yes=109,no=110,missing=110
						109:leaf=-0.0245634
						110:leaf=0.00498808
		6:[D_PUBLISHER_C<24150.5] yes=13,no=14,missing=14
			13:[D_TITLEMD5_COEC<0.281301] yes=27,no=28,missing=27
				27:[CAT_REL<0.155374] yes=55,no=56,missing=56
					55:[C_D_U_TITLEMD5_CATEGORY_MEAN_C<6.00709] yes=111,no=112,missing=111
						111:leaf=0.00175457
						112:leaf=0.0287036
					56:[U_KEYWORD_MICRO_MEAN_COEC<0.112665] yes=113,no=114,missing=114
						113:leaf=0.0262988
						114:leaf=0.0925403
				28:[C_D_U_TITLEMD5_AGE_COEC<0.382169] yes=57,no=58,missing=58
					57:leaf=-0.170438
					58:leaf=0.0655727
			14:[U_CATEGORY_MACRO_MAX_COEC<0.016159] yes=29,no=30,missing=30
				29:[U_KEYWORD_MACRO_MEAN_COEC<0.034497] yes=59,no=60,missing=60
					59:[D_CATEGORY_MACRO_MAX_COEC<0.064334] yes=115,no=116,missing=116
						115:leaf=0.054477
						116:leaf=-0.0037057
					60:[D_TITLEMD5_COEC<0.07913] yes=117,no=118,missing=117
						117:leaf=0.228167
						118:leaf=0.0570836
				30:[C_D_U_PUBLISHER_AGE_EC<45663] yes=61,no=62,missing=62
					61:[C_D_U_TITLEMD5_CITY_EC<38.7856] yes=119,no=120,missing=119
						119:leaf=-0.0300184
						120:leaf=0.0380348
					62:[M_D_U_KEYWORD_KEYWORD_MAX_EC<0.549594] yes=121,no=122,missing=121
						121:leaf=-0.0129234
						122:leaf=0.0208126
booster[70]:
0:[WORD_COUNT<618] yes=1,no=2,missing=2
	1:[D_KEYWORD_MEAN_EC<1466.3] yes=3,no=4,missing=3
		3:[D_TITLEMD5_C<0.994999] yes=7,no=8,missing=7
			7:[C_D_U_CATEGORY_CITY_MICRO_MAX_COEC<0.131722] yes=15,no=16,missing=16
				15:[C_D_U_KEYWORD_CATEGORY_MAX_EC<0.159743] yes=31,no=32,missing=32
					31:[C_D_U_PUBLISHER_CITY_COEC<0.072909] yes=63,no=64,missing=63
						63:leaf=-0.0289013
						64:leaf=0.0499109
					32:[D_KEYWORD_MICRO_MAX_COEC<0.16727] yes=65,no=66,missing=66
						65:leaf=-0.030863
						66:leaf=-0.0665389
				16:[D_CATEGORY_MAX_EC<12310.4] yes=33,no=34,missing=34
					33:[D_KEYWORD_MACRO_MAX_COEC<0.069954] yes=67,no=68,missing=68
						67:leaf=0.00726799
						68:leaf=0.278276
					34:[U_CITY_C<7.21184] yes=69,no=70,missing=69
						69:leaf=-0.0344742
						70:leaf=-0.00203309
			8:[C_D_U_CATEGORY_CITY_MEAN_EC<124.329] yes=17,no=18,missing=17
				17:[D_CATEGORY_MACRO_MAX_COEC<0.073971] yes=35,no=36,missing=36
					35:[M_D_U_KEYWORD_KEYWORD_MACRO_MEAN_COEC<0.00038] yes=71,no=72,missing=71
						71:leaf=-0.013271
						72:leaf=0.0155688
					36:[D_CATEGORY_MACRO_MEAN_COEC<0.074672] yes=73,no=74,missing=74
						73:leaf=0.0377632
						74:leaf=2.0093e-05
				18:[U_KEYWORD_MEAN_C<7.49717] yes=37,no=38,missing=38
					37:[U_CATEGORY_MACRO_MAX_COEC<0.028276] yes=75,no=76,missing=76
						75:leaf=-0.0908618
						76:leaf=-0.0143191
					38:[C_D_U_CATEGORY_AGE_MICRO_MEAN_COEC<0.07603] yes=77,no=78,missing=78
						77:leaf=-0.0771027
						78:leaf=-0.0137031
		4:[D_KEYWORD_MACRO_MAX_COEC<0.038779] yes=9,no=10,missing=10
			9:[C_D_U_CATEGORY_GENDER_MACRO_MEAN_COEC<0.11312] yes=19,no=20,missing=19
				19:[D_CATEGORY_MACRO_MEAN_COEC<0.081151] yes=39,no=40,missing=39
					39:[C_D_U_KEYWORD_CATEGORY_MEAN_EC<2.14031] yes=79,no=80,missing=80
						79:leaf=0.102739
						80:leaf=-0.0138193
					40:[D_TITLEMD5_C<49.2818] yes=81,no=82,missing=81
						81:leaf=-0.0306612
						82:leaf=-0.0620952
				20:[U_CATEGORY_MICRO_MEAN_COEC<0.106718] yes=41,no=42,missing=41
					41:[C_D_U_CATEGORY_CITY_MACRO_MAX_COEC<0.063091] yes=83,no=84,missing=84
						83:leaf=-0.12074
						84:leaf=0.0397423
					42:[D_KEYWORD_MICRO_MAX_COEC<0.140078] yes=85,no=86,missing=86
						85:leaf=0.00718139
						86:leaf=0.252227
			10:[C_D_U_PUBLISHER_CITY_C<2.40064] yes=21,no=22,missing=22
				21:[D_TITLEMD5_COEC<0.250312] yes=43,no=44,missing=44
					43:[DAY_OF_WEEK<0.999999] yes=87,no=88,missing=88
						87:leaf=-0.0287823
						88:leaf=0.004898
					44:[C_D_U_CATEGORY_CITY_MAX_EC<5.17638] yes=89,no=90,missing=90
						89:leaf=0.134695
						90:leaf=0.0157578
				22:[C_D_U_TITLEMD5_GENDER_EC<40.0067] yes=45,no=46,missing=45
					45:[C_D_U_CATEGORY_GENDER_MAX_EC<2413.42] yes=91,no=92,missing=92
						91:leaf=0.0604854
						92:leaf=-0.0182529
					46:[U_CITY_COEC<0.201072] yes=93,no=94,missing=93
						93:leaf=-0.0593563
						94:leaf=0.15195
	2:[C_D_U_CATEGORY_CITY_MICRO_MEAN_COEC<0.3568] yes=5,no=6,missing=5
		5:[U_CITY_COEC<0.048414] yes=11,no=12,missing=12
			11:[C_D_U_TITLEMD5_CITY_EC<1.56255] yes=23,no=24,missing=24
				23:[U_CITY_EC<44.3211] yes=47,no=48,missing=48
					47:[U_KEYWORD_MICRO_MAX_COEC<0.138455] yes=95,no=96,missing=96
						95:leaf=0.0542995
						96:leaf=0.0131309
					48:[C_D_U_TITLEMD5_CITY_C<0.990024] yes=97,no=98,missing=98
						97:leaf=0.000234584
						98:leaf=0.0841268
				24:[U_CITY_EC<53.4059] yes=49,no=50,missing=50
					49:[TIME_OF_DAY<15] yes=99,no=100,missing=100
						99:leaf=0.00203285
						100:leaf=-0.00844174
					50:[C_D_U_KEYWORD_CATEGORY_MACRO_MEAN_COEC<0.067863] yes=101,no=102,missing=101
						101:leaf=-0.0177314
						102:leaf=-0.00406995
			12:[TIME_OF_DAY<5] yes=25,no=26,missing=26
				25:[D_KEYWORD_MEAN_EC<2643.34] yes=51,no=52,missing=52
					51:[DOC_AGE<8] yes=103,no=104,missing=104
						103:leaf=0.000673842
						104:leaf=-0.00405375
					52:[C_D_U_TITLEMD5_CATEGORY_MEAN_EC<22.3925] yes=105,no=106,missing=106
						105:leaf=-0.0215342
						106:leaf=-0.00356798
				26:[TIME_OF_DAY<16] yes=53,no=54,missing=54
					53:[U_KEYWORD_MICRO_MEAN_COEC<0.089803] yes=107,no=108,missing=107
						107:leaf=0.000709717
						108:leaf=0.00689837
					54:[DOC_AGE<4] yes=109,no=110,missing=110
						109:leaf=0.00332337
						110:leaf=-0.00242893
		6:[C_D_U_CATEGORY_CITY_MEAN_C<0.985074] yes=13,no=14,missing=14
			13:[C_D_U_TITLEMD5_CITY_C<0.686642] yes=27,no=28,missing=27
				27:[U_CATEGORY_MACRO_MAX_COEC<0.019291] yes=55,no=56,missing=55
					55:[TIME_OF_DAY<0.999999] yes=111,no=112,missing=112
						111:leaf=-0.0445192
						112:leaf=-0.00511524
					56:[DOC_AGE<6] yes=113,no=114,missing=114
						113:leaf=0.0215403
						114:leaf=-0.00113953
				28:[TIME_OF_DAY<4] yes=57,no=58,missing=58
					57:[KW_REL<0.00382] yes=115,no=116,missing=116
						115:leaf=-0.0129785
						116:leaf=-0.187626
					58:[U_CITY_C<5.44174] yes=117,no=118,missing=118
						117:leaf=0.0713537
						118:leaf=0.0059208
			14:[C_D_U_CATEGORY_CITY_MEAN_C<1.03899] yes=29,no=30,missing=30
				29:[C_D_U_KEYWORD_CATEGORY_MEAN_EC<6.10562] yes=59,no=60,missing=60
					59:[M_D_U_KEYWORD_KEYWORD_MACRO_MEAN_COEC<5.8e-05] yes=119,no=120,missing=120
						119:leaf=-0.0333011
						120:leaf=0.0312247
					60:[D_PUBLISHER_COEC<0.145138] yes=121,no=122,missing=122
						121:leaf=0.0642007
						122:leaf=0.0194655
				30:[D_TITLEMD5_EC<928.249] yes=61,no=62,missing=61
					61:[C_D_U_TITLEMD5_CITY_COEC<0.281807] yes=123,no=124,missing=124
						123:leaf=0.0725224
						124:leaf=0.0237344
					62:[TIME_OF_DAY<0.999999] yes=125,no=126,missing=126
						125:leaf=-0.033165
						126:leaf=0.0059953
booster[71]:
0:[C_D_U_TITLEMD5_CITY_C<0.975248] yes=1,no=2,missing=1
	1:[U_CITY_EC<2025.52] yes=3,no=4,missing=3
		3:[C_D_U_TITLEMD5_CITY_COEC<0.230788] yes=7,no=8,missing=8
			7:[U_CITY_EC<44.1178] yes=15,no=16,missing=16
				15:[D_TITLEMD5_EC<2196.19] yes=31,no=32,missing=32
					31:[U_KEYWORD_MICRO_MEAN_COEC<0.089749] yes=63,no=64,missing=63
						63:leaf=0.0410156
						64:leaf=0.0883551
					32:[U_KEYWORD_MICRO_MEAN_COEC<0.089749] yes=65,no=66,missing=65
						65:leaf=0.00552339
						66:leaf=0.0325108
				16:[D_TITLEMD5_EC<82.1035] yes=33,no=34,missing=34
					33:[DOC_AGE<13] yes=67,no=68,missing=68
						67:leaf=0.0359647
						68:leaf=0.0917021
					34:[D_TITLEMD5_EC<324.009] yes=69,no=70,missing=70
						69:leaf=0.0161664
						70:leaf=0.00184453
			8:[DOC_AGE<8] yes=17,no=18,missing=18
				17:[D_CATEGORY_MACRO_MAX_COEC<0.067894] yes=35,no=36,missing=36
					35:[CAT_REL<0.234675] yes=71,no=72,missing=72
						71:leaf=-0.00356819
						72:leaf=0.0170402
					36:[DOC_AGE<2] yes=73,no=74,missing=74
						73:leaf=0.00893869
						74:leaf=0.00190372
				18:[U_CITY_COEC<0.082707] yes=37,no=38,missing=38
					37:[C_D_U_TITLEMD5_AGE_C<65.0999] yes=75,no=76,missing=76
						75:leaf=-0.0167536
						76:leaf=-0.00560962
					38:[D_CATEGORY_MAX_EC<20878.4] yes=77,no=78,missing=77
						77:leaf=0.00235489
						78:leaf=-0.00348103
		4:[C_D_U_TITLEMD5_CITY_EC<0.980149] yes=9,no=10,missing=10
			9:[D_TITLEMD5_EC<14.505] yes=19,no=20,missing=20
				19:[C_D_U_TITLEMD5_CATEGORY_MEAN_EC<0.028057] yes=39,no=40,missing=39
					39:[U_KEYWORD_MEAN_EC<231.033] yes=79,no=80,missing=79
						79:leaf=-0.0668827
						80:leaf=0.0366963
					40:[C_D_U_CATEGORY_CITY_MICRO_MEAN_COEC<0.122883] yes=81,no=82,missing=81
						81:leaf=0.0341281
						82:leaf=0.140452
				20:[D_TITLEMD5_COEC<0.185013] yes=41,no=42,missing=42
					41:[U_CITY_C<500.775] yes=83,no=84,missing=84
						83:leaf=-0.0118071
						84:leaf=-0.021597
					42:[D_PUBLISHER_EC<22959.8] yes=85,no=86,missing=86
						85:leaf=0.0304295
						86:leaf=-0.0107659
			10:[U_KEYWORD_MEAN_C<12.4762] yes=21,no=22,missing=22
				21:[U_KW_LEN<3920] yes=43,no=44,missing=44
					43:[CAT_REL<0.352392] yes=87,no=88,missing=88
						87:leaf=-0.0135313
						88:leaf=0.0212294
					44:[U_CATEGORY_MEAN_C<111.06] yes=89,no=90,missing=90
						89:leaf=-0.0842204
						90:leaf=0.105629
				22:[U_KW_LEN<1164] yes=45,no=46,missing=46
					45:[U_CITY_COEC<0.053053] yes=91,no=92,missing=92
						91:leaf=-0.0402671
						92:leaf=-0.00331843
					46:[U_CATEGORY_MEAN_C<136.685] yes=93,no=94,missing=94
						93:leaf=-0.0139898
						94:leaf=0.00899335
	2:[C_D_U_TITLEMD5_CITY_C<1.04303] yes=5,no=6,missing=6
		5:[DOC_AGE<12] yes=11,no=12,missing=12
			11:[C_D_U_TITLEMD5_CITY_C<0.994999] yes=23,no=24,missing=24
				23:[C_D_U_TITLEMD5_CATEGORY_MACRO_MEAN_COEC<0.062812] yes=47,no=48,missing=47
					47:[U_CATEGORY_MACRO_MAX_COEC<0.014875] yes=95,no=96,missing=95
						95:leaf=-0.00188374
						96:leaf=-0.0310336
					48:[D_TITLEMD5_COEC<0.063179] yes=97,no=98,missing=98
						97:leaf=0.0719366
						98:leaf=0.0101373
				24:[U_CITY_C<199.568] yes=49,no=50,missing=50
					49:[D_KEYWORD_MACRO_MEAN_COEC<0.114404] yes=99,no=100,missing=100
						99:leaf=0.0738697
						100:leaf=0.0342168
					50:[CAT_REL<0.019362] yes=101,no=102,missing=102
						101:leaf=0.0107952
						102:leaf=0.0477091
			12:[C_D_U_TITLEMD5_CITY_COEC<0.27587] yes=25,no=26,missing=26
				25:[DOC_AGE<29] yes=51,no=52,missing=52
					51:[D_KEYWORD_MICRO_MEAN_COEC<0.062154] yes=103,no=104,missing=104
						103:leaf=0.162129
						104:leaf=0.0355051
					52:[U_CITY_C<216.445] yes=105,no=106,missing=106
						105:leaf=0.0303277
						106:leaf=-0.0122011
				26:[D_KEYWORD_MACRO_MEAN_COEC<0.080073] yes=53,no=54,missing=54
					53:[C_D_U_TITLEMD5_GENDER_C<0.96552] yes=107,no=108,missing=108
						107:leaf=-0.148995
						108:leaf=0.116422
					54:[C_D_U_TITLEMD5_CITY_C<0.985074] yes=109,no=110,missing=110
						109:leaf=0.0405503
						110:leaf=0.0823556
		6:[C_D_U_TITLEMD5_CITY_C<1.85306] yes=13,no=14,missing=14
			13:[C_D_U_TITLEMD5_CITY_EC<2.90214] yes=27,no=28,missing=28
				27:[DOC_AGE<48] yes=55,no=56,missing=56
					55:[C_D_U_CATEGORY_CITY_MACRO_MAX_COEC<0.148238] yes=111,no=112,missing=111
						111:leaf=-0.0171711
						112:leaf=-0.0400928
					56:[C_D_U_PUBLISHER_AGE_C<5775.13] yes=113,no=114,missing=113
						113:leaf=0.0460439
						114:leaf=-0.111133
				28:[C_D_U_TITLEMD5_GENDER_C<12.5536] yes=57,no=58,missing=58
					57:[D_CATEGORY_MACRO_MAX_COEC<0.057679] yes=115,no=116,missing=116
						115:leaf=0.00590609
						116:leaf=-0.0317913
					58:[D_TITLEMD5_COEC<0.281733] yes=117,no=118,missing=118
						117:leaf=-0.00229562
						118:leaf=-0.099712
			14:[C_D_U_PUBLISHER_CITY_C<54.5385] yes=29,no=30,missing=30
				29:[WORD_COUNT<6576] yes=59,no=60,missing=60
					59:[C_D_U_TITLEMD5_GENDER_C<16.1777] yes=119,no=120,missing=119
						119:leaf=0.0036379
						120:leaf=0.0158099
					60:[U_KEYWORD_MICRO_MAX_COEC<0.100395] yes=121,no=122,missing=122
						121:leaf=-0.0274554
						122:leaf=0.0292727
				30:[D_TITLEMD5_COEC<0.281733] yes=61,no=62,missing=62
					61:[WORD_COUNT<1446] yes=123,no=124,missing=124
						123:leaf=-0.00830515
						124:leaf=0.000485214
					62:[D_KEYWORD_MEAN_C<212.9] yes=125,no=126,missing=126
						125:leaf=-0.0157271
						126:leaf=-0.166373
booster[72]:
0:[U_KW_LEN<3911] yes=1,no=2,missing=2
	1:[U_KEYWORD_MICRO_MAX_COEC<0.111239] yes=3,no=4,missing=4
		3:[C_D_U_TITLEMD5_AGE_COEC<0.076253] yes=7,no=8,missing=7
			7:[DOC_AGE<24] yes=15,no=16,missing=16
				15:[U_KW_LEN<1692] yes=31,no=32,missing=32
					31:[D_CATEGORY_MACRO_MAX_COEC<0.068249] yes=61,no=62,missing=62
						61:leaf=-0.0128241
						62:leaf=-0.00572093
					32:[U_KEYWORD_MAX_EC<22.5845] yes=63,no=64,missing=64
						63:leaf=-0.0199337
						64:leaf=0.00605595
				16:[U_CATEGORY_MAX_EC<2722.93] yes=33,no=34,missing=34
					33:[U_CATEGORY_MICRO_MEAN_COEC<0.084605] yes=65,no=66,missing=66
						65:leaf=-0.00137354
						66:leaf=0.0259803
					34:[C_D_U_TITLEMD5_CATEGORY_MAX_EC<0.155111] yes=67,no=68,missing=67
						67:leaf=0.0307941
						68:leaf=-0.00990674
			8:[D_PUBLISHER_C<10208] yes=17,no=18,missing=18
				17:[CAT_REL<0.02111] yes=35,no=36,missing=36
					35:[DOC_AGE<24] yes=69,no=70,missing=70
						69:leaf=-0.00302659
						70:leaf=0.0159257
					36:[C_D_U_CATEGORY_AGE_MACRO_MAX_COEC<0.056928] yes=71,no=72,missing=72
						71:leaf=-0.00333703
						72:leaf=0.0111902
				18:[C_D_U_KEYWORD_CATEGORY_MACRO_MEAN_COEC<0.136584] yes=37,no=38,missing=38
					37:[D_KEYWORD_MAX_C<181.425] yes=73,no=74,missing=74
						73:leaf=-0.0174906
						74:leaf=-0.0432958
					38:[D_CATEGORY_MAX_EC<27923.1] yes=75,no=76,missing=76
						75:leaf=0.0430949
						76:leaf=-0.00113643
		4:[DAY_OF_WEEK<3] yes=9,no=10,missing=10
			9:[KW_REL<0.001092] yes=19,no=20,missing=20
				19:[C_D_U_TITLEMD5_CATEGORY_MEAN_EC<44.3056] yes=39,no=40,missing=39
					39:[D_KEYWORD_MEAN_C<111.854] yes=77,no=78,missing=78
						77:leaf=0.0022401
						78:leaf=-0.00388188
					40:[U_KEYWORD_MICRO_MEAN_COEC<0.101301] yes=79,no=80,missing=79
						79:leaf=0.00400206
						80:leaf=0.0179282
				20:[D_KEYWORD_MAX_EC<2303.9] yes=41,no=42,missing=42
					41:[U_KW_LEN<162] yes=81,no=82,missing=82
						81:leaf=0.000866117
						82:leaf=0.00993382
					42:[M_D_U_KEYWORD_KEYWORD_MACRO_MEAN_COEC<0.00134] yes=83,no=84,missing=83
						83:leaf=-0.00935131
						84:leaf=0.016027
			10:[U_CITY_COEC<0.260183] yes=21,no=22,missing=21
				21:[WORD_COUNT<1654] yes=43,no=44,missing=44
					43:[D_PUBLISHER_COEC<0.094616] yes=85,no=86,missing=86
						85:leaf=-0.00758907
						86:leaf=-0.00215553
					44:[D_PUBLISHER_C<32.5808] yes=87,no=88,missing=87
						87:leaf=-0.0210439
						88:leaf=0.000234516
				22:[C_D_U_CATEGORY_AGE_MICRO_MAX_COEC<0.134077] yes=45,no=46,missing=46
					45:[U_KEYWORD_MEAN_EC<152.348] yes=89,no=90,missing=89
						89:leaf=-0.040738
						90:leaf=0.00290104
					46:[U_CITY_EC<465.486] yes=91,no=92,missing=92
						91:leaf=0.0222716
						92:leaf=-0.109985
	2:[U_KEYWORD_MEAN_EC<125.314] yes=5,no=6,missing=6
		5:[U_CITY_C<106.405] yes=11,no=12,missing=12
			11:[M_D_U_KEYWORD_KEYWORD_MAX_C<6e-06] yes=23,no=24,missing=24
				23:leaf=0.176511
				24:[C_D_U_CATEGORY_CITY_MICRO_MAX_COEC<0.403125] yes=47,no=48,missing=47
					47:[D_KEYWORD_MICRO_MAX_COEC<0.095951] yes=93,no=94,missing=94
						93:leaf=0.0548373
						94:leaf=-0.0232724
					48:[KW_REL<0.001793] yes=95,no=96,missing=96
						95:leaf=0.0221271
						96:leaf=0.12655
			12:[D_TITLEMD5_C<12.5042] yes=25,no=26,missing=25
				25:[U_KEYWORD_MAX_EC<15.4685] yes=49,no=50,missing=50
					49:[U_CITY_C<445.704] yes=97,no=98,missing=98
						97:leaf=-0.0421984
						98:leaf=-0.0949545
					50:[U_CATEGORY_MICRO_MEAN_COEC<0.087741] yes=99,no=100,missing=100
						99:leaf=0.0610952
						100:leaf=-0.0586495
				26:[D_KEYWORD_MACRO_MAX_COEC<0.008466] yes=51,no=52,missing=52
					51:leaf=0.108374
					52:[C_D_U_KEYWORD_CATEGORY_MACRO_MEAN_COEC<0.106422] yes=101,no=102,missing=102
						101:leaf=-0.12313
						102:leaf=0.0212388
		6:[U_CAT_LEN<39] yes=13,no=14,missing=14
			13:[U_CITY_C<39.4496] yes=27,no=28,missing=28
				27:[C_D_U_TITLEMD5_AGE_C<0.802075] yes=53,no=54,missing=53
					53:[U_CAT_LEN<24] yes=103,no=104,missing=104
						103:leaf=-0.0541717
						104:leaf=-0.000742366
					54:[U_KEYWORD_MACRO_MAX_COEC<0.001334] yes=105,no=106,missing=106
						105:leaf=0.0402961
						106:leaf=-0.0412904
				28:[U_CATEGORY_MICRO_MAX_COEC<0.1203] yes=55,no=56,missing=56
					55:[U_KEYWORD_MACRO_MEAN_COEC<0.017717] yes=107,no=108,missing=108
						107:leaf=-0.0129194
						108:leaf=0.0300501
					56:[U_CITY_C<146.06] yes=109,no=110,missing=109
						109:leaf=0.0569461
						110:leaf=0.0219499
			14:[U_KEYWORD_MICRO_MAX_COEC<0.117767] yes=29,no=30,missing=30
				29:[U_KEYWORD_MAX_EC<27.1388] yes=57,no=58,missing=58
					57:[C_D_U_TITLEMD5_CATEGORY_MACRO_MEAN_COEC<0.021806] yes=111,no=112,missing=112
						111:leaf=0.0467666
						112:leaf=-0.0282415
					58:[U_CITY_COEC<0.103909] yes=113,no=114,missing=113
						113:leaf=-0.053276
						114:leaf=0.059704
				30:[U_KEYWORD_MAX_C<5.21145] yes=59,no=60,missing=60
					59:[U_CATEGORY_MICRO_MEAN_COEC<0.104587] yes=115,no=116,missing=116
						115:leaf=0.139097
						116:leaf=0.0385099
					60:[U_CATEGORY_MEAN_C<173.441] yes=117,no=118,missing=118
						117:leaf=-0.000573689
						118:leaf=0.188922
booster[73]:
0:[C_D_U_PUBLISHER_AGE_EC<37113.8] yes=1,no=2,missing=1
	1:[KW_REL<0.004115] yes=3,no=4,missing=4
		3:[D_KEYWORD_MEAN_EC<988.415] yes=7,no=8,missing=7
			7:[KW_REL<0.000136] yes=15,no=16,missing=16
				15:[U_KEYWORD_MACRO_MEAN_COEC<0.031833] yes=31,no=32,missing=32
					31:[C_D_U_TITLEMD5_CATEGORY_MEAN_EC<0.064792] yes=63,no=64,missing=63
						63:leaf=-0.02189
						64:leaf=-0.00677269
					32:[D_KEYWORD_MACRO_MEAN_COEC<0.043395] yes=65,no=66,missing=66
						65:leaf=-0.0126877
						66:leaf=0.000180045
				16:[D_KEYWORD_MEAN_EC<196.357] yes=33,no=34,missing=34
					33:[U_KW_LEN<549] yes=67,no=68,missing=68
						67:leaf=0.00295001
						68:leaf=0.0179265
					34:[D_TITLEMD5_C<55.9499] yes=69,no=70,missing=69
						69:leaf=-0.000907261
						70:leaf=0.00570708
			8:[C_D_U_TITLEMD5_CATEGORY_MEAN_C<5.05064] yes=17,no=18,missing=18
				17:[D_KEYWORD_MEAN_EC<2593.23] yes=35,no=36,missing=36
					35:[C_D_U_TITLEMD5_CATEGORY_MEAN_C<0.344044] yes=71,no=72,missing=72
						71:leaf=-0.0125546
						72:leaf=-0.00369321
					36:[C_D_U_KEYWORD_CATEGORY_MACRO_MEAN_COEC<0.095363] yes=73,no=74,missing=74
						73:leaf=-0.0265414
						74:leaf=-0.0102393
				18:[U_KEYWORD_MICRO_MEAN_COEC<0.109665] yes=37,no=38,missing=37
					37:[D_KEYWORD_MACRO_MAX_COEC<0.019577] yes=75,no=76,missing=76
						75:leaf=-0.00661271
						76:leaf=0.00179307
					38:[U_KEYWORD_MAX_EC<131.036] yes=77,no=78,missing=78
						77:leaf=0.0208818
						78:leaf=0.00740124
		4:[U_KW_LEN<700] yes=9,no=10,missing=10
			9:[DOC_AGE<22] yes=19,no=20,missing=20
				19:[D_CATEGORY_MICRO_MEAN_COEC<0.085336] yes=39,no=40,missing=39
					39:[M_D_U_KEYWORD_KEYWORD_MACRO_MAX_COEC<0.002126] yes=79,no=80,missing=79
						79:leaf=0.0110866
						80:leaf=0.0381519
					40:[U_KEYWORD_MICRO_MAX_COEC<0.111441] yes=81,no=82,missing=82
						81:leaf=-0.00975355
						82:leaf=0.00358896
				20:[D_KEYWORD_MICRO_MEAN_COEC<0.150817] yes=41,no=42,missing=42
					41:[C_D_U_TITLEMD5_CITY_COEC<0.098591] yes=83,no=84,missing=84
						83:leaf=0.00429443
						84:leaf=-0.0104909
					42:[U_KW_LEN<132] yes=85,no=86,missing=86
						85:leaf=-0.0393911
						86:leaf=-0.113243
			10:[M_D_U_KEYWORD_KEYWORD_MEAN_EC<0.07185] yes=21,no=22,missing=21
				21:[C_D_U_TITLEMD5_CATEGORY_MICRO_MEAN_COEC<0.0875] yes=43,no=44,missing=43
					43:[D_CATEGORY_MEAN_C<8110.36] yes=87,no=88,missing=88
						87:leaf=0.0356532
						88:leaf=0.0712406
					44:[DOC_AGE<28] yes=89,no=90,missing=90
						89:leaf=0.0224147
						90:leaf=-0.00934995
				22:[U_KEYWORD_MACRO_MAX_COEC<0.001634] yes=45,no=46,missing=46
					45:[D_CATEGORY_MICRO_MAX_COEC<0.077777] yes=91,no=92,missing=92
						91:leaf=-0.0393068
						92:leaf=-0.0013166
					46:[U_KEYWORD_MACRO_MAX_COEC<0.002388] yes=93,no=94,missing=94
						93:leaf=0.0143146
						94:leaf=0.0339908
	2:[U_KEYWORD_MEAN_C<57.1653] yes=5,no=6,missing=5
		5:[C_D_U_TITLEMD5_AGE_C<240.419] yes=11,no=12,missing=12
			11:[U_CAT_LEN<31] yes=23,no=24,missing=24
				23:[U_CATEGORY_MACRO_MEAN_COEC<0.101538] yes=47,no=48,missing=47
					47:[M_D_U_KEYWORD_KEYWORD_MACRO_MEAN_COEC<4.6e-05] yes=95,no=96,missing=95
						95:leaf=-0.0323399
						96:leaf=-0.0168276
					48:[TIME_OF_DAY<23] yes=97,no=98,missing=98
						97:leaf=-0.00144087
						98:leaf=0.087358
				24:[U_KEYWORD_MACRO_MEAN_COEC<0.019955] yes=49,no=50,missing=50
					49:leaf=-0.109004
					50:[U_KEYWORD_MACRO_MEAN_COEC<0.022912] yes=99,no=100,missing=100
						99:leaf=0.0830872
						100:leaf=-0.0362945
			12:[C_D_U_TITLEMD5_CITY_COEC<0.318682] yes=25,no=26,missing=25
				25:[D_TITLEMD5_COEC<0.132123] yes=51,no=52,missing=52
					51:[C_D_U_CATEGORY_CITY_MEAN_EC<3.28803] yes=101,no=102,missing=102
						101:leaf=0.0454505
						102:leaf=-0.0600792
					52:[D_KEYWORD_MICRO_MAX_COEC<0.140131] yes=103,no=104,missing=104
						103:leaf=0.0525812
						104:leaf=0.00521715
				26:[U_KEYWORD_MACRO_MAX_COEC<0.001553] yes=53,no=54,missing=54
					53:[M_D_U_KEYWORD_KEYWORD_MAX_EC<0.001524] yes=105,no=106,missing=105
						105:leaf=-0.240456
						106:leaf=-0.0567203
					54:[U_CATEGORY_MAX_C<1233.55] yes=107,no=108,missing=107
						107:leaf=-0.0349974
						108:leaf=0.0482305
		6:[D_TITLEMD5_COEC<0.249999] yes=13,no=14,missing=13
			13:[C_D_U_TITLEMD5_CATEGORY_MICRO_MAX_COEC<0.278073] yes=27,no=28,missing=28
				27:[D_CATEGORY_MEAN_EC<22775.9] yes=55,no=56,missing=56
					55:[U_CATEGORY_MACRO_MEAN_COEC<0.093261] yes=109,no=110,missing=110
						109:leaf=0.0461508
						110:leaf=-0.0145913
					56:[TIME_OF_DAY<16] yes=111,no=112,missing=112
						111:leaf=-0.00163061
						112:leaf=-0.0253952
				28:[C_D_U_TITLEMD5_GENDER_COEC<0.072107] yes=57,no=58,missing=58
					57:[U_CITY_COEC<0.096754] yes=113,no=114,missing=113
						113:leaf=0.0059625
						114:leaf=-0.154453
					58:[U_CATEGORY_MAX_EC<1128.28] yes=115,no=116,missing=116
						115:leaf=-0.0666194
						116:leaf=0.0191601
			14:[C_D_U_PUBLISHER_CITY_COEC<0.127197] yes=29,no=30,missing=29
				29:[C_D_U_TITLEMD5_CATEGORY_MICRO_MAX_COEC<0.317924] yes=59,no=60,missing=59
					59:[U_KEYWORD_MICRO_MEAN_COEC<0.105812] yes=117,no=118,missing=118
						117:leaf=-0.0391186
						118:leaf=0.139323
					60:[C_D_U_CATEGORY_CITY_MACRO_MAX_COEC<0.058433] yes=119,no=120,missing=119
						119:leaf=-0.130879
						120:leaf=0.0106684
				30:[D_KEYWORD_MACRO_MEAN_COEC<0.110749] yes=61,no=62,missing=62
					61:[U_CATEGORY_MAX_C<635.946] yes=121,no=122,missing=122
						121:leaf=0.0149393
						122:leaf=-0.108151
					62:[C_D_U_CATEGORY_AGE_MAX_C<5936.33] yes=123,no=124,missing=124
						123:leaf=-0.187969
						124:leaf=-0.0497131
booster[74]:
0:[C_D_U_TITLEMD5_GENDER_C<0.96552] yes=1,no=2,missing=2
	1:[DOC_AGE<2] yes=3,no=4,missing=4
		3:[CAT_REL<0.096598] yes=7,no=8,missing=8
			7:[C_D_U_CATEGORY_GENDER_MICRO_MEAN_COEC<0.096015] yes=15,no=16,missing=16
				15:[C_D_U_CATEGORY_CITY_MAX_EC<17.6517] yes=31,no=32,missing=32
					31:[C_D_U_TITLEMD5_GENDER_EC<7.29901] yes=63,no=64,missing=64
						63:leaf=-0.0174322
						64:leaf=-0.0578464
					32:[U_KEYWORD_MICRO_MAX_COEC<0.199109] yes=65,no=66,missing=66
						65:leaf=-0.00564728
						66:leaf=0.0368298
				16:[C_D_U_TITLEMD5_CATEGORY_MICRO_MAX_COEC<0.12625] yes=33,no=34,missing=34
					33:[C_D_U_KEYWORD_CATEGORY_MAX_EC<9.46412] yes=67,no=68,missing=68
						67:leaf=0.0188994
						68:leaf=0.113999
					34:[C_D_U_TITLEMD5_CITY_COEC<0.244452] yes=69,no=70,missing=69
						69:leaf=0.000879934
						70:leaf=-0.134727
			8:[C_D_U_TITLEMD5_CATEGORY_MAX_EC<2.33945] yes=17,no=18,missing=17
				17:[U_CATEGORY_MICRO_MEAN_COEC<0.073972] yes=35,no=36,missing=36
					35:[C_D_U_KEYWORD_CATEGORY_MEAN_C<0.337463] yes=71,no=72,missing=72
						71:leaf=-0.0297387
						72:leaf=0.252619
					36:[C_D_U_TITLEMD5_CATEGORY_MICRO_MEAN_COEC<0.299105] yes=73,no=74,missing=73
						73:leaf=0.0269379
						74:leaf=-0.0282213
				18:[C_D_U_PUBLISHER_AGE_COEC<0.084114] yes=37,no=38,missing=37
					37:[TIME_OF_DAY<17] yes=75,no=76,missing=76
						75:leaf=-0.108588
						76:leaf=-0.0102746
					38:[C_D_U_TITLEMD5_CATEGORY_MEAN_C<0.40975] yes=77,no=78,missing=78
						77:leaf=-0.0558352
						78:leaf=0.0981151
		4:[D_KEYWORD_MEAN_EC<336.169] yes=9,no=10,missing=10
			9:[KW_REL<0.000258] yes=19,no=20,missing=20
				19:[C_D_U_TITLEMD5_CATEGORY_MICRO_MEAN_COEC<0.097578] yes=39,no=40,missing=40
					39:[C_D_U_TITLEMD5_CITY_EC<0.834892] yes=79,no=80,missing=80
						79:leaf=0.0412004
						80:leaf=-0.0119119
					40:[D_TITLEMD5_EC<7.87112] yes=81,no=82,missing=82
						81:leaf=0.0621518
						82:leaf=-0.0363489
				20:[CAT_REL<0.356351] yes=41,no=42,missing=42
					41:[U_KW_LEN<391] yes=83,no=84,missing=84
						83:leaf=-0.0159611
						84:leaf=0.00559266
					42:[M_D_U_KEYWORD_KEYWORD_MEAN_EC<0.000145] yes=85,no=86,missing=86
						85:leaf=0.122217
						86:leaf=0.0302778
			10:[C_D_U_PUBLISHER_CITY_EC<78.4185] yes=21,no=22,missing=21
				21:[C_D_U_CATEGORY_GENDER_MACRO_MAX_COEC<0.107489] yes=43,no=44,missing=44
					43:[C_D_U_TITLEMD5_CITY_C<0.806106] yes=87,no=88,missing=88
						87:leaf=0.00245424
						88:leaf=-0.0215522
					44:[KW_REL<0.000946] yes=89,no=90,missing=90
						89:leaf=-0.016076
						90:leaf=0.00827284
				22:[C_D_U_TITLEMD5_CITY_COEC<0.146879] yes=45,no=46,missing=45
					45:[U_KEYWORD_MAX_EC<26.9896] yes=91,no=92,missing=91
						91:leaf=-0.0520433
						92:leaf=-0.023073
					46:[C_D_U_TITLEMD5_CATEGORY_MACRO_MAX_COEC<0.022584] yes=93,no=94,missing=93
						93:leaf=-0.0363047
						94:leaf=-0.0849641
	2:[U_KW_LEN<754] yes=5,no=6,missing=6
		5:[U_KEYWORD_MACRO_MEAN_COEC<0.028211] yes=11,no=12,missing=12
			11:[CAT_REL<0.178055] yes=23,no=24,missing=24
				23:[U_KW_LEN<391] yes=47,no=48,missing=48
					47:[U_KEYWORD_MACRO_MEAN_COEC<0.025339] yes=95,no=96,missing=96
						95:leaf=-0.0338748
						96:leaf=-0.0130949
					48:[U_CATEGORY_MICRO_MEAN_COEC<0.093302] yes=97,no=98,missing=98
						97:leaf=-0.0025238
						98:leaf=-0.0131385
				24:[C_D_U_CATEGORY_AGE_MAX_C<2022.32] yes=49,no=50,missing=49
					49:[CAT_REL<0.356351] yes=99,no=100,missing=100
						99:leaf=0.00664556
						100:leaf=0.0311278
					50:[U_KEYWORD_MICRO_MAX_COEC<0.116698] yes=101,no=102,missing=102
						101:leaf=0.0182539
						102:leaf=0.10569
			12:[U_KW_LEN<300] yes=25,no=26,missing=26
				25:[D_KEYWORD_MACRO_MEAN_COEC<0.050725] yes=51,no=52,missing=52
					51:[D_KEYWORD_MACRO_MAX_COEC<0.00631] yes=103,no=104,missing=104
						103:leaf=-0.0208902
						104:leaf=-0.00625891
					52:[U_CITY_EC<510.982] yes=105,no=106,missing=106
						105:leaf=0.00218327
						106:leaf=-0.00163552
				26:[U_KEYWORD_MICRO_MEAN_COEC<0.100065] yes=53,no=54,missing=54
					53:[U_CATEGORY_MEAN_EC<3325.77] yes=107,no=108,missing=108
						107:leaf=0.0356639
						108:leaf=0.0105485
					54:[U_KEYWORD_MACRO_MEAN_COEC<0.033066] yes=109,no=110,missing=109
						109:leaf=-0.0019598
						110:leaf=0.010545
		6:[D_KEYWORD_MEAN_EC<394.393] yes=13,no=14,missing=13
			13:[U_CITY_COEC<0.070472] yes=27,no=28,missing=28
				27:[KW_REL<0.000557] yes=55,no=56,missing=56
					55:[CAT_REL<0.150154] yes=111,no=112,missing=112
						111:leaf=-0.0170893
						112:leaf=0.0459279
					56:[C_D_U_PUBLISHER_AGE_COEC<0.054292] yes=113,no=114,missing=114
						113:leaf=-0.0394752
						114:leaf=0.00647607
				28:[C_D_U_TITLEMD5_CATEGORY_MICRO_MEAN_COEC<0.108084] yes=57,no=58,missing=58
					57:[KW_REL<0.000619] yes=115,no=116,missing=116
						115:leaf=0.0105304
						116:leaf=0.0246924
					58:[C_D_U_TITLEMD5_CATEGORY_MACRO_MEAN_COEC<0.210746] yes=117,no=118,missing=117
						117:leaf=0.00413169
						118:leaf=0.0490003
			14:[M_D_U_KEYWORD_KEYWORD_MACRO_MEAN_COEC<0.000133] yes=29,no=30,missing=29
				29:[U_KEYWORD_MEAN_EC<218.161] yes=59,no=60,missing=60
					59:[D_CATEGORY_MACRO_MAX_COEC<0.072324] yes=119,no=120,missing=120
						119:leaf=-0.0257623
						120:leaf=-0.00807707
					60:[D_TITLEMD5_EC<1851.25] yes=121,no=122,missing=121
						121:leaf=-0.00308242
						122:leaf=0.00870023
				30:[U_KEYWORD_MACRO_MAX_COEC<0.001707] yes=61,no=62,missing=62
					61:[M_D_U_KEYWORD_KEYWORD_MEAN_EC<0.074317] yes=123,no=124,missing=124
						123:leaf=0.00963034
						124:leaf=-0.0112101
					62:[U_KEYWORD_MICRO_MEAN_COEC<0.105071] yes=125,no=126,missing=126
						125:leaf=0.0234447
						126:leaf=0.00943004
booster[75]:
0:[D_KEYWORD_MEAN_C<112.134] yes=1,no=2,missing=1
	1:[KW_REL<0.000633] yes=3,no=4,missing=4
		3:[D_KEYWORD_MACRO_MAX_COEC<0.006262] yes=7,no=8,missing=8
			7:[C_D_U_TITLEMD5_CITY_COEC<0.057805] yes=15,no=16,missing=15
				15:[D_PUBLISHER_COEC<0.071596] yes=31,no=32,missing=32
					31:[D_PUBLISHER_C<5459.97] yes=63,no=64,missing=64
						63:leaf=-0.0182684
						64:leaf=-0.0411721
					32:[D_CATEGORY_MAX_EC<28203.6] yes=65,no=66,missing=66
						65:leaf=-0.0158091
						66:leaf=0.0120853
				16:[D_KEYWORD_MACRO_MEAN_COEC<0.048572] yes=33,no=34,missing=34
					33:[U_CATEGORY_MICRO_MEAN_COEC<0.100574] yes=67,no=68,missing=67
						67:leaf=0.0397028
						68:leaf=0.1466
					34:[C_D_U_TITLEMD5_CATEGORY_MAX_EC<0.308628] yes=69,no=70,missing=70
						69:leaf=0.131853
						70:leaf=-0.0399443
			8:[WORD_COUNT<1346] yes=17,no=18,missing=18
				17:[C_D_U_PUBLISHER_AGE_C<2305.43] yes=35,no=36,missing=35
					35:[U_CITY_EC<944.675] yes=71,no=72,missing=72
						71:leaf=-0.00061866
						72:leaf=-0.00598248
					36:[C_D_U_CATEGORY_AGE_MICRO_MEAN_COEC<0.070294] yes=73,no=74,missing=74
						73:leaf=0.0157978
						74:leaf=-0.0319115
				18:[D_KEYWORD_MACRO_MAX_COEC<0.017734] yes=37,no=38,missing=37
					37:[C_D_U_TITLEMD5_CATEGORY_MEAN_EC<1.15957] yes=75,no=76,missing=75
						75:leaf=-0.00414204
						76:leaf=0.00154016
					38:[C_D_U_TITLEMD5_GENDER_COEC<0.123719] yes=77,no=78,missing=78
						77:leaf=-0.00744269
						78:leaf=0.0024297
		4:[D_KEYWORD_MAX_EC<82.2144] yes=9,no=10,missing=10
			9:[C_D_U_TITLEMD5_CATEGORY_MICRO_MEAN_COEC<0.114023] yes=19,no=20,missing=20
				19:[U_CATEGORY_MICRO_MEAN_COEC<0.091905] yes=39,no=40,missing=40
					39:[U_CATEGORY_MEAN_EC<7298.56] yes=79,no=80,missing=80
						79:leaf=0.0154563
						80:leaf=-0.0023957
					40:[U_CATEGORY_MAX_EC<528.407] yes=81,no=82,missing=82
						81:leaf=0.0515877
						82:leaf=0.0257209
				20:[D_PUBLISHER_COEC<0.062534] yes=41,no=42,missing=41
					41:[D_KEYWORD_MEAN_EC<147.111] yes=83,no=84,missing=84
						83:leaf=0.00955584
						84:leaf=-0.0120309
					42:[WORD_COUNT<1721] yes=85,no=86,missing=86
						85:leaf=-0.00485462
						86:leaf=0.013744
			10:[D_TITLEMD5_C<2.93079] yes=21,no=22,missing=21
				21:[DOC_AGE<0.999999] yes=43,no=44,missing=44
					43:[U_CATEGORY_MICRO_MAX_COEC<0.112103] yes=87,no=88,missing=87
						87:leaf=0.00105519
						88:leaf=0.027153
					44:[C_D_U_TITLEMD5_CITY_C<0.997211] yes=89,no=90,missing=90
						89:leaf=0.0143643
						90:leaf=-0.0110599
				22:[D_TITLEMD5_COEC<0.222911] yes=45,no=46,missing=46
					45:[D_TITLEMD5_EC<674.298] yes=91,no=92,missing=92
						91:leaf=0.00145131
						92:leaf=0.00729107
					46:[C_D_U_TITLEMD5_CATEGORY_MAX_C<0.133036] yes=93,no=94,missing=94
						93:leaf=0.0358089
						94:leaf=0.0180951
	2:[C_D_U_TITLEMD5_CATEGORY_MEAN_C<3.60924] yes=5,no=6,missing=6
		5:[KW_REL<0.003193] yes=11,no=12,missing=12
			11:[D_KEYWORD_MEAN_EC<2548.02] yes=23,no=24,missing=24
				23:[U_KEYWORD_MEAN_EC<352.259] yes=47,no=48,missing=47
					47:[C_D_U_KEYWORD_CATEGORY_MACRO_MEAN_COEC<0.060086] yes=95,no=96,missing=96
						95:leaf=-0.0230134
						96:leaf=-0.00893893
					48:[D_KEYWORD_MACRO_MEAN_COEC<0.066027] yes=97,no=98,missing=98
						97:leaf=-0.020221
						98:leaf=-0.00220115
				24:[U_KEYWORD_MACRO_MEAN_COEC<0.03188] yes=49,no=50,missing=49
					49:[D_CATEGORY_MACRO_MAX_COEC<0.077795] yes=99,no=100,missing=99
						99:leaf=-0.0437809
						100:leaf=-0.0231989
					50:[C_D_U_TITLEMD5_GENDER_C<25.414] yes=101,no=102,missing=101
						101:leaf=-0.0166829
						102:leaf=0.0207635
			12:[M_D_U_KEYWORD_KEYWORD_MACRO_MEAN_COEC<0.001613] yes=25,no=26,missing=25
				25:[U_KW_LEN<479] yes=51,no=52,missing=52
					51:[D_PUBLISHER_C<33.6918] yes=103,no=104,missing=104
						103:leaf=-0.057622
						104:leaf=-0.00597389
					52:[U_KEYWORD_MACRO_MAX_COEC<0.002022] yes=105,no=106,missing=106
						105:leaf=-0.00178643
						106:leaf=0.0131223
				26:[DOC_AGE<13] yes=53,no=54,missing=54
					53:[CAT_REL<0.001057] yes=107,no=108,missing=108
						107:leaf=0.0493054
						108:leaf=0.0180065
					54:[U_KW_LEN<85] yes=109,no=110,missing=110
						109:leaf=-0.0308664
						110:leaf=0.00589775
		6:[U_KEYWORD_MICRO_MEAN_COEC<0.109633] yes=13,no=14,missing=13
			13:[D_KEYWORD_MACRO_MAX_COEC<0.019576] yes=27,no=28,missing=28
				27:[D_TITLEMD5_C<287.473] yes=55,no=56,missing=56
					55:[D_CATEGORY_MACRO_MEAN_COEC<0.100114] yes=111,no=112,missing=111
						111:leaf=-0.00512926
						112:leaf=-0.0249214
					56:[WORD_COUNT<1156] yes=113,no=114,missing=114
						113:leaf=0.0375883
						114:leaf=-0.00202832
				28:[D_KEYWORD_MEAN_C<624.792] yes=57,no=58,missing=58
					57:[DOC_AGE<6] yes=115,no=116,missing=116
						115:leaf=0.00565286
						116:leaf=0.000316683
					58:[WORD_COUNT<1482] yes=117,no=118,missing=118
						117:leaf=-0.00141217
						118:leaf=-0.0208064
			14:[U_KW_LEN<417] yes=29,no=30,missing=30
				29:[C_D_U_TITLEMD5_CATEGORY_MEAN_C<12.1047] yes=59,no=60,missing=59
					59:[TIME_OF_DAY<16] yes=119,no=120,missing=120
						119:leaf=0.00883388
						120:leaf=-0.00448726
					60:[M_D_U_KEYWORD_KEYWORD_MICRO_MAX_COEC<0.2285] yes=121,no=122,missing=121
						121:leaf=0.0156207
						122:leaf=-0.0324217
				30:[U_CATEGORY_MAX_EC<4749.22] yes=61,no=62,missing=62
					61:[C_D_U_CATEGORY_CITY_MEAN_C<3.90021] yes=123,no=124,missing=124
						123:leaf=-0.00979048
						124:leaf=0.0170825
					62:[U_CAT_LEN<7] yes=125,no=126,missing=126
						125:leaf=-0.0272513
						126:leaf=0.0311532
booster[76]:
0:[TIME_OF_DAY<3] yes=1,no=2,missing=2
	1:[C_D_U_TITLEMD5_CITY_COEC<0.429559] yes=3,no=4,missing=3
		3:[D_TITLEMD5_EC<1047.32] yes=7,no=8,missing=7
			7:[D_KEYWORD_MEAN_EC<2134.46] yes=15,no=16,missing=16
				15:[DOC_AGE<8] yes=31,no=32,missing=32
					31:[TIME_OF_DAY<0.999999] yes=63,no=64,missing=64
						63:leaf=-0.00630971
						64:leaf=0.00165999
					32:[U_CATEGORY_MICRO_MAX_COEC<0.127369] yes=65,no=66,missing=65
						65:leaf=-0.00930971
						66:leaf=0.010228
				16:[C_D_U_KEYWORD_CATEGORY_MICRO_MEAN_COEC<0.112177] yes=33,no=34,missing=34
					33:[WORD_COUNT<11322] yes=67,no=68,missing=68
						67:leaf=-0.0367976
						68:leaf=0.0545681
					34:[D_KEYWORD_MACRO_MEAN_COEC<0.126705] yes=69,no=70,missing=70
						69:leaf=-0.0125448
						70:leaf=-0.0654735
			8:[DOC_AGE<5] yes=17,no=18,missing=18
				17:[C_D_U_KEYWORD_CATEGORY_MICRO_MEAN_COEC<0.128148] yes=35,no=36,missing=36
					35:[C_D_U_KEYWORD_CATEGORY_MICRO_MAX_COEC<0.128919] yes=71,no=72,missing=72
						71:leaf=-0.0528345
						72:leaf=0.0189596
					36:[D_CATEGORY_MICRO_MAX_COEC<0.099941] yes=73,no=74,missing=73
						73:leaf=-0.00682358
						74:leaf=0.0080294
				18:[U_KEYWORD_MEAN_EC<303.497] yes=37,no=38,missing=37
					37:[C_D_U_PUBLISHER_AGE_EC<13490.6] yes=75,no=76,missing=76
						75:leaf=0.00895015
						76:leaf=-0.000992244
					38:[U_KEYWORD_MICRO_MAX_COEC<0.118892] yes=77,no=78,missing=78
						77:leaf=-0.0143643
						78:leaf=-0.00278063
		4:[C_D_U_TITLEMD5_CITY_C<0.965473] yes=9,no=10,missing=10
			9:[C_D_U_PUBLISHER_CITY_COEC<0.329204] yes=19,no=20,missing=20
				19:[D_TITLEMD5_C<96.1739] yes=39,no=40,missing=40
					39:[U_CITY_EC<158.589] yes=79,no=80,missing=80
						79:leaf=-0.141421
						80:leaf=-0.0422389
					40:[C_D_U_CATEGORY_CITY_MAX_EC<17.8284] yes=81,no=82,missing=82
						81:leaf=-0.0363616
						82:leaf=-0.0111533
				20:[KW_REL<0.003295] yes=41,no=42,missing=42
					41:[C_D_U_TITLEMD5_CATEGORY_MACRO_MEAN_COEC<0.156214] yes=83,no=84,missing=83
						83:leaf=-0.0684717
						84:leaf=0.000634694
					42:[U_CITY_EC<73.9842] yes=85,no=86,missing=86
						85:leaf=-0.221331
						86:leaf=-0.108086
			10:[C_D_U_TITLEMD5_CITY_C<1.07399] yes=21,no=22,missing=22
				21:[C_D_U_TITLEMD5_CITY_C<0.994999] yes=43,no=44,missing=44
					43:[DOC_AGE<13] yes=87,no=88,missing=88
						87:leaf=-0.0018746
						88:leaf=0.0616274
					44:[DOC_AGE<4] yes=89,no=90,missing=90
						89:leaf=0.0129751
						90:leaf=0.0804452
				22:[C_D_U_KEYWORD_CATEGORY_MACRO_MAX_COEC<0.019264] yes=45,no=46,missing=46
					45:[C_D_U_CATEGORY_AGE_MAX_EC<6553.9] yes=91,no=92,missing=92
						91:leaf=-0.0834675
						92:leaf=-0.01864
					46:[U_KEYWORD_MICRO_MAX_COEC<0.126797] yes=93,no=94,missing=94
						93:leaf=0.0443546
						94:leaf=-0.00163917
	2:[TIME_OF_DAY<15] yes=5,no=6,missing=6
		5:[U_CITY_COEC<0.091216] yes=11,no=12,missing=11
			11:[C_D_U_TITLEMD5_CATEGORY_MEAN_EC<4.14196] yes=23,no=24,missing=23
				23:[DAY_OF_WEEK<6] yes=47,no=48,missing=48
					47:[TIME_OF_DAY<11] yes=95,no=96,missing=96
						95:leaf=-0.00419646
						96:leaf=0.00438027
					48:[CAT_REL<0.019334] yes=97,no=98,missing=98
						97:leaf=-0.0165698
						98:leaf=0.00294809
				24:[U_KW_LEN<58] yes=49,no=50,missing=50
					49:[U_CATEGORY_MICRO_MEAN_COEC<0.087498] yes=99,no=100,missing=100
						99:leaf=0.000735767
						100:leaf=-0.0292993
					50:[D_KEYWORD_MEAN_C<155.811] yes=101,no=102,missing=102
						101:leaf=0.0081423
						102:leaf=0.000961626
			12:[TIME_OF_DAY<6] yes=25,no=26,missing=26
				25:[U_KW_LEN<195] yes=51,no=52,missing=52
					51:[U_KEYWORD_MICRO_MEAN_COEC<0.114454] yes=103,no=104,missing=103
						103:leaf=-0.00353928
						104:leaf=0.0699232
					52:[U_CATEGORY_MAX_C<1216.06] yes=105,no=106,missing=106
						105:leaf=0.0039836
						106:leaf=0.0330447
				26:[U_CATEGORY_MEAN_EC<700.933] yes=53,no=54,missing=54
					53:[U_KEYWORD_MAX_EC<96.0604] yes=107,no=108,missing=108
						107:leaf=0.0470397
						108:leaf=-0.0720655
					54:[U_CATEGORY_MEAN_EC<12585.7] yes=109,no=110,missing=109
						109:leaf=0.00669277
						110:leaf=0.0130218
		6:[DOC_AGE<2] yes=13,no=14,missing=14
			13:[C_D_U_TITLEMD5_CATEGORY_MICRO_MEAN_COEC<0.111749] yes=27,no=28,missing=28
				27:[D_TITLEMD5_C<14.3177] yes=55,no=56,missing=56
					55:[D_KEYWORD_MEAN_EC<1147.67] yes=111,no=112,missing=112
						111:leaf=0.0111737
						112:leaf=-0.00209846
					56:[C_D_U_CATEGORY_AGE_MEAN_C<131.11] yes=113,no=114,missing=114
						113:leaf=0.0921632
						114:leaf=0.0223613
				28:[D_PUBLISHER_COEC<0.066366] yes=57,no=58,missing=57
					57:[DAY_OF_WEEK<0.999999] yes=115,no=116,missing=116
						115:leaf=0.00811751
						116:leaf=-0.0112233
					58:[D_KEYWORD_MEAN_EC<390.914] yes=117,no=118,missing=118
						117:leaf=0.0124958
						118:leaf=0.000985379
			14:[C_D_U_TITLEMD5_CATEGORY_MEAN_EC<7.74445] yes=29,no=30,missing=30
				29:[DOC_AGE<24] yes=59,no=60,missing=60
					59:[U_KW_LEN<3954] yes=119,no=120,missing=120
						119:leaf=-0.00862854
						120:leaf=0.0160175
					60:[U_KEYWORD_MICRO_MEAN_COEC<0.102801] yes=121,no=122,missing=122
						121:leaf=0.0190286
						122:leaf=-0.00695763
				30:[WORD_COUNT<6636] yes=61,no=62,missing=62
					61:[U_CATEGORY_MEAN_C<410.488] yes=123,no=124,missing=124
						123:leaf=0.00847412
						124:leaf=-0.000887085
					62:[C_D_U_KEYWORD_CATEGORY_MACRO_MEAN_COEC<0.124414] yes=125,no=126,missing=125
						125:leaf=0.00966191
						126:leaf=0.0554502
booster[77]:
0:[DAY_OF_WEEK<2] yes=1,no=2,missing=2
	1:[D_TITLEMD5_COEC<0.184201] yes=3,no=4,missing=4
		3:[WORD_COUNT<1612] yes=7,no=8,missing=8
			7:[C_D_U_TITLEMD5_CATEGORY_MEAN_EC<54.2579] yes=15,no=16,missing=15
				15:[D_CATEGORY_MEAN_EC<86457.8] yes=31,no=32,missing=31
					31:[D_KEYWORD_MAX_EC<1133.96] yes=63,no=64,missing=64
						63:leaf=-0.000307154
						64:leaf=-0.0119851
					32:[D_PUBLISHER_COEC<0.082724] yes=65,no=66,missing=66
						65:leaf=-0.0209357
						66:leaf=-0.00599705
				16:[U_KEYWORD_MICRO_MAX_COEC<0.112131] yes=33,no=34,missing=34
					33:[U_CATEGORY_MACRO_MEAN_COEC<0.058992] yes=67,no=68,missing=68
						67:leaf=-0.0966306
						68:leaf=-0.00395831
					34:[TIME_OF_DAY<5] yes=69,no=70,missing=70
						69:leaf=0.00534348
						70:leaf=0.0234624
			8:[D_CATEGORY_MEAN_EC<86457.8] yes=17,no=18,missing=17
				17:[U_KEYWORD_MICRO_MAX_COEC<0.102564] yes=35,no=36,missing=36
					35:[U_KEYWORD_MAX_C<9.17517] yes=71,no=72,missing=72
						71:leaf=-0.00679352
						72:leaf=0.0105466
					36:[D_KEYWORD_MACRO_MAX_COEC<0.008463] yes=73,no=74,missing=74
						73:leaf=-0.00729548
						74:leaf=0.00658371
				18:[U_KEYWORD_MICRO_MEAN_COEC<0.103034] yes=37,no=38,missing=37
					37:[C_D_U_CATEGORY_CITY_MACRO_MAX_COEC<0.060682] yes=75,no=76,missing=75
						75:leaf=-0.0129318
						76:leaf=-0.000684538
					38:[WORD_COUNT<11234] yes=77,no=78,missing=78
						77:leaf=0.00348936
						78:leaf=0.0361609
		4:[D_CATEGORY_MEAN_EC<55683.3] yes=9,no=10,missing=10
			9:[C_D_U_CATEGORY_AGE_MACRO_MEAN_COEC<0.133835] yes=19,no=20,missing=19
				19:[KW_REL<0.002463] yes=39,no=40,missing=40
					39:[U_CITY_C<33.0394] yes=79,no=80,missing=80
						79:leaf=0.00610582
						80:leaf=-0.011524
					40:[U_KEYWORD_MICRO_MAX_COEC<0.105929] yes=81,no=82,missing=82
						81:leaf=-0.00133107
						82:leaf=0.0232269
				20:[C_D_U_TITLEMD5_CATEGORY_MACRO_MEAN_COEC<0.199117] yes=41,no=42,missing=42
					41:[M_D_U_KEYWORD_KEYWORD_MAX_C<0.000189] yes=83,no=84,missing=83
						83:leaf=-0.0327135
						84:leaf=0.0329351
					42:[D_PUBLISHER_COEC<0.144977] yes=85,no=86,missing=86
						85:leaf=0.0777864
						86:leaf=0.0235845
			10:[D_KEYWORD_MAX_C<30.8576] yes=21,no=22,missing=22
				21:[D_CATEGORY_MEAN_EC<85715.1] yes=43,no=44,missing=44
					43:[C_D_U_TITLEMD5_CITY_COEC<0.084393] yes=87,no=88,missing=87
						87:leaf=0.0415259
						88:leaf=0.00565132
					44:[TIME_OF_DAY<9] yes=89,no=90,missing=90
						89:leaf=-0.0359816
						90:leaf=0.0171277
				22:[WORD_COUNT<3919] yes=45,no=46,missing=46
					45:[D_KEYWORD_MACRO_MAX_COEC<0.02876] yes=91,no=92,missing=92
						91:leaf=-0.00549194
						92:leaf=0.00917098
					46:[DOC_AGE<4] yes=93,no=94,missing=94
						93:leaf=0.0121151
						94:leaf=0.0542338
	2:[U_KEYWORD_MICRO_MEAN_COEC<0.09099] yes=5,no=6,missing=6
		5:[U_CATEGORY_MEAN_C<824.318] yes=11,no=12,missing=12
			11:[M_D_U_KEYWORD_KEYWORD_MEAN_C<0.061261] yes=23,no=24,missing=23
				23:[C_D_U_CATEGORY_AGE_MACRO_MAX_COEC<0.070459] yes=47,no=48,missing=47
					47:[D_CATEGORY_MICRO_MAX_COEC<0.051581] yes=95,no=96,missing=95
						95:leaf=0.000986638
						96:leaf=-0.0120221
					48:[D_CATEGORY_MEAN_C<7446.44] yes=97,no=98,missing=98
						97:leaf=0.00262134
						98:leaf=-0.0311405
				24:[C_D_U_CATEGORY_CITY_MEAN_EC<59.7039] yes=49,no=50,missing=49
					49:[U_KEYWORD_MACRO_MAX_COEC<0.001759] yes=99,no=100,missing=100
						99:leaf=-0.0908508
						100:leaf=0.0510066
					50:[M_D_U_KEYWORD_KEYWORD_MACRO_MAX_COEC<0.000704] yes=101,no=102,missing=102
						101:leaf=0.102974
						102:leaf=-0.0274853
			12:[U_CATEGORY_MAX_EC<3973.71] yes=25,no=26,missing=26
				25:[U_CITY_C<35.8904] yes=51,no=52,missing=51
					51:[C_D_U_CATEGORY_CITY_MEAN_EC<29.4768] yes=103,no=104,missing=103
						103:leaf=-0.0360831
						104:leaf=0.0701699
					52:[C_D_U_TITLEMD5_CATEGORY_MAX_C<0.217454] yes=105,no=106,missing=105
						105:leaf=-0.100582
						106:leaf=-0.0501733
				26:[U_CATEGORY_MACRO_MEAN_COEC<0.080052] yes=53,no=54,missing=54
					53:[U_CITY_C<1.07961] yes=107,no=108,missing=108
						107:leaf=0.079578
						108:leaf=-0.00662495
					54:[C_D_U_KEYWORD_CATEGORY_MEAN_C<2.37714] yes=109,no=110,missing=109
						109:leaf=-0.0213437
						110:leaf=-0.0487113
		6:[U_KEYWORD_MICRO_MAX_COEC<0.249999] yes=13,no=14,missing=13
			13:[D_CATEGORY_MAX_C<79.1979] yes=27,no=28,missing=27
				27:[D_KEYWORD_MEAN_EC<292.826] yes=55,no=56,missing=55
					55:[D_CATEGORY_MICRO_MEAN_COEC<0.041313] yes=111,no=112,missing=112
						111:leaf=-0.00791127
						112:leaf=0.0244682
					56:[KW_REL<0.001272] yes=113,no=114,missing=114
						113:leaf=0.000464016
						114:leaf=0.0114639
				28:[WORD_COUNT<956] yes=57,no=58,missing=58
					57:[D_TITLEMD5_EC<298.525] yes=115,no=116,missing=115
						115:leaf=-0.0112137
						116:leaf=-0.0039696
					58:[CAT_REL<0.02748] yes=117,no=118,missing=118
						117:leaf=-0.00176161
						118:leaf=0.00157578
			14:[U_CATEGORY_MICRO_MEAN_COEC<0.092949] yes=29,no=30,missing=30
				29:[U_KEYWORD_MACRO_MEAN_COEC<0.06096] yes=59,no=60,missing=60
					59:[U_CATEGORY_MAX_C<111.996] yes=119,no=120,missing=120
						119:leaf=0.042051
						120:leaf=0.00634675
					60:[U_KEYWORD_MEAN_C<16.1998] yes=121,no=122,missing=122
						121:leaf=0.0754104
						122:leaf=0.0224349
				30:[U_KW_LEN<998] yes=61,no=62,missing=62
					61:[U_KEYWORD_MAX_EC<22.5405] yes=123,no=124,missing=124
						123:leaf=0.0335373
						124:leaf=0.0029832
					62:[C_D_U_TITLEMD5_CITY_EC<0.895586] yes=125,no=126,missing=126
						125:leaf=0.135566
						126:leaf=0.0250903
booster[78]:
0:[U_CITY_COEC<0.036126] yes=1,no=2,missing=2
	1:[U_CITY_EC<30.0177] yes=3,no=4,missing=4
		3:[C_D_U_TITLEMD5_CITY_EC<1.35485] yes=7,no=8,missing=8
			7:[D_TITLEMD5_EC<1882.43] yes=15,no=16,missing=16
				15:[C_D_U_CATEGORY_CITY_MEAN_EC<1.77333] yes=31,no=32,missing=31
					31:[DOC_AGE<12] yes=63,no=64,missing=64
						63:leaf=0.0508355
						64:leaf=0.104242
					32:[U_KEYWORD_MICRO_MAX_COEC<0.12253] yes=65,no=66,missing=66
						65:leaf=0.0825799
						66:leaf=-0.0293467
				16:[U_KEYWORD_MICRO_MAX_COEC<0.144789] yes=33,no=34,missing=33
					33:[C_D_U_KEYWORD_CATEGORY_MEAN_EC<45.7504] yes=67,no=68,missing=68
						67:leaf=0.0447015
						68:leaf=0.00429154
					34:[KW_REL<0.000854] yes=69,no=70,missing=70
						69:leaf=-0.0387328
						70:leaf=-0.198782
			8:[U_KEYWORD_MACRO_MAX_COEC<0.001132] yes=17,no=18,missing=18
				17:[C_D_U_CATEGORY_AGE_MICRO_MAX_COEC<0.090506] yes=35,no=36,missing=36
					35:[C_D_U_CATEGORY_GENDER_MAX_C<80.2189] yes=71,no=72,missing=72
						71:leaf=0.118452
						72:leaf=-0.063181
					36:[M_D_U_KEYWORD_KEYWORD_MICRO_MAX_COEC<0.101891] yes=73,no=74,missing=74
						73:leaf=-0.0513346
						74:leaf=0.15105
				18:[U_KEYWORD_MICRO_MEAN_COEC<0.111714] yes=37,no=38,missing=37
					37:[U_CATEGORY_MEAN_EC<1810.1] yes=75,no=76,missing=76
						75:leaf=0.0442292
						76:leaf=-0.00396262
					38:[U_KEYWORD_MICRO_MAX_COEC<0.174672] yes=77,no=78,missing=78
						77:leaf=0.0261
						78:leaf=0.147297
		4:[C_D_U_TITLEMD5_CITY_EC<1.54665] yes=9,no=10,missing=10
			9:[TIME_OF_DAY<20] yes=19,no=20,missing=20
				19:[U_KEYWORD_MICRO_MAX_COEC<0.133928] yes=39,no=40,missing=40
					39:[U_CATEGORY_MEAN_C<2743.48] yes=79,no=80,missing=80
						79:leaf=0.0148746
						80:leaf=-0.0547288
					40:[U_KEYWORD_MACRO_MAX_COEC<0.002341] yes=81,no=82,missing=82
						81:leaf=-0.0769175
						82:leaf=-0.00897123
				20:[D_TITLEMD5_EC<1643.71] yes=41,no=42,missing=42
					41:[U_CATEGORY_MICRO_MEAN_COEC<0.094093] yes=83,no=84,missing=83
						83:leaf=0.0390598
						84:leaf=0.116524
					42:[D_KEYWORD_MICRO_MEAN_COEC<0.11394] yes=85,no=86,missing=86
						85:leaf=-0.0301911
						86:leaf=0.0229481
			10:[U_CATEGORY_MEAN_EC<2447.64] yes=21,no=22,missing=22
				21:[TIME_OF_DAY<19] yes=43,no=44,missing=44
					43:[C_D_U_CATEGORY_CITY_MICRO_MAX_COEC<0.061511] yes=87,no=88,missing=88
						87:leaf=-0.0432639
						88:leaf=0.00361119
					44:[U_KEYWORD_MEAN_EC<343.482] yes=89,no=90,missing=90
						89:leaf=-0.0805626
						90:leaf=0.168795
				22:[DOC_AGE<10] yes=45,no=46,missing=46
					45:[C_D_U_TITLEMD5_CATEGORY_MEAN_EC<5.61127] yes=91,no=92,missing=91
						91:leaf=-0.0130025
						92:leaf=0.00437298
					46:[U_KEYWORD_MICRO_MEAN_COEC<0.11084] yes=93,no=94,missing=93
						93:leaf=-0.020246
						94:leaf=-0.0606252
	2:[U_CITY_C<494.915] yes=5,no=6,missing=5
		5:[C_D_U_TITLEMD5_CITY_EC<0.980149] yes=11,no=12,missing=11
			11:[C_D_U_TITLEMD5_CITY_C<0.985074] yes=23,no=24,missing=23
				23:[U_CATEGORY_MICRO_MAX_COEC<0.127339] yes=47,no=48,missing=47
					47:[C_D_U_CATEGORY_GENDER_MACRO_MAX_COEC<0.067975] yes=95,no=96,missing=96
						95:leaf=-0.00907934
						96:leaf=-0.00048273
					48:[C_D_U_TITLEMD5_CATEGORY_MICRO_MEAN_COEC<0.09746] yes=97,no=98,missing=97
						97:leaf=0.0153114
						98:leaf=0.00156964
				24:[D_TITLEMD5_C<137.318] yes=49,no=50,missing=50
					49:[C_D_U_TITLEMD5_CATEGORY_MACRO_MEAN_COEC<0.025229] yes=99,no=100,missing=100
						99:leaf=-0.0706549
						100:leaf=0.110957
					50:[U_CITY_C<22.2274] yes=101,no=102,missing=102
						101:leaf=0.0821668
						102:leaf=0.0155604
			12:[U_CITY_EC<208.935] yes=25,no=26,missing=26
				25:[D_TITLEMD5_EC<2740.38] yes=51,no=52,missing=52
					51:[C_D_U_TITLEMD5_CITY_EC<1.35485] yes=103,no=104,missing=104
						103:leaf=0.0540564
						104:leaf=0.0193789
					52:[C_D_U_PUBLISHER_CITY_EC<1.16998] yes=105,no=106,missing=106
						105:leaf=0.0639335
						106:leaf=0.00728994
				26:[D_TITLEMD5_EC<214.609] yes=53,no=54,missing=54
					53:[U_CITY_EC<2595.14] yes=107,no=108,missing=108
						107:leaf=0.0308197
						108:leaf=0.00856592
					54:[U_KW_LEN<488] yes=109,no=110,missing=110
						109:leaf=0.000912162
						110:leaf=0.00753532
		6:[U_KEYWORD_MEAN_C<18.5466] yes=13,no=14,missing=14
			13:[U_KW_LEN<3944] yes=27,no=28,missing=28
				27:[U_CITY_COEC<0.081445] yes=55,no=56,missing=56
					55:[C_D_U_CATEGORY_AGE_MAX_C<1510.97] yes=111,no=112,missing=111
						111:leaf=-0.00751441
						112:leaf=0.0195186
					56:[U_KEYWORD_MICRO_MAX_COEC<0.330088] yes=113,no=114,missing=114
						113:leaf=-0.0190265
						114:leaf=0.0419675
				28:[U_KEYWORD_MAX_C<2.67562] yes=57,no=58,missing=58
					57:[U_CITY_EC<18415.5] yes=115,no=116,missing=116
						115:leaf=-0.0909329
						116:leaf=0.00855829
					58:[C_D_U_TITLEMD5_CATEGORY_MICRO_MEAN_COEC<0.104727] yes=117,no=118,missing=118
						117:leaf=0.222697
						118:leaf=-0.0205972
			14:[U_KEYWORD_MICRO_MEAN_COEC<0.114602] yes=29,no=30,missing=29
				29:[U_KW_LEN<3318] yes=59,no=60,missing=60
					59:[C_D_U_TITLEMD5_CITY_C<0.913724] yes=119,no=120,missing=120
						119:leaf=-0.00668734
						120:leaf=-0.000185595
					60:[U_CATEGORY_MACRO_MEAN_COEC<0.056164] yes=121,no=122,missing=122
						121:leaf=0.0136298
						122:leaf=0.0975498
				30:[U_KEYWORD_MACRO_MAX_COEC<0.001503] yes=61,no=62,missing=62
					61:[D_CATEGORY_MAX_EC<29213.1] yes=123,no=124,missing=124
						123:leaf=-0.0041927
						124:leaf=0.121081
					62:[C_D_U_CATEGORY_AGE_MACRO_MAX_COEC<0.105119] yes=125,no=126,missing=126
						125:leaf=-0.0275679
						126:leaf=0.0321538
booster[79]:
0:[U_KEYWORD_MICRO_MAX_COEC<0.116485] yes=1,no=2,missing=2
	1:[U_CATEGORY_MICRO_MEAN_COEC<0.099576] yes=3,no=4,missing=4
		3:[DOC_AGE<24] yes=7,no=8,missing=8
			7:[C_D_U_TITLEMD5_AGE_COEC<0.120989] yes=15,no=16,missing=15
				15:[CAT_REL<0.097965] yes=31,no=32,missing=32
					31:[D_CATEGORY_MACRO_MAX_COEC<0.071793] yes=63,no=64,missing=64
						63:leaf=-0.00967029
						64:leaf=-0.00205576
					32:[U_CATEGORY_MEAN_C<730.03] yes=65,no=66,missing=66
						65:leaf=0.00834588
						66:leaf=-0.00519949
				16:[CAT_REL<0.001054] yes=33,no=34,missing=34
					33:[M_D_U_KEYWORD_KEYWORD_MICRO_MAX_COEC<0.152505] yes=67,no=68,missing=67
						67:leaf=-0.00229018
						68:leaf=0.0192094
					34:[C_D_U_CATEGORY_AGE_MACRO_MAX_COEC<0.112327] yes=69,no=70,missing=70
						69:leaf=0.00592581
						70:leaf=0.0209215
			8:[C_D_U_TITLEMD5_CITY_COEC<0.030467] yes=17,no=18,missing=18
				17:[U_CITY_EC<175.465] yes=35,no=36,missing=36
					35:[D_TITLEMD5_EC<1497.57] yes=71,no=72,missing=72
						71:leaf=0.0893905
						72:leaf=0.029082
					36:[U_CATEGORY_MAX_EC<2182.31] yes=73,no=74,missing=74
						73:leaf=0.0271896
						74:leaf=-0.000705235
				18:[U_KEYWORD_MEAN_EC<164.23] yes=37,no=38,missing=38
					37:[DOC_AGE<34] yes=75,no=76,missing=76
						75:leaf=-0.000295335
						76:leaf=-0.0264208
					38:[U_CATEGORY_MEAN_C<316.911] yes=77,no=78,missing=78
						77:leaf=0.02281
						78:leaf=0.0016397
		4:[U_CATEGORY_MICRO_MAX_COEC<0.143828] yes=9,no=10,missing=9
			9:[C_D_U_KEYWORD_CATEGORY_MACRO_MEAN_COEC<0.095798] yes=19,no=20,missing=19
				19:[D_KEYWORD_MEAN_EC<478.246] yes=39,no=40,missing=40
					39:[C_D_U_PUBLISHER_CITY_COEC<0.064088] yes=79,no=80,missing=80
						79:leaf=-0.0179108
						80:leaf=0.00307944
					40:[DOC_AGE<80] yes=81,no=82,missing=82
						81:leaf=-0.0185179
						82:leaf=0.0222599
				20:[D_CATEGORY_MICRO_MAX_COEC<0.106718] yes=41,no=42,missing=41
					41:[D_TITLEMD5_COEC<0.285509] yes=83,no=84,missing=84
						83:leaf=0.000180221
						84:leaf=-0.0428794
					42:[DAY_OF_WEEK<4] yes=85,no=86,missing=86
						85:leaf=0.00015408
						86:leaf=-0.0136559
			10:[C_D_U_PUBLISHER_GENDER_EC<2965.05] yes=21,no=22,missing=22
				21:[U_KEYWORD_MAX_C<4.71524] yes=43,no=44,missing=44
					43:[C_D_U_TITLEMD5_CATEGORY_MICRO_MEAN_COEC<0.140289] yes=87,no=88,missing=88
						87:leaf=0.215198
						88:leaf=0.083501
					44:[M_D_U_KEYWORD_KEYWORD_MICRO_MAX_COEC<0.13915] yes=89,no=90,missing=89
						89:leaf=-0.0663981
						90:leaf=0.104075
				22:[U_CITY_EC<871.376] yes=45,no=46,missing=46
					45:[D_KEYWORD_MACRO_MEAN_COEC<0.053357] yes=91,no=92,missing=92
						91:leaf=0.121337
						92:leaf=0.0332317
					46:[U_CATEGORY_MACRO_MAX_COEC<0.010895] yes=93,no=94,missing=94
						93:leaf=-0.0794622
						94:leaf=0.0217167
	2:[U_CITY_COEC<0.062649] yes=5,no=6,missing=6
		5:[C_D_U_TITLEMD5_CITY_EC<4.78684] yes=11,no=12,missing=11
			11:[C_D_U_TITLEMD5_CITY_C<0.946354] yes=23,no=24,missing=23
				23:[U_CATEGORY_MICRO_MEAN_COEC<0.106558] yes=47,no=48,missing=47
					47:[C_D_U_TITLEMD5_AGE_COEC<0.177228] yes=95,no=96,missing=96
						95:leaf=-0.00980131
						96:leaf=-0.00113794
					48:[C_D_U_PUBLISHER_GENDER_C<503.192] yes=97,no=98,missing=97
						97:leaf=-0.0340587
						98:leaf=0.0287723
				24:[U_CITY_C<17.0083] yes=49,no=50,missing=50
					49:[D_TITLEMD5_C<600.377] yes=99,no=100,missing=100
						99:leaf=0.0697352
						100:leaf=0.0183964
					50:[WORD_COUNT<2676] yes=101,no=102,missing=102
						101:leaf=0.00570081
						102:leaf=0.0451318
			12:[U_KW_LEN<59] yes=25,no=26,missing=26
				25:[C_D_U_TITLEMD5_CITY_COEC<0.085424] yes=51,no=52,missing=52
					51:[D_CATEGORY_MICRO_MAX_COEC<0.099968] yes=103,no=104,missing=103
						103:leaf=-0.0297968
						104:leaf=-0.0556324
					52:[C_D_U_CATEGORY_CITY_MEAN_C<20.622] yes=105,no=106,missing=105
						105:leaf=-0.0152547
						106:leaf=0.0327201
				26:[D_KEYWORD_MICRO_MAX_COEC<0.089868] yes=53,no=54,missing=54
					53:[TIME_OF_DAY<6] yes=107,no=108,missing=108
						107:leaf=0.246399
						108:leaf=-0.00159625
					54:[U_CATEGORY_MACRO_MAX_COEC<0.040256] yes=109,no=110,missing=110
						109:leaf=0.00547003
						110:leaf=0.0631099
		6:[U_CAT_LEN<21] yes=13,no=14,missing=14
			13:[U_CATEGORY_MAX_C<675.594] yes=27,no=28,missing=27
				27:[U_KEYWORD_MICRO_MEAN_COEC<0.102504] yes=55,no=56,missing=55
					55:[U_CATEGORY_MICRO_MAX_COEC<0.11651] yes=111,no=112,missing=111
						111:leaf=0.00091981
						112:leaf=0.0152181
					56:[U_CATEGORY_MAX_C<46.9888] yes=113,no=114,missing=114
						113:leaf=-0.0613412
						114:leaf=-0.00235637
				28:[U_KW_LEN<109] yes=57,no=58,missing=58
					57:[U_KEYWORD_MACRO_MEAN_COEC<0.056001] yes=115,no=116,missing=115
						115:leaf=-0.0125123
						116:leaf=-0.00115363
					58:[D_CATEGORY_MACRO_MEAN_COEC<0.086286] yes=117,no=118,missing=117
						117:leaf=0.0174328
						118:leaf=0.00610374
			14:[U_CATEGORY_MICRO_MAX_COEC<0.13407] yes=29,no=30,missing=30
				29:[U_CATEGORY_MAX_EC<634.489] yes=59,no=60,missing=60
					59:[U_CITY_COEC<0.176409] yes=119,no=120,missing=119
						119:leaf=-0.00996404
						120:leaf=0.0525109
					60:[U_KEYWORD_MICRO_MEAN_COEC<0.099349] yes=121,no=122,missing=122
						121:leaf=0.0415972
						122:leaf=0.00924231
				30:[U_KW_LEN<993] yes=61,no=62,missing=62
					61:[U_KEYWORD_MICRO_MAX_COEC<0.127935] yes=123,no=124,missing=124
						123:leaf=-0.10705
						124:leaf=0.155074
					62:[U_CATEGORY_MEAN_EC<7602.62] yes=125,no=126,missing=126
						125:leaf=0.0286067
						126:leaf=0.105337
booster[80]:
0:[DOC_AGE<3] yes=1,no=2,missing=2
	1:[C_D_U_TITLEMD5_CATEGORY_MICRO_MEAN_COEC<0.108279] yes=3,no=4,missing=4
		3:[C_D_U_KEYWORD_CATEGORY_MICRO_MEAN_COEC<0.131715] yes=7,no=8,missing=8
			7:[D_KEYWORD_MEAN_EC<470.114] yes=15,no=16,missing=16
				15:[KW_REL<0.000109] yes=31,no=32,missing=32
					31:[C_D_U_KEYWORD_CATEGORY_MACRO_MEAN_COEC<0.051938] yes=63,no=64,missing=64
						63:leaf=-0.00538415
						64:leaf=0.01123
					32:[C_D_U_KEYWORD_CATEGORY_MICRO_MEAN_COEC<0.07073] yes=65,no=66,missing=66
						65:leaf=0.00091319
						66:leaf=0.0182834
				16:[D_TITLEMD5_EC<939.742] yes=33,no=34,missing=34
					33:[C_D_U_KEYWORD_CATEGORY_MACRO_MEAN_COEC<0.067913] yes=67,no=68,missing=68
						67:leaf=-0.00337202
						68:leaf=0.00899824
					34:[D_CATEGORY_MACRO_MAX_COEC<0.056042] yes=69,no=70,missing=70
						69:leaf=0.0982877
						70:leaf=0.0232315
			8:[U_CATEGORY_MEAN_EC<10846.3] yes=17,no=18,missing=18
				17:[C_D_U_KEYWORD_CATEGORY_MACRO_MEAN_COEC<0.061163] yes=35,no=36,missing=36
					35:[U_KEYWORD_MACRO_MAX_COEC<0.001809] yes=71,no=72,missing=72
						71:leaf=0.00752715
						72:leaf=0.0372444
					36:[C_D_U_KEYWORD_CATEGORY_MEAN_C<0.332822] yes=73,no=74,missing=74
						73:leaf=0.0866239
						74:leaf=0.0391877
				18:[M_D_U_KEYWORD_KEYWORD_MICRO_MEAN_COEC<0.144742] yes=37,no=38,missing=38
					37:[C_D_U_CATEGORY_AGE_MAX_C<1820.77] yes=75,no=76,missing=75
						75:leaf=0.0334823
						76:leaf=0.124048
					38:[U_KW_LEN<279] yes=77,no=78,missing=78
						77:leaf=-0.00685303
						78:leaf=0.0253888
		4:[D_TITLEMD5_C<39.2111] yes=9,no=10,missing=9
			9:[DAY_OF_WEEK<2] yes=19,no=20,missing=20
				19:[D_KEYWORD_MEAN_EC<1290.95] yes=39,no=40,missing=40
					39:[D_KEYWORD_MACRO_MAX_COEC<0.008469] yes=79,no=80,missing=80
						79:leaf=-0.0164747
						80:leaf=0.00889364
					40:[U_KEYWORD_MEAN_EC<332.581] yes=81,no=82,missing=81
						81:leaf=-0.0195271
						82:leaf=0.00321668
				20:[D_PUBLISHER_COEC<0.057087] yes=41,no=42,missing=41
					41:[D_KEYWORD_MAX_EC<1506.33] yes=83,no=84,missing=83
						83:leaf=-0.0151448
						84:leaf=0.0201527
					42:[WORD_COUNT<643] yes=85,no=86,missing=86
						85:leaf=-0.0231954
						86:leaf=-0.0012124
			10:[D_CATEGORY_MACRO_MAX_COEC<0.152581] yes=21,no=22,missing=21
				21:[U_KEYWORD_MICRO_MEAN_COEC<0.111255] yes=43,no=44,missing=43
					43:[C_D_U_PUBLISHER_AGE_EC<19025.9] yes=87,no=88,missing=88
						87:leaf=0.0135673
						88:leaf=0.00472255
					44:[C_D_U_KEYWORD_CATEGORY_MAX_C<0.305947] yes=89,no=90,missing=90
						89:leaf=0.0367124
						90:leaf=0.00123363
				22:[D_KEYWORD_MACRO_MAX_COEC<0.018791] yes=45,no=46,missing=46
					45:[C_D_U_KEYWORD_CATEGORY_MACRO_MAX_COEC<0.013612] yes=91,no=92,missing=91
						91:leaf=-0.0767411
						92:leaf=0.115474
					46:[C_D_U_CATEGORY_CITY_MAX_EC<7.10235] yes=93,no=94,missing=94
						93:leaf=-0.042682
						94:leaf=0.0138116
	2:[C_D_U_TITLEMD5_CATEGORY_MEAN_EC<0.381932] yes=5,no=6,missing=6
		5:[DOC_AGE<80] yes=11,no=12,missing=12
			11:[U_CATEGORY_MICRO_MEAN_COEC<0.086862] yes=23,no=24,missing=24
				23:[C_D_U_CATEGORY_AGE_MEAN_EC<4508.21] yes=47,no=48,missing=48
					47:[M_D_U_KEYWORD_KEYWORD_MAX_EC<0.778852] yes=95,no=96,missing=95
						95:leaf=-0.0382838
						96:leaf=0.177743
					48:[C_D_U_CATEGORY_CITY_MACRO_MAX_COEC<0.068232] yes=97,no=98,missing=97
						97:leaf=-0.0223804
						98:leaf=-0.00524546
				24:[D_KEYWORD_MAX_C<15.8157] yes=49,no=50,missing=50
					49:[C_D_U_TITLEMD5_CITY_EC<1.38034] yes=99,no=100,missing=100
						99:leaf=0.0198498
						100:leaf=-0.00344124
					50:[KW_REL<0.002474] yes=101,no=102,missing=102
						101:leaf=-0.0180544
						102:leaf=-0.000547505
			12:[U_KEYWORD_MEAN_EC<207.527] yes=25,no=26,missing=26
				25:[C_D_U_PUBLISHER_GENDER_C<449.149] yes=51,no=52,missing=52
					51:[D_PUBLISHER_COEC<0.050577] yes=103,no=104,missing=104
						103:leaf=0.0129819
						104:leaf=-0.118577
					52:[U_CATEGORY_MAX_EC<628.733] yes=105,no=106,missing=106
						105:leaf=0.12487
						106:leaf=-0.00213394
				26:[U_CITY_C<1562.13] yes=53,no=54,missing=54
					53:[C_D_U_TITLEMD5_CITY_COEC<0.140407] yes=107,no=108,missing=108
						107:leaf=0.147865
						108:leaf=0.0555181
					54:[U_CATEGORY_MACRO_MEAN_COEC<0.096443] yes=109,no=110,missing=110
						109:leaf=0.016435
						110:leaf=-0.0744908
		6:[D_CATEGORY_MICRO_MAX_COEC<0.089072] yes=13,no=14,missing=13
			13:[KW_REL<0.000109] yes=27,no=28,missing=28
				27:[D_PUBLISHER_EC<29932.1] yes=55,no=56,missing=55
					55:[WORD_COUNT<5411] yes=111,no=112,missing=112
						111:leaf=0.000845752
						112:leaf=0.0151305
					56:[D_KEYWORD_MACRO_MEAN_COEC<0.080039] yes=113,no=114,missing=114
						113:leaf=-0.00786708
						114:leaf=-0.000126984
				28:[C_D_U_CATEGORY_GENDER_MICRO_MEAN_COEC<0.092282] yes=57,no=58,missing=57
					57:[C_D_U_TITLEMD5_CATEGORY_MICRO_MEAN_COEC<0.103612] yes=115,no=116,missing=116
						115:leaf=0.00730594
						116:leaf=0.00127023
					58:[C_D_U_CATEGORY_AGE_MICRO_MEAN_COEC<0.079951] yes=117,no=118,missing=118
						117:leaf=0.0472244
						118:leaf=0.017553
			14:[C_D_U_TITLEMD5_CATEGORY_MEAN_C<4.20024] yes=29,no=30,missing=30
				29:[CAT_REL<0.001008] yes=59,no=60,missing=60
					59:[D_CATEGORY_MAX_C<2269.43] yes=119,no=120,missing=120
						119:leaf=-0.00147315
						120:leaf=-0.0116992
					60:[D_KEYWORD_MEAN_C<140.464] yes=121,no=122,missing=122
						121:leaf=0.00159388
						122:leaf=-0.00723722
				30:[U_KEYWORD_MICRO_MEAN_COEC<0.108735] yes=61,no=62,missing=61
					61:[U_CATEGORY_MEAN_C<428.227] yes=123,no=124,missing=124
						123:leaf=0.0140061
						124:leaf=0.000147886
					62:[U_KEYWORD_MAX_EC<129.025] yes=125,no=126,missing=126
						125:leaf=0.0145328
						126:leaf=0.00455298
booster[81]:
0:[U_KEYWORD_MICRO_MAX_COEC<0.102516] yes=1,no=2,missing=2
	1:[U_KW_LEN<1688] yes=3,no=4,missing=4
		3:[U_CITY_C<33.0492] yes=7,no=8,missing=7
			7:[U_KEYWORD_MAX_EC<99.7763] yes=15,no=16,missing=16
				15:[C_D_U_CATEGORY_AGE_MACRO_MAX_COEC<0.052827] yes=31,no=32,missing=31
					31:[U_KEYWORD_MICRO_MEAN_COEC<0.088329] yes=63,no=64,missing=64
						63:leaf=-0.0157311
						64:leaf=-0.00154095
					32:[U_CITY_EC<231.49] yes=65,no=66,missing=66
						65:leaf=-0.00637841
						66:leaf=0.0110301
				16:[U_KW_LEN<115] yes=33,no=34,missing=34
					33:[U_KEYWORD_MEAN_EC<152.13] yes=67,no=68,missing=68
						67:leaf=0.249662
						68:leaf=-0.0104495
					34:[U_CAT_LEN<21] yes=69,no=70,missing=70
						69:leaf=0.0159205
						70:leaf=-0.0659495
			8:[TIME_OF_DAY<21] yes=17,no=18,missing=18
				17:[U_KEYWORD_MACRO_MEAN_COEC<0.017687] yes=35,no=36,missing=36
					35:[U_KW_LEN<1414] yes=71,no=72,missing=72
						71:leaf=-0.0163949
						72:leaf=-0.0842514
					36:[U_KW_LEN<1414] yes=73,no=74,missing=74
						73:leaf=-0.0149784
						74:leaf=0.0154596
				18:[U_KEYWORD_MEAN_EC<46.8778] yes=37,no=38,missing=38
					37:[U_KEYWORD_MICRO_MEAN_COEC<0.081851] yes=75,no=76,missing=76
						75:leaf=0.0756184
						76:leaf=0.29638
					38:[DAY_OF_WEEK<0.999999] yes=77,no=78,missing=78
						77:leaf=0.0175665
						78:leaf=-0.00812422
		4:[U_CATEGORY_MICRO_MEAN_COEC<0.081959] yes=9,no=10,missing=10
			9:[U_KEYWORD_MEAN_EC<131.332] yes=19,no=20,missing=20
				19:[U_CATEGORY_MAX_EC<1250.09] yes=39,no=40,missing=40
					39:[C_D_U_TITLEMD5_CATEGORY_MACRO_MEAN_COEC<0.144701] yes=79,no=80,missing=79
						79:leaf=-0.0585652
						80:leaf=0.0454702
					40:[D_KEYWORD_MICRO_MEAN_COEC<0.078036] yes=81,no=82,missing=82
						81:leaf=-0.0241906
						82:leaf=0.0698998
				20:[TIME_OF_DAY<23] yes=41,no=42,missing=42
					41:[U_CATEGORY_MICRO_MAX_COEC<0.112844] yes=83,no=84,missing=84
						83:leaf=-0.0122209
						84:leaf=0.0612872
					42:[M_D_U_KEYWORD_KEYWORD_MACRO_MAX_COEC<3.2e-05] yes=85,no=86,missing=86
						85:leaf=0.210973
						86:leaf=0.0462512
			10:[U_CATEGORY_MACRO_MEAN_COEC<0.058357] yes=21,no=22,missing=22
				21:[U_CITY_C<38.3004] yes=43,no=44,missing=43
					43:[C_D_U_PUBLISHER_GENDER_COEC<0.056412] yes=87,no=88,missing=87
						87:leaf=-0.00571478
						88:leaf=0.026582
					44:[U_CATEGORY_MICRO_MEAN_COEC<0.086872] yes=89,no=90,missing=90
						89:leaf=0.00128922
						90:leaf=0.046865
				22:[U_KEYWORD_MICRO_MEAN_COEC<0.092118] yes=45,no=46,missing=46
					45:[U_CITY_COEC<0.072689] yes=91,no=92,missing=91
						91:leaf=0.0373112
						92:leaf=0.151305
					46:[D_CATEGORY_MACRO_MEAN_COEC<0.0572] yes=93,no=94,missing=93
						93:leaf=0.0772365
						94:leaf=-0.0442659
	2:[TIME_OF_DAY<3] yes=5,no=6,missing=6
		5:[C_D_U_TITLEMD5_CITY_COEC<0.999999] yes=11,no=12,missing=11
			11:[U_KW_LEN<640] yes=23,no=24,missing=24
				23:[U_CITY_EC<706.195] yes=47,no=48,missing=47
					47:[TIME_OF_DAY<0.999999] yes=95,no=96,missing=96
						95:leaf=-0.00619102
						96:leaf=0.000118379
					48:[U_KEYWORD_MACRO_MEAN_COEC<0.026785] yes=97,no=98,missing=98
						97:leaf=-0.0239034
						98:leaf=-0.00610099
				24:[U_KEYWORD_MACRO_MEAN_COEC<0.026316] yes=49,no=50,missing=50
					49:[D_KEYWORD_MEAN_EC<431.054] yes=99,no=100,missing=100
						99:leaf=0.00753913
						100:leaf=-0.0052864
					50:[U_CITY_EC<11800.2] yes=101,no=102,missing=101
						101:leaf=0.0179449
						102:leaf=-0.0186102
			12:[C_D_U_TITLEMD5_CITY_C<0.975248] yes=25,no=26,missing=26
				25:[C_D_U_TITLEMD5_CATEGORY_MEAN_C<1.01853] yes=51,no=52,missing=52
					51:[U_CITY_EC<284.74] yes=103,no=104,missing=104
						103:leaf=-0.142054
						104:leaf=-0.0540803
					52:[U_CITY_EC<84.9869] yes=105,no=106,missing=106
						105:leaf=-0.0591969
						106:leaf=-0.0177858
				26:[TIME_OF_DAY<0.999999] yes=53,no=54,missing=54
					53:[M_D_U_KEYWORD_KEYWORD_MAX_EC<0.07477] yes=107,no=108,missing=108
						107:leaf=-0.091208
						108:leaf=-0.011228
					54:[C_D_U_TITLEMD5_CITY_C<1.07812] yes=109,no=110,missing=110
						109:leaf=0.0410449
						110:leaf=-0.0380146
		6:[TIME_OF_DAY<16] yes=13,no=14,missing=14
			13:[U_CITY_COEC<0.091146] yes=27,no=28,missing=27
				27:[C_D_U_TITLEMD5_CATEGORY_MEAN_EC<0.866339] yes=55,no=56,missing=55
					55:[DAY_OF_WEEK<6] yes=111,no=112,missing=112
						111:leaf=-0.00124573
						112:leaf=-0.011248
					56:[U_KW_LEN<76] yes=113,no=114,missing=114
						113:leaf=-0.00712022
						114:leaf=0.00477179
				28:[TIME_OF_DAY<6] yes=57,no=58,missing=58
					57:[C_D_U_PUBLISHER_AGE_C<35.5579] yes=115,no=116,missing=115
						115:leaf=-0.000969493
						116:leaf=0.00793611
					58:[C_D_U_TITLEMD5_CATEGORY_MEAN_EC<39.1322] yes=117,no=118,missing=117
						117:leaf=0.00665715
						118:leaf=0.0154597
			14:[C_D_U_CATEGORY_AGE_MACRO_MAX_COEC<0.110045] yes=29,no=30,missing=30
				29:[CAT_REL<0.031869] yes=59,no=60,missing=60
					59:[D_CATEGORY_MACRO_MEAN_COEC<0.097876] yes=119,no=120,missing=120
						119:leaf=-0.00598434
						120:leaf=-0.0171084
					60:[CAT_REL<0.280258] yes=121,no=122,missing=122
						121:leaf=-0.00271225
						122:leaf=0.0119399
				30:[U_KW_LEN<2433] yes=61,no=62,missing=62
					61:[DAY_OF_WEEK<3] yes=123,no=124,missing=124
						123:leaf=0.00259649
						124:leaf=-0.00178124
					62:[U_CITY_C<118.144] yes=125,no=126,missing=126
						125:leaf=0.00288995
						126:leaf=0.0239636
booster[82]:
0:[U_KEYWORD_MICRO_MEAN_COEC<0.11316] yes=1,no=2,missing=1
	1:[DAY_OF_WEEK<5] yes=3,no=4,missing=4
		3:[D_PUBLISHER_C<34.1456] yes=7,no=8,missing=8
			7:[U_CATEGORY_MICRO_MEAN_COEC<0.099825] yes=15,no=16,missing=15
				15:[C_D_U_TITLEMD5_CATEGORY_MEAN_EC<0.068072] yes=31,no=32,missing=32
					31:[C_D_U_CATEGORY_AGE_MEAN_C<2067.87] yes=63,no=64,missing=63
						63:leaf=-0.038294
						64:leaf=0.0347286
					32:[D_CATEGORY_MAX_EC<78882.5] yes=65,no=66,missing=66
						65:leaf=-0.00903634
						66:leaf=0.0268291
				16:[D_CATEGORY_MAX_EC<52624.4] yes=33,no=34,missing=33
					33:[C_D_U_TITLEMD5_CATEGORY_MICRO_MAX_COEC<0.261966] yes=67,no=68,missing=68
						67:leaf=0.00546936
						68:leaf=-0.0494949
					34:[D_CATEGORY_MAX_EC<81295.8] yes=69,no=70,missing=70
						69:leaf=-0.0979057
						70:leaf=-0.00600762
			8:[KW_REL<0.003873] yes=17,no=18,missing=18
				17:[U_KEYWORD_MICRO_MAX_COEC<0.12049] yes=35,no=36,missing=36
					35:[U_CITY_EC<12127] yes=71,no=72,missing=71
						71:leaf=-0.00091184
						72:leaf=-0.0120462
					36:[TIME_OF_DAY<0.999999] yes=73,no=74,missing=74
						73:leaf=-0.00510319
						74:leaf=0.00216204
				18:[DOC_AGE<13] yes=37,no=38,missing=38
					37:[TIME_OF_DAY<0.999999] yes=75,no=76,missing=76
						75:leaf=-0.00896516
						76:leaf=0.0112341
					38:[D_KEYWORD_MICRO_MEAN_COEC<0.136414] yes=77,no=78,missing=78
						77:leaf=0.000691023
						78:leaf=-0.0401879
		4:[U_KEYWORD_MEAN_EC<265.084] yes=9,no=10,missing=10
			9:[D_KEYWORD_MEAN_EC<688.352] yes=19,no=20,missing=20
				19:[U_CATEGORY_MACRO_MEAN_COEC<0.082838] yes=39,no=40,missing=40
					39:[CAT_REL<0.174815] yes=79,no=80,missing=80
						79:leaf=-0.000540449
						80:leaf=0.0189782
					40:[U_KEYWORD_MICRO_MEAN_COEC<0.091915] yes=81,no=82,missing=82
						81:leaf=-0.0279915
						82:leaf=-0.00655602
				20:[C_D_U_KEYWORD_CATEGORY_MACRO_MEAN_COEC<0.059829] yes=41,no=42,missing=42
					41:[D_CATEGORY_MICRO_MEAN_COEC<0.060663] yes=83,no=84,missing=83
						83:leaf=0.00774288
						84:leaf=-0.0272162
					42:[U_KEYWORD_MICRO_MEAN_COEC<0.109975] yes=85,no=86,missing=86
						85:leaf=-0.0124302
						86:leaf=0.00499273
			10:[DOC_AGE<42] yes=21,no=22,missing=22
				21:[U_KW_LEN<632] yes=43,no=44,missing=44
					43:[D_KEYWORD_MACRO_MEAN_COEC<0.063381] yes=87,no=88,missing=88
						87:leaf=-0.00992544
						88:leaf=-0.00241091
					44:[C_D_U_TITLEMD5_CATEGORY_MAX_EC<6.47651] yes=89,no=90,missing=90
						89:leaf=0.00175926
						90:leaf=0.0128339
				22:[U_KEYWORD_MACRO_MEAN_COEC<0.032237] yes=45,no=46,missing=46
					45:[U_KW_LEN<3957] yes=91,no=92,missing=92
						91:leaf=-0.0149248
						92:leaf=0.0531453
					46:[C_D_U_KEYWORD_CATEGORY_MEAN_EC<32.9061] yes=93,no=94,missing=93
						93:leaf=0.0131125
						94:leaf=-0.00765639
	2:[U_KEYWORD_MEAN_C<27.0371] yes=5,no=6,missing=6
		5:[U_CATEGORY_MEAN_C<1188.57] yes=11,no=12,missing=11
			11:[U_KEYWORD_MICRO_MAX_COEC<0.123223] yes=23,no=24,missing=24
				23:[U_KEYWORD_MACRO_MEAN_COEC<0.027208] yes=47,no=48,missing=48
					47:[C_D_U_KEYWORD_CATEGORY_MICRO_MAX_COEC<0.999999] yes=95,no=96,missing=96
						95:leaf=-0.132895
						96:leaf=-0.027619
					48:[C_D_U_TITLEMD5_CITY_C<0.847542] yes=97,no=98,missing=97
						97:leaf=-0.0664841
						98:leaf=0.0733968
				24:[C_D_U_CATEGORY_AGE_MACRO_MEAN_COEC<0.122869] yes=49,no=50,missing=50
					49:[U_CATEGORY_MICRO_MEAN_COEC<0.107656] yes=99,no=100,missing=100
						99:leaf=-0.0186963
						100:leaf=-0.0678659
					50:[U_KEYWORD_MAX_EC<35.3359] yes=101,no=102,missing=102
						101:leaf=0.0225496
						102:leaf=-0.0169388
			12:[U_KW_LEN<256] yes=25,no=26,missing=26
				25:[U_KEYWORD_MEAN_EC<116.999] yes=51,no=52,missing=52
					51:[C_D_U_CATEGORY_CITY_MEAN_EC<297.404] yes=103,no=104,missing=104
						103:leaf=-0.12314
						104:leaf=6.23778e-05
					52:[C_D_U_CATEGORY_CITY_MACRO_MAX_COEC<0.084621] yes=105,no=106,missing=106
						105:leaf=-0.0208638
						106:leaf=0.02486
				26:[U_KW_LEN<437] yes=53,no=54,missing=54
					53:[C_D_U_PUBLISHER_CITY_C<82.9119] yes=107,no=108,missing=108
						107:leaf=0.0456602
						108:leaf=0.140703
					54:[U_CATEGORY_MICRO_MEAN_COEC<0.10568] yes=109,no=110,missing=110
						109:leaf=-0.0655018
						110:leaf=0.0413858
		6:[U_KEYWORD_MICRO_MAX_COEC<0.129828] yes=13,no=14,missing=14
			13:[U_KEYWORD_MACRO_MAX_COEC<0.001451] yes=27,no=28,missing=28
				27:[U_CITY_C<35.9161] yes=55,no=56,missing=55
					55:[U_CATEGORY_MICRO_MAX_COEC<0.120522] yes=111,no=112,missing=112
						111:leaf=-0.0252372
						112:leaf=0.0328664
					56:[U_KEYWORD_MAX_EC<86.3961] yes=113,no=114,missing=114
						113:leaf=0.0669719
						114:leaf=-0.00490642
				28:[U_CATEGORY_MICRO_MEAN_COEC<0.104958] yes=57,no=58,missing=57
					57:[U_CAT_LEN<3] yes=115,no=116,missing=116
						115:leaf=-0.0509908
						116:leaf=0.0151128
					58:[U_CAT_LEN<17] yes=117,no=118,missing=118
						117:leaf=-0.0300922
						118:leaf=0.00402705
			14:[U_CITY_C<193.598] yes=29,no=30,missing=30
				29:[U_KEYWORD_MAX_EC<94.0504] yes=59,no=60,missing=60
					59:[U_CATEGORY_MACRO_MAX_COEC<0.027644] yes=119,no=120,missing=120
						119:leaf=0.018132
						120:leaf=0.0545926
					60:[C_D_U_KEYWORD_CATEGORY_MEAN_EC<4.00219] yes=121,no=122,missing=122
						121:leaf=-0.0216432
						122:leaf=0.00917883
				30:[U_CATEGORY_MACRO_MAX_COEC<0.024901] yes=61,no=62,missing=62
					61:[U_CATEGORY_MEAN_C<507.189] yes=123,no=124,missing=124
						123:leaf=0.0159452
						124:leaf=0.0587813
					62:[U_CATEGORY_MAX_EC<3533.88] yes=125,no=126,missing=125
						125:leaf=-0.0194621
						126:leaf=0.0288648
booster[83]:
0:[C_D_U_PUBLISHER_AGE_COEC<0.05438] yes=1,no=2,missing=2
	1:[C_D_U_TITLEMD5_CITY_COEC<0.148229] yes=3,no=4,missing=4
		3:[U_CITY_EC<674.064] yes=7,no=8,missing=8
			7:[D_PUBLISHER_C<1036.13] yes=15,no=16,missing=16
				15:[DOC_AGE<12] yes=31,no=32,missing=32
					31:[U_KEYWORD_MEAN_C<15.1023] yes=63,no=64,missing=64
						63:leaf=-0.0296373
						64:leaf=0.0328989
					32:[U_KEYWORD_MEAN_C<7.6381] yes=65,no=66,missing=66
						65:leaf=-0.0770816
						66:leaf=0.0771534
				16:[C_D_U_CATEGORY_AGE_MAX_EC<5916.27] yes=33,no=34,missing=33
					33:[C_D_U_KEYWORD_CATEGORY_MEAN_EC<12.5564] yes=67,no=68,missing=67
						67:leaf=-0.127182
						68:leaf=0.0104011
					34:[U_KEYWORD_MICRO_MEAN_COEC<0.096499] yes=69,no=70,missing=69
						69:leaf=0.144918
						70:leaf=-0.0268395
			8:[CAT_REL<0.10898] yes=17,no=18,missing=18
				17:[C_D_U_CATEGORY_AGE_MICRO_MEAN_COEC<0.111983] yes=35,no=36,missing=36
					35:[D_CATEGORY_MICRO_MEAN_COEC<0.085234] yes=71,no=72,missing=72
						71:leaf=-0.00270236
						72:leaf=-0.0278089
					36:[C_D_U_CATEGORY_AGE_MACRO_MEAN_COEC<0.129795] yes=73,no=74,missing=73
						73:leaf=0.040357
						74:leaf=-0.0361055
				18:[M_D_U_KEYWORD_KEYWORD_MAX_C<2e-06] yes=37,no=38,missing=38
					37:[U_CATEGORY_MEAN_C<596.042] yes=75,no=76,missing=76
						75:leaf=0.253296
						76:leaf=-0.111809
					38:[TIME_OF_DAY<21] yes=77,no=78,missing=78
						77:leaf=0.0103003
						78:leaf=0.0553868
		4:[C_D_U_TITLEMD5_GENDER_C<0.985074] yes=9,no=10,missing=9
			9:[U_CITY_COEC<0.036202] yes=19,no=20,missing=20
				19:[C_D_U_TITLEMD5_AGE_EC<54.089] yes=39,no=40,missing=39
					39:[C_D_U_KEYWORD_CATEGORY_MACRO_MAX_COEC<0.012115] yes=79,no=80,missing=80
						79:leaf=-0.0631087
						80:leaf=-0.000468634
					40:[U_KEYWORD_MEAN_EC<163.935] yes=81,no=82,missing=81
						81:leaf=0.0609824
						82:leaf=-0.0438797
				20:[CAT_REL<0.096707] yes=41,no=42,missing=42
					41:[C_D_U_KEYWORD_CATEGORY_MACRO_MEAN_COEC<0.082612] yes=83,no=84,missing=84
						83:leaf=-0.0205083
						84:leaf=0.00275247
					42:[U_KEYWORD_MICRO_MEAN_COEC<0.087945] yes=85,no=86,missing=86
						85:leaf=0.0181979
						86:leaf=-0.00976404
			10:[U_KEYWORD_MAX_EC<10.9921] yes=21,no=22,missing=21
				21:[TIME_OF_DAY<22] yes=43,no=44,missing=44
					43:[C_D_U_CATEGORY_GENDER_MACRO_MAX_COEC<0.038919] yes=87,no=88,missing=87
						87:leaf=0.0411608
						88:leaf=-0.0768101
					44:leaf=0.124927
				22:[C_D_U_CATEGORY_GENDER_MACRO_MAX_COEC<0.054252] yes=45,no=46,missing=46
					45:[C_D_U_CATEGORY_GENDER_MAX_C<186.498] yes=89,no=90,missing=90
						89:leaf=0.010616
						90:leaf=-0.0356084
					46:[C_D_U_TITLEMD5_CATEGORY_MACRO_MEAN_COEC<0.209348] yes=91,no=92,missing=91
						91:leaf=0.0145785
						92:leaf=0.0889738
	2:[U_KW_LEN<1564] yes=5,no=6,missing=6
		5:[U_KEYWORD_MACRO_MEAN_COEC<0.019306] yes=11,no=12,missing=12
			11:[C_D_U_KEYWORD_CATEGORY_MEAN_EC<5.2614] yes=23,no=24,missing=23
				23:[U_CITY_EC<9013.59] yes=47,no=48,missing=47
					47:[U_KEYWORD_MICRO_MAX_COEC<0.161375] yes=93,no=94,missing=94
						93:leaf=-0.00872541
						94:leaf=-0.0849229
					48:[U_CATEGORY_MICRO_MEAN_COEC<0.094752] yes=95,no=96,missing=96
						95:leaf=-0.0341545
						96:leaf=-0.0937769
				24:[U_CATEGORY_MACRO_MEAN_COEC<0.064421] yes=49,no=50,missing=50
					49:[C_D_U_KEYWORD_CATEGORY_MACRO_MAX_COEC<0.006324] yes=97,no=98,missing=98
						97:leaf=-0.0460429
						98:leaf=-0.00243283
					50:[C_D_U_CATEGORY_AGE_MEAN_C<852.904] yes=99,no=100,missing=100
						99:leaf=-0.0185543
						100:leaf=-0.095158
			12:[DAY_OF_WEEK<5] yes=25,no=26,missing=26
				25:[C_D_U_TITLEMD5_CATEGORY_MACRO_MEAN_COEC<0.309647] yes=51,no=52,missing=51
					51:[U_KEYWORD_MICRO_MAX_COEC<0.11107] yes=101,no=102,missing=102
						101:leaf=-0.00227847
						102:leaf=0.00150771
					52:[U_CAT_LEN<9] yes=103,no=104,missing=104
						103:leaf=0.0123334
						104:leaf=0.0524684
				26:[U_KEYWORD_MICRO_MEAN_COEC<0.088572] yes=53,no=54,missing=54
					53:[U_CAT_LEN<15] yes=105,no=106,missing=106
						105:leaf=-0.0184956
						106:leaf=-0.0974106
					54:[DOC_AGE<65] yes=107,no=108,missing=108
						107:leaf=-0.00197351
						108:leaf=0.011144
		6:[U_CITY_COEC<0.076012] yes=13,no=14,missing=14
			13:[M_D_U_KEYWORD_KEYWORD_MACRO_MEAN_COEC<0.00013] yes=27,no=28,missing=27
				27:[C_D_U_CATEGORY_AGE_MAX_EC<13293.1] yes=55,no=56,missing=56
					55:[CAT_REL<0.074326] yes=109,no=110,missing=110
						109:leaf=-0.0324046
						110:leaf=0.00636291
					56:[U_CATEGORY_MICRO_MEAN_COEC<0.106689] yes=111,no=112,missing=112
						111:leaf=-0.00165617
						112:leaf=-0.0373217
				28:[U_CATEGORY_MEAN_C<569.586] yes=57,no=58,missing=58
					57:[U_CATEGORY_MICRO_MEAN_COEC<0.079982] yes=113,no=114,missing=114
						113:leaf=-0.0368544
						114:leaf=0.0078594
					58:[CAT_REL<0.05118] yes=115,no=116,missing=116
						115:leaf=0.0246701
						116:leaf=0.0783743
			14:[U_CAT_LEN<13] yes=29,no=30,missing=30
				29:[U_CITY_COEC<0.09327] yes=59,no=60,missing=60
					59:[U_CATEGORY_MICRO_MAX_COEC<0.092025] yes=117,no=118,missing=118
						117:leaf=0.0520787
						118:leaf=-0.0414113
					60:[U_KEYWORD_MICRO_MAX_COEC<0.127228] yes=119,no=120,missing=120
						119:leaf=-0.00946583
						120:leaf=0.0338131
				30:[D_KEYWORD_MEAN_C<19.5286] yes=61,no=62,missing=62
					61:[U_CITY_C<18.5498] yes=121,no=122,missing=122
						121:leaf=-0.00390998
						122:leaf=0.0235735
					62:[KW_REL<0.002803] yes=123,no=124,missing=124
						123:leaf=0.00378838
						124:leaf=0.0172878
booster[84]:
0:[C_D_U_PUBLISHER_AGE_EC<37185.1] yes=1,no=2,missing=1
	1:[C_D_U_PUBLISHER_GENDER_COEC<0.133781] yes=3,no=4,missing=3
		3:[C_D_U_CATEGORY_CITY_MACRO_MAX_COEC<0.063668] yes=7,no=8,missing=8
			7:[C_D_U_CATEGORY_CITY_MEAN_EC<2.15511] yes=15,no=16,missing=16
				15:[C_D_U_TITLEMD5_CITY_EC<1.70369] yes=29,no=30,missing=30
					29:[C_D_U_TITLEMD5_CATEGORY_MACRO_MEAN_COEC<0.049764] yes=57,no=58,missing=58
						57:leaf=0.0644193
						58:leaf=0.0154559
					30:[C_D_U_PUBLISHER_AGE_EC<18823] yes=59,no=60,missing=59
						59:leaf=0.000160214
						60:leaf=-0.0122853
				16:[U_CITY_COEC<0.024731] yes=31,no=32,missing=32
					31:[U_KW_LEN<1556] yes=61,no=62,missing=62
						61:leaf=-0.0177042
						62:leaf=-0.0734499
					32:[C_D_U_TITLEMD5_CITY_EC<0.985074] yes=63,no=64,missing=63
						63:leaf=-0.00523804
						64:leaf=-9.99341e-05
			8:[U_KW_LEN<3415] yes=17,no=18,missing=18
				17:[C_D_U_KEYWORD_CATEGORY_MACRO_MEAN_COEC<0.034241] yes=33,no=34,missing=34
					33:[D_KEYWORD_MAX_C<33.2454] yes=65,no=66,missing=66
						65:leaf=-0.00302636
						66:leaf=-0.019754
					34:[WORD_COUNT<2501] yes=67,no=68,missing=68
						67:leaf=-0.00046606
						68:leaf=0.00298579
				18:[C_D_U_CATEGORY_CITY_MEAN_C<127.414] yes=35,no=36,missing=35
					35:[U_KEYWORD_MEAN_EC<143.68] yes=69,no=70,missing=70
						69:leaf=-0.0139916
						70:leaf=0.0127528
					36:[U_CATEGORY_MACRO_MAX_COEC<0.011196] yes=71,no=72,missing=72
						71:leaf=0.0201943
						72:leaf=0.0917942
		4:[D_PUBLISHER_COEC<0.125336] yes=9,no=10,missing=10
			9:[M_D_U_KEYWORD_KEYWORD_MACRO_MEAN_COEC<0.000412] yes=19,no=20,missing=19
				19:[U_KEYWORD_MAX_EC<114.947] yes=37,no=38,missing=38
					37:[C_D_U_CATEGORY_AGE_MACRO_MAX_COEC<0.057232] yes=73,no=74,missing=74
						73:leaf=-0.0127666
						74:leaf=0.0189933
					38:[C_D_U_TITLEMD5_CATEGORY_MAX_EC<0.381488] yes=75,no=76,missing=76
						75:leaf=0.0527109
						76:leaf=0.00123168
				20:[C_D_U_TITLEMD5_AGE_COEC<0.289529] yes=39,no=40,missing=39
					39:[C_D_U_TITLEMD5_GENDER_COEC<0.221222] yes=77,no=78,missing=78
						77:leaf=0.0291721
						78:leaf=0.0602544
					40:[C_D_U_TITLEMD5_CATEGORY_MAX_EC<0.188807] yes=79,no=80,missing=80
						79:leaf=-0.00358824
						80:leaf=-0.197132
			10:[C_D_U_TITLEMD5_CATEGORY_MICRO_MEAN_COEC<0.30255] yes=21,no=22,missing=21
				21:[U_KEYWORD_MEAN_C<7.82563] yes=41,no=42,missing=42
					41:[C_D_U_TITLEMD5_GENDER_EC<125.995] yes=81,no=82,missing=82
						81:leaf=-0.0408619
						82:leaf=-0.000317853
					42:[U_KEYWORD_MAX_C<8.79546] yes=83,no=84,missing=83
						83:leaf=0.007327
						84:leaf=-0.00282121
				22:[C_D_U_PUBLISHER_AGE_EC<19467.4] yes=43,no=44,missing=44
					43:[WORD_COUNT<2612] yes=85,no=86,missing=86
						85:leaf=0.0171173
						86:leaf=0.0626046
					44:[C_D_U_TITLEMD5_AGE_COEC<0.159799] yes=87,no=88,missing=88
						87:leaf=-0.0600636
						88:leaf=0.0148952
	2:[DOC_AGE<19] yes=5,no=6,missing=6
		5:[U_KEYWORD_MAX_EC<64.1387] yes=11,no=12,missing=11
			11:[C_D_U_TITLEMD5_AGE_C<136.237] yes=23,no=24,missing=24
				23:[D_KEYWORD_MEAN_EC<496.069] yes=45,no=46,missing=46
					45:[C_D_U_KEYWORD_CATEGORY_MACRO_MEAN_COEC<0.085791] yes=89,no=90,missing=90
						89:leaf=0.0385725
						90:leaf=-0.0484005
					46:[D_PUBLISHER_EC<147109] yes=91,no=92,missing=92
						91:leaf=0.0596356
						92:leaf=-0.038043
				24:[TIME_OF_DAY<21] yes=47,no=48,missing=48
					47:[U_KEYWORD_MICRO_MAX_COEC<0.138455] yes=93,no=94,missing=93
						93:leaf=0.0049009
						94:leaf=-0.0396742
					48:[C_D_U_TITLEMD5_CITY_C<0.877808] yes=95,no=96,missing=96
						95:leaf=-0.0429709
						96:leaf=0.0497957
			12:[WORD_COUNT<5848] yes=25,no=26,missing=26
				25:[C_D_U_CATEGORY_CITY_MICRO_MAX_COEC<0.140534] yes=49,no=50,missing=49
					49:[C_D_U_KEYWORD_CATEGORY_MEAN_C<4.74908] yes=97,no=98,missing=97
						97:leaf=-0.000825089
						98:leaf=0.0175357
					50:[U_KW_LEN<178] yes=99,no=100,missing=100
						99:leaf=-0.0379685
						100:leaf=-0.00426852
				26:[C_D_U_TITLEMD5_CATEGORY_MICRO_MEAN_COEC<0.131305] yes=51,no=52,missing=51
					51:[U_KEYWORD_MAX_C<17.3008] yes=101,no=102,missing=102
						101:leaf=-0.0540736
						102:leaf=0.0547944
					52:[D_TITLEMD5_COEC<0.130054] yes=103,no=104,missing=104
						103:leaf=-0.118389
						104:leaf=-0.0214512
		6:[D_TITLEMD5_COEC<0.28274] yes=13,no=14,missing=14
			13:[D_TITLEMD5_EC<3462.89] yes=27,no=28,missing=28
				27:[C_D_U_PUBLISHER_CITY_COEC<0.129709] yes=53,no=54,missing=53
					53:[TIME_OF_DAY<17] yes=105,no=106,missing=106
						105:leaf=-0.0238829
						106:leaf=-0.0444306
					54:[D_CATEGORY_MEAN_EC<38946.9] yes=107,no=108,missing=107
						107:leaf=0.00144171
						108:leaf=-0.0252083
				28:[KW_REL<0.000436] yes=55,no=56,missing=56
					55:[U_KEYWORD_MAX_EC<137.794] yes=109,no=110,missing=110
						109:leaf=-0.0382605
						110:leaf=-0.0101707
					56:[D_TITLEMD5_EC<8027.51] yes=111,no=112,missing=112
						111:leaf=0.0056956
						112:leaf=-0.0522413
			14:leaf=-0.162472
booster[85]:
0:[DOC_AGE<88] yes=1,no=2,missing=2
	1:[DOC_AGE<5] yes=3,no=4,missing=4
		3:[C_D_U_TITLEMD5_CATEGORY_MICRO_MEAN_COEC<0.10811] yes=7,no=8,missing=8
			7:[C_D_U_KEYWORD_CATEGORY_MICRO_MEAN_COEC<0.128589] yes=15,no=16,missing=16
				15:[D_KEYWORD_MAX_EC<332.469] yes=31,no=32,missing=32
					31:[C_D_U_KEYWORD_CATEGORY_MICRO_MEAN_COEC<0.073367] yes=63,no=64,missing=64
						63:leaf=-0.00141358
						64:leaf=0.00967487
					32:[D_CATEGORY_MICRO_MAX_COEC<0.12241] yes=65,no=66,missing=66
						65:leaf=-0.00383009
						66:leaf=0.0152328
				16:[D_CATEGORY_MAX_EC<1385.1] yes=33,no=34,missing=34
					33:[C_D_U_CATEGORY_CITY_MAX_EC<6.52475] yes=67,no=68,missing=67
						67:leaf=0.110422
						68:leaf=-0.0917281
					34:[D_KEYWORD_MICRO_MEAN_COEC<0.114798] yes=69,no=70,missing=70
						69:leaf=0.0266874
						70:leaf=0.0093831
			8:[C_D_U_TITLEMD5_CATEGORY_MEAN_C<0.04133] yes=17,no=18,missing=18
				17:[D_TITLEMD5_C<1.98502] yes=35,no=36,missing=36
					35:[D_KEYWORD_MEAN_EC<248.194] yes=71,no=72,missing=72
						71:leaf=-0.00886695
						72:leaf=-0.0293681
					36:[D_TITLEMD5_COEC<0.120919] yes=73,no=74,missing=74
						73:leaf=-0.0192925
						74:leaf=0.00244913
				18:[C_D_U_TITLEMD5_GENDER_COEC<0.183842] yes=37,no=38,missing=37
					37:[C_D_U_TITLEMD5_CITY_EC<0.980149] yes=75,no=76,missing=76
						75:leaf=-0.00809837
						76:leaf=0.00133795
					38:[C_D_U_TITLEMD5_CATEGORY_MICRO_MAX_COEC<0.15869] yes=77,no=78,missing=78
						77:leaf=0.0538757
						78:leaf=0.00992474
		4:[C_D_U_TITLEMD5_CATEGORY_MEAN_EC<4.11268] yes=9,no=10,missing=10
			9:[C_D_U_TITLEMD5_CITY_EC<1.36294] yes=19,no=20,missing=20
				19:[U_CITY_EC<263.678] yes=39,no=40,missing=40
					39:[DOC_AGE<13] yes=79,no=80,missing=80
						79:leaf=0.0146517
						80:leaf=0.0603721
					40:[D_TITLEMD5_EC<14.748] yes=81,no=82,missing=82
						81:leaf=0.0665322
						82:leaf=-0.00273231
				20:[D_KEYWORD_MEAN_EC<513.632] yes=41,no=42,missing=42
					41:[KW_REL<0.00076] yes=83,no=84,missing=84
						83:leaf=-0.00632644
						84:leaf=0.00340721
					42:[M_D_U_KEYWORD_KEYWORD_MACRO_MEAN_COEC<0.000172] yes=85,no=86,missing=85
						85:leaf=-0.0147682
						86:leaf=-0.0042459
			10:[U_KW_LEN<638] yes=21,no=22,missing=22
				21:[D_TITLEMD5_COEC<0.039169] yes=43,no=44,missing=44
					43:[D_CATEGORY_MACRO_MEAN_COEC<0.097632] yes=87,no=88,missing=87
						87:leaf=-0.00690715
						88:leaf=-0.0296772
					44:[U_KEYWORD_MACRO_MEAN_COEC<0.031395] yes=89,no=90,missing=90
						89:leaf=-0.00444316
						90:leaf=0.000476331
				22:[C_D_U_TITLEMD5_CATEGORY_MICRO_MAX_COEC<0.039015] yes=45,no=46,missing=45
					45:[C_D_U_KEYWORD_CATEGORY_MACRO_MEAN_COEC<0.041703] yes=91,no=92,missing=92
						91:leaf=-0.0359278
						92:leaf=0.0206331
					46:[D_KEYWORD_MEAN_C<75.8186] yes=93,no=94,missing=94
						93:leaf=0.0126924
						94:leaf=0.00331537
	2:[U_KEYWORD_MEAN_EC<312.176] yes=5,no=6,missing=5
		5:[U_CITY_EC<1057.81] yes=11,no=12,missing=12
			11:[C_D_U_CATEGORY_GENDER_MACRO_MEAN_COEC<0.142699] yes=23,no=24,missing=24
				23:[D_KEYWORD_MICRO_MAX_COEC<0.14204] yes=47,no=48,missing=48
					47:[TIME_OF_DAY<2] yes=95,no=96,missing=96
						95:leaf=0.178794
						96:leaf=-0.0379086
					48:[U_CATEGORY_MACRO_MAX_COEC<0.040666] yes=97,no=98,missing=98
						97:leaf=-0.142079
						98:leaf=-0.0377063
				24:[C_D_U_TITLEMD5_CITY_EC<0.994999] yes=49,no=50,missing=50
					49:[U_KEYWORD_MEAN_EC<224.227] yes=99,no=100,missing=100
						99:leaf=-0.0493468
						100:leaf=0.12468
					50:[U_KEYWORD_MICRO_MEAN_COEC<0.102219] yes=101,no=102,missing=101
						101:leaf=0.0128298
						102:leaf=0.0729204
			12:[C_D_U_TITLEMD5_CATEGORY_MAX_EC<0.553085] yes=25,no=26,missing=25
				25:[TIME_OF_DAY<5] yes=51,no=52,missing=52
					51:[U_CITY_COEC<0.056378] yes=103,no=104,missing=104
						103:leaf=0.23233
						104:leaf=-0.0443599
					52:[U_CATEGORY_MACRO_MAX_COEC<0.017934] yes=105,no=106,missing=106
						105:leaf=0.0310431
						106:leaf=-0.00879363
				26:[U_KEYWORD_MICRO_MEAN_COEC<0.105736] yes=53,no=54,missing=54
					53:[C_D_U_TITLEMD5_CATEGORY_MICRO_MAX_COEC<0.447796] yes=107,no=108,missing=108
						107:leaf=-0.0747832
						108:leaf=0.0485545
					54:[U_CATEGORY_MICRO_MAX_COEC<0.109065] yes=109,no=110,missing=110
						109:leaf=-0.0833307
						110:leaf=0.0697369
		6:[D_TITLEMD5_C<26.4883] yes=13,no=14,missing=14
			13:[U_KEYWORD_MACRO_MAX_COEC<0.004132] yes=27,no=28,missing=28
				27:[M_D_U_KEYWORD_KEYWORD_MACRO_MEAN_COEC<4.3e-05] yes=55,no=56,missing=55
					55:[U_CATEGORY_MAX_C<228.754] yes=111,no=112,missing=112
						111:leaf=0.0224856
						112:leaf=0.0824735
					56:[M_D_U_KEYWORD_KEYWORD_MACRO_MAX_COEC<4.9e-05] yes=113,no=114,missing=114
						113:leaf=-0.0613825
						114:leaf=0.0426332
				28:[U_CITY_C<84.7456] yes=57,no=58,missing=58
					57:[U_CITY_C<75.4529] yes=115,no=116,missing=116
						115:leaf=0.0424293
						116:leaf=0.211746
					58:[U_CITY_COEC<0.079343] yes=117,no=118,missing=118
						117:leaf=0.0715038
						118:leaf=-0.0141964
			14:[U_CITY_C<5.47837] yes=29,no=30,missing=29
				29:[U_CATEGORY_MAX_EC<3947.76] yes=59,no=60,missing=60
					59:[U_CATEGORY_MICRO_MEAN_COEC<0.090447] yes=119,no=120,missing=120
						119:leaf=-0.0274314
						120:leaf=-0.141912
					60:[U_KEYWORD_MEAN_C<35.8744] yes=121,no=122,missing=122
						121:leaf=-0.130546
						122:leaf=0.00308479
				30:[M_D_U_KEYWORD_KEYWORD_MICRO_MEAN_COEC<0.121057] yes=61,no=62,missing=61
					61:[U_KW_LEN<116] yes=123,no=124,missing=124
						123:leaf=0.00258889
						124:leaf=0.0461504
					62:[D_CATEGORY_MACRO_MAX_COEC<0.104246] yes=125,no=126,missing=126
						125:leaf=0.0062052
						126:leaf=-0.0732582
booster[86]:
0:[U_CATEGORY_MICRO_MAX_COEC<0.113694] yes=1,no=2,missing=1
	1:[D_CATEGORY_MICRO_MAX_COEC<0.091302] yes=3,no=4,missing=3
		3:[C_D_U_TITLEMD5_CATEGORY_MEAN_EC<4.04987] yes=7,no=8,missing=7
			7:[U_KEYWORD_MEAN_C<19.6355] yes=15,no=16,missing=16
				15:[DOC_AGE<2] yes=31,no=32,missing=32
					31:[CAT_REL<0.367802] yes=63,no=64,missing=64
						63:leaf=0.0043637
						64:leaf=0.033914
					32:[C_D_U_TITLEMD5_CATEGORY_MEAN_EC<0.377682] yes=65,no=66,missing=65
						65:leaf=-0.0182774
						66:leaf=-0.00417497
				16:[U_CAT_LEN<16] yes=33,no=34,missing=34
					33:[D_KEYWORD_MACRO_MAX_COEC<0.006351] yes=67,no=68,missing=68
						67:leaf=-0.0172149
						68:leaf=0.000254179
					34:[D_KEYWORD_MEAN_EC<386.132] yes=69,no=70,missing=70
						69:leaf=0.0149952
						70:leaf=0.00354325
			8:[U_KW_LEN<50] yes=17,no=18,missing=18
				17:[U_CATEGORY_MEAN_EC<13942.5] yes=35,no=36,missing=36
					35:[TIME_OF_DAY<18] yes=71,no=72,missing=72
						71:leaf=-0.0229249
						72:leaf=0.0201873
					36:[U_KEYWORD_MICRO_MEAN_COEC<0.098703] yes=73,no=74,missing=74
						73:leaf=-0.0739097
						74:leaf=-0.0163087
				18:[D_KEYWORD_MEAN_C<155.014] yes=37,no=38,missing=38
					37:[U_KW_LEN<158] yes=75,no=76,missing=76
						75:leaf=0.00117082
						76:leaf=0.00767602
					38:[M_D_U_KEYWORD_KEYWORD_MICRO_MAX_COEC<0.130429] yes=77,no=78,missing=77
						77:leaf=-0.00542128
						78:leaf=0.00658559
		4:[C_D_U_TITLEMD5_CATEGORY_MEAN_C<5.20572] yes=9,no=10,missing=10
			9:[D_KEYWORD_MEAN_C<108.881] yes=19,no=20,missing=20
				19:[CAT_REL<0.001012] yes=39,no=40,missing=40
					39:[DOC_AGE<37] yes=79,no=80,missing=80
						79:leaf=-0.0078487
						80:leaf=0.0100852
					40:[C_D_U_CATEGORY_AGE_MACRO_MAX_COEC<0.112566] yes=81,no=82,missing=81
						81:leaf=-0.00052784
						82:leaf=0.0107669
				20:[KW_REL<0.002839] yes=41,no=42,missing=42
					41:[D_KEYWORD_MICRO_MEAN_COEC<0.102418] yes=83,no=84,missing=84
						83:leaf=-0.00433187
						84:leaf=-0.0143317
					42:[U_KW_LEN<546] yes=85,no=86,missing=86
						85:leaf=-0.00790205
						86:leaf=0.00434225
			10:[D_KEYWORD_MACRO_MEAN_COEC<0.092249] yes=21,no=22,missing=22
				21:[U_CITY_COEC<0.060318] yes=43,no=44,missing=43
					43:[C_D_U_CATEGORY_CITY_MEAN_EC<16.0085] yes=87,no=88,missing=87
						87:leaf=-0.00590707
						88:leaf=-0.0208198
					44:[WORD_COUNT<3055] yes=89,no=90,missing=90
						89:leaf=-0.00287588
						90:leaf=0.00357042
				22:[D_PUBLISHER_COEC<0.097596] yes=45,no=46,missing=46
					45:[WORD_COUNT<2501] yes=91,no=92,missing=92
						91:leaf=0.00257706
						92:leaf=0.0163219
					46:[D_TITLEMD5_EC<4566.53] yes=93,no=94,missing=94
						93:leaf=-0.00135899
						94:leaf=0.00330462
	2:[U_CATEGORY_MEAN_EC<12695.5] yes=5,no=6,missing=6
		5:[U_KEYWORD_MICRO_MEAN_COEC<0.101347] yes=11,no=12,missing=12
			11:[D_PUBLISHER_EC<103167] yes=23,no=24,missing=24
				23:[DOC_AGE<24] yes=47,no=48,missing=48
					47:[U_KEYWORD_MICRO_MAX_COEC<0.117875] yes=95,no=96,missing=96
						95:leaf=0.00212064
						96:leaf=0.0124043
					48:[U_CATEGORY_MAX_C<391.894] yes=97,no=98,missing=98
						97:leaf=0.0260464
						98:leaf=-0.0274731
				24:[U_CITY_C<4.66228] yes=49,no=50,missing=50
					49:[D_CATEGORY_MACRO_MAX_COEC<0.09149] yes=99,no=100,missing=100
						99:leaf=-0.0330485
						100:leaf=0.126885
					50:[TIME_OF_DAY<22] yes=101,no=102,missing=102
						101:leaf=-0.0471306
						102:leaf=0.0394366
			12:[DOC_AGE<13] yes=25,no=26,missing=26
				25:[U_KEYWORD_MICRO_MAX_COEC<0.115888] yes=51,no=52,missing=51
					51:[C_D_U_PUBLISHER_AGE_C<1815.29] yes=103,no=104,missing=104
						103:leaf=-0.0317624
						104:leaf=-0.0058438
					52:[U_CATEGORY_MACRO_MEAN_COEC<0.06737] yes=105,no=106,missing=106
						105:leaf=0.00646593
						106:leaf=-0.00226659
				26:[DAY_OF_WEEK<4] yes=53,no=54,missing=54
					53:[U_CITY_C<4.66228] yes=107,no=108,missing=108
						107:leaf=-0.0361159
						108:leaf=0.00545091
					54:[U_KEYWORD_MICRO_MEAN_COEC<0.113164] yes=109,no=110,missing=109
						109:leaf=-0.0120282
						110:leaf=0.00350747
		6:[U_KW_LEN<187] yes=13,no=14,missing=14
			13:[U_KEYWORD_MICRO_MEAN_COEC<0.108796] yes=27,no=28,missing=28
				27:[C_D_U_CATEGORY_AGE_MACRO_MAX_COEC<0.115494] yes=55,no=56,missing=55
					55:[U_KW_LEN<115] yes=111,no=112,missing=112
						111:leaf=-0.0124051
						112:leaf=0.00318096
					56:[C_D_U_TITLEMD5_CATEGORY_MAX_C<11.8956] yes=113,no=114,missing=113
						113:leaf=-0.054749
						114:leaf=0.0325392
				28:[U_CATEGORY_MICRO_MEAN_COEC<0.107475] yes=57,no=58,missing=58
					57:[C_D_U_PUBLISHER_GENDER_COEC<0.150279] yes=115,no=116,missing=116
						115:leaf=-0.0242935
						116:leaf=0.0232466
					58:[U_KEYWORD_MAX_C<27.9121] yes=117,no=118,missing=118
						117:leaf=-0.0640035
						118:leaf=0.0200754
			14:[D_CATEGORY_MICRO_MEAN_COEC<0.055554] yes=29,no=30,missing=30
				29:[U_KW_LEN<392] yes=59,no=60,missing=60
					59:[C_D_U_TITLEMD5_CATEGORY_MICRO_MAX_COEC<0.273056] yes=119,no=120,missing=120
						119:leaf=0.029036
						120:leaf=-0.0517274
					60:[U_KEYWORD_MACRO_MEAN_COEC<0.028554] yes=121,no=122,missing=122
						121:leaf=0.0228753
						122:leaf=0.0770441
				30:[D_CATEGORY_MEAN_C<11250.4] yes=61,no=62,missing=62
					61:[U_KEYWORD_MACRO_MAX_COEC<0.002056] yes=123,no=124,missing=124
						123:leaf=-0.00278204
						124:leaf=0.0110426
					62:[D_PUBLISHER_EC<57018.4] yes=125,no=126,missing=126
						125:leaf=0.0254553
						126:leaf=0.0108874
booster[87]:
0:[DOC_AGE<88] yes=1,no=2,missing=2
	1:[CAT_REL<0.195901] yes=3,no=4,missing=4
		3:[U_KEYWORD_MEAN_EC<163.943] yes=7,no=8,missing=8
			7:[U_KEYWORD_MACRO_MEAN_COEC<0.040076] yes=15,no=16,missing=16
				15:[D_KEYWORD_MEAN_EC<546.339] yes=31,no=32,missing=31
					31:[D_CATEGORY_MAX_EC<41649.7] yes=63,no=64,missing=64
						63:leaf=-0.00494171
						64:leaf=0.00435853
					32:[C_D_U_KEYWORD_CATEGORY_MACRO_MEAN_COEC<0.050462] yes=65,no=66,missing=66
						65:leaf=-0.0205725
						66:leaf=-0.00677494
				16:[U_CAT_LEN<5] yes=33,no=34,missing=34
					33:[U_CATEGORY_MICRO_MEAN_COEC<0.083031] yes=67,no=68,missing=68
						67:leaf=0.00896236
						68:leaf=-0.00501856
					34:[C_D_U_CATEGORY_GENDER_MICRO_MAX_COEC<0.162147] yes=69,no=70,missing=70
						69:leaf=-0.0105157
						70:leaf=0.0214241
			8:[U_KW_LEN<1322] yes=17,no=18,missing=18
				17:[U_KEYWORD_MICRO_MAX_COEC<0.129836] yes=35,no=36,missing=36
					35:[U_CATEGORY_MICRO_MEAN_COEC<0.099393] yes=71,no=72,missing=72
						71:leaf=-0.000345093
						72:leaf=-0.0055988
					36:[U_KEYWORD_MICRO_MEAN_COEC<0.111212] yes=73,no=74,missing=73
						73:leaf=0.00042159
						74:leaf=0.00973073
				18:[C_D_U_CATEGORY_AGE_MICRO_MAX_COEC<0.111975] yes=37,no=38,missing=38
					37:[U_CITY_COEC<0.068664] yes=75,no=76,missing=76
						75:leaf=-0.0179873
						76:leaf=0.000422233
					38:[U_KEYWORD_MEAN_EC<525.566] yes=77,no=78,missing=78
						77:leaf=0.00582065
						78:leaf=0.0207171
		4:[U_KW_LEN<168] yes=9,no=10,missing=10
			9:[U_CATEGORY_MICRO_MEAN_COEC<0.088758] yes=19,no=20,missing=20
				19:[C_D_U_CATEGORY_CITY_MICRO_MAX_COEC<0.218672] yes=39,no=40,missing=39
					39:[U_KEYWORD_MICRO_MEAN_COEC<0.086762] yes=79,no=80,missing=80
						79:leaf=-0.00674082
						80:leaf=0.00928061
					40:[U_KEYWORD_MACRO_MEAN_COEC<0.058924] yes=81,no=82,missing=82
						81:leaf=0.0215754
						82:leaf=0.0679488
				20:[C_D_U_KEYWORD_CATEGORY_MACRO_MEAN_COEC<0.076547] yes=41,no=42,missing=41
					41:[DOC_AGE<25] yes=83,no=84,missing=84
						83:leaf=-0.0106388
						84:leaf=-0.0387325
					42:[U_KW_LEN<79] yes=85,no=86,missing=86
						85:leaf=-0.00784
						86:leaf=0.0028334
			10:[WORD_COUNT<3873] yes=21,no=22,missing=22
				21:[M_D_U_KEYWORD_KEYWORD_MEAN_EC<0.000143] yes=43,no=44,missing=44
					43:[KW_REL<0.000887] yes=87,no=88,missing=88
						87:leaf=0.00740673
						88:leaf=0.0424226
					44:[DOC_AGE<16] yes=89,no=90,missing=90
						89:leaf=0.0106149
						90:leaf=-0.000404271
				22:[M_D_U_KEYWORD_KEYWORD_MICRO_MEAN_COEC<0.185774] yes=45,no=46,missing=45
					45:[C_D_U_PUBLISHER_GENDER_EC<5291.91] yes=91,no=92,missing=91
						91:leaf=0.0209031
						92:leaf=0.0520942
					46:[C_D_U_TITLEMD5_CATEGORY_MAX_EC<16.517] yes=93,no=94,missing=94
						93:leaf=-0.0152354
						94:leaf=0.0330104
	2:[U_KEYWORD_MEAN_EC<313.514] yes=5,no=6,missing=5
		5:[CAT_REL<0.129693] yes=11,no=12,missing=12
			11:[U_CITY_C<65.9594] yes=23,no=24,missing=24
				23:[U_CATEGORY_MICRO_MEAN_COEC<0.105718] yes=47,no=48,missing=47
					47:[U_KEYWORD_MICRO_MEAN_COEC<0.087872] yes=95,no=96,missing=96
						95:leaf=0.0681623
						96:leaf=0.0137185
					48:[C_D_U_PUBLISHER_AGE_EC<32705.1] yes=97,no=98,missing=98
						97:leaf=-0.0567465
						98:leaf=0.16483
				24:[TIME_OF_DAY<5] yes=49,no=50,missing=50
					49:[U_CATEGORY_MAX_C<555.597] yes=99,no=100,missing=99
						99:leaf=-0.0567507
						100:leaf=0.0132707
					50:[C_D_U_TITLEMD5_CATEGORY_MEAN_EC<0.227177] yes=101,no=102,missing=102
						101:leaf=0.0300772
						102:leaf=-0.0103429
			12:[U_KEYWORD_MAX_EC<76.0977] yes=25,no=26,missing=26
				25:[C_D_U_TITLEMD5_CATEGORY_MACRO_MEAN_COEC<0.069717] yes=51,no=52,missing=51
					51:[M_D_U_KEYWORD_KEYWORD_MICRO_MEAN_COEC<0.205502] yes=103,no=104,missing=103
						103:leaf=-0.0604326
						104:leaf=0.082427
					52:[D_CATEGORY_MAX_EC<94222.5] yes=105,no=106,missing=106
						105:leaf=-0.138449
						106:leaf=-0.0318079
				26:[D_KEYWORD_MACRO_MAX_COEC<0.028752] yes=53,no=54,missing=54
					53:[C_D_U_TITLEMD5_AGE_COEC<0.141113] yes=107,no=108,missing=108
						107:leaf=0.0696191
						108:leaf=-0.0773838
					54:[D_PUBLISHER_COEC<0.125549] yes=109,no=110,missing=110
						109:leaf=0.126651
						110:leaf=-0.1009
		6:[D_TITLEMD5_EC<92.3659] yes=13,no=14,missing=14
			13:[U_KEYWORD_MACRO_MAX_COEC<0.00413] yes=27,no=28,missing=28
				27:[M_D_U_KEYWORD_KEYWORD_MACRO_MEAN_COEC<4.3e-05] yes=55,no=56,missing=55
					55:[U_CITY_COEC<0.161156] yes=111,no=112,missing=111
						111:leaf=0.075377
						112:leaf=0.181775
					56:[D_CATEGORY_MAX_EC<124590] yes=113,no=114,missing=114
						113:leaf=0.0275921
						114:leaf=0.0960481
				28:[C_D_U_TITLEMD5_CITY_C<0.542519] yes=57,no=58,missing=57
					57:[C_D_U_CATEGORY_CITY_MICRO_MEAN_COEC<0.296367] yes=115,no=116,missing=115
						115:leaf=0.00913683
						116:leaf=0.126088
					58:[U_CATEGORY_MICRO_MAX_COEC<0.1044] yes=117,no=118,missing=118
						117:leaf=0.201229
						118:leaf=0.0996038
			14:[U_CITY_EC<7460.11] yes=29,no=30,missing=30
				29:[M_D_U_KEYWORD_KEYWORD_MICRO_MAX_COEC<0.117248] yes=59,no=60,missing=59
					59:[C_D_U_TITLEMD5_CATEGORY_MICRO_MEAN_COEC<0.094764] yes=119,no=120,missing=120
						119:leaf=-0.01057
						120:leaf=0.0447727
					60:[D_CATEGORY_MACRO_MAX_COEC<0.104497] yes=121,no=122,missing=121
						121:leaf=0.0139415
						122:leaf=-0.0651007
				30:[U_CATEGORY_MICRO_MEAN_COEC<0.104058] yes=61,no=62,missing=62
					61:[U_CATEGORY_MICRO_MAX_COEC<0.107622] yes=123,no=124,missing=124
						123:leaf=-0.00499781
						124:leaf=-0.0622629
					62:[U_CATEGORY_MAX_EC<9108.3] yes=125,no=126,missing=126
						125:leaf=-0.00066821
						126:leaf=0.107235
booster[88]:
0:[D_KEYWORD_MEAN_C<119.506] yes=1,no=2,missing=1
	1:[KW_REL<0.001206] yes=3,no=4,missing=4
		3:[M_D_U_KEYWORD_KEYWORD_MAX_C<0.003529] yes=7,no=8,missing=7
			7:[C_D_U_TITLEMD5_CATEGORY_MEAN_EC<15.334] yes=15,no=16,missing=15
				15:[DOC_AGE<4] yes=31,no=32,missing=32
					31:[D_TITLEMD5_C<8.8689] yes=63,no=64,missing=63
						63:leaf=-0.00109983
						64:leaf=0.00530926
					32:[DOC_AGE<12] yes=65,no=66,missing=66
						65:leaf=-0.00392815
						66:leaf=0.000910078
				16:[U_KW_LEN<157] yes=33,no=34,missing=34
					33:[U_KEYWORD_MICRO_MAX_COEC<0.102496] yes=67,no=68,missing=67
						67:leaf=-0.0125654
						68:leaf=0.00208057
					34:[D_KEYWORD_MICRO_MAX_COEC<0.131788] yes=69,no=70,missing=70
						69:leaf=0.015324
						70:leaf=0.00408672
			8:[M_D_U_KEYWORD_KEYWORD_MACRO_MEAN_COEC<0.000133] yes=17,no=18,missing=18
				17:[C_D_U_TITLEMD5_CATEGORY_MEAN_EC<7.59298] yes=35,no=36,missing=35
					35:[C_D_U_TITLEMD5_CATEGORY_MACRO_MAX_COEC<0.013934] yes=71,no=72,missing=71
						71:leaf=-0.0164595
						72:leaf=-0.0441538
					36:[DOC_AGE<7] yes=73,no=74,missing=74
						73:leaf=0.0213557
						74:leaf=-0.0215501
				18:[C_D_U_CATEGORY_CITY_MEAN_EC<0.970372] yes=37,no=38,missing=38
					37:[D_PUBLISHER_COEC<0.055067] yes=75,no=76,missing=76
						75:leaf=0.378797
						76:leaf=0.033291
					38:[U_CATEGORY_MACRO_MAX_COEC<0.025611] yes=77,no=78,missing=78
						77:leaf=0.00211043
						78:leaf=-0.0415892
		4:[U_KW_LEN<257] yes=9,no=10,missing=10
			9:[CAT_REL<0.356228] yes=19,no=20,missing=20
				19:[C_D_U_KEYWORD_CATEGORY_MACRO_MEAN_COEC<0.054095] yes=39,no=40,missing=39
					39:[U_KEYWORD_MACRO_MAX_COEC<0.001591] yes=79,no=80,missing=80
						79:leaf=0.247009
						80:leaf=-0.0172765
					40:[U_KW_LEN<76] yes=81,no=82,missing=82
						81:leaf=-0.0130448
						82:leaf=0.00065125
				20:[U_KEYWORD_MEAN_C<29.3152] yes=41,no=42,missing=42
					41:[DOC_AGE<9] yes=83,no=84,missing=84
						83:leaf=0.0331813
						84:leaf=0.00997164
					42:[M_D_U_KEYWORD_KEYWORD_MICRO_MAX_COEC<0.13231] yes=85,no=86,missing=85
						85:leaf=-0.0236031
						86:leaf=0.00968582
			10:[C_D_U_CATEGORY_AGE_MICRO_MEAN_COEC<0.098051] yes=21,no=22,missing=22
				21:[U_KEYWORD_MACRO_MAX_COEC<0.002305] yes=43,no=44,missing=44
					43:[D_KEYWORD_MAX_EC<145.081] yes=87,no=88,missing=88
						87:leaf=0.0082693
						88:leaf=-0.00630599
					44:[U_KEYWORD_MACRO_MEAN_COEC<0.023904] yes=89,no=90,missing=90
						89:leaf=-0.0324869
						90:leaf=0.0176914
				22:[WORD_COUNT<1196] yes=45,no=46,missing=46
					45:[C_D_U_CATEGORY_CITY_MEAN_C<45.6714] yes=91,no=92,missing=92
						91:leaf=-0.00519283
						92:leaf=0.00925446
					46:[M_D_U_KEYWORD_KEYWORD_MAX_C<0.016719] yes=93,no=94,missing=93
						93:leaf=0.00956164
						94:leaf=0.0329276
	2:[C_D_U_TITLEMD5_CATEGORY_MEAN_C<3.6892] yes=5,no=6,missing=6
		5:[KW_REL<0.004911] yes=11,no=12,missing=12
			11:[D_KEYWORD_MEAN_EC<2691.96] yes=23,no=24,missing=24
				23:[D_PUBLISHER_EC<9420.11] yes=47,no=48,missing=48
					47:[D_CATEGORY_MEAN_EC<25788.8] yes=95,no=96,missing=96
						95:leaf=-0.0344523
						96:leaf=-0.0106401
					48:[D_CATEGORY_MEAN_C<4189.43] yes=97,no=98,missing=97
						97:leaf=0.00170931
						98:leaf=-0.00789289
				24:[U_KEYWORD_MAX_EC<73.5593] yes=49,no=50,missing=49
					49:[C_D_U_KEYWORD_CATEGORY_MACRO_MEAN_COEC<0.053247] yes=99,no=100,missing=100
						99:leaf=-0.0456563
						100:leaf=-0.0214078
					50:[U_KEYWORD_MICRO_MAX_COEC<0.112194] yes=101,no=102,missing=102
						101:leaf=-0.0316403
						102:leaf=-0.00958392
			12:[U_KW_LEN<578] yes=25,no=26,missing=26
				25:[M_D_U_KEYWORD_KEYWORD_MACRO_MAX_COEC<0.002117] yes=51,no=52,missing=52
					51:[D_KEYWORD_MEAN_C<449.454] yes=103,no=104,missing=104
						103:leaf=-0.00119647
						104:leaf=-0.0150074
					52:[D_KEYWORD_MICRO_MEAN_COEC<0.114884] yes=105,no=106,missing=106
						105:leaf=0.0253801
						106:leaf=-0.0117379
				26:[D_CATEGORY_MICRO_MAX_COEC<0.077818] yes=53,no=54,missing=54
					53:[U_KEYWORD_MACRO_MAX_COEC<0.001985] yes=107,no=108,missing=108
						107:leaf=-0.027461
						108:leaf=0.0122561
					54:[D_KEYWORD_MEAN_C<398.741] yes=109,no=110,missing=110
						109:leaf=0.0189598
						110:leaf=0.00109554
		6:[C_D_U_KEYWORD_CATEGORY_MICRO_MAX_COEC<0.373281] yes=13,no=14,missing=13
			13:[C_D_U_TITLEMD5_CATEGORY_MICRO_MEAN_COEC<0.367576] yes=27,no=28,missing=27
				27:[U_KEYWORD_MICRO_MEAN_COEC<0.101681] yes=55,no=56,missing=56
					55:[D_CATEGORY_MICRO_MAX_COEC<0.122524] yes=111,no=112,missing=111
						111:leaf=-0.00137957
						112:leaf=-0.0147319
					56:[D_KEYWORD_MACRO_MEAN_COEC<0.062879] yes=113,no=114,missing=114
						113:leaf=-0.0267767
						114:leaf=0.00149853
				28:[DOC_AGE<10] yes=57,no=58,missing=58
					57:[U_KEYWORD_MACRO_MAX_COEC<0.006062] yes=115,no=116,missing=116
						115:leaf=0.0436713
						116:leaf=-0.120956
					58:leaf=-0.182065
			14:[C_D_U_TITLEMD5_CATEGORY_MICRO_MEAN_COEC<0.367576] yes=29,no=30,missing=29
				29:[WORD_COUNT<4262] yes=59,no=60,missing=60
					59:[D_PUBLISHER_COEC<0.055067] yes=117,no=118,missing=118
						117:leaf=-0.0478989
						118:leaf=0.0138901
					60:[D_CATEGORY_MACRO_MAX_COEC<0.139611] yes=119,no=120,missing=120
						119:leaf=0.00561967
						120:leaf=-0.0452421
				30:[D_PUBLISHER_C<12644.2] yes=61,no=62,missing=62
					61:[D_KEYWORD_MACRO_MAX_COEC<0.029457] yes=121,no=122,missing=122
						121:leaf=0.0823396
						122:leaf=0.0426822
					62:[U_CITY_COEC<0.133605] yes=123,no=124,missing=123
						123:leaf=0.0222585
						124:leaf=-0.19154
booster[89]:
0:[C_D_U_TITLEMD5_CATEGORY_MACRO_MEAN_COEC<0.309647] yes=1,no=2,missing=1
	1:[WORD_COUNT<619] yes=3,no=4,missing=4
		3:[D_KEYWORD_MEAN_EC<1460.23] yes=7,no=8,missing=7
			7:[D_KEYWORD_MICRO_MAX_COEC<0.176998] yes=15,no=16,missing=15
				15:[D_PUBLISHER_COEC<0.104483] yes=31,no=32,missing=31
					31:[M_D_U_KEYWORD_KEYWORD_MICRO_MAX_COEC<0.111348] yes=63,no=64,missing=64
						63:leaf=-0.0215929
						64:leaf=-0.00420804
					32:[C_D_U_PUBLISHER_GENDER_EC<3795.75] yes=65,no=66,missing=65
						65:leaf=0.00618308
						66:leaf=-0.0468636
				16:[D_KEYWORD_MAX_EC<203.494] yes=33,no=34,missing=34
					33:[KW_REL<0.001086] yes=67,no=68,missing=68
						67:leaf=0.00721791
						68:leaf=-0.0533217
					34:[D_TITLEMD5_COEC<0.09012] yes=69,no=70,missing=69
						69:leaf=-0.0726354
						70:leaf=-0.0267484
			8:[D_KEYWORD_MAX_EC<2641.1] yes=17,no=18,missing=18
				17:[D_CATEGORY_MACRO_MEAN_COEC<0.086163] yes=35,no=36,missing=35
					35:[U_CITY_EC<2777.79] yes=71,no=72,missing=71
						71:leaf=0.0014864
						72:leaf=-0.0316552
					36:[D_CATEGORY_MACRO_MAX_COEC<0.071738] yes=73,no=74,missing=74
						73:leaf=-0.0556345
						74:leaf=-0.0206019
				18:[CAT_REL<0.023441] yes=37,no=38,missing=38
					37:[C_D_U_PUBLISHER_CITY_C<19.0603] yes=75,no=76,missing=76
						75:leaf=0.0543183
						76:leaf=-0.0110513
					38:[C_D_U_CATEGORY_GENDER_MAX_C<782.12] yes=77,no=78,missing=77
						77:leaf=-0.0121831
						78:leaf=0.168328
		4:[C_D_U_TITLEMD5_CATEGORY_MICRO_MEAN_COEC<0.108552] yes=9,no=10,missing=10
			9:[D_KEYWORD_MEAN_EC<475.563] yes=19,no=20,missing=20
				19:[KW_REL<0.000105] yes=39,no=40,missing=40
					39:[D_CATEGORY_MEAN_C<559.838] yes=79,no=80,missing=79
						79:leaf=0.00710455
						80:leaf=-0.00443487
					40:[U_CATEGORY_MICRO_MEAN_COEC<0.091001] yes=81,no=82,missing=82
						81:leaf=0.0047913
						82:leaf=0.0124584
				20:[C_D_U_KEYWORD_CATEGORY_MICRO_MEAN_COEC<0.133417] yes=41,no=42,missing=42
					41:[C_D_U_KEYWORD_CATEGORY_MACRO_MAX_COEC<0.003485] yes=83,no=84,missing=84
						83:leaf=-0.00772388
						84:leaf=8.52451e-05
					42:[D_KEYWORD_MEAN_C<442.005] yes=85,no=86,missing=86
						85:leaf=0.0180189
						86:leaf=-0.00836481
			10:[C_D_U_TITLEMD5_CATEGORY_MEAN_EC<4.13799] yes=21,no=22,missing=22
				21:[D_TITLEMD5_COEC<0.142285] yes=43,no=44,missing=44
					43:[D_KEYWORD_MICRO_MEAN_COEC<0.094536] yes=87,no=88,missing=88
						87:leaf=-0.00536718
						88:leaf=-0.0139302
					44:[D_TITLEMD5_C<1.99] yes=89,no=90,missing=90
						89:leaf=-0.0181395
						90:leaf=0.00277511
				22:[D_KEYWORD_MACRO_MEAN_COEC<0.04812] yes=45,no=46,missing=46
					45:[D_KEYWORD_MACRO_MAX_COEC<0.008484] yes=91,no=92,missing=92
						91:leaf=-0.0170567
						92:leaf=-0.00587555
					46:[U_KW_LEN<994] yes=93,no=94,missing=94
						93:leaf=0.000352061
						94:leaf=0.00687868
	2:[U_CAT_LEN<9] yes=5,no=6,missing=6
		5:[C_D_U_TITLEMD5_CATEGORY_MEAN_C<0.09919] yes=11,no=12,missing=12
			11:[U_CITY_EC<4113.98] yes=23,no=24,missing=24
				23:[DOC_AGE<47] yes=47,no=48,missing=48
					47:[WORD_COUNT<2501] yes=95,no=96,missing=96
						95:leaf=-0.0082216
						96:leaf=-0.0601331
					48:[CAT_REL<0.113189] yes=97,no=98,missing=98
						97:leaf=0.0432853
						98:leaf=0.21837
				24:[C_D_U_CATEGORY_CITY_MACRO_MAX_COEC<0.078374] yes=49,no=50,missing=50
					49:[DAY_OF_WEEK<6] yes=99,no=100,missing=100
						99:leaf=-0.125371
						100:leaf=-0.0142849
					50:[C_D_U_KEYWORD_CATEGORY_MAX_EC<0.72562] yes=101,no=102,missing=102
						101:leaf=-0.0850669
						102:leaf=-0.024363
			12:[C_D_U_TITLEMD5_CITY_COEC<0.50877] yes=25,no=26,missing=25
				25:[U_CATEGORY_MEAN_C<1313.91] yes=51,no=52,missing=52
					51:[U_KEYWORD_MICRO_MEAN_COEC<0.086721] yes=103,no=104,missing=103
						103:leaf=-0.00903681
						104:leaf=0.0190793
					52:[C_D_U_KEYWORD_CATEGORY_MICRO_MAX_COEC<0.298221] yes=105,no=106,missing=106
						105:leaf=-0.0420605
						106:leaf=0.00167179
				26:[D_TITLEMD5_C<39.3959] yes=53,no=54,missing=54
					53:[C_D_U_TITLEMD5_CITY_C<0.759047] yes=107,no=108,missing=108
						107:leaf=-0.0839027
						108:leaf=0.0979229
					54:[C_D_U_KEYWORD_CATEGORY_MICRO_MAX_COEC<0.298221] yes=109,no=110,missing=110
						109:leaf=-0.148703
						110:leaf=0.0258579
		6:[U_CITY_C<3596.42] yes=13,no=14,missing=14
			13:[C_D_U_TITLEMD5_CITY_COEC<0.48747] yes=27,no=28,missing=27
				27:[D_KEYWORD_MICRO_MAX_COEC<0.110196] yes=55,no=56,missing=56
					55:[U_CATEGORY_MAX_EC<3201.26] yes=111,no=112,missing=112
						111:leaf=0.0652033
						112:leaf=0.204412
					56:[U_CATEGORY_MACRO_MAX_COEC<0.02385] yes=113,no=114,missing=114
						113:leaf=0.0264864
						114:leaf=-0.0270928
				28:[C_D_U_TITLEMD5_CITY_C<0.725565] yes=57,no=58,missing=58
					57:leaf=-0.0853153
					58:[TIME_OF_DAY<0.999999] yes=115,no=116,missing=116
						115:leaf=-0.0455497
						116:leaf=0.10395
			14:[C_D_U_KEYWORD_CATEGORY_MEAN_C<0.159583] yes=29,no=30,missing=30
				29:[D_TITLEMD5_COEC<0.060264] yes=59,no=60,missing=60
					59:[U_KW_LEN<474] yes=117,no=118,missing=118
						117:leaf=0.50323
						118:leaf=0.240762
					60:[D_TITLEMD5_C<5.21633] yes=119,no=120,missing=120
						119:leaf=0.226134
						120:leaf=0.0548236
				30:[D_TITLEMD5_COEC<0.249528] yes=61,no=62,missing=62
					61:[D_CATEGORY_MAX_EC<73301.2] yes=121,no=122,missing=121
						121:leaf=0.121587
						122:leaf=0.012031
					62:[U_CATEGORY_MEAN_EC<2523.83] yes=123,no=124,missing=124
						123:leaf=0.190228
						124:leaf=0.0163544
