booster[0]:
0:[C_D_U_TITLEMD5_CATEGORY_MICRO_MAX_COEC<0.113106] yes=1,no=2,missing=1
	1:[D_KEYWORD_MACRO_MEAN_COEC<0.103001] yes=3,no=4,missing=3
		3:[CAT_REL<0.000906] yes=7,no=8,missing=8
			7:[D_TITLEMD5_COEC<0.095791] yes=15,no=16,missing=15
				15:[C_D_U_TITLEMD5_CATEGORY_MICRO_MAX_COEC<0.04784] yes=31,no=32,missing=31
					31:[DOC_AGE<129] yes=63,no=64,missing=64
						63:leaf=-0.176249
						64:leaf=-0.150921
					32:[D_CATEGORY_MACRO_MAX_COEC<0.212087] yes=65,no=66,missing=66
						65:leaf=-0.153975
						66:leaf=-0.124039
				16:[DOC_AGE<129] yes=33,no=34,missing=34
					33:[C_D_U_TITLEMD5_CATEGORY_MICRO_MAX_COEC<0.073369] yes=67,no=68,missing=67
						67:leaf=-0.153396
						68:leaf=-0.125876
					34:[D_CATEGORY_MACRO_MAX_COEC<0.082006] yes=69,no=70,missing=70
						69:leaf=-0.122985
						70:leaf=-0.0884639
			8:[D_TITLEMD5_COEC<0.077421] yes=17,no=18,missing=17
				17:[D_TITLEMD5_COEC<0.049114] yes=35,no=36,missing=35
					35:[C_D_U_CATEGORY_CITY_MACRO_MEAN_COEC<0.115425] yes=71,no=72,missing=71
						71:leaf=-0.161731
						72:leaf=-0.13323
					36:[C_D_U_KEYWORD_CATEGORY_MICRO_MEAN_COEC<0.110889] yes=73,no=74,missing=74
						73:leaf=-0.136232
						74:leaf=-0.107669
				18:[U_CATEGORY_MACRO_MAX_COEC<0.019681] yes=37,no=38,missing=38
					37:[D_TITLEMD5_COEC<0.101228] yes=75,no=76,missing=76
						75:leaf=-0.0873704
						76:leaf=-0.0603953
					38:[D_TITLEMD5_COEC<0.093704] yes=77,no=78,missing=78
						77:leaf=-0.12349
						78:leaf=-0.0971187
		4:[D_TITLEMD5_COEC<0.151225] yes=9,no=10,missing=9
			9:[CAT_REL<0.000906] yes=19,no=20,missing=20
				19:[D_TITLEMD5_COEC<0.130121] yes=39,no=40,missing=39
					39:[DOC_AGE<129] yes=79,no=80,missing=80
						79:leaf=-0.13506
						80:leaf=-0.0971899
					40:[U_CATEGORY_MACRO_MAX_COEC<0.022215] yes=81,no=82,missing=82
						81:leaf=-0.0767484
						82:leaf=-0.114906
				20:[D_TITLEMD5_COEC<0.08617] yes=41,no=42,missing=42
					41:[D_TITLEMD5_COEC<0.064335] yes=83,no=84,missing=84
						83:leaf=-0.14183
						84:leaf=-0.108244
					42:[U_CATEGORY_MACRO_MAX_COEC<0.024881] yes=85,no=86,missing=86
						85:leaf=-0.0455051
						86:leaf=-0.0859684
			10:[D_KEYWORD_MACRO_MAX_COEC<0.07472] yes=21,no=22,missing=22
				21:[CAT_REL<0.000906] yes=43,no=44,missing=44
					43:[D_CATEGORY_MACRO_MEAN_COEC<0.098327] yes=87,no=88,missing=88
						87:leaf=-0.111308
						88:leaf=-0.0841118
					44:[U_CATEGORY_MACRO_MAX_COEC<0.027729] yes=89,no=90,missing=90
						89:leaf=-0.024823
						90:leaf=-0.0714877
				22:[D_PUBLISHER_COEC<0.103902] yes=45,no=46,missing=46
					45:[DOC_AGE<129] yes=91,no=92,missing=92
						91:leaf=-0.115434
						92:leaf=-0.0553926
					46:[DOC_AGE<129] yes=93,no=94,missing=94
						93:leaf=-0.0587317
						94:leaf=-0.00595956
	2:[CAT_REL<0.000906] yes=5,no=6,missing=6
		5:[D_KEYWORD_MACRO_MEAN_COEC<0.103001] yes=11,no=12,missing=12
			11:[D_TITLEMD5_COEC<0.097465] yes=23,no=24,missing=24
				23:[C_D_U_KEYWORD_CATEGORY_MICRO_MEAN_COEC<0.104164] yes=47,no=48,missing=48
					47:[D_TITLEMD5_COEC<0.068736] yes=95,no=96,missing=96
						95:leaf=-0.171749
						96:leaf=-0.147523
					48:[D_CATEGORY_MACRO_MAX_COEC<0.212087] yes=97,no=98,missing=98
						97:leaf=-0.122674
						98:leaf=-0.0660319
				24:[C_D_U_KEYWORD_CATEGORY_MICRO_MEAN_COEC<0.118496] yes=49,no=50,missing=50
					49:[D_KEYWORD_MICRO_MAX_COEC<0.133859] yes=99,no=100,missing=100
						99:leaf=-0.11194
						100:leaf=-0.0909928
					50:[U_CATEGORY_MACRO_MAX_COEC<0.025568] yes=101,no=102,missing=102
						101:leaf=-0.0602351
						102:leaf=-0.0930266
			12:[C_D_U_TITLEMD5_CATEGORY_MICRO_MAX_COEC<0.172269] yes=25,no=26,missing=26
				25:[U_CATEGORY_MACRO_MAX_COEC<0.020894] yes=51,no=52,missing=52
					51:[D_TITLEMD5_COEC<0.144947] yes=103,no=104,missing=104
						103:leaf=-0.0674733
						104:leaf=-0.0415923
					52:[D_TITLEMD5_COEC<0.148537] yes=105,no=106,missing=106
						105:leaf=-0.0939598
						106:leaf=-0.0683759
				26:[U_CATEGORY_MACRO_MAX_COEC<0.020894] yes=53,no=54,missing=54
					53:[D_CATEGORY_MICRO_MEAN_COEC<0.113961] yes=107,no=108,missing=108
						107:leaf=-0.0188976
						108:leaf=0.0213454
					54:[D_CATEGORY_MACRO_MAX_COEC<0.11415] yes=109,no=110,missing=110
						109:leaf=-0.0521921
						110:leaf=-0.018768
		6:[D_TITLEMD5_COEC<0.11232] yes=13,no=14,missing=14
			13:[C_D_U_KEYWORD_CATEGORY_MICRO_MEAN_COEC<0.116971] yes=27,no=28,missing=28
				27:[D_TITLEMD5_COEC<0.082872] yes=55,no=56,missing=56
					55:[D_TITLEMD5_COEC<0.064335] yes=111,no=112,missing=112
						111:leaf=-0.13567
						112:leaf=-0.106468
					56:[U_CATEGORY_MACRO_MAX_COEC<0.030143] yes=113,no=114,missing=114
						113:leaf=-0.0639185
						114:leaf=-0.100366
				28:[U_CATEGORY_MACRO_MAX_COEC<0.027729] yes=57,no=58,missing=58
					57:[D_TITLEMD5_COEC<0.082872] yes=115,no=116,missing=116
						115:leaf=-0.0641535
						116:leaf=-0.0207476
					58:[C_D_U_TITLEMD5_CATEGORY_MICRO_MAX_COEC<0.172269] yes=117,no=118,missing=118
						117:leaf=-0.0837363
						118:leaf=-0.0425926
			14:[C_D_U_KEYWORD_CATEGORY_MICRO_MAX_COEC<0.190762] yes=29,no=30,missing=30
				29:[U_CATEGORY_MACRO_MAX_COEC<0.022215] yes=59,no=60,missing=60
					59:[C_D_U_KEYWORD_CATEGORY_MICRO_MEAN_COEC<0.119962] yes=119,no=120,missing=120
						119:leaf=-0.0222048
						120:leaf=0.00151159
					60:[C_D_U_TITLEMD5_CATEGORY_MICRO_MAX_COEC<0.156924] yes=121,no=122,missing=122
						121:leaf=-0.0595387
						122:leaf=-0.0357987
				30:[U_CATEGORY_MACRO_MAX_COEC<0.021904] yes=61,no=62,missing=62
					61:[C_D_U_KEYWORD_CATEGORY_MICRO_MEAN_COEC<0.12151] yes=123,no=124,missing=124
						123:leaf=-0.00660563
						124:leaf=0.0396848
					62:[C_D_U_KEYWORD_CATEGORY_MICRO_MEAN_COEC<0.140392] yes=125,no=126,missing=126
						125:leaf=-0.0260499
						126:leaf=0.00352038
booster[1]:
0:[C_D_U_TITLEMD5_CATEGORY_MICRO_MAX_COEC<0.107977] yes=1,no=2,missing=1
	1:[D_TITLEMD5_COEC<0.118819] yes=3,no=4,missing=3
		3:[CAT_REL<0.00089] yes=7,no=8,missing=8
			7:[D_TITLEMD5_COEC<0.068093] yes=15,no=16,missing=15
				15:[C_D_U_TITLEMD5_CATEGORY_MICRO_MAX_COEC<0.027283] yes=31,no=32,missing=31
					31:[DOC_AGE<133] yes=63,no=64,missing=64
						63:leaf=-0.166767
						64:leaf=-0.148239
					32:[C_D_U_KEYWORD_CATEGORY_MICRO_MEAN_COEC<0.121378] yes=65,no=66,missing=66
						65:leaf=-0.152174
						66:leaf=-0.133261
				16:[DOC_AGE<79] yes=33,no=34,missing=34
					33:[C_D_U_KEYWORD_CATEGORY_MICRO_MEAN_COEC<0.077801] yes=67,no=68,missing=67
						67:leaf=-0.147967
						68:leaf=-0.127249
					34:[D_KEYWORD_MACRO_MEAN_COEC<0.087167] yes=69,no=70,missing=70
						69:leaf=-0.117902
						70:leaf=-0.0935744
			8:[D_TITLEMD5_COEC<0.073239] yes=17,no=18,missing=17
				17:[D_TITLEMD5_COEC<0.040975] yes=35,no=36,missing=36
					35:[C_D_U_CATEGORY_CITY_MACRO_MEAN_COEC<0.11895] yes=71,no=72,missing=71
						71:leaf=-0.150703
						72:leaf=-0.126554
					36:[C_D_U_CATEGORY_CITY_MICRO_MEAN_COEC<0.142348] yes=73,no=74,missing=73
						73:leaf=-0.124626
						74:leaf=-0.0813004
				18:[U_CATEGORY_MACRO_MAX_COEC<0.016928] yes=37,no=38,missing=38
					37:[C_D_U_CATEGORY_CITY_MACRO_MAX_COEC<0.105461] yes=75,no=76,missing=75
						75:leaf=-0.0798696
						76:leaf=-0.0475685
					38:[D_TITLEMD5_COEC<0.094111] yes=77,no=78,missing=78
						77:leaf=-0.110007
						78:leaf=-0.0880868
		4:[D_KEYWORD_MACRO_MEAN_COEC<0.121428] yes=9,no=10,missing=10
			9:[CAT_REL<0.00089] yes=19,no=20,missing=20
				19:[D_PUBLISHER_COEC<0.103167] yes=39,no=40,missing=40
					39:[D_KEYWORD_MICRO_MEAN_COEC<0.104173] yes=79,no=80,missing=80
						79:leaf=-0.13474
						80:leaf=-0.111659
					40:[D_CATEGORY_MICRO_MAX_COEC<0.096849] yes=81,no=82,missing=82
						81:leaf=-0.118151
						82:leaf=-0.0987823
				20:[U_CATEGORY_MACRO_MAX_COEC<0.030978] yes=41,no=42,missing=42
					41:[D_KEYWORD_MACRO_MEAN_COEC<0.081094] yes=83,no=84,missing=84
						83:leaf=-0.0843492
						84:leaf=-0.0421019
					42:[D_PUBLISHER_COEC<0.113317] yes=85,no=86,missing=86
						85:leaf=-0.0984969
						86:leaf=-0.0691132
			10:[DOC_AGE<79] yes=21,no=22,missing=22
				21:[D_KEYWORD_MICRO_MAX_COEC<0.181404] yes=43,no=44,missing=44
					43:[D_PUBLISHER_COEC<0.157874] yes=87,no=88,missing=88
						87:leaf=-0.0866477
						88:leaf=-0.036018
					44:[D_PUBLISHER_COEC<0.096112] yes=89,no=90,missing=90
						89:leaf=-0.105565
						90:leaf=-0.0546955
				22:[D_KEYWORD_MICRO_MAX_COEC<0.175184] yes=45,no=46,missing=46
					45:[C_D_U_CATEGORY_CITY_MACRO_MEAN_COEC<0.100725] yes=91,no=92,missing=92
						91:leaf=-0.0687234
						92:leaf=-0.0329338
					46:[D_PUBLISHER_COEC<0.10066] yes=93,no=94,missing=94
						93:leaf=-0.15017
						94:leaf=-0.00315391
	2:[C_D_U_KEYWORD_CATEGORY_MICRO_MEAN_COEC<0.134444] yes=5,no=6,missing=6
		5:[CAT_REL<0.00089] yes=11,no=12,missing=12
			11:[D_TITLEMD5_COEC<0.123926] yes=23,no=24,missing=24
				23:[D_TITLEMD5_COEC<0.094111] yes=47,no=48,missing=48
					47:[C_D_U_KEYWORD_CATEGORY_MICRO_MEAN_COEC<0.095607] yes=95,no=96,missing=96
						95:leaf=-0.14476
						96:leaf=-0.120333
					48:[D_CATEGORY_MACRO_MEAN_COEC<0.110851] yes=97,no=98,missing=98
						97:leaf=-0.103748
						98:leaf=-0.0650521
				24:[U_CATEGORY_MACRO_MAX_COEC<0.018426] yes=49,no=50,missing=50
					49:[D_KEYWORD_MICRO_MAX_COEC<0.147416] yes=99,no=100,missing=100
						99:leaf=-0.0632658
						100:leaf=-0.0324869
					50:[D_KEYWORD_MACRO_MEAN_COEC<0.123361] yes=101,no=102,missing=102
						101:leaf=-0.0811104
						102:leaf=-0.0552521
			12:[D_TITLEMD5_COEC<0.101948] yes=25,no=26,missing=26
				25:[D_TITLEMD5_COEC<0.078138] yes=51,no=52,missing=52
					51:[C_D_U_CATEGORY_CITY_MICRO_MEAN_COEC<0.164879] yes=103,no=104,missing=103
						103:leaf=-0.107162
						104:leaf=-0.0384183
					52:[U_CATEGORY_MACRO_MAX_COEC<0.019719] yes=105,no=106,missing=106
						105:leaf=-0.0504356
						106:leaf=-0.0804676
				26:[U_CATEGORY_MACRO_MAX_COEC<0.019719] yes=53,no=54,missing=54
					53:[D_TITLEMD5_COEC<0.127674] yes=107,no=108,missing=108
						107:leaf=-0.0294124
						108:leaf=-0.00226616
					54:[D_TITLEMD5_COEC<0.145086] yes=109,no=110,missing=110
						109:leaf=-0.0553331
						110:leaf=-0.0311951
		6:[C_D_U_TITLEMD5_CATEGORY_MICRO_MAX_COEC<0.200787] yes=13,no=14,missing=14
			13:[CAT_REL<0.00089] yes=27,no=28,missing=28
				27:[D_TITLEMD5_COEC<0.125819] yes=55,no=56,missing=56
					55:[U_CATEGORY_MACRO_MAX_COEC<0.030978] yes=111,no=112,missing=112
						111:leaf=-0.0703981
						112:leaf=-0.0998916
					56:[U_CATEGORY_MACRO_MAX_COEC<0.02495] yes=113,no=114,missing=114
						113:leaf=-0.0249852
						114:leaf=-0.0567772
				28:[U_CATEGORY_MACRO_MAX_COEC<0.022181] yes=57,no=58,missing=58
					57:[D_TITLEMD5_COEC<0.089884] yes=115,no=116,missing=116
						115:leaf=-0.03849
						116:leaf=0.0043433
					58:[C_D_U_TITLEMD5_CATEGORY_MICRO_MAX_COEC<0.163367] yes=117,no=118,missing=118
						117:leaf=-0.0572818
						118:leaf=-0.0270604
			14:[CAT_REL<0.00089] yes=29,no=30,missing=30
				29:[D_TITLEMD5_COEC<0.128225] yes=59,no=60,missing=60
					59:[D_CATEGORY_MACRO_MAX_COEC<0.221191] yes=119,no=120,missing=120
						119:leaf=-0.0682487
						120:leaf=-0.00885769
					60:[U_CATEGORY_MACRO_MAX_COEC<0.024317] yes=121,no=122,missing=122
						121:leaf=0.00447727
						122:leaf=-0.0304814
				30:[U_CATEGORY_MACRO_MAX_COEC<0.02262] yes=61,no=62,missing=62
					61:[D_TITLEMD5_COEC<0.109483] yes=123,no=124,missing=124
						123:leaf=-0.000301543
						124:leaf=0.0413795
					62:[C_D_U_KEYWORD_CATEGORY_MICRO_MAX_COEC<0.236471] yes=125,no=126,missing=126
						125:leaf=-0.0121411
						126:leaf=0.0138913
booster[2]:
0:[C_D_U_TITLEMD5_CATEGORY_MICRO_MAX_COEC<0.103608] yes=1,no=2,missing=1
	1:[D_KEYWORD_MACRO_MEAN_COEC<0.102916] yes=3,no=4,missing=3
		3:[CAT_REL<0.000901] yes=7,no=8,missing=8
			7:[D_TITLEMD5_COEC<0.094346] yes=15,no=16,missing=15
				15:[C_D_U_TITLEMD5_CATEGORY_MICRO_MAX_COEC<0.034959] yes=31,no=32,missing=31
					31:[DOC_AGE<125] yes=63,no=64,missing=64
						63:leaf=-0.148503
						64:leaf=-0.126688
					32:[D_CATEGORY_MACRO_MAX_COEC<0.130179] yes=65,no=66,missing=66
						65:leaf=-0.130661
						66:leaf=-0.104145
				16:[DOC_AGE<78] yes=33,no=34,missing=34
					33:[U_CATEGORY_MACRO_MAX_COEC<0.023775] yes=67,no=68,missing=68
						67:leaf=-0.103402
						68:leaf=-0.128831
					34:[DOC_AGE<189] yes=69,no=70,missing=70
						69:leaf=-0.089617
						70:leaf=-0.0684227
			8:[D_TITLEMD5_COEC<0.079029] yes=17,no=18,missing=17
				17:[D_TITLEMD5_COEC<0.054821] yes=35,no=36,missing=35
					35:[C_D_U_CATEGORY_CITY_MACRO_MAX_COEC<0.1145] yes=71,no=72,missing=71
						71:leaf=-0.133541
						72:leaf=-0.106469
					36:[C_D_U_CATEGORY_CITY_MACRO_MEAN_COEC<0.18155] yes=73,no=74,missing=73
						73:leaf=-0.106621
						74:leaf=-0.0474134
				18:[U_CATEGORY_MACRO_MAX_COEC<0.025459] yes=37,no=38,missing=38
					37:[C_D_U_CATEGORY_CITY_MACRO_MEAN_COEC<0.098188] yes=75,no=76,missing=75
						75:leaf=-0.0769246
						76:leaf=-0.051951
					38:[D_TITLEMD5_COEC<0.10028] yes=77,no=78,missing=78
						77:leaf=-0.109664
						78:leaf=-0.0889
		4:[D_TITLEMD5_COEC<0.14868] yes=9,no=10,missing=9
			9:[CAT_REL<0.000901] yes=19,no=20,missing=20
				19:[D_TITLEMD5_COEC<0.101903] yes=39,no=40,missing=39
					39:[DOC_AGE<125] yes=79,no=80,missing=80
						79:leaf=-0.129845
						80:leaf=-0.0999837
					40:[DOC_AGE<125] yes=81,no=82,missing=82
						81:leaf=-0.101767
						82:leaf=-0.0631097
				20:[D_TITLEMD5_COEC<0.08996] yes=41,no=42,missing=41
					41:[D_TITLEMD5_COEC<0.064747] yes=83,no=84,missing=84
						83:leaf=-0.120077
						84:leaf=-0.0863066
					42:[U_CATEGORY_MACRO_MAX_COEC<0.020054] yes=85,no=86,missing=86
						85:leaf=-0.0299322
						86:leaf=-0.0672006
			10:[DOC_AGE<78] yes=21,no=22,missing=22
				21:[D_KEYWORD_MACRO_MAX_COEC<0.062195] yes=43,no=44,missing=44
					43:[CAT_REL<0.000901] yes=87,no=88,missing=88
						87:leaf=-0.0808536
						88:leaf=-0.0320178
					44:[WORD_COUNT<5480] yes=89,no=90,missing=90
						89:leaf=-0.060835
						90:leaf=-0.017346
				22:[D_KEYWORD_MICRO_MAX_COEC<0.175286] yes=45,no=46,missing=46
					45:[DOC_AGE<189] yes=91,no=92,missing=92
						91:leaf=-0.0389578
						92:leaf=0.00953021
					46:[D_PUBLISHER_COEC<0.100912] yes=93,no=94,missing=94
						93:leaf=-0.144045
						94:leaf=-0.00234063
	2:[C_D_U_KEYWORD_CATEGORY_MICRO_MEAN_COEC<0.128377] yes=5,no=6,missing=6
		5:[CAT_REL<0.000901] yes=11,no=12,missing=12
			11:[D_TITLEMD5_COEC<0.118991] yes=23,no=24,missing=24
				23:[D_TITLEMD5_COEC<0.092604] yes=47,no=48,missing=48
					47:[D_CATEGORY_MICRO_MAX_COEC<0.104611] yes=95,no=96,missing=96
						95:leaf=-0.126749
						96:leaf=-0.0987781
					48:[C_D_U_KEYWORD_CATEGORY_MICRO_MEAN_COEC<0.099674] yes=97,no=98,missing=98
						97:leaf=-0.109036
						98:leaf=-0.0851501
				24:[D_KEYWORD_MICRO_MAX_COEC<0.147184] yes=49,no=50,missing=50
					49:[C_D_U_KEYWORD_CATEGORY_MICRO_MEAN_COEC<0.098417] yes=99,no=100,missing=100
						99:leaf=-0.0876591
						100:leaf=-0.0669119
					50:[U_CATEGORY_MACRO_MAX_COEC<0.019677] yes=101,no=102,missing=102
						101:leaf=-0.0347649
						102:leaf=-0.0601422
			12:[D_TITLEMD5_COEC<0.109767] yes=25,no=26,missing=26
				25:[D_TITLEMD5_COEC<0.079029] yes=51,no=52,missing=52
					51:[C_D_U_KEYWORD_CATEGORY_MICRO_MEAN_COEC<0.093268] yes=103,no=104,missing=104
						103:leaf=-0.112521
						104:leaf=-0.084643
					52:[U_CATEGORY_MACRO_MAX_COEC<0.019677] yes=105,no=106,missing=106
						105:leaf=-0.0454482
						106:leaf=-0.0718013
				26:[U_CATEGORY_MACRO_MAX_COEC<0.026817] yes=53,no=54,missing=54
					53:[D_KEYWORD_MICRO_MAX_COEC<0.143863] yes=107,no=108,missing=108
						107:leaf=-0.027213
						108:leaf=-0.00475575
					54:[C_D_U_TITLEMD5_CATEGORY_MICRO_MAX_COEC<0.148644] yes=109,no=110,missing=110
						109:leaf=-0.0613808
						110:leaf=-0.0379888
		6:[C_D_U_TITLEMD5_CATEGORY_MICRO_MAX_COEC<0.187853] yes=13,no=14,missing=14
			13:[CAT_REL<0.000901] yes=27,no=28,missing=28
				27:[D_TITLEMD5_COEC<0.110945] yes=55,no=56,missing=56
					55:[D_CATEGORY_MACRO_MAX_COEC<0.221191] yes=111,no=112,missing=112
						111:leaf=-0.0895972
						112:leaf=-0.0459219
					56:[U_CATEGORY_MACRO_MAX_COEC<0.02492] yes=113,no=114,missing=114
						113:leaf=-0.0330499
						114:leaf=-0.0602802
				28:[U_CATEGORY_MACRO_MAX_COEC<0.029338] yes=57,no=58,missing=58
					57:[D_TITLEMD5_COEC<0.08878] yes=115,no=116,missing=116
						115:leaf=-0.0437267
						116:leaf=-0.00849814
					58:[D_TITLEMD5_COEC<0.110945] yes=117,no=118,missing=118
						117:leaf=-0.0668659
						118:leaf=-0.0378413
			14:[CAT_REL<0.000901] yes=29,no=30,missing=30
				29:[D_TITLEMD5_COEC<0.134203] yes=59,no=60,missing=60
					59:[C_D_U_TITLEMD5_CATEGORY_MACRO_MAX_COEC<0.057586] yes=119,no=120,missing=120
						119:leaf=-0.0414602
						120:leaf=-0.0736355
					60:[U_CATEGORY_MACRO_MAX_COEC<0.021683] yes=121,no=122,missing=122
						121:leaf=0.00476343
						122:leaf=-0.0272079
				30:[U_CATEGORY_MACRO_MAX_COEC<0.027521] yes=61,no=62,missing=62
					61:[D_TITLEMD5_COEC<0.112191] yes=123,no=124,missing=124
						123:leaf=-0.0032545
						124:leaf=0.0303848
					62:[C_D_U_KEYWORD_CATEGORY_MICRO_MAX_COEC<0.237033] yes=125,no=126,missing=126
						125:leaf=-0.0205134
						126:leaf=0.00706373
booster[3]:
0:[C_D_U_TITLEMD5_CATEGORY_MICRO_MAX_COEC<0.098239] yes=1,no=2,missing=1
	1:[D_TITLEMD5_COEC<0.122752] yes=3,no=4,missing=3
		3:[CAT_REL<0.000922] yes=7,no=8,missing=8
			7:[D_TITLEMD5_COEC<0.098654] yes=15,no=16,missing=15
				15:[D_TITLEMD5_COEC<0.061143] yes=31,no=32,missing=31
					31:[U_CATEGORY_MACRO_MAX_COEC<0.029248] yes=63,no=64,missing=64
						63:leaf=-0.134983
						64:leaf=-0.144813
					32:[DOC_AGE<132] yes=65,no=66,missing=66
						65:leaf=-0.127578
						66:leaf=-0.0867793
				16:[DOC_AGE<132] yes=33,no=34,missing=34
					33:[D_CATEGORY_MACRO_MAX_COEC<0.098767] yes=67,no=68,missing=68
						67:leaf=-0.119718
						68:leaf=-0.103619
					34:[D_TITLEMD5_COEC<0.106455] yes=69,no=70,missing=70
						69:leaf=-0.0780505
						70:leaf=-0.0627649
			8:[D_TITLEMD5_COEC<0.07251] yes=17,no=18,missing=17
				17:[D_TITLEMD5_COEC<0.041544] yes=35,no=36,missing=35
					35:[C_D_U_KEYWORD_CATEGORY_MICRO_MEAN_COEC<0.108171] yes=71,no=72,missing=71
						71:leaf=-0.129049
						72:leaf=-0.111836
					36:[U_CITY_COEC<0.071455] yes=73,no=74,missing=74
						73:leaf=-0.132223
						74:leaf=-0.0985759
				18:[U_CATEGORY_MACRO_MAX_COEC<0.019669] yes=37,no=38,missing=38
					37:[D_TITLEMD5_COEC<0.093067] yes=75,no=76,missing=76
						75:leaf=-0.0737243
						76:leaf=-0.0504207
					38:[D_TITLEMD5_COEC<0.093067] yes=77,no=78,missing=78
						77:leaf=-0.0995502
						78:leaf=-0.0784142
		4:[D_KEYWORD_MACRO_MEAN_COEC<0.117783] yes=9,no=10,missing=10
			9:[CAT_REL<0.000922] yes=19,no=20,missing=20
				19:[D_PUBLISHER_COEC<0.100578] yes=39,no=40,missing=40
					39:[D_KEYWORD_MICRO_MEAN_COEC<0.093631] yes=79,no=80,missing=80
						79:leaf=-0.121511
						80:leaf=-0.102511
					40:[DOC_AGE<76] yes=81,no=82,missing=82
						81:leaf=-0.0917063
						82:leaf=-0.0518486
				20:[U_CATEGORY_MACRO_MAX_COEC<0.029248] yes=41,no=42,missing=42
					41:[C_D_U_CATEGORY_CITY_MACRO_MAX_COEC<0.099135] yes=83,no=84,missing=83
						83:leaf=-0.0500798
						84:leaf=-0.0161826
					42:[C_D_U_KEYWORD_CATEGORY_MICRO_MEAN_COEC<0.073925] yes=85,no=86,missing=86
						85:leaf=-0.0978647
						86:leaf=-0.0693768
			10:[D_TITLEMD5_COEC<0.151781] yes=21,no=22,missing=22
				21:[U_CATEGORY_MACRO_MAX_COEC<0.030052] yes=43,no=44,missing=44
					43:[CAT_REL<0.003318] yes=87,no=88,missing=88
						87:leaf=-0.0650757
						88:leaf=-0.0196105
					44:[DOC_AGE<132] yes=89,no=90,missing=90
						89:leaf=-0.0828543
						90:leaf=-0.0334917
				22:[DOC_AGE<76] yes=45,no=46,missing=46
					45:[D_KEYWORD_MACRO_MEAN_COEC<0.156621] yes=91,no=92,missing=92
						91:leaf=-0.0613424
						92:leaf=-0.0376653
					46:[D_KEYWORD_MICRO_MAX_COEC<0.175863] yes=93,no=94,missing=94
						93:leaf=-0.030422
						94:leaf=-0.00423033
	2:[C_D_U_TITLEMD5_CATEGORY_MICRO_MAX_COEC<0.156733] yes=5,no=6,missing=6
		5:[CAT_REL<0.000922] yes=11,no=12,missing=12
			11:[D_TITLEMD5_COEC<0.122752] yes=23,no=24,missing=24
				23:[D_CATEGORY_MACRO_MAX_COEC<0.221191] yes=47,no=48,missing=48
					47:[D_TITLEMD5_COEC<0.082634] yes=95,no=96,missing=96
						95:leaf=-0.118322
						96:leaf=-0.0897805
					48:[U_CATEGORY_MACRO_MAX_COEC<0.015493] yes=97,no=98,missing=98
						97:leaf=-0.0302876
						98:leaf=-0.0653923
				24:[U_CATEGORY_MACRO_MAX_COEC<0.019669] yes=49,no=50,missing=50
					49:[D_CATEGORY_MICRO_MAX_COEC<0.111969] yes=99,no=100,missing=100
						99:leaf=-0.0510498
						100:leaf=-0.0149169
					50:[D_KEYWORD_MACRO_MEAN_COEC<0.119395] yes=101,no=102,missing=102
						101:leaf=-0.0749382
						102:leaf=-0.0561747
			12:[U_CATEGORY_MACRO_MAX_COEC<0.029248] yes=25,no=26,missing=26
				25:[D_TITLEMD5_COEC<0.110018] yes=51,no=52,missing=52
					51:[C_D_U_CATEGORY_CITY_MICRO_MEAN_COEC<0.164749] yes=103,no=104,missing=103
						103:leaf=-0.0533432
						104:leaf=-0.00278574
					52:[U_CATEGORY_MACRO_MAX_COEC<0.015908] yes=105,no=106,missing=106
						105:leaf=-0.00931678
						106:leaf=-0.0320473
				26:[D_TITLEMD5_COEC<0.093067] yes=53,no=54,missing=54
					53:[U_CATEGORY_MACRO_MAX_COEC<0.037684] yes=107,no=108,missing=108
						107:leaf=-0.0761232
						108:leaf=-0.103907
					54:[C_D_U_CATEGORY_CITY_MACRO_MAX_COEC<0.097268] yes=109,no=110,missing=109
						109:leaf=-0.0666418
						110:leaf=-0.0496431
		6:[C_D_U_KEYWORD_CATEGORY_MICRO_MEAN_COEC<0.109755] yes=13,no=14,missing=14
			13:[D_TITLEMD5_COEC<0.095221] yes=27,no=28,missing=28
				27:[CAT_REL<0.013312] yes=55,no=56,missing=56
					55:[D_TITLEMD5_COEC<0.061143] yes=111,no=112,missing=112
						111:leaf=-0.135099
						112:leaf=-0.114939
					56:[D_TITLEMD5_COEC<0.065654] yes=113,no=114,missing=114
						113:leaf=-0.114361
						114:leaf=-0.076968
				28:[CAT_REL<0.000922] yes=57,no=58,missing=58
					57:[D_KEYWORD_MACRO_MEAN_COEC<0.095895] yes=115,no=116,missing=116
						115:leaf=-0.0881612
						116:leaf=-0.0456685
					58:[D_KEYWORD_MACRO_MEAN_COEC<0.095677] yes=117,no=118,missing=118
						117:leaf=-0.0432126
						118:leaf=-0.0132139
			14:[CAT_REL<0.000922] yes=29,no=30,missing=30
				29:[D_TITLEMD5_COEC<0.129876] yes=59,no=60,missing=60
					59:[D_TITLEMD5_COEC<0.097789] yes=119,no=120,missing=120
						119:leaf=-0.0817377
						120:leaf=-0.050395
					60:[U_CATEGORY_MACRO_MAX_COEC<0.024968] yes=121,no=122,missing=122
						121:leaf=-0.0089277
						122:leaf=-0.0358257
				30:[U_CATEGORY_MACRO_MAX_COEC<0.019881] yes=61,no=62,missing=62
					61:[D_TITLEMD5_COEC<0.106455] yes=123,no=124,missing=124
						123:leaf=-0.0103094
						124:leaf=0.0253487
					62:[C_D_U_KEYWORD_CATEGORY_MICRO_MAX_COEC<0.222727] yes=125,no=126,missing=126
						125:leaf=-0.020709
						126:leaf=0.00578082
booster[4]:
0:[C_D_U_TITLEMD5_CATEGORY_MICRO_MAX_COEC<0.099262] yes=1,no=2,missing=1
	1:[D_TITLEMD5_COEC<0.116073] yes=3,no=4,missing=3
		3:[CAT_REL<0.000877] yes=7,no=8,missing=8
			7:[D_TITLEMD5_COEC<0.065139] yes=15,no=16,missing=15
				15:[C_D_U_TITLEMD5_CATEGORY_MICRO_MAX_COEC<0.015894] yes=31,no=32,missing=31
					31:[DOC_AGE<132] yes=63,no=64,missing=64
						63:leaf=-0.135293
						64:leaf=-0.118853
					32:[C_D_U_KEYWORD_CATEGORY_MICRO_MEAN_COEC<0.099143] yes=65,no=66,missing=66
						65:leaf=-0.124536
						66:leaf=-0.110384
				16:[DOC_AGE<79] yes=33,no=34,missing=34
					33:[C_D_U_KEYWORD_CATEGORY_MICRO_MEAN_COEC<0.067981] yes=67,no=68,missing=67
						67:leaf=-0.1191
						68:leaf=-0.101775
					34:[DOC_AGE<132] yes=69,no=70,missing=70
						69:leaf=-0.0932243
						70:leaf=-0.0704452
			8:[D_TITLEMD5_COEC<0.065139] yes=17,no=18,missing=17
				17:[D_TITLEMD5_COEC<0.031968] yes=35,no=36,missing=36
					35:[C_D_U_CATEGORY_CITY_MACRO_MEAN_COEC<0.062169] yes=71,no=72,missing=72
						71:leaf=-0.132461
						72:leaf=-0.117608
					36:[C_D_U_CATEGORY_CITY_MACRO_MAX_COEC<0.119974] yes=73,no=74,missing=73
						73:leaf=-0.103396
						74:leaf=-0.0696734
				18:[U_CATEGORY_MACRO_MAX_COEC<0.016814] yes=37,no=38,missing=38
					37:[U_CITY_COEC<0.126995] yes=75,no=76,missing=75
						75:leaf=-0.0616223
						76:leaf=-0.0107648
					38:[U_CATEGORY_MICRO_MAX_COEC<0.113738] yes=77,no=78,missing=78
						77:leaf=-0.0855116
						78:leaf=-0.0534978
		4:[D_KEYWORD_MACRO_MEAN_COEC<0.120337] yes=9,no=10,missing=10
			9:[CAT_REL<0.000877] yes=19,no=20,missing=20
				19:[D_KEYWORD_MICRO_MEAN_COEC<0.093725] yes=39,no=40,missing=40
					39:[C_D_U_KEYWORD_CATEGORY_MICRO_MEAN_COEC<0.064621] yes=79,no=80,missing=79
						79:leaf=-0.109547
						80:leaf=-0.0859275
					40:[DOC_AGE<79] yes=81,no=82,missing=82
						81:leaf=-0.0861653
						82:leaf=-0.0500709
				20:[U_CATEGORY_MACRO_MAX_COEC<0.021426] yes=41,no=42,missing=42
					41:[D_KEYWORD_MACRO_MEAN_COEC<0.080426] yes=83,no=84,missing=84
						83:leaf=-0.0681669
						84:leaf=-0.0232113
					42:[U_CATEGORY_MACRO_MAX_COEC<0.038332] yes=85,no=86,missing=86
						85:leaf=-0.0532376
						86:leaf=-0.0788738
			10:[DOC_AGE<79] yes=21,no=22,missing=22
				21:[D_TITLEMD5_COEC<0.158659] yes=43,no=44,missing=44
					43:[U_CATEGORY_MACRO_MAX_COEC<0.031911] yes=87,no=88,missing=88
						87:leaf=-0.0322056
						88:leaf=-0.0717768
					44:[WORD_COUNT<5621] yes=89,no=90,missing=90
						89:leaf=-0.0520454
						90:leaf=-0.00941226
				22:[D_KEYWORD_MICRO_MAX_COEC<0.176755] yes=45,no=46,missing=46
					45:[C_D_U_CATEGORY_CITY_MACRO_MAX_COEC<0.092838] yes=91,no=92,missing=92
						91:leaf=-0.0594238
						92:leaf=-0.0217089
					46:[D_PUBLISHER_COEC<0.106312] yes=93,no=94,missing=94
						93:leaf=-0.145687
						94:leaf=0.00121622
	2:[C_D_U_TITLEMD5_CATEGORY_MICRO_MAX_COEC<0.158425] yes=5,no=6,missing=6
		5:[CAT_REL<0.000877] yes=11,no=12,missing=12
			11:[D_KEYWORD_MACRO_MEAN_COEC<0.103547] yes=23,no=24,missing=24
				23:[D_CATEGORY_MACRO_MAX_COEC<0.12965] yes=47,no=48,missing=48
					47:[D_TITLEMD5_COEC<0.108783] yes=95,no=96,missing=96
						95:leaf=-0.0937882
						96:leaf=-0.0736481
					48:[U_CATEGORY_MACRO_MAX_COEC<0.021652] yes=97,no=98,missing=98
						97:leaf=-0.0335232
						98:leaf=-0.0691557
				24:[U_CATEGORY_MACRO_MAX_COEC<0.017947] yes=49,no=50,missing=50
					49:[D_CATEGORY_MICRO_MAX_COEC<0.112371] yes=99,no=100,missing=100
						99:leaf=-0.04219
						100:leaf=-0.0132811
					50:[D_TITLEMD5_COEC<0.144097] yes=101,no=102,missing=102
						101:leaf=-0.0673218
						102:leaf=-0.0482693
			12:[U_CATEGORY_MACRO_MAX_COEC<0.028034] yes=25,no=26,missing=26
				25:[D_TITLEMD5_COEC<0.084809] yes=51,no=52,missing=52
					51:[C_D_U_KEYWORD_CATEGORY_MICRO_MEAN_COEC<0.112914] yes=103,no=104,missing=104
						103:leaf=-0.0754261
						104:leaf=-0.045806
					52:[U_CATEGORY_MACRO_MAX_COEC<0.013617] yes=105,no=106,missing=106
						105:leaf=-0.0104257
						106:leaf=-0.0318153
				26:[D_TITLEMD5_COEC<0.114803] yes=53,no=54,missing=54
					53:[U_CATEGORY_MACRO_MAX_COEC<0.037124] yes=107,no=108,missing=108
						107:leaf=-0.0602761
						108:leaf=-0.0808069
					54:[U_CATEGORY_MACRO_MAX_COEC<0.035476] yes=109,no=110,missing=110
						109:leaf=-0.034348
						110:leaf=-0.0540537
		6:[C_D_U_KEYWORD_CATEGORY_MICRO_MEAN_COEC<0.111423] yes=13,no=14,missing=14
			13:[D_TITLEMD5_COEC<0.105681] yes=27,no=28,missing=28
				27:[CAT_REL<0.013217] yes=55,no=56,missing=56
					55:[C_D_U_KEYWORD_CATEGORY_MICRO_MEAN_COEC<0.086189] yes=111,no=112,missing=112
						111:leaf=-0.121002
						112:leaf=-0.0984135
					56:[D_TITLEMD5_COEC<0.076373] yes=113,no=114,missing=114
						113:leaf=-0.097058
						114:leaf=-0.0555849
				28:[CAT_REL<0.000877] yes=57,no=58,missing=58
					57:[D_PUBLISHER_COEC<0.103453] yes=115,no=116,missing=116
						115:leaf=-0.0712668
						116:leaf=-0.0342736
					58:[C_D_U_TITLEMD5_CATEGORY_MACRO_MAX_COEC<0.055726] yes=117,no=118,missing=118
						117:leaf=-0.0101906
						118:leaf=-0.0420371
			14:[CAT_REL<0.000877] yes=29,no=30,missing=30
				29:[D_TITLEMD5_COEC<0.133557] yes=59,no=60,missing=60
					59:[D_CATEGORY_MACRO_MAX_COEC<0.108738] yes=119,no=120,missing=120
						119:leaf=-0.055482
						120:leaf=-0.0164714
					60:[U_CATEGORY_MACRO_MAX_COEC<0.021426] yes=121,no=122,missing=122
						121:leaf=-0.00342577
						122:leaf=-0.0287583
				30:[U_CATEGORY_MACRO_MAX_COEC<0.017621] yes=61,no=62,missing=62
					61:[D_TITLEMD5_COEC<0.099358] yes=123,no=124,missing=124
						123:leaf=-0.012166
						124:leaf=0.0264068
					62:[C_D_U_TITLEMD5_CATEGORY_MICRO_MAX_COEC<0.222571] yes=125,no=126,missing=126
						125:leaf=-0.0165124
						126:leaf=0.00832242
booster[5]:
0:[C_D_U_TITLEMD5_CATEGORY_MICRO_MAX_COEC<0.09667] yes=1,no=2,missing=1
	1:[D_KEYWORD_MACRO_MEAN_COEC<0.101072] yes=3,no=4,missing=3
		3:[CAT_REL<0.000854] yes=7,no=8,missing=8
			7:[D_TITLEMD5_COEC<0.092423] yes=15,no=16,missing=15
				15:[C_D_U_TITLEMD5_CATEGORY_MICRO_MAX_COEC<0.036506] yes=31,no=32,missing=31
					31:[DOC_AGE<78] yes=63,no=64,missing=64
						63:leaf=-0.122825
						64:leaf=-0.104019
					32:[U_CATEGORY_MACRO_MAX_COEC<0.020265] yes=65,no=66,missing=66
						65:leaf=-0.0950969
						66:leaf=-0.110737
				16:[DOC_AGE<78] yes=33,no=34,missing=34
					33:[U_CATEGORY_MACRO_MAX_COEC<0.026721] yes=67,no=68,missing=68
						67:leaf=-0.0832989
						68:leaf=-0.105045
					34:[D_KEYWORD_MACRO_MAX_COEC<0.022374] yes=69,no=70,missing=70
						69:leaf=-0.0481985
						70:leaf=-0.0673985
			8:[D_TITLEMD5_COEC<0.081503] yes=17,no=18,missing=17
				17:[D_TITLEMD5_COEC<0.056583] yes=35,no=36,missing=35
					35:[C_D_U_CATEGORY_CITY_MACRO_MAX_COEC<0.109848] yes=71,no=72,missing=71
						71:leaf=-0.10731
						72:leaf=-0.0837702
					36:[C_D_U_KEYWORD_CATEGORY_MICRO_MEAN_COEC<0.111792] yes=73,no=74,missing=74
						73:leaf=-0.0886017
						74:leaf=-0.0602505
				18:[U_CATEGORY_MACRO_MAX_COEC<0.026721] yes=37,no=38,missing=38
					37:[C_D_U_CATEGORY_CITY_MACRO_MAX_COEC<0.08524] yes=75,no=76,missing=75
						75:leaf=-0.0616481
						76:leaf=-0.0379569
					38:[U_CATEGORY_MACRO_MAX_COEC<0.04194] yes=77,no=78,missing=78
						77:leaf=-0.0735951
						78:leaf=-0.0935407
		4:[D_TITLEMD5_COEC<0.149379] yes=9,no=10,missing=9
			9:[CAT_REL<0.000854] yes=19,no=20,missing=20
				19:[D_TITLEMD5_COEC<0.129021] yes=39,no=40,missing=39
					39:[DOC_AGE<123] yes=79,no=80,missing=80
						79:leaf=-0.0895893
						80:leaf=-0.0578157
					40:[D_KEYWORD_MICRO_MEAN_COEC<0.102418] yes=81,no=82,missing=82
						81:leaf=-0.0871922
						82:leaf=-0.0701774
				20:[D_TITLEMD5_COEC<0.083573] yes=41,no=42,missing=42
					41:[U_CATEGORY_MICRO_MAX_COEC<0.093185] yes=83,no=84,missing=84
						83:leaf=-0.102918
						84:leaf=-0.0723478
					42:[U_CATEGORY_MACRO_MAX_COEC<0.02923] yes=85,no=86,missing=86
						85:leaf=-0.0301891
						86:leaf=-0.059422
			10:[D_CATEGORY_MICRO_MEAN_COEC<0.09934] yes=21,no=22,missing=22
				21:[D_PUBLISHER_COEC<0.141116] yes=43,no=44,missing=44
					43:[D_PUBLISHER_COEC<0.089455] yes=87,no=88,missing=88
						87:leaf=-0.107772
						88:leaf=-0.0697807
					44:[D_TITLEMD5_COEC<0.162412] yes=89,no=90,missing=90
						89:leaf=-0.0720483
						90:leaf=-0.0241996
				22:[WORD_COUNT<5480] yes=45,no=46,missing=46
					45:[DOC_AGE<78] yes=91,no=92,missing=92
						91:leaf=-0.0474976
						92:leaf=-0.0126091
					46:[D_PUBLISHER_COEC<0.11413] yes=93,no=94,missing=94
						93:leaf=-0.0767143
						94:leaf=0.000226253
	2:[C_D_U_KEYWORD_CATEGORY_MICRO_MEAN_COEC<0.126044] yes=5,no=6,missing=6
		5:[D_TITLEMD5_COEC<0.129021] yes=11,no=12,missing=12
			11:[CAT_REL<0.010753] yes=23,no=24,missing=24
				23:[D_TITLEMD5_COEC<0.095552] yes=47,no=48,missing=48
					47:[D_TITLEMD5_COEC<0.073444] yes=95,no=96,missing=96
						95:leaf=-0.111746
						96:leaf=-0.0878073
					48:[C_D_U_KEYWORD_CATEGORY_MICRO_MEAN_COEC<0.097393] yes=97,no=98,missing=98
						97:leaf=-0.0803286
						98:leaf=-0.0611377
				24:[D_TITLEMD5_COEC<0.087653] yes=49,no=50,missing=50
					49:[C_D_U_CATEGORY_CITY_MACRO_MEAN_COEC<0.152314] yes=99,no=100,missing=99
						99:leaf=-0.0698809
						100:leaf=-0.0170257
					50:[U_CATEGORY_MACRO_MAX_COEC<0.016982] yes=101,no=102,missing=102
						101:leaf=-0.0217123
						102:leaf=-0.0467779
			12:[CAT_REL<0.000854] yes=25,no=26,missing=26
				25:[C_D_U_KEYWORD_CATEGORY_MICRO_MEAN_COEC<0.095297] yes=51,no=52,missing=52
					51:[D_PUBLISHER_COEC<0.100174] yes=103,no=104,missing=104
						103:leaf=-0.0704121
						104:leaf=-0.0486699
					52:[U_CATEGORY_MACRO_MAX_COEC<0.018515] yes=105,no=106,missing=106
						105:leaf=-0.0217523
						106:leaf=-0.0438375
				26:[U_CATEGORY_MACRO_MAX_COEC<0.016982] yes=53,no=54,missing=54
					53:[U_CATEGORY_MICRO_MAX_COEC<0.094251] yes=107,no=108,missing=108
						107:leaf=-0.00543602
						108:leaf=0.0173254
					54:[U_CATEGORY_MACRO_MAX_COEC<0.035465] yes=109,no=110,missing=110
						109:leaf=-0.0194005
						110:leaf=-0.0413699
		6:[C_D_U_TITLEMD5_CATEGORY_MICRO_MAX_COEC<0.185414] yes=13,no=14,missing=14
			13:[CAT_REL<0.012862] yes=27,no=28,missing=28
				27:[D_TITLEMD5_COEC<0.110429] yes=55,no=56,missing=56
					55:[U_CATEGORY_MACRO_MAX_COEC<0.019651] yes=111,no=112,missing=112
						111:leaf=-0.0480479
						112:leaf=-0.0753278
					56:[U_CATEGORY_MACRO_MAX_COEC<0.02923] yes=113,no=114,missing=114
						113:leaf=-0.0262657
						114:leaf=-0.049995
				28:[U_CATEGORY_MACRO_MAX_COEC<0.025504] yes=57,no=58,missing=58
					57:[D_TITLEMD5_COEC<0.081503] yes=115,no=116,missing=116
						115:leaf=-0.041365
						116:leaf=-0.0042289
					58:[D_TITLEMD5_COEC<0.110429] yes=117,no=118,missing=118
						117:leaf=-0.0478808
						118:leaf=-0.0246179
			14:[U_CATEGORY_MACRO_MAX_COEC<0.030581] yes=29,no=30,missing=30
				29:[CAT_REL<0.019132] yes=59,no=60,missing=60
					59:[D_TITLEMD5_COEC<0.126681] yes=119,no=120,missing=120
						119:leaf=-0.0359456
						120:leaf=0.0012202
					60:[D_TITLEMD5_COEC<0.108927] yes=121,no=122,missing=122
						121:leaf=-0.00201429
						122:leaf=0.0250463
				30:[CAT_REL<0.105727] yes=61,no=62,missing=62
					61:[D_TITLEMD5_COEC<0.139798] yes=123,no=124,missing=124
						123:leaf=-0.0530186
						124:leaf=-0.0227812
					62:[C_D_U_TITLEMD5_CATEGORY_MICRO_MAX_COEC<0.274905] yes=125,no=126,missing=126
						125:leaf=-0.013225
						126:leaf=0.0211143
booster[6]:
0:[C_D_U_TITLEMD5_CATEGORY_MICRO_MAX_COEC<0.088633] yes=1,no=2,missing=1
	1:[D_KEYWORD_MACRO_MEAN_COEC<0.099906] yes=3,no=4,missing=3
		3:[CAT_REL<0.000863] yes=7,no=8,missing=8
			7:[D_TITLEMD5_COEC<0.089587] yes=15,no=16,missing=15
				15:[C_D_U_TITLEMD5_CATEGORY_MICRO_MAX_COEC<0.028957] yes=31,no=32,missing=31
					31:[DOC_AGE<129] yes=63,no=64,missing=64
						63:leaf=-0.117102
						64:leaf=-0.0949677
					32:[U_CATEGORY_MACRO_MAX_COEC<0.02052] yes=65,no=66,missing=66
						65:leaf=-0.0917756
						66:leaf=-0.10661
				16:[DOC_AGE<71] yes=33,no=34,missing=34
					33:[D_PUBLISHER_COEC<0.113429] yes=67,no=68,missing=68
						67:leaf=-0.100199
						68:leaf=-0.0811004
					34:[DOC_AGE<129] yes=69,no=70,missing=70
						69:leaf=-0.0740751
						70:leaf=-0.0514898
			8:[D_TITLEMD5_COEC<0.082035] yes=17,no=18,missing=17
				17:[D_TITLEMD5_COEC<0.042467] yes=35,no=36,missing=36
					35:[C_D_U_CATEGORY_CITY_MACRO_MEAN_COEC<0.062544] yes=71,no=72,missing=72
						71:leaf=-0.116286
						72:leaf=-0.0991095
					36:[U_CATEGORY_MACRO_MAX_COEC<0.019964] yes=73,no=74,missing=74
						73:leaf=-0.0712445
						74:leaf=-0.0946871
				18:[U_CATEGORY_MACRO_MAX_COEC<0.017004] yes=37,no=38,missing=38
					37:[U_CATEGORY_MICRO_MAX_COEC<0.1073] yes=75,no=76,missing=76
						75:leaf=-0.0464451
						76:leaf=-0.0102797
					38:[C_D_U_KEYWORD_CATEGORY_MICRO_MEAN_COEC<0.09383] yes=77,no=78,missing=78
						77:leaf=-0.0736206
						78:leaf=-0.0511652
		4:[D_TITLEMD5_COEC<0.150076] yes=9,no=10,missing=9
			9:[CAT_REL<0.000863] yes=19,no=20,missing=20
				19:[D_TITLEMD5_COEC<0.12966] yes=39,no=40,missing=39
					39:[DOC_AGE<129] yes=79,no=80,missing=80
						79:leaf=-0.0839153
						80:leaf=-0.0514489
					40:[D_KEYWORD_MICRO_MEAN_COEC<0.102814] yes=81,no=82,missing=82
						81:leaf=-0.0807539
						82:leaf=-0.0642314
				20:[D_TITLEMD5_COEC<0.083726] yes=41,no=42,missing=42
					41:[C_D_U_KEYWORD_CATEGORY_MACRO_MAX_COEC<0.009996] yes=83,no=84,missing=84
						83:leaf=-0.056403
						84:leaf=-0.0874318
					42:[U_CATEGORY_MACRO_MAX_COEC<0.03085] yes=85,no=86,missing=86
						85:leaf=-0.0277461
						86:leaf=-0.0626765
			10:[D_CATEGORY_MICRO_MEAN_COEC<0.098394] yes=21,no=22,missing=22
				21:[D_PUBLISHER_COEC<0.140205] yes=43,no=44,missing=44
					43:[D_PUBLISHER_COEC<0.0886] yes=87,no=88,missing=88
						87:leaf=-0.104696
						88:leaf=-0.0658615
					44:[D_CATEGORY_MACRO_MAX_COEC<0.087419] yes=89,no=90,missing=90
						89:leaf=-0.0994142
						90:leaf=-0.0254336
				22:[WORD_COUNT<5480] yes=45,no=46,missing=46
					45:[D_KEYWORD_MACRO_MEAN_COEC<0.157843] yes=91,no=92,missing=92
						91:leaf=-0.0452273
						92:leaf=-0.0191917
					46:[D_PUBLISHER_COEC<0.113787] yes=93,no=94,missing=94
						93:leaf=-0.0772452
						94:leaf=-0.00043896
	2:[C_D_U_TITLEMD5_CATEGORY_MICRO_MAX_COEC<0.14792] yes=5,no=6,missing=6
		5:[CAT_REL<0.017536] yes=11,no=12,missing=12
			11:[D_KEYWORD_MACRO_MEAN_COEC<0.099906] yes=23,no=24,missing=24
				23:[U_CITY_COEC<0.115362] yes=47,no=48,missing=47
					47:[D_TITLEMD5_COEC<0.10288] yes=95,no=96,missing=96
						95:leaf=-0.0821003
						96:leaf=-0.0648428
					48:[C_D_U_TITLEMD5_CATEGORY_MACRO_MAX_COEC<0.019179] yes=97,no=98,missing=98
						97:leaf=-0.013157
						98:leaf=-0.0570067
				24:[U_CATEGORY_MACRO_MAX_COEC<0.017004] yes=49,no=50,missing=50
					49:[DOC_AGE<24] yes=99,no=100,missing=100
						99:leaf=-0.0259501
						100:leaf=-0.054911
					50:[D_TITLEMD5_COEC<0.131117] yes=101,no=102,missing=102
						101:leaf=-0.0642708
						102:leaf=-0.0473164
			12:[U_CATEGORY_MACRO_MAX_COEC<0.017291] yes=25,no=26,missing=26
				25:[D_TITLEMD5_COEC<0.085205] yes=51,no=52,missing=52
					51:[U_CITY_COEC<0.074559] yes=103,no=104,missing=104
						103:leaf=-0.0791064
						104:leaf=-0.0359868
					52:[DOC_AGE<25] yes=105,no=106,missing=106
						105:leaf=-0.00941761
						106:leaf=-0.0385371
				26:[D_TITLEMD5_COEC<0.101377] yes=53,no=54,missing=54
					53:[C_D_U_KEYWORD_CATEGORY_MICRO_MEAN_COEC<0.097847] yes=107,no=108,missing=108
						107:leaf=-0.0739642
						108:leaf=-0.0509411
					54:[U_CATEGORY_MACRO_MAX_COEC<0.035877] yes=109,no=110,missing=110
						109:leaf=-0.0286507
						110:leaf=-0.0499292
		6:[CAT_REL<0.012892] yes=13,no=14,missing=14
			13:[D_KEYWORD_MACRO_MEAN_COEC<0.100819] yes=27,no=28,missing=28
				27:[D_KEYWORD_MACRO_MEAN_COEC<0.077373] yes=55,no=56,missing=56
					55:[D_PUBLISHER_COEC<0.098876] yes=111,no=112,missing=112
						111:leaf=-0.100638
						112:leaf=-0.0643944
					56:[D_CATEGORY_MICRO_MAX_COEC<0.132928] yes=113,no=114,missing=114
						113:leaf=-0.0542475
						114:leaf=-0.00732319
				28:[U_CATEGORY_MACRO_MAX_COEC<0.021341] yes=57,no=58,missing=58
					57:[C_D_U_KEYWORD_CATEGORY_MICRO_MAX_COEC<0.196364] yes=115,no=116,missing=116
						115:leaf=-0.0179301
						116:leaf=0.0039024
					58:[D_CATEGORY_MACRO_MAX_COEC<0.114927] yes=117,no=118,missing=118
						117:leaf=-0.0340536
						118:leaf=-0.00831448
			14:[D_TITLEMD5_COEC<0.083726] yes=29,no=30,missing=30
				29:[D_TITLEMD5_COEC<0.063016] yes=59,no=60,missing=60
					59:[C_D_U_CATEGORY_CITY_MACRO_MAX_COEC<0.114555] yes=119,no=120,missing=119
						119:leaf=-0.0939169
						120:leaf=-0.0445922
					60:[C_D_U_CATEGORY_CITY_MACRO_MEAN_COEC<0.182624] yes=121,no=122,missing=121
						121:leaf=-0.0469785
						122:leaf=0.0206691
				30:[U_CATEGORY_MACRO_MAX_COEC<0.032024] yes=61,no=62,missing=62
					61:[C_D_U_KEYWORD_CATEGORY_MICRO_MEAN_COEC<0.14652] yes=123,no=124,missing=124
						123:leaf=-0.00457758
						124:leaf=0.0181078
					62:[D_PUBLISHER_COEC<0.132278] yes=125,no=126,missing=126
						125:leaf=-0.0275131
						126:leaf=0.00422804
booster[7]:
0:[C_D_U_TITLEMD5_CATEGORY_MICRO_MAX_COEC<0.085865] yes=1,no=2,missing=1
	1:[D_TITLEMD5_COEC<0.112433] yes=3,no=4,missing=3
		3:[CAT_REL<0.00089] yes=7,no=8,missing=8
			7:[D_TITLEMD5_COEC<0.062192] yes=15,no=16,missing=15
				15:[C_D_U_KEYWORD_CATEGORY_MICRO_MEAN_COEC<0.065538] yes=31,no=32,missing=31
					31:[DOC_AGE<122] yes=63,no=64,missing=64
						63:leaf=-0.118665
						64:leaf=-0.0992322
					32:[D_TITLEMD5_COEC<0.033126] yes=65,no=66,missing=66
						65:leaf=-0.112932
						66:leaf=-0.100179
				16:[DOC_AGE<122] yes=33,no=34,missing=34
					33:[U_CATEGORY_MACRO_MAX_COEC<0.020057] yes=67,no=68,missing=68
						67:leaf=-0.0789368
						68:leaf=-0.0992305
					34:[D_TITLEMD5_COEC<0.080199] yes=69,no=70,missing=70
						69:leaf=-0.0710885
						70:leaf=-0.0490597
			8:[D_TITLEMD5_COEC<0.070976] yes=17,no=18,missing=17
				17:[C_D_U_CATEGORY_CITY_MACRO_MAX_COEC<0.140798] yes=35,no=36,missing=35
					35:[C_D_U_KEYWORD_CATEGORY_MICRO_MEAN_COEC<0.095243] yes=71,no=72,missing=71
						71:leaf=-0.0961028
						72:leaf=-0.0783144
					36:[U_CITY_COEC<0.135949] yes=73,no=74,missing=74
						73:leaf=-0.0636874
						74:leaf=-0.0150903
				18:[U_CATEGORY_MACRO_MAX_COEC<0.016596] yes=37,no=38,missing=38
					37:[U_CITY_COEC<0.072094] yes=75,no=76,missing=76
						75:leaf=-0.0872675
						76:leaf=-0.0411164
					38:[U_CATEGORY_MICRO_MAX_COEC<0.115743] yes=77,no=78,missing=78
						77:leaf=-0.0712849
						78:leaf=-0.0380075
		4:[D_KEYWORD_MACRO_MEAN_COEC<0.117208] yes=9,no=10,missing=10
			9:[CAT_REL<0.00089] yes=19,no=20,missing=20
				19:[DOC_AGE<78] yes=39,no=40,missing=40
					39:[D_PUBLISHER_COEC<0.100631] yes=79,no=80,missing=80
						79:leaf=-0.0849296
						80:leaf=-0.0687529
					40:[D_CATEGORY_MACRO_MAX_COEC<0.221191] yes=81,no=82,missing=82
						81:leaf=-0.0422423
						82:leaf=0.00466568
				20:[U_CATEGORY_MACRO_MAX_COEC<0.021228] yes=41,no=42,missing=42
					41:[D_KEYWORD_MACRO_MEAN_COEC<0.079163] yes=83,no=84,missing=84
						83:leaf=-0.0576508
						84:leaf=-0.0146247
					42:[C_D_U_KEYWORD_CATEGORY_MICRO_MEAN_COEC<0.080328] yes=85,no=86,missing=86
						85:leaf=-0.0668432
						86:leaf=-0.0392089
			10:[D_KEYWORD_MICRO_MAX_COEC<0.182937] yes=21,no=22,missing=22
				21:[D_PUBLISHER_COEC<0.143285] yes=43,no=44,missing=44
					43:[DOC_AGE<12] yes=87,no=88,missing=88
						87:leaf=-0.0415828
						88:leaf=-0.0550962
					44:[WORD_COUNT<4643] yes=89,no=90,missing=90
						89:leaf=-0.0373065
						90:leaf=-0.00328223
				22:[D_PUBLISHER_COEC<0.097075] yes=45,no=46,missing=46
					45:[D_CATEGORY_MACRO_MEAN_COEC<0.10075] yes=91,no=92,missing=92
						91:leaf=-0.0991746
						92:leaf=-0.0553215
					46:[D_KEYWORD_MACRO_MAX_COEC<0.07612] yes=93,no=94,missing=94
						93:leaf=-0.0352544
						94:leaf=-0.0134354
	2:[C_D_U_KEYWORD_CATEGORY_MICRO_MEAN_COEC<0.117137] yes=5,no=6,missing=6
		5:[D_TITLEMD5_COEC<0.112433] yes=11,no=12,missing=12
			11:[CAT_REL<0.00388] yes=23,no=24,missing=24
				23:[D_CATEGORY_MACRO_MEAN_COEC<0.102427] yes=47,no=48,missing=48
					47:[D_TITLEMD5_COEC<0.084175] yes=95,no=96,missing=96
						95:leaf=-0.0993958
						96:leaf=-0.0773394
					48:[D_TITLEMD5_COEC<0.068179] yes=97,no=98,missing=98
						97:leaf=-0.0949041
						98:leaf=-0.0560406
				24:[D_TITLEMD5_COEC<0.08272] yes=49,no=50,missing=50
					49:[U_CITY_COEC<0.120237] yes=99,no=100,missing=99
						99:leaf=-0.0682151
						100:leaf=-0.0196098
					50:[C_D_U_TITLEMD5_CATEGORY_MACRO_MAX_COEC<0.025452] yes=101,no=102,missing=102
						101:leaf=-0.0311201
						102:leaf=-0.0507889
			12:[CAT_REL<0.00089] yes=25,no=26,missing=26
				25:[D_KEYWORD_MACRO_MEAN_COEC<0.12113] yes=51,no=52,missing=52
					51:[C_D_U_KEYWORD_CATEGORY_MACRO_MAX_COEC<0.007959] yes=103,no=104,missing=104
						103:leaf=-0.0388059
						104:leaf=-0.0573747
					52:[C_D_U_KEYWORD_CATEGORY_MICRO_MAX_COEC<0.15168] yes=105,no=106,missing=106
						105:leaf=-0.0351626
						106:leaf=-0.0121496
				26:[U_CATEGORY_MACRO_MAX_COEC<0.017398] yes=53,no=54,missing=54
					53:[C_D_U_CATEGORY_CITY_MACRO_MAX_COEC<0.094643] yes=107,no=108,missing=107
						107:leaf=-0.0136073
						108:leaf=0.00868797
					54:[D_KEYWORD_MICRO_MAX_COEC<0.143602] yes=109,no=110,missing=110
						109:leaf=-0.0356245
						110:leaf=-0.0179997
		6:[C_D_U_TITLEMD5_CATEGORY_MICRO_MAX_COEC<0.172169] yes=13,no=14,missing=14
			13:[U_CATEGORY_MACRO_MAX_COEC<0.021682] yes=27,no=28,missing=28
				27:[CAT_REL<0.029468] yes=55,no=56,missing=56
					55:[U_CITY_COEC<0.115172] yes=111,no=112,missing=111
						111:leaf=-0.0323693
						112:leaf=0.00523604
					56:[D_TITLEMD5_COEC<0.091567] yes=113,no=114,missing=114
						113:leaf=-0.0198723
						114:leaf=0.00198972
				28:[CAT_REL<0.045907] yes=57,no=58,missing=58
					57:[D_TITLEMD5_COEC<0.129656] yes=115,no=116,missing=116
						115:leaf=-0.060262
						116:leaf=-0.036013
					58:[U_CATEGORY_MACRO_MAX_COEC<0.037062] yes=117,no=118,missing=118
						117:leaf=-0.0218595
						118:leaf=-0.0434854
			14:[CAT_REL<0.00388] yes=29,no=30,missing=30
				29:[D_CATEGORY_MACRO_MAX_COEC<0.115169] yes=59,no=60,missing=60
					59:[D_TITLEMD5_COEC<0.106876] yes=119,no=120,missing=120
						119:leaf=-0.0580218
						120:leaf=-0.0183379
					60:[U_CATEGORY_MACRO_MAX_COEC<0.028416] yes=121,no=122,missing=122
						121:leaf=0.0201132
						122:leaf=-0.0101423
				30:[U_CATEGORY_MACRO_MAX_COEC<0.016596] yes=61,no=62,missing=62
					61:[D_TITLEMD5_COEC<0.119172] yes=123,no=124,missing=124
						123:leaf=0.00504443
						124:leaf=0.0323273
					62:[C_D_U_KEYWORD_CATEGORY_MICRO_MAX_COEC<0.23088] yes=125,no=126,missing=126
						125:leaf=-0.00800265
						126:leaf=0.0109887
booster[8]:
0:[C_D_U_TITLEMD5_CATEGORY_MICRO_MAX_COEC<0.090305] yes=1,no=2,missing=1
	1:[D_TITLEMD5_COEC<0.111775] yes=3,no=4,missing=3
		3:[CAT_REL<0.00084] yes=7,no=8,missing=8
			7:[D_TITLEMD5_COEC<0.059169] yes=15,no=16,missing=15
				15:[U_CATEGORY_MACRO_MAX_COEC<0.029132] yes=31,no=32,missing=32
					31:[D_CATEGORY_MICRO_MEAN_COEC<0.092163] yes=63,no=64,missing=64
						63:leaf=-0.105214
						64:leaf=-0.0904513
					32:[DOC_AGE<125] yes=65,no=66,missing=66
						65:leaf=-0.115191
						66:leaf=-0.096578
				16:[DOC_AGE<125] yes=33,no=34,missing=34
					33:[U_CATEGORY_MACRO_MAX_COEC<0.019974] yes=67,no=68,missing=68
						67:leaf=-0.0737193
						68:leaf=-0.0937599
					34:[C_D_U_PUBLISHER_CITY_COEC<0.169078] yes=69,no=70,missing=69
						69:leaf=-0.0550858
						70:leaf=-0.0205348
			8:[D_TITLEMD5_COEC<0.0637] yes=17,no=18,missing=17
				17:[C_D_U_KEYWORD_CATEGORY_MICRO_MEAN_COEC<0.107689] yes=35,no=36,missing=35
					35:[U_CATEGORY_MACRO_MAX_COEC<0.018737] yes=71,no=72,missing=72
						71:leaf=-0.0808688
						72:leaf=-0.0979353
					36:[U_CITY_COEC<0.08309] yes=73,no=74,missing=74
						73:leaf=-0.091195
						74:leaf=-0.0583959
				18:[U_CATEGORY_MACRO_MAX_COEC<0.029132] yes=37,no=38,missing=38
					37:[C_D_U_KEYWORD_CATEGORY_MICRO_MEAN_COEC<0.115516] yes=75,no=76,missing=75
						75:leaf=-0.0537925
						76:leaf=-0.0242012
					38:[DOC_AGE<125] yes=77,no=78,missing=78
						77:leaf=-0.077441
						78:leaf=-0.00434462
		4:[D_KEYWORD_MACRO_MEAN_COEC<0.117437] yes=9,no=10,missing=10
			9:[CAT_REL<0.00084] yes=19,no=20,missing=20
				19:[D_PUBLISHER_COEC<0.100267] yes=39,no=40,missing=40
					39:[D_KEYWORD_MICRO_MEAN_COEC<0.105396] yes=79,no=80,missing=80
						79:leaf=-0.0828703
						80:leaf=-0.0602959
					40:[DOC_AGE<125] yes=81,no=82,missing=82
						81:leaf=-0.0628943
						82:leaf=-0.0233373
				20:[U_CATEGORY_MACRO_MAX_COEC<0.031601] yes=41,no=42,missing=42
					41:[D_KEYWORD_MACRO_MEAN_COEC<0.084911] yes=83,no=84,missing=84
						83:leaf=-0.0455385
						84:leaf=-0.0160214
					42:[U_CATEGORY_MICRO_MAX_COEC<0.107796] yes=85,no=86,missing=86
						85:leaf=-0.0593079
						86:leaf=-0.0277629
			10:[D_KEYWORD_MICRO_MAX_COEC<0.182643] yes=21,no=22,missing=22
				21:[WORD_COUNT<5621] yes=43,no=44,missing=44
					43:[DOC_AGE<76] yes=87,no=88,missing=88
						87:leaf=-0.0477114
						88:leaf=-0.0177824
					44:[D_CATEGORY_MACRO_MEAN_COEC<0.103672] yes=89,no=90,missing=90
						89:leaf=-0.0445274
						90:leaf=-0.000422257
				22:[D_PUBLISHER_COEC<0.097307] yes=45,no=46,missing=46
					45:[D_CATEGORY_MACRO_MEAN_COEC<0.095613] yes=91,no=92,missing=92
						91:leaf=-0.0952324
						92:leaf=-0.055773
					46:[D_KEYWORD_MACRO_MAX_COEC<0.076321] yes=93,no=94,missing=94
						93:leaf=-0.0313242
						94:leaf=-0.0118657
	2:[C_D_U_KEYWORD_CATEGORY_MICRO_MEAN_COEC<0.107689] yes=5,no=6,missing=6
		5:[D_TITLEMD5_COEC<0.116522] yes=11,no=12,missing=12
			11:[CAT_REL<0.026493] yes=23,no=24,missing=24
				23:[D_TITLEMD5_COEC<0.08761] yes=47,no=48,missing=48
					47:[C_D_U_TITLEMD5_CATEGORY_MACRO_MAX_COEC<0.017894] yes=95,no=96,missing=96
						95:leaf=-0.0708279
						96:leaf=-0.0928781
					48:[D_CATEGORY_MICRO_MEAN_COEC<0.100059] yes=97,no=98,missing=98
						97:leaf=-0.0699129
						98:leaf=-0.0487604
				24:[C_D_U_TITLEMD5_CATEGORY_MACRO_MAX_COEC<0.019091] yes=49,no=50,missing=50
					49:[C_D_U_CATEGORY_CITY_MICRO_MEAN_COEC<0.069856] yes=99,no=100,missing=99
						99:leaf=-0.0399579
						100:leaf=-0.0168025
					50:[D_TITLEMD5_COEC<0.08761] yes=101,no=102,missing=102
						101:leaf=-0.0657262
						102:leaf=-0.0409858
			12:[CAT_REL<0.00084] yes=25,no=26,missing=26
				25:[D_KEYWORD_MICRO_MAX_COEC<0.141631] yes=51,no=52,missing=52
					51:[U_CATEGORY_MACRO_MAX_COEC<0.023608] yes=103,no=104,missing=104
						103:leaf=-0.0452082
						104:leaf=-0.0622931
					52:[D_PUBLISHER_COEC<0.10715] yes=105,no=106,missing=106
						105:leaf=-0.0440543
						106:leaf=-0.0237693
				26:[U_CATEGORY_MACRO_MAX_COEC<0.019974] yes=53,no=54,missing=54
					53:[D_PUBLISHER_COEC<0.090961] yes=107,no=108,missing=108
						107:leaf=-0.0271193
						108:leaf=-0.00121062
					54:[D_PUBLISHER_COEC<0.133706] yes=109,no=110,missing=110
						109:leaf=-0.0322602
						110:leaf=-0.00294171
		6:[C_D_U_TITLEMD5_CATEGORY_MICRO_MAX_COEC<0.172463] yes=13,no=14,missing=14
			13:[U_CATEGORY_MACRO_MAX_COEC<0.029132] yes=27,no=28,missing=28
				27:[CAT_REL<0.026493] yes=55,no=56,missing=56
					55:[D_TITLEMD5_COEC<0.110177] yes=111,no=112,missing=112
						111:leaf=-0.0452492
						112:leaf=-0.0221868
					56:[D_TITLEMD5_COEC<0.080822] yes=113,no=114,missing=114
						113:leaf=-0.0352651
						114:leaf=-0.00670314
				28:[D_TITLEMD5_COEC<0.090228] yes=57,no=58,missing=58
					57:[CAT_REL<0.081275] yes=115,no=116,missing=116
						115:leaf=-0.0800066
						116:leaf=-0.0542651
					58:[CAT_REL<0.072994] yes=117,no=118,missing=118
						117:leaf=-0.0463625
						118:leaf=-0.0291404
			14:[U_CATEGORY_MACRO_MAX_COEC<0.019535] yes=29,no=30,missing=30
				29:[D_TITLEMD5_COEC<0.085854] yes=59,no=60,missing=60
					59:[D_TITLEMD5_COEC<0.0637] yes=119,no=120,missing=120
						119:leaf=-0.0740171
						120:leaf=-0.0268493
					60:[CAT_REL<0.022347] yes=121,no=122,missing=122
						121:leaf=0.000151498
						122:leaf=0.0211303
				30:[CAT_REL<0.049202] yes=61,no=62,missing=62
					61:[D_TITLEMD5_COEC<0.142858] yes=123,no=124,missing=124
						123:leaf=-0.0384932
						124:leaf=-0.0129319
					62:[C_D_U_KEYWORD_CATEGORY_MICRO_MAX_COEC<0.239851] yes=125,no=126,missing=126
						125:leaf=-0.00689265
						126:leaf=0.0126159
booster[9]:
0:[C_D_U_TITLEMD5_CATEGORY_MICRO_MAX_COEC<0.081166] yes=1,no=2,missing=1
	1:[D_KEYWORD_MACRO_MEAN_COEC<0.098949] yes=3,no=4,missing=4
		3:[CAT_REL<0.010517] yes=7,no=8,missing=8
			7:[D_TITLEMD5_COEC<0.08886] yes=15,no=16,missing=15
				15:[C_D_U_KEYWORD_CATEGORY_MICRO_MEAN_COEC<0.071533] yes=31,no=32,missing=31
					31:[DOC_AGE<132] yes=63,no=64,missing=64
						63:leaf=-0.102724
						64:leaf=-0.0796818
					32:[U_CITY_COEC<0.075294] yes=65,no=66,missing=66
						65:leaf=-0.105374
						66:leaf=-0.08234
				16:[DOC_AGE<70] yes=33,no=34,missing=34
					33:[U_CATEGORY_MACRO_MAX_COEC<0.019859] yes=67,no=68,missing=68
						67:leaf=-0.0596688
						68:leaf=-0.0836859
					34:[DOC_AGE<185] yes=69,no=70,missing=70
						69:leaf=-0.0544576
						70:leaf=-0.0348206
			8:[D_TITLEMD5_COEC<0.075773] yes=17,no=18,missing=17
				17:[C_D_U_CATEGORY_CITY_MACRO_MAX_COEC<0.11513] yes=35,no=36,missing=35
					35:[D_TITLEMD5_COEC<0.034577] yes=71,no=72,missing=72
						71:leaf=-0.0915334
						72:leaf=-0.0716595
					36:[U_CITY_COEC<0.126636] yes=73,no=74,missing=74
						73:leaf=-0.056901
						74:leaf=-0.0135164
				18:[U_CATEGORY_MACRO_MAX_COEC<0.016639] yes=37,no=38,missing=38
					37:[DOC_AGE<16] yes=75,no=76,missing=76
						75:leaf=-0.0230864
						76:leaf=-0.051597
					38:[U_CATEGORY_MICRO_MAX_COEC<0.113733] yes=77,no=78,missing=78
						77:leaf=-0.0596786
						78:leaf=-0.0251117
		4:[D_TITLEMD5_COEC<0.146131] yes=9,no=10,missing=9
			9:[U_CATEGORY_MACRO_MAX_COEC<0.021174] yes=19,no=20,missing=20
				19:[D_TITLEMD5_COEC<0.095238] yes=39,no=40,missing=40
					39:[U_CITY_COEC<0.111944] yes=79,no=80,missing=79
						79:leaf=-0.0597056
						80:leaf=-0.0152032
					40:[CAT_REL<0.026507] yes=81,no=82,missing=82
						81:leaf=-0.0326752
						82:leaf=-0.00245267
				20:[D_TITLEMD5_COEC<0.101247] yes=41,no=42,missing=41
					41:[DOC_AGE<132] yes=83,no=84,missing=84
						83:leaf=-0.0856837
						84:leaf=-0.0512483
					42:[DOC_AGE<132] yes=85,no=86,missing=86
						85:leaf=-0.0601872
						86:leaf=-0.0293845
			10:[D_KEYWORD_MACRO_MAX_COEC<0.076286] yes=21,no=22,missing=22
				21:[U_CATEGORY_MACRO_MAX_COEC<0.017919] yes=43,no=44,missing=44
					43:[C_D_U_CATEGORY_CITY_MACRO_MEAN_COEC<0.084548] yes=87,no=88,missing=88
						87:leaf=-0.0239895
						88:leaf=0.0198388
					44:[DOC_AGE<185] yes=89,no=90,missing=90
						89:leaf=-0.0417665
						90:leaf=0.0265155
				22:[D_PUBLISHER_COEC<0.121748] yes=45,no=46,missing=46
					45:[D_PUBLISHER_COEC<0.081425] yes=91,no=92,missing=92
						91:leaf=-0.100981
						92:leaf=-0.0312581
					46:[D_CATEGORY_MACRO_MAX_COEC<0.10463] yes=93,no=94,missing=94
						93:leaf=-0.026511
						94:leaf=-0.0025172
	2:[C_D_U_TITLEMD5_CATEGORY_MICRO_MAX_COEC<0.142146] yes=5,no=6,missing=6
		5:[CAT_REL<0.004149] yes=11,no=12,missing=12
			11:[D_TITLEMD5_COEC<0.110444] yes=23,no=24,missing=24
				23:[D_CATEGORY_MACRO_MAX_COEC<0.10463] yes=47,no=48,missing=48
					47:[U_CITY_COEC<0.136221] yes=95,no=96,missing=95
						95:leaf=-0.069587
						96:leaf=-0.0218295
					48:[C_D_U_TITLEMD5_CATEGORY_MACRO_MAX_COEC<0.019217] yes=97,no=98,missing=98
						97:leaf=-0.0256918
						98:leaf=-0.0528966
				24:[D_CATEGORY_MICRO_MAX_COEC<0.112524] yes=49,no=50,missing=50
					49:[U_CATEGORY_MACRO_MAX_COEC<0.016639] yes=99,no=100,missing=100
						99:leaf=-0.0300383
						100:leaf=-0.049743
					50:[C_D_U_TITLEMD5_CATEGORY_MACRO_MAX_COEC<0.014542] yes=101,no=102,missing=102
						101:leaf=0.0260856
						102:leaf=-0.0215761
			12:[C_D_U_CATEGORY_CITY_MACRO_MAX_COEC<0.091936] yes=25,no=26,missing=25
				25:[D_TITLEMD5_COEC<0.092153] yes=51,no=52,missing=52
					51:[U_CATEGORY_MACRO_MAX_COEC<0.018738] yes=103,no=104,missing=104
						103:leaf=-0.0395336
						104:leaf=-0.0607418
					52:[C_D_U_TITLEMD5_CATEGORY_MACRO_MAX_COEC<0.025021] yes=105,no=106,missing=106
						105:leaf=-0.0200947
						106:leaf=-0.0401679
				26:[U_CATEGORY_MACRO_MAX_COEC<0.036841] yes=53,no=54,missing=54
					53:[U_CITY_COEC<0.121295] yes=107,no=108,missing=108
						107:leaf=-0.0182269
						108:leaf=0.0143681
					54:[D_TITLEMD5_COEC<0.102644] yes=109,no=110,missing=110
						109:leaf=-0.0576895
						110:leaf=-0.0364517
		6:[C_D_U_KEYWORD_CATEGORY_MICRO_MEAN_COEC<0.143108] yes=13,no=14,missing=14
			13:[D_TITLEMD5_COEC<0.092153] yes=27,no=28,missing=28
				27:[CAT_REL<0.032016] yes=55,no=56,missing=56
					55:[C_D_U_TITLEMD5_CATEGORY_MACRO_MAX_COEC<0.025021] yes=111,no=112,missing=112
						111:leaf=-0.0511975
						112:leaf=-0.0810622
					56:[D_TITLEMD5_COEC<0.068985] yes=113,no=114,missing=114
						113:leaf=-0.068809
						114:leaf=-0.0277596
				28:[CAT_REL<0.004149] yes=57,no=58,missing=58
					57:[D_PUBLISHER_COEC<0.114285] yes=115,no=116,missing=116
						115:leaf=-0.0382776
						116:leaf=-0.0144362
					58:[C_D_U_TITLEMD5_CATEGORY_MACRO_MAX_COEC<0.032242] yes=117,no=118,missing=118
						117:leaf=0.00564367
						118:leaf=-0.0151979
			14:[U_CATEGORY_MACRO_MAX_COEC<0.025538] yes=29,no=30,missing=30
				29:[C_D_U_TITLEMD5_CATEGORY_MICRO_MAX_COEC<0.228797] yes=59,no=60,missing=60
					59:[DOC_AGE<24] yes=119,no=120,missing=120
						119:leaf=0.00541009
						120:leaf=-0.0178307
					60:[D_TITLEMD5_COEC<0.110444] yes=121,no=122,missing=122
						121:leaf=-0.00638752
						122:leaf=0.0261013
				30:[C_D_U_TITLEMD5_CATEGORY_MICRO_MAX_COEC<0.222351] yes=61,no=62,missing=62
					61:[U_CATEGORY_MACRO_MAX_COEC<0.036841] yes=123,no=124,missing=124
						123:leaf=-0.0121473
						124:leaf=-0.0283419
					62:[CAT_REL<0.214824] yes=125,no=126,missing=126
						125:leaf=-0.00623274
						126:leaf=0.018942
booster[10]:
0:[C_D_U_TITLEMD5_CATEGORY_MICRO_MAX_COEC<0.082268] yes=1,no=2,missing=1
	1:[D_KEYWORD_MACRO_MEAN_COEC<0.095383] yes=3,no=4,missing=3
		3:[CAT_REL<0.000821] yes=7,no=8,missing=8
			7:[D_TITLEMD5_COEC<0.069241] yes=15,no=16,missing=15
				15:[C_D_U_TITLEMD5_CATEGORY_MICRO_MAX_COEC<0.017436] yes=31,no=32,missing=31
					31:[DOC_AGE<124] yes=63,no=64,missing=64
						63:leaf=-0.102178
						64:leaf=-0.0805711
					32:[U_CITY_COEC<0.069086] yes=65,no=66,missing=66
						65:leaf=-0.104034
						66:leaf=-0.0819242
				16:[D_CATEGORY_MACRO_MAX_COEC<0.098767] yes=33,no=34,missing=34
					33:[D_PUBLISHER_COEC<0.097665] yes=67,no=68,missing=68
						67:leaf=-0.0893779
						68:leaf=-0.0754388
					34:[U_CATEGORY_MACRO_MAX_COEC<0.020214] yes=69,no=70,missing=70
						69:leaf=-0.0401408
						70:leaf=-0.0711412
			8:[D_TITLEMD5_COEC<0.059397] yes=17,no=18,missing=17
				17:[C_D_U_CATEGORY_CITY_MACRO_MEAN_COEC<0.116067] yes=35,no=36,missing=35
					35:[D_TITLEMD5_COEC<0.035816] yes=71,no=72,missing=72
						71:leaf=-0.087906
						72:leaf=-0.0712231
					36:[C_D_U_PUBLISHER_CITY_COEC<0.161524] yes=73,no=74,missing=73
						73:leaf=-0.0581224
						74:leaf=-0.0116348
				18:[C_D_U_CATEGORY_CITY_MACRO_MAX_COEC<0.106017] yes=37,no=38,missing=37
					37:[DOC_AGE<12] yes=75,no=76,missing=76
						75:leaf=-0.0441995
						76:leaf=-0.0653892
					38:[U_CITY_COEC<0.115711] yes=77,no=78,missing=78
						77:leaf=-0.0345376
						78:leaf=0.00355177
		4:[D_TITLEMD5_COEC<0.143936] yes=9,no=10,missing=9
			9:[U_CATEGORY_MACRO_MAX_COEC<0.0271] yes=19,no=20,missing=20
				19:[D_TITLEMD5_COEC<0.083614] yes=39,no=40,missing=40
					39:[D_TITLEMD5_COEC<0.046961] yes=79,no=80,missing=80
						79:leaf=-0.0840159
						80:leaf=-0.0556405
					40:[CAT_REL<0.027265] yes=81,no=82,missing=82
						81:leaf=-0.0386339
						82:leaf=-0.0109079
				20:[D_PUBLISHER_COEC<0.101151] yes=41,no=42,missing=41
					41:[D_TITLEMD5_COEC<0.083614] yes=83,no=84,missing=83
						83:leaf=-0.0957165
						84:leaf=-0.0662714
					42:[DOC_AGE<124] yes=85,no=86,missing=86
						85:leaf=-0.0547975
						86:leaf=-0.033091
			10:[D_CATEGORY_MICRO_MEAN_COEC<0.099627] yes=21,no=22,missing=22
				21:[CAT_REL<0.000821] yes=43,no=44,missing=44
					43:[D_PUBLISHER_COEC<0.139137] yes=87,no=88,missing=88
						87:leaf=-0.0549307
						88:leaf=-0.0250738
					44:[D_PUBLISHER_COEC<0.060549] yes=89,no=90,missing=90
						89:leaf=-0.0995222
						90:leaf=0.000630387
				22:[DOC_AGE<124] yes=45,no=46,missing=46
					45:[WORD_COUNT<5621] yes=91,no=92,missing=92
						91:leaf=-0.0305333
						92:leaf=0.00293076
					46:[D_PUBLISHER_COEC<0.107589] yes=93,no=94,missing=94
						93:leaf=-0.0229718
						94:leaf=0.00899152
	2:[C_D_U_KEYWORD_CATEGORY_MICRO_MEAN_COEC<0.112427] yes=5,no=6,missing=6
		5:[D_TITLEMD5_COEC<0.10138] yes=11,no=12,missing=12
			11:[CAT_REL<0.008377] yes=23,no=24,missing=24
				23:[D_TITLEMD5_COEC<0.069241] yes=47,no=48,missing=48
					47:[U_CITY_COEC<0.072565] yes=95,no=96,missing=96
						95:leaf=-0.110446
						96:leaf=-0.0854827
					48:[D_CATEGORY_MACRO_MEAN_COEC<0.09743] yes=97,no=98,missing=98
						97:leaf=-0.0710405
						98:leaf=-0.0513511
				24:[C_D_U_TITLEMD5_CATEGORY_MACRO_MAX_COEC<0.028948] yes=49,no=50,missing=50
					49:[U_CITY_COEC<0.120371] yes=99,no=100,missing=99
						99:leaf=-0.0382654
						100:leaf=0.00597951
					50:[C_D_U_CATEGORY_CITY_MACRO_MAX_COEC<0.084751] yes=101,no=102,missing=101
						101:leaf=-0.0640289
						102:leaf=-0.0450473
			12:[CAT_REL<0.017331] yes=25,no=26,missing=26
				25:[D_TITLEMD5_COEC<0.139766] yes=51,no=52,missing=52
					51:[U_CATEGORY_MACRO_MAX_COEC<0.014025] yes=103,no=104,missing=104
						103:leaf=-0.0287731
						104:leaf=-0.0490976
					52:[D_PUBLISHER_COEC<0.114287] yes=105,no=106,missing=106
						105:leaf=-0.0329036
						106:leaf=-0.0127876
				26:[U_CATEGORY_MACRO_MAX_COEC<0.031364] yes=53,no=54,missing=54
					53:[C_D_U_CATEGORY_CITY_MACRO_MAX_COEC<0.07454] yes=107,no=108,missing=107
						107:leaf=-0.0221822
						108:leaf=-0.00311594
					54:[D_TITLEMD5_COEC<0.151501] yes=109,no=110,missing=110
						109:leaf=-0.0400299
						110:leaf=-0.0180143
		6:[C_D_U_TITLEMD5_CATEGORY_MICRO_MAX_COEC<0.200366] yes=13,no=14,missing=14
			13:[U_CATEGORY_MACRO_MAX_COEC<0.018637] yes=27,no=28,missing=28
				27:[DOC_AGE<24] yes=55,no=56,missing=56
					55:[CAT_REL<0.036004] yes=111,no=112,missing=112
						111:leaf=-0.010235
						112:leaf=0.00813186
					56:[U_CITY_COEC<0.111609] yes=113,no=114,missing=113
						113:leaf=-0.0320032
						114:leaf=0.00383294
				28:[D_TITLEMD5_COEC<0.098745] yes=57,no=58,missing=58
					57:[CAT_REL<0.067716] yes=115,no=116,missing=116
						115:leaf=-0.0555401
						116:leaf=-0.0298029
					58:[CAT_REL<0.056704] yes=117,no=118,missing=118
						117:leaf=-0.0288233
						118:leaf=-0.0106576
			14:[D_TITLEMD5_COEC<0.10138] yes=29,no=30,missing=30
				29:[CAT_REL<0.056704] yes=59,no=60,missing=60
					59:[U_CITY_COEC<0.150543] yes=119,no=120,missing=119
						119:leaf=-0.0457995
						120:leaf=0.0467428
					60:[D_TITLEMD5_COEC<0.079109] yes=121,no=122,missing=122
						121:leaf=-0.0431711
						122:leaf=-0.00084319
				30:[U_CATEGORY_MACRO_MAX_COEC<0.031561] yes=61,no=62,missing=62
					61:[CAT_REL<0.019528] yes=123,no=124,missing=124
						123:leaf=0.00139415
						124:leaf=0.0191189
					62:[CAT_REL<0.19715] yes=125,no=126,missing=126
						125:leaf=-0.0174009
						126:leaf=0.00545295
booster[11]:
0:[C_D_U_TITLEMD5_CATEGORY_MICRO_MAX_COEC<0.079086] yes=1,no=2,missing=1
	1:[D_TITLEMD5_COEC<0.113289] yes=3,no=4,missing=3
		3:[CAT_REL<0.000821] yes=7,no=8,missing=8
			7:[D_TITLEMD5_COEC<0.061263] yes=15,no=16,missing=15
				15:[D_TITLEMD5_COEC<0.037036] yes=31,no=32,missing=31
					31:[U_CATEGORY_MACRO_MAX_COEC<0.029092] yes=63,no=64,missing=64
						63:leaf=-0.0921872
						64:leaf=-0.10403
					32:[DOC_AGE<91] yes=65,no=66,missing=66
						65:leaf=-0.0907813
						66:leaf=-0.0636855
				16:[DOC_AGE<91] yes=33,no=34,missing=34
					33:[D_CATEGORY_MACRO_MEAN_COEC<0.096831] yes=67,no=68,missing=68
						67:leaf=-0.0830094
						68:leaf=-0.0696119
					34:[U_CITY_COEC<0.106615] yes=69,no=70,missing=69
						69:leaf=-0.0408791
						70:leaf=-0.0176286
			8:[D_TITLEMD5_COEC<0.061263] yes=17,no=18,missing=17
				17:[C_D_U_CATEGORY_CITY_MACRO_MEAN_COEC<0.11448] yes=35,no=36,missing=35
					35:[U_CITY_COEC<0.069265] yes=71,no=72,missing=72
						71:leaf=-0.0979791
						72:leaf=-0.07055
					36:[U_CITY_COEC<0.121461] yes=73,no=74,missing=74
						73:leaf=-0.0542719
						74:leaf=-0.0211434
				18:[U_CATEGORY_MACRO_MAX_COEC<0.020313] yes=37,no=38,missing=38
					37:[U_CITY_COEC<0.07671] yes=75,no=76,missing=76
						75:leaf=-0.0678137
						76:leaf=-0.0314775
					38:[D_TITLEMD5_COEC<0.093731] yes=77,no=78,missing=78
						77:leaf=-0.0651187
						78:leaf=-0.0435167
		4:[D_KEYWORD_MACRO_MEAN_COEC<0.116785] yes=9,no=10,missing=10
			9:[U_CATEGORY_MACRO_MAX_COEC<0.022649] yes=19,no=20,missing=20
				19:[C_D_U_KEYWORD_CATEGORY_MICRO_MEAN_COEC<0.087172] yes=39,no=40,missing=40
					39:[D_PUBLISHER_COEC<0.062714] yes=79,no=80,missing=80
						79:leaf=-0.0770147
						80:leaf=-0.0316533
					40:[U_CITY_COEC<0.101649] yes=81,no=82,missing=81
						81:leaf=-0.0130673
						82:leaf=0.023287
				20:[DOC_AGE<91] yes=41,no=42,missing=42
					41:[D_KEYWORD_MICRO_MEAN_COEC<0.095132] yes=83,no=84,missing=84
						83:leaf=-0.0676681
						84:leaf=-0.0513063
					42:[D_PUBLISHER_COEC<0.072168] yes=85,no=86,missing=86
						85:leaf=-0.100983
						86:leaf=-0.0177805
			10:[D_KEYWORD_MICRO_MAX_COEC<0.179008] yes=21,no=22,missing=22
				21:[D_CATEGORY_MACRO_MAX_COEC<0.106881] yes=43,no=44,missing=44
					43:[C_D_U_TITLEMD5_CITY_COEC<0.146071] yes=87,no=88,missing=87
						87:leaf=-0.0416997
						88:leaf=-0.0283956
					44:[WORD_COUNT<5116] yes=89,no=90,missing=90
						89:leaf=-0.0274074
						90:leaf=0.00267884
				22:[D_PUBLISHER_COEC<0.096754] yes=45,no=46,missing=46
					45:[D_CATEGORY_MACRO_MEAN_COEC<0.102771] yes=91,no=92,missing=92
						91:leaf=-0.0812581
						92:leaf=-0.040743
					46:[D_TITLEMD5_COEC<0.169028] yes=93,no=94,missing=94
						93:leaf=-0.0548084
						94:leaf=-0.0117379
	2:[C_D_U_TITLEMD5_CATEGORY_MICRO_MAX_COEC<0.142907] yes=5,no=6,missing=6
		5:[CAT_REL<0.026622] yes=11,no=12,missing=12
			11:[D_TITLEMD5_COEC<0.11114] yes=23,no=24,missing=24
				23:[U_CITY_COEC<0.071651] yes=47,no=48,missing=48
					47:[D_KEYWORD_MACRO_MEAN_COEC<0.087466] yes=95,no=96,missing=96
						95:leaf=-0.0879929
						96:leaf=-0.0692527
					48:[U_CATEGORY_MACRO_MAX_COEC<0.013613] yes=97,no=98,missing=98
						97:leaf=-0.0326669
						98:leaf=-0.0544971
				24:[U_CATEGORY_MACRO_MAX_COEC<0.023588] yes=49,no=50,missing=50
					49:[U_CATEGORY_MACRO_MAX_COEC<0.010844] yes=99,no=100,missing=100
						99:leaf=-0.00150174
						100:leaf=-0.0272479
					50:[TIME_OF_DAY<8] yes=101,no=102,missing=102
						101:leaf=-0.0529769
						102:leaf=-0.0359379
			12:[U_CATEGORY_MACRO_MAX_COEC<0.016932] yes=25,no=26,missing=26
				25:[U_CITY_COEC<0.071651] yes=51,no=52,missing=52
					51:[D_KEYWORD_MACRO_MEAN_COEC<0.087466] yes=103,no=104,missing=104
						103:leaf=-0.0595906
						104:leaf=-0.023538
					52:[U_CATEGORY_MACRO_MAX_COEC<0.011377] yes=105,no=106,missing=106
						105:leaf=0.00886205
						106:leaf=-0.0127536
				26:[D_TITLEMD5_COEC<0.084049] yes=53,no=54,missing=54
					53:[C_D_U_CATEGORY_CITY_MICRO_MEAN_COEC<0.154247] yes=107,no=108,missing=107
						107:leaf=-0.0509143
						108:leaf=-0.0122488
					54:[U_CATEGORY_MACRO_MAX_COEC<0.037219] yes=109,no=110,missing=110
						109:leaf=-0.02103
						110:leaf=-0.0392034
		6:[C_D_U_KEYWORD_CATEGORY_MICRO_MEAN_COEC<0.094595] yes=13,no=14,missing=14
			13:[D_KEYWORD_MACRO_MEAN_COEC<0.091522] yes=27,no=28,missing=28
				27:[C_D_U_TITLEMD5_CATEGORY_MACRO_MAX_COEC<0.05023] yes=55,no=56,missing=56
					55:[CAT_REL<0.053065] yes=111,no=112,missing=112
						111:leaf=-0.0555022
						112:leaf=-0.0269887
					56:[D_KEYWORD_MACRO_MEAN_COEC<0.078631] yes=113,no=114,missing=114
						113:leaf=-0.082787
						114:leaf=-0.0597413
				28:[C_D_U_KEYWORD_CATEGORY_MACRO_MAX_COEC<0.011088] yes=57,no=58,missing=58
					57:[D_TITLEMD5_COEC<0.141638] yes=115,no=116,missing=116
						115:leaf=-0.0279294
						116:leaf=-0.00155644
					58:[D_KEYWORD_MICRO_MAX_COEC<0.184933] yes=117,no=118,missing=118
						117:leaf=-0.0396569
						118:leaf=-0.0155172
			14:[U_CATEGORY_MACRO_MAX_COEC<0.029092] yes=29,no=30,missing=30
				29:[CAT_REL<0.038592] yes=59,no=60,missing=60
					59:[D_TITLEMD5_COEC<0.129884] yes=119,no=120,missing=120
						119:leaf=-0.0247671
						120:leaf=-0.00055101
					60:[C_D_U_CATEGORY_CITY_MICRO_MEAN_COEC<0.128078] yes=121,no=122,missing=121
						121:leaf=0.00475083
						122:leaf=0.0297494
				30:[D_PUBLISHER_COEC<0.126315] yes=61,no=62,missing=62
					61:[CAT_REL<0.126712] yes=123,no=124,missing=124
						123:leaf=-0.0322901
						124:leaf=-0.0142751
					62:[C_D_U_TITLEMD5_CATEGORY_MICRO_MAX_COEC<0.216308] yes=125,no=126,missing=126
						125:leaf=-0.00805853
						126:leaf=0.0118092
booster[12]:
0:[C_D_U_TITLEMD5_CATEGORY_MICRO_MAX_COEC<0.076478] yes=1,no=2,missing=1
	1:[D_TITLEMD5_COEC<0.108717] yes=3,no=4,missing=3
		3:[CAT_REL<0.000893] yes=7,no=8,missing=8
			7:[D_TITLEMD5_COEC<0.061893] yes=15,no=16,missing=15
				15:[U_CATEGORY_MACRO_MAX_COEC<0.021468] yes=31,no=32,missing=32
					31:[D_CATEGORY_MICRO_MEAN_COEC<0.092213] yes=63,no=64,missing=64
						63:leaf=-0.0861585
						64:leaf=-0.0662053
					32:[DOC_AGE<132] yes=65,no=66,missing=66
						65:leaf=-0.0969972
						66:leaf=-0.0747553
				16:[DOC_AGE<71] yes=33,no=34,missing=34
					33:[U_CATEGORY_MACRO_MAX_COEC<0.014535] yes=67,no=68,missing=68
						67:leaf=-0.0486827
						68:leaf=-0.0767404
					34:[IMAGE_COUNT<2] yes=69,no=70,missing=70
						69:leaf=-0.0558233
						70:leaf=-0.0363966
			8:[D_TITLEMD5_COEC<0.055478] yes=17,no=18,missing=17
				17:[U_CITY_COEC<0.083266] yes=35,no=36,missing=36
					35:[C_D_U_CATEGORY_CITY_MACRO_MEAN_COEC<0.075636] yes=71,no=72,missing=71
						71:leaf=-0.092624
						72:leaf=-0.0697373
					36:[C_D_U_KEYWORD_CATEGORY_MICRO_MEAN_COEC<0.117035] yes=73,no=74,missing=73
						73:leaf=-0.0677225
						74:leaf=-0.0421369
				18:[C_D_U_CATEGORY_CITY_MACRO_MAX_COEC<0.082855] yes=37,no=38,missing=37
					37:[U_CITY_COEC<0.076399] yes=75,no=76,missing=76
						75:leaf=-0.0747104
						76:leaf=-0.0482185
					38:[U_CATEGORY_MACRO_MAX_COEC<0.030756] yes=77,no=78,missing=78
						77:leaf=-0.0255563
						78:leaf=-0.0631177
		4:[D_KEYWORD_MACRO_MEAN_COEC<0.115778] yes=9,no=10,missing=10
			9:[C_D_U_KEYWORD_CATEGORY_MICRO_MEAN_COEC<0.085796] yes=19,no=20,missing=19
				19:[DOC_AGE<71] yes=39,no=40,missing=40
					39:[D_PUBLISHER_COEC<0.099359] yes=79,no=80,missing=80
						79:leaf=-0.0617806
						80:leaf=-0.0474781
					40:[D_KEYWORD_MACRO_MAX_COEC<0.020196] yes=81,no=82,missing=82
						81:leaf=0.00101857
						82:leaf=-0.0304158
				20:[U_CATEGORY_MACRO_MAX_COEC<0.021468] yes=41,no=42,missing=42
					41:[C_D_U_KEYWORD_CATEGORY_MICRO_MEAN_COEC<0.128311] yes=83,no=84,missing=84
						83:leaf=-0.011403
						84:leaf=0.0257634
					42:[CAT_REL<0.052732] yes=85,no=86,missing=86
						85:leaf=-0.0463078
						86:leaf=-0.0154953
			10:[D_KEYWORD_MACRO_MEAN_COEC<0.14462] yes=21,no=22,missing=22
				21:[D_PUBLISHER_COEC<0.139805] yes=43,no=44,missing=44
					43:[DOC_AGE<12] yes=87,no=88,missing=88
						87:leaf=-0.0241842
						88:leaf=-0.0383301
					44:[WORD_COUNT<3594] yes=89,no=90,missing=90
						89:leaf=-0.0225264
						90:leaf=0.00151568
				22:[D_KEYWORD_MACRO_MAX_COEC<0.067592] yes=45,no=46,missing=46
					45:[D_CATEGORY_MACRO_MAX_COEC<0.115255] yes=91,no=92,missing=92
						91:leaf=-0.0331787
						92:leaf=-0.00316605
					46:[D_KEYWORD_MICRO_MAX_COEC<0.179604] yes=93,no=94,missing=94
						93:leaf=-0.0233624
						94:leaf=-0.0067756
	2:[D_TITLEMD5_COEC<0.138738] yes=5,no=6,missing=6
		5:[CAT_REL<0.026974] yes=11,no=12,missing=12
			11:[C_D_U_KEYWORD_CATEGORY_MICRO_MEAN_COEC<0.102394] yes=23,no=24,missing=24
				23:[D_TITLEMD5_COEC<0.096197] yes=47,no=48,missing=48
					47:[C_D_U_CATEGORY_CITY_MICRO_MEAN_COEC<0.089552] yes=95,no=96,missing=96
						95:leaf=-0.0763828
						96:leaf=-0.0574064
					48:[D_PUBLISHER_COEC<0.100646] yes=97,no=98,missing=98
						97:leaf=-0.0502785
						98:leaf=-0.0328464
				24:[U_CITY_COEC<0.115692] yes=49,no=50,missing=49
					49:[D_TITLEMD5_COEC<0.09322] yes=99,no=100,missing=100
						99:leaf=-0.0485265
						100:leaf=-0.0270033
					50:[U_CITY_COEC<0.188923] yes=101,no=102,missing=102
						101:leaf=-0.00700657
						102:leaf=0.0389492
			12:[C_D_U_KEYWORD_CATEGORY_MICRO_MEAN_COEC<0.126667] yes=25,no=26,missing=26
				25:[U_CATEGORY_MACRO_MAX_COEC<0.016955] yes=51,no=52,missing=52
					51:[D_TITLEMD5_COEC<0.07752] yes=103,no=104,missing=104
						103:leaf=-0.0345334
						104:leaf=-0.00726795
					52:[D_TITLEMD5_COEC<0.09322] yes=105,no=106,missing=106
						105:leaf=-0.0443453
						106:leaf=-0.0235473
				26:[U_CATEGORY_MACRO_MAX_COEC<0.036762] yes=53,no=54,missing=54
					53:[C_D_U_CATEGORY_CITY_MACRO_MEAN_COEC<0.183631] yes=107,no=108,missing=107
						107:leaf=-0.00370056
						108:leaf=0.0328298
					54:[D_TITLEMD5_COEC<0.097959] yes=109,no=110,missing=110
						109:leaf=-0.0462927
						110:leaf=-0.0216566
		6:[U_CATEGORY_MACRO_MAX_COEC<0.016633] yes=13,no=14,missing=14
			13:[U_CATEGORY_MICRO_MAX_COEC<0.094589] yes=27,no=28,missing=28
				27:[U_CATEGORY_MACRO_MAX_COEC<0.010324] yes=55,no=56,missing=56
					55:[D_PUBLISHER_COEC<0.095452] yes=111,no=112,missing=112
						111:leaf=-0.00694164
						112:leaf=0.0281016
					56:[D_KEYWORD_MICRO_MEAN_COEC<0.081803] yes=113,no=114,missing=114
						113:leaf=-0.0456542
						114:leaf=-0.00159538
				28:[CAT_REL<0.000893] yes=57,no=58,missing=58
					57:[D_CATEGORY_MICRO_MAX_COEC<0.112458] yes=115,no=116,missing=116
						115:leaf=0.00247074
						116:leaf=0.0380285
					58:[D_KEYWORD_MACRO_MEAN_COEC<0.088597] yes=117,no=118,missing=118
						117:leaf=0.000123694
						118:leaf=0.035085
			14:[CAT_REL<0.024498] yes=29,no=30,missing=30
				29:[D_CATEGORY_MICRO_MEAN_COEC<0.114716] yes=59,no=60,missing=60
					59:[D_KEYWORD_MACRO_MEAN_COEC<0.107867] yes=119,no=120,missing=120
						119:leaf=-0.0352061
						120:leaf=-0.0169779
					60:[C_D_U_TITLEMD5_CATEGORY_MICRO_MAX_COEC<0.218929] yes=121,no=122,missing=122
						121:leaf=-0.00153758
						122:leaf=0.021077
				30:[U_CATEGORY_MICRO_MAX_COEC<0.091492] yes=61,no=62,missing=62
					61:[D_PUBLISHER_COEC<0.130629] yes=123,no=124,missing=124
						123:leaf=-0.0163554
						124:leaf=0.00557661
					62:[U_CATEGORY_MACRO_MAX_COEC<0.036762] yes=125,no=126,missing=126
						125:leaf=0.0120731
						126:leaf=-0.0110312
booster[13]:
0:[C_D_U_TITLEMD5_CATEGORY_MICRO_MAX_COEC<0.077003] yes=1,no=2,missing=1
	1:[D_KEYWORD_MACRO_MEAN_COEC<0.09434] yes=3,no=4,missing=3
		3:[CAT_REL<0.000822] yes=7,no=8,missing=8
			7:[D_KEYWORD_MACRO_MEAN_COEC<0.073755] yes=15,no=16,missing=15
				15:[U_CATEGORY_MACRO_MAX_COEC<0.020303] yes=31,no=32,missing=32
					31:[D_CATEGORY_MICRO_MAX_COEC<0.091761] yes=63,no=64,missing=64
						63:leaf=-0.0801644
						64:leaf=-0.0575583
					32:[DOC_AGE<129] yes=65,no=66,missing=66
						65:leaf=-0.0916817
						66:leaf=-0.0684532
				16:[D_CATEGORY_MACRO_MAX_COEC<0.096661] yes=33,no=34,missing=34
					33:[D_PUBLISHER_COEC<0.098227] yes=67,no=68,missing=67
						67:leaf=-0.0777083
						68:leaf=-0.0641911
					34:[D_TITLEMD5_COEC<0.099655] yes=69,no=70,missing=69
						69:leaf=-0.0646325
						70:leaf=-0.0467715
			8:[D_TITLEMD5_COEC<0.082847] yes=17,no=18,missing=17
				17:[U_CATEGORY_MACRO_MAX_COEC<0.019602] yes=35,no=36,missing=36
					35:[C_D_U_CATEGORY_CITY_MACRO_MEAN_COEC<0.080674] yes=71,no=72,missing=72
						71:leaf=-0.0677525
						72:leaf=-0.0375217
					36:[DOC_AGE<129] yes=73,no=74,missing=74
						73:leaf=-0.0707779
						74:leaf=-0.00907473
				18:[U_CATEGORY_MACRO_MAX_COEC<0.031378] yes=37,no=38,missing=38
					37:[C_D_U_CATEGORY_CITY_MACRO_MAX_COEC<0.062798] yes=75,no=76,missing=76
						75:leaf=-0.048906
						76:leaf=-0.0202481
					38:[C_D_U_KEYWORD_CATEGORY_MICRO_MEAN_COEC<0.096186] yes=77,no=78,missing=78
						77:leaf=-0.0645664
						78:leaf=-0.0355568
		4:[D_TITLEMD5_COEC<0.143122] yes=9,no=10,missing=9
			9:[CAT_REL<0.01285] yes=19,no=20,missing=20
				19:[IMAGE_COUNT<2] yes=39,no=40,missing=40
					39:[D_PUBLISHER_COEC<0.102156] yes=79,no=80,missing=79
						79:leaf=-0.0611764
						80:leaf=-0.0452728
					40:[D_TITLEMD5_COEC<0.095088] yes=81,no=82,missing=81
						81:leaf=-0.0597895
						82:leaf=-0.037764
				20:[D_TITLEMD5_COEC<0.082847] yes=41,no=42,missing=42
					41:[U_CATEGORY_MICRO_MAX_COEC<0.112149] yes=83,no=84,missing=84
						83:leaf=-0.05016
						84:leaf=-0.011135
					42:[U_CATEGORY_MACRO_MAX_COEC<0.013158] yes=85,no=86,missing=86
						85:leaf=0.010913
						86:leaf=-0.0195846
			10:[D_CATEGORY_MICRO_MEAN_COEC<0.09847] yes=21,no=22,missing=22
				21:[D_CATEGORY_MACRO_MAX_COEC<0.0762] yes=43,no=44,missing=44
					43:[U_CATEGORY_MACRO_MAX_COEC<0.009384] yes=87,no=88,missing=88
						87:leaf=0.0392119
						88:leaf=-0.0660407
					44:[D_PUBLISHER_COEC<0.13494] yes=89,no=90,missing=90
						89:leaf=-0.038442
						90:leaf=-0.0111145
				22:[DOC_AGE<129] yes=45,no=46,missing=46
					45:[WORD_COUNT<5621] yes=91,no=92,missing=92
						91:leaf=-0.0227728
						92:leaf=0.00651765
					46:[D_KEYWORD_MACRO_MAX_COEC<0.019002] yes=93,no=94,missing=94
						93:leaf=0.0697966
						94:leaf=0.00422875
	2:[D_TITLEMD5_COEC<0.123208] yes=5,no=6,missing=6
		5:[CAT_REL<0.020151] yes=11,no=12,missing=12
			11:[C_D_U_KEYWORD_CATEGORY_MICRO_MEAN_COEC<0.096186] yes=23,no=24,missing=24
				23:[D_TITLEMD5_COEC<0.09157] yes=47,no=48,missing=48
					47:[U_CITY_COEC<0.075362] yes=95,no=96,missing=96
						95:leaf=-0.0893222
						96:leaf=-0.0618268
					48:[C_D_U_TITLEMD5_CATEGORY_MACRO_MAX_COEC<0.030074] yes=97,no=98,missing=98
						97:leaf=-0.0389638
						98:leaf=-0.0580858
				24:[U_CITY_COEC<0.111548] yes=49,no=50,missing=49
					49:[D_CATEGORY_MACRO_MAX_COEC<0.221191] yes=99,no=100,missing=100
						99:leaf=-0.0380935
						100:leaf=-0.00295649
					50:[U_CITY_COEC<0.191225] yes=101,no=102,missing=102
						101:leaf=-0.0111476
						102:leaf=0.0434805
			12:[C_D_U_CATEGORY_CITY_MICRO_MEAN_COEC<0.184188] yes=25,no=26,missing=25
				25:[C_D_U_TITLEMD5_CITY_COEC<0.999999] yes=51,no=52,missing=52
					51:[U_CATEGORY_MACRO_MAX_COEC<0.017316] yes=103,no=104,missing=104
						103:leaf=0.000580195
						104:leaf=-0.0180825
					52:[C_D_U_CATEGORY_CITY_MICRO_MEAN_COEC<0.100173] yes=105,no=106,missing=106
						105:leaf=-0.0455568
						106:leaf=-0.0220405
				26:[U_CITY_COEC<0.150881] yes=53,no=54,missing=54
					53:[C_D_U_CATEGORY_AGE_MACRO_MAX_COEC<0.093639] yes=107,no=108,missing=107
						107:leaf=0.00330728
						108:leaf=0.0387926
					54:[C_D_U_CATEGORY_CITY_MICRO_MAX_COEC<0.319316] yes=109,no=110,missing=110
						109:leaf=0.0264431
						110:leaf=0.0559175
		6:[C_D_U_KEYWORD_CATEGORY_MICRO_MAX_COEC<0.18514] yes=13,no=14,missing=14
			13:[CAT_REL<0.000822] yes=27,no=28,missing=28
				27:[D_CATEGORY_MICRO_MAX_COEC<0.112546] yes=55,no=56,missing=56
					55:[U_CATEGORY_MACRO_MAX_COEC<0.036841] yes=111,no=112,missing=112
						111:leaf=-0.0216008
						112:leaf=-0.0395266
					56:[U_CATEGORY_MACRO_MAX_COEC<0.012517] yes=113,no=114,missing=114
						113:leaf=0.0310954
						114:leaf=-0.00525444
				28:[C_D_U_TITLEMD5_CATEGORY_MACRO_MAX_COEC<0.034512] yes=57,no=58,missing=58
					57:[U_CATEGORY_MICRO_MAX_COEC<0.095157] yes=115,no=116,missing=116
						115:leaf=-0.00576943
						116:leaf=0.0120484
					58:[D_PUBLISHER_COEC<0.115987] yes=117,no=118,missing=118
						117:leaf=-0.020397
						118:leaf=-0.00592451
			14:[U_CATEGORY_MACRO_MAX_COEC<0.014526] yes=29,no=30,missing=30
				29:[U_CATEGORY_MICRO_MAX_COEC<0.09328] yes=59,no=60,missing=60
					59:[D_PUBLISHER_COEC<0.098227] yes=119,no=120,missing=120
						119:leaf=-0.0180205
						120:leaf=0.0136836
					60:[CAT_REL<0.010879] yes=121,no=122,missing=122
						121:leaf=0.0178035
						122:leaf=0.0368514
				30:[CAT_REL<0.04276] yes=61,no=62,missing=62
					61:[D_PUBLISHER_COEC<0.126667] yes=123,no=124,missing=124
						123:leaf=-0.0137608
						124:leaf=0.0063838
					62:[TIME_OF_DAY<15] yes=125,no=126,missing=126
						125:leaf=0.0160147
						126:leaf=-0.000111528
booster[14]:
0:[C_D_U_KEYWORD_CATEGORY_MICRO_MEAN_COEC<0.095439] yes=1,no=2,missing=1
	1:[D_TITLEMD5_COEC<0.105227] yes=3,no=4,missing=3
		3:[C_D_U_TITLEMD5_CATEGORY_MICRO_MAX_COEC<0.041103] yes=7,no=8,missing=7
			7:[DOC_AGE<128] yes=15,no=16,missing=16
				15:[D_TITLEMD5_COEC<0.075706] yes=31,no=32,missing=31
					31:[U_CATEGORY_MACRO_MAX_COEC<0.028773] yes=63,no=64,missing=64
						63:leaf=-0.0696547
						64:leaf=-0.0904544
					32:[U_CATEGORY_MACRO_MAX_COEC<0.01386] yes=65,no=66,missing=66
						65:leaf=-0.0400947
						66:leaf=-0.0692061
				16:[D_TITLEMD5_COEC<0.049502] yes=33,no=34,missing=33
					33:[D_TITLEMD5_COEC<0.023731] yes=67,no=68,missing=67
						67:leaf=-0.0946349
						68:leaf=-0.0638705
					34:[C_D_U_PUBLISHER_CITY_COEC<0.170863] yes=69,no=70,missing=69
						69:leaf=-0.033869
						70:leaf=-0.00355232
			8:[CAT_REL<0.033921] yes=17,no=18,missing=18
				17:[U_CATEGORY_MACRO_MAX_COEC<0.010902] yes=35,no=36,missing=36
					35:[U_CITY_COEC<0.072166] yes=71,no=72,missing=72
						71:leaf=-0.0817315
						72:leaf=-0.024838
					36:[D_CATEGORY_MACRO_MEAN_COEC<0.096655] yes=73,no=74,missing=74
						73:leaf=-0.0659346
						74:leaf=-0.0483521
				18:[U_CATEGORY_MACRO_MAX_COEC<0.03162] yes=37,no=38,missing=38
					37:[DOC_AGE<25] yes=75,no=76,missing=76
						75:leaf=-0.0269734
						76:leaf=-0.0521584
					38:[CAT_REL<0.247093] yes=77,no=78,missing=78
						77:leaf=-0.0659916
						78:leaf=-0.0488336
		4:[D_KEYWORD_MICRO_MAX_COEC<0.137866] yes=9,no=10,missing=10
			9:[CAT_REL<0.000877] yes=19,no=20,missing=20
				19:[D_PUBLISHER_COEC<0.10316] yes=39,no=40,missing=40
					39:[D_CATEGORY_MICRO_MEAN_COEC<0.107385] yes=79,no=80,missing=80
						79:leaf=-0.0567206
						80:leaf=-0.0263935
					40:[U_CATEGORY_MACRO_MAX_COEC<0.020796] yes=81,no=82,missing=82
						81:leaf=-0.0195933
						82:leaf=-0.0411568
				20:[C_D_U_TITLEMD5_CATEGORY_MACRO_MAX_COEC<0.037698] yes=41,no=42,missing=42
					41:[CAT_REL<0.050118] yes=83,no=84,missing=84
						83:leaf=-0.0283986
						84:leaf=-0.00905743
					42:[D_PUBLISHER_COEC<0.058471] yes=85,no=86,missing=86
						85:leaf=-0.0837248
						86:leaf=-0.0347751
			10:[D_PUBLISHER_COEC<0.098438] yes=21,no=22,missing=22
				21:[U_CATEGORY_MACRO_MAX_COEC<0.030541] yes=43,no=44,missing=44
					43:[D_PUBLISHER_COEC<0.073264] yes=87,no=88,missing=88
						87:leaf=-0.0538115
						88:leaf=-0.0167511
					44:[D_CATEGORY_MICRO_MAX_COEC<0.113399] yes=89,no=90,missing=90
						89:leaf=-0.0479587
						90:leaf=-0.0171612
				22:[D_TITLEMD5_COEC<0.18532] yes=45,no=46,missing=46
					45:[U_CATEGORY_MACRO_MAX_COEC<0.01991] yes=91,no=92,missing=92
						91:leaf=-0.000307761
						92:leaf=-0.0256679
					46:[D_KEYWORD_MACRO_MAX_COEC<0.07477] yes=93,no=94,missing=94
						93:leaf=-0.0140281
						94:leaf=0.00172932
	2:[D_TITLEMD5_COEC<0.078417] yes=5,no=6,missing=5
		5:[U_CITY_COEC<0.076285] yes=11,no=12,missing=12
			11:[C_D_U_TITLEMD5_CITY_COEC<0.340423] yes=23,no=24,missing=24
				23:[U_CATEGORY_MICRO_MAX_COEC<0.118992] yes=47,no=48,missing=48
					47:[C_D_U_PUBLISHER_AGE_COEC<0.147075] yes=95,no=96,missing=95
						95:leaf=-0.0503427
						96:leaf=0.0728682
					48:[U_CITY_COEC<0.051309] yes=97,no=98,missing=98
						97:leaf=0.0997429
						98:leaf=-0.0258577
				24:[C_D_U_CATEGORY_CITY_MICRO_MEAN_COEC<0.074592] yes=49,no=50,missing=50
					49:[DOC_AGE<8] yes=99,no=100,missing=100
						99:leaf=-0.0706036
						100:leaf=-0.0921723
					50:[D_TITLEMD5_COEC<0.062741] yes=101,no=102,missing=102
						101:leaf=-0.0750849
						102:leaf=-0.0518041
			12:[U_CATEGORY_MACRO_MAX_COEC<0.016879] yes=25,no=26,missing=26
				25:[D_TITLEMD5_COEC<0.038262] yes=51,no=52,missing=52
					51:[DOC_AGE<3] yes=103,no=104,missing=104
						103:leaf=-0.025392
						104:leaf=-0.0606322
					52:[U_CITY_COEC<0.116102] yes=105,no=106,missing=105
						105:leaf=-0.0246876
						106:leaf=0.0177176
				26:[CAT_REL<0.054935] yes=53,no=54,missing=54
					53:[D_TITLEMD5_COEC<0.038262] yes=107,no=108,missing=107
						107:leaf=-0.0813765
						108:leaf=-0.056329
					54:[U_CATEGORY_MACRO_MAX_COEC<0.035008] yes=109,no=110,missing=110
						109:leaf=-0.0326072
						110:leaf=-0.0594944
		6:[C_D_U_KEYWORD_CATEGORY_MICRO_MAX_COEC<0.179864] yes=13,no=14,missing=14
			13:[U_CATEGORY_MACRO_MAX_COEC<0.016401] yes=27,no=28,missing=28
				27:[U_CITY_COEC<0.127563] yes=55,no=56,missing=55
					55:[DOC_AGE<24] yes=111,no=112,missing=112
						111:leaf=-0.00281644
						112:leaf=-0.0276582
					56:[U_CATEGORY_MACRO_MAX_COEC<0.010902] yes=113,no=114,missing=114
						113:leaf=0.0589606
						114:leaf=0.0208319
				28:[CAT_REL<0.064834] yes=57,no=58,missing=58
					57:[D_TITLEMD5_COEC<0.129321] yes=115,no=116,missing=116
						115:leaf=-0.0350981
						116:leaf=-0.0176642
					58:[U_CATEGORY_MACRO_MAX_COEC<0.041645] yes=117,no=118,missing=118
						117:leaf=-0.00799152
						118:leaf=-0.0270438
			14:[U_CATEGORY_MACRO_MAX_COEC<0.018649] yes=29,no=30,missing=30
				29:[DOC_AGE<24] yes=59,no=60,missing=60
					59:[D_PUBLISHER_COEC<0.098438] yes=119,no=120,missing=120
						119:leaf=0.00250001
						120:leaf=0.0197933
					60:[C_D_U_KEYWORD_CATEGORY_MICRO_MEAN_COEC<0.165672] yes=121,no=122,missing=122
						121:leaf=-0.0202149
						122:leaf=0.00202598
				30:[CAT_REL<0.0709] yes=61,no=62,missing=62
					61:[D_TITLEMD5_COEC<0.143177] yes=123,no=124,missing=124
						123:leaf=-0.0226863
						124:leaf=-0.00446625
					62:[U_CATEGORY_MACRO_MAX_COEC<0.036594] yes=125,no=126,missing=126
						125:leaf=0.00807566
						126:leaf=-0.00897502
booster[15]:
0:[C_D_U_TITLEMD5_CATEGORY_MICRO_MAX_COEC<0.069815] yes=1,no=2,missing=1
	1:[D_KEYWORD_MACRO_MEAN_COEC<0.094582] yes=3,no=4,missing=3
		3:[CAT_REL<0.000831] yes=7,no=8,missing=8
			7:[D_KEYWORD_MACRO_MEAN_COEC<0.079301] yes=15,no=16,missing=15
				15:[D_TITLEMD5_COEC<0.02459] yes=31,no=32,missing=31
					31:[DOC_AGE<3] yes=63,no=64,missing=64
						63:leaf=-0.0796078
						64:leaf=-0.0954395
					32:[U_CATEGORY_MACRO_MAX_COEC<0.011306] yes=65,no=66,missing=66
						65:leaf=-0.0439838
						66:leaf=-0.0740313
				16:[DOC_AGE<70] yes=33,no=34,missing=34
					33:[U_CATEGORY_MACRO_MAX_COEC<0.020188] yes=67,no=68,missing=68
						67:leaf=-0.0416609
						68:leaf=-0.0629984
					34:[D_TITLEMD5_COEC<0.040297] yes=69,no=70,missing=69
						69:leaf=-0.0820789
						70:leaf=-0.0270955
			8:[D_KEYWORD_MACRO_MEAN_COEC<0.066453] yes=17,no=18,missing=18
				17:[D_TITLEMD5_COEC<0.02459] yes=35,no=36,missing=36
					35:[U_CATEGORY_MACRO_MAX_COEC<0.018256] yes=71,no=72,missing=72
						71:leaf=-0.0649196
						72:leaf=-0.0833362
					36:[U_CITY_COEC<0.150983] yes=73,no=74,missing=73
						73:leaf=-0.0539652
						74:leaf=0.0134586
				18:[U_CATEGORY_MICRO_MAX_COEC<0.114161] yes=37,no=38,missing=38
					37:[U_CATEGORY_MACRO_MAX_COEC<0.013534] yes=75,no=76,missing=76
						75:leaf=-0.0218973
						76:leaf=-0.0450291
					38:[C_D_U_CATEGORY_CITY_MACRO_MAX_COEC<0.066174] yes=77,no=78,missing=78
						77:leaf=-0.0458623
						78:leaf=0.00402837
		4:[D_TITLEMD5_COEC<0.141574] yes=9,no=10,missing=9
			9:[DOC_AGE<135] yes=19,no=20,missing=20
				19:[U_CATEGORY_MACRO_MAX_COEC<0.019962] yes=39,no=40,missing=40
					39:[D_TITLEMD5_COEC<0.098745] yes=79,no=80,missing=79
						79:leaf=-0.0328017
						80:leaf=-0.00393116
					40:[D_TITLEMD5_COEC<0.094149] yes=81,no=82,missing=82
						81:leaf=-0.0658645
						82:leaf=-0.0402662
				20:[D_TITLEMD5_COEC<0.076109] yes=41,no=42,missing=41
					41:[C_D_U_KEYWORD_CATEGORY_MICRO_MAX_COEC<0.221663] yes=83,no=84,missing=83
						83:leaf=-0.0484457
						84:leaf=0.0711257
					42:[U_CATEGORY_MICRO_MAX_COEC<0.09864] yes=85,no=86,missing=85
						85:leaf=-0.0144145
						86:leaf=0.0632181
			10:[D_CATEGORY_MICRO_MAX_COEC<0.098477] yes=21,no=22,missing=22
				21:[D_CATEGORY_MACRO_MAX_COEC<0.064727] yes=43,no=44,missing=44
					43:[U_CITY_COEC<0.078299] yes=87,no=88,missing=87
						87:leaf=-0.0770111
						88:leaf=-0.053524
					44:[D_PUBLISHER_COEC<0.140342] yes=89,no=90,missing=90
						89:leaf=-0.033616
						90:leaf=-0.00601566
				22:[DOC_AGE<135] yes=45,no=46,missing=46
					45:[WORD_COUNT<5480] yes=91,no=92,missing=92
						91:leaf=-0.0188946
						92:leaf=0.00765318
					46:[D_PUBLISHER_COEC<0.110451] yes=93,no=94,missing=94
						93:leaf=-0.00859717
						94:leaf=0.0157496
	2:[C_D_U_KEYWORD_CATEGORY_MICRO_MEAN_COEC<0.104842] yes=5,no=6,missing=6
		5:[D_TITLEMD5_COEC<0.098745] yes=11,no=12,missing=12
			11:[CAT_REL<0.000831] yes=23,no=24,missing=24
				23:[D_CATEGORY_MICRO_MEAN_COEC<0.101395] yes=47,no=48,missing=48
					47:[IMAGE_COUNT<2] yes=95,no=96,missing=96
						95:leaf=-0.0655115
						96:leaf=-0.0490595
					48:[C_D_U_TITLEMD5_CATEGORY_MACRO_MAX_COEC<0.015791] yes=97,no=98,missing=98
						97:leaf=-0.0206439
						98:leaf=-0.047546
				24:[C_D_U_TITLEMD5_CATEGORY_MACRO_MAX_COEC<0.022546] yes=49,no=50,missing=50
					49:[U_CITY_COEC<0.115956] yes=99,no=100,missing=99
						99:leaf=-0.0276187
						100:leaf=0.00992313
					50:[C_D_U_KEYWORD_CATEGORY_MICRO_MEAN_COEC<0.073184] yes=101,no=102,missing=102
						101:leaf=-0.0696389
						102:leaf=-0.0398974
			12:[U_CATEGORY_MACRO_MAX_COEC<0.029075] yes=25,no=26,missing=26
				25:[CAT_REL<0.052989] yes=51,no=52,missing=52
					51:[C_D_U_PUBLISHER_CITY_COEC<0.099571] yes=103,no=104,missing=103
						103:leaf=-0.027153
						104:leaf=-0.00817795
					52:[U_CATEGORY_MICRO_MAX_COEC<0.094099] yes=105,no=106,missing=106
						105:leaf=-0.00805451
						106:leaf=0.00992529
				26:[CAT_REL<0.131283] yes=53,no=54,missing=54
					53:[D_PUBLISHER_COEC<0.104954] yes=107,no=108,missing=108
						107:leaf=-0.0445036
						108:leaf=-0.0279922
					54:[U_CATEGORY_MACRO_MAX_COEC<0.048658] yes=109,no=110,missing=110
						109:leaf=-0.0128966
						110:leaf=-0.0322076
		6:[D_TITLEMD5_COEC<0.125544] yes=13,no=14,missing=14
			13:[U_CATEGORY_MACRO_MAX_COEC<0.035062] yes=27,no=28,missing=28
				27:[CAT_REL<0.038686] yes=55,no=56,missing=56
					55:[U_CITY_COEC<0.111961] yes=111,no=112,missing=111
						111:leaf=-0.0238674
						112:leaf=0.0051866
					56:[U_CATEGORY_MICRO_MAX_COEC<0.112081] yes=113,no=114,missing=114
						113:leaf=-0.00886855
						114:leaf=0.00904013
				28:[DOC_AGE<135] yes=57,no=58,missing=58
					57:[CAT_REL<0.219379] yes=115,no=116,missing=116
						115:leaf=-0.0428327
						116:leaf=-0.0226489
					58:[D_TITLEMD5_COEC<0.059284] yes=117,no=118,missing=118
						117:leaf=-0.0543512
						118:leaf=0.0178202
			14:[U_CATEGORY_MACRO_MAX_COEC<0.013237] yes=29,no=30,missing=30
				29:[U_CATEGORY_MICRO_MAX_COEC<0.0933] yes=59,no=60,missing=60
					59:[DOC_AGE<22] yes=119,no=120,missing=120
						119:leaf=0.0120267
						120:leaf=-0.00977705
					60:[CAT_REL<0.004325] yes=121,no=122,missing=122
						121:leaf=0.0161886
						122:leaf=0.0344136
				30:[C_D_U_KEYWORD_CATEGORY_MICRO_MAX_COEC<0.226529] yes=61,no=62,missing=62
					61:[DOC_AGE<24] yes=123,no=124,missing=124
						123:leaf=-0.0047537
						124:leaf=-0.0210881
					62:[D_PUBLISHER_COEC<0.131183] yes=125,no=126,missing=126
						125:leaf=0.00386326
						126:leaf=0.022939
booster[16]:
0:[C_D_U_KEYWORD_CATEGORY_MICRO_MEAN_COEC<0.091895] yes=1,no=2,missing=1
	1:[D_TITLEMD5_COEC<0.101506] yes=3,no=4,missing=3
		3:[C_D_U_TITLEMD5_CATEGORY_MICRO_MAX_COEC<0.020536] yes=7,no=8,missing=7
			7:[DOC_AGE<71] yes=15,no=16,missing=16
				15:[D_TITLEMD5_COEC<0.082202] yes=31,no=32,missing=31
					31:[U_CATEGORY_MACRO_MAX_COEC<0.02392] yes=63,no=64,missing=64
						63:leaf=-0.0636967
						64:leaf=-0.0829375
					32:[IMAGE_COUNT<2] yes=65,no=66,missing=66
						65:leaf=-0.0688703
						66:leaf=-0.0542018
				16:[D_TITLEMD5_COEC<0.041584] yes=33,no=34,missing=33
					33:[D_TITLEMD5_COEC<0.025175] yes=67,no=68,missing=67
						67:leaf=-0.0885083
						68:leaf=-0.0663941
					34:[D_KEYWORD_MACRO_MEAN_COEC<0.086809] yes=69,no=70,missing=70
						69:leaf=-0.0410879
						70:leaf=-0.0237763
			8:[CAT_REL<0.000909] yes=17,no=18,missing=18
				17:[U_CATEGORY_MACRO_MAX_COEC<0.010892] yes=35,no=36,missing=36
					35:[U_CITY_COEC<0.072152] yes=71,no=72,missing=72
						71:leaf=-0.0797056
						72:leaf=-0.0255392
					36:[D_CATEGORY_MICRO_MEAN_COEC<0.095433] yes=73,no=74,missing=74
						73:leaf=-0.0630481
						74:leaf=-0.0480086
				18:[C_D_U_CATEGORY_CITY_MACRO_MAX_COEC<0.07842] yes=37,no=38,missing=37
					37:[U_CITY_COEC<0.057908] yes=75,no=76,missing=76
						75:leaf=-0.0778702
						76:leaf=-0.0410489
					38:[U_CATEGORY_MACRO_MAX_COEC<0.009331] yes=77,no=78,missing=78
						77:leaf=0.0131174
						78:leaf=-0.0296303
		4:[D_KEYWORD_MICRO_MAX_COEC<0.136938] yes=9,no=10,missing=10
			9:[CAT_REL<0.02774] yes=19,no=20,missing=20
				19:[IMAGE_COUNT<2] yes=39,no=40,missing=40
					39:[D_PUBLISHER_COEC<0.100249] yes=79,no=80,missing=80
						79:leaf=-0.0544195
						80:leaf=-0.0384897
					40:[U_CATEGORY_MACRO_MAX_COEC<0.010892] yes=81,no=82,missing=82
						81:leaf=0.00842865
						82:leaf=-0.0327305
				20:[U_CATEGORY_MACRO_MAX_COEC<0.010398] yes=41,no=42,missing=42
					41:[D_PUBLISHER_COEC<0.077306] yes=83,no=84,missing=84
						83:leaf=-0.0194338
						84:leaf=0.0337077
					42:[C_D_U_TITLEMD5_CATEGORY_MACRO_MAX_COEC<0.041602] yes=85,no=86,missing=86
						85:leaf=-0.0158359
						86:leaf=-0.0392282
			10:[C_D_U_TITLEMD5_CITY_COEC<0.139757] yes=21,no=22,missing=21
				21:[D_PUBLISHER_COEC<0.094413] yes=43,no=44,missing=44
					43:[CAT_REL<0.000909] yes=87,no=88,missing=88
						87:leaf=-0.0426167
						88:leaf=-0.0193752
					44:[U_CATEGORY_MACRO_MAX_COEC<0.027148] yes=89,no=90,missing=90
						89:leaf=-0.00495314
						90:leaf=-0.0238088
				22:[D_KEYWORD_MACRO_MAX_COEC<0.077215] yes=45,no=46,missing=46
					45:[C_D_U_KEYWORD_CATEGORY_MACRO_MAX_COEC<0.007948] yes=91,no=92,missing=92
						91:leaf=0.0051901
						92:leaf=-0.0177957
					46:[D_PUBLISHER_COEC<0.12311] yes=93,no=94,missing=94
						93:leaf=-0.00928941
						94:leaf=0.00442608
	2:[D_TITLEMD5_COEC<0.08529] yes=5,no=6,missing=5
		5:[D_TITLEMD5_COEC<0.058605] yes=11,no=12,missing=11
			11:[C_D_U_CATEGORY_CITY_MACRO_MAX_COEC<0.123722] yes=23,no=24,missing=23
				23:[U_CITY_COEC<0.076615] yes=47,no=48,missing=48
					47:[C_D_U_CATEGORY_CITY_MACRO_MEAN_COEC<0.073496] yes=95,no=96,missing=95
						95:leaf=-0.0834376
						96:leaf=-0.057103
					48:[CAT_REL<0.02955] yes=97,no=98,missing=98
						97:leaf=-0.060558
						98:leaf=-0.0416396
				24:[C_D_U_PUBLISHER_CITY_COEC<0.163028] yes=49,no=50,missing=49
					49:[U_CITY_COEC<0.191106] yes=99,no=100,missing=100
						99:leaf=-0.0327925
						100:leaf=0.0309592
					50:[C_D_U_KEYWORD_CATEGORY_MICRO_MAX_COEC<0.137221] yes=101,no=102,missing=102
						101:leaf=-0.0349839
						102:leaf=0.0343637
			12:[U_CATEGORY_MACRO_MAX_COEC<0.019824] yes=25,no=26,missing=26
				25:[U_CITY_COEC<0.112319] yes=51,no=52,missing=51
					51:[CAT_REL<0.036522] yes=103,no=104,missing=104
						103:leaf=-0.0344831
						104:leaf=-0.0116154
					52:[C_D_U_CATEGORY_CITY_MACRO_MAX_COEC<0.142376] yes=105,no=106,missing=106
						105:leaf=-0.00728099
						106:leaf=0.0345798
				26:[CAT_REL<0.081872] yes=53,no=54,missing=54
					53:[DOC_AGE<127] yes=107,no=108,missing=108
						107:leaf=-0.0527168
						108:leaf=0.0174533
					54:[U_CATEGORY_MACRO_MAX_COEC<0.036462] yes=109,no=110,missing=110
						109:leaf=-0.0221199
						110:leaf=-0.0442983
		6:[C_D_U_KEYWORD_CATEGORY_MICRO_MEAN_COEC<0.152309] yes=13,no=14,missing=14
			13:[U_CATEGORY_MACRO_MAX_COEC<0.01354] yes=27,no=28,missing=28
				27:[U_CITY_COEC<0.128201] yes=55,no=56,missing=55
					55:[C_D_U_PUBLISHER_CITY_COEC<0.085853] yes=111,no=112,missing=111
						111:leaf=-0.00627642
						112:leaf=0.0132581
					56:[C_D_U_CATEGORY_CITY_MICRO_MAX_COEC<0.228753] yes=113,no=114,missing=114
						113:leaf=0.0286913
						114:leaf=0.0642885
				28:[CAT_REL<0.060812] yes=57,no=58,missing=58
					57:[D_PUBLISHER_COEC<0.114805] yes=115,no=116,missing=116
						115:leaf=-0.025013
						116:leaf=-0.00923827
					58:[U_CATEGORY_MACRO_MAX_COEC<0.034961] yes=117,no=118,missing=118
						117:leaf=-0.000669171
						118:leaf=-0.0177019
			14:[C_D_U_TITLEMD5_CATEGORY_MICRO_MAX_COEC<0.261331] yes=29,no=30,missing=30
				29:[C_D_U_KEYWORD_CATEGORY_MACRO_MEAN_COEC<0.028632] yes=59,no=60,missing=60
					59:[DOC_AGE<24] yes=119,no=120,missing=120
						119:leaf=0.0156048
						120:leaf=-0.00442073
					60:[C_D_U_PUBLISHER_CITY_COEC<0.12712] yes=121,no=122,missing=121
						121:leaf=-0.00693902
						122:leaf=0.00773016
				30:[CAT_REL<0.023396] yes=61,no=62,missing=62
					61:[D_KEYWORD_MACRO_MEAN_COEC<0.125977] yes=123,no=124,missing=124
						123:leaf=-0.00473594
						124:leaf=0.0234156
					62:[C_D_U_KEYWORD_CATEGORY_MICRO_MAX_COEC<0.374548] yes=125,no=126,missing=126
						125:leaf=0.0239739
						126:leaf=0.0492987
booster[17]:
0:[C_D_U_TITLEMD5_CATEGORY_MICRO_MAX_COEC<0.06805] yes=1,no=2,missing=1
	1:[D_KEYWORD_MACRO_MEAN_COEC<0.094293] yes=3,no=4,missing=3
		3:[CAT_REL<0.000842] yes=7,no=8,missing=8
			7:[D_TITLEMD5_COEC<0.059374] yes=15,no=16,missing=15
				15:[U_CATEGORY_MICRO_MAX_COEC<0.082932] yes=31,no=32,missing=31
					31:[DOC_AGE<132] yes=63,no=64,missing=64
						63:leaf=-0.0841962
						64:leaf=-0.0569696
					32:[D_CATEGORY_MACRO_MEAN_COEC<0.092021] yes=65,no=66,missing=66
						65:leaf=-0.0715199
						66:leaf=-0.0550431
				16:[DOC_AGE<69] yes=33,no=34,missing=34
					33:[D_CATEGORY_MACRO_MEAN_COEC<0.096735] yes=67,no=68,missing=68
						67:leaf=-0.0616011
						68:leaf=-0.0465583
					34:[C_D_U_CATEGORY_CITY_MACRO_MEAN_COEC<0.124967] yes=69,no=70,missing=69
						69:leaf=-0.0288468
						70:leaf=0.000560792
			8:[D_TITLEMD5_COEC<0.083853] yes=17,no=18,missing=17
				17:[U_CATEGORY_MACRO_MAX_COEC<0.020256] yes=35,no=36,missing=36
					35:[U_CITY_COEC<0.078581] yes=71,no=72,missing=72
						71:leaf=-0.0643649
						72:leaf=-0.0295851
					36:[DOC_AGE<132] yes=73,no=74,missing=74
						73:leaf=-0.058987
						74:leaf=0.00738007
				18:[C_D_U_CATEGORY_CITY_MACRO_MAX_COEC<0.068788] yes=37,no=38,missing=37
					37:[D_KEYWORD_MACRO_MEAN_COEC<0.084554] yes=75,no=76,missing=76
						75:leaf=-0.0431235
						76:leaf=-0.0214352
					38:[U_CATEGORY_MACRO_MAX_COEC<0.009281] yes=77,no=78,missing=78
						77:leaf=0.0343625
						78:leaf=-0.0141209
		4:[D_TITLEMD5_COEC<0.142317] yes=9,no=10,missing=9
			9:[DOC_AGE<132] yes=19,no=20,missing=20
				19:[U_CATEGORY_MACRO_MAX_COEC<0.019805] yes=39,no=40,missing=40
					39:[U_CATEGORY_MICRO_MAX_COEC<0.120046] yes=79,no=80,missing=80
						79:leaf=-0.0167023
						80:leaf=0.0435149
					40:[D_TITLEMD5_COEC<0.10381] yes=81,no=82,missing=82
						81:leaf=-0.0519659
						82:leaf=-0.0334188
				20:[C_D_U_KEYWORD_CATEGORY_MACRO_MAX_COEC<0.028535] yes=41,no=42,missing=42
					41:[C_D_U_KEYWORD_CATEGORY_MICRO_MAX_COEC<0.200717] yes=83,no=84,missing=84
						83:leaf=0.0255271
						84:leaf=0.0925321
					42:[D_TITLEMD5_COEC<0.059374] yes=85,no=86,missing=85
						85:leaf=-0.0540256
						86:leaf=-0.0108787
			10:[D_CATEGORY_MICRO_MEAN_COEC<0.099623] yes=21,no=22,missing=22
				21:[D_CATEGORY_MACRO_MAX_COEC<0.077602] yes=43,no=44,missing=44
					43:[C_D_U_TITLEMD5_CATEGORY_MACRO_MAX_COEC<0.047224] yes=87,no=88,missing=88
						87:leaf=-0.0183668
						88:leaf=-0.0563176
					44:[D_KEYWORD_MICRO_MAX_COEC<0.176476] yes=89,no=90,missing=90
						89:leaf=-0.0310568
						90:leaf=-0.00918147
				22:[DOC_AGE<132] yes=45,no=46,missing=46
					45:[D_KEYWORD_MACRO_MAX_COEC<0.054628] yes=91,no=92,missing=92
						91:leaf=-0.0209284
						92:leaf=-0.00881783
					46:[D_KEYWORD_MICRO_MEAN_COEC<0.099274] yes=93,no=94,missing=94
						93:leaf=0.031415
						94:leaf=0.00675559
	2:[C_D_U_TITLEMD5_CATEGORY_MICRO_MAX_COEC<0.131871] yes=5,no=6,missing=6
		5:[DOC_AGE<12] yes=11,no=12,missing=12
			11:[C_D_U_TITLEMD5_CATEGORY_MACRO_MAX_COEC<0.019229] yes=23,no=24,missing=24
				23:[U_CITY_COEC<0.072953] yes=47,no=48,missing=48
					47:[D_TITLEMD5_COEC<0.069723] yes=95,no=96,missing=96
						95:leaf=-0.0634429
						96:leaf=-0.0242441
					48:[C_D_U_TITLEMD5_CATEGORY_MACRO_MAX_COEC<0.011131] yes=97,no=98,missing=98
						97:leaf=0.0138026
						98:leaf=-0.00472925
				24:[CAT_REL<0.07025] yes=49,no=50,missing=50
					49:[D_KEYWORD_MACRO_MEAN_COEC<0.083285] yes=99,no=100,missing=100
						99:leaf=-0.0449823
						100:leaf=-0.0247002
					50:[C_D_U_TITLEMD5_CATEGORY_MACRO_MAX_COEC<0.034123] yes=101,no=102,missing=102
						101:leaf=-0.00460873
						102:leaf=-0.0220464
			12:[U_CITY_COEC<0.069191] yes=25,no=26,missing=26
				25:[C_D_U_TITLEMD5_CITY_COEC<0.341704] yes=51,no=52,missing=52
					51:[CAT_REL<0.013067] yes=103,no=104,missing=104
						103:leaf=-0.0495847
						104:leaf=-0.027065
					52:[C_D_U_CATEGORY_CITY_MACRO_MEAN_COEC<0.089315] yes=105,no=106,missing=106
						105:leaf=-0.0712548
						106:leaf=-0.0476465
				26:[U_CATEGORY_MACRO_MAX_COEC<0.011317] yes=53,no=54,missing=54
					53:[U_CITY_COEC<0.152204] yes=107,no=108,missing=107
						107:leaf=-0.00881884
						108:leaf=0.0501785
					54:[D_KEYWORD_MACRO_MEAN_COEC<0.102428] yes=109,no=110,missing=110
						109:leaf=-0.0337723
						110:leaf=-0.019598
		6:[D_PUBLISHER_COEC<0.086664] yes=13,no=14,missing=14
			13:[CAT_REL<0.05735] yes=27,no=28,missing=28
				27:[D_KEYWORD_MACRO_MEAN_COEC<0.076392] yes=55,no=56,missing=56
					55:[C_D_U_TITLEMD5_CATEGORY_MACRO_MAX_COEC<0.02209] yes=111,no=112,missing=112
						111:leaf=-0.0388429
						112:leaf=-0.0674016
					56:[C_D_U_PUBLISHER_CITY_COEC<0.072572] yes=113,no=114,missing=113
						113:leaf=-0.0323923
						114:leaf=-0.0146398
				28:[C_D_U_TITLEMD5_CATEGORY_MACRO_MAX_COEC<0.047224] yes=57,no=58,missing=58
					57:[C_D_U_CATEGORY_CITY_MACRO_MAX_COEC<0.102855] yes=115,no=116,missing=115
						115:leaf=-0.0081702
						116:leaf=0.0141401
					58:[D_PUBLISHER_COEC<0.051586] yes=117,no=118,missing=118
						117:leaf=-0.06405
						118:leaf=-0.0202695
			14:[CAT_REL<0.011219] yes=29,no=30,missing=30
				29:[D_CATEGORY_MACRO_MAX_COEC<0.114652] yes=59,no=60,missing=60
					59:[C_D_U_PUBLISHER_CITY_COEC<0.125306] yes=119,no=120,missing=119
						119:leaf=-0.0164965
						120:leaf=-0.000323196
					60:[U_CATEGORY_MACRO_MAX_COEC<0.016901] yes=121,no=122,missing=122
						121:leaf=0.0257926
						122:leaf=0.00489913
				30:[U_CATEGORY_MACRO_MAX_COEC<0.016521] yes=61,no=62,missing=62
					61:[DOC_AGE<19] yes=123,no=124,missing=124
						123:leaf=0.0205798
						124:leaf=0.0020171
					62:[D_PUBLISHER_COEC<0.132263] yes=125,no=126,missing=126
						125:leaf=-0.00314949
						126:leaf=0.0143724
booster[18]:
0:[C_D_U_KEYWORD_CATEGORY_MICRO_MEAN_COEC<0.090141] yes=1,no=2,missing=1
	1:[D_TITLEMD5_COEC<0.104675] yes=3,no=4,missing=3
		3:[C_D_U_TITLEMD5_CATEGORY_MICRO_MAX_COEC<0.034085] yes=7,no=8,missing=7
			7:[DOC_AGE<123] yes=15,no=16,missing=16
				15:[D_TITLEMD5_COEC<0.077254] yes=31,no=32,missing=31
					31:[U_CATEGORY_MACRO_MAX_COEC<0.02674] yes=63,no=64,missing=64
						63:leaf=-0.0566882
						64:leaf=-0.0776199
					32:[IMAGE_COUNT<2] yes=65,no=66,missing=66
						65:leaf=-0.0603637
						66:leaf=-0.0456132
				16:[D_TITLEMD5_COEC<0.044024] yes=33,no=34,missing=33
					33:[D_TITLEMD5_COEC<0.02304] yes=67,no=68,missing=67
						67:leaf=-0.0812292
						68:leaf=-0.0532006
					34:[C_D_U_CATEGORY_CITY_MICRO_MAX_COEC<0.131801] yes=69,no=70,missing=69
						69:leaf=-0.0238693
						70:leaf=0.00314563
			8:[CAT_REL<0.043207] yes=17,no=18,missing=18
				17:[U_CATEGORY_MACRO_MAX_COEC<0.010384] yes=35,no=36,missing=36
					35:[U_CITY_COEC<0.074717] yes=71,no=72,missing=71
						71:leaf=-0.0467442
						72:leaf=-0.00712143
					36:[D_CATEGORY_MICRO_MAX_COEC<0.096849] yes=73,no=74,missing=74
						73:leaf=-0.0540507
						74:leaf=-0.0372839
				18:[U_CATEGORY_MACRO_MAX_COEC<0.020532] yes=37,no=38,missing=38
					37:[U_CITY_COEC<0.089165] yes=75,no=76,missing=75
						75:leaf=-0.0253615
						76:leaf=-0.00589448
					38:[CAT_REL<0.133855] yes=77,no=78,missing=78
						77:leaf=-0.0482868
						78:leaf=-0.0315709
		4:[D_PUBLISHER_COEC<0.104012] yes=9,no=10,missing=10
			9:[CAT_REL<0.015619] yes=19,no=20,missing=20
				19:[D_CATEGORY_MACRO_MAX_COEC<0.107339] yes=39,no=40,missing=40
					39:[IMAGE_COUNT<2] yes=79,no=80,missing=80
						79:leaf=-0.044205
						80:leaf=-0.0275331
					40:[U_CATEGORY_MACRO_MAX_COEC<0.010384] yes=81,no=82,missing=82
						81:leaf=0.0669095
						82:leaf=-0.0118969
				20:[D_PUBLISHER_COEC<0.058904] yes=41,no=42,missing=42
					41:[D_TITLEMD5_COEC<0.115259] yes=83,no=84,missing=84
						83:leaf=-0.0296084
						84:leaf=-0.0686252
					42:[D_CATEGORY_MICRO_MAX_COEC<0.10256] yes=85,no=86,missing=86
						85:leaf=-0.00856696
						86:leaf=-0.0320054
			10:[D_TITLEMD5_COEC<0.151756] yes=21,no=22,missing=22
				21:[U_CATEGORY_MACRO_MAX_COEC<0.031489] yes=43,no=44,missing=44
					43:[U_CITY_COEC<0.151747] yes=87,no=88,missing=87
						87:leaf=-0.0106201
						88:leaf=0.038552
					44:[D_CATEGORY_MICRO_MAX_COEC<0.096618] yes=89,no=90,missing=90
						89:leaf=-0.0355674
						90:leaf=-0.021008
				22:[D_KEYWORD_MACRO_MEAN_COEC<0.162263] yes=45,no=46,missing=46
					45:[DOC_AGE<123] yes=91,no=92,missing=92
						91:leaf=-0.0135259
						92:leaf=0.0128213
					46:[DAY_OF_WEEK<6] yes=93,no=94,missing=94
						93:leaf=-0.00113234
						94:leaf=0.0225351
	2:[D_TITLEMD5_COEC<0.093752] yes=5,no=6,missing=5
		5:[U_CITY_COEC<0.072206] yes=11,no=12,missing=12
			11:[C_D_U_TITLEMD5_CITY_COEC<8.00611] yes=23,no=24,missing=24
				23:[CAT_REL<0.02687] yes=47,no=48,missing=48
					47:[C_D_U_CATEGORY_CITY_MICRO_MEAN_COEC<0.015547] yes=95,no=96,missing=95
						95:leaf=-0.0172553
						96:leaf=-0.0561425
					48:[C_D_U_CATEGORY_AGE_MACRO_MEAN_COEC<0.119629] yes=97,no=98,missing=98
						97:leaf=0.0195782
						98:leaf=-0.020213
				24:[DOC_AGE<24] yes=49,no=50,missing=50
					49:[D_TITLEMD5_COEC<0.077254] yes=99,no=100,missing=100
						99:leaf=-0.0660524
						100:leaf=-0.0458061
					50:[U_CITY_COEC<0.051674] yes=101,no=102,missing=102
						101:leaf=-0.0942611
						102:leaf=-0.0682173
			12:[D_TITLEMD5_COEC<0.060618] yes=25,no=26,missing=25
				25:[CAT_REL<0.000847] yes=51,no=52,missing=52
					51:[U_CATEGORY_MACRO_MAX_COEC<0.015279] yes=103,no=104,missing=104
						103:leaf=-0.0423618
						104:leaf=-0.0605003
					52:[C_D_U_CATEGORY_CITY_MACRO_MAX_COEC<0.118726] yes=105,no=106,missing=105
						105:leaf=-0.0375509
						106:leaf=-0.00893954
				26:[U_CITY_COEC<0.151747] yes=53,no=54,missing=53
					53:[U_CATEGORY_MACRO_MAX_COEC<0.036346] yes=107,no=108,missing=108
						107:leaf=-0.0156409
						108:leaf=-0.042267
					54:[U_CATEGORY_MACRO_MAX_COEC<0.010894] yes=109,no=110,missing=110
						109:leaf=0.0709665
						110:leaf=0.019422
		6:[U_CATEGORY_MACRO_MAX_COEC<0.036346] yes=13,no=14,missing=14
			13:[U_CITY_COEC<0.078614] yes=27,no=28,missing=27
				27:[C_D_U_KEYWORD_CATEGORY_MICRO_MEAN_COEC<0.157966] yes=55,no=56,missing=56
					55:[DOC_AGE<25] yes=111,no=112,missing=112
						111:leaf=-0.0101916
						112:leaf=-0.0298517
					56:[C_D_U_KEYWORD_CATEGORY_MICRO_MAX_COEC<0.243395] yes=113,no=114,missing=114
						113:leaf=-0.0011333
						114:leaf=0.0138977
				28:[C_D_U_CATEGORY_CITY_MICRO_MEAN_COEC<0.132906] yes=57,no=58,missing=58
					57:[CAT_REL<0.038183] yes=115,no=116,missing=116
						115:leaf=-0.00547281
						116:leaf=0.00750741
					58:[U_CATEGORY_MACRO_MAX_COEC<0.010894] yes=117,no=118,missing=118
						117:leaf=0.0482112
						118:leaf=0.0149478
			14:[CAT_REL<0.189228] yes=29,no=30,missing=30
				29:[DOC_AGE<123] yes=59,no=60,missing=60
					59:[D_TITLEMD5_COEC<0.147382] yes=119,no=120,missing=120
						119:leaf=-0.0320566
						120:leaf=-0.0136256
					60:[U_CITY_COEC<0.151747] yes=121,no=122,missing=121
						121:leaf=0.0232937
						122:leaf=0.13656
				30:[TIME_OF_DAY<15] yes=61,no=62,missing=62
					61:[TIME_OF_DAY<4] yes=123,no=124,missing=124
						123:leaf=-0.0172118
						124:leaf=0.0209942
					62:[C_D_U_CATEGORY_CITY_MACRO_MEAN_COEC<0.065165] yes=125,no=126,missing=126
						125:leaf=-0.0432445
						126:leaf=-0.013824
booster[19]:
0:[C_D_U_KEYWORD_CATEGORY_MICRO_MEAN_COEC<0.08849] yes=1,no=2,missing=1
	1:[D_TITLEMD5_COEC<0.100348] yes=3,no=4,missing=3
		3:[C_D_U_TITLEMD5_CATEGORY_MICRO_MAX_COEC<0.019798] yes=7,no=8,missing=7
			7:[DOC_AGE<78] yes=15,no=16,missing=16
				15:[D_TITLEMD5_COEC<0.080808] yes=31,no=32,missing=32
					31:[U_CATEGORY_MACRO_MAX_COEC<0.020305] yes=63,no=64,missing=64
						63:leaf=-0.0528179
						64:leaf=-0.0736962
					32:[C_D_U_CATEGORY_CITY_MACRO_MEAN_COEC<0.097887] yes=65,no=66,missing=65
						65:leaf=-0.0576019
						66:leaf=-0.0429573
				16:[D_TITLEMD5_COEC<0.04453] yes=33,no=34,missing=33
					33:[C_D_U_CATEGORY_CITY_MICRO_MEAN_COEC<0.079256] yes=67,no=68,missing=67
						67:leaf=-0.0765518
						68:leaf=-0.0515745
					34:[C_D_U_PUBLISHER_CITY_COEC<0.163402] yes=69,no=70,missing=69
						69:leaf=-0.0244496
						70:leaf=0.0132147
			8:[CAT_REL<0.052478] yes=17,no=18,missing=18
				17:[U_CATEGORY_MACRO_MAX_COEC<0.009905] yes=35,no=36,missing=36
					35:[U_CITY_COEC<0.075086] yes=71,no=72,missing=71
						71:leaf=-0.0445875
						72:leaf=-0.00233187
					36:[D_CATEGORY_MICRO_MAX_COEC<0.095474] yes=73,no=74,missing=74
						73:leaf=-0.0529198
						74:leaf=-0.0376309
				18:[U_CATEGORY_MACRO_MAX_COEC<0.02289] yes=37,no=38,missing=38
					37:[DOC_AGE<12] yes=75,no=76,missing=76
						75:leaf=-0.00619488
						76:leaf=-0.0277464
					38:[D_TITLEMD5_COEC<0.073108] yes=77,no=78,missing=78
						77:leaf=-0.0555942
						78:leaf=-0.0316023
		4:[D_KEYWORD_MICRO_MAX_COEC<0.133963] yes=9,no=10,missing=10
			9:[U_CATEGORY_MACRO_MAX_COEC<0.023913] yes=19,no=20,missing=20
				19:[C_D_U_CATEGORY_CITY_MICRO_MEAN_COEC<0.097239] yes=39,no=40,missing=39
					39:[CAT_REL<0.068469] yes=79,no=80,missing=80
						79:leaf=-0.0273136
						80:leaf=-0.00528349
					40:[U_CATEGORY_MACRO_MAX_COEC<0.00935] yes=81,no=82,missing=82
						81:leaf=0.0404861
						82:leaf=-0.00625417
				20:[D_CATEGORY_MACRO_MAX_COEC<0.098597] yes=41,no=42,missing=42
					41:[D_KEYWORD_MICRO_MEAN_COEC<0.103255] yes=83,no=84,missing=84
						83:leaf=-0.0458317
						84:leaf=-0.0265558
					42:[DOC_AGE<187] yes=85,no=86,missing=86
						85:leaf=-0.0276985
						86:leaf=0.00689403
			10:[C_D_U_TITLEMD5_CITY_COEC<0.138743] yes=21,no=22,missing=21
				21:[D_CATEGORY_MICRO_MAX_COEC<0.099902] yes=43,no=44,missing=44
					43:[CAT_REL<0.004392] yes=87,no=88,missing=88
						87:leaf=-0.0319661
						88:leaf=-0.00483693
					44:[DOC_AGE<78] yes=89,no=90,missing=90
						89:leaf=-0.0175599
						90:leaf=-0.00077669
				22:[D_KEYWORD_MACRO_MAX_COEC<0.07538] yes=45,no=46,missing=46
					45:[CAT_REL<0.007318] yes=91,no=92,missing=92
						91:leaf=-0.0132949
						92:leaf=0.00700678
					46:[D_PUBLISHER_COEC<0.123109] yes=93,no=94,missing=94
						93:leaf=-0.00589892
						94:leaf=0.00574285
	2:[D_TITLEMD5_COEC<0.084741] yes=5,no=6,missing=5
		5:[U_CITY_COEC<0.066034] yes=11,no=12,missing=12
			11:[C_D_U_TITLEMD5_CITY_COEC<7.95743] yes=23,no=24,missing=24
				23:[C_D_U_TITLEMD5_AGE_COEC<0.052931] yes=47,no=48,missing=47
					47:[U_CATEGORY_MICRO_MAX_COEC<0.119213] yes=95,no=96,missing=96
						95:leaf=-0.044076
						96:leaf=0.00482397
					48:[C_D_U_TITLEMD5_GENDER_COEC<0.129992] yes=97,no=98,missing=97
						97:leaf=0.00136509
						98:leaf=0.114511
				24:[C_D_U_CATEGORY_CITY_MACRO_MEAN_COEC<0.059302] yes=49,no=50,missing=50
					49:[DOC_AGE<22] yes=99,no=100,missing=100
						99:leaf=-0.0671056
						100:leaf=-0.0895308
					50:[C_D_U_TITLEMD5_AGE_COEC<0.073473] yes=101,no=102,missing=101
						101:leaf=-0.0564092
						102:leaf=-0.0142623
			12:[U_CATEGORY_MACRO_MAX_COEC<0.021379] yes=25,no=26,missing=26
				25:[U_CITY_COEC<0.11596] yes=51,no=52,missing=51
					51:[CAT_REL<0.029605] yes=103,no=104,missing=104
						103:leaf=-0.0323982
						104:leaf=-0.0123594
					52:[C_D_U_CATEGORY_CITY_MACRO_MAX_COEC<0.164072] yes=105,no=106,missing=106
						105:leaf=-0.0072872
						106:leaf=0.0313871
				26:[CAT_REL<0.095489] yes=53,no=54,missing=54
					53:[DOC_AGE<129] yes=107,no=108,missing=108
						107:leaf=-0.0500085
						108:leaf=0.00661901
					54:[IMAGE_COUNT<0.999999] yes=109,no=110,missing=110
						109:leaf=-0.0709038
						110:leaf=-0.0241742
		6:[U_CATEGORY_MACRO_MAX_COEC<0.02521] yes=13,no=14,missing=14
			13:[DOC_AGE<24] yes=27,no=28,missing=28
				27:[U_CATEGORY_MICRO_MAX_COEC<0.094202] yes=55,no=56,missing=56
					55:[U_CATEGORY_MACRO_MAX_COEC<0.010468] yes=111,no=112,missing=112
						111:leaf=0.0124918
						112:leaf=-0.00768822
					56:[CAT_REL<0.052478] yes=113,no=114,missing=114
						113:leaf=0.00188998
						114:leaf=0.0170686
				28:[DOC_AGE<129] yes=57,no=58,missing=58
					57:[C_D_U_KEYWORD_CATEGORY_MICRO_MEAN_COEC<0.142578] yes=115,no=116,missing=116
						115:leaf=-0.024073
						116:leaf=-0.00756299
					58:[U_CATEGORY_MACRO_MAX_COEC<0.016135] yes=117,no=118,missing=118
						117:leaf=-0.0005104
						118:leaf=0.0724169
			14:[D_TITLEMD5_COEC<0.150093] yes=29,no=30,missing=30
				29:[CAT_REL<0.128837] yes=59,no=60,missing=60
					59:[DOC_AGE<129] yes=119,no=120,missing=120
						119:leaf=-0.0242153
						120:leaf=0.0246445
					60:[U_CATEGORY_MACRO_MAX_COEC<0.052375] yes=121,no=122,missing=122
						121:leaf=-0.00238492
						122:leaf=-0.0260817
				30:[D_PUBLISHER_COEC<0.131649] yes=61,no=62,missing=62
					61:[CAT_REL<0.063121] yes=123,no=124,missing=124
						123:leaf=-0.0124636
						124:leaf=-0.000534679
					62:[WORD_COUNT<4453] yes=125,no=126,missing=126
						125:leaf=0.00429765
						126:leaf=0.0308883
booster[20]:
0:[C_D_U_TITLEMD5_CATEGORY_MICRO_MAX_COEC<0.062831] yes=1,no=2,missing=1
	1:[D_KEYWORD_MACRO_MEAN_COEC<0.094047] yes=3,no=4,missing=3
		3:[U_CATEGORY_MACRO_MAX_COEC<0.019762] yes=7,no=8,missing=8
			7:[C_D_U_CATEGORY_CITY_MACRO_MEAN_COEC<0.061845] yes=15,no=16,missing=16
				15:[U_CITY_COEC<0.067] yes=31,no=32,missing=32
					31:[C_D_U_TITLEMD5_CITY_COEC<0.160044] yes=63,no=64,missing=64
						63:leaf=-0.0360912
						64:leaf=-0.0773917
					32:[D_KEYWORD_MACRO_MEAN_COEC<0.056583] yes=65,no=66,missing=66
						65:leaf=-0.0624051
						66:leaf=-0.0342291
				16:[D_TITLEMD5_COEC<0.044069] yes=33,no=34,missing=34
					33:[CAT_REL<0.041223] yes=67,no=68,missing=68
						67:leaf=-0.0512128
						68:leaf=-0.0280911
					34:[U_CATEGORY_MICRO_MAX_COEC<0.121046] yes=69,no=70,missing=70
						69:leaf=-0.0186373
						70:leaf=0.0332505
			8:[D_KEYWORD_MACRO_MEAN_COEC<0.074926] yes=17,no=18,missing=17
				17:[DOC_AGE<130] yes=35,no=36,missing=36
					35:[C_D_U_TITLEMD5_CATEGORY_MICRO_MAX_COEC<0.020241] yes=71,no=72,missing=71
						71:leaf=-0.0695703
						72:leaf=-0.0501277
					36:[D_TITLEMD5_COEC<0.027399] yes=73,no=74,missing=73
						73:leaf=-0.067518
						74:leaf=-0.0263265
				18:[DOC_AGE<75] yes=37,no=38,missing=38
					37:[C_D_U_CATEGORY_CITY_MACRO_MAX_COEC<0.097837] yes=75,no=76,missing=75
						75:leaf=-0.0508223
						76:leaf=-0.0349697
					38:[D_TITLEMD5_COEC<0.044069] yes=77,no=78,missing=77
						77:leaf=-0.0560988
						78:leaf=-0.0143299
		4:[D_TITLEMD5_COEC<0.129434] yes=9,no=10,missing=10
			9:[DOC_AGE<75] yes=19,no=20,missing=20
				19:[IMAGE_COUNT<2] yes=39,no=40,missing=40
					39:[U_CATEGORY_MACRO_MAX_COEC<0.032732] yes=79,no=80,missing=80
						79:leaf=-0.0180464
						80:leaf=-0.0404239
					40:[D_TITLEMD5_COEC<0.097621] yes=81,no=82,missing=82
						81:leaf=-0.0411069
						82:leaf=-0.020711
				20:[D_TITLEMD5_COEC<0.075417] yes=41,no=42,missing=42
					41:[CAT_REL<0.036265] yes=83,no=84,missing=84
						83:leaf=-0.0395234
						84:leaf=0.0414855
					42:[U_CATEGORY_MICRO_MAX_COEC<0.105211] yes=85,no=86,missing=85
						85:leaf=-0.00871501
						86:leaf=0.0624764
			10:[D_CATEGORY_MICRO_MAX_COEC<0.09905] yes=21,no=22,missing=22
				21:[D_PUBLISHER_COEC<0.088431] yes=43,no=44,missing=43
					43:[U_CATEGORY_MACRO_MAX_COEC<0.034657] yes=87,no=88,missing=88
						87:leaf=-0.0175205
						88:leaf=-0.0556031
					44:[WORD_COUNT<2636] yes=89,no=90,missing=90
						89:leaf=-0.0144974
						90:leaf=-0.0299983
				22:[DOC_AGE<130] yes=45,no=46,missing=46
					45:[WORD_COUNT<5621] yes=91,no=92,missing=92
						91:leaf=-0.0125512
						92:leaf=0.0104539
					46:[D_KEYWORD_MACRO_MAX_COEC<0.018118] yes=93,no=94,missing=94
						93:leaf=0.060638
						94:leaf=0.00712787
	2:[C_D_U_PUBLISHER_CITY_COEC<0.094887] yes=5,no=6,missing=5
		5:[D_TITLEMD5_COEC<0.10551] yes=11,no=12,missing=12
			11:[CAT_REL<0.058114] yes=23,no=24,missing=24
				23:[C_D_U_CATEGORY_CITY_MICRO_MEAN_COEC<0.092431] yes=47,no=48,missing=48
					47:[C_D_U_TITLEMD5_CITY_COEC<0.27847] yes=95,no=96,missing=96
						95:leaf=-0.0330367
						96:leaf=-0.0536288
					48:[U_CATEGORY_MACRO_MAX_COEC<0.014108] yes=97,no=98,missing=98
						97:leaf=-0.0143672
						98:leaf=-0.0307453
				24:[U_CATEGORY_MACRO_MAX_COEC<0.019081] yes=49,no=50,missing=50
					49:[DOC_AGE<18] yes=99,no=100,missing=100
						99:leaf=0.00338385
						100:leaf=-0.0166393
					50:[C_D_U_CATEGORY_CITY_MACRO_MAX_COEC<0.085616] yes=101,no=102,missing=101
						101:leaf=-0.0259635
						102:leaf=-0.00992564
			12:[U_CATEGORY_MACRO_MAX_COEC<0.036483] yes=25,no=26,missing=26
				25:[U_CATEGORY_MICRO_MAX_COEC<0.10958] yes=51,no=52,missing=52
					51:[CAT_REL<0.082864] yes=103,no=104,missing=104
						103:leaf=-0.0124883
						104:leaf=0.000210499
					52:[CAT_REL<0.059531] yes=105,no=106,missing=106
						105:leaf=0.000936386
						106:leaf=0.0180607
				26:[CAT_REL<0.262392] yes=53,no=54,missing=54
					53:[DOC_AGE<75] yes=107,no=108,missing=108
						107:leaf=-0.0264054
						108:leaf=0.0138172
					54:[TIME_OF_DAY<15] yes=109,no=110,missing=110
						109:leaf=0.00390199
						110:leaf=-0.018278
		6:[U_CATEGORY_MACRO_MAX_COEC<0.0128] yes=13,no=14,missing=14
			13:[C_D_U_CATEGORY_CITY_MACRO_MEAN_COEC<0.145457] yes=27,no=28,missing=28
				27:[DOC_AGE<24] yes=55,no=56,missing=56
					55:[D_TITLEMD5_COEC<0.135388] yes=111,no=112,missing=112
						111:leaf=0.00847573
						112:leaf=0.0246414
					56:[C_D_U_KEYWORD_CATEGORY_MICRO_MEAN_COEC<0.141276] yes=113,no=114,missing=114
						113:leaf=-0.0164649
						114:leaf=0.00403732
				28:[U_CATEGORY_MACRO_MAX_COEC<0.009341] yes=57,no=58,missing=58
					57:[C_D_U_CATEGORY_CITY_MACRO_MAX_COEC<0.30083] yes=115,no=116,missing=116
						115:leaf=0.0472902
						116:leaf=0.0802576
					58:[U_CITY_COEC<0.193148] yes=117,no=118,missing=118
						117:leaf=0.0238639
						118:leaf=0.0611804
			14:[C_D_U_TITLEMD5_CATEGORY_MICRO_MAX_COEC<0.156913] yes=29,no=30,missing=30
				29:[C_D_U_CATEGORY_CITY_MACRO_MAX_COEC<0.102112] yes=59,no=60,missing=60
					59:[CAT_REL<0.067372] yes=119,no=120,missing=120
						119:leaf=-0.0200903
						120:leaf=-0.0070484
					60:[DOC_AGE<21] yes=121,no=122,missing=122
						121:leaf=-0.000477603
						122:leaf=-0.0139792
				30:[CAT_REL<0.017587] yes=61,no=62,missing=62
					61:[D_CATEGORY_MACRO_MAX_COEC<0.114796] yes=123,no=124,missing=124
						123:leaf=-0.00611751
						124:leaf=0.0126317
					62:[U_CATEGORY_MACRO_MAX_COEC<0.03971] yes=125,no=126,missing=126
						125:leaf=0.0108531
						126:leaf=-0.00430691
booster[21]:
0:[C_D_U_KEYWORD_CATEGORY_MICRO_MEAN_COEC<0.089248] yes=1,no=2,missing=1
	1:[D_TITLEMD5_COEC<0.101088] yes=3,no=4,missing=3
		3:[C_D_U_KEYWORD_CATEGORY_MICRO_MEAN_COEC<0.066057] yes=7,no=8,missing=7
			7:[D_TITLEMD5_COEC<0.05441] yes=15,no=16,missing=15
				15:[DOC_AGE<136] yes=31,no=32,missing=32
					31:[DOC_AGE<5] yes=63,no=64,missing=64
						63:leaf=-0.0598708
						64:leaf=-0.0774837
					32:[D_TITLEMD5_COEC<0.027651] yes=65,no=66,missing=65
						65:leaf=-0.0703406
						66:leaf=-0.038875
				16:[DOC_AGE<70] yes=33,no=34,missing=34
					33:[IMAGE_COUNT<2] yes=67,no=68,missing=68
						67:leaf=-0.0551631
						68:leaf=-0.0428676
					34:[C_D_U_CATEGORY_CITY_MACRO_MEAN_COEC<0.105223] yes=69,no=70,missing=69
						69:leaf=-0.0252789
						70:leaf=-0.00447243
			8:[U_CITY_COEC<0.070167] yes=17,no=18,missing=18
				17:[CAT_REL<0.044761] yes=35,no=36,missing=36
					35:[C_D_U_TITLEMD5_CITY_COEC<0.131931] yes=71,no=72,missing=72
						71:leaf=-0.0411882
						72:leaf=-0.0706526
					36:[C_D_U_CATEGORY_CITY_MICRO_MEAN_COEC<0.056195] yes=73,no=74,missing=74
						73:leaf=-0.0597756
						74:leaf=-0.0308543
				18:[U_CATEGORY_MACRO_MAX_COEC<0.010381] yes=37,no=38,missing=38
					37:[C_D_U_CATEGORY_CITY_MICRO_MAX_COEC<0.081638] yes=75,no=76,missing=75
						75:leaf=-0.0176316
						76:leaf=0.00789444
					38:[D_TITLEMD5_COEC<0.062026] yes=77,no=78,missing=78
						77:leaf=-0.0483735
						78:leaf=-0.0277857
		4:[D_PUBLISHER_COEC<0.09851] yes=9,no=10,missing=10
			9:[D_CATEGORY_MACRO_MAX_COEC<0.069846] yes=19,no=20,missing=20
				19:[C_D_U_KEYWORD_CATEGORY_MICRO_MEAN_COEC<0.059576] yes=39,no=40,missing=39
					39:[D_KEYWORD_MICRO_MEAN_COEC<0.100908] yes=79,no=80,missing=80
						79:leaf=-0.0659456
						80:leaf=-0.0389255
					40:[D_KEYWORD_MACRO_MEAN_COEC<0.070659] yes=81,no=82,missing=82
						81:leaf=-0.0587268
						82:leaf=-0.0308563
				20:[U_CATEGORY_MACRO_MAX_COEC<0.032167] yes=41,no=42,missing=42
					41:[CAT_REL<0.03878] yes=83,no=84,missing=84
						83:leaf=-0.0200714
						84:leaf=7.79416e-06
					42:[D_CATEGORY_MACRO_MAX_COEC<0.107357] yes=85,no=86,missing=86
						85:leaf=-0.0338913
						86:leaf=-0.00486019
			10:[D_TITLEMD5_COEC<0.177432] yes=21,no=22,missing=22
				21:[C_D_U_CATEGORY_CITY_MACRO_MEAN_COEC<0.092902] yes=43,no=44,missing=43
					43:[U_CATEGORY_MACRO_MAX_COEC<0.022749] yes=87,no=88,missing=88
						87:leaf=-0.00727346
						88:leaf=-0.02308
					44:[U_CATEGORY_MACRO_MAX_COEC<0.02068] yes=89,no=90,missing=90
						89:leaf=0.00673228
						90:leaf=-0.011385
				22:[D_KEYWORD_MICRO_MAX_COEC<0.177406] yes=45,no=46,missing=46
					45:[D_KEYWORD_MACRO_MAX_COEC<0.048737] yes=91,no=92,missing=92
						91:leaf=-0.0353665
						92:leaf=-0.0060062
					46:[TIME_OF_DAY<2] yes=93,no=94,missing=94
						93:leaf=-0.014231
						94:leaf=0.00338815
	2:[D_TITLEMD5_COEC<0.092515] yes=5,no=6,missing=5
		5:[D_TITLEMD5_COEC<0.05441] yes=11,no=12,missing=12
			11:[U_CITY_COEC<0.083691] yes=23,no=24,missing=24
				23:[C_D_U_CATEGORY_CITY_MICRO_MEAN_COEC<0.056195] yes=47,no=48,missing=48
					47:[CAT_REL<0.409657] yes=95,no=96,missing=96
						95:leaf=-0.0756053
						96:leaf=0.0197614
					48:[U_CATEGORY_MICRO_MAX_COEC<0.097904] yes=97,no=98,missing=98
						97:leaf=-0.0369191
						98:leaf=-0.0611733
				24:[D_TITLEMD5_COEC<0.027651] yes=49,no=50,missing=50
					49:[CAT_REL<0.010979] yes=99,no=100,missing=100
						99:leaf=-0.0614826
						100:leaf=-0.0426098
					50:[C_D_U_CATEGORY_CITY_MICRO_MEAN_COEC<0.145511] yes=101,no=102,missing=101
						101:leaf=-0.0312004
						102:leaf=0.00731865
			12:[U_CATEGORY_MACRO_MAX_COEC<0.01324] yes=25,no=26,missing=26
				25:[U_CITY_COEC<0.077408] yes=51,no=52,missing=52
					51:[C_D_U_PUBLISHER_CITY_COEC<0.059374] yes=103,no=104,missing=103
						103:leaf=-0.042679
						104:leaf=-0.0131077
					52:[U_CITY_COEC<0.192009] yes=105,no=106,missing=105
						105:leaf=0.000461821
						106:leaf=0.0639259
				26:[CAT_REL<0.076352] yes=53,no=54,missing=54
					53:[U_CATEGORY_MICRO_MAX_COEC<0.108933] yes=107,no=108,missing=108
						107:leaf=-0.0357741
						108:leaf=-0.0171414
					54:[U_CATEGORY_MACRO_MAX_COEC<0.036239] yes=109,no=110,missing=110
						109:leaf=-0.00736247
						110:leaf=-0.0301792
		6:[U_CATEGORY_MACRO_MAX_COEC<0.015808] yes=13,no=14,missing=14
			13:[DOC_AGE<20] yes=27,no=28,missing=28
				27:[U_CATEGORY_MICRO_MAX_COEC<0.093333] yes=55,no=56,missing=56
					55:[D_TITLEMD5_COEC<0.162364] yes=111,no=112,missing=112
						111:leaf=-0.00333868
						112:leaf=0.0131175
					56:[CAT_REL<0.056809] yes=113,no=114,missing=114
						113:leaf=0.0114377
						114:leaf=0.0291178
				28:[C_D_U_KEYWORD_CATEGORY_MICRO_MEAN_COEC<0.145871] yes=57,no=58,missing=58
					57:[CAT_REL<0.029915] yes=115,no=116,missing=116
						115:leaf=-0.0170448
						116:leaf=-0.00281682
					58:[DOC_AGE<38] yes=117,no=118,missing=118
						117:leaf=0.00797823
						118:leaf=-0.0135158
			14:[D_PUBLISHER_COEC<0.125737] yes=29,no=30,missing=30
				29:[CAT_REL<0.082833] yes=59,no=60,missing=60
					59:[D_CATEGORY_MACRO_MAX_COEC<0.212087] yes=119,no=120,missing=120
						119:leaf=-0.0145012
						120:leaf=0.0108714
					60:[U_CATEGORY_MACRO_MAX_COEC<0.047091] yes=121,no=122,missing=122
						121:leaf=0.00183087
						122:leaf=-0.0160408
				30:[U_CATEGORY_MICRO_MAX_COEC<0.111662] yes=61,no=62,missing=62
					61:[WORD_COUNT<4772] yes=123,no=124,missing=124
						123:leaf=0.000256546
						124:leaf=0.0262256
					62:[U_CATEGORY_MACRO_MAX_COEC<0.036239] yes=125,no=126,missing=126
						125:leaf=0.0262366
						126:leaf=0.00255473
booster[22]:
0:[C_D_U_KEYWORD_CATEGORY_MICRO_MEAN_COEC<0.095624] yes=1,no=2,missing=1
	1:[D_TITLEMD5_COEC<0.093255] yes=3,no=4,missing=3
		3:[U_CATEGORY_MACRO_MAX_COEC<0.031244] yes=7,no=8,missing=8
			7:[D_TITLEMD5_COEC<0.062277] yes=15,no=16,missing=16
				15:[U_CITY_COEC<0.067186] yes=31,no=32,missing=32
					31:[C_D_U_TITLEMD5_CITY_COEC<8.00611] yes=63,no=64,missing=64
						63:leaf=-0.0397729
						64:leaf=-0.0750913
					32:[CAT_REL<0.029613] yes=65,no=66,missing=66
						65:leaf=-0.049274
						66:leaf=-0.0303211
				16:[U_CITY_COEC<0.128265] yes=33,no=34,missing=33
					33:[CAT_REL<0.05321] yes=67,no=68,missing=68
						67:leaf=-0.0333454
						68:leaf=-0.0147746
					34:[C_D_U_CATEGORY_CITY_MACRO_MAX_COEC<0.165646] yes=69,no=70,missing=70
						69:leaf=0.000505882
						70:leaf=0.0352891
			8:[DOC_AGE<78] yes=17,no=18,missing=18
				17:[D_TITLEMD5_COEC<0.075878] yes=35,no=36,missing=35
					35:[DOC_AGE<6] yes=71,no=72,missing=72
						71:leaf=-0.0560723
						72:leaf=-0.0719233
					36:[D_CATEGORY_MICRO_MAX_COEC<0.107357] yes=73,no=74,missing=74
						73:leaf=-0.0499257
						74:leaf=-0.0295188
				18:[D_TITLEMD5_COEC<0.046066] yes=37,no=38,missing=37
					37:[C_D_U_CATEGORY_CITY_MICRO_MEAN_COEC<0.079291] yes=75,no=76,missing=75
						75:leaf=-0.069015
						76:leaf=-0.0390055
					38:[U_CITY_COEC<0.106677] yes=77,no=78,missing=77
						77:leaf=-0.0227503
						78:leaf=0.00757652
		4:[D_KEYWORD_MICRO_MAX_COEC<0.139509] yes=9,no=10,missing=10
			9:[U_CATEGORY_MACRO_MAX_COEC<0.031244] yes=19,no=20,missing=20
				19:[CAT_REL<0.067961] yes=39,no=40,missing=40
					39:[U_CATEGORY_MACRO_MAX_COEC<0.010456] yes=79,no=80,missing=80
						79:leaf=0.00411845
						80:leaf=-0.0211349
					40:[U_CATEGORY_MICRO_MAX_COEC<0.100633] yes=81,no=82,missing=82
						81:leaf=-0.0038627
						82:leaf=0.0217623
				20:[D_CATEGORY_MICRO_MAX_COEC<0.098102] yes=41,no=42,missing=42
					41:[D_KEYWORD_MICRO_MEAN_COEC<0.100654] yes=83,no=84,missing=84
						83:leaf=-0.0412342
						84:leaf=-0.021836
					42:[D_KEYWORD_MACRO_MAX_COEC<0.04306] yes=85,no=86,missing=86
						85:leaf=-0.0284327
						86:leaf=-0.0145392
			10:[C_D_U_TITLEMD5_CITY_COEC<0.164254] yes=21,no=22,missing=21
				21:[D_PUBLISHER_COEC<0.094436] yes=43,no=44,missing=44
					43:[D_PUBLISHER_COEC<0.061865] yes=87,no=88,missing=88
						87:leaf=-0.0571594
						88:leaf=-0.0207932
					44:[U_CATEGORY_MACRO_MAX_COEC<0.012105] yes=89,no=90,missing=90
						89:leaf=0.020482
						90:leaf=-0.0112555
				22:[U_CATEGORY_MACRO_MAX_COEC<0.024251] yes=45,no=46,missing=46
					45:[CAT_REL<0.029613] yes=91,no=92,missing=92
						91:leaf=0.0056643
						92:leaf=0.0259981
					46:[DOC_AGE<56] yes=93,no=94,missing=94
						93:leaf=-0.00516772
						94:leaf=0.0118716
	2:[D_TITLEMD5_COEC<0.071714] yes=5,no=6,missing=5
		5:[U_CITY_COEC<0.076823] yes=11,no=12,missing=12
			11:[DOC_AGE<9] yes=23,no=24,missing=24
				23:[C_D_U_CATEGORY_GENDER_MICRO_MEAN_COEC<0.131724] yes=47,no=48,missing=47
					47:[D_TITLEMD5_COEC<0.046066] yes=95,no=96,missing=96
						95:leaf=-0.0570436
						96:leaf=-0.0300502
					48:[C_D_U_CATEGORY_CITY_MACRO_MAX_COEC<0.077975] yes=97,no=98,missing=97
						97:leaf=-0.0225413
						98:leaf=0.159291
				24:[C_D_U_CATEGORY_CITY_MICRO_MEAN_COEC<0.077723] yes=49,no=50,missing=49
					49:[C_D_U_TITLEMD5_CITY_COEC<0.34275] yes=99,no=100,missing=100
						99:leaf=-0.0405353
						100:leaf=-0.0734566
					50:[CAT_REL<0.017769] yes=101,no=102,missing=102
						101:leaf=-0.0657245
						102:leaf=-0.0314914
			12:[U_CATEGORY_MACRO_MAX_COEC<0.028733] yes=25,no=26,missing=26
				25:[DOC_AGE<184] yes=51,no=52,missing=52
					51:[DOC_AGE<13] yes=103,no=104,missing=104
						103:leaf=-0.0104628
						104:leaf=-0.030556
					52:[D_TITLEMD5_COEC<0.023893] yes=105,no=106,missing=105
						105:leaf=-0.0207943
						106:leaf=0.112425
				26:[CAT_REL<0.152657] yes=53,no=54,missing=54
					53:[U_CATEGORY_MICRO_MAX_COEC<0.108317] yes=107,no=108,missing=108
						107:leaf=-0.0642865
						108:leaf=-0.0346632
					54:[D_CATEGORY_MICRO_MAX_COEC<0.10123] yes=109,no=110,missing=110
						109:leaf=-0.0180128
						110:leaf=-0.0448071
		6:[C_D_U_PUBLISHER_CITY_COEC<0.122185] yes=13,no=14,missing=13
			13:[DOC_AGE<24] yes=27,no=28,missing=28
				27:[U_CATEGORY_MACRO_MAX_COEC<0.025078] yes=55,no=56,missing=56
					55:[U_CATEGORY_MICRO_MAX_COEC<0.112205] yes=111,no=112,missing=112
						111:leaf=-0.00210765
						112:leaf=0.010179
					56:[C_D_U_KEYWORD_CATEGORY_MICRO_MEAN_COEC<0.167111] yes=113,no=114,missing=114
						113:leaf=-0.0132547
						114:leaf=0.00402538
				28:[DOC_AGE<127] yes=57,no=58,missing=58
					57:[C_D_U_TITLEMD5_CATEGORY_MICRO_MAX_COEC<0.13469] yes=115,no=116,missing=115
						115:leaf=-0.0309721
						116:leaf=-0.0169518
					58:[U_CATEGORY_MACRO_MAX_COEC<0.036109] yes=117,no=118,missing=118
						117:leaf=0.0466378
						118:leaf=0.0198531
			14:[U_CITY_COEC<0.190898] yes=29,no=30,missing=30
				29:[U_CATEGORY_MACRO_MAX_COEC<0.03017] yes=59,no=60,missing=60
					59:[U_CATEGORY_MICRO_MAX_COEC<0.10973] yes=119,no=120,missing=120
						119:leaf=0.00521683
						120:leaf=0.0209094
					60:[D_KEYWORD_MICRO_MAX_COEC<0.139509] yes=121,no=122,missing=122
						121:leaf=-0.0130098
						122:leaf=0.00188845
				30:[C_D_U_TITLEMD5_CATEGORY_MACRO_MAX_COEC<0.007313] yes=61,no=62,missing=61
					61:[C_D_U_KEYWORD_CATEGORY_MICRO_MAX_COEC<0.146126] yes=123,no=124,missing=124
						123:leaf=0.0509044
						124:leaf=0.129012
					62:[C_D_U_CATEGORY_CITY_MACRO_MEAN_COEC<0.305741] yes=125,no=126,missing=126
						125:leaf=0.0307562
						126:leaf=0.0600256
booster[23]:
0:[C_D_U_TITLEMD5_CATEGORY_MICRO_MAX_COEC<0.058657] yes=1,no=2,missing=1
	1:[D_TITLEMD5_COEC<0.109541] yes=3,no=4,missing=3
		3:[CAT_REL<0.0133] yes=7,no=8,missing=8
			7:[D_CATEGORY_MACRO_MEAN_COEC<0.095508] yes=15,no=16,missing=16
				15:[D_KEYWORD_MACRO_MEAN_COEC<0.089866] yes=31,no=32,missing=32
					31:[D_PUBLISHER_COEC<0.119241] yes=63,no=64,missing=64
						63:leaf=-0.0559493
						64:leaf=-0.0276128
					32:[D_PUBLISHER_COEC<0.101659] yes=65,no=66,missing=65
						65:leaf=-0.0402674
						66:leaf=-0.0216573
				16:[D_TITLEMD5_COEC<0.088737] yes=33,no=34,missing=33
					33:[U_CATEGORY_MACRO_MAX_COEC<0.016661] yes=67,no=68,missing=68
						67:leaf=-0.0146909
						68:leaf=-0.0448866
					34:[IMAGE_COUNT<2] yes=69,no=70,missing=70
						69:leaf=-0.0339542
						70:leaf=-0.011611
			8:[U_CATEGORY_MACRO_MAX_COEC<0.015224] yes=17,no=18,missing=18
				17:[C_D_U_CATEGORY_CITY_MACRO_MEAN_COEC<0.07287] yes=35,no=36,missing=36
					35:[U_CITY_COEC<0.079699] yes=71,no=72,missing=72
						71:leaf=-0.0522328
						72:leaf=-0.0218192
					36:[U_CATEGORY_MICRO_MAX_COEC<0.140523] yes=73,no=74,missing=74
						73:leaf=-0.00331503
						74:leaf=0.144957
				18:[U_CATEGORY_MICRO_MAX_COEC<0.114953] yes=37,no=38,missing=38
					37:[C_D_U_CATEGORY_CITY_MACRO_MAX_COEC<0.05873] yes=75,no=76,missing=75
						75:leaf=-0.0449304
						76:leaf=-0.0259287
					38:[C_D_U_CATEGORY_CITY_MACRO_MEAN_COEC<0.082051] yes=77,no=78,missing=78
						77:leaf=-0.0323003
						78:leaf=0.0074413
		4:[D_CATEGORY_MICRO_MAX_COEC<0.098129] yes=9,no=10,missing=10
			9:[D_PUBLISHER_COEC<0.08765] yes=19,no=20,missing=20
				19:[C_D_U_TITLEMD5_CATEGORY_MACRO_MAX_COEC<0.023059] yes=39,no=40,missing=40
					39:[C_D_U_CATEGORY_CITY_MACRO_MAX_COEC<0.067213] yes=79,no=80,missing=79
						79:leaf=-0.0351519
						80:leaf=-0.00331195
					40:[D_CATEGORY_MICRO_MEAN_COEC<0.083418] yes=81,no=82,missing=82
						81:leaf=-0.0627183
						82:leaf=-0.0360968
				20:[CAT_REL<0.000823] yes=41,no=42,missing=42
					41:[D_KEYWORD_MICRO_MEAN_COEC<0.11015] yes=83,no=84,missing=84
						83:leaf=-0.0260164
						84:leaf=-0.00746494
					42:[D_KEYWORD_MICRO_MAX_COEC<0.147993] yes=85,no=86,missing=86
						85:leaf=-0.00160602
						86:leaf=0.0342824
			10:[D_KEYWORD_MACRO_MAX_COEC<0.080416] yes=21,no=22,missing=22
				21:[WORD_COUNT<3237] yes=43,no=44,missing=44
					43:[C_D_U_PUBLISHER_CITY_COEC<0.084887] yes=87,no=88,missing=87
						87:leaf=-0.0206567
						88:leaf=-0.0107519
					44:[D_KEYWORD_MICRO_MAX_COEC<0.131072] yes=89,no=90,missing=90
						89:leaf=-0.0196052
						90:leaf=0.00205334
				22:[D_PUBLISHER_COEC<0.123807] yes=45,no=46,missing=46
					45:[D_CATEGORY_MACRO_MAX_COEC<0.060117] yes=91,no=92,missing=92
						91:leaf=0.0241362
						92:leaf=-0.00842976
					46:[D_CATEGORY_MACRO_MAX_COEC<0.104458] yes=93,no=94,missing=94
						93:leaf=-0.00566608
						94:leaf=0.0113998
	2:[D_PUBLISHER_COEC<0.096494] yes=5,no=6,missing=5
		5:[DOC_AGE<16] yes=11,no=12,missing=12
			11:[C_D_U_TITLEMD5_CITY_COEC<0.999999] yes=23,no=24,missing=24
				23:[CAT_REL<0.067839] yes=47,no=48,missing=48
					47:[C_D_U_CATEGORY_CITY_MACRO_MAX_COEC<0.113165] yes=95,no=96,missing=96
						95:leaf=-0.0110112
						96:leaf=0.00746366
					48:[U_CATEGORY_MACRO_MAX_COEC<0.042559] yes=97,no=98,missing=98
						97:leaf=0.010579
						98:leaf=-0.0161062
				24:[C_D_U_CATEGORY_CITY_MICRO_MEAN_COEC<0.106377] yes=49,no=50,missing=50
					49:[D_KEYWORD_MACRO_MEAN_COEC<0.089866] yes=99,no=100,missing=100
						99:leaf=-0.0352097
						100:leaf=-0.0181142
					50:[U_CITY_COEC<0.112105] yes=101,no=102,missing=101
						101:leaf=-0.012419
						102:leaf=0.0132703
			12:[CAT_REL<0.03959] yes=25,no=26,missing=26
				25:[IMAGE_COUNT<2] yes=51,no=52,missing=52
					51:[D_CATEGORY_MACRO_MAX_COEC<0.107385] yes=103,no=104,missing=104
						103:leaf=-0.0402741
						104:leaf=-0.0105905
					52:[DOC_AGE<126] yes=105,no=106,missing=106
						105:leaf=-0.0208121
						106:leaf=0.0381555
				26:[U_CITY_COEC<0.071118] yes=53,no=54,missing=54
					53:[C_D_U_CATEGORY_CITY_MACRO_MEAN_COEC<0.099666] yes=107,no=108,missing=107
						107:leaf=-0.0457985
						108:leaf=-0.0153869
					54:[U_CATEGORY_MACRO_MAX_COEC<0.010934] yes=109,no=110,missing=110
						109:leaf=0.00948778
						110:leaf=-0.0158179
		6:[U_CATEGORY_MACRO_MAX_COEC<0.013551] yes=13,no=14,missing=14
			13:[DOC_AGE<12] yes=27,no=28,missing=28
				27:[U_CATEGORY_MICRO_MAX_COEC<0.094164] yes=55,no=56,missing=56
					55:[D_KEYWORD_MICRO_MAX_COEC<0.20467] yes=111,no=112,missing=112
						111:leaf=0.00783079
						112:leaf=0.0378382
					56:[U_CATEGORY_MACRO_MAX_COEC<0.011392] yes=113,no=114,missing=114
						113:leaf=0.0343709
						114:leaf=0.0187396
				28:[CAT_REL<0.029407] yes=57,no=58,missing=58
					57:[U_CITY_COEC<0.078566] yes=115,no=116,missing=116
						115:leaf=-0.0254293
						116:leaf=0.000743947
					58:[U_CATEGORY_MICRO_MAX_COEC<0.111315] yes=117,no=118,missing=118
						117:leaf=0.0100696
						118:leaf=0.0357911
			14:[C_D_U_KEYWORD_CATEGORY_MICRO_MAX_COEC<0.168015] yes=29,no=30,missing=30
				29:[U_CITY_COEC<0.071118] yes=59,no=60,missing=59
					59:[C_D_U_CATEGORY_CITY_MACRO_MEAN_COEC<0.076762] yes=119,no=120,missing=120
						119:leaf=-0.0311184
						120:leaf=-0.0149782
					60:[U_CATEGORY_MACRO_MAX_COEC<0.039357] yes=121,no=122,missing=122
						121:leaf=-0.00340443
						122:leaf=-0.0163911
				30:[DOC_AGE<76] yes=61,no=62,missing=62
					61:[DOC_AGE<24] yes=123,no=124,missing=124
						123:leaf=0.00315723
						124:leaf=-0.0118191
					62:[U_CATEGORY_MACRO_MAX_COEC<0.048345] yes=125,no=126,missing=126
						125:leaf=0.042719
						126:leaf=0.014591
booster[24]:
0:[C_D_U_KEYWORD_CATEGORY_MICRO_MEAN_COEC<0.082663] yes=1,no=2,missing=1
	1:[D_TITLEMD5_COEC<0.096593] yes=3,no=4,missing=3
		3:[D_TITLEMD5_COEC<0.046883] yes=7,no=8,missing=7
			7:[U_CATEGORY_MACRO_MAX_COEC<0.039071] yes=15,no=16,missing=16
				15:[D_KEYWORD_MACRO_MAX_COEC<0.014846] yes=31,no=32,missing=32
					31:[C_D_U_CATEGORY_CITY_MICRO_MAX_COEC<0.031841] yes=63,no=64,missing=64
						63:leaf=-0.0704184
						64:leaf=-0.0527398
					32:[DOC_AGE<5] yes=65,no=66,missing=66
						65:leaf=-0.0264798
						66:leaf=-0.0509534
				16:[DOC_AGE<129] yes=33,no=34,missing=34
					33:[DOC_AGE<5] yes=67,no=68,missing=68
						67:leaf=-0.057113
						68:leaf=-0.0792253
					34:[D_TITLEMD5_COEC<0.022655] yes=69,no=70,missing=69
						69:leaf=-0.0697493
						70:leaf=-0.0343996
			8:[U_CATEGORY_MACRO_MAX_COEC<0.009869] yes=17,no=18,missing=18
				17:[U_CITY_COEC<0.073922] yes=35,no=36,missing=35
					35:[CAT_REL<0.068132] yes=71,no=72,missing=72
						71:leaf=-0.0347198
						72:leaf=0.0342365
					36:[C_D_U_PUBLISHER_CITY_COEC<0.079471] yes=73,no=74,missing=73
						73:leaf=-0.00475503
						74:leaf=0.0276029
				18:[DOC_AGE<129] yes=37,no=38,missing=38
					37:[CAT_REL<0.061046] yes=75,no=76,missing=76
						75:leaf=-0.0427773
						76:leaf=-0.0205694
					38:[U_CITY_COEC<0.106657] yes=77,no=78,missing=77
						77:leaf=-0.0124965
						78:leaf=0.0150843
		4:[D_PUBLISHER_COEC<0.09874] yes=9,no=10,missing=10
			9:[D_KEYWORD_MICRO_MEAN_COEC<0.106214] yes=19,no=20,missing=20
				19:[U_CATEGORY_MACRO_MAX_COEC<0.025049] yes=39,no=40,missing=40
					39:[D_KEYWORD_MACRO_MEAN_COEC<0.073731] yes=79,no=80,missing=80
						79:leaf=-0.0416062
						80:leaf=-0.0107155
					40:[IMAGE_COUNT<2] yes=81,no=82,missing=82
						81:leaf=-0.0392112
						82:leaf=-0.0202931
				20:[WORD_COUNT<2418] yes=41,no=42,missing=42
					41:[D_KEYWORD_MACRO_MAX_COEC<0.063718] yes=83,no=84,missing=84
						83:leaf=-0.0284345
						84:leaf=-0.000130026
					42:[WORD_COUNT<2628] yes=85,no=86,missing=86
						85:leaf=0.0343456
						86:leaf=-0.00926699
			10:[D_CATEGORY_MACRO_MEAN_COEC<0.091876] yes=21,no=22,missing=22
				21:[CAT_REL<0.018458] yes=43,no=44,missing=44
					43:[D_KEYWORD_MACRO_MAX_COEC<0.010955] yes=87,no=88,missing=88
						87:leaf=0.0579353
						88:leaf=-0.0238397
					44:[D_KEYWORD_MACRO_MAX_COEC<0.047787] yes=89,no=90,missing=90
						89:leaf=-0.0100895
						90:leaf=0.0196895
				22:[D_TITLEMD5_COEC<0.198704] yes=45,no=46,missing=46
					45:[U_CITY_COEC<0.078694] yes=91,no=92,missing=91
						91:leaf=-0.0151981
						92:leaf=-0.00633349
					46:[DAY_OF_WEEK<5] yes=93,no=94,missing=94
						93:leaf=0.000412249
						94:leaf=0.0224512
	2:[D_TITLEMD5_COEC<0.104892] yes=5,no=6,missing=5
		5:[U_CITY_COEC<0.070436] yes=11,no=12,missing=12
			11:[C_D_U_TITLEMD5_CITY_COEC<8.00611] yes=23,no=24,missing=24
				23:[C_D_U_CATEGORY_CITY_MICRO_MAX_COEC<0.110933] yes=47,no=48,missing=47
					47:[DOC_AGE<19] yes=95,no=96,missing=96
						95:leaf=-0.0108619
						96:leaf=-0.0342152
					48:[C_D_U_CATEGORY_GENDER_MACRO_MEAN_COEC<0.106453] yes=97,no=98,missing=97
						97:leaf=0.00379016
						98:leaf=0.0717906
				24:[C_D_U_CATEGORY_CITY_MACRO_MEAN_COEC<0.058357] yes=49,no=50,missing=50
					49:[CAT_REL<0.040771] yes=99,no=100,missing=100
						99:leaf=-0.0644534
						100:leaf=-0.0434248
					50:[DOC_AGE<12] yes=101,no=102,missing=102
						101:leaf=-0.0221395
						102:leaf=-0.0440288
			12:[U_CITY_COEC<0.127963] yes=25,no=26,missing=25
				25:[CAT_REL<0.015825] yes=51,no=52,missing=52
					51:[D_CATEGORY_MACRO_MAX_COEC<0.221191] yes=103,no=104,missing=104
						103:leaf=-0.0252195
						104:leaf=0.0134966
					52:[DOC_AGE<13] yes=105,no=106,missing=106
						105:leaf=-0.00191335
						106:leaf=-0.0153391
				26:[C_D_U_CATEGORY_CITY_MICRO_MEAN_COEC<0.187333] yes=53,no=54,missing=54
					53:[C_D_U_PUBLISHER_AGE_COEC<0.114131] yes=107,no=108,missing=107
						107:leaf=-0.00279216
						108:leaf=0.0372579
					54:[C_D_U_PUBLISHER_CITY_COEC<0.207192] yes=109,no=110,missing=109
						109:leaf=0.0216755
						110:leaf=0.0484711
		6:[CAT_REL<0.011053] yes=13,no=14,missing=14
			13:[D_CATEGORY_MACRO_MAX_COEC<0.114838] yes=27,no=28,missing=28
				27:[TIME_OF_DAY<8] yes=55,no=56,missing=56
					55:[TIME_OF_DAY<4] yes=111,no=112,missing=112
						111:leaf=-0.00623859
						112:leaf=-0.0491544
					56:[D_PUBLISHER_COEC<0.101442] yes=113,no=114,missing=114
						113:leaf=-0.0136989
						114:leaf=-0.000902498
				28:[C_D_U_KEYWORD_CATEGORY_MACRO_MAX_COEC<0.007856] yes=57,no=58,missing=58
					57:[D_CATEGORY_MACRO_MEAN_COEC<0.116294] yes=115,no=116,missing=115
						115:leaf=0.0302906
						116:leaf=0.00691062
					58:[C_D_U_TITLEMD5_CATEGORY_MICRO_MAX_COEC<0.215208] yes=117,no=118,missing=117
						117:leaf=0.00202149
						118:leaf=0.0187834
			14:[U_CATEGORY_MICRO_MAX_COEC<0.111629] yes=29,no=30,missing=30
				29:[U_CATEGORY_MACRO_MAX_COEC<0.013447] yes=59,no=60,missing=60
					59:[U_CATEGORY_MACRO_MAX_COEC<0.009869] yes=119,no=120,missing=120
						119:leaf=0.0291569
						120:leaf=0.0100038
					60:[D_CATEGORY_MICRO_MAX_COEC<0.102065] yes=121,no=122,missing=122
						121:leaf=0.00292315
						122:leaf=-0.00726856
				30:[U_CATEGORY_MACRO_MAX_COEC<0.036565] yes=61,no=62,missing=62
					61:[C_D_U_PUBLISHER_CITY_COEC<0.132741] yes=123,no=124,missing=123
						123:leaf=0.0154914
						124:leaf=0.031141
					62:[TIME_OF_DAY<8] yes=125,no=126,missing=126
						125:leaf=0.0158112
						126:leaf=-0.0130289
booster[25]:
0:[C_D_U_KEYWORD_CATEGORY_MICRO_MAX_COEC<0.138888] yes=1,no=2,missing=1
	1:[D_TITLEMD5_COEC<0.088942] yes=3,no=4,missing=3
		3:[U_CATEGORY_MACRO_MAX_COEC<0.028684] yes=7,no=8,missing=8
			7:[CAT_REL<0.039762] yes=15,no=16,missing=16
				15:[U_CITY_COEC<0.070084] yes=31,no=32,missing=32
					31:[C_D_U_TITLEMD5_CITY_COEC<0.187989] yes=63,no=64,missing=64
						63:leaf=-0.030983
						64:leaf=-0.0643903
					32:[U_CATEGORY_MACRO_MAX_COEC<0.009315] yes=65,no=66,missing=66
						65:leaf=-0.00593101
						66:leaf=-0.033801
				16:[C_D_U_CATEGORY_CITY_MACRO_MEAN_COEC<0.075358] yes=33,no=34,missing=33
					33:[U_CITY_COEC<0.081315] yes=67,no=68,missing=68
						67:leaf=-0.0407754
						68:leaf=-0.0206424
					34:[U_CATEGORY_MACRO_MAX_COEC<0.010462] yes=69,no=70,missing=70
						69:leaf=0.0204162
						70:leaf=-0.0105843
			8:[DOC_AGE<78] yes=17,no=18,missing=18
				17:[D_TITLEMD5_COEC<0.056862] yes=35,no=36,missing=35
					35:[DOC_AGE<5] yes=71,no=72,missing=72
						71:leaf=-0.0497214
						72:leaf=-0.071248
					36:[U_CITY_COEC<0.084703] yes=73,no=74,missing=73
						73:leaf=-0.0493998
						74:leaf=-0.037217
				18:[D_TITLEMD5_COEC<0.045561] yes=37,no=38,missing=37
					37:[D_TITLEMD5_COEC<0.021465] yes=75,no=76,missing=75
						75:leaf=-0.0653707
						76:leaf=-0.0353878
					38:[C_D_U_CATEGORY_CITY_MICRO_MAX_COEC<0.120335] yes=77,no=78,missing=77
						77:leaf=-0.0192371
						78:leaf=0.012655
		4:[D_PUBLISHER_COEC<0.115021] yes=9,no=10,missing=10
			9:[C_D_U_CATEGORY_CITY_MICRO_MEAN_COEC<0.097649] yes=19,no=20,missing=19
				19:[IMAGE_COUNT<2] yes=39,no=40,missing=40
					39:[CAT_REL<0.039762] yes=79,no=80,missing=80
						79:leaf=-0.0312916
						80:leaf=-0.0116338
					40:[U_CATEGORY_MACRO_MAX_COEC<0.014126] yes=81,no=82,missing=82
						81:leaf=0.00637677
						82:leaf=-0.0154217
				20:[U_CATEGORY_MACRO_MAX_COEC<0.011465] yes=41,no=42,missing=42
					41:[U_CITY_COEC<0.152749] yes=83,no=84,missing=84
						83:leaf=0.0144557
						84:leaf=0.0608597
					42:[D_KEYWORD_MACRO_MAX_COEC<0.049991] yes=85,no=86,missing=86
						85:leaf=-0.0158024
						86:leaf=-0.00563835
			10:[DAY_OF_WEEK<6] yes=21,no=22,missing=22
				21:[D_CATEGORY_MACRO_MEAN_COEC<0.106634] yes=43,no=44,missing=44
					43:[DAY_OF_WEEK<0.999999] yes=87,no=88,missing=88
						87:leaf=0.00188928
						88:leaf=-0.0133023
					44:[D_CATEGORY_MACRO_MEAN_COEC<0.107186] yes=89,no=90,missing=89
						89:leaf=0.0050433
						90:leaf=-0.00552141
				22:[D_KEYWORD_MACRO_MAX_COEC<0.018398] yes=45,no=46,missing=46
					45:[U_CATEGORY_MACRO_MAX_COEC<0.014907] yes=91,no=92,missing=91
						91:leaf=0.0711759
						92:leaf=0.00818376
					46:[D_CATEGORY_MICRO_MAX_COEC<0.103141] yes=93,no=94,missing=93
						93:leaf=0.00221682
						94:leaf=0.0187108
	2:[D_TITLEMD5_COEC<0.068136] yes=5,no=6,missing=6
		5:[U_CITY_COEC<0.090138] yes=11,no=12,missing=11
			11:[U_CATEGORY_MACRO_MAX_COEC<0.021375] yes=23,no=24,missing=24
				23:[U_CITY_COEC<0.078118] yes=47,no=48,missing=48
					47:[DOC_AGE<6] yes=95,no=96,missing=96
						95:leaf=-0.0155098
						96:leaf=-0.0527239
					48:[CAT_REL<0.027121] yes=97,no=98,missing=98
						97:leaf=-0.0313396
						98:leaf=-0.0111871
				24:[DOC_AGE<134] yes=49,no=50,missing=50
					49:[DOC_AGE<6] yes=99,no=100,missing=100
						99:leaf=-0.028955
						100:leaf=-0.0564321
					50:[U_CATEGORY_MACRO_MAX_COEC<0.043407] yes=101,no=102,missing=102
						101:leaf=0.0486219
						102:leaf=-0.0678127
			12:[C_D_U_CATEGORY_CITY_MACRO_MEAN_COEC<0.0995] yes=25,no=26,missing=26
				25:[C_D_U_TITLEMD5_CITY_COEC<0.999999] yes=51,no=52,missing=52
					51:[U_CATEGORY_MACRO_MAX_COEC<0.03593] yes=103,no=104,missing=104
						103:leaf=-0.0082227
						104:leaf=-0.0509802
					52:[D_PUBLISHER_COEC<0.045081] yes=105,no=106,missing=106
						105:leaf=-0.0548588
						106:leaf=-0.030524
				26:[U_CATEGORY_MACRO_MAX_COEC<0.032095] yes=53,no=54,missing=54
					53:[DOC_AGE<134] yes=107,no=108,missing=108
						107:leaf=-0.00124194
						108:leaf=0.0643771
					54:[CAT_REL<0.137988] yes=109,no=110,missing=110
						109:leaf=-0.0489912
						110:leaf=-0.0147389
		6:[U_CITY_COEC<0.081315] yes=13,no=14,missing=13
			13:[C_D_U_CATEGORY_CITY_MICRO_MEAN_COEC<0.064982] yes=27,no=28,missing=28
				27:[C_D_U_TITLEMD5_CITY_COEC<8.00611] yes=55,no=56,missing=56
					55:[C_D_U_PUBLISHER_AGE_COEC<0.113003] yes=111,no=112,missing=111
						111:leaf=-0.00914778
						112:leaf=0.0150177
					56:[D_KEYWORD_MACRO_MEAN_COEC<0.091487] yes=113,no=114,missing=114
						113:leaf=-0.0467473
						114:leaf=-0.0236116
				28:[U_CATEGORY_MACRO_MAX_COEC<0.0138] yes=57,no=58,missing=58
					57:[U_CATEGORY_MICRO_MAX_COEC<0.119821] yes=115,no=116,missing=116
						115:leaf=0.00217616
						116:leaf=0.0305643
					58:[CAT_REL<0.085417] yes=117,no=118,missing=118
						117:leaf=-0.0122004
						118:leaf=-0.00170516
			14:[C_D_U_CATEGORY_CITY_MICRO_MEAN_COEC<0.166094] yes=29,no=30,missing=30
				29:[CAT_REL<0.000847] yes=59,no=60,missing=60
					59:[D_KEYWORD_MACRO_MEAN_COEC<0.092914] yes=119,no=120,missing=120
						119:leaf=-0.0180587
						120:leaf=-0.00340146
					60:[DOC_AGE<21] yes=121,no=122,missing=122
						121:leaf=0.00638332
						122:leaf=-0.00503412
				30:[U_CATEGORY_MACRO_MAX_COEC<0.010892] yes=61,no=62,missing=62
					61:[U_CITY_COEC<0.152749] yes=123,no=124,missing=124
						123:leaf=0.0358868
						124:leaf=0.0599916
					62:[U_CITY_COEC<0.193552] yes=125,no=126,missing=126
						125:leaf=0.0130201
						126:leaf=0.0358654
booster[26]:
0:[C_D_U_KEYWORD_CATEGORY_MICRO_MEAN_COEC<0.10258] yes=1,no=2,missing=1
	1:[D_TITLEMD5_COEC<0.092376] yes=3,no=4,missing=3
		3:[U_CATEGORY_MACRO_MAX_COEC<0.028652] yes=7,no=8,missing=8
			7:[D_TITLEMD5_COEC<0.043745] yes=15,no=16,missing=16
				15:[C_D_U_CATEGORY_CITY_MICRO_MAX_COEC<0.090604] yes=31,no=32,missing=31
					31:[DOC_AGE<5] yes=63,no=64,missing=64
						63:leaf=-0.0364066
						64:leaf=-0.0547841
					32:[U_CITY_COEC<0.093795] yes=65,no=66,missing=66
						65:leaf=-0.0378533
						66:leaf=-0.0154285
				16:[U_CITY_COEC<0.079825] yes=33,no=34,missing=33
					33:[C_D_U_CATEGORY_CITY_MACRO_MAX_COEC<0.053691] yes=67,no=68,missing=68
						67:leaf=-0.0514831
						68:leaf=-0.0235925
					34:[U_CATEGORY_MACRO_MAX_COEC<0.011395] yes=69,no=70,missing=70
						69:leaf=0.00426939
						70:leaf=-0.0171747
			8:[DOC_AGE<76] yes=17,no=18,missing=18
				17:[D_TITLEMD5_COEC<0.064544] yes=35,no=36,missing=35
					35:[DOC_AGE<6] yes=71,no=72,missing=72
						71:leaf=-0.0451944
						72:leaf=-0.063512
					36:[D_CATEGORY_MICRO_MAX_COEC<0.107447] yes=73,no=74,missing=74
						73:leaf=-0.0404218
						74:leaf=-0.0210606
				18:[D_TITLEMD5_COEC<0.020053] yes=37,no=38,missing=37
					37:[DAY_OF_WEEK<5] yes=75,no=76,missing=76
						75:leaf=-0.0723069
						76:leaf=-0.0393743
					38:[C_D_U_CATEGORY_CITY_MICRO_MEAN_COEC<0.145621] yes=77,no=78,missing=77
						77:leaf=-0.017751
						78:leaf=0.0211726
		4:[C_D_U_PUBLISHER_CITY_COEC<0.089883] yes=9,no=10,missing=9
			9:[D_KEYWORD_MICRO_MAX_COEC<0.133951] yes=19,no=20,missing=20
				19:[U_CATEGORY_MACRO_MAX_COEC<0.027088] yes=39,no=40,missing=40
					39:[CAT_REL<0.052809] yes=79,no=80,missing=80
						79:leaf=-0.0174583
						80:leaf=-0.000810139
					40:[IMAGE_COUNT<2] yes=81,no=82,missing=82
						81:leaf=-0.0330162
						82:leaf=-0.0186954
				20:[D_KEYWORD_MICRO_MEAN_COEC<0.084409] yes=41,no=42,missing=42
					41:[C_D_U_TITLEMD5_CATEGORY_MACRO_MAX_COEC<0.043431] yes=83,no=84,missing=84
						83:leaf=-0.0205655
						84:leaf=-0.0462385
					42:[CAT_REL<0.046467] yes=85,no=86,missing=86
						85:leaf=-0.0110718
						86:leaf=0.00310016
			10:[U_CATEGORY_MACRO_MAX_COEC<0.010915] yes=21,no=22,missing=22
				21:[C_D_U_CATEGORY_CITY_MACRO_MAX_COEC<0.108916] yes=43,no=44,missing=44
					43:[DOC_AGE<24] yes=87,no=88,missing=88
						87:leaf=0.0183562
						88:leaf=-0.022224
					44:[C_D_U_TITLEMD5_CATEGORY_MACRO_MAX_COEC<0.009782] yes=89,no=90,missing=90
						89:leaf=0.056266
						90:leaf=0.0273
				22:[D_TITLEMD5_COEC<0.153476] yes=45,no=46,missing=46
					45:[CAT_REL<0.067815] yes=91,no=92,missing=92
						91:leaf=-0.0119606
						92:leaf=0.00329121
					46:[U_CATEGORY_MACRO_MAX_COEC<0.024445] yes=93,no=94,missing=94
						93:leaf=0.01178
						94:leaf=-0.00147983
	2:[C_D_U_KEYWORD_CATEGORY_MICRO_MEAN_COEC<0.163247] yes=5,no=6,missing=6
		5:[DOC_AGE<24] yes=11,no=12,missing=12
			11:[U_CATEGORY_MACRO_MAX_COEC<0.016387] yes=23,no=24,missing=24
				23:[D_PUBLISHER_COEC<0.087811] yes=47,no=48,missing=48
					47:[CAT_REL<0.058395] yes=95,no=96,missing=96
						95:leaf=-0.0101332
						96:leaf=0.00798043
					48:[DOC_AGE<12] yes=97,no=98,missing=98
						97:leaf=0.0131041
						98:leaf=0.00123422
				24:[D_TITLEMD5_COEC<0.073616] yes=49,no=50,missing=49
					49:[U_CATEGORY_MICRO_MAX_COEC<0.11761] yes=99,no=100,missing=100
						99:leaf=-0.029202
						100:leaf=-0.00722199
					50:[U_CATEGORY_MACRO_MAX_COEC<0.048305] yes=101,no=102,missing=102
						101:leaf=-0.00285914
						102:leaf=-0.0165976
			12:[DOC_AGE<76] yes=25,no=26,missing=26
				25:[C_D_U_CATEGORY_CITY_MACRO_MAX_COEC<0.083639] yes=51,no=52,missing=52
					51:[C_D_U_TITLEMD5_CITY_COEC<0.309976] yes=103,no=104,missing=104
						103:leaf=-0.0228657
						104:leaf=-0.049457
					52:[C_D_U_TITLEMD5_CATEGORY_MICRO_MAX_COEC<0.119518] yes=105,no=106,missing=105
						105:leaf=-0.0253148
						106:leaf=-0.0114165
				26:[D_TITLEMD5_COEC<0.020053] yes=53,no=54,missing=53
					53:[U_CATEGORY_MICRO_MAX_COEC<0.086471] yes=107,no=108,missing=108
						107:leaf=0.0380235
						108:leaf=-0.0632565
					54:[U_CITY_COEC<0.08611] yes=109,no=110,missing=110
						109:leaf=-0.00620487
						110:leaf=0.0275714
		6:[C_D_U_TITLEMD5_CATEGORY_MICRO_MAX_COEC<0.28379] yes=13,no=14,missing=14
			13:[U_CATEGORY_MACRO_MAX_COEC<0.036276] yes=27,no=28,missing=28
				27:[U_CATEGORY_MICRO_MAX_COEC<0.111584] yes=55,no=56,missing=56
					55:[D_CATEGORY_MACRO_MEAN_COEC<0.102032] yes=111,no=112,missing=111
						111:leaf=0.00976526
						112:leaf=-0.00325122
					56:[U_CITY_COEC<0.090173] yes=113,no=114,missing=113
						113:leaf=0.00856321
						114:leaf=0.0223085
				28:[D_KEYWORD_MACRO_MAX_COEC<0.090459] yes=57,no=58,missing=58
					57:[CAT_REL<0.262134] yes=115,no=116,missing=116
						115:leaf=-0.0119683
						116:leaf=0.00173605
					58:[D_PUBLISHER_COEC<0.100424] yes=117,no=118,missing=118
						117:leaf=-0.0281603
						118:leaf=0.0119788
			14:[CAT_REL<0.326722] yes=29,no=30,missing=30
				29:[U_CATEGORY_MACRO_MAX_COEC<0.043486] yes=59,no=60,missing=60
					59:[D_TITLEMD5_COEC<0.152114] yes=119,no=120,missing=120
						119:leaf=0.0129331
						120:leaf=0.0277968
					60:[D_KEYWORD_MACRO_MAX_COEC<0.074185] yes=121,no=122,missing=122
						121:leaf=-0.039773
						122:leaf=0.0104494
				30:[TIME_OF_DAY<8] yes=61,no=62,missing=62
					61:[TIME_OF_DAY<4] yes=123,no=124,missing=124
						123:leaf=-0.00879793
						124:leaf=0.132685
					62:[D_KEYWORD_MICRO_MEAN_COEC<0.112484] yes=125,no=126,missing=126
						125:leaf=0.0421653
						126:leaf=-0.0177401
booster[27]:
0:[D_TITLEMD5_COEC<0.077816] yes=1,no=2,missing=1
	1:[CAT_REL<0.0009] yes=3,no=4,missing=4
		3:[D_CATEGORY_MACRO_MEAN_COEC<0.131972] yes=7,no=8,missing=8
			7:[D_TITLEMD5_COEC<0.021367] yes=15,no=16,missing=16
				15:[DOC_AGE<3] yes=31,no=32,missing=32
					31:[C_D_U_CATEGORY_CITY_MICRO_MAX_COEC<0.032848] yes=63,no=64,missing=63
						63:leaf=-0.0563925
						64:leaf=-0.0362971
					32:[C_D_U_CATEGORY_CITY_MACRO_MAX_COEC<0.078387] yes=65,no=66,missing=65
						65:leaf=-0.0740823
						66:leaf=-0.0561786
				16:[DOC_AGE<128] yes=33,no=34,missing=34
					33:[DOC_AGE<6] yes=67,no=68,missing=68
						67:leaf=-0.0227346
						68:leaf=-0.0477007
					34:[U_CATEGORY_MACRO_MAX_COEC<0.032262] yes=69,no=70,missing=70
						69:leaf=0.0419086
						70:leaf=-0.0182208
			8:[U_CATEGORY_MACRO_MAX_COEC<0.013859] yes=17,no=18,missing=18
				17:[U_CITY_COEC<0.193739] yes=35,no=36,missing=35
					35:[U_CATEGORY_MACRO_MAX_COEC<0.007252] yes=71,no=72,missing=72
						71:leaf=0.0880924
						72:leaf=0.0122409
					36:[C_D_U_TITLEMD5_CATEGORY_MACRO_MAX_COEC<0.003716] yes=73,no=74,missing=73
						73:leaf=0.305618
						74:leaf=0.125017
				18:[D_TITLEMD5_COEC<0.064513] yes=37,no=38,missing=37
					37:[D_KEYWORD_MACRO_MAX_COEC<0.014923] yes=75,no=76,missing=76
						75:leaf=-0.052848
						76:leaf=-0.028661
					38:[U_CATEGORY_MACRO_MAX_COEC<0.043316] yes=77,no=78,missing=77
						77:leaf=0.00230468
						78:leaf=-0.061239
		4:[C_D_U_CATEGORY_CITY_MACRO_MAX_COEC<0.107104] yes=9,no=10,missing=9
			9:[C_D_U_TITLEMD5_CITY_COEC<0.999999] yes=19,no=20,missing=20
				19:[DOC_AGE<24] yes=39,no=40,missing=40
					39:[U_CATEGORY_MACRO_MAX_COEC<0.009383] yes=79,no=80,missing=80
						79:leaf=0.0258423
						80:leaf=-0.00869139
					40:[U_CATEGORY_MACRO_MAX_COEC<0.018957] yes=81,no=82,missing=82
						81:leaf=-0.0187642
						82:leaf=-0.0423928
				20:[U_CITY_COEC<0.093537] yes=41,no=42,missing=42
					41:[DOC_AGE<8] yes=83,no=84,missing=84
						83:leaf=-0.0233131
						84:leaf=-0.0464382
					42:[U_CATEGORY_MICRO_MAX_COEC<0.113738] yes=85,no=86,missing=86
						85:leaf=-0.0253244
						86:leaf=-0.000675301
			10:[C_D_U_PUBLISHER_CITY_COEC<0.135015] yes=21,no=22,missing=21
				21:[D_TITLEMD5_COEC<0.044196] yes=43,no=44,missing=44
					43:[C_D_U_CATEGORY_GENDER_MACRO_MAX_COEC<0.13657] yes=87,no=88,missing=87
						87:leaf=-0.0263214
						88:leaf=0.114742
					44:[D_CATEGORY_MICRO_MAX_COEC<0.102015] yes=89,no=90,missing=90
						89:leaf=0.00594669
						90:leaf=-0.0140318
				22:[U_CATEGORY_MACRO_MAX_COEC<0.030383] yes=45,no=46,missing=46
					45:[DOC_AGE<70] yes=91,no=92,missing=92
						91:leaf=0.0191727
						92:leaf=0.0874359
					46:[CAT_REL<0.156489] yes=93,no=94,missing=94
						93:leaf=-0.0575688
						94:leaf=-0.00397359
	2:[U_CATEGORY_MACRO_MAX_COEC<0.035928] yes=5,no=6,missing=6
		5:[U_CITY_COEC<0.128938] yes=11,no=12,missing=11
			11:[C_D_U_TITLEMD5_CITY_COEC<0.999999] yes=23,no=24,missing=24
				23:[DOC_AGE<24] yes=47,no=48,missing=48
					47:[U_CATEGORY_MACRO_MAX_COEC<0.012015] yes=95,no=96,missing=96
						95:leaf=0.0160238
						96:leaf=0.00223682
					48:[DOC_AGE<128] yes=97,no=98,missing=98
						97:leaf=-0.011256
						98:leaf=0.0580626
				24:[C_D_U_CATEGORY_CITY_MACRO_MAX_COEC<0.072661] yes=49,no=50,missing=50
					49:[D_KEYWORD_MACRO_MEAN_COEC<0.090057] yes=99,no=100,missing=100
						99:leaf=-0.0327434
						100:leaf=-0.0139868
					50:[U_CATEGORY_MICRO_MAX_COEC<0.110384] yes=101,no=102,missing=102
						101:leaf=-0.00849129
						102:leaf=0.00644168
			12:[U_CITY_COEC<0.193739] yes=25,no=26,missing=26
				25:[C_D_U_CATEGORY_CITY_MICRO_MEAN_COEC<0.168726] yes=51,no=52,missing=52
					51:[D_PUBLISHER_COEC<0.099096] yes=103,no=104,missing=104
						103:leaf=-0.000287024
						104:leaf=0.0163744
					52:[U_CATEGORY_MACRO_MAX_COEC<0.023789] yes=105,no=106,missing=106
						105:leaf=0.0267201
						106:leaf=0.00514563
				26:[U_CATEGORY_MACRO_MAX_COEC<0.011378] yes=53,no=54,missing=54
					53:[TIME_OF_DAY<19] yes=107,no=108,missing=108
						107:leaf=0.0698202
						108:leaf=0.0337847
					54:[C_D_U_CATEGORY_CITY_MICRO_MAX_COEC<0.329329] yes=109,no=110,missing=109
						109:leaf=0.0220514
						110:leaf=0.0456081
		6:[D_KEYWORD_MACRO_MEAN_COEC<0.105124] yes=13,no=14,missing=14
			13:[DOC_AGE<70] yes=27,no=28,missing=28
				27:[IMAGE_COUNT<0.999999] yes=55,no=56,missing=56
					55:[C_D_U_TITLEMD5_CATEGORY_MICRO_MAX_COEC<0.166978] yes=111,no=112,missing=111
						111:leaf=-0.0844501
						112:leaf=-0.118204
					56:[C_D_U_CATEGORY_CITY_MACRO_MAX_COEC<0.097094] yes=113,no=114,missing=113
						113:leaf=-0.027788
						114:leaf=-0.0157365
				28:[D_KEYWORD_MACRO_MAX_COEC<0.021015] yes=57,no=58,missing=58
					57:[D_TITLEMD5_COEC<0.103945] yes=115,no=116,missing=116
						115:leaf=-0.00122506
						116:leaf=0.0299149
					58:[U_CATEGORY_MACRO_MAX_COEC<0.052006] yes=117,no=118,missing=118
						117:leaf=0.0241789
						118:leaf=-0.00374597
			14:[DOC_AGE<70] yes=29,no=30,missing=30
				29:[D_CATEGORY_MICRO_MAX_COEC<0.106584] yes=59,no=60,missing=60
					59:[C_D_U_TITLEMD5_CITY_COEC<0.117134] yes=119,no=120,missing=119
						119:leaf=-0.013942
						120:leaf=-0.00522567
					60:[DAY_OF_WEEK<6] yes=121,no=122,missing=122
						121:leaf=-0.00338065
						122:leaf=0.0141014
				30:[U_CITY_COEC<0.061174] yes=61,no=62,missing=62
					61:[C_D_U_KEYWORD_CATEGORY_MACRO_MAX_COEC<0.007882] yes=123,no=124,missing=124
						123:leaf=0.188874
						124:leaf=-0.022521
					62:[CAT_REL<0.252451] yes=125,no=126,missing=126
						125:leaf=0.00827537
						126:leaf=0.0418508
booster[28]:
0:[C_D_U_KEYWORD_CATEGORY_MICRO_MEAN_COEC<0.106014] yes=1,no=2,missing=1
	1:[D_TITLEMD5_COEC<0.105924] yes=3,no=4,missing=3
		3:[CAT_REL<0.000974] yes=7,no=8,missing=8
			7:[IMAGE_COUNT<2] yes=15,no=16,missing=16
				15:[D_CATEGORY_MICRO_MAX_COEC<0.106173] yes=31,no=32,missing=32
					31:[IMAGE_COUNT<0.999999] yes=63,no=64,missing=64
						63:leaf=-0.0752098
						64:leaf=-0.0384352
					32:[U_CATEGORY_MACRO_MAX_COEC<0.027043] yes=65,no=66,missing=66
						65:leaf=6.13154e-05
						66:leaf=-0.0219067
				16:[D_TITLEMD5_COEC<0.064734] yes=33,no=34,missing=33
					33:[DOC_AGE<131] yes=67,no=68,missing=68
						67:leaf=-0.0459218
						68:leaf=-0.0166919
					34:[U_CATEGORY_MACRO_MAX_COEC<0.007335] yes=69,no=70,missing=70
						69:leaf=0.0560143
						70:leaf=-0.0167494
			8:[DOC_AGE<12] yes=17,no=18,missing=18
				17:[IMAGE_COUNT<0.999999] yes=35,no=36,missing=36
					35:[D_PUBLISHER_COEC<0.045809] yes=71,no=72,missing=72
						71:leaf=-0.0696554
						72:leaf=-0.0360092
					36:[U_CATEGORY_MACRO_MAX_COEC<0.035944] yes=73,no=74,missing=74
						73:leaf=-0.00301086
						74:leaf=-0.0264947
				18:[D_TITLEMD5_COEC<0.07397] yes=37,no=38,missing=37
					37:[U_CITY_COEC<0.153663] yes=75,no=76,missing=75
						75:leaf=-0.0327377
						76:leaf=0.034589
					38:[U_CATEGORY_MACRO_MAX_COEC<0.010891] yes=77,no=78,missing=78
						77:leaf=0.00281874
						78:leaf=-0.0189292
		4:[D_PUBLISHER_COEC<0.07081] yes=9,no=10,missing=10
			9:[D_CATEGORY_MICRO_MAX_COEC<0.092767] yes=19,no=20,missing=20
				19:[C_D_U_TITLEMD5_CATEGORY_MICRO_MAX_COEC<0.386951] yes=39,no=40,missing=40
					39:[C_D_U_CATEGORY_CITY_MICRO_MEAN_COEC<0.095137] yes=79,no=80,missing=79
						79:leaf=-0.0409273
						80:leaf=-0.013702
					40:[D_KEYWORD_MACRO_MAX_COEC<0.050249] yes=81,no=82,missing=82
						81:leaf=-0.072688
						82:leaf=-0.0495755
				20:[IMAGE_COUNT<0.999999] yes=41,no=42,missing=42
					41:[C_D_U_KEYWORD_CATEGORY_MACRO_MEAN_COEC<0.004635] yes=83,no=84,missing=84
						83:leaf=-0.0122319
						84:leaf=-0.0945636
					42:[CAT_REL<0.010886] yes=85,no=86,missing=86
						85:leaf=-0.0204897
						86:leaf=0.00529
			10:[U_CATEGORY_MACRO_MAX_COEC<0.016705] yes=21,no=22,missing=22
				21:[DOC_AGE<16] yes=43,no=44,missing=44
					43:[U_CATEGORY_MACRO_MAX_COEC<0.009873] yes=87,no=88,missing=88
						87:leaf=0.0231662
						88:leaf=0.00472894
					44:[D_KEYWORD_MICRO_MEAN_COEC<0.095929] yes=89,no=90,missing=90
						89:leaf=-0.021254
						90:leaf=-0.00232108
				22:[DOC_AGE<70] yes=45,no=46,missing=46
					45:[D_TITLEMD5_COEC<0.128024] yes=91,no=92,missing=92
						91:leaf=-0.0159145
						92:leaf=-0.00691214
					46:[DOC_AGE<185] yes=93,no=94,missing=94
						93:leaf=0.00219685
						94:leaf=0.0172243
	2:[C_D_U_PUBLISHER_CITY_COEC<0.08702] yes=5,no=6,missing=5
		5:[IMAGE_COUNT<0.999999] yes=11,no=12,missing=12
			11:[C_D_U_TITLEMD5_CATEGORY_MACRO_MAX_COEC<0.038669] yes=23,no=24,missing=24
				23:[C_D_U_CATEGORY_CITY_MACRO_MEAN_COEC<0.072165] yes=47,no=48,missing=48
					47:[U_CITY_COEC<0.086982] yes=95,no=96,missing=96
						95:leaf=-0.0775691
						96:leaf=-0.0345276
					48:[U_CATEGORY_MACRO_MAX_COEC<0.010891] yes=97,no=98,missing=98
						97:leaf=0.00183658
						98:leaf=-0.0319185
				24:[C_D_U_CATEGORY_CITY_MICRO_MEAN_COEC<0.088294] yes=49,no=50,missing=50
					49:[C_D_U_PUBLISHER_CITY_COEC<0.080067] yes=99,no=100,missing=99
						99:leaf=-0.0897885
						100:leaf=-0.020346
					50:[U_CATEGORY_MICRO_MAX_COEC<0.140541] yes=101,no=102,missing=102
						101:leaf=-0.0576912
						102:leaf=0.0209147
			12:[D_CATEGORY_MACRO_MAX_COEC<0.107355] yes=25,no=26,missing=26
				25:[CAT_REL<0.010886] yes=51,no=52,missing=52
					51:[D_TITLEMD5_COEC<0.086383] yes=103,no=104,missing=103
						103:leaf=-0.0291189
						104:leaf=-0.0107255
					52:[DOC_AGE<12] yes=105,no=106,missing=106
						105:leaf=0.00186436
						106:leaf=-0.00807213
				26:[U_CATEGORY_MACRO_MAX_COEC<0.012106] yes=53,no=54,missing=54
					53:[C_D_U_CATEGORY_CITY_MACRO_MEAN_COEC<0.031257] yes=107,no=108,missing=107
						107:leaf=0.0345764
						108:leaf=0.0124967
					54:[D_KEYWORD_MICRO_MAX_COEC<0.155596] yes=109,no=110,missing=110
						109:leaf=-0.000744552
						110:leaf=0.0126039
		6:[U_CATEGORY_MACRO_MAX_COEC<0.012752] yes=13,no=14,missing=14
			13:[U_CATEGORY_MICRO_MAX_COEC<0.09789] yes=27,no=28,missing=28
				27:[U_CITY_COEC<0.12318] yes=55,no=56,missing=56
					55:[D_PUBLISHER_COEC<0.123258] yes=111,no=112,missing=112
						111:leaf=0.00121226
						112:leaf=0.0169434
					56:[C_D_U_KEYWORD_CATEGORY_MACRO_MEAN_COEC<0.013007] yes=113,no=114,missing=114
						113:leaf=0.0538311
						114:leaf=0.018175
				28:[C_D_U_CATEGORY_CITY_MACRO_MAX_COEC<0.111845] yes=57,no=58,missing=58
					57:[U_CATEGORY_MICRO_MAX_COEC<0.12847] yes=115,no=116,missing=116
						115:leaf=0.0147115
						116:leaf=0.0538732
					58:[U_CITY_COEC<0.198254] yes=117,no=118,missing=118
						117:leaf=0.0288439
						118:leaf=0.0603783
			14:[C_D_U_KEYWORD_CATEGORY_MICRO_MEAN_COEC<0.156861] yes=29,no=30,missing=30
				29:[CAT_REL<0.077842] yes=59,no=60,missing=60
					59:[C_D_U_CATEGORY_CITY_MICRO_MEAN_COEC<0.134056] yes=119,no=120,missing=120
						119:leaf=-0.00648843
						120:leaf=0.00625466
					60:[U_CATEGORY_MACRO_MAX_COEC<0.049433] yes=121,no=122,missing=122
						121:leaf=0.00639074
						122:leaf=-0.00988893
				30:[C_D_U_TITLEMD5_CATEGORY_MICRO_MAX_COEC<0.251055] yes=61,no=62,missing=62
					61:[U_CATEGORY_MACRO_MAX_COEC<0.043168] yes=123,no=124,missing=124
						123:leaf=0.00760981
						124:leaf=-0.00675624
					62:[D_CATEGORY_MICRO_MEAN_COEC<0.093249] yes=125,no=126,missing=125
						125:leaf=0.0332321
						126:leaf=0.0153075
booster[29]:
0:[C_D_U_KEYWORD_CATEGORY_MICRO_MAX_COEC<0.143319] yes=1,no=2,missing=1
	1:[D_KEYWORD_MACRO_MEAN_COEC<0.086661] yes=3,no=4,missing=3
		3:[C_D_U_TITLEMD5_CATEGORY_MICRO_MAX_COEC<0.023841] yes=7,no=8,missing=7
			7:[C_D_U_CATEGORY_CITY_MACRO_MEAN_COEC<0.093457] yes=15,no=16,missing=15
				15:[IMAGE_COUNT<0.999999] yes=31,no=32,missing=32
					31:[U_CATEGORY_MACRO_MAX_COEC<0.009277] yes=63,no=64,missing=64
						63:leaf=-0.028154
						64:leaf=-0.0749607
					32:[D_CATEGORY_MACRO_MAX_COEC<0.085026] yes=65,no=66,missing=66
						65:leaf=-0.0431109
						66:leaf=-0.0294155
				16:[U_CATEGORY_MACRO_MAX_COEC<0.017135] yes=33,no=34,missing=34
					33:[C_D_U_PUBLISHER_CITY_COEC<0.209195] yes=67,no=68,missing=67
						67:leaf=-0.00407637
						68:leaf=0.0468025
					34:[IMAGE_COUNT<2] yes=69,no=70,missing=70
						69:leaf=-0.0324298
						70:leaf=-0.0126378
			8:[U_CITY_COEC<0.068013] yes=17,no=18,missing=18
				17:[C_D_U_TITLEMD5_CITY_COEC<0.183811] yes=35,no=36,missing=36
					35:[C_D_U_PUBLISHER_AGE_COEC<0.156517] yes=71,no=72,missing=71
						71:leaf=-0.0174138
						72:leaf=0.125209
					36:[CAT_REL<0.009587] yes=73,no=74,missing=74
						73:leaf=-0.055312
						74:leaf=-0.0343341
				18:[U_CATEGORY_MACRO_MAX_COEC<0.011362] yes=37,no=38,missing=38
					37:[U_CITY_COEC<0.15345] yes=75,no=76,missing=75
						75:leaf=0.00195691
						76:leaf=0.0499616
					38:[CAT_REL<0.094393] yes=77,no=78,missing=78
						77:leaf=-0.0197537
						78:leaf=-0.00555223
		4:[D_TITLEMD5_COEC<0.124948] yes=9,no=10,missing=10
			9:[CAT_REL<0.051022] yes=19,no=20,missing=20
				19:[IMAGE_COUNT<2] yes=39,no=40,missing=40
					39:[WORD_COUNT<2268] yes=79,no=80,missing=80
						79:leaf=-0.0160824
						80:leaf=-0.0323927
					40:[U_CITY_COEC<0.081106] yes=81,no=82,missing=81
						81:leaf=-0.015531
						82:leaf=-0.00527377
				20:[C_D_U_KEYWORD_CATEGORY_MACRO_MEAN_COEC<0.015955] yes=41,no=42,missing=42
					41:[DOC_AGE<23] yes=83,no=84,missing=84
						83:leaf=0.0141645
						84:leaf=-0.00951969
					42:[CAT_REL<0.131514] yes=85,no=86,missing=86
						85:leaf=-0.0133475
						86:leaf=-0.00237087
			10:[C_D_U_TITLEMD5_CATEGORY_MACRO_MAX_COEC<0.018437] yes=21,no=22,missing=22
				21:[CAT_REL<0.027144] yes=43,no=44,missing=44
					43:[U_CATEGORY_MACRO_MAX_COEC<0.021766] yes=87,no=88,missing=88
						87:leaf=0.00450194
						88:leaf=-0.0226
					44:[C_D_U_CATEGORY_AGE_MICRO_MEAN_COEC<0.122435] yes=89,no=90,missing=90
						89:leaf=0.0461712
						90:leaf=0.0142486
				22:[D_PUBLISHER_COEC<0.102638] yes=45,no=46,missing=45
					45:[D_CATEGORY_MACRO_MAX_COEC<0.067898] yes=91,no=92,missing=92
						91:leaf=-0.0332565
						92:leaf=-0.00953242
					46:[TIME_OF_DAY<8] yes=93,no=94,missing=94
						93:leaf=-0.00915485
						94:leaf=-0.000972756
	2:[D_PUBLISHER_COEC<0.086741] yes=5,no=6,missing=6
		5:[C_D_U_CATEGORY_CITY_MACRO_MAX_COEC<0.093306] yes=11,no=12,missing=11
			11:[U_CITY_COEC<0.082192] yes=23,no=24,missing=24
				23:[C_D_U_TITLEMD5_CITY_COEC<0.411501] yes=47,no=48,missing=48
					47:[U_CATEGORY_MACRO_MAX_COEC<0.019753] yes=95,no=96,missing=96
						95:leaf=-0.00720724
						96:leaf=-0.0257029
					48:[CAT_REL<0.143753] yes=97,no=98,missing=98
						97:leaf=-0.0406076
						98:leaf=-0.0150355
				24:[D_PUBLISHER_COEC<0.056935] yes=49,no=50,missing=50
					49:[C_D_U_TITLEMD5_CATEGORY_MACRO_MAX_COEC<0.036264] yes=99,no=100,missing=100
						99:leaf=-0.0181112
						100:leaf=-0.0439959
					50:[DOC_AGE<12] yes=101,no=102,missing=102
						101:leaf=-0.00402767
						102:leaf=-0.0165392
			12:[U_CATEGORY_MACRO_MAX_COEC<0.035957] yes=25,no=26,missing=26
				25:[CAT_REL<0.071379] yes=51,no=52,missing=52
					51:[U_CITY_COEC<0.128496] yes=103,no=104,missing=104
						103:leaf=-0.00609626
						104:leaf=0.0154777
					52:[U_CATEGORY_MICRO_MAX_COEC<0.112578] yes=105,no=106,missing=106
						105:leaf=0.00477228
						106:leaf=0.0228947
				26:[C_D_U_CATEGORY_GENDER_MICRO_MEAN_COEC<0.116187] yes=53,no=54,missing=54
					53:[D_KEYWORD_MICRO_MEAN_COEC<0.078108] yes=107,no=108,missing=108
						107:leaf=0.131275
						108:leaf=0.0159396
					54:[CAT_REL<0.252131] yes=109,no=110,missing=110
						109:leaf=-0.025305
						110:leaf=-0.00651913
		6:[U_CATEGORY_MACRO_MAX_COEC<0.012791] yes=13,no=14,missing=14
			13:[U_CATEGORY_MICRO_MAX_COEC<0.093135] yes=27,no=28,missing=28
				27:[D_PUBLISHER_COEC<0.117454] yes=55,no=56,missing=56
					55:[D_CATEGORY_MACRO_MAX_COEC<0.107524] yes=111,no=112,missing=112
						111:leaf=-0.00552318
						112:leaf=0.0204013
					56:[D_TITLEMD5_COEC<0.218978] yes=113,no=114,missing=114
						113:leaf=0.0110543
						114:leaf=0.0374236
				28:[DOC_AGE<12] yes=57,no=58,missing=58
					57:[C_D_U_TITLEMD5_CATEGORY_MACRO_MAX_COEC<0.009079] yes=115,no=116,missing=115
						115:leaf=0.0402557
						116:leaf=0.0205505
					58:[CAT_REL<0.029775] yes=117,no=118,missing=118
						117:leaf=0.00257709
						118:leaf=0.0195827
			14:[CAT_REL<0.071379] yes=29,no=30,missing=30
				29:[D_TITLEMD5_COEC<0.1521] yes=59,no=60,missing=60
					59:[DOC_AGE<76] yes=119,no=120,missing=120
						119:leaf=-0.00841057
						120:leaf=0.0239844
					60:[WORD_COUNT<5621] yes=121,no=122,missing=122
						121:leaf=0.000769359
						122:leaf=0.0220102
				30:[TIME_OF_DAY<15] yes=61,no=62,missing=62
					61:[TIME_OF_DAY<4] yes=123,no=124,missing=124
						123:leaf=-0.00240491
						124:leaf=0.0215267
					62:[U_CATEGORY_MACRO_MAX_COEC<0.022789] yes=125,no=126,missing=126
						125:leaf=0.00711151
						126:leaf=-0.00515794
booster[30]:
0:[D_TITLEMD5_COEC<0.081154] yes=1,no=2,missing=1
	1:[U_CATEGORY_MACRO_MAX_COEC<0.034459] yes=3,no=4,missing=4
		3:[U_CITY_COEC<0.06784] yes=7,no=8,missing=8
			7:[CAT_REL<0.051651] yes=15,no=16,missing=16
				15:[C_D_U_TITLEMD5_CITY_COEC<8.00611] yes=31,no=32,missing=32
					31:[DOC_AGE<28] yes=63,no=64,missing=64
						63:leaf=-0.00635628
						64:leaf=-0.0656334
					32:[D_CATEGORY_MACRO_MAX_COEC<0.221191] yes=65,no=66,missing=66
						65:leaf=-0.0566607
						66:leaf=-0.00903605
				16:[C_D_U_TITLEMD5_AGE_COEC<0.075974] yes=33,no=34,missing=33
					33:[C_D_U_CATEGORY_CITY_MACRO_MAX_COEC<0.056086] yes=67,no=68,missing=68
						67:leaf=-0.0419928
						68:leaf=-0.018675
					34:[CAT_REL<0.303273] yes=69,no=70,missing=70
						69:leaf=0.00912604
						70:leaf=0.156256
			8:[D_TITLEMD5_COEC<0.046367] yes=17,no=18,missing=18
				17:[DOC_AGE<5] yes=35,no=36,missing=36
					35:[D_KEYWORD_MACRO_MEAN_COEC<0.047193] yes=71,no=72,missing=72
						71:leaf=-0.0315038
						72:leaf=-0.00205198
					36:[DOC_AGE<131] yes=73,no=74,missing=74
						73:leaf=-0.0351654
						74:leaf=0.0143439
				18:[DOC_AGE<16] yes=37,no=38,missing=38
					37:[U_CATEGORY_MICRO_MAX_COEC<0.107769] yes=75,no=76,missing=76
						75:leaf=-0.00729633
						76:leaf=0.00967881
					38:[DOC_AGE<131] yes=77,no=78,missing=78
						77:leaf=-0.0200961
						78:leaf=0.0540532
		4:[DOC_AGE<131] yes=9,no=10,missing=10
			9:[CAT_REL<0.25279] yes=19,no=20,missing=20
				19:[DOC_AGE<5] yes=39,no=40,missing=40
					39:[D_TITLEMD5_COEC<0.020953] yes=79,no=80,missing=79
						79:leaf=-0.0514589
						80:leaf=-0.0180694
					40:[D_TITLEMD5_COEC<0.046367] yes=81,no=82,missing=81
						81:leaf=-0.0664386
						82:leaf=-0.0440126
				20:[C_D_U_CATEGORY_GENDER_MACRO_MEAN_COEC<0.114602] yes=41,no=42,missing=42
					41:[C_D_U_CATEGORY_CITY_MACRO_MAX_COEC<0.051331] yes=83,no=84,missing=83
						83:leaf=-0.0362589
						84:leaf=0.0852045
					42:[IMAGE_COUNT<0.999999] yes=85,no=86,missing=86
						85:leaf=-0.0736117
						86:leaf=-0.0189487
			10:[D_TITLEMD5_COEC<0.020953] yes=21,no=22,missing=21
				21:[U_CATEGORY_MICRO_MAX_COEC<0.080909] yes=43,no=44,missing=44
					43:[C_D_U_KEYWORD_CATEGORY_MICRO_MEAN_COEC<0.091465] yes=87,no=88,missing=88
						87:leaf=-0.0195963
						88:leaf=0.267378
					44:[D_CATEGORY_MICRO_MAX_COEC<0.100242] yes=89,no=90,missing=90
						89:leaf=-0.0660789
						90:leaf=-0.0361283
				22:[U_CITY_COEC<0.10674] yes=45,no=46,missing=45
					45:[DAY_OF_WEEK<4] yes=91,no=92,missing=92
						91:leaf=-0.00145245
						92:leaf=-0.0269153
					46:[C_D_U_PUBLISHER_CITY_COEC<0.140293] yes=93,no=94,missing=94
						93:leaf=0.00340404
						94:leaf=0.0466197
	2:[U_CATEGORY_MACRO_MAX_COEC<0.037307] yes=5,no=6,missing=6
		5:[U_CITY_COEC<0.112939] yes=11,no=12,missing=11
			11:[C_D_U_TITLEMD5_CITY_COEC<0.999999] yes=23,no=24,missing=24
				23:[DOC_AGE<25] yes=47,no=48,missing=48
					47:[CAT_REL<0.060831] yes=95,no=96,missing=96
						95:leaf=0.000945137
						96:leaf=0.00948225
					48:[DOC_AGE<131] yes=97,no=98,missing=98
						97:leaf=-0.00991638
						98:leaf=0.0491446
				24:[C_D_U_CATEGORY_CITY_MACRO_MAX_COEC<0.070744] yes=49,no=50,missing=50
					49:[D_KEYWORD_MACRO_MEAN_COEC<0.083139] yes=99,no=100,missing=100
						99:leaf=-0.0336647
						100:leaf=-0.0152898
					50:[U_CATEGORY_MICRO_MAX_COEC<0.109954] yes=101,no=102,missing=102
						101:leaf=-0.00687084
						102:leaf=0.00519664
			12:[U_CATEGORY_MICRO_MAX_COEC<0.092147] yes=25,no=26,missing=26
				25:[U_CATEGORY_MACRO_MAX_COEC<0.011297] yes=51,no=52,missing=52
					51:[D_TITLEMD5_COEC<0.088293] yes=103,no=104,missing=104
						103:leaf=-0.00912779
						104:leaf=0.0281417
					52:[C_D_U_CATEGORY_CITY_MACRO_MEAN_COEC<0.129816] yes=105,no=106,missing=105
						105:leaf=-0.00771334
						106:leaf=0.00455223
				26:[C_D_U_CATEGORY_CITY_MICRO_MEAN_COEC<0.223981] yes=53,no=54,missing=54
					53:[D_PUBLISHER_COEC<0.099751] yes=107,no=108,missing=108
						107:leaf=0.00737504
						108:leaf=0.0201815
					54:[C_D_U_TITLEMD5_CITY_COEC<0.279967] yes=109,no=110,missing=109
						109:leaf=0.034705
						110:leaf=-0.00468939
		6:[D_KEYWORD_MACRO_MEAN_COEC<0.099694] yes=13,no=14,missing=14
			13:[DOC_AGE<70] yes=27,no=28,missing=28
				27:[D_PUBLISHER_COEC<0.097589] yes=55,no=56,missing=55
					55:[D_CATEGORY_MACRO_MAX_COEC<0.107404] yes=111,no=112,missing=112
						111:leaf=-0.0284899
						112:leaf=-0.00100702
					56:[DAY_OF_WEEK<6] yes=113,no=114,missing=114
						113:leaf=-0.0171744
						114:leaf=-0.000541994
				28:[D_KEYWORD_MACRO_MAX_COEC<0.023114] yes=57,no=58,missing=58
					57:[D_KEYWORD_MICRO_MEAN_COEC<0.098384] yes=115,no=116,missing=116
						115:leaf=0.0301187
						116:leaf=0.00578335
					58:[U_CITY_COEC<0.10674] yes=117,no=118,missing=117
						117:leaf=-0.00412363
						118:leaf=0.0185082
			14:[D_KEYWORD_MACRO_MAX_COEC<0.076333] yes=29,no=30,missing=30
				29:[DOC_AGE<181] yes=59,no=60,missing=60
					59:[CAT_REL<0.322729] yes=119,no=120,missing=120
						119:leaf=-0.0103499
						120:leaf=0.00650848
					60:[D_KEYWORD_MACRO_MAX_COEC<0.023114] yes=121,no=122,missing=122
						121:leaf=0.0544824
						122:leaf=0.012894
				30:[D_KEYWORD_MICRO_MEAN_COEC<0.10036] yes=61,no=62,missing=62
					61:[DAY_OF_WEEK<0.999999] yes=123,no=124,missing=124
						123:leaf=0.0128059
						124:leaf=-0.0516854
					62:[D_KEYWORD_MICRO_MEAN_COEC<0.119747] yes=125,no=126,missing=126
						125:leaf=0.00928534
						126:leaf=-0.000140774
booster[31]:
0:[D_TITLEMD5_COEC<0.070482] yes=1,no=2,missing=1
	1:[C_D_U_KEYWORD_CATEGORY_MICRO_MEAN_COEC<0.070581] yes=3,no=4,missing=3
		3:[DOC_AGE<133] yes=7,no=8,missing=8
			7:[C_D_U_TITLEMD5_CATEGORY_MICRO_MAX_COEC<0.075733] yes=15,no=16,missing=16
				15:[DOC_AGE<25] yes=31,no=32,missing=32
					31:[C_D_U_TITLEMD5_CITY_COEC<8.00611] yes=63,no=64,missing=64
						63:leaf=-0.0169307
						64:leaf=-0.0334658
					32:[U_CATEGORY_MACRO_MAX_COEC<0.015525] yes=65,no=66,missing=66
						65:leaf=-0.0409152
						66:leaf=-0.0729551
				16:[D_TITLEMD5_COEC<0.047623] yes=33,no=34,missing=34
					33:[DOC_AGE<3] yes=67,no=68,missing=68
						67:leaf=-0.0369137
						68:leaf=-0.0609074
					34:[WORD_COUNT<3151] yes=69,no=70,missing=70
						69:leaf=-0.0347034
						70:leaf=-0.052898
			8:[U_CITY_COEC<0.106826] yes=17,no=18,missing=17
				17:[D_TITLEMD5_COEC<0.021377] yes=35,no=36,missing=35
					35:[C_D_U_CATEGORY_CITY_MICRO_MEAN_COEC<0.0788] yes=71,no=72,missing=71
						71:leaf=-0.0701128
						72:leaf=-0.0316729
					36:[DAY_OF_WEEK<4] yes=73,no=74,missing=74
						73:leaf=-0.00533482
						74:leaf=-0.026449
				18:[C_D_U_PUBLISHER_CITY_COEC<0.140827] yes=37,no=38,missing=38
					37:[D_KEYWORD_MICRO_MAX_COEC<0.119672] yes=75,no=76,missing=76
						75:leaf=0.0337639
						76:leaf=-0.0285626
					38:[D_CATEGORY_MACRO_MEAN_COEC<0.106772] yes=77,no=78,missing=78
						77:leaf=0.0249779
						78:leaf=0.106982
		4:[DOC_AGE<6] yes=9,no=10,missing=10
			9:[D_KEYWORD_MACRO_MEAN_COEC<0.04915] yes=19,no=20,missing=20
				19:[D_CATEGORY_MACRO_MAX_COEC<0.110919] yes=39,no=40,missing=40
					39:[C_D_U_PUBLISHER_CITY_COEC<0.208513] yes=79,no=80,missing=79
						79:leaf=-0.0364785
						80:leaf=0.04773
					40:[C_D_U_TITLEMD5_CATEGORY_MICRO_MAX_COEC<0.054499] yes=81,no=82,missing=82
						81:leaf=0.0635768
						82:leaf=-0.0231107
				20:[IMAGE_COUNT<0.999999] yes=41,no=42,missing=42
					41:[U_CATEGORY_MICRO_MAX_COEC<0.117489] yes=83,no=84,missing=84
						83:leaf=-0.0550256
						84:leaf=-0.00102704
					42:[C_D_U_TITLEMD5_CATEGORY_MACRO_MAX_COEC<0.021816] yes=85,no=86,missing=85
						85:leaf=0.0100369
						86:leaf=-0.0112244
			10:[U_CITY_COEC<0.068243] yes=21,no=22,missing=22
				21:[CAT_REL<0.048593] yes=43,no=44,missing=44
					43:[C_D_U_TITLEMD5_CITY_COEC<0.031641] yes=87,no=88,missing=88
						87:leaf=-0.0206802
						88:leaf=-0.0624247
					44:[C_D_U_TITLEMD5_CITY_COEC<0.031641] yes=89,no=90,missing=90
						89:leaf=0.0153932
						90:leaf=-0.0346381
				22:[U_CATEGORY_MACRO_MAX_COEC<0.017076] yes=45,no=46,missing=46
					45:[U_CITY_COEC<0.197128] yes=91,no=92,missing=91
						91:leaf=-0.012318
						92:leaf=0.0653897
					46:[DOC_AGE<133] yes=93,no=94,missing=94
						93:leaf=-0.0306482
						94:leaf=0.0115203
	2:[U_CATEGORY_MACRO_MAX_COEC<0.031336] yes=5,no=6,missing=6
		5:[U_CITY_COEC<0.060182] yes=11,no=12,missing=12
			11:[D_KEYWORD_MACRO_MEAN_COEC<0.105235] yes=23,no=24,missing=24
				23:[CAT_REL<0.038392] yes=47,no=48,missing=48
					47:[D_CATEGORY_MACRO_MAX_COEC<0.131606] yes=95,no=96,missing=96
						95:leaf=-0.0390066
						96:leaf=0.00818767
					48:[DOC_AGE<34] yes=97,no=98,missing=98
						97:leaf=-0.0159885
						98:leaf=-0.0509793
				24:[D_TITLEMD5_COEC<0.158264] yes=49,no=50,missing=50
					49:[D_CATEGORY_MICRO_MAX_COEC<0.107355] yes=99,no=100,missing=100
						99:leaf=-0.0207254
						100:leaf=0.0103159
					50:[D_PUBLISHER_COEC<0.084132] yes=101,no=102,missing=102
						101:leaf=-0.0676778
						102:leaf=0.00326869
			12:[DOC_AGE<12] yes=25,no=26,missing=26
				25:[U_CATEGORY_MICRO_MAX_COEC<0.094235] yes=51,no=52,missing=52
					51:[U_CATEGORY_MACRO_MAX_COEC<0.009937] yes=103,no=104,missing=104
						103:leaf=0.0175695
						104:leaf=-0.00313781
					52:[D_PUBLISHER_COEC<0.124909] yes=105,no=106,missing=106
						105:leaf=0.00672294
						106:leaf=0.0228528
				26:[D_CATEGORY_MICRO_MEAN_COEC<0.10725] yes=53,no=54,missing=54
					53:[CAT_REL<0.05797] yes=107,no=108,missing=108
						107:leaf=-0.00996505
						108:leaf=0.00109797
					54:[U_CATEGORY_MACRO_MAX_COEC<0.009303] yes=109,no=110,missing=110
						109:leaf=0.0382032
						110:leaf=0.00786608
		6:[D_KEYWORD_MACRO_MEAN_COEC<0.09264] yes=13,no=14,missing=14
			13:[DOC_AGE<76] yes=27,no=28,missing=28
				27:[CAT_REL<0.227799] yes=55,no=56,missing=56
					55:[D_CATEGORY_MACRO_MAX_COEC<0.095433] yes=111,no=112,missing=112
						111:leaf=-0.0313384
						112:leaf=-0.0159953
					56:[D_CATEGORY_MACRO_MAX_COEC<0.098543] yes=113,no=114,missing=114
						113:leaf=0.00172047
						114:leaf=-0.0190731
				28:[D_KEYWORD_MACRO_MEAN_COEC<0.067205] yes=57,no=58,missing=58
					57:[D_KEYWORD_MACRO_MAX_COEC<0.011528] yes=115,no=116,missing=116
						115:leaf=-0.00386669
						116:leaf=-0.0750945
					58:[U_CATEGORY_MACRO_MAX_COEC<0.051214] yes=117,no=118,missing=118
						117:leaf=0.0300943
						118:leaf=0.00257811
			14:[C_D_U_TITLEMD5_CITY_COEC<0.143608] yes=29,no=30,missing=29
				29:[DOC_AGE<76] yes=59,no=60,missing=60
					59:[D_TITLEMD5_COEC<0.128058] yes=119,no=120,missing=120
						119:leaf=-0.0150448
						120:leaf=-0.00670468
					60:[U_CATEGORY_MACRO_MAX_COEC<0.061801] yes=121,no=122,missing=122
						121:leaf=0.0237295
						122:leaf=0.00354722
				30:[CAT_REL<0.270226] yes=61,no=62,missing=62
					61:[TIME_OF_DAY<8] yes=123,no=124,missing=124
						123:leaf=-0.00665993
						124:leaf=0.00231517
					62:[TIME_OF_DAY<9] yes=125,no=126,missing=126
						125:leaf=0.0329982
						126:leaf=0.0039451
booster[32]:
0:[D_PUBLISHER_COEC<0.087555] yes=1,no=2,missing=2
	1:[C_D_U_KEYWORD_CATEGORY_MICRO_MEAN_COEC<0.074218] yes=3,no=4,missing=3
		3:[D_KEYWORD_MACRO_MEAN_COEC<0.091984] yes=7,no=8,missing=7
			7:[IMAGE_COUNT<0.999999] yes=15,no=16,missing=16
				15:[U_CATEGORY_MACRO_MAX_COEC<0.01997] yes=31,no=32,missing=32
					31:[U_CITY_COEC<0.112507] yes=63,no=64,missing=63
						63:leaf=-0.0496599
						64:leaf=0.0319295
					32:[DOC_AGE<35] yes=65,no=66,missing=66
						65:leaf=-0.0777273
						66:leaf=-0.04973
				16:[D_CATEGORY_MACRO_MAX_COEC<0.096831] yes=33,no=34,missing=34
					33:[CAT_REL<0.036184] yes=67,no=68,missing=68
						67:leaf=-0.0380544
						68:leaf=-0.0175285
					34:[D_TITLEMD5_COEC<0.047777] yes=69,no=70,missing=69
						69:leaf=-0.0383524
						70:leaf=-0.0160545
			8:[D_CATEGORY_MACRO_MAX_COEC<0.081166] yes=17,no=18,missing=18
				17:[WORD_COUNT<786] yes=35,no=36,missing=36
					35:[D_TITLEMD5_COEC<0.117346] yes=71,no=72,missing=72
						71:leaf=0.0160122
						72:leaf=-0.0512726
					36:[WORD_COUNT<2418] yes=73,no=74,missing=74
						73:leaf=-0.0499677
						74:leaf=-0.0287899
				18:[DAY_OF_WEEK<6] yes=37,no=38,missing=38
					37:[TIME_OF_DAY<14] yes=75,no=76,missing=76
						75:leaf=-0.00696098
						76:leaf=-0.0215608
					38:[C_D_U_TITLEMD5_AGE_COEC<0.193234] yes=77,no=78,missing=77
						77:leaf=0.000413836
						78:leaf=0.127358
		4:[IMAGE_COUNT<0.999999] yes=9,no=10,missing=10
			9:[U_CATEGORY_MACRO_MAX_COEC<0.022318] yes=19,no=20,missing=20
				19:[C_D_U_CATEGORY_CITY_MICRO_MAX_COEC<0.071832] yes=39,no=40,missing=40
					39:[D_TITLEMD5_COEC<0.107973] yes=79,no=80,missing=80
						79:leaf=-0.0548326
						80:leaf=-0.092779
					40:[D_TITLEMD5_COEC<0.11433] yes=81,no=82,missing=82
						81:leaf=-0.0201574
						82:leaf=-0.0531046
				20:[C_D_U_TITLEMD5_CATEGORY_MACRO_MAX_COEC<0.060416] yes=41,no=42,missing=42
					41:[C_D_U_KEYWORD_CATEGORY_MICRO_MEAN_COEC<0.129936] yes=83,no=84,missing=84
						83:leaf=-0.0655453
						84:leaf=-0.0355834
					42:[C_D_U_PUBLISHER_GENDER_COEC<0.105944] yes=85,no=86,missing=85
						85:leaf=-0.0827745
						86:leaf=0.0628507
			10:[DOC_AGE<13] yes=21,no=22,missing=22
				21:[C_D_U_CATEGORY_CITY_MACRO_MAX_COEC<0.093269] yes=43,no=44,missing=43
					43:[D_CATEGORY_MACRO_MAX_COEC<0.221191] yes=87,no=88,missing=88
						87:leaf=-0.00840808
						88:leaf=0.0189014
					44:[D_KEYWORD_MICRO_MEAN_COEC<0.113491] yes=89,no=90,missing=90
						89:leaf=0.00574084
						90:leaf=-0.012089
				22:[C_D_U_CATEGORY_CITY_MACRO_MAX_COEC<0.106475] yes=45,no=46,missing=45
					45:[CAT_REL<0.041513] yes=91,no=92,missing=92
						91:leaf=-0.0261157
						92:leaf=-0.0134635
					46:[U_CATEGORY_MACRO_MAX_COEC<0.017206] yes=93,no=94,missing=94
						93:leaf=0.00412882
						94:leaf=-0.00994593
	2:[CAT_REL<0.000896] yes=5,no=6,missing=6
		5:[D_CATEGORY_MICRO_MAX_COEC<0.107439] yes=11,no=12,missing=12
			11:[D_TITLEMD5_COEC<0.115618] yes=23,no=24,missing=24
				23:[DOC_AGE<71] yes=47,no=48,missing=48
					47:[DAY_OF_WEEK<3] yes=95,no=96,missing=96
						95:leaf=-0.00361191
						96:leaf=-0.0220734
					48:[U_CATEGORY_MACRO_MAX_COEC<0.051651] yes=97,no=98,missing=98
						97:leaf=0.0238579
						98:leaf=-0.00144351
				24:[TIME_OF_DAY<8] yes=49,no=50,missing=50
					49:[TIME_OF_DAY<4] yes=99,no=100,missing=100
						99:leaf=-0.00293594
						100:leaf=-0.0389086
					50:[D_PUBLISHER_COEC<0.126019] yes=101,no=102,missing=102
						101:leaf=-0.00442124
						102:leaf=0.0043326
			12:[U_CATEGORY_MACRO_MAX_COEC<0.010851] yes=25,no=26,missing=26
				25:[C_D_U_KEYWORD_CATEGORY_MACRO_MEAN_COEC<0.007587] yes=51,no=52,missing=52
					51:[U_CITY_COEC<0.102639] yes=103,no=104,missing=103
						103:leaf=0.0535235
						104:leaf=0.135642
					52:[D_CATEGORY_MICRO_MEAN_COEC<0.103065] yes=105,no=106,missing=105
						105:leaf=0.0366343
						106:leaf=0.00977416
				26:[D_CATEGORY_MICRO_MAX_COEC<0.109763] yes=53,no=54,missing=53
					53:[DOC_AGE<16] yes=107,no=108,missing=108
						107:leaf=0.0148788
						108:leaf=0.00275394
					54:[WORD_COUNT<2661] yes=109,no=110,missing=110
						109:leaf=-0.0134157
						110:leaf=0.00518081
		6:[U_CATEGORY_MACRO_MAX_COEC<0.0114] yes=13,no=14,missing=14
			13:[U_CATEGORY_MACRO_MAX_COEC<0.007292] yes=27,no=28,missing=28
				27:[C_D_U_CATEGORY_CITY_MICRO_MEAN_COEC<0.100478] yes=55,no=56,missing=55
					55:[U_CATEGORY_MICRO_MAX_COEC<0.078565] yes=111,no=112,missing=112
						111:leaf=0.073934
						112:leaf=0.0208528
					56:[TIME_OF_DAY<22] yes=113,no=114,missing=114
						113:leaf=0.0616701
						114:leaf=-0.00482083
				28:[U_CATEGORY_MICRO_MAX_COEC<0.097879] yes=57,no=58,missing=58
					57:[U_CITY_COEC<0.100007] yes=115,no=116,missing=115
						115:leaf=0.00395625
						116:leaf=0.0276326
					58:[U_CATEGORY_MICRO_MAX_COEC<0.140523] yes=117,no=118,missing=118
						117:leaf=0.0214509
						118:leaf=0.0946744
			14:[U_CATEGORY_MICRO_MAX_COEC<0.111436] yes=29,no=30,missing=30
				29:[CAT_REL<0.114462] yes=59,no=60,missing=60
					59:[D_TITLEMD5_COEC<0.1383] yes=119,no=120,missing=120
						119:leaf=-0.00986726
						120:leaf=0.00169528
					60:[U_CATEGORY_MACRO_MAX_COEC<0.02272] yes=121,no=122,missing=122
						121:leaf=0.0117894
						122:leaf=1.03582e-05
				30:[U_CATEGORY_MACRO_MAX_COEC<0.06185] yes=61,no=62,missing=62
					61:[TIME_OF_DAY<15] yes=123,no=124,missing=124
						123:leaf=0.0167585
						124:leaf=0.00537159
					62:[CAT_REL<0.44147] yes=125,no=126,missing=126
						125:leaf=-0.028431
						126:leaf=0.0212804
booster[33]:
0:[D_KEYWORD_MACRO_MEAN_COEC<0.079289] yes=1,no=2,missing=1
	1:[C_D_U_KEYWORD_CATEGORY_MICRO_MEAN_COEC<0.061941] yes=3,no=4,missing=3
		3:[C_D_U_CATEGORY_CITY_MACRO_MEAN_COEC<0.099163] yes=7,no=8,missing=7
			7:[U_CITY_COEC<0.071038] yes=15,no=16,missing=16
				15:[U_CITY_COEC<0.053895] yes=31,no=32,missing=32
					31:[D_CATEGORY_MACRO_MEAN_COEC<0.08906] yes=63,no=64,missing=64
						63:leaf=-0.0664017
						64:leaf=-0.0449019
					32:[DAY_OF_WEEK<6] yes=65,no=66,missing=66
						65:leaf=-0.0486692
						66:leaf=-0.025696
				16:[IMAGE_COUNT<0.999999] yes=33,no=34,missing=34
					33:[U_CATEGORY_MACRO_MAX_COEC<0.014188] yes=67,no=68,missing=68
						67:leaf=-0.0418869
						68:leaf=-0.0742479
					34:[C_D_U_TITLEMD5_CATEGORY_MICRO_MAX_COEC<0.076415] yes=69,no=70,missing=70
						69:leaf=-0.0242944
						70:leaf=-0.0369634
			8:[DOC_AGE<29] yes=17,no=18,missing=18
				17:[U_CATEGORY_MACRO_MAX_COEC<0.022378] yes=35,no=36,missing=36
					35:[C_D_U_PUBLISHER_CITY_COEC<0.235631] yes=71,no=72,missing=71
						71:leaf=-0.0109583
						72:leaf=0.0595984
					36:[C_D_U_TITLEMD5_CITY_COEC<0.047212] yes=73,no=74,missing=73
						73:leaf=-0.032403
						74:leaf=-0.00589696
				18:[C_D_U_PUBLISHER_CITY_COEC<0.098568] yes=37,no=38,missing=37
					37:[DOC_AGE<278] yes=75,no=76,missing=76
						75:leaf=-0.0249677
						76:leaf=0.016794
					38:[C_D_U_CATEGORY_CITY_MICRO_MEAN_COEC<0.156244] yes=77,no=78,missing=78
						77:leaf=0.0054485
						78:leaf=0.0612763
		4:[U_CATEGORY_MACRO_MAX_COEC<0.015163] yes=9,no=10,missing=10
			9:[U_CITY_COEC<0.079427] yes=19,no=20,missing=20
				19:[C_D_U_TITLEMD5_CITY_COEC<0.999999] yes=39,no=40,missing=40
					39:[U_CATEGORY_MACRO_MAX_COEC<0.007277] yes=79,no=80,missing=80
						79:leaf=0.0987814
						80:leaf=-0.00211981
					40:[C_D_U_CATEGORY_CITY_MICRO_MEAN_COEC<0.053885] yes=81,no=82,missing=82
						81:leaf=-0.0444159
						82:leaf=-0.0210134
				20:[D_PUBLISHER_COEC<0.114028] yes=41,no=42,missing=42
					41:[U_CITY_COEC<0.099892] yes=83,no=84,missing=83
						83:leaf=-0.00542666
						84:leaf=0.0136888
					42:[C_D_U_KEYWORD_CATEGORY_MACRO_MAX_COEC<0.002035] yes=85,no=86,missing=86
						85:leaf=0.0479178
						86:leaf=0.0189678
			10:[CAT_REL<0.079151] yes=21,no=22,missing=22
				21:[C_D_U_TITLEMD5_CATEGORY_MACRO_MAX_COEC<0.091601] yes=43,no=44,missing=44
					43:[U_CATEGORY_MICRO_MAX_COEC<0.114351] yes=87,no=88,missing=88
						87:leaf=-0.0273013
						88:leaf=-0.00847118
					44:[DOC_AGE<2] yes=89,no=90,missing=90
						89:leaf=-0.0288781
						90:leaf=-0.0560353
				22:[IMAGE_COUNT<0.999999] yes=45,no=46,missing=46
					45:[U_CATEGORY_MACRO_MAX_COEC<0.022727] yes=91,no=92,missing=92
						91:leaf=-0.0253248
						92:leaf=-0.0677352
					46:[U_CITY_COEC<0.08978] yes=93,no=94,missing=93
						93:leaf=-0.0130459
						94:leaf=0.00297616
	2:[U_CATEGORY_MACRO_MAX_COEC<0.037327] yes=5,no=6,missing=6
		5:[DOC_AGE<25] yes=11,no=12,missing=12
			11:[U_CATEGORY_MICRO_MAX_COEC<0.105965] yes=23,no=24,missing=24
				23:[U_CATEGORY_MACRO_MAX_COEC<0.011231] yes=47,no=48,missing=48
					47:[U_CITY_COEC<0.073911] yes=95,no=96,missing=96
						95:leaf=-0.0118226
						96:leaf=0.0128097
					48:[CAT_REL<0.092798] yes=97,no=98,missing=98
						97:leaf=-0.00468977
						98:leaf=0.00543945
				24:[CAT_REL<0.022373] yes=49,no=50,missing=50
					49:[D_CATEGORY_MACRO_MAX_COEC<0.099553] yes=99,no=100,missing=100
						99:leaf=-0.00363416
						100:leaf=0.0100938
					50:[C_D_U_TITLEMD5_CATEGORY_MACRO_MAX_COEC<0.012605] yes=101,no=102,missing=101
						101:leaf=0.0272543
						102:leaf=0.0109482
			12:[DOC_AGE<76] yes=25,no=26,missing=26
				25:[C_D_U_TITLEMD5_CATEGORY_MICRO_MAX_COEC<0.113519] yes=51,no=52,missing=51
					51:[U_CITY_COEC<0.045898] yes=103,no=104,missing=104
						103:leaf=-0.0611655
						104:leaf=-0.0222975
					52:[CAT_REL<0.088427] yes=105,no=106,missing=106
						105:leaf=-0.0123869
						106:leaf=-0.000451012
				26:[C_D_U_PUBLISHER_GENDER_COEC<0.183048] yes=53,no=54,missing=54
					53:[U_CITY_COEC<0.097731] yes=107,no=108,missing=107
						107:leaf=-0.0440046
						108:leaf=0.0271182
					54:[DAY_OF_WEEK<5] yes=109,no=110,missing=110
						109:leaf=0.039713
						110:leaf=0.00671848
		6:[D_TITLEMD5_COEC<0.098317] yes=13,no=14,missing=14
			13:[DOC_AGE<76] yes=27,no=28,missing=28
				27:[D_TITLEMD5_COEC<0.083507] yes=55,no=56,missing=56
					55:[DOC_AGE<5] yes=111,no=112,missing=112
						111:leaf=-0.00576392
						112:leaf=-0.0381713
					56:[IMAGE_COUNT<2] yes=113,no=114,missing=114
						113:leaf=-0.0264427
						114:leaf=-0.0131243
				28:[D_TITLEMD5_COEC<0.071027] yes=57,no=58,missing=58
					57:[C_D_U_CATEGORY_CITY_MACRO_MAX_COEC<0.112208] yes=115,no=116,missing=115
						115:leaf=-0.028451
						116:leaf=0.0145922
					58:[C_D_U_PUBLISHER_CITY_COEC<0.165237] yes=117,no=118,missing=117
						117:leaf=0.00209416
						118:leaf=0.0314776
			14:[DOC_AGE<76] yes=29,no=30,missing=30
				29:[D_CATEGORY_MICRO_MAX_COEC<0.106833] yes=59,no=60,missing=60
					59:[D_PUBLISHER_COEC<0.098721] yes=119,no=120,missing=119
						119:leaf=-0.0160609
						120:leaf=-0.00602263
					60:[DAY_OF_WEEK<6] yes=121,no=122,missing=122
						121:leaf=-0.000758951
						122:leaf=0.0125981
				30:[U_CATEGORY_MACRO_MAX_COEC<0.061267] yes=61,no=62,missing=62
					61:[U_CITY_COEC<0.082743] yes=123,no=124,missing=124
						123:leaf=-0.0113505
						124:leaf=0.0282097
					62:[D_KEYWORD_MACRO_MAX_COEC<0.019988] yes=125,no=126,missing=126
						125:leaf=0.0219966
						126:leaf=0.00413604
booster[34]:
0:[D_TITLEMD5_COEC<0.060062] yes=1,no=2,missing=1
	1:[D_TITLEMD5_COEC<0.025028] yes=3,no=4,missing=4
		3:[DOC_AGE<2] yes=7,no=8,missing=8
			7:[D_PUBLISHER_COEC<0.088533] yes=15,no=16,missing=15
				15:[D_KEYWORD_MACRO_MAX_COEC<0.017543] yes=31,no=32,missing=32
					31:[TIME_OF_DAY<23] yes=63,no=64,missing=64
						63:leaf=-0.0319092
						64:leaf=-0.066092
					32:[U_CATEGORY_MICRO_MAX_COEC<0.102746] yes=65,no=66,missing=65
						65:leaf=-0.0234892
						66:leaf=0.0180284
				16:[C_D_U_KEYWORD_CATEGORY_MICRO_MEAN_COEC<0.07638] yes=33,no=34,missing=33
					33:[U_CITY_COEC<0.081633] yes=67,no=68,missing=67
						67:leaf=-0.0502566
						68:leaf=0.000354183
					34:[D_KEYWORD_MACRO_MEAN_COEC<0.080507] yes=69,no=70,missing=70
						69:leaf=0.0883392
						70:leaf=0.268315
			8:[CAT_REL<0.027626] yes=17,no=18,missing=18
				17:[DOC_AGE<248] yes=35,no=36,missing=36
					35:[C_D_U_KEYWORD_CATEGORY_MACRO_MAX_COEC<0.009851] yes=71,no=72,missing=72
						71:leaf=-0.0451191
						72:leaf=-0.0620547
					36:[D_CATEGORY_MACRO_MAX_COEC<0.083607] yes=73,no=74,missing=74
						73:leaf=0.0163436
						74:leaf=-0.0336393
				18:[IMAGE_COUNT<0.999999] yes=37,no=38,missing=38
					37:[D_PUBLISHER_COEC<0.038769] yes=75,no=76,missing=75
						75:leaf=-0.0604037
						76:leaf=-0.0357542
					38:[U_CATEGORY_MACRO_MAX_COEC<0.03714] yes=77,no=78,missing=78
						77:leaf=-0.0196491
						78:leaf=-0.0544118
		4:[DOC_AGE<6] yes=9,no=10,missing=10
			9:[C_D_U_TITLEMD5_CATEGORY_MACRO_MAX_COEC<0.014886] yes=19,no=20,missing=20
				19:[U_CATEGORY_MICRO_MAX_COEC<0.093989] yes=39,no=40,missing=40
					39:[U_CATEGORY_MACRO_MAX_COEC<0.008568] yes=79,no=80,missing=80
						79:leaf=0.0358103
						80:leaf=-0.00631956
					40:[D_KEYWORD_MACRO_MAX_COEC<0.036807] yes=81,no=82,missing=82
						81:leaf=0.0283054
						82:leaf=-0.000610423
				20:[D_KEYWORD_MACRO_MEAN_COEC<0.049261] yes=41,no=42,missing=41
					41:[C_D_U_CATEGORY_AGE_MICRO_MAX_COEC<0.101504] yes=83,no=84,missing=84
						83:leaf=0.0122613
						84:leaf=-0.0374679
					42:[C_D_U_PUBLISHER_CITY_COEC<0.070959] yes=85,no=86,missing=85
						85:leaf=-0.0151726
						86:leaf=0.010253
			10:[U_CITY_COEC<0.093461] yes=21,no=22,missing=21
				21:[CAT_REL<0.038991] yes=43,no=44,missing=44
					43:[U_CITY_COEC<0.053579] yes=87,no=88,missing=88
						87:leaf=-0.0646322
						88:leaf=-0.0328568
					44:[DOC_AGE<138] yes=89,no=90,missing=90
						89:leaf=-0.0185018
						90:leaf=0.0248508
				22:[U_CATEGORY_MACRO_MAX_COEC<0.015124] yes=45,no=46,missing=46
					45:[C_D_U_TITLEMD5_CATEGORY_MICRO_MAX_COEC<0.080833] yes=91,no=92,missing=92
						91:leaf=0.0179865
						92:leaf=-0.0154388
					46:[DOC_AGE<70] yes=93,no=94,missing=94
						93:leaf=-0.0252508
						94:leaf=0.00915826
	2:[U_CITY_COEC<0.077856] yes=5,no=6,missing=5
		5:[C_D_U_CATEGORY_CITY_MACRO_MEAN_COEC<0.074524] yes=11,no=12,missing=12
			11:[D_KEYWORD_MACRO_MEAN_COEC<0.091305] yes=23,no=24,missing=24
				23:[C_D_U_TITLEMD5_CITY_COEC<0.47622] yes=47,no=48,missing=48
					47:[C_D_U_PUBLISHER_AGE_COEC<0.133809] yes=95,no=96,missing=95
						95:leaf=-0.0164799
						96:leaf=0.0231793
					48:[U_CITY_COEC<0.0457] yes=97,no=98,missing=97
						97:leaf=-0.0461402
						98:leaf=-0.0290275
				24:[D_KEYWORD_MICRO_MAX_COEC<0.189297] yes=49,no=50,missing=50
					49:[CAT_REL<0.117766] yes=99,no=100,missing=100
						99:leaf=-0.0161729
						100:leaf=0.000582394
					50:[D_CATEGORY_MICRO_MEAN_COEC<0.091434] yes=101,no=102,missing=102
						101:leaf=-0.0356493
						102:leaf=0.0103526
			12:[U_CATEGORY_MICRO_MAX_COEC<0.111858] yes=25,no=26,missing=25
				25:[D_CATEGORY_MACRO_MAX_COEC<0.107404] yes=51,no=52,missing=52
					51:[D_PUBLISHER_COEC<0.097456] yes=103,no=104,missing=104
						103:leaf=-0.0146352
						104:leaf=-0.00598029
					52:[U_CATEGORY_MACRO_MAX_COEC<0.020045] yes=105,no=106,missing=106
						105:leaf=0.0110251
						106:leaf=-0.000236595
				26:[U_CATEGORY_MACRO_MAX_COEC<0.013828] yes=53,no=54,missing=54
					53:[CAT_REL<0.025323] yes=107,no=108,missing=108
						107:leaf=0.00808989
						108:leaf=0.0341739
					54:[CAT_REL<0.04796] yes=109,no=110,missing=110
						109:leaf=-0.00593191
						110:leaf=0.00789563
		6:[U_CATEGORY_MACRO_MAX_COEC<0.015124] yes=13,no=14,missing=14
			13:[C_D_U_CATEGORY_CITY_MICRO_MEAN_COEC<0.123469] yes=27,no=28,missing=28
				27:[CAT_REL<0.032171] yes=55,no=56,missing=56
					55:[D_PUBLISHER_COEC<0.108364] yes=111,no=112,missing=112
						111:leaf=-0.00514985
						112:leaf=0.0075905
					56:[C_D_U_TITLEMD5_CITY_COEC<0.999999] yes=113,no=114,missing=114
						113:leaf=0.0135665
						114:leaf=-0.0015017
				28:[U_CATEGORY_MACRO_MAX_COEC<0.009263] yes=57,no=58,missing=58
					57:[C_D_U_CATEGORY_CITY_MICRO_MEAN_COEC<0.314146] yes=115,no=116,missing=116
						115:leaf=0.0259927
						116:leaf=0.0520463
					58:[U_CATEGORY_MICRO_MAX_COEC<0.093989] yes=117,no=118,missing=118
						117:leaf=0.00638024
						118:leaf=0.0194826
			14:[CAT_REL<0.095156] yes=29,no=30,missing=30
				29:[D_TITLEMD5_COEC<0.110028] yes=59,no=60,missing=60
					59:[C_D_U_CATEGORY_CITY_MICRO_MEAN_COEC<0.098006] yes=119,no=120,missing=120
						119:leaf=-0.0180467
						120:leaf=-0.0060404
					60:[D_KEYWORD_MACRO_MEAN_COEC<0.080507] yes=121,no=122,missing=122
						121:leaf=-0.0255105
						122:leaf=-0.00127254
				30:[D_CATEGORY_MICRO_MAX_COEC<0.102039] yes=61,no=62,missing=62
					61:[C_D_U_CATEGORY_CITY_MACRO_MAX_COEC<0.100558] yes=123,no=124,missing=123
						123:leaf=0.00460029
						124:leaf=0.0172322
					62:[D_PUBLISHER_COEC<0.130552] yes=125,no=126,missing=126
						125:leaf=-0.0053101
						126:leaf=0.0131286
booster[35]:
0:[D_TITLEMD5_COEC<0.09842] yes=1,no=2,missing=1
	1:[U_CATEGORY_MACRO_MAX_COEC<0.02168] yes=3,no=4,missing=4
		3:[CAT_REL<0.068433] yes=7,no=8,missing=8
			7:[U_CITY_COEC<0.112919] yes=15,no=16,missing=15
				15:[U_CATEGORY_MACRO_MAX_COEC<0.008568] yes=31,no=32,missing=32
					31:[C_D_U_TITLEMD5_AGE_COEC<0.102187] yes=63,no=64,missing=64
						63:leaf=-0.0216462
						64:leaf=0.0129592
					32:[DOC_AGE<12] yes=65,no=66,missing=66
						65:leaf=-0.0075212
						66:leaf=-0.0210309
				16:[U_CITY_COEC<0.154286] yes=33,no=34,missing=34
					33:[C_D_U_PUBLISHER_CITY_COEC<0.05679] yes=67,no=68,missing=67
						67:leaf=-0.00802302
						68:leaf=0.0137206
					34:[C_D_U_TITLEMD5_CITY_COEC<0.03248] yes=69,no=70,missing=70
						69:leaf=0.0836056
						70:leaf=0.0242955
			8:[U_CATEGORY_MICRO_MAX_COEC<0.096075] yes=17,no=18,missing=18
				17:[U_CATEGORY_MACRO_MAX_COEC<0.011333] yes=35,no=36,missing=36
					35:[U_CATEGORY_MICRO_MAX_COEC<0.076987] yes=71,no=72,missing=72
						71:leaf=-0.0176396
						72:leaf=0.0193995
					36:[D_CATEGORY_MACRO_MEAN_COEC<0.103558] yes=73,no=74,missing=74
						73:leaf=-0.00278581
						74:leaf=-0.0229015
				18:[C_D_U_CATEGORY_CITY_MICRO_MEAN_COEC<0.075116] yes=37,no=38,missing=38
					37:[C_D_U_TITLEMD5_AGE_COEC<0.111893] yes=75,no=76,missing=75
						75:leaf=-0.00913206
						76:leaf=0.0433732
					38:[U_CATEGORY_MACRO_MAX_COEC<0.014606] yes=77,no=78,missing=78
						77:leaf=0.0243584
						78:leaf=0.00985131
		4:[CAT_REL<0.150933] yes=9,no=10,missing=10
			9:[DOC_AGE<76] yes=19,no=20,missing=20
				19:[D_TITLEMD5_COEC<0.059672] yes=39,no=40,missing=39
					39:[DOC_AGE<5] yes=79,no=80,missing=80
						79:leaf=-0.0228087
						80:leaf=-0.0465139
					40:[DOC_AGE<13] yes=81,no=82,missing=82
						81:leaf=-0.0143109
						82:leaf=-0.0274638
				20:[D_TITLEMD5_COEC<0.025318] yes=41,no=42,missing=41
					41:[D_PUBLISHER_COEC<0.107553] yes=83,no=84,missing=83
						83:leaf=-0.0495797
						84:leaf=0.0143984
					42:[U_CATEGORY_MACRO_MAX_COEC<0.039218] yes=85,no=86,missing=86
						85:leaf=0.0320078
						86:leaf=-0.00268047
			10:[IMAGE_COUNT<0.999999] yes=21,no=22,missing=22
				21:[C_D_U_PUBLISHER_AGE_COEC<0.108639] yes=43,no=44,missing=43
					43:[C_D_U_CATEGORY_CITY_MICRO_MEAN_COEC<0.101961] yes=87,no=88,missing=87
						87:leaf=-0.0591243
						88:leaf=-0.026133
					44:[C_D_U_CATEGORY_CITY_MACRO_MAX_COEC<0.104707] yes=89,no=90,missing=89
						89:leaf=-0.00478123
						90:leaf=0.168343
				22:[D_CATEGORY_MICRO_MEAN_COEC<0.102039] yes=45,no=46,missing=46
					45:[C_D_U_CATEGORY_CITY_MACRO_MAX_COEC<0.08962] yes=91,no=92,missing=91
						91:leaf=-0.00343639
						92:leaf=0.0101763
					46:[DAY_OF_WEEK<5] yes=93,no=94,missing=94
						93:leaf=-0.0093627
						94:leaf=-0.0322684
	2:[U_CATEGORY_MACRO_MAX_COEC<0.037188] yes=5,no=6,missing=6
		5:[D_PUBLISHER_COEC<0.12496] yes=11,no=12,missing=12
			11:[CAT_REL<0.039009] yes=23,no=24,missing=24
				23:[D_CATEGORY_MACRO_MAX_COEC<0.212087] yes=47,no=48,missing=48
					47:[IMAGE_COUNT<2] yes=95,no=96,missing=96
						95:leaf=-0.00838664
						96:leaf=0.000403254
					48:[U_CATEGORY_MICRO_MAX_COEC<0.087436] yes=97,no=98,missing=98
						97:leaf=0.002039
						98:leaf=0.0213623
				24:[D_PUBLISHER_COEC<0.058736] yes=49,no=50,missing=50
					49:[IMAGE_COUNT<0.999999] yes=99,no=100,missing=100
						99:leaf=-0.0893101
						100:leaf=-0.0221368
					50:[D_CATEGORY_MICRO_MAX_COEC<0.10213] yes=101,no=102,missing=102
						101:leaf=0.00867483
						102:leaf=-0.00188229
			12:[IMAGE_COUNT<3] yes=25,no=26,missing=26
				25:[C_D_U_TITLEMD5_CATEGORY_MICRO_MAX_COEC<0.227895] yes=51,no=52,missing=51
					51:[U_CATEGORY_MICRO_MAX_COEC<0.111788] yes=103,no=104,missing=104
						103:leaf=0.00821386
						104:leaf=0.0227143
					52:[D_KEYWORD_MICRO_MAX_COEC<0.220129] yes=105,no=106,missing=106
						105:leaf=0.0184687
						106:leaf=0.0361913
				26:[D_CATEGORY_MICRO_MAX_COEC<0.086192] yes=53,no=54,missing=53
					53:[D_TITLEMD5_COEC<0.127304] yes=107,no=108,missing=108
						107:leaf=0.0450228
						108:leaf=0.00598898
					54:[DOC_AGE<76] yes=109,no=110,missing=110
						109:leaf=0.000802448
						110:leaf=0.0478941
		6:[DOC_AGE<76] yes=13,no=14,missing=14
			13:[D_KEYWORD_MICRO_MEAN_COEC<0.108788] yes=27,no=28,missing=28
				27:[IMAGE_COUNT<0.999999] yes=55,no=56,missing=56
					55:[D_CATEGORY_MICRO_MEAN_COEC<0.093249] yes=111,no=112,missing=112
						111:leaf=-0.0657633
						112:leaf=-0.0914581
					56:[DAY_OF_WEEK<0.999999] yes=113,no=114,missing=114
						113:leaf=0.000461613
						114:leaf=-0.0126467
				28:[DOC_AGE<25] yes=57,no=58,missing=58
					57:[D_CATEGORY_MACRO_MAX_COEC<0.107455] yes=115,no=116,missing=116
						115:leaf=-0.00178258
						116:leaf=0.00617475
					58:[WORD_COUNT<5621] yes=117,no=118,missing=118
						117:leaf=-0.0108716
						118:leaf=0.0150417
			14:[D_KEYWORD_MACRO_MAX_COEC<0.020146] yes=29,no=30,missing=30
				29:[D_PUBLISHER_COEC<0.093913] yes=59,no=60,missing=60
					59:[D_KEYWORD_MACRO_MAX_COEC<0.017457] yes=119,no=120,missing=120
						119:leaf=-0.000856363
						120:leaf=0.0646989
					60:[D_KEYWORD_MICRO_MEAN_COEC<0.098172] yes=121,no=122,missing=122
						121:leaf=0.0271605
						122:leaf=0.00301768
				30:[C_D_U_TITLEMD5_CITY_COEC<0.12776] yes=61,no=62,missing=61
					61:[U_CITY_COEC<0.104846] yes=123,no=124,missing=123
						123:leaf=-0.000590287
						124:leaf=0.0190614
					62:[C_D_U_CATEGORY_CITY_MACRO_MAX_COEC<0.185047] yes=125,no=126,missing=125
						125:leaf=0.0146699
						126:leaf=-0.0868238
booster[36]:
0:[C_D_U_PUBLISHER_CITY_COEC<0.089196] yes=1,no=2,missing=1
	1:[IMAGE_COUNT<0.999999] yes=3,no=4,missing=4
		3:[C_D_U_TITLEMD5_CATEGORY_MACRO_MAX_COEC<0.042145] yes=7,no=8,missing=8
			7:[C_D_U_KEYWORD_CATEGORY_MICRO_MEAN_COEC<0.096918] yes=15,no=16,missing=16
				15:[C_D_U_CATEGORY_CITY_MICRO_MAX_COEC<0.176475] yes=31,no=32,missing=31
					31:[U_CATEGORY_MACRO_MAX_COEC<0.034187] yes=63,no=64,missing=64
						63:leaf=-0.0444364
						64:leaf=-0.0853996
					32:[C_D_U_CATEGORY_GENDER_MACRO_MAX_COEC<0.052384] yes=65,no=66,missing=66
						65:leaf=0.223588
						66:leaf=0.00684767
				16:[U_CATEGORY_MACRO_MAX_COEC<0.011271] yes=33,no=34,missing=34
					33:[D_TITLEMD5_COEC<0.025455] yes=67,no=68,missing=68
						67:leaf=-0.0772403
						68:leaf=0.0101473
					34:[C_D_U_KEYWORD_CATEGORY_MICRO_MEAN_COEC<0.168165] yes=69,no=70,missing=70
						69:leaf=-0.0305002
						70:leaf=0.018318
			8:[D_CATEGORY_MICRO_MEAN_COEC<0.080862] yes=17,no=18,missing=18
				17:[D_TITLEMD5_COEC<0.087702] yes=35,no=36,missing=35
					35:[C_D_U_CATEGORY_CITY_MACRO_MAX_COEC<0.119941] yes=71,no=72,missing=71
						71:leaf=-0.067663
						72:leaf=-0.0156552
					36:[C_D_U_CATEGORY_GENDER_MICRO_MAX_COEC<0.052011] yes=73,no=74,missing=74
						73:leaf=0.0148493
						74:leaf=-0.0963252
				18:[U_CATEGORY_MACRO_MAX_COEC<0.017604] yes=37,no=38,missing=38
					37:[U_CATEGORY_MICRO_MAX_COEC<0.140541] yes=75,no=76,missing=76
						75:leaf=-0.0381108
						76:leaf=0.21857
					38:[C_D_U_KEYWORD_CATEGORY_MICRO_MEAN_COEC<0.109279] yes=77,no=78,missing=78
						77:leaf=-0.0749059
						78:leaf=-0.0532407
		4:[CAT_REL<0.028243] yes=9,no=10,missing=10
			9:[D_KEYWORD_MACRO_MEAN_COEC<0.090828] yes=19,no=20,missing=20
				19:[D_CATEGORY_MACRO_MAX_COEC<0.095402] yes=39,no=40,missing=40
					39:[U_CITY_COEC<0.054441] yes=79,no=80,missing=80
						79:leaf=-0.0451011
						80:leaf=-0.0228099
					40:[C_D_U_CATEGORY_CITY_MACRO_MAX_COEC<0.085384] yes=81,no=82,missing=82
						81:leaf=-0.0250943
						82:leaf=-0.0041773
				20:[D_CATEGORY_MACRO_MAX_COEC<0.039467] yes=41,no=42,missing=41
					41:[DOC_AGE<24] yes=83,no=84,missing=84
						83:leaf=0.0131535
						84:leaf=-0.00244411
					42:[D_KEYWORD_MICRO_MAX_COEC<0.189025] yes=85,no=86,missing=86
						85:leaf=-0.00816936
						86:leaf=0.00378302
			10:[U_CATEGORY_MACRO_MAX_COEC<0.016678] yes=21,no=22,missing=22
				21:[U_CATEGORY_MICRO_MAX_COEC<0.095195] yes=43,no=44,missing=44
					43:[U_CATEGORY_MACRO_MAX_COEC<0.009949] yes=87,no=88,missing=88
						87:leaf=0.0107729
						88:leaf=-0.00302761
					44:[DOC_AGE<16] yes=89,no=90,missing=90
						89:leaf=0.0149604
						90:leaf=0.00166128
				22:[CAT_REL<0.127204] yes=45,no=46,missing=46
					45:[U_CATEGORY_MICRO_MAX_COEC<0.111936] yes=91,no=92,missing=92
						91:leaf=-0.0134235
						92:leaf=0.00123799
					46:[U_CATEGORY_MACRO_MAX_COEC<0.051276] yes=93,no=94,missing=94
						93:leaf=0.00281552
						94:leaf=-0.0122036
	2:[U_CATEGORY_MACRO_MAX_COEC<0.019731] yes=5,no=6,missing=6
		5:[U_CITY_COEC<0.113013] yes=11,no=12,missing=12
			11:[DOC_AGE<12] yes=23,no=24,missing=24
				23:[U_CATEGORY_MICRO_MAX_COEC<0.097374] yes=47,no=48,missing=48
					47:[U_CATEGORY_MACRO_MAX_COEC<0.009949] yes=95,no=96,missing=96
						95:leaf=0.0174402
						96:leaf=0.00108651
					48:[C_D_U_TITLEMD5_CITY_COEC<0.999999] yes=97,no=98,missing=98
						97:leaf=0.0161881
						98:leaf=0.00335034
				24:[DOC_AGE<178] yes=49,no=50,missing=50
					49:[CAT_REL<0.076432] yes=99,no=100,missing=100
						99:leaf=-0.00285065
						100:leaf=0.00754543
					50:[U_CITY_COEC<0.096933] yes=101,no=102,missing=102
						101:leaf=0.0530804
						102:leaf=0.163806
			12:[U_CITY_COEC<0.19595] yes=25,no=26,missing=26
				25:[U_CATEGORY_MICRO_MAX_COEC<0.094009] yes=51,no=52,missing=52
					51:[C_D_U_CATEGORY_GENDER_MACRO_MEAN_COEC<0.075418] yes=103,no=104,missing=104
						103:leaf=-0.0728733
						104:leaf=0.00699443
					52:[C_D_U_TITLEMD5_CITY_COEC<0.512528] yes=105,no=106,missing=105
						105:leaf=0.0220942
						106:leaf=-0.0118644
				26:[C_D_U_KEYWORD_CATEGORY_MACRO_MEAN_COEC<0.009088] yes=53,no=54,missing=54
					53:[CAT_REL<0.005113] yes=107,no=108,missing=108
						107:leaf=0.0940892
						108:leaf=0.0407719
					54:[C_D_U_TITLEMD5_CITY_COEC<0.512528] yes=109,no=110,missing=109
						109:leaf=0.02984
						110:leaf=-0.0294109
		6:[C_D_U_TITLEMD5_CITY_COEC<0.118413] yes=13,no=14,missing=13
			13:[C_D_U_CATEGORY_CITY_MICRO_MEAN_COEC<0.123525] yes=27,no=28,missing=28
				27:[D_TITLEMD5_COEC<0.088722] yes=55,no=56,missing=56
					55:[CAT_REL<0.143394] yes=111,no=112,missing=112
						111:leaf=-0.0205038
						112:leaf=-0.00518267
					56:[D_PUBLISHER_COEC<0.125634] yes=113,no=114,missing=114
						113:leaf=-0.00784584
						114:leaf=0.00120896
				28:[U_CATEGORY_MICRO_MAX_COEC<0.111936] yes=57,no=58,missing=57
					57:[C_D_U_CATEGORY_CITY_MICRO_MAX_COEC<0.234169] yes=115,no=116,missing=115
						115:leaf=-0.00267077
						116:leaf=0.0176401
					58:[U_CITY_COEC<0.19595] yes=117,no=118,missing=118
						117:leaf=0.0177302
						118:leaf=0.0625608
			14:[CAT_REL<0.132329] yes=29,no=30,missing=30
				29:[D_KEYWORD_MACRO_MAX_COEC<0.07655] yes=59,no=60,missing=60
					59:[D_CATEGORY_MICRO_MEAN_COEC<0.061479] yes=119,no=120,missing=119
						119:leaf=0.0127097
						120:leaf=-0.00267649
					60:[C_D_U_CATEGORY_CITY_MACRO_MEAN_COEC<0.088114] yes=121,no=122,missing=121
						121:leaf=-0.00190164
						122:leaf=0.00859933
				30:[TIME_OF_DAY<2] yes=61,no=62,missing=62
					61:[D_PUBLISHER_COEC<0.105822] yes=123,no=124,missing=124
						123:leaf=0.00737042
						124:leaf=-0.0191473
					62:[TIME_OF_DAY<9] yes=125,no=126,missing=126
						125:leaf=0.033471
						126:leaf=0.00527257
booster[37]:
0:[D_PUBLISHER_COEC<0.087157] yes=1,no=2,missing=2
	1:[C_D_U_KEYWORD_CATEGORY_MICRO_MEAN_COEC<0.074579] yes=3,no=4,missing=3
		3:[C_D_U_TITLEMD5_CITY_COEC<0.999999] yes=7,no=8,missing=8
			7:[C_D_U_CATEGORY_CITY_MACRO_MAX_COEC<0.104601] yes=15,no=16,missing=16
				15:[IMAGE_COUNT<0.999999] yes=31,no=32,missing=32
					31:[D_KEYWORD_MICRO_MEAN_COEC<0.117993] yes=63,no=64,missing=64
						63:leaf=-0.0653634
						64:leaf=0.132204
					32:[U_CATEGORY_MACRO_MAX_COEC<0.008553] yes=65,no=66,missing=66
						65:leaf=0.0230375
						66:leaf=-0.0161051
				16:[D_KEYWORD_MICRO_MEAN_COEC<0.096366] yes=33,no=34,missing=34
					33:[U_CATEGORY_MICRO_MAX_COEC<0.118717] yes=67,no=68,missing=67
						67:leaf=-0.00752595
						68:leaf=0.0942211
					34:[TIME_OF_DAY<2] yes=69,no=70,missing=70
						69:leaf=0.0309788
						70:leaf=0.00353632
			8:[D_CATEGORY_MACRO_MAX_COEC<0.106696] yes=17,no=18,missing=18
				17:[U_CITY_COEC<0.054655] yes=35,no=36,missing=36
					35:[C_D_U_CATEGORY_CITY_MACRO_MAX_COEC<0.109247] yes=71,no=72,missing=71
						71:leaf=-0.0479135
						72:leaf=0.00293687
					36:[IMAGE_COUNT<0.999999] yes=73,no=74,missing=74
						73:leaf=-0.0518229
						74:leaf=-0.0244623
				18:[WORD_COUNT<4351] yes=37,no=38,missing=38
					37:[IMAGE_COUNT<0.999999] yes=75,no=76,missing=76
						75:leaf=-0.048917
						76:leaf=0.00501687
					38:[D_CATEGORY_MICRO_MAX_COEC<0.134108] yes=77,no=78,missing=78
						77:leaf=-0.017127
						78:leaf=-0.0841341
		4:[C_D_U_TITLEMD5_CITY_COEC<0.468938] yes=9,no=10,missing=10
			9:[DOC_AGE<11] yes=19,no=20,missing=20
				19:[C_D_U_TITLEMD5_CATEGORY_MACRO_MAX_COEC<0.015046] yes=39,no=40,missing=40
					39:[CAT_REL<0.027547] yes=79,no=80,missing=80
						79:leaf=0.00599444
						80:leaf=0.0202326
					40:[C_D_U_CATEGORY_CITY_MACRO_MAX_COEC<0.102192] yes=81,no=82,missing=82
						81:leaf=-0.00124577
						82:leaf=0.0090424
				20:[CAT_REL<0.05956] yes=41,no=42,missing=42
					41:[C_D_U_CATEGORY_CITY_MICRO_MEAN_COEC<0.140114] yes=83,no=84,missing=84
						83:leaf=-0.0124642
						84:leaf=0.0134885
					42:[D_CATEGORY_MICRO_MAX_COEC<0.102041] yes=85,no=86,missing=86
						85:leaf=0.00668952
						86:leaf=-0.0132586
			10:[C_D_U_CATEGORY_CITY_MICRO_MEAN_COEC<0.106975] yes=21,no=22,missing=22
				21:[DOC_AGE<13] yes=43,no=44,missing=44
					43:[IMAGE_COUNT<0.999999] yes=87,no=88,missing=88
						87:leaf=-0.0443959
						88:leaf=-0.0124842
					44:[U_CITY_COEC<0.054655] yes=89,no=90,missing=90
						89:leaf=-0.0482838
						90:leaf=-0.0289913
				22:[C_D_U_CATEGORY_CITY_MICRO_MEAN_COEC<0.191518] yes=45,no=46,missing=45
					45:[DOC_AGE<26] yes=91,no=92,missing=92
						91:leaf=-0.00618007
						92:leaf=-0.0224241
					46:[U_CITY_COEC<0.12825] yes=93,no=94,missing=94
						93:leaf=0.00348807
						94:leaf=0.0203838
	2:[U_CATEGORY_MACRO_MAX_COEC<0.029248] yes=5,no=6,missing=6
		5:[DOC_AGE<12] yes=11,no=12,missing=12
			11:[U_CATEGORY_MACRO_MAX_COEC<0.010982] yes=23,no=24,missing=24
				23:[U_CITY_COEC<0.12825] yes=47,no=48,missing=47
					47:[CAT_REL<0.027547] yes=95,no=96,missing=96
						95:leaf=0.00976959
						96:leaf=0.0245142
					48:[C_D_U_TITLEMD5_AGE_COEC<0.064891] yes=97,no=98,missing=98
						97:leaf=-0.0574323
						98:leaf=0.0392759
				24:[U_CATEGORY_MICRO_MAX_COEC<0.111521] yes=49,no=50,missing=50
					49:[CAT_REL<0.09808] yes=99,no=100,missing=100
						99:leaf=-6.90885e-05
						100:leaf=0.00986887
					50:[C_D_U_TITLEMD5_CATEGORY_MACRO_MAX_COEC<0.013459] yes=101,no=102,missing=101
						101:leaf=0.0246717
						102:leaf=0.0105568
			12:[DOC_AGE<126] yes=25,no=26,missing=26
				25:[D_KEYWORD_MACRO_MEAN_COEC<0.102809] yes=51,no=52,missing=52
					51:[CAT_REL<0.053161] yes=103,no=104,missing=104
						103:leaf=-0.0117013
						104:leaf=-0.00121166
					52:[DOC_AGE<25] yes=105,no=106,missing=106
						105:leaf=0.00387581
						106:leaf=-0.00552854
				26:[U_CATEGORY_MICRO_MAX_COEC<0.106424] yes=53,no=54,missing=54
					53:[DAY_OF_WEEK<5] yes=107,no=108,missing=108
						107:leaf=0.0475637
						108:leaf=0.00820863
					54:[U_CATEGORY_MICRO_MAX_COEC<0.118717] yes=109,no=110,missing=110
						109:leaf=0.0964465
						110:leaf=0.0314363
		6:[D_TITLEMD5_COEC<0.129239] yes=13,no=14,missing=14
			13:[DOC_AGE<78] yes=27,no=28,missing=28
				27:[D_TITLEMD5_COEC<0.088743] yes=55,no=56,missing=56
					55:[CAT_REL<0.259117] yes=111,no=112,missing=112
						111:leaf=-0.0254233
						112:leaf=-0.00516791
					56:[IMAGE_COUNT<2] yes=113,no=114,missing=114
						113:leaf=-0.0131357
						114:leaf=-0.00387029
				28:[U_CATEGORY_MACRO_MAX_COEC<0.051475] yes=57,no=58,missing=58
					57:[U_CATEGORY_MICRO_MAX_COEC<0.108618] yes=115,no=116,missing=116
						115:leaf=0.0133661
						116:leaf=0.053074
					58:[D_PUBLISHER_COEC<0.08999] yes=117,no=118,missing=118
						117:leaf=0.026136
						118:leaf=0.000461523
			14:[WORD_COUNT<5621] yes=29,no=30,missing=30
				29:[DOC_AGE<78] yes=59,no=60,missing=60
					59:[DOC_AGE<26] yes=119,no=120,missing=120
						119:leaf=-0.000953032
						120:leaf=-0.0085389
					60:[D_KEYWORD_MICRO_MEAN_COEC<0.099233] yes=121,no=122,missing=122
						121:leaf=0.023122
						122:leaf=0.0075906
				30:[D_KEYWORD_MACRO_MAX_COEC<0.049244] yes=61,no=62,missing=62
					61:[U_CATEGORY_MACRO_MAX_COEC<0.051475] yes=123,no=124,missing=124
						123:leaf=0.00160818
						124:leaf=-0.0474321
					62:[CAT_REL<0.164996] yes=125,no=126,missing=126
						125:leaf=0.0131788
						126:leaf=0.056334
booster[38]:
0:[D_TITLEMD5_COEC<0.049095] yes=1,no=2,missing=2
	1:[D_TITLEMD5_COEC<0.026808] yes=3,no=4,missing=4
		3:[DOC_AGE<3] yes=7,no=8,missing=8
			7:[D_CATEGORY_MICRO_MAX_COEC<0.053247] yes=15,no=16,missing=16
				15:[WORD_COUNT<3150] yes=31,no=32,missing=32
					31:[CAT_REL<0.08268] yes=63,no=64,missing=64
						63:leaf=-0.047017
						64:leaf=0.00352642
					32:[C_D_U_TITLEMD5_CATEGORY_MICRO_MAX_COEC<0.152036] yes=65,no=66,missing=65
						65:leaf=-0.0203523
						66:leaf=0.280318
				16:[D_KEYWORD_MACRO_MAX_COEC<0.017517] yes=33,no=34,missing=34
					33:[U_CATEGORY_MACRO_MAX_COEC<0.013177] yes=67,no=68,missing=68
						67:leaf=0.00496694
						68:leaf=-0.0282668
					34:[U_CATEGORY_MICRO_MAX_COEC<0.115371] yes=69,no=70,missing=69
						69:leaf=-0.00325033
						70:leaf=0.0467315
			8:[CAT_REL<0.01044] yes=17,no=18,missing=18
				17:[DOC_AGE<137] yes=35,no=36,missing=36
					35:[C_D_U_KEYWORD_CATEGORY_MACRO_MAX_COEC<0.008362] yes=71,no=72,missing=72
						71:leaf=-0.0429434
						72:leaf=-0.0584206
					36:[D_KEYWORD_MICRO_MEAN_COEC<0.129235] yes=73,no=74,missing=74
						73:leaf=-0.0283953
						74:leaf=0.106957
				18:[TIME_OF_DAY<5] yes=37,no=38,missing=38
					37:[C_D_U_PUBLISHER_CITY_COEC<0.019282] yes=75,no=76,missing=75
						75:leaf=-0.0521267
						76:leaf=-0.0261315
					38:[TIME_OF_DAY<12] yes=77,no=78,missing=78
						77:leaf=-0.00165641
						78:leaf=-0.027736
		4:[DOC_AGE<5] yes=9,no=10,missing=10
			9:[C_D_U_TITLEMD5_CATEGORY_MICRO_MAX_COEC<0.076708] yes=19,no=20,missing=20
				19:[U_CATEGORY_MICRO_MAX_COEC<0.119351] yes=39,no=40,missing=40
					39:[C_D_U_PUBLISHER_CITY_COEC<0.237179] yes=79,no=80,missing=79
						79:leaf=0.00739259
						80:leaf=0.0896844
					40:[D_CATEGORY_MICRO_MAX_COEC<0.053247] yes=81,no=82,missing=82
						81:leaf=0.178765
						82:leaf=0.037002
				20:[DOC_AGE<2] yes=41,no=42,missing=42
					41:[C_D_U_TITLEMD5_CATEGORY_MICRO_MAX_COEC<0.106368] yes=83,no=84,missing=83
						83:leaf=0.0237336
						84:leaf=-0.0274422
					42:[D_KEYWORD_MACRO_MEAN_COEC<0.090873] yes=85,no=86,missing=86
						85:leaf=-0.0211694
						86:leaf=-0.107704
			10:[DOC_AGE<137] yes=21,no=22,missing=22
				21:[C_D_U_TITLEMD5_CATEGORY_MICRO_MAX_COEC<0.11399] yes=43,no=44,missing=44
					43:[U_CATEGORY_MACRO_MAX_COEC<0.019747] yes=87,no=88,missing=88
						87:leaf=-0.0108089
						88:leaf=-0.0299251
					44:[CAT_REL<0.102589] yes=89,no=90,missing=90
						89:leaf=-0.0469471
						90:leaf=-0.0207158
				22:[U_CATEGORY_MACRO_MAX_COEC<0.033002] yes=45,no=46,missing=46
					45:[C_D_U_CATEGORY_CITY_MICRO_MAX_COEC<0.091944] yes=91,no=92,missing=91
						91:leaf=0.0957376
						92:leaf=0.023495
					46:[C_D_U_CATEGORY_CITY_MACRO_MAX_COEC<0.154159] yes=93,no=94,missing=93
						93:leaf=-0.0121114
						94:leaf=0.0513499
	2:[U_CITY_COEC<0.055192] yes=5,no=6,missing=6
		5:[D_PUBLISHER_COEC<0.099275] yes=11,no=12,missing=11
			11:[D_CATEGORY_MACRO_MEAN_COEC<0.108578] yes=23,no=24,missing=24
				23:[C_D_U_TITLEMD5_CITY_COEC<0.072786] yes=47,no=48,missing=48
					47:[U_CATEGORY_MICRO_MAX_COEC<0.128614] yes=95,no=96,missing=95
						95:leaf=-0.0174046
						96:leaf=0.0844219
					48:[DOC_AGE<16] yes=97,no=98,missing=98
						97:leaf=-0.027511
						98:leaf=-0.0424315
				24:[D_KEYWORD_MACRO_MEAN_COEC<0.081774] yes=49,no=50,missing=50
					49:[D_KEYWORD_MICRO_MAX_COEC<0.147478] yes=99,no=100,missing=100
						99:leaf=-0.0654119
						100:leaf=0.128817
					50:[DOC_AGE<26] yes=101,no=102,missing=102
						101:leaf=0.00599282
						102:leaf=-0.0258783
			12:[D_TITLEMD5_COEC<0.128774] yes=25,no=26,missing=26
				25:[C_D_U_TITLEMD5_CITY_COEC<0.322742] yes=51,no=52,missing=52
					51:[D_KEYWORD_MICRO_MEAN_COEC<0.103123] yes=103,no=104,missing=104
						103:leaf=0.00571381
						104:leaf=-0.0197953
					52:[C_D_U_CATEGORY_CITY_MACRO_MEAN_COEC<0.080286] yes=105,no=106,missing=106
						105:leaf=-0.0289229
						106:leaf=-0.0124158
				26:[D_TITLEMD5_COEC<0.20396] yes=53,no=54,missing=54
					53:[CAT_REL<0.227408] yes=107,no=108,missing=108
						107:leaf=-0.0095284
						108:leaf=0.0263184
					54:[U_CATEGORY_MACRO_MAX_COEC<0.009421] yes=109,no=110,missing=110
						109:leaf=0.0958784
						110:leaf=0.0117471
		6:[U_CATEGORY_MACRO_MAX_COEC<0.017113] yes=13,no=14,missing=14
			13:[U_CATEGORY_MACRO_MAX_COEC<0.007239] yes=27,no=28,missing=28
				27:[TIME_OF_DAY<2] yes=55,no=56,missing=56
					55:[U_CITY_COEC<0.09101] yes=111,no=112,missing=111
						111:leaf=0.0189114
						112:leaf=-0.0324481
					56:[DAY_OF_WEEK<0.999999] yes=113,no=114,missing=114
						113:leaf=0.0547474
						114:leaf=0.0212968
				28:[U_CATEGORY_MICRO_MAX_COEC<0.094052] yes=57,no=58,missing=58
					57:[D_TITLEMD5_COEC<0.090714] yes=115,no=116,missing=115
						115:leaf=-0.00951985
						116:leaf=-3.89917e-05
					58:[CAT_REL<0.068882] yes=117,no=118,missing=118
						117:leaf=0.0039251
						118:leaf=0.016309
			14:[CAT_REL<0.133696] yes=29,no=30,missing=30
				29:[D_TITLEMD5_COEC<0.117821] yes=59,no=60,missing=59
					59:[C_D_U_CATEGORY_CITY_MACRO_MEAN_COEC<0.103431] yes=119,no=120,missing=119
						119:leaf=-0.0129813
						120:leaf=-0.00274503
					60:[TIME_OF_DAY<8] yes=121,no=122,missing=122
						121:leaf=-0.00656226
						122:leaf=0.000144483
				30:[TIME_OF_DAY<2] yes=61,no=62,missing=62
					61:[C_D_U_CATEGORY_CITY_MICRO_MEAN_COEC<0.170847] yes=123,no=124,missing=123
						123:leaf=-0.00968958
						124:leaf=0.0218525
					62:[TIME_OF_DAY<9] yes=125,no=126,missing=126
						125:leaf=0.0229674
						126:leaf=0.000244667
booster[39]:
0:[D_PUBLISHER_COEC<0.096452] yes=1,no=2,missing=2
	1:[C_D_U_TITLEMD5_CITY_COEC<0.999999] yes=3,no=4,missing=4
		3:[DOC_AGE<13] yes=7,no=8,missing=8
			7:[D_KEYWORD_MACRO_MAX_COEC<0.020164] yes=15,no=16,missing=16
				15:[U_CATEGORY_MACRO_MAX_COEC<0.045022] yes=31,no=32,missing=32
					31:[D_KEYWORD_MACRO_MEAN_COEC<0.100168] yes=63,no=64,missing=64
						63:leaf=-0.00494704
						64:leaf=-0.0765413
					32:[D_KEYWORD_MICRO_MAX_COEC<0.153016] yes=65,no=66,missing=66
						65:leaf=-0.0367606
						66:leaf=0.0333809
				16:[C_D_U_CATEGORY_CITY_MICRO_MEAN_COEC<0.020427] yes=33,no=34,missing=33
					33:[C_D_U_TITLEMD5_CATEGORY_MACRO_MAX_COEC<0.038423] yes=67,no=68,missing=67
						67:leaf=0.0238012
						68:leaf=0.00273386
					34:[CAT_REL<0.068979] yes=69,no=70,missing=70
						69:leaf=-0.00121539
						70:leaf=0.00808734
			8:[C_D_U_CATEGORY_CITY_MACRO_MAX_COEC<0.1074] yes=17,no=18,missing=18
				17:[DOC_AGE<79] yes=35,no=36,missing=36
					35:[U_CATEGORY_MACRO_MAX_COEC<0.04264] yes=71,no=72,missing=72
						71:leaf=-0.00801724
						72:leaf=-0.0213281
					36:[D_TITLEMD5_COEC<0.049218] yes=73,no=74,missing=74
						73:leaf=-0.0196336
						74:leaf=0.0175075
				18:[CAT_REL<0.060638] yes=37,no=38,missing=38
					37:[D_KEYWORD_MACRO_MAX_COEC<0.068702] yes=75,no=76,missing=76
						75:leaf=-0.00485822
						76:leaf=0.0131838
					38:[D_KEYWORD_MACRO_MEAN_COEC<0.136112] yes=77,no=78,missing=78
						77:leaf=0.00718784
						78:leaf=0.0700113
		4:[C_D_U_CATEGORY_CITY_MICRO_MEAN_COEC<0.10453] yes=9,no=10,missing=10
			9:[DOC_AGE<12] yes=19,no=20,missing=20
				19:[C_D_U_TITLEMD5_CATEGORY_MACRO_MAX_COEC<0.046684] yes=39,no=40,missing=40
					39:[U_CITY_COEC<0.139074] yes=79,no=80,missing=80
						79:leaf=-0.0106535
						80:leaf=0.0203209
					40:[D_PUBLISHER_COEC<0.058944] yes=81,no=82,missing=82
						81:leaf=-0.0389354
						82:leaf=-0.0198395
				20:[U_CITY_COEC<0.054863] yes=41,no=42,missing=42
					41:[D_TITLEMD5_COEC<0.079548] yes=83,no=84,missing=84
						83:leaf=-0.0583945
						84:leaf=-0.0371714
					42:[IMAGE_COUNT<2] yes=85,no=86,missing=86
						85:leaf=-0.0291973
						86:leaf=-0.0142746
			10:[C_D_U_KEYWORD_CATEGORY_MICRO_MEAN_COEC<0.074235] yes=21,no=22,missing=21
				21:[D_KEYWORD_MICRO_MEAN_COEC<0.100843] yes=43,no=44,missing=44
					43:[IMAGE_COUNT<2] yes=87,no=88,missing=88
						87:leaf=-0.0233194
						88:leaf=-0.0101989
					44:[D_CATEGORY_MACRO_MAX_COEC<0.110508] yes=89,no=90,missing=90
						89:leaf=-0.00713294
						90:leaf=0.00913221
				22:[C_D_U_CATEGORY_CITY_MICRO_MEAN_COEC<0.191791] yes=45,no=46,missing=45
					45:[DOC_AGE<17] yes=91,no=92,missing=92
						91:leaf=-0.00235373
						92:leaf=-0.013398
					46:[U_CITY_COEC<0.195145] yes=93,no=94,missing=94
						93:leaf=0.00851441
						94:leaf=0.0260574
	2:[U_CATEGORY_MACRO_MAX_COEC<0.023705] yes=5,no=6,missing=6
		5:[U_CITY_COEC<0.113192] yes=11,no=12,missing=11
			11:[DOC_AGE<12] yes=23,no=24,missing=24
				23:[U_CATEGORY_MICRO_MAX_COEC<0.100758] yes=47,no=48,missing=48
					47:[U_CATEGORY_MACRO_MAX_COEC<0.007231] yes=95,no=96,missing=96
						95:leaf=0.0367575
						96:leaf=0.00263873
					48:[D_PUBLISHER_COEC<0.14154] yes=97,no=98,missing=98
						97:leaf=0.0101399
						98:leaf=0.0285856
				24:[D_CATEGORY_MICRO_MEAN_COEC<0.111279] yes=49,no=50,missing=50
					49:[DOC_AGE<126] yes=99,no=100,missing=100
						99:leaf=-0.0032647
						100:leaf=0.0411128
					50:[D_KEYWORD_MICRO_MAX_COEC<0.136673] yes=101,no=102,missing=102
						101:leaf=0.000630426
						102:leaf=0.015514
			12:[U_CITY_COEC<0.195145] yes=25,no=26,missing=26
				25:[TIME_OF_DAY<13] yes=51,no=52,missing=52
					51:[C_D_U_TITLEMD5_CATEGORY_MICRO_MAX_COEC<0.103673] yes=103,no=104,missing=104
						103:leaf=0.0338436
						104:leaf=0.0174162
					52:[C_D_U_PUBLISHER_GENDER_COEC<0.123411] yes=105,no=106,missing=106
						105:leaf=-0.0315447
						106:leaf=0.0104842
				26:[C_D_U_TITLEMD5_CITY_COEC<0.469128] yes=53,no=54,missing=54
					53:[D_KEYWORD_MACRO_MEAN_COEC<0.088099] yes=107,no=108,missing=108
						107:leaf=0.155265
						108:leaf=0.0570238
					54:[C_D_U_TITLEMD5_CATEGORY_MICRO_MAX_COEC<0.076913] yes=109,no=110,missing=109
						109:leaf=0.0580158
						110:leaf=0.0237301
		6:[D_TITLEMD5_COEC<0.158823] yes=13,no=14,missing=14
			13:[DOC_AGE<79] yes=27,no=28,missing=28
				27:[D_TITLEMD5_COEC<0.083906] yes=55,no=56,missing=56
					55:[C_D_U_CATEGORY_CITY_MACRO_MAX_COEC<0.100414] yes=111,no=112,missing=111
						111:leaf=-0.0278129
						112:leaf=-0.0112016
					56:[DAY_OF_WEEK<0.999999] yes=113,no=114,missing=114
						113:leaf=0.00338687
						114:leaf=-0.00570301
				28:[U_CATEGORY_MACRO_MAX_COEC<0.051722] yes=57,no=58,missing=58
					57:[U_CATEGORY_MICRO_MAX_COEC<0.108669] yes=115,no=116,missing=116
						115:leaf=0.0177792
						116:leaf=0.0482352
					58:[D_TITLEMD5_COEC<0.049218] yes=117,no=118,missing=118
						117:leaf=-0.0211096
						118:leaf=0.00444413
			14:[WORD_COUNT<1555] yes=29,no=30,missing=30
				29:[D_KEYWORD_MACRO_MAX_COEC<0.087469] yes=59,no=60,missing=60
					59:[D_KEYWORD_MICRO_MEAN_COEC<0.123535] yes=119,no=120,missing=120
						119:leaf=0.00404973
						120:leaf=-0.0156923
					60:[CAT_REL<0.206519] yes=121,no=122,missing=122
						121:leaf=0.00523605
						122:leaf=0.0283264
				30:[WORD_COUNT<2611] yes=61,no=62,missing=62
					61:[D_PUBLISHER_COEC<0.106083] yes=123,no=124,missing=123
						123:leaf=0.0235336
						124:leaf=0.00687909
					62:[WORD_COUNT<5621] yes=125,no=126,missing=126
						125:leaf=-0.00674126
						126:leaf=0.0133995
booster[40]:
0:[IMAGE_COUNT<0.999999] yes=1,no=2,missing=2
	1:[U_CATEGORY_MACRO_MAX_COEC<0.021575] yes=3,no=4,missing=4
		3:[C_D_U_CATEGORY_CITY_MICRO_MAX_COEC<0.07457] yes=7,no=8,missing=8
			7:[C_D_U_PUBLISHER_AGE_COEC<0.12118] yes=15,no=16,missing=15
				15:[U_CITY_COEC<0.196644] yes=31,no=32,missing=32
					31:[D_TITLEMD5_COEC<0.109866] yes=63,no=64,missing=63
						63:leaf=-0.0445404
						64:leaf=-0.0768551
					32:[DOC_AGE<15] yes=65,no=66,missing=66
						65:leaf=0.155119
						66:leaf=-0.0624237
				16:[C_D_U_CATEGORY_GENDER_MICRO_MAX_COEC<0.116347] yes=33,no=34,missing=33
					33:[C_D_U_TITLEMD5_AGE_COEC<0.169678] yes=67,no=68,missing=68
						67:leaf=0.0156354
						68:leaf=-0.105736
					34:[DOC_AGE<9] yes=69,no=70,missing=70
						69:leaf=0.190125
						70:leaf=0.0379583
			8:[U_CATEGORY_MACRO_MAX_COEC<0.010869] yes=17,no=18,missing=18
				17:[D_PUBLISHER_COEC<0.039096] yes=35,no=36,missing=36
					35:[C_D_U_CATEGORY_CITY_MACRO_MAX_COEC<0.138313] yes=71,no=72,missing=72
						71:leaf=-0.0117883
						72:leaf=-0.0565799
					36:[U_CITY_COEC<0.078166] yes=73,no=74,missing=73
						73:leaf=-0.0123087
						74:leaf=0.015786
				18:[U_CATEGORY_MICRO_MAX_COEC<0.116052] yes=37,no=38,missing=38
					37:[C_D_U_TITLEMD5_CATEGORY_MACRO_MAX_COEC<0.060336] yes=75,no=76,missing=75
						75:leaf=-0.0271447
						76:leaf=-0.109728
					38:[U_CATEGORY_MACRO_MAX_COEC<0.011318] yes=77,no=78,missing=78
						77:leaf=0.117555
						78:leaf=-0.00359995
		4:[C_D_U_TITLEMD5_CATEGORY_MICRO_MAX_COEC<0.154762] yes=9,no=10,missing=10
			9:[C_D_U_KEYWORD_CATEGORY_MICRO_MEAN_COEC<0.130427] yes=19,no=20,missing=20
				19:[D_KEYWORD_MICRO_MEAN_COEC<0.085038] yes=39,no=40,missing=40
					39:[C_D_U_CATEGORY_CITY_MACRO_MAX_COEC<0.116192] yes=79,no=80,missing=79
						79:leaf=-0.0375485
						80:leaf=0.0262132
					40:[C_D_U_KEYWORD_CATEGORY_MACRO_MEAN_COEC<0.084685] yes=81,no=82,missing=82
						81:leaf=-0.0620314
						82:leaf=0.0707961
				20:[WORD_COUNT<5036] yes=41,no=42,missing=42
					41:[C_D_U_KEYWORD_CATEGORY_MICRO_MAX_COEC<0.152515] yes=83,no=84,missing=84
						83:leaf=-0.0733978
						84:leaf=-0.0152893
					42:[C_D_U_CATEGORY_CITY_MACRO_MAX_COEC<0.079526] yes=85,no=86,missing=86
						85:leaf=-0.0796549
						86:leaf=0.119171
			10:[DOC_AGE<37] yes=21,no=22,missing=22
				21:[DAY_OF_WEEK<6] yes=43,no=44,missing=44
					43:[DAY_OF_WEEK<4] yes=87,no=88,missing=88
						87:leaf=-0.0580688
						88:leaf=-0.0786072
					44:[D_CATEGORY_MACRO_MAX_COEC<0.08733] yes=89,no=90,missing=89
						89:leaf=-0.0789331
						90:leaf=-0.0291145
				22:[D_TITLEMD5_COEC<0.108672] yes=45,no=46,missing=46
					45:[D_CATEGORY_MACRO_MAX_COEC<0.057828] yes=91,no=92,missing=91
						91:leaf=-0.0596344
						92:leaf=-0.00799814
					46:[D_KEYWORD_MICRO_MEAN_COEC<0.076318] yes=93,no=94,missing=94
						93:leaf=0.0450281
						94:leaf=-0.0992325
	2:[U_CITY_COEC<0.078166] yes=5,no=6,missing=5
		5:[D_TITLEMD5_COEC<0.085572] yes=11,no=12,missing=12
			11:[U_CATEGORY_MICRO_MAX_COEC<0.112865] yes=23,no=24,missing=23
				23:[U_CATEGORY_MACRO_MAX_COEC<0.007248] yes=47,no=48,missing=48
					47:[C_D_U_CATEGORY_GENDER_MICRO_MAX_COEC<0.12973] yes=95,no=96,missing=96
						95:leaf=-0.0492856
						96:leaf=0.0423055
					48:[CAT_REL<0.105924] yes=97,no=98,missing=98
						97:leaf=-0.0231208
						98:leaf=-0.00641151
				24:[C_D_U_CATEGORY_CITY_MACRO_MAX_COEC<0.187233] yes=49,no=50,missing=50
					49:[C_D_U_CATEGORY_AGE_MICRO_MAX_COEC<0.06911] yes=99,no=100,missing=99
						99:leaf=-0.0284525
						100:leaf=0.0159307
					50:[U_CATEGORY_MACRO_MAX_COEC<0.034626] yes=101,no=102,missing=102
						101:leaf=0.0155504
						102:leaf=-0.0202074
			12:[CAT_REL<0.039774] yes=25,no=26,missing=26
				25:[D_KEYWORD_MICRO_MAX_COEC<0.13936] yes=51,no=52,missing=52
					51:[DAY_OF_WEEK<3] yes=103,no=104,missing=104
						103:leaf=-0.00281587
						104:leaf=-0.0135386
					52:[D_CATEGORY_MACRO_MAX_COEC<0.111191] yes=105,no=106,missing=106
						105:leaf=-0.00415199
						106:leaf=0.00559333
				26:[TIME_OF_DAY<2] yes=53,no=54,missing=54
					53:[D_CATEGORY_MICRO_MAX_COEC<0.099798] yes=107,no=108,missing=108
						107:leaf=-0.000961992
						108:leaf=-0.0164423
					54:[TIME_OF_DAY<13] yes=109,no=110,missing=110
						109:leaf=0.0108102
						110:leaf=-0.00224432
		6:[C_D_U_CATEGORY_CITY_MICRO_MEAN_COEC<0.17057] yes=13,no=14,missing=14
			13:[C_D_U_TITLEMD5_CITY_COEC<0.144347] yes=27,no=28,missing=27
				27:[U_CATEGORY_MACRO_MAX_COEC<0.015214] yes=55,no=56,missing=56
					55:[IMAGE_COUNT<2] yes=111,no=112,missing=112
						111:leaf=-0.000317589
						112:leaf=0.00841375
					56:[D_PUBLISHER_COEC<0.097447] yes=113,no=114,missing=114
						113:leaf=-0.00823184
						114:leaf=-0.0015864
				28:[D_PUBLISHER_COEC<0.131445] yes=57,no=58,missing=58
					57:[CAT_REL<0.034769] yes=115,no=116,missing=116
						115:leaf=0.000243983
						116:leaf=0.00697849
					58:[WORD_COUNT<1058] yes=117,no=118,missing=118
						117:leaf=-0.015201
						118:leaf=0.0112479
			14:[U_CITY_COEC<0.196644] yes=29,no=30,missing=30
				29:[U_CATEGORY_MACRO_MAX_COEC<0.023813] yes=59,no=60,missing=60
					59:[U_CATEGORY_MACRO_MAX_COEC<0.008504] yes=119,no=120,missing=120
						119:leaf=0.0311819
						120:leaf=0.0106203
					60:[D_TITLEMD5_COEC<0.027215] yes=121,no=122,missing=121
						121:leaf=-0.0459289
						122:leaf=0.00316281
				30:[TIME_OF_DAY<19] yes=61,no=62,missing=62
					61:[C_D_U_CATEGORY_CITY_MICRO_MEAN_COEC<0.314915] yes=123,no=124,missing=124
						123:leaf=0.0192451
						124:leaf=0.0397047
					62:[D_CATEGORY_MICRO_MAX_COEC<0.087374] yes=125,no=126,missing=126
						125:leaf=-0.0163862
						126:leaf=0.0180496
booster[41]:
0:[D_KEYWORD_MACRO_MEAN_COEC<0.061709] yes=1,no=2,missing=1
	1:[C_D_U_TITLEMD5_CATEGORY_MICRO_MAX_COEC<0.171119] yes=3,no=4,missing=4
		3:[DOC_AGE<7] yes=7,no=8,missing=8
			7:[D_TITLEMD5_COEC<0.027857] yes=15,no=16,missing=16
				15:[C_D_U_CATEGORY_GENDER_MACRO_MAX_COEC<0.133731] yes=31,no=32,missing=31
					31:[D_KEYWORD_MACRO_MAX_COEC<0.017617] yes=63,no=64,missing=64
						63:leaf=-0.0232004
						64:leaf=-0.00592766
					32:leaf=0.222322
				16:[C_D_U_TITLEMD5_CATEGORY_MACRO_MAX_COEC<0.020589] yes=33,no=34,missing=34
					33:[U_CATEGORY_MICRO_MAX_COEC<0.099285] yes=65,no=66,missing=66
						65:leaf=0.00276376
						66:leaf=0.022724
					34:[C_D_U_KEYWORD_CATEGORY_MACRO_MAX_COEC<0.00899] yes=67,no=68,missing=68
						67:leaf=-0.0441968
						68:leaf=-0.0010981
			8:[CAT_REL<0.034897] yes=17,no=18,missing=18
				17:[U_CATEGORY_MACRO_MAX_COEC<0.008543] yes=35,no=36,missing=36
					35:[D_CATEGORY_MACRO_MEAN_COEC<0.113308] yes=69,no=70,missing=70
						69:leaf=-0.0132312
						70:leaf=0.116918
					36:[C_D_U_CATEGORY_CITY_MACRO_MEAN_COEC<0.102535] yes=71,no=72,missing=71
						71:leaf=-0.0394799
						72:leaf=-0.0146503
				18:[D_KEYWORD_MICRO_MEAN_COEC<0.079136] yes=37,no=38,missing=38
					37:[D_CATEGORY_MICRO_MAX_COEC<0.092543] yes=73,no=74,missing=74
						73:leaf=0.000367265
						74:leaf=-0.0277189
					38:[DOC_AGE<134] yes=75,no=76,missing=76
						75:leaf=-0.0262368
						76:leaf=0.0459719
		4:[D_TITLEMD5_COEC<0.072087] yes=9,no=10,missing=9
			9:[D_KEYWORD_MACRO_MEAN_COEC<0.050882] yes=19,no=20,missing=19
				19:[C_D_U_CATEGORY_CITY_MACRO_MEAN_COEC<0.056327] yes=39,no=40,missing=40
					39:[C_D_U_TITLEMD5_CITY_COEC<0.062796] yes=77,no=78,missing=78
						77:leaf=-0.0110455
						78:leaf=-0.0543306
					40:[U_CATEGORY_MACRO_MAX_COEC<0.013565] yes=79,no=80,missing=80
						79:leaf=-0.00705826
						80:leaf=-0.034802
				20:[DOC_AGE<2] yes=41,no=42,missing=42
					41:[C_D_U_KEYWORD_CATEGORY_MACRO_MEAN_COEC<0.007583] yes=81,no=82,missing=82
						81:leaf=0.0645838
						82:leaf=-0.000242207
					42:[C_D_U_KEYWORD_CATEGORY_MICRO_MEAN_COEC<0.164555] yes=83,no=84,missing=83
						83:leaf=-0.0234366
						84:leaf=0.0595903
			10:[U_CATEGORY_MACRO_MAX_COEC<0.010407] yes=21,no=22,missing=22
				21:[C_D_U_CATEGORY_CITY_MACRO_MEAN_COEC<0.123853] yes=43,no=44,missing=44
					43:[C_D_U_KEYWORD_CATEGORY_MACRO_MEAN_COEC<0.004781] yes=85,no=86,missing=86
						85:leaf=-0.0939573
						86:leaf=-0.0223997
					44:[U_CITY_COEC<0.056246] yes=87,no=88,missing=88
						87:leaf=0.220313
						88:leaf=0.0098027
				22:[C_D_U_KEYWORD_CATEGORY_MICRO_MAX_COEC<0.315254] yes=45,no=46,missing=45
					45:[C_D_U_TITLEMD5_CATEGORY_MACRO_MAX_COEC<0.073736] yes=89,no=90,missing=89
						89:leaf=-0.0553822
						90:leaf=-0.0214211
					46:[WORD_COUNT<8549] yes=91,no=92,missing=92
						91:leaf=-0.10491
						92:leaf=0.0133742
	2:[DOC_AGE<12] yes=5,no=6,missing=6
		5:[U_CATEGORY_MACRO_MAX_COEC<0.016432] yes=11,no=12,missing=12
			11:[CAT_REL<0.067443] yes=23,no=24,missing=24
				23:[D_CATEGORY_MACRO_MAX_COEC<0.221191] yes=47,no=48,missing=48
					47:[D_PUBLISHER_COEC<0.12496] yes=93,no=94,missing=94
						93:leaf=0.00134476
						94:leaf=0.0180275
					48:[WORD_COUNT<674] yes=95,no=96,missing=96
						95:leaf=-0.0127139
						96:leaf=0.0336812
				24:[U_CATEGORY_MICRO_MAX_COEC<0.099996] yes=49,no=50,missing=50
					49:[C_D_U_TITLEMD5_GENDER_COEC<0.128955] yes=97,no=98,missing=97
						97:leaf=0.00823663
						98:leaf=0.0357328
					50:[C_D_U_TITLEMD5_CATEGORY_MACRO_MAX_COEC<0.01003] yes=99,no=100,missing=99
						99:leaf=0.0400358
						100:leaf=0.0181803
			12:[D_KEYWORD_MACRO_MEAN_COEC<0.085729] yes=25,no=26,missing=26
				25:[C_D_U_KEYWORD_CATEGORY_MICRO_MEAN_COEC<0.068415] yes=51,no=52,missing=51
					51:[D_CATEGORY_MACRO_MAX_COEC<0.085966] yes=101,no=102,missing=102
						101:leaf=-0.0264079
						102:leaf=-0.0109824
					52:[C_D_U_TITLEMD5_CATEGORY_MICRO_MAX_COEC<0.389783] yes=103,no=104,missing=103
						103:leaf=-0.00229774
						104:leaf=-0.0472909
				26:[CAT_REL<0.105461] yes=53,no=54,missing=54
					53:[DAY_OF_WEEK<0.999999] yes=105,no=106,missing=106
						105:leaf=0.00721066
						106:leaf=-0.00215026
					54:[D_CATEGORY_MICRO_MAX_COEC<0.102232] yes=107,no=108,missing=108
						107:leaf=0.010947
						108:leaf=-0.000474065
		6:[D_PUBLISHER_COEC<0.106127] yes=13,no=14,missing=14
			13:[IMAGE_COUNT<2] yes=27,no=28,missing=28
				27:[D_KEYWORD_MACRO_MEAN_COEC<0.102939] yes=55,no=56,missing=56
					55:[CAT_REL<0.03745] yes=109,no=110,missing=110
						109:leaf=-0.0202048
						110:leaf=-0.00759089
					56:[D_TITLEMD5_COEC<0.097544] yes=111,no=112,missing=111
						111:leaf=-0.0206781
						112:leaf=-0.00214357
				28:[U_CATEGORY_MACRO_MAX_COEC<0.013565] yes=57,no=58,missing=58
					57:[U_CATEGORY_MICRO_MAX_COEC<0.097971] yes=113,no=114,missing=114
						113:leaf=0.000702125
						114:leaf=0.0160666
					58:[DOC_AGE<77] yes=115,no=116,missing=116
						115:leaf=-0.00604717
						116:leaf=0.0104527
			14:[DOC_AGE<77] yes=29,no=30,missing=30
				29:[D_KEYWORD_MACRO_MAX_COEC<0.070569] yes=59,no=60,missing=60
					59:[D_KEYWORD_MICRO_MEAN_COEC<0.120572] yes=117,no=118,missing=118
						117:leaf=-0.00148364
						118:leaf=-0.0124087
					60:[WORD_COUNT<5621] yes=119,no=120,missing=120
						119:leaf=0.00197509
						120:leaf=0.0210822
				30:[C_D_U_TITLEMD5_CATEGORY_MACRO_MAX_COEC<0.091645] yes=61,no=62,missing=62
					61:[U_CITY_COEC<0.097794] yes=121,no=122,missing=121
						121:leaf=0.019603
						122:leaf=0.0475321
					62:[C_D_U_PUBLISHER_CITY_COEC<0.174137] yes=123,no=124,missing=123
						123:leaf=0.00453621
						124:leaf=0.0174974
booster[42]:
0:[C_D_U_TITLEMD5_CITY_COEC<0.999999] yes=1,no=2,missing=2
	1:[DOC_AGE<12] yes=3,no=4,missing=4
		3:[U_CATEGORY_MICRO_MAX_COEC<0.10489] yes=7,no=8,missing=7
			7:[C_D_U_TITLEMD5_AGE_COEC<0.123903] yes=15,no=16,missing=15
				15:[U_CATEGORY_MACRO_MAX_COEC<0.009872] yes=31,no=32,missing=32
					31:[TIME_OF_DAY<2] yes=63,no=64,missing=64
						63:leaf=-0.0056069
						64:leaf=0.0210272
					32:[C_D_U_TITLEMD5_CITY_COEC<0.092467] yes=65,no=66,missing=66
						65:leaf=-0.00153474
						66:leaf=0.00369755
				16:[CAT_REL<0.039522] yes=33,no=34,missing=34
					33:[C_D_U_PUBLISHER_AGE_COEC<0.093578] yes=67,no=68,missing=68
						67:leaf=-0.014795
						68:leaf=0.0103805
					34:[U_CATEGORY_MACRO_MAX_COEC<0.016522] yes=69,no=70,missing=70
						69:leaf=0.0323416
						70:leaf=0.0135372
			8:[U_CATEGORY_MACRO_MAX_COEC<0.051743] yes=17,no=18,missing=18
				17:[U_CATEGORY_MACRO_MAX_COEC<0.016522] yes=35,no=36,missing=36
					35:[C_D_U_TITLEMD5_CATEGORY_MICRO_MAX_COEC<0.081173] yes=71,no=72,missing=72
						71:leaf=0.034094
						72:leaf=0.0142005
					36:[TIME_OF_DAY<19] yes=73,no=74,missing=74
						73:leaf=0.0112006
						74:leaf=0.00245491
				18:[U_CATEGORY_MICRO_MAX_COEC<0.120662] yes=37,no=38,missing=38
					37:[C_D_U_TITLEMD5_GENDER_COEC<0.194658] yes=75,no=76,missing=76
						75:leaf=-0.0519409
						76:leaf=-0.00322445
					38:[D_KEYWORD_MICRO_MAX_COEC<0.100286] yes=77,no=78,missing=78
						77:leaf=0.0723366
						78:leaf=-0.0419248
		4:[D_KEYWORD_MACRO_MAX_COEC<0.068486] yes=9,no=10,missing=10
			9:[DOC_AGE<79] yes=19,no=20,missing=20
				19:[CAT_REL<0.037153] yes=39,no=40,missing=40
					39:[TIME_OF_DAY<8] yes=79,no=80,missing=80
						79:leaf=-0.0146918
						80:leaf=-0.00396016
					40:[U_CATEGORY_MACRO_MAX_COEC<0.015728] yes=81,no=82,missing=82
						81:leaf=0.00967107
						82:leaf=-0.00314843
				20:[U_CATEGORY_MACRO_MAX_COEC<0.034788] yes=41,no=42,missing=42
					41:[TIME_OF_DAY<15] yes=83,no=84,missing=84
						83:leaf=0.046315
						84:leaf=0.00686338
					42:[D_TITLEMD5_COEC<0.050114] yes=85,no=86,missing=86
						85:leaf=-0.015687
						86:leaf=0.00849434
			10:[U_CATEGORY_MICRO_MAX_COEC<0.103858] yes=21,no=22,missing=21
				21:[D_CATEGORY_MACRO_MEAN_COEC<0.100801] yes=43,no=44,missing=44
					43:[D_KEYWORD_MACRO_MEAN_COEC<0.094832] yes=87,no=88,missing=88
						87:leaf=-0.00539321
						88:leaf=0.0131107
					44:[WORD_COUNT<5480] yes=89,no=90,missing=90
						89:leaf=0.000147587
						90:leaf=0.0175497
				22:[D_KEYWORD_MICRO_MEAN_COEC<0.105082] yes=45,no=46,missing=46
					45:[CAT_REL<0.02355] yes=91,no=92,missing=92
						91:leaf=-0.0288284
						92:leaf=0.00681187
					46:[D_CATEGORY_MICRO_MEAN_COEC<0.101708] yes=93,no=94,missing=94
						93:leaf=0.0247923
						94:leaf=0.0119032
	2:[C_D_U_CATEGORY_CITY_MICRO_MEAN_COEC<0.119109] yes=5,no=6,missing=6
		5:[D_KEYWORD_MACRO_MEAN_COEC<0.089673] yes=11,no=12,missing=11
			11:[U_CITY_COEC<0.054859] yes=23,no=24,missing=23
				23:[CAT_REL<0.151358] yes=47,no=48,missing=48
					47:[D_KEYWORD_MACRO_MEAN_COEC<0.068542] yes=95,no=96,missing=96
						95:leaf=-0.0488232
						96:leaf=-0.0330327
					48:[U_CATEGORY_MACRO_MAX_COEC<0.015468] yes=97,no=98,missing=98
						97:leaf=0.0621897
						98:leaf=-0.0187621
				24:[D_KEYWORD_MACRO_MEAN_COEC<0.052255] yes=49,no=50,missing=49
					49:[C_D_U_KEYWORD_CATEGORY_MICRO_MEAN_COEC<0.087926] yes=99,no=100,missing=100
						99:leaf=-0.0242775
						100:leaf=-0.0419818
					50:[IMAGE_COUNT<2] yes=101,no=102,missing=102
						101:leaf=-0.0163651
						102:leaf=-0.00695885
			12:[D_KEYWORD_MICRO_MAX_COEC<0.172018] yes=25,no=26,missing=26
				25:[U_CITY_COEC<0.090784] yes=51,no=52,missing=51
					51:[DOC_AGE<12] yes=103,no=104,missing=104
						103:leaf=-0.00834821
						104:leaf=-0.0197803
					52:[D_CATEGORY_MICRO_MEAN_COEC<0.091536] yes=105,no=106,missing=106
						105:leaf=0.00564151
						106:leaf=-0.00596131
				26:[WORD_COUNT<889] yes=53,no=54,missing=54
					53:[C_D_U_KEYWORD_CATEGORY_MICRO_MAX_COEC<0.284302] yes=107,no=108,missing=108
						107:leaf=-0.0231369
						108:leaf=-0.0684956
					54:[D_PUBLISHER_COEC<0.04863] yes=109,no=110,missing=110
						109:leaf=-0.0764311
						110:leaf=0.00487986
		6:[U_CITY_COEC<0.113188] yes=13,no=14,missing=13
			13:[U_CATEGORY_MICRO_MAX_COEC<0.115415] yes=27,no=28,missing=27
				27:[U_CATEGORY_MACRO_MAX_COEC<0.010376] yes=55,no=56,missing=56
					55:[C_D_U_CATEGORY_GENDER_MACRO_MAX_COEC<0.12973] yes=111,no=112,missing=112
						111:leaf=-0.0130779
						112:leaf=0.0130584
					56:[D_TITLEMD5_COEC<0.07599] yes=113,no=114,missing=113
						113:leaf=-0.0182381
						114:leaf=-0.00468786
				28:[CAT_REL<0.01856] yes=57,no=58,missing=58
					57:[D_CATEGORY_MACRO_MEAN_COEC<0.102098] yes=115,no=116,missing=116
						115:leaf=-0.00713503
						116:leaf=0.0073029
					58:[C_D_U_TITLEMD5_CATEGORY_MACRO_MAX_COEC<0.013507] yes=117,no=118,missing=117
						117:leaf=0.0292676
						118:leaf=0.00717345
			14:[U_CITY_COEC<0.196924] yes=29,no=30,missing=30
				29:[U_CATEGORY_MICRO_MAX_COEC<0.09267] yes=59,no=60,missing=59
					59:[DOC_AGE<79] yes=119,no=120,missing=120
						119:leaf=-0.00235183
						120:leaf=0.0160786
					60:[D_PUBLISHER_COEC<0.116885] yes=121,no=122,missing=121
						121:leaf=0.00814683
						122:leaf=0.0210262
				30:[TIME_OF_DAY<19] yes=61,no=62,missing=62
					61:[C_D_U_TITLEMD5_CITY_COEC<8.00611] yes=123,no=124,missing=124
						123:leaf=-0.0215936
						124:leaf=0.0302748
					62:[U_CATEGORY_MICRO_MAX_COEC<0.112684] yes=125,no=126,missing=125
						125:leaf=0.000510595
						126:leaf=0.0405793
booster[43]:
0:[U_CITY_COEC<0.056582] yes=1,no=2,missing=2
	1:[D_KEYWORD_MACRO_MEAN_COEC<0.084902] yes=3,no=4,missing=4
		3:[C_D_U_CATEGORY_CITY_MICRO_MEAN_COEC<0.053667] yes=7,no=8,missing=7
			7:[DOC_AGE<21] yes=15,no=16,missing=16
				15:[D_CATEGORY_MACRO_MAX_COEC<0.064105] yes=31,no=32,missing=32
					31:[CAT_REL<0.110833] yes=63,no=64,missing=64
						63:leaf=-0.0482867
						64:leaf=-0.0093283
					32:[C_D_U_TITLEMD5_CATEGORY_MICRO_MAX_COEC<0.048446] yes=65,no=66,missing=66
						65:leaf=-0.0435354
						66:leaf=-0.0203735
				16:[C_D_U_PUBLISHER_CITY_COEC<0.116315] yes=33,no=34,missing=33
					33:[C_D_U_CATEGORY_GENDER_MACRO_MAX_COEC<0.123404] yes=67,no=68,missing=68
						67:leaf=-0.0785977
						68:leaf=-0.0465623
					34:[TIME_OF_DAY<16] yes=69,no=70,missing=70
						69:leaf=-0.0380374
						70:leaf=0.0494307
			8:[D_CATEGORY_MACRO_MEAN_COEC<0.102422] yes=17,no=18,missing=18
				17:[U_CATEGORY_MACRO_MAX_COEC<0.012805] yes=35,no=36,missing=36
					35:[CAT_REL<0.020874] yes=71,no=72,missing=72
						71:leaf=-0.0245592
						72:leaf=0.0382218
					36:[D_CATEGORY_MACRO_MAX_COEC<0.055276] yes=73,no=74,missing=74
						73:leaf=-0.0426207
						74:leaf=-0.00854009
				18:[CAT_REL<0.077096] yes=37,no=38,missing=38
					37:[D_PUBLISHER_COEC<0.058948] yes=75,no=76,missing=76
						75:leaf=0.0232942
						76:leaf=-0.0299102
					38:[C_D_U_CATEGORY_AGE_MACRO_MEAN_COEC<0.12598] yes=77,no=78,missing=78
						77:leaf=0.103301
						78:leaf=-0.0672356
		4:[C_D_U_TITLEMD5_CITY_COEC<0.999999] yes=9,no=10,missing=10
			9:[CAT_REL<0.116071] yes=19,no=20,missing=20
				19:[D_CATEGORY_MICRO_MAX_COEC<0.06136] yes=39,no=40,missing=40
					39:[C_D_U_PUBLISHER_GENDER_COEC<0.083495] yes=79,no=80,missing=79
						79:leaf=0.0778295
						80:leaf=-0.117358
					40:[D_PUBLISHER_COEC<0.082722] yes=81,no=82,missing=82
						81:leaf=-0.0290686
						82:leaf=-0.00560581
				20:[TIME_OF_DAY<10] yes=41,no=42,missing=42
					41:[TIME_OF_DAY<4] yes=83,no=84,missing=84
						83:leaf=0.016721
						84:leaf=0.0607374
					42:[D_CATEGORY_MICRO_MAX_COEC<0.107188] yes=85,no=86,missing=86
						85:leaf=-0.00652619
						86:leaf=0.0597756
			10:[D_TITLEMD5_COEC<0.133463] yes=21,no=22,missing=21
				21:[DOC_AGE<12] yes=43,no=44,missing=44
					43:[D_TITLEMD5_COEC<0.047896] yes=87,no=88,missing=87
						87:leaf=-0.0854835
						88:leaf=-0.0127035
					44:[DOC_AGE<131] yes=89,no=90,missing=90
						89:leaf=-0.0299442
						90:leaf=-0.00105101
				22:[C_D_U_TITLEMD5_AGE_COEC<0.118703] yes=45,no=46,missing=46
					45:[TIME_OF_DAY<22] yes=91,no=92,missing=92
						91:leaf=-0.130652
						92:leaf=-0.0103195
					46:[C_D_U_CATEGORY_CITY_MACRO_MEAN_COEC<0.041923] yes=93,no=94,missing=94
						93:leaf=-0.0138465
						94:leaf=-0.00139611
	2:[IMAGE_COUNT<0.999999] yes=5,no=6,missing=6
		5:[U_CATEGORY_MACRO_MAX_COEC<0.019639] yes=11,no=12,missing=12
			11:[U_CITY_COEC<0.138122] yes=23,no=24,missing=23
				23:[C_D_U_KEYWORD_CATEGORY_MICRO_MEAN_COEC<0.109752] yes=47,no=48,missing=47
					47:[U_CATEGORY_MACRO_MAX_COEC<0.007323] yes=95,no=96,missing=96
						95:leaf=0.0146954
						96:leaf=-0.0304441
					48:[D_KEYWORD_MICRO_MEAN_COEC<0.081169] yes=97,no=98,missing=98
						97:leaf=0.021129
						98:leaf=-0.0105739
				24:[D_CATEGORY_MICRO_MAX_COEC<0.068445] yes=49,no=50,missing=50
					49:[C_D_U_KEYWORD_CATEGORY_MICRO_MEAN_COEC<0.082957] yes=99,no=100,missing=100
						99:leaf=0.20817
						100:leaf=0.0308145
					50:[D_TITLEMD5_COEC<0.087541] yes=101,no=102,missing=102
						101:leaf=0.0353335
						102:leaf=-0.0159146
			12:[C_D_U_TITLEMD5_CATEGORY_MACRO_MAX_COEC<0.053955] yes=25,no=26,missing=26
				25:[C_D_U_TITLEMD5_AGE_COEC<0.15446] yes=51,no=52,missing=52
					51:[C_D_U_CATEGORY_AGE_MACRO_MEAN_COEC<0.099061] yes=103,no=104,missing=104
						103:leaf=-0.0789888
						104:leaf=0.0249284
					52:[CAT_REL<0.055282] yes=105,no=106,missing=106
						105:leaf=-0.0515815
						106:leaf=-0.0298
				26:[DOC_AGE<41] yes=53,no=54,missing=54
					53:[D_PUBLISHER_COEC<0.105944] yes=107,no=108,missing=108
						107:leaf=-0.0575004
						108:leaf=-0.096377
					54:[DAY_OF_WEEK<6] yes=109,no=110,missing=110
						109:leaf=-0.0397806
						110:leaf=0.0657671
		6:[CAT_REL<0.039782] yes=13,no=14,missing=14
			13:[D_CATEGORY_MACRO_MAX_COEC<0.098394] yes=27,no=28,missing=28
				27:[D_PUBLISHER_COEC<0.097768] yes=55,no=56,missing=56
					55:[IMAGE_COUNT<2] yes=111,no=112,missing=112
						111:leaf=-0.0155946
						112:leaf=-0.00246427
					56:[D_PUBLISHER_COEC<0.142312] yes=113,no=114,missing=114
						113:leaf=-0.00233194
						114:leaf=0.0146811
				28:[D_CATEGORY_MACRO_MAX_COEC<0.442385] yes=57,no=58,missing=58
					57:[TIME_OF_DAY<8] yes=115,no=116,missing=116
						115:leaf=-0.00531772
						116:leaf=0.00153891
					58:[C_D_U_TITLEMD5_CATEGORY_MACRO_MAX_COEC<0.04617] yes=117,no=118,missing=118
						117:leaf=0.0160743
						118:leaf=0.00274065
			14:[D_CATEGORY_MICRO_MAX_COEC<0.102024] yes=29,no=30,missing=30
				29:[C_D_U_CATEGORY_CITY_MACRO_MEAN_COEC<0.100269] yes=59,no=60,missing=59
					59:[TIME_OF_DAY<15] yes=119,no=120,missing=120
						119:leaf=0.00624838
						120:leaf=-0.00145486
					60:[C_D_U_TITLEMD5_AGE_COEC<0.15755] yes=121,no=122,missing=121
						121:leaf=0.0115579
						122:leaf=0.0309263
				30:[D_TITLEMD5_COEC<0.158896] yes=61,no=62,missing=62
					61:[U_CATEGORY_MICRO_MAX_COEC<0.111951] yes=123,no=124,missing=124
						123:leaf=-0.00761217
						124:leaf=0.0031286
					62:[D_CATEGORY_MACRO_MAX_COEC<0.107524] yes=125,no=126,missing=126
						125:leaf=0.00385306
						126:leaf=0.0259324
booster[44]:
0:[D_KEYWORD_MACRO_MEAN_COEC<0.062527] yes=1,no=2,missing=1
	1:[C_D_U_TITLEMD5_CATEGORY_MACRO_MAX_COEC<0.026133] yes=3,no=4,missing=4
		3:[U_CITY_COEC<0.045676] yes=7,no=8,missing=8
			7:[C_D_U_TITLEMD5_CATEGORY_MACRO_MAX_COEC<0.021162] yes=15,no=16,missing=16
				15:[C_D_U_KEYWORD_CATEGORY_MICRO_MEAN_COEC<0.138699] yes=31,no=32,missing=32
					31:[D_CATEGORY_MACRO_MEAN_COEC<0.103139] yes=63,no=64,missing=63
						63:leaf=-0.0548829
						64:leaf=-0.0981551
					32:[CAT_REL<0.066483] yes=65,no=66,missing=66
						65:leaf=-0.0697294
						66:leaf=0.189115
				16:[CAT_REL<0.123915] yes=33,no=34,missing=34
					33:[D_CATEGORY_MICRO_MAX_COEC<0.061888] yes=67,no=68,missing=68
						67:leaf=0.0353537
						68:leaf=-0.0799136
					34:[D_KEYWORD_MICRO_MEAN_COEC<0.065297] yes=69,no=70,missing=70
						69:leaf=0.201573
						70:leaf=0.0602272
			8:[DOC_AGE<7] yes=17,no=18,missing=18
				17:[D_TITLEMD5_COEC<0.028922] yes=35,no=36,missing=36
					35:[C_D_U_CATEGORY_GENDER_MACRO_MEAN_COEC<0.132148] yes=71,no=72,missing=71
						71:leaf=-0.0132559
						72:leaf=0.197134
					36:[D_CATEGORY_MACRO_MAX_COEC<0.091073] yes=73,no=74,missing=73
						73:leaf=0.00322395
						74:leaf=0.026216
				18:[CAT_REL<0.041733] yes=37,no=38,missing=38
					37:[C_D_U_CATEGORY_CITY_MACRO_MEAN_COEC<0.104332] yes=75,no=76,missing=75
						75:leaf=-0.030109
						76:leaf=-0.00394046
					38:[U_CATEGORY_MACRO_MAX_COEC<0.037123] yes=77,no=78,missing=78
						77:leaf=-0.00278857
						78:leaf=-0.0478099
		4:[D_TITLEMD5_COEC<0.079554] yes=9,no=10,missing=9
			9:[D_KEYWORD_MACRO_MEAN_COEC<0.052303] yes=19,no=20,missing=19
				19:[CAT_REL<0.00471] yes=39,no=40,missing=40
					39:[DOC_AGE<2] yes=79,no=80,missing=80
						79:leaf=-0.0244842
						80:leaf=-0.0456545
					40:[D_PUBLISHER_COEC<0.049544] yes=81,no=82,missing=82
						81:leaf=-0.0317163
						82:leaf=-0.00110232
				20:[DOC_AGE<2] yes=41,no=42,missing=42
					41:[D_CATEGORY_MACRO_MAX_COEC<0.092514] yes=83,no=84,missing=84
						83:leaf=-0.00376162
						84:leaf=0.0620754
					42:[D_PUBLISHER_COEC<0.096688] yes=85,no=86,missing=86
						85:leaf=-0.0212025
						86:leaf=0.00426955
			10:[C_D_U_CATEGORY_CITY_MACRO_MEAN_COEC<0.106576] yes=21,no=22,missing=21
				21:[C_D_U_KEYWORD_CATEGORY_MICRO_MAX_COEC<0.203325] yes=43,no=44,missing=43
					43:[CAT_REL<0.094712] yes=87,no=88,missing=88
						87:leaf=-0.0543468
						88:leaf=-0.0302607
					44:[C_D_U_CATEGORY_GENDER_MACRO_MAX_COEC<0.059589] yes=89,no=90,missing=89
						89:leaf=-0.0678579
						90:leaf=-0.132342
				22:[U_CATEGORY_MACRO_MAX_COEC<0.011293] yes=45,no=46,missing=46
					45:[U_CATEGORY_MICRO_MAX_COEC<0.080857] yes=91,no=92,missing=92
						91:leaf=0.256539
						92:leaf=0.0147217
					46:[C_D_U_KEYWORD_CATEGORY_MICRO_MEAN_COEC<0.068499] yes=93,no=94,missing=94
						93:leaf=-0.105691
						94:leaf=-0.0152916
	2:[U_CATEGORY_MACRO_MAX_COEC<0.011293] yes=5,no=6,missing=6
		5:[C_D_U_TITLEMD5_AGE_COEC<0.105046] yes=11,no=12,missing=12
			11:[C_D_U_CATEGORY_CITY_MACRO_MAX_COEC<0.095332] yes=23,no=24,missing=23
				23:[C_D_U_TITLEMD5_CATEGORY_MICRO_MAX_COEC<0.12489] yes=47,no=48,missing=48
					47:[D_CATEGORY_MACRO_MAX_COEC<0.107524] yes=95,no=96,missing=96
						95:leaf=-0.0205234
						96:leaf=0.0389713
					48:[C_D_U_CATEGORY_GENDER_MICRO_MAX_COEC<0.105135] yes=97,no=98,missing=97
						97:leaf=-0.0310712
						98:leaf=-0.0650911
				24:[C_D_U_CATEGORY_GENDER_MACRO_MEAN_COEC<0.129645] yes=49,no=50,missing=49
					49:[D_CATEGORY_MACRO_MAX_COEC<0.05012] yes=99,no=100,missing=100
						99:leaf=0.0685913
						100:leaf=-0.0066956
					50:[DOC_AGE<45] yes=101,no=102,missing=102
						101:leaf=0.0364021
						102:leaf=0.228429
			12:[U_CATEGORY_MACRO_MAX_COEC<0.007276] yes=25,no=26,missing=26
				25:[IMAGE_COUNT<2] yes=51,no=52,missing=52
					51:[U_CITY_COEC<0.064827] yes=103,no=104,missing=104
						103:leaf=-0.0344786
						104:leaf=0.020072
					52:[C_D_U_KEYWORD_CATEGORY_MACRO_MEAN_COEC<0.006505] yes=105,no=106,missing=106
						105:leaf=0.0528043
						106:leaf=0.023919
				26:[U_CATEGORY_MICRO_MAX_COEC<0.094059] yes=53,no=54,missing=54
					53:[U_CITY_COEC<0.100824] yes=107,no=108,missing=107
						107:leaf=-0.000562881
						108:leaf=0.0147544
					54:[U_CATEGORY_MICRO_MAX_COEC<0.140607] yes=109,no=110,missing=110
						109:leaf=0.0125953
						110:leaf=0.0803977
		6:[CAT_REL<0.082443] yes=13,no=14,missing=14
			13:[D_TITLEMD5_COEC<0.09678] yes=27,no=28,missing=28
				27:[DOC_AGE<4] yes=55,no=56,missing=56
					55:[TIME_OF_DAY<16] yes=111,no=112,missing=112
						111:leaf=-0.000619845
						112:leaf=0.0210204
					56:[IMAGE_COUNT<2] yes=113,no=114,missing=114
						113:leaf=-0.0155166
						114:leaf=-0.00477247
				28:[DAY_OF_WEEK<6] yes=57,no=58,missing=58
					57:[DAY_OF_WEEK<0.999999] yes=115,no=116,missing=116
						115:leaf=0.00413927
						116:leaf=-0.00445671
					58:[D_PUBLISHER_COEC<0.117394] yes=117,no=118,missing=118
						117:leaf=0.0012308
						118:leaf=0.0154114
			14:[D_CATEGORY_MICRO_MAX_COEC<0.101542] yes=29,no=30,missing=30
				29:[C_D_U_CATEGORY_CITY_MACRO_MEAN_COEC<0.100326] yes=59,no=60,missing=59
					59:[TIME_OF_DAY<15] yes=119,no=120,missing=120
						119:leaf=0.00783665
						120:leaf=-0.00153688
					60:[DOC_AGE<12] yes=121,no=122,missing=122
						121:leaf=0.0170814
						122:leaf=0.00682656
				30:[D_CATEGORY_MACRO_MEAN_COEC<0.109347] yes=61,no=62,missing=62
					61:[DOC_AGE<69] yes=123,no=124,missing=124
						123:leaf=-0.00532598
						124:leaf=0.0171855
					62:[D_KEYWORD_MACRO_MEAN_COEC<0.119254] yes=125,no=126,missing=126
						125:leaf=0.00139254
						126:leaf=0.0333641
booster[45]:
0:[C_D_U_TITLEMD5_CITY_COEC<0.514811] yes=1,no=2,missing=2
	1:[DOC_AGE<24] yes=3,no=4,missing=4
		3:[U_CATEGORY_MICRO_MAX_COEC<0.104593] yes=7,no=8,missing=7
			7:[U_CATEGORY_MACRO_MAX_COEC<0.009899] yes=15,no=16,missing=16
				15:[CAT_REL<0.041577] yes=31,no=32,missing=32
					31:[C_D_U_KEYWORD_CATEGORY_MACRO_MEAN_COEC<0.007588] yes=63,no=64,missing=64
						63:leaf=0.0225665
						64:leaf=0.00541362
					32:[C_D_U_TITLEMD5_CATEGORY_MACRO_MAX_COEC<0.006426] yes=65,no=66,missing=66
						65:leaf=0.0496916
						66:leaf=0.0236276
				16:[C_D_U_CATEGORY_CITY_MACRO_MEAN_COEC<0.018739] yes=33,no=34,missing=33
					33:[D_TITLEMD5_COEC<0.029175] yes=67,no=68,missing=68
						67:leaf=-0.0264834
						68:leaf=0.0107982
					34:[C_D_U_TITLEMD5_CITY_COEC<0.110212] yes=69,no=70,missing=70
						69:leaf=-0.00282164
						70:leaf=0.00210272
			8:[U_CATEGORY_MACRO_MAX_COEC<0.042526] yes=17,no=18,missing=18
				17:[U_CITY_COEC<0.109653] yes=35,no=36,missing=36
					35:[CAT_REL<0.018477] yes=71,no=72,missing=72
						71:leaf=0.00452425
						72:leaf=0.0114331
					36:[C_D_U_TITLEMD5_CATEGORY_MICRO_MAX_COEC<0.080953] yes=73,no=74,missing=74
						73:leaf=0.0683759
						74:leaf=0.0184432
				18:[C_D_U_TITLEMD5_GENDER_COEC<0.188993] yes=37,no=38,missing=38
					37:[DOC_AGE<7] yes=75,no=76,missing=76
						75:leaf=0.00769693
						76:leaf=-0.0373479
					38:[D_CATEGORY_MICRO_MAX_COEC<0.082389] yes=77,no=78,missing=78
						77:leaf=-0.0323374
						78:leaf=-0.00407647
		4:[DOC_AGE<70] yes=9,no=10,missing=10
			9:[U_CATEGORY_MACRO_MAX_COEC<0.061558] yes=19,no=20,missing=19
				19:[D_PUBLISHER_COEC<0.12496] yes=39,no=40,missing=39
					39:[C_D_U_TITLEMD5_CITY_COEC<0.102021] yes=79,no=80,missing=80
						79:leaf=-0.0111677
						80:leaf=-0.00457633
					40:[WORD_COUNT<4700] yes=81,no=82,missing=82
						81:leaf=-0.00181536
						82:leaf=0.0220094
				20:[C_D_U_KEYWORD_CATEGORY_MACRO_MEAN_COEC<0.1034] yes=41,no=42,missing=42
					41:[D_CATEGORY_MICRO_MEAN_COEC<0.099272] yes=83,no=84,missing=83
						83:leaf=-0.0266133
						84:leaf=-0.0561894
					42:[U_CATEGORY_MICRO_MAX_COEC<0.083375] yes=85,no=86,missing=86
						85:leaf=0.0140774
						86:leaf=-0.0256676
			10:[C_D_U_KEYWORD_CATEGORY_MACRO_MAX_COEC<0.008305] yes=21,no=22,missing=22
				21:[TIME_OF_DAY<4] yes=43,no=44,missing=44
					43:[U_CITY_COEC<0.123169] yes=87,no=88,missing=88
						87:leaf=-0.0102995
						88:leaf=0.193486
					44:[C_D_U_CATEGORY_GENDER_MACRO_MEAN_COEC<0.118717] yes=89,no=90,missing=90
						89:leaf=-0.069786
						90:leaf=0.0420486
				22:[C_D_U_KEYWORD_CATEGORY_MICRO_MAX_COEC<0.246118] yes=45,no=46,missing=45
					45:[U_CITY_COEC<0.103817] yes=91,no=92,missing=92
						91:leaf=0.00240506
						92:leaf=0.0167494
					46:[D_CATEGORY_MICRO_MAX_COEC<0.073013] yes=93,no=94,missing=94
						93:leaf=0.105511
						94:leaf=0.0213013
	2:[U_CITY_COEC<0.092809] yes=5,no=6,missing=6
		5:[C_D_U_CATEGORY_CITY_MACRO_MAX_COEC<0.057793] yes=11,no=12,missing=12
			11:[D_KEYWORD_MACRO_MEAN_COEC<0.084863] yes=23,no=24,missing=24
				23:[U_CITY_COEC<0.03341] yes=47,no=48,missing=48
					47:[DOC_AGE<189] yes=95,no=96,missing=96
						95:leaf=-0.0446802
						96:leaf=0.0585603
					48:[CAT_REL<0.095674] yes=97,no=98,missing=98
						97:leaf=-0.0264486
						98:leaf=-0.013427
				24:[D_KEYWORD_MICRO_MAX_COEC<0.174548] yes=49,no=50,missing=50
					49:[DOC_AGE<13] yes=99,no=100,missing=100
						99:leaf=-0.00906964
						100:leaf=-0.021796
					50:[WORD_COUNT<896] yes=101,no=102,missing=102
						101:leaf=-0.0656609
						102:leaf=0.00424935
			12:[D_TITLEMD5_COEC<0.142407] yes=25,no=26,missing=26
				25:[CAT_REL<0.078074] yes=51,no=52,missing=52
					51:[U_CATEGORY_MACRO_MAX_COEC<0.008526] yes=103,no=104,missing=104
						103:leaf=0.0118877
						104:leaf=-0.0137973
					52:[D_CATEGORY_MICRO_MEAN_COEC<0.097382] yes=105,no=106,missing=106
						105:leaf=0.00494423
						106:leaf=-0.0159377
				26:[D_PUBLISHER_COEC<0.072227] yes=53,no=54,missing=54
					53:[C_D_U_KEYWORD_CATEGORY_MICRO_MAX_COEC<0.188586] yes=107,no=108,missing=108
						107:leaf=-0.0127813
						108:leaf=-0.0424381
					54:[CAT_REL<0.015579] yes=109,no=110,missing=110
						109:leaf=-0.00215255
						110:leaf=0.00874652
		6:[U_CATEGORY_MICRO_MAX_COEC<0.093368] yes=13,no=14,missing=13
			13:[D_PUBLISHER_COEC<0.087244] yes=27,no=28,missing=28
				27:[U_CATEGORY_MACRO_MAX_COEC<0.011275] yes=55,no=56,missing=56
					55:[TIME_OF_DAY<11] yes=111,no=112,missing=112
						111:leaf=-0.0137088
						112:leaf=0.0140523
					56:[D_CATEGORY_MACRO_MAX_COEC<0.060546] yes=113,no=114,missing=114
						113:leaf=-0.02537
						114:leaf=-0.0114643
				28:[DOC_AGE<70] yes=57,no=58,missing=58
					57:[U_CATEGORY_MACRO_MAX_COEC<0.012422] yes=115,no=116,missing=116
						115:leaf=0.00587673
						116:leaf=-0.0056899
					58:[C_D_U_CATEGORY_GENDER_MICRO_MEAN_COEC<0.124265] yes=117,no=118,missing=117
						117:leaf=0.00718912
						118:leaf=0.0833031
			14:[U_CITY_COEC<0.138688] yes=29,no=30,missing=29
				29:[DOC_AGE<189] yes=59,no=60,missing=60
					59:[DOC_AGE<26] yes=119,no=120,missing=120
						119:leaf=0.00154762
						120:leaf=-0.0115015
					60:[U_CATEGORY_MACRO_MAX_COEC<0.034113] yes=121,no=122,missing=122
						121:leaf=0.0599825
						122:leaf=0.0155457
				30:[C_D_U_CATEGORY_CITY_MACRO_MEAN_COEC<0.31479] yes=61,no=62,missing=62
					61:[C_D_U_TITLEMD5_CATEGORY_MICRO_MAX_COEC<0.080953] yes=123,no=124,missing=123
						123:leaf=0.0241035
						124:leaf=0.00571576
					62:[C_D_U_TITLEMD5_CATEGORY_MICRO_MAX_COEC<0.062685] yes=125,no=126,missing=126
						125:leaf=0.0528129
						126:leaf=0.0222551
booster[46]:
0:[IMAGE_COUNT<0.999999] yes=1,no=2,missing=2
	1:[U_CATEGORY_MACRO_MAX_COEC<0.033992] yes=3,no=4,missing=4
		3:[C_D_U_TITLEMD5_CATEGORY_MACRO_MAX_COEC<0.021105] yes=7,no=8,missing=8
			7:[C_D_U_CATEGORY_CITY_MICRO_MEAN_COEC<0.065576] yes=15,no=16,missing=16
				15:[U_CATEGORY_MICRO_MAX_COEC<0.123099] yes=31,no=32,missing=32
					31:[U_CITY_COEC<0.0834] yes=61,no=62,missing=62
						61:leaf=-0.0578809
						62:leaf=-0.0210409
					32:[C_D_U_CATEGORY_GENDER_MACRO_MAX_COEC<0.113124] yes=63,no=64,missing=64
						63:leaf=0.192681
						64:leaf=0.00614738
				16:[CAT_REL<0.172475] yes=33,no=34,missing=34
					33:[U_CATEGORY_MACRO_MAX_COEC<0.01132] yes=65,no=66,missing=66
						65:leaf=0.00128595
						66:leaf=-0.0210208
					34:[D_KEYWORD_MICRO_MAX_COEC<0.109205] yes=67,no=68,missing=68
						67:leaf=0.0548981
						68:leaf=-0.013337
			8:[D_CATEGORY_MICRO_MEAN_COEC<0.081328] yes=17,no=18,missing=18
				17:[U_CATEGORY_MACRO_MAX_COEC<0.008501] yes=35,no=36,missing=36
					35:[D_CATEGORY_MACRO_MAX_COEC<0.061236] yes=69,no=70,missing=70
						69:leaf=0.0462348
						70:leaf=-0.0564445
					36:[D_TITLEMD5_COEC<0.091138] yes=71,no=72,missing=71
						71:leaf=-0.0480243
						72:leaf=-0.0790816
				18:[C_D_U_TITLEMD5_AGE_COEC<0.183113] yes=37,no=38,missing=38
					37:[C_D_U_CATEGORY_AGE_MICRO_MAX_COEC<0.146451] yes=73,no=74,missing=74
						73:leaf=-0.00211782
						74:leaf=0.113445
					38:[CAT_REL<0.016532] yes=75,no=76,missing=76
						75:leaf=-0.0454575
						76:leaf=-0.0214451
		4:[U_CATEGORY_MICRO_MAX_COEC<0.12867] yes=9,no=10,missing=9
			9:[DOC_AGE<42] yes=19,no=20,missing=20
				19:[C_D_U_PUBLISHER_CITY_COEC<0.032593] yes=39,no=40,missing=40
					39:[C_D_U_TITLEMD5_AGE_COEC<0.116923] yes=77,no=78,missing=78
						77:leaf=0.0923686
						78:leaf=-0.0428925
					40:[U_CITY_COEC<0.198871] yes=79,no=80,missing=79
						79:leaf=-0.0633226
						80:leaf=0.0688497
				20:[C_D_U_CATEGORY_CITY_MACRO_MAX_COEC<0.116266] yes=41,no=42,missing=42
					41:[WORD_COUNT<888] yes=81,no=82,missing=82
						81:leaf=-0.0102125
						82:leaf=-0.0710168
					42:[U_CITY_COEC<0.094644] yes=83,no=84,missing=84
						83:leaf=0.099249
						84:leaf=-0.0134831
			10:[C_D_U_CATEGORY_CITY_MICRO_MAX_COEC<0.12959] yes=21,no=22,missing=21
				21:[DAY_OF_WEEK<4] yes=43,no=44,missing=44
					43:[D_KEYWORD_MICRO_MAX_COEC<0.123738] yes=85,no=86,missing=86
						85:leaf=0.117208
						86:leaf=-0.0855526
					44:[D_CATEGORY_MICRO_MAX_COEC<0.102785] yes=87,no=88,missing=88
						87:leaf=-0.0705317
						88:leaf=0.111725
				22:leaf=0.178811
	2:[U_CATEGORY_MICRO_MAX_COEC<0.112684] yes=5,no=6,missing=5
		5:[D_TITLEMD5_COEC<0.087728] yes=11,no=12,missing=12
			11:[U_CATEGORY_MACRO_MAX_COEC<0.010802] yes=23,no=24,missing=24
				23:[C_D_U_CATEGORY_AGE_MICRO_MEAN_COEC<0.130031] yes=45,no=46,missing=46
					45:[CAT_REL<0.073805] yes=89,no=90,missing=90
						89:leaf=-0.0147748
						90:leaf=0.0122534
					46:[C_D_U_CATEGORY_GENDER_MACRO_MEAN_COEC<0.128495] yes=91,no=92,missing=92
						91:leaf=-0.0185061
						92:leaf=0.00885247
				24:[CAT_REL<0.151769] yes=47,no=48,missing=48
					47:[D_CATEGORY_MACRO_MAX_COEC<0.131972] yes=93,no=94,missing=94
						93:leaf=-0.0130482
						94:leaf=0.00827879
					48:[D_CATEGORY_MICRO_MAX_COEC<0.067812] yes=95,no=96,missing=96
						95:leaf=0.0274403
						96:leaf=-0.00256749
			12:[DAY_OF_WEEK<6] yes=25,no=26,missing=26
				25:[DAY_OF_WEEK<0.999999] yes=49,no=50,missing=50
					49:[TIME_OF_DAY<19] yes=97,no=98,missing=98
						97:leaf=0.00661548
						98:leaf=-0.00461825
					50:[CAT_REL<0.091351] yes=99,no=100,missing=100
						99:leaf=-0.00484834
						100:leaf=0.00380466
				26:[D_PUBLISHER_COEC<0.116885] yes=51,no=52,missing=52
					51:[DOC_AGE<13] yes=101,no=102,missing=102
						101:leaf=0.00635656
						102:leaf=-0.00377616
					52:[D_KEYWORD_MICRO_MEAN_COEC<0.095089] yes=103,no=104,missing=104
						103:leaf=0.0315746
						104:leaf=0.00999103
		6:[U_CATEGORY_MACRO_MAX_COEC<0.061429] yes=13,no=14,missing=14
			13:[C_D_U_CATEGORY_CITY_MACRO_MAX_COEC<0.099701] yes=27,no=28,missing=28
				27:[D_KEYWORD_MACRO_MEAN_COEC<0.096177] yes=53,no=54,missing=54
					53:[TIME_OF_DAY<23] yes=105,no=106,missing=106
						105:leaf=-0.00288647
						106:leaf=-0.0290548
					54:[CAT_REL<0.091351] yes=107,no=108,missing=108
						107:leaf=0.00431914
						108:leaf=0.0198203
				28:[C_D_U_TITLEMD5_CATEGORY_MACRO_MAX_COEC<0.013473] yes=55,no=56,missing=55
					55:[U_CATEGORY_MICRO_MAX_COEC<0.123099] yes=109,no=110,missing=110
						109:leaf=0.0124258
						110:leaf=0.0321198
					56:[D_KEYWORD_MACRO_MAX_COEC<0.090401] yes=111,no=112,missing=112
						111:leaf=0.00601783
						112:leaf=0.0224653
			14:[D_KEYWORD_MACRO_MEAN_COEC<0.105328] yes=29,no=30,missing=30
				29:[U_CITY_COEC<0.091971] yes=57,no=58,missing=57
					57:[TIME_OF_DAY<8] yes=113,no=114,missing=114
						113:leaf=-0.0429503
						114:leaf=-0.0132238
					58:[U_CATEGORY_MICRO_MAX_COEC<0.121182] yes=115,no=116,missing=116
						115:leaf=-0.0418334
						116:leaf=-0.0867425
				30:[CAT_REL<0.534303] yes=59,no=60,missing=60
					59:[TIME_OF_DAY<8] yes=117,no=118,missing=118
						117:leaf=-0.0362818
						118:leaf=-0.00165371
					60:[TIME_OF_DAY<8] yes=119,no=120,missing=120
						119:leaf=0.0846085
						120:leaf=-0.000533151
booster[47]:
0:[C_D_U_PUBLISHER_CITY_COEC<0.123482] yes=1,no=2,missing=1
	1:[D_KEYWORD_MACRO_MEAN_COEC<0.062808] yes=3,no=4,missing=3
		3:[U_CATEGORY_MACRO_MAX_COEC<0.02122] yes=7,no=8,missing=8
			7:[C_D_U_CATEGORY_CITY_MICRO_MEAN_COEC<0.075966] yes=15,no=16,missing=16
				15:[C_D_U_TITLEMD5_CITY_COEC<0.201659] yes=31,no=32,missing=32
					31:[U_CITY_COEC<0.113361] yes=63,no=64,missing=64
						63:leaf=-0.00944313
						64:leaf=0.167561
					32:[U_CITY_COEC<0.075073] yes=65,no=66,missing=66
						65:leaf=-0.0402991
						66:leaf=-0.0206921
				16:[CAT_REL<0.086051] yes=33,no=34,missing=34
					33:[U_CATEGORY_MACRO_MAX_COEC<0.00726] yes=67,no=68,missing=68
						67:leaf=0.0219404
						68:leaf=-0.00941449
					34:[C_D_U_CATEGORY_GENDER_MACRO_MAX_COEC<0.052788] yes=69,no=70,missing=70
						69:leaf=0.133811
						70:leaf=0.00756217
			8:[D_TITLEMD5_COEC<0.084451] yes=17,no=18,missing=17
				17:[DOC_AGE<6] yes=35,no=36,missing=36
					35:[D_TITLEMD5_COEC<0.028813] yes=71,no=72,missing=71
						71:leaf=-0.0198487
						72:leaf=-0.00252906
					36:[CAT_REL<0.182288] yes=73,no=74,missing=74
						73:leaf=-0.0315022
						74:leaf=-0.00578016
				18:[C_D_U_TITLEMD5_CATEGORY_MICRO_MAX_COEC<0.318097] yes=37,no=38,missing=37
					37:[C_D_U_KEYWORD_CATEGORY_MACRO_MEAN_COEC<0.018938] yes=75,no=76,missing=75
						75:leaf=-0.052203
						76:leaf=-0.026821
					38:[D_CATEGORY_MACRO_MEAN_COEC<0.10664] yes=77,no=78,missing=77
						77:leaf=-0.0965573
						78:leaf=0.0347497
		4:[DOC_AGE<12] yes=9,no=10,missing=10
			9:[C_D_U_TITLEMD5_CATEGORY_MACRO_MAX_COEC<0.034501] yes=19,no=20,missing=20
				19:[U_CATEGORY_MACRO_MAX_COEC<0.043026] yes=39,no=40,missing=40
					39:[CAT_REL<0.071295] yes=79,no=80,missing=80
						79:leaf=0.00184806
						80:leaf=0.00835354
					40:[TIME_OF_DAY<8] yes=81,no=82,missing=82
						81:leaf=-0.0301631
						82:leaf=-0.00914098
				20:[D_KEYWORD_MACRO_MEAN_COEC<0.086601] yes=41,no=42,missing=42
					41:[CAT_REL<0.136872] yes=83,no=84,missing=84
						83:leaf=-0.0130553
						84:leaf=0.00200899
					42:[DOC_AGE<5] yes=85,no=86,missing=86
						85:leaf=-0.00861628
						86:leaf=0.000872694
			10:[DOC_AGE<78] yes=21,no=22,missing=22
				21:[D_CATEGORY_MICRO_MAX_COEC<0.107492] yes=43,no=44,missing=44
					43:[D_TITLEMD5_COEC<0.075908] yes=87,no=88,missing=88
						87:leaf=-0.017554
						88:leaf=-0.00590823
					44:[D_CATEGORY_MACRO_MEAN_COEC<0.106429] yes=89,no=90,missing=89
						89:leaf=0.00859231
						90:leaf=-0.000256395
				22:[D_KEYWORD_MACRO_MAX_COEC<0.0236] yes=45,no=46,missing=46
					45:[D_KEYWORD_MICRO_MEAN_COEC<0.097906] yes=91,no=92,missing=92
						91:leaf=0.0286296
						92:leaf=0.0075037
					46:[U_CATEGORY_MICRO_MAX_COEC<0.101325] yes=93,no=94,missing=93
						93:leaf=0.00292263
						94:leaf=0.0191283
	2:[U_CATEGORY_MICRO_MAX_COEC<0.102481] yes=5,no=6,missing=5
		5:[U_CITY_COEC<0.198712] yes=11,no=12,missing=12
			11:[D_PUBLISHER_COEC<0.125016] yes=23,no=24,missing=24
				23:[DOC_AGE<78] yes=47,no=48,missing=48
					47:[DAY_OF_WEEK<0.999999] yes=95,no=96,missing=96
						95:leaf=0.00473239
						96:leaf=-0.00242021
					48:[C_D_U_PUBLISHER_CITY_COEC<0.149513] yes=97,no=98,missing=98
						97:leaf=0.00383026
						98:leaf=0.0198022
				24:[D_KEYWORD_MICRO_MEAN_COEC<0.094952] yes=49,no=50,missing=50
					49:[WORD_COUNT<1442] yes=99,no=100,missing=100
						99:leaf=-0.00595933
						100:leaf=0.024026
					50:[D_KEYWORD_MACRO_MAX_COEC<0.090651] yes=101,no=102,missing=102
						101:leaf=0.00228662
						102:leaf=0.0126519
			12:[C_D_U_TITLEMD5_CITY_COEC<0.482462] yes=25,no=26,missing=25
				25:[TIME_OF_DAY<20] yes=51,no=52,missing=52
					51:[C_D_U_CATEGORY_CITY_MACRO_MAX_COEC<0.306758] yes=103,no=104,missing=103
						103:leaf=0.025256
						104:leaf=0.0516356
					52:[DAY_OF_WEEK<6] yes=105,no=106,missing=106
						105:leaf=-0.0112759
						106:leaf=0.0454257
				26:[CAT_REL<0.018485] yes=53,no=54,missing=54
					53:[WORD_COUNT<5621] yes=107,no=108,missing=108
						107:leaf=-0.0117649
						108:leaf=0.0808956
					54:[D_TITLEMD5_COEC<0.218729] yes=109,no=110,missing=110
						109:leaf=-0.107958
						110:leaf=0.111044
		6:[U_CATEGORY_MACRO_MAX_COEC<0.038689] yes=13,no=14,missing=14
			13:[DOC_AGE<78] yes=27,no=28,missing=28
				27:[DOC_AGE<25] yes=55,no=56,missing=56
					55:[D_TITLEMD5_COEC<0.162134] yes=111,no=112,missing=112
						111:leaf=0.00935071
						112:leaf=0.0165692
					56:[C_D_U_CATEGORY_CITY_MACRO_MAX_COEC<0.091689] yes=113,no=114,missing=114
						113:leaf=-0.0131863
						114:leaf=0.00441235
				28:[D_CATEGORY_MICRO_MAX_COEC<0.118968] yes=57,no=58,missing=57
					57:[U_CATEGORY_MACRO_MAX_COEC<0.020995] yes=115,no=116,missing=116
						115:leaf=0.0043519
						116:leaf=0.0476301
					58:[C_D_U_CATEGORY_CITY_MACRO_MEAN_COEC<0.10184] yes=117,no=118,missing=117
						117:leaf=0.346458
						118:leaf=0.122612
			14:[CAT_REL<0.20736] yes=29,no=30,missing=30
				29:[TIME_OF_DAY<8] yes=59,no=60,missing=60
					59:[TIME_OF_DAY<3] yes=119,no=120,missing=120
						119:leaf=0.000681554
						120:leaf=-0.0455072
					60:[C_D_U_TITLEMD5_CITY_COEC<0.061466] yes=121,no=122,missing=121
						121:leaf=-0.0163016
						122:leaf=0.00765963
				30:[TIME_OF_DAY<10] yes=61,no=62,missing=62
					61:[TIME_OF_DAY<4] yes=123,no=124,missing=124
						123:leaf=-0.0100254
						124:leaf=0.060845
					62:[D_CATEGORY_MICRO_MAX_COEC<0.104611] yes=125,no=126,missing=126
						125:leaf=-0.0161405
						126:leaf=0.0160828
booster[48]:
0:[C_D_U_TITLEMD5_CITY_COEC<0.999999] yes=1,no=2,missing=2
	1:[TIME_OF_DAY<23] yes=3,no=4,missing=4
		3:[U_CATEGORY_MACRO_MAX_COEC<0.041934] yes=7,no=8,missing=7
			7:[DOC_AGE<13] yes=15,no=16,missing=16
				15:[U_CATEGORY_MICRO_MAX_COEC<0.094028] yes=31,no=32,missing=31
					31:[C_D_U_TITLEMD5_AGE_COEC<0.11139] yes=63,no=64,missing=63
						63:leaf=0.00164182
						64:leaf=0.0137962
					32:[U_CATEGORY_MACRO_MAX_COEC<0.013434] yes=65,no=66,missing=66
						65:leaf=0.0150426
						66:leaf=0.00619604
				16:[C_D_U_CATEGORY_CITY_MACRO_MAX_COEC<0.106536] yes=33,no=34,missing=34
					33:[D_KEYWORD_MACRO_MAX_COEC<0.068543] yes=67,no=68,missing=68
						67:leaf=-0.00347234
						68:leaf=0.00406707
					34:[U_CATEGORY_MICRO_MAX_COEC<0.108625] yes=69,no=70,missing=69
						69:leaf=0.00255739
						70:leaf=0.010352
			8:[CAT_REL<0.405484] yes=17,no=18,missing=18
				17:[TIME_OF_DAY<8] yes=35,no=36,missing=36
					35:[TIME_OF_DAY<4] yes=71,no=72,missing=72
						71:leaf=-0.00610098
						72:leaf=-0.0433417
					36:[CAT_REL<0.023537] yes=73,no=74,missing=74
						73:leaf=0.00248299
						74:leaf=-0.0103536
				18:[TIME_OF_DAY<10] yes=37,no=38,missing=38
					37:[TIME_OF_DAY<4] yes=75,no=76,missing=76
						75:leaf=-0.00564855
						76:leaf=0.0544994
					38:[C_D_U_CATEGORY_GENDER_MICRO_MAX_COEC<0.116446] yes=77,no=78,missing=78
						77:leaf=0.053813
						78:leaf=-0.00621506
		4:[D_KEYWORD_MICRO_MEAN_COEC<0.123557] yes=9,no=10,missing=10
			9:[D_TITLEMD5_COEC<0.162334] yes=19,no=20,missing=20
				19:[C_D_U_CATEGORY_GENDER_MICRO_MEAN_COEC<0.098801] yes=39,no=40,missing=39
					39:[U_CATEGORY_MICRO_MAX_COEC<0.086494] yes=79,no=80,missing=79
						79:leaf=-0.0130661
						80:leaf=-0.0025291
					40:[U_CATEGORY_MICRO_MAX_COEC<0.088327] yes=81,no=82,missing=82
						81:leaf=-0.0509691
						82:leaf=-0.022909
				20:[C_D_U_CATEGORY_CITY_MICRO_MAX_COEC<0.174954] yes=41,no=42,missing=42
					41:[C_D_U_PUBLISHER_AGE_COEC<0.150251] yes=83,no=84,missing=83
						83:leaf=0.00528028
						84:leaf=0.0530439
					42:[DOC_AGE<11] yes=85,no=86,missing=86
						85:leaf=0.0631294
						86:leaf=-0.0169855
			10:[WORD_COUNT<5621] yes=21,no=22,missing=22
				21:[D_PUBLISHER_COEC<0.10976] yes=43,no=44,missing=44
					43:[D_KEYWORD_MACRO_MEAN_COEC<0.154323] yes=87,no=88,missing=88
						87:leaf=-0.00902391
						88:leaf=-0.139717
					44:[WORD_COUNT<3290] yes=89,no=90,missing=90
						89:leaf=-0.0257566
						90:leaf=-0.0513814
				22:[U_CATEGORY_MACRO_MAX_COEC<0.012175] yes=45,no=46,missing=46
					45:[C_D_U_KEYWORD_CATEGORY_MICRO_MAX_COEC<0.171444] yes=91,no=92,missing=92
						91:leaf=-0.141021
						92:leaf=-0.0216416
					46:[U_CATEGORY_MACRO_MAX_COEC<0.019279] yes=93,no=94,missing=93
						93:leaf=0.0273087
						94:leaf=-0.0157287
	2:[C_D_U_CATEGORY_CITY_MICRO_MEAN_COEC<0.121433] yes=5,no=6,missing=6
		5:[C_D_U_TITLEMD5_AGE_COEC<0.099483] yes=11,no=12,missing=11
			11:[D_KEYWORD_MICRO_MAX_COEC<0.129261] yes=23,no=24,missing=23
				23:[U_CITY_COEC<0.071773] yes=47,no=48,missing=47
					47:[DOC_AGE<2] yes=95,no=96,missing=96
						95:leaf=0.0109271
						96:leaf=-0.0216644
					48:[D_CATEGORY_MACRO_MAX_COEC<0.053158] yes=97,no=98,missing=98
						97:leaf=-0.0203912
						98:leaf=-0.00913782
				24:[D_PUBLISHER_COEC<0.049764] yes=49,no=50,missing=49
					49:[D_TITLEMD5_COEC<0.136346] yes=99,no=100,missing=99
						99:leaf=-0.0251711
						100:leaf=-0.0539419
					50:[D_KEYWORD_MICRO_MAX_COEC<0.174426] yes=101,no=102,missing=102
						101:leaf=-0.00639285
						102:leaf=0.0020799
			12:[DOC_AGE<22] yes=25,no=26,missing=26
				25:[U_CATEGORY_MACRO_MAX_COEC<0.03286] yes=51,no=52,missing=52
					51:[U_CATEGORY_MICRO_MAX_COEC<0.085711] yes=103,no=104,missing=104
						103:leaf=-0.00169633
						104:leaf=0.0127906
					52:[C_D_U_CATEGORY_GENDER_MACRO_MAX_COEC<0.128874] yes=105,no=106,missing=106
						105:leaf=-0.0170589
						106:leaf=0.00905623
				26:[D_TITLEMD5_COEC<0.084123] yes=53,no=54,missing=54
					53:[C_D_U_KEYWORD_CATEGORY_MICRO_MEAN_COEC<0.108302] yes=107,no=108,missing=107
						107:leaf=-0.0632962
						108:leaf=-0.0151481
					54:[C_D_U_CATEGORY_CITY_MACRO_MAX_COEC<0.089078] yes=109,no=110,missing=110
						109:leaf=-0.0149009
						110:leaf=0.0165509
		6:[U_CITY_COEC<0.113397] yes=13,no=14,missing=13
			13:[U_CATEGORY_MACRO_MAX_COEC<0.013805] yes=27,no=28,missing=28
				27:[U_CATEGORY_MICRO_MAX_COEC<0.123426] yes=55,no=56,missing=56
					55:[CAT_REL<0.053845] yes=111,no=112,missing=112
						111:leaf=-0.000154406
						112:leaf=0.0110903
					56:[D_CATEGORY_MACRO_MAX_COEC<0.106302] yes=113,no=114,missing=113
						113:leaf=0.0222132
						114:leaf=0.0813818
				28:[D_KEYWORD_MACRO_MEAN_COEC<0.068366] yes=57,no=58,missing=58
					57:[D_TITLEMD5_COEC<0.11484] yes=115,no=116,missing=115
						115:leaf=-0.0155365
						116:leaf=-0.0504597
					58:[D_TITLEMD5_COEC<0.159176] yes=117,no=118,missing=118
						117:leaf=-0.00458255
						118:leaf=0.00200338
			14:[U_CITY_COEC<0.201405] yes=29,no=30,missing=30
				29:[D_CATEGORY_MICRO_MAX_COEC<0.106824] yes=59,no=60,missing=60
					59:[C_D_U_PUBLISHER_CITY_COEC<0.236509] yes=119,no=120,missing=119
						119:leaf=0.00117675
						120:leaf=0.0121136
					60:[C_D_U_CATEGORY_AGE_MICRO_MEAN_COEC<0.128504] yes=121,no=122,missing=121
						121:leaf=0.0118196
						122:leaf=0.0477388
				30:[TIME_OF_DAY<21] yes=61,no=62,missing=62
					61:[C_D_U_CATEGORY_GENDER_MICRO_MEAN_COEC<0.123527] yes=123,no=124,missing=124
						123:leaf=-0.00102258
						124:leaf=0.0245452
					62:[U_CATEGORY_MICRO_MAX_COEC<0.105791] yes=125,no=126,missing=125
						125:leaf=-0.0150455
						126:leaf=0.0207377
booster[49]:
0:[IMAGE_COUNT<0.999999] yes=1,no=2,missing=2
	1:[U_CATEGORY_MACRO_MAX_COEC<0.022284] yes=3,no=4,missing=4
		3:[D_KEYWORD_MICRO_MAX_COEC<0.140467] yes=7,no=8,missing=8
			7:[D_CATEGORY_MICRO_MAX_COEC<0.099288] yes=15,no=16,missing=16
				15:[CAT_REL<0.016082] yes=31,no=32,missing=32
					31:[C_D_U_TITLEMD5_CATEGORY_MICRO_MAX_COEC<0.119484] yes=63,no=64,missing=63
						63:leaf=-0.0475843
						64:leaf=-0.0115108
					32:[U_CATEGORY_MACRO_MAX_COEC<0.010913] yes=65,no=66,missing=66
						65:leaf=0.00541809
						66:leaf=-0.0171077
				16:[U_CATEGORY_MICRO_MAX_COEC<0.12332] yes=33,no=34,missing=34
					33:[DOC_AGE<22] yes=67,no=68,missing=68
						67:leaf=0.00302815
						68:leaf=-0.034498
					34:[C_D_U_CATEGORY_AGE_MACRO_MAX_COEC<0.122086] yes=69,no=70,missing=69
						69:leaf=0.0867068
						70:leaf=-0.0617897
			8:[D_KEYWORD_MACRO_MEAN_COEC<0.092422] yes=17,no=18,missing=18
				17:[D_CATEGORY_MICRO_MEAN_COEC<0.081381] yes=35,no=36,missing=36
					35:[DOC_AGE<3] yes=71,no=72,missing=72
						71:leaf=0.0300857
						72:leaf=-0.0807417
					36:[C_D_U_TITLEMD5_CATEGORY_MACRO_MAX_COEC<0.069937] yes=73,no=74,missing=74
						73:leaf=0.00179743
						74:leaf=-0.0614585
				18:[U_CATEGORY_MICRO_MAX_COEC<0.140541] yes=37,no=38,missing=38
					37:[C_D_U_TITLEMD5_CATEGORY_MACRO_MAX_COEC<0.044803] yes=75,no=76,missing=75
						75:leaf=-0.0612309
						76:leaf=-0.119397
					38:leaf=0.0978275
		4:[C_D_U_TITLEMD5_AGE_COEC<0.182867] yes=9,no=10,missing=10
			9:[C_D_U_KEYWORD_CATEGORY_MICRO_MEAN_COEC<0.163949] yes=19,no=20,missing=19
				19:[C_D_U_PUBLISHER_AGE_COEC<0.153251] yes=39,no=40,missing=39
					39:[C_D_U_PUBLISHER_AGE_COEC<0.03702] yes=77,no=78,missing=77
						77:leaf=-0.0864929
						78:leaf=-0.00234979
					40:leaf=0.200388
				20:[D_PUBLISHER_COEC<0.069772] yes=41,no=42,missing=42
					41:[C_D_U_PUBLISHER_GENDER_COEC<0.066279] yes=79,no=80,missing=80
						79:leaf=0.129969
						80:leaf=0.343554
					42:[U_CITY_COEC<0.092235] yes=81,no=82,missing=81
						81:leaf=-0.122515
						82:leaf=0.0890406
			10:[C_D_U_PUBLISHER_GENDER_COEC<0.138972] yes=21,no=22,missing=22
				21:[D_KEYWORD_MACRO_MEAN_COEC<0.084783] yes=43,no=44,missing=44
					43:[D_KEYWORD_MICRO_MAX_COEC<0.166436] yes=83,no=84,missing=84
						83:leaf=-0.0773002
						84:leaf=0.132452
					44:[D_CATEGORY_MICRO_MAX_COEC<0.087347] yes=85,no=86,missing=85
						85:leaf=-0.0675958
						86:leaf=-0.123178
				22:[U_CITY_COEC<0.105604] yes=45,no=46,missing=45
					45:[D_KEYWORD_MICRO_MAX_COEC<0.145109] yes=87,no=88,missing=88
						87:leaf=-0.0421924
						88:leaf=-0.0702836
					46:[C_D_U_CATEGORY_CITY_MACRO_MEAN_COEC<0.062112] yes=89,no=90,missing=90
						89:leaf=-0.0715591
						90:leaf=-0.00541937
	2:[DOC_AGE<98] yes=5,no=6,missing=6
		5:[DOC_AGE<24] yes=11,no=12,missing=12
			11:[U_CATEGORY_MACRO_MAX_COEC<0.029043] yes=23,no=24,missing=24
				23:[U_CATEGORY_MICRO_MAX_COEC<0.094334] yes=47,no=48,missing=48
					47:[U_CATEGORY_MACRO_MAX_COEC<0.00725] yes=91,no=92,missing=92
						91:leaf=0.018607
						92:leaf=-0.00136724
					48:[CAT_REL<0.071762] yes=93,no=94,missing=94
						93:leaf=0.00251418
						94:leaf=0.00888459
				24:[D_KEYWORD_MACRO_MEAN_COEC<0.082] yes=49,no=50,missing=49
					49:[WORD_COUNT<4173] yes=95,no=96,missing=96
						95:leaf=-0.009663
						96:leaf=-0.0248363
					50:[D_KEYWORD_MACRO_MAX_COEC<0.020438] yes=97,no=98,missing=98
						97:leaf=-0.0204719
						98:leaf=-0.000826343
			12:[D_TITLEMD5_COEC<0.076454] yes=25,no=26,missing=25
				25:[C_D_U_CATEGORY_CITY_MACRO_MEAN_COEC<0.121266] yes=51,no=52,missing=51
					51:[U_CATEGORY_MACRO_MAX_COEC<0.020526] yes=99,no=100,missing=100
						99:leaf=-0.0175295
						100:leaf=-0.0339522
					52:[D_KEYWORD_MACRO_MAX_COEC<0.068192] yes=101,no=102,missing=102
						101:leaf=0.00709254
						102:leaf=-0.0581733
				26:[TIME_OF_DAY<8] yes=53,no=54,missing=54
					53:[CAT_REL<0.18055] yes=103,no=104,missing=104
						103:leaf=-0.0127485
						104:leaf=0.00879964
					54:[TIME_OF_DAY<23] yes=105,no=106,missing=106
						105:leaf=-0.00222168
						106:leaf=-0.0174129
		6:[C_D_U_TITLEMD5_CATEGORY_MACRO_MAX_COEC<0.091998] yes=13,no=14,missing=14
			13:[U_CATEGORY_MICRO_MAX_COEC<0.10635] yes=27,no=28,missing=28
				27:[U_CITY_COEC<0.096851] yes=55,no=56,missing=56
					55:[C_D_U_TITLEMD5_CATEGORY_MICRO_MAX_COEC<0.089145] yes=107,no=108,missing=108
						107:leaf=-0.0116821
						108:leaf=0.0201489
					56:[C_D_U_CATEGORY_GENDER_MACRO_MAX_COEC<0.066938] yes=109,no=110,missing=109
						109:leaf=0.0273723
						110:leaf=0.0763944
				28:[U_CATEGORY_MACRO_MAX_COEC<0.051532] yes=57,no=58,missing=58
					57:[D_TITLEMD5_COEC<0.089827] yes=111,no=112,missing=112
						111:leaf=0.0829391
						112:leaf=0.0403705
					58:[DAY_OF_WEEK<4] yes=113,no=114,missing=114
						113:leaf=0.0499037
						114:leaf=-0.0243181
			14:[D_PUBLISHER_COEC<0.060117] yes=29,no=30,missing=29
				29:[D_KEYWORD_MICRO_MAX_COEC<0.149345] yes=59,no=60,missing=60
					59:[U_CITY_COEC<0.109367] yes=115,no=116,missing=115
						115:leaf=-0.0297156
						116:leaf=0.0322472
					60:[C_D_U_CATEGORY_CITY_MACRO_MAX_COEC<0.046346] yes=117,no=118,missing=117
						117:leaf=-0.0556823
						118:leaf=-0.115194
				30:[DOC_AGE<132] yes=61,no=62,missing=62
					61:[D_KEYWORD_MACRO_MAX_COEC<0.021396] yes=119,no=120,missing=120
						119:leaf=0.0462458
						120:leaf=0.0129484
					62:[D_TITLEMD5_COEC<0.219366] yes=121,no=122,missing=122
						121:leaf=0.00630495
						122:leaf=-0.0685505
booster[50]:
0:[D_TITLEMD5_COEC<0.029847] yes=1,no=2,missing=2
	1:[DOC_AGE<3] yes=3,no=4,missing=4
		3:[D_CATEGORY_MACRO_MAX_COEC<0.052958] yes=7,no=8,missing=7
			7:[WORD_COUNT<787] yes=15,no=16,missing=16
				15:[C_D_U_PUBLISHER_CITY_COEC<0.074871] yes=31,no=32,missing=31
					31:[D_CATEGORY_MICRO_MEAN_COEC<0.086529] yes=63,no=64,missing=63
						63:leaf=-0.00729353
						64:leaf=0.133185
					32:[C_D_U_KEYWORD_CATEGORY_MICRO_MEAN_COEC<0.109957] yes=65,no=66,missing=65
						65:leaf=0.0531313
						66:leaf=0.270022
				16:[TIME_OF_DAY<5] yes=33,no=34,missing=34
					33:[CAT_REL<0.082749] yes=67,no=68,missing=68
						67:leaf=-0.0397508
						68:leaf=0.027777
					34:[TIME_OF_DAY<11] yes=69,no=70,missing=70
						69:leaf=0.0210307
						70:leaf=-0.0216354
			8:[U_CATEGORY_MICRO_MAX_COEC<0.099329] yes=17,no=18,missing=17
				17:[TIME_OF_DAY<23] yes=35,no=36,missing=36
					35:[C_D_U_KEYWORD_CATEGORY_MACRO_MEAN_COEC<0.02046] yes=71,no=72,missing=72
						71:leaf=-0.0084676
						72:leaf=0.0129866
					36:[C_D_U_TITLEMD5_CATEGORY_MACRO_MAX_COEC<0.010127] yes=73,no=74,missing=74
						73:leaf=-0.0303324
						74:leaf=-0.079576
				18:[D_KEYWORD_MACRO_MAX_COEC<0.019075] yes=37,no=38,missing=38
					37:[U_CITY_COEC<0.074412] yes=75,no=76,missing=76
						75:leaf=0.0839049
						76:leaf=-0.00643983
					38:[C_D_U_KEYWORD_CATEGORY_MICRO_MAX_COEC<0.169205] yes=77,no=78,missing=77
						77:leaf=0.0272377
						78:leaf=0.0807278
		4:[C_D_U_TITLEMD5_CATEGORY_MICRO_MAX_COEC<0.092233] yes=9,no=10,missing=9
			9:[CAT_REL<0.06114] yes=19,no=20,missing=20
				19:[TIME_OF_DAY<6] yes=39,no=40,missing=40
					39:[C_D_U_CATEGORY_CITY_MICRO_MEAN_COEC<0.082717] yes=79,no=80,missing=80
						79:leaf=-0.051556
						80:leaf=-0.0296946
					40:[TIME_OF_DAY<12] yes=81,no=82,missing=82
						81:leaf=-0.00185894
						82:leaf=-0.0291261
				20:[TIME_OF_DAY<4] yes=41,no=42,missing=42
					41:[U_CATEGORY_MACRO_MAX_COEC<0.036871] yes=83,no=84,missing=84
						83:leaf=-0.0172073
						84:leaf=-0.0622908
					42:[C_D_U_CATEGORY_CITY_MACRO_MEAN_COEC<0.109165] yes=85,no=86,missing=86
						85:leaf=-0.0125876
						86:leaf=0.013851
			10:[U_CATEGORY_MICRO_MAX_COEC<0.080792] yes=21,no=22,missing=22
				21:[C_D_U_KEYWORD_CATEGORY_MICRO_MAX_COEC<0.171873] yes=43,no=44,missing=44
					43:[U_CITY_COEC<0.09252] yes=87,no=88,missing=87
						87:leaf=-0.0942721
						88:leaf=0.0332983
					44:[TIME_OF_DAY<7] yes=89,no=90,missing=90
						89:leaf=-0.0995306
						90:leaf=0.142376
				22:[D_KEYWORD_MICRO_MAX_COEC<0.147878] yes=45,no=46,missing=46
					45:[C_D_U_CATEGORY_GENDER_MACRO_MAX_COEC<0.060419] yes=91,no=92,missing=92
						91:leaf=0.0138198
						92:leaf=-0.0744769
					46:[U_CATEGORY_MICRO_MAX_COEC<0.111385] yes=93,no=94,missing=94
						93:leaf=-0.0656027
						94:leaf=0.0740986
	2:[U_CITY_COEC<0.061174] yes=5,no=6,missing=6
		5:[C_D_U_TITLEMD5_CITY_COEC<8.00611] yes=11,no=12,missing=12
			11:[C_D_U_KEYWORD_CATEGORY_MICRO_MAX_COEC<0.160248] yes=23,no=24,missing=23
				23:[DOC_AGE<11] yes=47,no=48,missing=48
					47:[D_TITLEMD5_COEC<0.049951] yes=95,no=96,missing=96
						95:leaf=0.0991549
						96:leaf=0.000657881
					48:[C_D_U_CATEGORY_CITY_MICRO_MEAN_COEC<0.114746] yes=97,no=98,missing=97
						97:leaf=-0.0114463
						98:leaf=0.00972946
				24:[U_CATEGORY_MACRO_MAX_COEC<0.01039] yes=49,no=50,missing=50
					49:[D_KEYWORD_MICRO_MAX_COEC<0.107915] yes=99,no=100,missing=100
						99:leaf=0.105347
						100:leaf=0.03178
					50:[CAT_REL<0.113188] yes=101,no=102,missing=102
						101:leaf=-0.00201007
						102:leaf=0.0195007
			12:[D_PUBLISHER_COEC<0.100255] yes=25,no=26,missing=25
				25:[C_D_U_TITLEMD5_AGE_COEC<0.111394] yes=51,no=52,missing=51
					51:[C_D_U_CATEGORY_CITY_MACRO_MAX_COEC<0.223203] yes=103,no=104,missing=103
						103:leaf=-0.0201442
						104:leaf=0.0203424
					52:[CAT_REL<0.018849] yes=105,no=106,missing=106
						105:leaf=-0.0151664
						106:leaf=0.0180338
				26:[D_TITLEMD5_COEC<0.187713] yes=53,no=54,missing=54
					53:[D_CATEGORY_MICRO_MAX_COEC<0.11024] yes=107,no=108,missing=108
						107:leaf=-0.0110383
						108:leaf=0.00888025
					54:[C_D_U_KEYWORD_CATEGORY_MACRO_MEAN_COEC<0.017528] yes=109,no=110,missing=110
						109:leaf=0.0473843
						110:leaf=0.00380314
		6:[U_CATEGORY_MACRO_MAX_COEC<0.011239] yes=13,no=14,missing=14
			13:[C_D_U_TITLEMD5_GENDER_COEC<0.102252] yes=27,no=28,missing=28
				27:[U_CITY_COEC<0.072659] yes=55,no=56,missing=55
					55:[CAT_REL<0.032877] yes=111,no=112,missing=112
						111:leaf=-0.0399774
						112:leaf=-0.00670192
					56:[U_CATEGORY_MACRO_MAX_COEC<0.007235] yes=113,no=114,missing=114
						113:leaf=0.0229121
						114:leaf=-0.0116744
				28:[U_CATEGORY_MACRO_MAX_COEC<0.007235] yes=57,no=58,missing=58
					57:[C_D_U_TITLEMD5_CATEGORY_MICRO_MAX_COEC<0.081447] yes=115,no=116,missing=115
						115:leaf=0.0324566
						116:leaf=0.0122516
					58:[CAT_REL<0.028246] yes=117,no=118,missing=118
						117:leaf=0.00282589
						118:leaf=0.0122382
			14:[IMAGE_COUNT<0.999999] yes=29,no=30,missing=30
				29:[C_D_U_TITLEMD5_CATEGORY_MACRO_MAX_COEC<0.053402] yes=59,no=60,missing=60
					59:[C_D_U_KEYWORD_CATEGORY_MICRO_MEAN_COEC<0.119703] yes=119,no=120,missing=120
						119:leaf=-0.0261787
						120:leaf=-0.00470343
					60:[C_D_U_KEYWORD_CATEGORY_MICRO_MEAN_COEC<0.108157] yes=121,no=122,missing=122
						121:leaf=-0.0595646
						122:leaf=-0.0378972
				30:[CAT_REL<0.10195] yes=61,no=62,missing=62
					61:[D_TITLEMD5_COEC<0.159202] yes=123,no=124,missing=123
						123:leaf=-0.00272704
						124:leaf=0.00271163
					62:[TIME_OF_DAY<4] yes=125,no=126,missing=126
						125:leaf=-0.00441406
						126:leaf=0.00645837
booster[51]:
0:[D_PUBLISHER_COEC<0.098582] yes=1,no=2,missing=2
	1:[IMAGE_COUNT<2] yes=3,no=4,missing=4
		3:[CAT_REL<0.077666] yes=7,no=8,missing=8
			7:[D_CATEGORY_MICRO_MEAN_COEC<0.106682] yes=15,no=16,missing=16
				15:[C_D_U_CATEGORY_CITY_MICRO_MEAN_COEC<0.096346] yes=31,no=32,missing=31
					31:[DAY_OF_WEEK<3] yes=63,no=64,missing=64
						63:leaf=-0.0048536
						64:leaf=-0.015418
					32:[DAY_OF_WEEK<3] yes=65,no=66,missing=66
						65:leaf=0.00502195
						66:leaf=-0.00630064
				16:[TIME_OF_DAY<22] yes=33,no=34,missing=34
					33:[TIME_OF_DAY<8] yes=67,no=68,missing=68
						67:leaf=0.000394472
						68:leaf=0.0114596
					34:[D_CATEGORY_MICRO_MAX_COEC<0.107492] yes=69,no=70,missing=70
						69:leaf=-0.0366967
						70:leaf=-0.00332903
			8:[D_CATEGORY_MICRO_MAX_COEC<0.101216] yes=17,no=18,missing=18
				17:[C_D_U_CATEGORY_CITY_MICRO_MEAN_COEC<0.069112] yes=35,no=36,missing=36
					35:[DOC_AGE<28] yes=71,no=72,missing=72
						71:leaf=-0.00483464
						72:leaf=-0.0274013
					36:[C_D_U_CATEGORY_GENDER_MICRO_MAX_COEC<0.119486] yes=73,no=74,missing=74
						73:leaf=0.0185822
						74:leaf=0.00379926
				18:[D_CATEGORY_MICRO_MEAN_COEC<0.107732] yes=37,no=38,missing=38
					37:[C_D_U_TITLEMD5_CATEGORY_MICRO_MAX_COEC<0.234956] yes=75,no=76,missing=75
						75:leaf=-0.00693533
						76:leaf=-0.0328499
					38:[D_KEYWORD_MICRO_MAX_COEC<0.175666] yes=77,no=78,missing=78
						77:leaf=0.00420604
						78:leaf=0.129971
		4:[D_CATEGORY_MACRO_MAX_COEC<0.069212] yes=9,no=10,missing=10
			9:[C_D_U_TITLEMD5_CATEGORY_MICRO_MAX_COEC<0.314005] yes=19,no=20,missing=20
				19:[D_KEYWORD_MICRO_MEAN_COEC<0.112074] yes=39,no=40,missing=40
					39:[WORD_COUNT<961] yes=79,no=80,missing=80
						79:leaf=0.0266228
						80:leaf=-0.00278516
					40:[D_KEYWORD_MACRO_MAX_COEC<0.028716] yes=81,no=82,missing=82
						81:leaf=-0.0905601
						82:leaf=-0.0286413
				20:[WORD_COUNT<961] yes=41,no=42,missing=42
					41:[D_TITLEMD5_COEC<0.107624] yes=83,no=84,missing=84
						83:leaf=-0.0158141
						84:leaf=0.0652587
					42:[D_CATEGORY_MICRO_MEAN_COEC<0.083305] yes=85,no=86,missing=86
						85:leaf=-0.0300172
						86:leaf=-0.0113523
			10:[D_CATEGORY_MICRO_MAX_COEC<0.102574] yes=21,no=22,missing=21
				21:[WORD_COUNT<2611] yes=43,no=44,missing=44
					43:[WORD_COUNT<2098] yes=87,no=88,missing=88
						87:leaf=0.00621799
						88:leaf=0.0216148
					44:[U_CATEGORY_MACRO_MAX_COEC<0.020525] yes=89,no=90,missing=90
						89:leaf=0.00736423
						90:leaf=-0.00387032
				22:[D_KEYWORD_MACRO_MAX_COEC<0.053804] yes=45,no=46,missing=46
					45:[D_TITLEMD5_COEC<0.118284] yes=91,no=92,missing=92
						91:leaf=-0.000362035
						92:leaf=-0.0218236
					46:[CAT_REL<0.065929] yes=93,no=94,missing=94
						93:leaf=0.0110695
						94:leaf=-0.00923141
	2:[TIME_OF_DAY<23] yes=5,no=6,missing=6
		5:[U_CATEGORY_MACRO_MAX_COEC<0.01119] yes=11,no=12,missing=12
			11:[WORD_COUNT<2418] yes=23,no=24,missing=24
				23:[D_TITLEMD5_COEC<0.201338] yes=47,no=48,missing=48
					47:[D_CATEGORY_MICRO_MAX_COEC<0.079758] yes=95,no=96,missing=95
						95:leaf=0.0183842
						96:leaf=0.00142431
					48:[CAT_REL<0.020686] yes=97,no=98,missing=98
						97:leaf=0.0205154
						98:leaf=0.0435429
				24:[C_D_U_TITLEMD5_CATEGORY_MACRO_MAX_COEC<0.008994] yes=49,no=50,missing=49
					49:[C_D_U_CATEGORY_GENDER_MICRO_MAX_COEC<0.129481] yes=99,no=100,missing=100
						99:leaf=0.00192867
						100:leaf=0.0298086
					50:[D_TITLEMD5_COEC<0.061416] yes=101,no=102,missing=102
						101:leaf=-0.0494124
						102:leaf=0.0129061
			12:[U_CATEGORY_MICRO_MAX_COEC<0.111293] yes=25,no=26,missing=25
				25:[D_TITLEMD5_COEC<0.218745] yes=51,no=52,missing=52
					51:[D_TITLEMD5_COEC<0.079886] yes=103,no=104,missing=104
						103:leaf=-0.00947308
						104:leaf=0.000323308
					52:[WORD_COUNT<2917] yes=105,no=106,missing=106
						105:leaf=0.0112162
						106:leaf=-0.0217729
				26:[U_CATEGORY_MACRO_MAX_COEC<0.0372] yes=53,no=54,missing=54
					53:[DOC_AGE<130] yes=107,no=108,missing=108
						107:leaf=0.00808513
						108:leaf=0.0466915
					54:[D_KEYWORD_MACRO_MEAN_COEC<0.090443] yes=109,no=110,missing=110
						109:leaf=-0.0194832
						110:leaf=-0.00100463
		6:[D_KEYWORD_MICRO_MEAN_COEC<0.12347] yes=13,no=14,missing=14
			13:[D_TITLEMD5_COEC<0.162032] yes=27,no=28,missing=27
				27:[D_KEYWORD_MACRO_MAX_COEC<0.048386] yes=55,no=56,missing=56
					55:[DOC_AGE<188] yes=111,no=112,missing=112
						111:leaf=-0.0143192
						112:leaf=0.0206551
					56:[D_KEYWORD_MICRO_MAX_COEC<0.159974] yes=113,no=114,missing=114
						113:leaf=-0.00178602
						114:leaf=-0.0401111
				28:[U_CATEGORY_MICRO_MAX_COEC<0.086587] yes=57,no=58,missing=57
					57:[WORD_COUNT<1525] yes=115,no=116,missing=116
						115:leaf=-0.0308468
						116:leaf=0.00547363
					58:[CAT_REL<0.058448] yes=117,no=118,missing=118
						117:leaf=0.0288912
						118:leaf=-0.00714491
			14:[D_KEYWORD_MACRO_MAX_COEC<0.090866] yes=29,no=30,missing=30
				29:[C_D_U_KEYWORD_CATEGORY_MACRO_MEAN_COEC<0.016115] yes=59,no=60,missing=60
					59:[C_D_U_CATEGORY_CITY_MICRO_MAX_COEC<0.120895] yes=119,no=120,missing=119
						119:leaf=0.0279741
						120:leaf=-0.0409913
					60:[C_D_U_TITLEMD5_CATEGORY_MACRO_MAX_COEC<0.074009] yes=121,no=122,missing=121
						121:leaf=-0.0201046
						122:leaf=-0.041794
				30:[D_KEYWORD_MICRO_MEAN_COEC<0.13459] yes=61,no=62,missing=62
					61:[U_CITY_COEC<0.098631] yes=123,no=124,missing=123
						123:leaf=0.00354656
						124:leaf=0.0741548
					62:[C_D_U_TITLEMD5_CITY_COEC<0.076048] yes=125,no=126,missing=126
						125:leaf=0.0403161
						126:leaf=-0.020289
booster[52]:
0:[DOC_AGE<12] yes=1,no=2,missing=2
	1:[IMAGE_COUNT<0.999999] yes=3,no=4,missing=4
		3:[C_D_U_KEYWORD_CATEGORY_MICRO_MEAN_COEC<0.109883] yes=7,no=8,missing=7
			7:[D_TITLEMD5_COEC<0.123391] yes=15,no=16,missing=15
				15:[C_D_U_TITLEMD5_AGE_COEC<0.145241] yes=31,no=32,missing=32
					31:[D_PUBLISHER_COEC<0.120343] yes=63,no=64,missing=63
						63:leaf=0.00838438
						64:leaf=0.195597
					32:[U_CITY_COEC<0.123318] yes=65,no=66,missing=65
						65:leaf=-0.032694
						66:leaf=0.0153122
				16:[DAY_OF_WEEK<3] yes=33,no=34,missing=34
					33:[C_D_U_KEYWORD_CATEGORY_MICRO_MEAN_COEC<0.074516] yes=67,no=68,missing=68
						67:leaf=0.0253932
						68:leaf=-0.0473852
					34:[C_D_U_CATEGORY_CITY_MACRO_MAX_COEC<0.097262] yes=69,no=70,missing=69
						69:leaf=-0.082016
						70:leaf=-0.0397634
			8:[U_CITY_COEC<0.081713] yes=17,no=18,missing=18
				17:[C_D_U_TITLEMD5_AGE_COEC<0.169455] yes=35,no=36,missing=36
					35:[D_CATEGORY_MICRO_MEAN_COEC<0.086666] yes=71,no=72,missing=71
						71:leaf=-0.0348945
						72:leaf=0.0934441
					36:[C_D_U_TITLEMD5_CATEGORY_MACRO_MAX_COEC<0.018643] yes=73,no=74,missing=73
						73:leaf=-0.0272824
						74:leaf=-0.0860172
				18:[D_PUBLISHER_COEC<0.039522] yes=37,no=38,missing=37
					37:[C_D_U_TITLEMD5_CITY_COEC<0.343447] yes=75,no=76,missing=76
						75:leaf=0.0607502
						76:leaf=-0.0418475
					38:[D_PUBLISHER_COEC<0.102046] yes=77,no=78,missing=78
						77:leaf=0.00577576
						78:leaf=-0.0332544
		4:[C_D_U_TITLEMD5_CATEGORY_MACRO_MAX_COEC<0.034643] yes=9,no=10,missing=10
			9:[U_CITY_COEC<0.123318] yes=19,no=20,missing=19
				19:[U_CATEGORY_MICRO_MAX_COEC<0.10045] yes=39,no=40,missing=40
					39:[U_CATEGORY_MACRO_MAX_COEC<0.008496] yes=79,no=80,missing=80
						79:leaf=0.0137351
						80:leaf=0.000294297
					40:[TIME_OF_DAY<23] yes=81,no=82,missing=82
						81:leaf=0.00722132
						82:leaf=-0.0057753
				20:[D_CATEGORY_MACRO_MAX_COEC<0.221191] yes=41,no=42,missing=42
					41:[C_D_U_KEYWORD_CATEGORY_MICRO_MEAN_COEC<0.103003] yes=83,no=84,missing=84
						83:leaf=0.018983
						84:leaf=0.0084385
					42:[C_D_U_TITLEMD5_AGE_COEC<0.049302] yes=85,no=86,missing=86
						85:leaf=-0.0646442
						86:leaf=0.0469941
			10:[D_KEYWORD_MACRO_MEAN_COEC<0.086017] yes=21,no=22,missing=21
				21:[C_D_U_TITLEMD5_CATEGORY_MICRO_MAX_COEC<0.391983] yes=43,no=44,missing=43
					43:[C_D_U_KEYWORD_CATEGORY_MICRO_MEAN_COEC<0.129305] yes=87,no=88,missing=87
						87:leaf=-0.00948082
						88:leaf=0.00715902
					44:[C_D_U_TITLEMD5_CATEGORY_MACRO_MAX_COEC<0.092309] yes=89,no=90,missing=90
						89:leaf=-0.0208602
						90:leaf=-0.0490424
				22:[C_D_U_KEYWORD_CATEGORY_MICRO_MEAN_COEC<0.168322] yes=45,no=46,missing=46
					45:[D_KEYWORD_MICRO_MEAN_COEC<0.119257] yes=91,no=92,missing=92
						91:leaf=1.70386e-05
						92:leaf=-0.00935303
					46:[D_KEYWORD_MICRO_MEAN_COEC<0.100286] yes=93,no=94,missing=94
						93:leaf=-0.00158364
						94:leaf=0.00741027
	2:[DOC_AGE<71] yes=5,no=6,missing=6
		5:[D_TITLEMD5_COEC<0.098293] yes=11,no=12,missing=12
			11:[U_CATEGORY_MACRO_MAX_COEC<0.021705] yes=23,no=24,missing=24
				23:[CAT_REL<0.032637] yes=47,no=48,missing=48
					47:[TIME_OF_DAY<10] yes=95,no=96,missing=96
						95:leaf=-0.0209309
						96:leaf=-0.00373147
					48:[U_CATEGORY_MACRO_MAX_COEC<0.009884] yes=97,no=98,missing=98
						97:leaf=0.0143591
						98:leaf=-0.00300351
				24:[D_TITLEMD5_COEC<0.072486] yes=49,no=50,missing=50
					49:[D_CATEGORY_MICRO_MAX_COEC<0.068338] yes=99,no=100,missing=99
						99:leaf=-0.00515269
						100:leaf=-0.0291832
					50:[DAY_OF_WEEK<6] yes=101,no=102,missing=102
						101:leaf=-0.0133611
						102:leaf=-0.0022333
			12:[D_KEYWORD_MACRO_MAX_COEC<0.068588] yes=25,no=26,missing=26
				25:[D_PUBLISHER_COEC<0.093682] yes=51,no=52,missing=52
					51:[D_CATEGORY_MACRO_MAX_COEC<0.106737] yes=103,no=104,missing=104
						103:leaf=-0.0120388
						104:leaf=0.00417016
					52:[D_KEYWORD_MICRO_MEAN_COEC<0.120744] yes=105,no=106,missing=106
						105:leaf=-0.000187264
						106:leaf=-0.00818246
				26:[WORD_COUNT<5621] yes=53,no=54,missing=54
					53:[WORD_COUNT<2624] yes=107,no=108,missing=108
						107:leaf=0.00429288
						108:leaf=-0.00580648
					54:[U_CATEGORY_MACRO_MAX_COEC<0.016633] yes=109,no=110,missing=110
						109:leaf=0.0401579
						110:leaf=0.0120527
		6:[D_PUBLISHER_COEC<0.050185] yes=13,no=14,missing=13
			13:[D_CATEGORY_MICRO_MEAN_COEC<0.07566] yes=27,no=28,missing=27
				27:[C_D_U_CATEGORY_GENDER_MICRO_MEAN_COEC<0.076106] yes=55,no=56,missing=55
					55:[CAT_REL<0.221613] yes=111,no=112,missing=112
						111:leaf=-0.0523049
						112:leaf=0.116881
					56:[C_D_U_PUBLISHER_CITY_COEC<0.020092] yes=113,no=114,missing=113
						113:leaf=-0.0210426
						114:leaf=0.321415
				28:[U_CATEGORY_MACRO_MAX_COEC<0.007239] yes=57,no=58,missing=58
					57:[D_CATEGORY_MICRO_MAX_COEC<0.086764] yes=115,no=116,missing=116
						115:leaf=0.147653
						116:leaf=-0.0754199
					58:[D_CATEGORY_MACRO_MEAN_COEC<0.077404] yes=117,no=118,missing=118
						117:leaf=0.0550026
						118:leaf=-0.0198338
			14:[U_CITY_COEC<0.105436] yes=29,no=30,missing=29
				29:[U_CATEGORY_MICRO_MAX_COEC<0.100776] yes=59,no=60,missing=59
					59:[TIME_OF_DAY<2] yes=119,no=120,missing=120
						119:leaf=-0.00607786
						120:leaf=0.00477022
					60:[U_CITY_COEC<0.069025] yes=121,no=122,missing=122
						121:leaf=-0.0261989
						122:leaf=0.0172031
				30:[D_KEYWORD_MACRO_MAX_COEC<0.052972] yes=61,no=62,missing=62
					61:[D_CATEGORY_MICRO_MEAN_COEC<0.092395] yes=123,no=124,missing=124
						123:leaf=0.0447803
						124:leaf=0.02038
					62:[D_CATEGORY_MACRO_MAX_COEC<0.116356] yes=125,no=126,missing=125
						125:leaf=0.0054143
						126:leaf=0.090033
booster[53]:
0:[C_D_U_TITLEMD5_CITY_COEC<0.407747] yes=1,no=2,missing=2
	1:[U_CATEGORY_MACRO_MAX_COEC<0.017102] yes=3,no=4,missing=4
		3:[CAT_REL<0.037623] yes=7,no=8,missing=8
			7:[C_D_U_CATEGORY_CITY_MICRO_MEAN_COEC<0.058812] yes=15,no=16,missing=15
				15:[WORD_COUNT<5924] yes=31,no=32,missing=32
					31:[U_CITY_COEC<0.078126] yes=63,no=64,missing=64
						63:leaf=-0.00124718
						64:leaf=0.0124275
					32:[D_KEYWORD_MACRO_MAX_COEC<0.045181] yes=65,no=66,missing=66
						65:leaf=0.0127309
						66:leaf=0.0576364
				16:[U_CATEGORY_MICRO_MAX_COEC<0.104804] yes=33,no=34,missing=34
					33:[U_CATEGORY_MACRO_MAX_COEC<0.009859] yes=67,no=68,missing=68
						67:leaf=0.00687467
						68:leaf=-0.00409769
					34:[C_D_U_PUBLISHER_AGE_COEC<0.111866] yes=69,no=70,missing=70
						69:leaf=-0.0199478
						70:leaf=0.00686653
			8:[U_CATEGORY_MICRO_MAX_COEC<0.079604] yes=17,no=18,missing=18
				17:[U_CATEGORY_MACRO_MAX_COEC<0.007196] yes=35,no=36,missing=36
					35:[C_D_U_CATEGORY_CITY_MICRO_MEAN_COEC<0.071933] yes=71,no=72,missing=72
						71:leaf=-0.0652905
						72:leaf=0.0894882
					36:[C_D_U_CATEGORY_AGE_MACRO_MEAN_COEC<0.10837] yes=73,no=74,missing=73
						73:leaf=-0.0136141
						74:leaf=0.0208993
				18:[D_CATEGORY_MACRO_MAX_COEC<0.102456] yes=37,no=38,missing=38
					37:[C_D_U_CATEGORY_CITY_MICRO_MAX_COEC<0.096663] yes=75,no=76,missing=76
						75:leaf=0.0095686
						76:leaf=0.0207886
					38:[C_D_U_CATEGORY_CITY_MACRO_MEAN_COEC<0.115872] yes=77,no=78,missing=78
						77:leaf=-0.0012949
						78:leaf=0.0138183
		4:[C_D_U_TITLEMD5_CITY_COEC<0.144083] yes=9,no=10,missing=10
			9:[C_D_U_CATEGORY_CITY_MICRO_MEAN_COEC<0.019333] yes=19,no=20,missing=20
				19:[U_CITY_COEC<0.156499] yes=39,no=40,missing=40
					39:[U_CITY_COEC<0.047174] yes=79,no=80,missing=80
						79:leaf=-0.00404486
						80:leaf=0.0124092
					40:[TIME_OF_DAY<18] yes=81,no=82,missing=82
						81:leaf=0.0728614
						82:leaf=-0.00467887
				20:[C_D_U_CATEGORY_CITY_MACRO_MAX_COEC<0.113536] yes=41,no=42,missing=42
					41:[CAT_REL<0.125152] yes=83,no=84,missing=84
						83:leaf=-0.00433717
						84:leaf=0.00193829
					42:[U_CATEGORY_MICRO_MAX_COEC<0.128309] yes=85,no=86,missing=85
						85:leaf=0.00234687
						86:leaf=0.024446
			10:[D_CATEGORY_MICRO_MAX_COEC<0.061789] yes=21,no=22,missing=22
				21:[D_PUBLISHER_COEC<0.101787] yes=43,no=44,missing=44
					43:[C_D_U_KEYWORD_CATEGORY_MACRO_MEAN_COEC<0.013666] yes=87,no=88,missing=87
						87:leaf=-0.0226469
						88:leaf=0.0283197
					44:[U_CITY_COEC<0.089345] yes=89,no=90,missing=90
						89:leaf=0.0902116
						90:leaf=0.0161702
				22:[D_KEYWORD_MICRO_MEAN_COEC<0.123512] yes=45,no=46,missing=46
					45:[C_D_U_CATEGORY_CITY_MACRO_MAX_COEC<0.087359] yes=91,no=92,missing=92
						91:leaf=-0.00162778
						92:leaf=0.00606912
					46:[TIME_OF_DAY<2] yes=93,no=94,missing=94
						93:leaf=-0.00999895
						94:leaf=0.00152234
	2:[U_CITY_COEC<0.094575] yes=5,no=6,missing=6
		5:[C_D_U_CATEGORY_CITY_MICRO_MEAN_COEC<0.092908] yes=11,no=12,missing=12
			11:[D_KEYWORD_MACRO_MEAN_COEC<0.096986] yes=23,no=24,missing=24
				23:[U_CITY_COEC<0.033121] yes=47,no=48,missing=48
					47:[DOC_AGE<138] yes=95,no=96,missing=96
						95:leaf=-0.0331567
						96:leaf=0.0451108
					48:[C_D_U_TITLEMD5_CATEGORY_MICRO_MAX_COEC<0.384683] yes=97,no=98,missing=97
						97:leaf=-0.0113947
						98:leaf=-0.0409453
				24:[D_KEYWORD_MICRO_MEAN_COEC<0.079479] yes=49,no=50,missing=50
					49:[D_CATEGORY_MACRO_MEAN_COEC<0.085811] yes=99,no=100,missing=100
						99:leaf=-0.0830958
						100:leaf=-0.0158767
					50:[DOC_AGE<12] yes=101,no=102,missing=102
						101:leaf=-0.000667765
						102:leaf=-0.0093697
			12:[D_TITLEMD5_COEC<0.168678] yes=25,no=26,missing=26
				25:[D_CATEGORY_MICRO_MAX_COEC<0.102605] yes=51,no=52,missing=51
					51:[CAT_REL<0.193767] yes=103,no=104,missing=104
						103:leaf=-0.00285
						104:leaf=0.0118473
					52:[C_D_U_KEYWORD_CATEGORY_MACRO_MEAN_COEC<0.004876] yes=105,no=106,missing=106
						105:leaf=0.0289204
						106:leaf=-0.0105498
				26:[U_CATEGORY_MACRO_MAX_COEC<0.016024] yes=53,no=54,missing=54
					53:[D_CATEGORY_MICRO_MAX_COEC<0.068415] yes=107,no=108,missing=108
						107:leaf=-0.0472651
						108:leaf=0.022298
					54:[D_PUBLISHER_COEC<0.075295] yes=109,no=110,missing=110
						109:leaf=-0.0290738
						110:leaf=0.00398811
		6:[U_CATEGORY_MICRO_MAX_COEC<0.092705] yes=13,no=14,missing=13
			13:[D_CATEGORY_MACRO_MAX_COEC<0.050389] yes=27,no=28,missing=28
				27:[D_KEYWORD_MACRO_MEAN_COEC<0.088712] yes=55,no=56,missing=56
					55:[U_CATEGORY_MACRO_MAX_COEC<0.017736] yes=111,no=112,missing=112
						111:leaf=-0.00947237
						112:leaf=-0.0344016
					56:[D_KEYWORD_MICRO_MEAN_COEC<0.11605] yes=113,no=114,missing=114
						113:leaf=-0.00704572
						114:leaf=-0.0457048
				28:[D_CATEGORY_MACRO_MAX_COEC<0.10673] yes=57,no=58,missing=58
					57:[IMAGE_COUNT<2] yes=115,no=116,missing=116
						115:leaf=-0.00695055
						116:leaf=-0.000619961
					58:[TIME_OF_DAY<23] yes=117,no=118,missing=118
						117:leaf=0.00479888
						118:leaf=-0.0106195
			14:[D_CATEGORY_MACRO_MAX_COEC<0.212087] yes=29,no=30,missing=30
				29:[U_CITY_COEC<0.139005] yes=59,no=60,missing=59
					59:[CAT_REL<0.000922] yes=119,no=120,missing=120
						119:leaf=-0.00430444
						120:leaf=0.00289159
					60:[C_D_U_TITLEMD5_CATEGORY_MICRO_MAX_COEC<0.081937] yes=121,no=122,missing=121
						121:leaf=0.0243454
						122:leaf=0.0063989
				30:[D_KEYWORD_MICRO_MEAN_COEC<0.143911] yes=61,no=62,missing=62
					61:[U_CATEGORY_MACRO_MAX_COEC<0.020558] yes=123,no=124,missing=124
						123:leaf=0.0330449
						124:leaf=0.0117749
					62:[C_D_U_TITLEMD5_CATEGORY_MICRO_MAX_COEC<0.241926] yes=125,no=126,missing=125
						125:leaf=-0.0184145
						126:leaf=0.0241012
booster[54]:
0:[D_PUBLISHER_COEC<0.125045] yes=1,no=2,missing=2
	1:[C_D_U_TITLEMD5_CITY_COEC<0.340024] yes=3,no=4,missing=4
		3:[U_CATEGORY_MACRO_MAX_COEC<0.051717] yes=7,no=8,missing=7
			7:[C_D_U_CATEGORY_CITY_MACRO_MAX_COEC<0.11811] yes=15,no=16,missing=16
				15:[DOC_AGE<12] yes=31,no=32,missing=32
					31:[U_CATEGORY_MICRO_MAX_COEC<0.086598] yes=63,no=64,missing=64
						63:leaf=-0.00401949
						64:leaf=0.00364585
					32:[TIME_OF_DAY<19] yes=65,no=66,missing=66
						65:leaf=-0.000578528
						66:leaf=-0.00686482
				16:[D_KEYWORD_MACRO_MEAN_COEC<0.091794] yes=33,no=34,missing=34
					33:[U_CITY_COEC<0.196271] yes=67,no=68,missing=68
						67:leaf=0.0106097
						68:leaf=0.0874657
					34:[U_CATEGORY_MACRO_MAX_COEC<0.009278] yes=69,no=70,missing=70
						69:leaf=0.0254757
						70:leaf=0.00335345
			8:[C_D_U_KEYWORD_CATEGORY_MACRO_MEAN_COEC<0.074219] yes=17,no=18,missing=18
				17:[DAY_OF_WEEK<4] yes=35,no=36,missing=36
					35:[C_D_U_PUBLISHER_CITY_COEC<0.237275] yes=71,no=72,missing=71
						71:leaf=-0.00843992
						72:leaf=0.0832659
					36:[C_D_U_CATEGORY_CITY_MICRO_MAX_COEC<0.199269] yes=73,no=74,missing=74
						73:leaf=-0.0247022
						74:leaf=0.0092696
				18:[U_CATEGORY_MICRO_MAX_COEC<0.083326] yes=37,no=38,missing=38
					37:[C_D_U_CATEGORY_AGE_MICRO_MEAN_COEC<0.116274] yes=75,no=76,missing=76
						75:leaf=0.110324
						76:leaf=0.0103584
					38:[U_CATEGORY_MICRO_MAX_COEC<0.121018] yes=77,no=78,missing=78
						77:leaf=-0.00604283
						78:leaf=-0.0423668
		4:[IMAGE_COUNT<2] yes=9,no=10,missing=10
			9:[CAT_REL<0.039813] yes=19,no=20,missing=20
				19:[D_CATEGORY_MICRO_MAX_COEC<0.106823] yes=39,no=40,missing=40
					39:[DAY_OF_WEEK<3] yes=79,no=80,missing=80
						79:leaf=-0.00206352
						80:leaf=-0.012829
					40:[U_CATEGORY_MACRO_MAX_COEC<0.027293] yes=81,no=82,missing=81
						81:leaf=0.0066582
						82:leaf=-0.00851517
				20:[DOC_AGE<25] yes=41,no=42,missing=42
					41:[D_KEYWORD_MACRO_MAX_COEC<0.017813] yes=83,no=84,missing=83
						83:leaf=-0.0130277
						84:leaf=0.000981327
					42:[C_D_U_CATEGORY_CITY_MACRO_MEAN_COEC<0.074798] yes=85,no=86,missing=86
						85:leaf=-0.0272199
						86:leaf=-0.00961414
			10:[D_CATEGORY_MACRO_MAX_COEC<0.050336] yes=21,no=22,missing=22
				21:[U_CATEGORY_MACRO_MAX_COEC<0.019218] yes=43,no=44,missing=44
					43:[CAT_REL<0.09089] yes=87,no=88,missing=88
						87:leaf=-0.0117629
						88:leaf=0.0178951
					44:[D_KEYWORD_MICRO_MAX_COEC<0.166655] yes=89,no=90,missing=90
						89:leaf=-0.0229425
						90:leaf=-0.0578235
				22:[C_D_U_PUBLISHER_CITY_COEC<0.198441] yes=45,no=46,missing=45
					45:[C_D_U_TITLEMD5_CATEGORY_MACRO_MAX_COEC<0.028563] yes=91,no=92,missing=91
						91:leaf=0.00201935
						92:leaf=-0.0045478
					46:[C_D_U_CATEGORY_CITY_MACRO_MEAN_COEC<0.314726] yes=93,no=94,missing=94
						93:leaf=0.00923108
						94:leaf=0.0255534
	2:[D_KEYWORD_MICRO_MEAN_COEC<0.096737] yes=5,no=6,missing=6
		5:[D_CATEGORY_MACRO_MAX_COEC<0.077819] yes=11,no=12,missing=11
			11:[CAT_REL<0.001011] yes=23,no=24,missing=24
				23:[D_CATEGORY_MACRO_MAX_COEC<0.06421] yes=47,no=48,missing=48
					47:[TIME_OF_DAY<4] yes=95,no=96,missing=96
						95:leaf=-0.0101162
						96:leaf=-0.0445756
					48:[D_KEYWORD_MACRO_MAX_COEC<0.081716] yes=97,no=98,missing=98
						97:leaf=-0.00268879
						98:leaf=0.0909437
				24:[D_KEYWORD_MACRO_MEAN_COEC<0.116582] yes=49,no=50,missing=50
					49:[C_D_U_CATEGORY_CITY_MACRO_MEAN_COEC<0.099453] yes=99,no=100,missing=99
						99:leaf=-0.000318189
						100:leaf=0.0343002
					50:[C_D_U_TITLEMD5_CATEGORY_MACRO_MAX_COEC<0.065875] yes=101,no=102,missing=102
						101:leaf=0.0680117
						102:leaf=0.00107196
			12:[D_KEYWORD_MACRO_MAX_COEC<0.025255] yes=25,no=26,missing=26
				25:[WORD_COUNT<5480] yes=51,no=52,missing=52
					51:[D_TITLEMD5_COEC<0.126221] yes=103,no=104,missing=103
						103:leaf=0.0415695
						104:leaf=0.0225556
					52:[U_CITY_COEC<0.092602] yes=105,no=106,missing=106
						105:leaf=-0.0163812
						106:leaf=-0.111841
				26:[DAY_OF_WEEK<0.999999] yes=53,no=54,missing=54
					53:[U_CITY_COEC<0.07467] yes=107,no=108,missing=107
						107:leaf=0.0169904
						108:leaf=0.0517235
					54:[D_CATEGORY_MACRO_MAX_COEC<0.089734] yes=109,no=110,missing=110
						109:leaf=0.0271656
						110:leaf=-0.00286489
		6:[WORD_COUNT<4699] yes=13,no=14,missing=14
			13:[WORD_COUNT<2564] yes=27,no=28,missing=28
				27:[D_TITLEMD5_COEC<0.134834] yes=55,no=56,missing=56
					55:[WORD_COUNT<1561] yes=111,no=112,missing=112
						111:leaf=0.0113158
						112:leaf=-0.00521547
					56:[WORD_COUNT<1075] yes=113,no=114,missing=114
						113:leaf=-0.00382282
						114:leaf=0.00639062
				28:[D_KEYWORD_MACRO_MEAN_COEC<0.101938] yes=57,no=58,missing=58
					57:[D_KEYWORD_MACRO_MEAN_COEC<0.082246] yes=115,no=116,missing=116
						115:leaf=0.0214646
						116:leaf=-0.0349475
					58:[D_CATEGORY_MACRO_MEAN_COEC<0.101958] yes=117,no=118,missing=117
						117:leaf=0.000992965
						118:leaf=-0.0114904
			14:[CAT_REL<0.001011] yes=29,no=30,missing=30
				29:[DAY_OF_WEEK<4] yes=59,no=60,missing=60
					59:[C_D_U_TITLEMD5_CITY_COEC<0.126097] yes=119,no=120,missing=120
						119:leaf=-0.0103081
						120:leaf=0.0332303
					60:[C_D_U_PUBLISHER_CITY_COEC<0.098359] yes=121,no=122,missing=122
						121:leaf=0.0236722
						122:leaf=0.00289647
				30:[U_CATEGORY_MACRO_MAX_COEC<0.014836] yes=61,no=62,missing=62
					61:[D_KEYWORD_MICRO_MEAN_COEC<0.097714] yes=123,no=124,missing=124
						123:leaf=-0.0274463
						124:leaf=0.0493396
					62:[C_D_U_CATEGORY_CITY_MICRO_MAX_COEC<0.126963] yes=125,no=126,missing=125
						125:leaf=0.0296728
						126:leaf=0.00419241
booster[55]:
0:[IMAGE_COUNT<0.999999] yes=1,no=2,missing=2
	1:[U_CATEGORY_MACRO_MAX_COEC<0.020148] yes=3,no=4,missing=4
		3:[C_D_U_CATEGORY_CITY_MACRO_MEAN_COEC<0.071581] yes=7,no=8,missing=8
			7:[U_CITY_COEC<0.102566] yes=15,no=16,missing=16
				15:[CAT_REL<0.182501] yes=31,no=32,missing=32
					31:[U_CITY_COEC<0.066057] yes=63,no=64,missing=64
						63:leaf=-0.0553884
						64:leaf=-0.0291525
					32:[C_D_U_KEYWORD_CATEGORY_MICRO_MEAN_COEC<0.069506] yes=65,no=66,missing=66
						65:leaf=0.22781
						66:leaf=0.0139264
				16:[DOC_AGE<11] yes=33,no=34,missing=34
					33:[TIME_OF_DAY<12] yes=67,no=68,missing=68
						67:leaf=0.0993579
						68:leaf=-0.0211804
					34:[WORD_COUNT<6965] yes=69,no=70,missing=70
						69:leaf=-0.0417502
						70:leaf=0.0713447
			8:[C_D_U_TITLEMD5_CATEGORY_MACRO_MAX_COEC<0.055998] yes=17,no=18,missing=17
				17:[U_CATEGORY_MICRO_MAX_COEC<0.140541] yes=35,no=36,missing=36
					35:[D_TITLEMD5_COEC<0.080037] yes=71,no=72,missing=72
						71:leaf=0.00123214
						72:leaf=-0.0137742
					36:[C_D_U_TITLEMD5_CATEGORY_MICRO_MAX_COEC<0.085863] yes=73,no=74,missing=73
						73:leaf=0.147173
						74:leaf=-0.00432149
				18:[C_D_U_PUBLISHER_GENDER_COEC<0.121839] yes=37,no=38,missing=37
					37:[U_CATEGORY_MACRO_MAX_COEC<0.009346] yes=75,no=76,missing=76
						75:leaf=0.0104785
						76:leaf=-0.0885094
					38:leaf=0.0808704
		4:[D_PUBLISHER_COEC<0.102761] yes=9,no=10,missing=10
			9:[D_KEYWORD_MICRO_MAX_COEC<0.162138] yes=19,no=20,missing=20
				19:[D_KEYWORD_MACRO_MEAN_COEC<0.101016] yes=39,no=40,missing=40
					39:[U_CATEGORY_MACRO_MAX_COEC<0.035548] yes=77,no=78,missing=78
						77:leaf=-0.0202954
						78:leaf=-0.0385916
					40:[C_D_U_CATEGORY_CITY_MICRO_MEAN_COEC<0.08041] yes=79,no=80,missing=80
						79:leaf=-0.0536757
						80:leaf=0.0187041
				20:[D_CATEGORY_MACRO_MEAN_COEC<0.101148] yes=41,no=42,missing=42
					41:[C_D_U_TITLEMD5_CITY_COEC<0.408954] yes=81,no=82,missing=82
						81:leaf=-0.00189348
						82:leaf=-0.0864096
					42:[U_CITY_COEC<0.061883] yes=83,no=84,missing=84
						83:leaf=0.13034
						84:leaf=-0.0300755
			10:[D_KEYWORD_MICRO_MAX_COEC<0.12641] yes=21,no=22,missing=22
				21:[D_KEYWORD_MACRO_MEAN_COEC<0.099487] yes=43,no=44,missing=44
					43:[C_D_U_PUBLISHER_CITY_COEC<0.082989] yes=85,no=86,missing=86
						85:leaf=-0.00125335
						86:leaf=-0.0697598
					44:[C_D_U_PUBLISHER_CITY_COEC<0.119498] yes=87,no=88,missing=88
						87:leaf=0.375348
						88:leaf=-0.0212339
				22:[CAT_REL<0.445504] yes=45,no=46,missing=46
					45:[C_D_U_CATEGORY_GENDER_MICRO_MEAN_COEC<0.11157] yes=89,no=90,missing=90
						89:leaf=0.0039761
						90:leaf=-0.109697
					46:leaf=0.0305235
	2:[D_TITLEMD5_COEC<0.159382] yes=5,no=6,missing=6
		5:[U_CITY_COEC<0.081963] yes=11,no=12,missing=11
			11:[U_CITY_COEC<0.047412] yes=23,no=24,missing=24
				23:[C_D_U_KEYWORD_CATEGORY_MICRO_MEAN_COEC<0.136354] yes=47,no=48,missing=48
					47:[CAT_REL<0.020523] yes=91,no=92,missing=92
						91:leaf=-0.0280645
						92:leaf=-0.0113466
					48:[TIME_OF_DAY<23] yes=93,no=94,missing=94
						93:leaf=-0.00330121
						94:leaf=-0.0275545
				24:[D_CATEGORY_MACRO_MAX_COEC<0.107492] yes=49,no=50,missing=50
					49:[CAT_REL<0.020523] yes=95,no=96,missing=96
						95:leaf=-0.00565265
						96:leaf=-0.00113617
					50:[D_CATEGORY_MACRO_MAX_COEC<0.115977] yes=97,no=98,missing=97
						97:leaf=0.00665237
						98:leaf=-0.00480458
			12:[C_D_U_CATEGORY_CITY_MICRO_MEAN_COEC<0.194305] yes=25,no=26,missing=26
				25:[U_CATEGORY_MACRO_MAX_COEC<0.051416] yes=51,no=52,missing=51
					51:[CAT_REL<0.091903] yes=99,no=100,missing=100
						99:leaf=-0.00109629
						100:leaf=0.00439806
					52:[C_D_U_KEYWORD_CATEGORY_MACRO_MAX_COEC<0.028961] yes=101,no=102,missing=101
						101:leaf=-0.0170175
						102:leaf=-0.0040822
				26:[D_TITLEMD5_COEC<0.030026] yes=53,no=54,missing=54
					53:[C_D_U_CATEGORY_AGE_MICRO_MEAN_COEC<0.113448] yes=103,no=104,missing=103
						103:leaf=-0.0211316
						104:leaf=0.0928188
					54:[C_D_U_TITLEMD5_CITY_COEC<0.282728] yes=105,no=106,missing=105
						105:leaf=0.00962642
						106:leaf=-0.00406384
		6:[WORD_COUNT<1075] yes=13,no=14,missing=14
			13:[D_KEYWORD_MACRO_MAX_COEC<0.087602] yes=27,no=28,missing=28
				27:[CAT_REL<0.008243] yes=55,no=56,missing=56
					55:[DOC_AGE<29] yes=107,no=108,missing=108
						107:leaf=-0.0363723
						108:leaf=-0.000498769
					56:[C_D_U_TITLEMD5_CATEGORY_MACRO_MAX_COEC<0.032495] yes=109,no=110,missing=109
						109:leaf=0.00835513
						110:leaf=-0.0170248
				28:[DOC_AGE<6] yes=57,no=58,missing=58
					57:[D_PUBLISHER_COEC<0.096168] yes=111,no=112,missing=112
						111:leaf=-0.0732051
						112:leaf=0.0460822
					58:[U_CATEGORY_MICRO_MAX_COEC<0.087424] yes=113,no=114,missing=114
						113:leaf=-0.018101
						114:leaf=0.00530566
			14:[U_CATEGORY_MICRO_MAX_COEC<0.100805] yes=29,no=30,missing=29
				29:[WORD_COUNT<2624] yes=59,no=60,missing=60
					59:[D_KEYWORD_MICRO_MEAN_COEC<0.108903] yes=115,no=116,missing=116
						115:leaf=0.0109849
						116:leaf=0.00209903
					60:[WORD_COUNT<3998] yes=117,no=118,missing=118
						117:leaf=-0.00762645
						118:leaf=0.00472293
				30:[U_CATEGORY_MACRO_MAX_COEC<0.042385] yes=61,no=62,missing=62
					61:[C_D_U_TITLEMD5_CATEGORY_MICRO_MAX_COEC<0.114494] yes=119,no=120,missing=120
						119:leaf=0.0302913
						120:leaf=0.0101679
					62:[D_PUBLISHER_COEC<0.096577] yes=121,no=122,missing=121
						121:leaf=-0.0228799
						122:leaf=0.00201277
booster[56]:
0:[C_D_U_KEYWORD_CATEGORY_MICRO_MEAN_COEC<0.168877] yes=1,no=2,missing=1
	1:[C_D_U_TITLEMD5_CATEGORY_MICRO_MAX_COEC<0.385971] yes=3,no=4,missing=3
		3:[DAY_OF_WEEK<6] yes=7,no=8,missing=8
			7:[U_CITY_COEC<0.113492] yes=15,no=16,missing=15
				15:[C_D_U_TITLEMD5_CITY_COEC<0.055833] yes=31,no=32,missing=31
					31:[DAY_OF_WEEK<4] yes=63,no=64,missing=64
						63:leaf=-0.0012679
						64:leaf=-0.00630039
					32:[D_CATEGORY_MICRO_MEAN_COEC<0.054265] yes=65,no=66,missing=66
						65:leaf=0.0304516
						66:leaf=0.000412661
				16:[C_D_U_KEYWORD_CATEGORY_MACRO_MEAN_COEC<0.025811] yes=33,no=34,missing=34
					33:[TIME_OF_DAY<12] yes=67,no=68,missing=68
						67:leaf=0.0142784
						68:leaf=0.00466745
					34:[U_CITY_COEC<0.200268] yes=69,no=70,missing=70
						69:leaf=-0.000112928
						70:leaf=0.0152426
			8:[D_PUBLISHER_COEC<0.116679] yes=17,no=18,missing=18
				17:[DOC_AGE<25] yes=35,no=36,missing=36
					35:[D_TITLEMD5_COEC<0.051027] yes=71,no=72,missing=72
						71:leaf=-0.0142292
						72:leaf=0.00407083
					36:[U_CATEGORY_MACRO_MAX_COEC<0.009888] yes=73,no=74,missing=73
						73:leaf=0.00144289
						74:leaf=-0.0132009
				18:[D_KEYWORD_MACRO_MAX_COEC<0.019117] yes=37,no=38,missing=38
					37:[U_CATEGORY_MACRO_MAX_COEC<0.060954] yes=75,no=76,missing=76
						75:leaf=0.0208048
						76:leaf=0.0876456
					38:[D_CATEGORY_MACRO_MAX_COEC<0.054529] yes=77,no=78,missing=77
						77:leaf=-0.00442463
						78:leaf=0.012564
		4:[C_D_U_TITLEMD5_CATEGORY_MACRO_MAX_COEC<0.092018] yes=9,no=10,missing=10
			9:[C_D_U_CATEGORY_CITY_MACRO_MEAN_COEC<0.072816] yes=19,no=20,missing=20
				19:[D_CATEGORY_MACRO_MAX_COEC<0.082506] yes=39,no=40,missing=40
					39:[C_D_U_TITLEMD5_CATEGORY_MACRO_MAX_COEC<0.078577] yes=79,no=80,missing=80
						79:leaf=-0.0635365
						80:leaf=-0.0181979
					40:[D_CATEGORY_MACRO_MEAN_COEC<0.085772] yes=81,no=82,missing=82
						81:leaf=0.0387243
						82:leaf=-0.0318524
				20:[C_D_U_TITLEMD5_CATEGORY_MACRO_MAX_COEC<0.048112] yes=41,no=42,missing=42
					41:[D_KEYWORD_MACRO_MEAN_COEC<0.131878] yes=83,no=84,missing=84
						83:leaf=0.00937091
						84:leaf=0.081613
					42:[D_TITLEMD5_COEC<0.176004] yes=85,no=86,missing=86
						85:leaf=-0.0194086
						86:leaf=0.00254279
			10:[D_PUBLISHER_COEC<0.09962] yes=21,no=22,missing=22
				21:[D_CATEGORY_MACRO_MEAN_COEC<0.113238] yes=43,no=44,missing=43
					43:[DAY_OF_WEEK<6] yes=87,no=88,missing=88
						87:leaf=-0.0438064
						88:leaf=-0.0172615
					44:[D_KEYWORD_MACRO_MAX_COEC<0.036492] yes=89,no=90,missing=90
						89:leaf=-0.0661624
						90:leaf=-0.157074
				22:[CAT_REL<0.164836] yes=45,no=46,missing=46
					45:[DOC_AGE<78] yes=91,no=92,missing=92
						91:leaf=-0.0318604
						92:leaf=0.00450814
					46:[D_CATEGORY_MACRO_MAX_COEC<0.084124] yes=93,no=94,missing=94
						93:leaf=-0.0600122
						94:leaf=0.0298229
	2:[D_KEYWORD_MICRO_MEAN_COEC<0.135961] yes=5,no=6,missing=6
		5:[C_D_U_TITLEMD5_CATEGORY_MACRO_MAX_COEC<0.011851] yes=11,no=12,missing=11
			11:[D_KEYWORD_MICRO_MEAN_COEC<0.099623] yes=23,no=24,missing=24
				23:[C_D_U_KEYWORD_CATEGORY_MICRO_MEAN_COEC<0.179713] yes=47,no=48,missing=48
					47:[DOC_AGE<26] yes=95,no=96,missing=96
						95:leaf=0.0773326
						96:leaf=0.158577
					48:[C_D_U_CATEGORY_CITY_MACRO_MAX_COEC<0.088713] yes=97,no=98,missing=97
						97:leaf=0.0704405
						98:leaf=0.00378324
				24:[C_D_U_CATEGORY_GENDER_MACRO_MAX_COEC<0.109669] yes=49,no=50,missing=49
					49:[C_D_U_KEYWORD_CATEGORY_MACRO_MAX_COEC<0.021585] yes=99,no=100,missing=100
						99:leaf=0.0388816
						100:leaf=-0.0134046
					50:[U_CITY_COEC<0.091894] yes=101,no=102,missing=101
						101:leaf=-0.0631491
						102:leaf=0.0197696
			12:[D_CATEGORY_MICRO_MEAN_COEC<0.102074] yes=25,no=26,missing=25
				25:[D_KEYWORD_MACRO_MEAN_COEC<0.101879] yes=51,no=52,missing=52
					51:[U_CATEGORY_MICRO_MAX_COEC<0.08985] yes=103,no=104,missing=104
						103:leaf=0.0310756
						104:leaf=0.00355777
					52:[D_PUBLISHER_COEC<0.110321] yes=105,no=106,missing=106
						105:leaf=0.0225536
						106:leaf=0.00990326
				26:[D_KEYWORD_MICRO_MAX_COEC<0.166316] yes=53,no=54,missing=54
					53:[IMAGE_COUNT<2] yes=107,no=108,missing=108
						107:leaf=0.00632697
						108:leaf=-0.00840172
					54:[WORD_COUNT<3998] yes=109,no=110,missing=110
						109:leaf=0.0065744
						110:leaf=0.040036
		6:[D_KEYWORD_MACRO_MAX_COEC<0.051996] yes=13,no=14,missing=14
			13:[D_KEYWORD_MACRO_MEAN_COEC<0.121144] yes=27,no=28,missing=28
				27:[C_D_U_TITLEMD5_CATEGORY_MICRO_MAX_COEC<0.234286] yes=55,no=56,missing=55
					55:[C_D_U_TITLEMD5_CATEGORY_MACRO_MAX_COEC<0.003604] yes=111,no=112,missing=111
						111:leaf=-0.089381
						112:leaf=-0.0349962
					56:[C_D_U_TITLEMD5_CITY_COEC<0.167683] yes=113,no=114,missing=113
						113:leaf=-0.136051
						114:leaf=-0.0150888
				28:[C_D_U_KEYWORD_CATEGORY_MACRO_MAX_COEC<0.006045] yes=57,no=58,missing=58
					57:[C_D_U_PUBLISHER_GENDER_COEC<0.153518] yes=115,no=116,missing=115
						115:leaf=0.0278677
						116:leaf=-0.045779
					58:[D_CATEGORY_MICRO_MAX_COEC<0.105794] yes=117,no=118,missing=117
						117:leaf=-0.00110047
						118:leaf=-0.0244942
			14:[TIME_OF_DAY<15] yes=29,no=30,missing=30
				29:[TIME_OF_DAY<4] yes=59,no=60,missing=60
					59:[D_CATEGORY_MACRO_MEAN_COEC<0.10213] yes=119,no=120,missing=119
						119:leaf=0.0115491
						120:leaf=-0.00685339
					60:[CAT_REL<0.206563] yes=121,no=122,missing=122
						121:leaf=0.0102361
						122:leaf=0.037511
				30:[D_PUBLISHER_COEC<0.142619] yes=61,no=62,missing=62
					61:[U_CATEGORY_MICRO_MAX_COEC<0.088111] yes=123,no=124,missing=124
						123:leaf=-0.0112251
						124:leaf=0.00623393
					62:[C_D_U_PUBLISHER_CITY_COEC<0.018258] yes=125,no=126,missing=125
						125:leaf=-0.0249757
						126:leaf=-0.00676764
booster[57]:
0:[U_CATEGORY_MACRO_MAX_COEC<0.011264] yes=1,no=2,missing=2
	1:[C_D_U_TITLEMD5_GENDER_COEC<0.12954] yes=3,no=4,missing=4
		3:[C_D_U_CATEGORY_GENDER_MICRO_MAX_COEC<0.129805] yes=7,no=8,missing=8
			7:[CAT_REL<0.083447] yes=15,no=16,missing=16
				15:[U_CATEGORY_MACRO_MAX_COEC<0.008475] yes=31,no=32,missing=32
					31:[U_CATEGORY_MICRO_MAX_COEC<0.087504] yes=63,no=64,missing=64
						63:leaf=-0.024193
						64:leaf=0.010081
					32:[C_D_U_TITLEMD5_GENDER_COEC<0.083133] yes=65,no=66,missing=66
						65:leaf=-0.0317514
						66:leaf=-0.0134179
				16:[D_CATEGORY_MACRO_MAX_COEC<0.050456] yes=33,no=34,missing=34
					33:[C_D_U_TITLEMD5_AGE_COEC<0.092234] yes=67,no=68,missing=67
						67:leaf=0.176479
						68:leaf=-0.0585845
					34:[C_D_U_CATEGORY_GENDER_MACRO_MEAN_COEC<0.074956] yes=69,no=70,missing=70
						69:leaf=-0.0435655
						70:leaf=0.0105251
			8:[C_D_U_TITLEMD5_CATEGORY_MICRO_MAX_COEC<0.103578] yes=17,no=18,missing=17
				17:[D_CATEGORY_MICRO_MEAN_COEC<0.08604] yes=35,no=36,missing=36
					35:[C_D_U_TITLEMD5_CATEGORY_MICRO_MAX_COEC<0.062722] yes=71,no=72,missing=71
						71:leaf=0.310693
						72:leaf=0.0338947
					36:[CAT_REL<0.101291] yes=73,no=74,missing=74
						73:leaf=0.0250013
						74:leaf=0.183708
				18:[C_D_U_TITLEMD5_CATEGORY_MICRO_MAX_COEC<0.142739] yes=37,no=38,missing=38
					37:[C_D_U_KEYWORD_CATEGORY_MICRO_MAX_COEC<0.168017] yes=75,no=76,missing=76
						75:leaf=-0.047441
						76:leaf=0.0154938
					38:[TIME_OF_DAY<17] yes=77,no=78,missing=78
						77:leaf=-0.00457128
						78:leaf=0.063169
		4:[U_CATEGORY_MICRO_MAX_COEC<0.140486] yes=9,no=10,missing=10
			9:[U_CATEGORY_MICRO_MAX_COEC<0.09382] yes=19,no=20,missing=20
				19:[U_CATEGORY_MACRO_MAX_COEC<0.007182] yes=39,no=40,missing=40
					39:[C_D_U_TITLEMD5_AGE_COEC<0.287438] yes=79,no=80,missing=80
						79:leaf=-0.0244043
						80:leaf=0.0271011
					40:[CAT_REL<0.068527] yes=81,no=82,missing=82
						81:leaf=-0.00227418
						82:leaf=0.0108642
				20:[CAT_REL<0.058751] yes=41,no=42,missing=42
					41:[C_D_U_PUBLISHER_AGE_COEC<0.114867] yes=83,no=84,missing=84
						83:leaf=-0.010527
						84:leaf=0.00999628
					42:[DOC_AGE<45] yes=85,no=86,missing=86
						85:leaf=0.0241083
						86:leaf=-0.0222967
			10:[C_D_U_TITLEMD5_CATEGORY_MICRO_MAX_COEC<0.089099] yes=21,no=22,missing=21
				21:[D_CATEGORY_MACRO_MAX_COEC<0.106382] yes=43,no=44,missing=43
					43:[U_CITY_COEC<0.094476] yes=87,no=88,missing=87
						87:leaf=0.0514622
						88:leaf=0.133718
					44:[D_KEYWORD_MACRO_MEAN_COEC<0.076028] yes=89,no=90,missing=90
						89:leaf=0.243178
						90:leaf=0.124441
				22:[U_CITY_COEC<0.094476] yes=45,no=46,missing=45
					45:[D_CATEGORY_MICRO_MAX_COEC<0.106323] yes=91,no=92,missing=91
						91:leaf=-0.0478854
						92:leaf=0.0757781
					46:[TIME_OF_DAY<20] yes=93,no=94,missing=94
						93:leaf=0.113549
						94:leaf=0.0237638
	2:[D_KEYWORD_MACRO_MEAN_COEC<0.078751] yes=5,no=6,missing=5
		5:[CAT_REL<0.083447] yes=11,no=12,missing=12
			11:[D_CATEGORY_MACRO_MEAN_COEC<0.091687] yes=23,no=24,missing=24
				23:[D_PUBLISHER_COEC<0.125076] yes=47,no=48,missing=48
					47:[DOC_AGE<4] yes=95,no=96,missing=96
						95:leaf=-0.00381129
						96:leaf=-0.0176178
					48:[D_CATEGORY_MACRO_MAX_COEC<0.072714] yes=97,no=98,missing=98
						97:leaf=-0.0242349
						98:leaf=0.0346981
				24:[U_CITY_COEC<0.11297] yes=49,no=50,missing=49
					49:[U_CATEGORY_MACRO_MAX_COEC<0.032841] yes=99,no=100,missing=99
						99:leaf=-0.00323664
						100:leaf=-0.0208201
					50:[U_CATEGORY_MACRO_MAX_COEC<0.017765] yes=101,no=102,missing=102
						101:leaf=0.0307905
						102:leaf=0.00736747
			12:[D_KEYWORD_MICRO_MEAN_COEC<0.081312] yes=25,no=26,missing=26
				25:[C_D_U_KEYWORD_CATEGORY_MICRO_MEAN_COEC<0.071964] yes=51,no=52,missing=51
					51:[U_CATEGORY_MACRO_MAX_COEC<0.018507] yes=103,no=104,missing=104
						103:leaf=0.00935768
						104:leaf=-0.0192966
					52:[D_TITLEMD5_COEC<0.120679] yes=105,no=106,missing=105
						105:leaf=0.0119605
						106:leaf=-0.0127571
				26:[U_CATEGORY_MACRO_MAX_COEC<0.035327] yes=53,no=54,missing=54
					53:[D_TITLEMD5_COEC<0.109423] yes=107,no=108,missing=107
						107:leaf=-0.00163013
						108:leaf=-0.0209225
					54:[CAT_REL<0.218515] yes=109,no=110,missing=110
						109:leaf=-0.0419875
						110:leaf=-0.014792
		6:[DOC_AGE<12] yes=13,no=14,missing=14
			13:[WORD_COUNT<642] yes=27,no=28,missing=28
				27:[D_TITLEMD5_COEC<0.135299] yes=55,no=56,missing=56
					55:[D_CATEGORY_MICRO_MAX_COEC<0.073362] yes=111,no=112,missing=111
						111:leaf=0.0149822
						112:leaf=-0.0169121
					56:[C_D_U_TITLEMD5_CATEGORY_MICRO_MAX_COEC<0.19086] yes=113,no=114,missing=114
						113:leaf=-0.0262082
						114:leaf=-0.0580104
				28:[DAY_OF_WEEK<6] yes=57,no=58,missing=58
					57:[U_CATEGORY_MICRO_MAX_COEC<0.110575] yes=115,no=116,missing=115
						115:leaf=1.17107e-06
						116:leaf=0.00593585
					58:[D_KEYWORD_MICRO_MEAN_COEC<0.112952] yes=117,no=118,missing=118
						117:leaf=0.00960057
						118:leaf=-0.00516314
			14:[DOC_AGE<73] yes=29,no=30,missing=30
				29:[D_TITLEMD5_COEC<0.084566] yes=59,no=60,missing=60
					59:[U_CATEGORY_MICRO_MAX_COEC<0.10143] yes=119,no=120,missing=120
						119:leaf=-0.0209697
						120:leaf=-0.0093038
					60:[TIME_OF_DAY<8] yes=121,no=122,missing=122
						121:leaf=-0.0059237
						122:leaf=-0.000747552
				30:[D_KEYWORD_MACRO_MAX_COEC<0.020291] yes=61,no=62,missing=62
					61:[D_PUBLISHER_COEC<0.09107] yes=123,no=124,missing=124
						123:leaf=0.0505461
						124:leaf=0.0103316
					62:[U_CATEGORY_MACRO_MAX_COEC<0.05186] yes=125,no=126,missing=126
						125:leaf=0.0134188
						126:leaf=0.00335266
booster[58]:
0:[TIME_OF_DAY<23] yes=1,no=2,missing=2
	1:[U_CATEGORY_MACRO_MAX_COEC<0.042622] yes=3,no=4,missing=3
		3:[CAT_REL<0.155731] yes=7,no=8,missing=8
			7:[U_CATEGORY_MICRO_MAX_COEC<0.11262] yes=15,no=16,missing=15
				15:[DAY_OF_WEEK<6] yes=31,no=32,missing=32
					31:[DAY_OF_WEEK<0.999999] yes=63,no=64,missing=64
						63:leaf=0.00298765
						64:leaf=-0.00319696
					32:[D_CATEGORY_MACRO_MEAN_COEC<0.087732] yes=65,no=66,missing=66
						65:leaf=-0.00260936
						66:leaf=0.00742745
				16:[C_D_U_TITLEMD5_CATEGORY_MICRO_MAX_COEC<0.084769] yes=33,no=34,missing=34
					33:[C_D_U_KEYWORD_CATEGORY_MICRO_MEAN_COEC<0.127627] yes=67,no=68,missing=68
						67:leaf=0.00705172
						68:leaf=0.0273571
					34:[C_D_U_KEYWORD_CATEGORY_MICRO_MEAN_COEC<0.164257] yes=69,no=70,missing=69
						69:leaf=0.00132472
						70:leaf=0.00857698
			8:[TIME_OF_DAY<13] yes=17,no=18,missing=18
				17:[TIME_OF_DAY<4] yes=35,no=36,missing=36
					35:[D_CATEGORY_MICRO_MEAN_COEC<0.09927] yes=71,no=72,missing=72
						71:leaf=0.00366177
						72:leaf=-0.00929564
					36:[TIME_OF_DAY<8] yes=73,no=74,missing=74
						73:leaf=0.0439063
						74:leaf=0.0107581
				18:[D_CATEGORY_MACRO_MEAN_COEC<0.102565] yes=37,no=38,missing=38
					37:[C_D_U_PUBLISHER_GENDER_COEC<0.078387] yes=75,no=76,missing=75
						75:leaf=0.00332927
						76:leaf=0.0205671
					38:[C_D_U_TITLEMD5_AGE_COEC<0.202394] yes=77,no=78,missing=77
						77:leaf=-0.00696047
						78:leaf=0.0256864
		4:[CAT_REL<0.324776] yes=9,no=10,missing=10
			9:[TIME_OF_DAY<8] yes=19,no=20,missing=20
				19:[TIME_OF_DAY<4] yes=39,no=40,missing=40
					39:[CAT_REL<0.010099] yes=79,no=80,missing=80
						79:leaf=0.000525393
						80:leaf=-0.0184077
					40:[DAY_OF_WEEK<5] yes=81,no=82,missing=82
						81:leaf=-0.0589206
						82:leaf=0.00962735
				20:[CAT_REL<0.00471] yes=41,no=42,missing=42
					41:[TIME_OF_DAY<15] yes=83,no=84,missing=84
						83:leaf=0.0111698
						84:leaf=-0.00211186
					42:[D_KEYWORD_MICRO_MEAN_COEC<0.119531] yes=85,no=86,missing=86
						85:leaf=-0.01364
						86:leaf=-0.00065604
			10:[C_D_U_KEYWORD_CATEGORY_MICRO_MAX_COEC<0.380475] yes=21,no=22,missing=21
				21:[TIME_OF_DAY<4] yes=43,no=44,missing=44
					43:[C_D_U_CATEGORY_CITY_MICRO_MEAN_COEC<0.093132] yes=87,no=88,missing=87
						87:leaf=-0.0158213
						88:leaf=0.00132107
					44:[TIME_OF_DAY<9] yes=89,no=90,missing=90
						89:leaf=0.0342351
						90:leaf=-0.0026397
				22:[TIME_OF_DAY<8] yes=45,no=46,missing=46
					45:[TIME_OF_DAY<4] yes=91,no=92,missing=92
						91:leaf=-0.0719508
						92:leaf=0.125106
					46:[C_D_U_KEYWORD_CATEGORY_MICRO_MEAN_COEC<0.224275] yes=93,no=94,missing=94
						93:leaf=0.0257624
						94:leaf=-0.0660366
	2:[DOC_AGE<8] yes=5,no=6,missing=6
		5:[D_KEYWORD_MACRO_MEAN_COEC<0.086321] yes=11,no=12,missing=12
			11:[D_TITLEMD5_COEC<0.115182] yes=23,no=24,missing=23
				23:[C_D_U_KEYWORD_CATEGORY_MACRO_MAX_COEC<0.005536] yes=47,no=48,missing=48
					47:[C_D_U_KEYWORD_CATEGORY_MACRO_MEAN_COEC<0.020522] yes=95,no=96,missing=96
						95:leaf=0.00347754
						96:leaf=-0.0587502
					48:[C_D_U_CATEGORY_CITY_MACRO_MAX_COEC<0.154915] yes=97,no=98,missing=97
						97:leaf=-0.0186175
						98:leaf=0.0273015
				24:[D_CATEGORY_MICRO_MEAN_COEC<0.078207] yes=49,no=50,missing=49
					49:[C_D_U_KEYWORD_CATEGORY_MICRO_MEAN_COEC<0.132441] yes=99,no=100,missing=99
						99:leaf=-0.0726931
						100:leaf=-0.00589522
					50:[C_D_U_TITLEMD5_CITY_COEC<0.04783] yes=101,no=102,missing=102
						101:leaf=-0.0682498
						102:leaf=-0.0205691
			12:[D_KEYWORD_MICRO_MEAN_COEC<0.138298] yes=25,no=26,missing=26
				25:[D_KEYWORD_MICRO_MAX_COEC<0.146095] yes=51,no=52,missing=52
					51:[DOC_AGE<4] yes=103,no=104,missing=104
						103:leaf=0.0263483
						104:leaf=-0.00650883
					52:[C_D_U_TITLEMD5_CATEGORY_MICRO_MAX_COEC<0.088899] yes=105,no=106,missing=106
						105:leaf=0.0393881
						106:leaf=0.00629327
				26:[C_D_U_TITLEMD5_CATEGORY_MICRO_MAX_COEC<0.112083] yes=53,no=54,missing=54
					53:[C_D_U_TITLEMD5_CITY_COEC<0.23507] yes=107,no=108,missing=108
						107:leaf=0.0777076
						108:leaf=-0.0560702
					54:[C_D_U_PUBLISHER_CITY_COEC<0.144009] yes=109,no=110,missing=109
						109:leaf=-0.0521069
						110:leaf=-0.00409729
		6:[D_CATEGORY_MICRO_MEAN_COEC<0.102519] yes=13,no=14,missing=13
			13:[C_D_U_TITLEMD5_GENDER_COEC<0.181981] yes=27,no=28,missing=28
				27:[DOC_AGE<17] yes=55,no=56,missing=56
					55:[U_CITY_COEC<0.155448] yes=111,no=112,missing=111
						111:leaf=-0.0145773
						112:leaf=0.0571947
					56:[U_CATEGORY_MACRO_MAX_COEC<0.055372] yes=113,no=114,missing=113
						113:leaf=-0.0398534
						114:leaf=0.091004
				28:[D_CATEGORY_MICRO_MAX_COEC<0.102417] yes=57,no=58,missing=57
					57:[U_CATEGORY_MACRO_MAX_COEC<0.016378] yes=115,no=116,missing=116
						115:leaf=0.000902701
						116:leaf=-0.0100428
					58:[D_KEYWORD_MACRO_MAX_COEC<0.04854] yes=117,no=118,missing=118
						117:leaf=-0.00755034
						118:leaf=0.0149647
			14:[D_CATEGORY_MACRO_MAX_COEC<0.105498] yes=29,no=30,missing=30
				29:[D_CATEGORY_MACRO_MAX_COEC<0.104883] yes=59,no=60,missing=60
					59:[U_CITY_COEC<0.09063] yes=119,no=120,missing=119
						119:leaf=-0.0297843
						120:leaf=-0.0155655
					60:[U_CATEGORY_MICRO_MAX_COEC<0.117847] yes=121,no=122,missing=122
						121:leaf=-0.0748122
						122:leaf=-0.036122
				30:[C_D_U_PUBLISHER_AGE_COEC<0.117959] yes=61,no=62,missing=61
					61:[WORD_COUNT<4974] yes=123,no=124,missing=124
						123:leaf=-0.013565
						124:leaf=0.00716252
					62:[C_D_U_CATEGORY_AGE_MACRO_MEAN_COEC<0.128682] yes=125,no=126,missing=126
						125:leaf=-0.0111263
						126:leaf=-0.075256
booster[59]:
0:[U_CATEGORY_MACRO_MAX_COEC<0.013385] yes=1,no=2,missing=2
	1:[CAT_REL<0.021145] yes=3,no=4,missing=4
		3:[U_CITY_COEC<0.079243] yes=7,no=8,missing=8
			7:[C_D_U_KEYWORD_CATEGORY_MICRO_MEAN_COEC<0.126171] yes=15,no=16,missing=16
				15:[DOC_AGE<10] yes=31,no=32,missing=32
					31:[TIME_OF_DAY<3] yes=63,no=64,missing=64
						63:leaf=-0.0203842
						64:leaf=0.000626896
					32:[C_D_U_KEYWORD_CATEGORY_MICRO_MEAN_COEC<0.069036] yes=65,no=66,missing=66
						65:leaf=-0.0515558
						66:leaf=-0.0192374
				16:[U_CATEGORY_MACRO_MAX_COEC<0.008502] yes=33,no=34,missing=34
					33:[D_CATEGORY_MICRO_MAX_COEC<0.100562] yes=67,no=68,missing=68
						67:leaf=0.0761203
						68:leaf=0.0119307
					34:[C_D_U_TITLEMD5_CITY_COEC<0.125837] yes=69,no=70,missing=70
						69:leaf=0.0136681
						70:leaf=-0.00816147
			8:[D_CATEGORY_MACRO_MAX_COEC<0.221191] yes=17,no=18,missing=18
				17:[U_CITY_COEC<0.099555] yes=35,no=36,missing=35
					35:[C_D_U_TITLEMD5_GENDER_COEC<0.163963] yes=71,no=72,missing=72
						71:leaf=-0.0163172
						72:leaf=0.000619264
					36:[U_CATEGORY_MICRO_MAX_COEC<0.140486] yes=73,no=74,missing=74
						73:leaf=0.00662595
						74:leaf=0.074702
				18:[C_D_U_KEYWORD_CATEGORY_MACRO_MAX_COEC<0.002848] yes=37,no=38,missing=38
					37:[U_CITY_COEC<0.196557] yes=75,no=76,missing=75
						75:leaf=0.0349668
						76:leaf=0.140867
					38:[U_CATEGORY_MICRO_MAX_COEC<0.084108] yes=77,no=78,missing=78
						77:leaf=-0.00846002
						78:leaf=0.0120338
		4:[U_CATEGORY_MICRO_MAX_COEC<0.081617] yes=9,no=10,missing=10
			9:[U_CATEGORY_MACRO_MAX_COEC<0.009262] yes=19,no=20,missing=20
				19:[TIME_OF_DAY<3] yes=39,no=40,missing=40
					39:[C_D_U_CATEGORY_CITY_MACRO_MEAN_COEC<0.057653] yes=79,no=80,missing=80
						79:leaf=-0.0908841
						80:leaf=-0.000966748
					40:[U_CITY_COEC<0.061837] yes=81,no=82,missing=82
						81:leaf=0.107725
						82:leaf=0.0180038
				20:[D_KEYWORD_MACRO_MEAN_COEC<0.123137] yes=41,no=42,missing=42
					41:[CAT_REL<0.086819] yes=83,no=84,missing=84
						83:leaf=-0.0160414
						84:leaf=0.00062732
					42:[DOC_AGE<34] yes=85,no=86,missing=86
						85:leaf=0.0155224
						86:leaf=-0.0709107
			10:[U_CATEGORY_MICRO_MAX_COEC<0.12847] yes=21,no=22,missing=22
				21:[TIME_OF_DAY<4] yes=43,no=44,missing=44
					43:[U_CITY_COEC<0.078442] yes=87,no=88,missing=88
						87:leaf=-0.0154438
						88:leaf=0.00484598
					44:[TIME_OF_DAY<13] yes=89,no=90,missing=90
						89:leaf=0.0184736
						90:leaf=0.00741843
				22:[U_CITY_COEC<0.0716] yes=45,no=46,missing=45
					45:[TIME_OF_DAY<7] yes=91,no=92,missing=92
						91:leaf=0.126425
						92:leaf=0.0378341
					46:[C_D_U_TITLEMD5_CITY_COEC<0.033933] yes=93,no=94,missing=93
						93:leaf=-0.00124413
						94:leaf=0.0447889
	2:[IMAGE_COUNT<0.999999] yes=5,no=6,missing=6
		5:[C_D_U_KEYWORD_CATEGORY_MICRO_MEAN_COEC<0.121589] yes=11,no=12,missing=11
			11:[D_TITLEMD5_COEC<0.15183] yes=23,no=24,missing=24
				23:[U_CATEGORY_MACRO_MAX_COEC<0.018812] yes=47,no=48,missing=48
					47:[C_D_U_CATEGORY_CITY_MACRO_MAX_COEC<0.049352] yes=95,no=96,missing=96
						95:leaf=-0.0505163
						96:leaf=-0.0067739
					48:[C_D_U_CATEGORY_GENDER_MACRO_MEAN_COEC<0.136702] yes=97,no=98,missing=97
						97:leaf=-0.0311901
						98:leaf=0.171236
				24:[D_KEYWORD_MACRO_MAX_COEC<0.055882] yes=49,no=50,missing=50
					49:[C_D_U_PUBLISHER_CITY_COEC<0.093781] yes=99,no=100,missing=99
						99:leaf=-0.0525485
						100:leaf=0.00429692
					50:[U_CITY_COEC<0.113099] yes=101,no=102,missing=101
						101:leaf=-0.0978715
						102:leaf=-0.0127989
			12:[D_TITLEMD5_COEC<0.084209] yes=25,no=26,missing=25
				25:[C_D_U_KEYWORD_CATEGORY_MICRO_MAX_COEC<0.158348] yes=51,no=52,missing=52
					51:[CAT_REL<0.088717] yes=103,no=104,missing=104
						103:leaf=-0.0595916
						104:leaf=-0.00247277
					52:[C_D_U_TITLEMD5_CATEGORY_MICRO_MAX_COEC<0.089646] yes=105,no=106,missing=106
						105:leaf=0.0457256
						106:leaf=0.00606558
				26:[WORD_COUNT<668] yes=53,no=54,missing=54
					53:[U_CATEGORY_MACRO_MAX_COEC<0.014767] yes=107,no=108,missing=108
						107:leaf=0.0288537
						108:leaf=-0.0856494
					54:[C_D_U_KEYWORD_CATEGORY_MICRO_MEAN_COEC<0.127063] yes=109,no=110,missing=110
						109:leaf=0.0139441
						110:leaf=-0.0189675
		6:[CAT_REL<0.132059] yes=13,no=14,missing=14
			13:[D_KEYWORD_MACRO_MEAN_COEC<0.080972] yes=27,no=28,missing=27
				27:[D_CATEGORY_MACRO_MEAN_COEC<0.095207] yes=55,no=56,missing=56
					55:[D_PUBLISHER_COEC<0.123899] yes=111,no=112,missing=112
						111:leaf=-0.0122447
						112:leaf=0.0180289
					56:[D_CATEGORY_MICRO_MAX_COEC<0.099377] yes=113,no=114,missing=114
						113:leaf=0.0104982
						114:leaf=-0.00278755
				28:[DAY_OF_WEEK<0.999999] yes=57,no=58,missing=58
					57:[TIME_OF_DAY<19] yes=115,no=116,missing=116
						115:leaf=0.00627522
						116:leaf=-0.00309286
					58:[TIME_OF_DAY<8] yes=117,no=118,missing=118
						117:leaf=-0.0050632
						118:leaf=2.66033e-05
			14:[TIME_OF_DAY<4] yes=29,no=30,missing=30
				29:[D_CATEGORY_MACRO_MEAN_COEC<0.095207] yes=59,no=60,missing=60
					59:[C_D_U_CATEGORY_GENDER_MACRO_MAX_COEC<0.102693] yes=119,no=120,missing=119
						119:leaf=-0.000193076
						120:leaf=0.0256634
					60:[C_D_U_CATEGORY_CITY_MACRO_MAX_COEC<0.102283] yes=121,no=122,missing=122
						121:leaf=-0.0163946
						122:leaf=-0.00476264
				30:[TIME_OF_DAY<9] yes=61,no=62,missing=62
					61:[D_CATEGORY_MACRO_MEAN_COEC<0.109683] yes=123,no=124,missing=124
						123:leaf=0.0280023
						124:leaf=0.0866625
					62:[D_CATEGORY_MACRO_MEAN_COEC<0.101926] yes=125,no=126,missing=126
						125:leaf=0.00300653
						126:leaf=-0.0048667
