booster[0]:
0:[C_D_U_TITLEMD5_CATEGORY_MICRO_MAX_COEC<0.058999] yes=1,no=2,missing=1,gain=1.11351e+06,cover=8.12634e+06
	1:[D_TITLEMD5_COEC<0.050999] yes=3,no=4,missing=3,gain=296665,cover=3.44551e+06
		3:[C_D_U_CATEGORY_CATEGORY_MICRO_MEAN_COEC<0.055999] yes=7,no=8,missing=7,gain=113485,cover=1.28282e+06
			7:[D_KEYWORD_MACRO_MEAN_COEC<0.043999] yes=15,no=16,missing=16,gain=19275.4,cover=441670
				15:[CAT_REL<0.022999] yes=31,no=32,missing=32,gain=7961.68,cover=156265
					31:[D_TITLEMD5_COEC<0.028999] yes=63,no=64,missing=63,gain=3294.02,cover=90413.6
						63:leaf=-0.0933405,cover=72198.4
						64:leaf=-0.0457483,cover=18215.2
					32:[U_CITY_COEC<0.059999] yes=65,no=66,missing=66,gain=3222.41,cover=65851.5
						65:leaf=-0.0744878,cover=17726.2
						66:leaf=-0.0246133,cover=48125.3
				16:[CAT_REL<0.009999] yes=33,no=34,missing=34,gain=13879.1,cover=285405
					33:[D_TITLEMD5_COEC<0.033999] yes=67,no=68,missing=68,gain=3746.58,cover=155136
						67:leaf=-0.0570051,cover=75312.7
						68:leaf=-0.0259107,cover=79823
					34:[U_CITY_COEC<0.050999] yes=69,no=70,missing=70,gain=6202.05,cover=130270
						69:leaf=-0.045557,cover=21686
						70:leaf=0.0130175,cover=108583
			8:[U_CITY_COEC<0.051999] yes=17,no=18,missing=18,gain=46372.9,cover=841154
				17:[CAT_REL<0.017999] yes=35,no=36,missing=36,gain=6420.98,cover=117610
					35:[D_TITLEMD5_C<9.905] yes=71,no=72,missing=71,gain=2506.12,cover=39077.8
						71:leaf=-0.0779166,cover=31028.5
						72:leaf=-0.0152957,cover=8049.32
					36:[D_KEYWORD_MACRO_MEAN_COEC<0.047999] yes=73,no=74,missing=73,gain=4418.95,cover=78532.4
						73:leaf=-0.0473784,cover=27887.9
						74:leaf=0.00219002,cover=50644.6
				18:[CAT_REL<0.001999] yes=37,no=38,missing=38,gain=36909.7,cover=723544
					37:[D_TITLEMD5_COEC<0.037999] yes=75,no=76,missing=76,gain=6149.73,cover=129865
						75:leaf=-0.0303851,cover=77447.1
						76:leaf=0.0139685,cover=52417.5
					38:[D_KEYWORD_MACRO_MEAN_COEC<0.047999] yes=77,no=78,missing=78,gain=20330.9,cover=593679
						77:leaf=0.018752,cover=183938
						78:leaf=0.0587709,cover=409741
		4:[CAT_REL<0.001999] yes=9,no=10,missing=10,gain=86366.5,cover=2.16268e+06
			9:[D_TITLEMD5_COEC<0.096999] yes=19,no=20,missing=20,gain=61517.3,cover=1.06768e+06
				19:[U_CATEGORY_MAX_C<130.537] yes=39,no=40,missing=40,gain=18297,cover=593017
					39:[U_CITY_COEC<0.050999] yes=79,no=80,missing=80,gain=10055.4,cover=274396
						79:leaf=-0.0102752,cover=31688.4
						80:leaf=0.0496202,cover=242708
					40:[DOC_AGE<51] yes=81,no=82,missing=82,gain=11772.1,cover=318621
						81:leaf=-0.00930631,cover=180813
						82:leaf=0.0294918,cover=137808
				20:[D_PUBLISHER_COEC<0.103999] yes=41,no=42,missing=41,gain=19430.3,cover=474666
					41:[D_TITLEMD5_C<3.758] yes=83,no=84,missing=84,gain=6310.74,cover=261000
						83:leaf=0.00443378,cover=23580.8
						84:leaf=0.0586744,cover=237419
					42:[D_PUBLISHER_EC<24507.1] yes=85,no=86,missing=86,gain=4639.07,cover=213666
						85:leaf=0.101147,cover=177012
						86:leaf=0.062058,cover=36654.3
			10:[U_CATEGORY_MAX_EC<2056.05] yes=21,no=22,missing=22,gain=23189.3,cover=1.095e+06
				21:[D_KEYWORD_MACRO_MEAN_COEC<0.058999] yes=43,no=44,missing=43,gain=21463.1,cover=915282
					43:[U_CITY_COEC<0.050999] yes=87,no=88,missing=88,gain=8386.12,cover=226862
						87:leaf=0.010253,cover=24913.2
						88:leaf=0.0717464,cover=201949
					44:[U_CITY_COEC<0.053999] yes=89,no=90,missing=90,gain=11189.5,cover=688420
						89:leaf=0.0643943,cover=76472.9
						90:leaf=0.104967,cover=611947
				22:[U_CATEGORY_MAX_EC<3157.23] yes=45,no=46,missing=46,gain=2666.67,cover=179720
					45:[D_KEYWORD_MACRO_MEAN_COEC<0.061999] yes=91,no=92,missing=91,gain=1536.95,cover=102605
						91:leaf=0.0461701,cover=35665
						92:leaf=0.0718741,cover=66940.2
					46:[D_TITLEMD5_COEC<0.095999] yes=93,no=94,missing=94,gain=1663.16,cover=77114.4
						93:leaf=0.0300261,cover=58442.7
						94:leaf=0.0643098,cover=18671.7
	2:[D_TITLEMD5_COEC<0.092999] yes=5,no=6,missing=6,gain=132856,cover=4.68084e+06
		5:[CAT_REL<0.001999] yes=11,no=12,missing=12,gain=62076.6,cover=1.95941e+06
			11:[D_TITLEMD5_COEC<0.059999] yes=23,no=24,missing=24,gain=16410.2,cover=527685
				23:[D_TITLEMD5_COEC<0.037999] yes=47,no=48,missing=48,gain=3928.62,cover=86464.1
					47:[U_CATEGORY_MAX_EC<2157.74] yes=95,no=96,missing=96,gain=988.781,cover=13250.3
						95:leaf=-0.00891003,cover=10984.1
						96:leaf=-0.0814467,cover=2266.21
					48:[U_CATEGORY_MAX_EC<1209.8] yes=97,no=98,missing=98,gain=2793.19,cover=73213.8
						97:leaf=0.0518717,cover=48317.2
						98:leaf=0.0106401,cover=24896.6
				24:[U_CATEGORY_MAX_EC<1697.76] yes=49,no=50,missing=50,gain=10311.9,cover=441221
					49:[U_CITY_COEC<0.059999] yes=99,no=100,missing=100,gain=6086.26,cover=314896
						99:leaf=0.0534777,cover=48381.4
						100:leaf=0.0920328,cover=266514
					50:[DOC_AGE<36] yes=101,no=102,missing=102,gain=2022.49,cover=126325
						101:leaf=0.0386549,cover=58461.3
						102:leaf=0.0640331,cover=67864
			12:[D_TITLEMD5_COEC<0.055999] yes=25,no=26,missing=26,gain=27576.9,cover=1.43173e+06
				25:[C_D_U_CATEGORY_CATEGORY_MICRO_MEAN_COEC<0.090999] yes=51,no=52,missing=52,gain=6384.67,cover=234000
					51:[D_TITLEMD5_COEC<0.033999] yes=103,no=104,missing=104,gain=4282.41,cover=168164
						103:leaf=0.0290568,cover=25266.5
						104:leaf=0.0737191,cover=142898
					52:[U_CITY_COEC<0.057999] yes=105,no=106,missing=106,gain=1170.99,cover=65835.8
						105:leaf=0.0673652,cover=7805.4
						106:leaf=0.108637,cover=58030.4
				26:[C_D_U_CATEGORY_CATEGORY_MICRO_MEAN_COEC<0.072999] yes=53,no=54,missing=54,gain=16564.8,cover=1.19773e+06
					53:[U_CATEGORY_MAX_C<127.702] yes=107,no=108,missing=108,gain=6073.09,cover=448610
						107:leaf=0.105995,cover=346573
						108:leaf=0.0782364,cover=102037
					54:[C_D_U_CATEGORY_CATEGORY_MICRO_MEAN_COEC<0.096999] yes=109,no=110,missing=110,gain=5076.69,cover=749117
						109:leaf=0.118106,cover=496466
						110:leaf=0.135521,cover=252652
		6:[C_D_U_TITLEMD5_CATEGORY_MICRO_MAX_COEC<0.131999] yes=13,no=14,missing=14,gain=49648.6,cover=2.72142e+06
			13:[U_CATEGORY_MAX_C<139.353] yes=27,no=28,missing=28,gain=25428.3,cover=1.19095e+06
				27:[CAT_REL<0.001999] yes=55,no=56,missing=56,gain=12738.1,cover=870256
					55:[D_TITLEMD5_COEC<0.130999] yes=111,no=112,missing=112,gain=2371.84,cover=340782
						111:leaf=0.105912,cover=259948
						112:leaf=0.12553,cover=80834
					56:[U_CATEGORY_MAX_EC<1209.8] yes=113,no=114,missing=114,gain=1930.66,cover=529474
						113:leaf=0.139474,cover=361384
						114:leaf=0.126495,cover=168090
				28:[CAT_REL<0.001999] yes=57,no=58,missing=58,gain=6100.37,cover=320689
					57:[C_D_U_TITLEMD5_CATEGORY_MICRO_MAX_COEC<0.097999] yes=115,no=116,missing=116,gain=1835.91,cover=169178
						115:leaf=0.0705595,cover=96044.7
						116:leaf=0.0915912,cover=73133.3
					58:[C_D_U_TITLEMD5_CATEGORY_MICRO_MAX_COEC<0.086999] yes=117,no=118,missing=118,gain=1518.72,cover=151511
						117:leaf=0.0935883,cover=52816.5
						118:leaf=0.114606,cover=98694.7
			14:[CAT_REL<0.001999] yes=29,no=30,missing=30,gain=13806.9,cover=1.53048e+06
				29:[D_TITLEMD5_C<47.635] yes=59,no=60,missing=60,gain=6890.17,cover=476030
					59:[C_D_U_CATEGORY_CATEGORY_MICRO_MEAN_COEC<0.070999] yes=119,no=120,missing=120,gain=1197.53,cover=62128.7
						119:leaf=0.0831453,cover=27347.5
						120:leaf=0.111124,cover=34781.2
					60:[U_CATEGORY_MACRO_MAX_COEC<0.010999] yes=121,no=122,missing=122,gain=3773.26,cover=413902
						121:leaf=0.14006,cover=309905
						122:leaf=0.118042,cover=103997
				30:[D_TITLEMD5_C<14.693] yes=61,no=62,missing=62,gain=11473,cover=1.05445e+06
					61:[C_D_U_CATEGORY_CATEGORY_MICRO_MAX_COEC<0.069999] yes=123,no=124,missing=124,gain=2184.59,cover=149683
						123:leaf=0.100949,cover=30705.3
						124:leaf=0.130877,cover=118978
					62:[C_D_U_TITLEMD5_CATEGORY_MICRO_MAX_COEC<0.183999] yes=125,no=126,missing=126,gain=3930.9,cover=904764
						125:leaf=0.14798,cover=448598
						126:leaf=0.161167,cover=456166
booster[1]:
0:[C_D_U_TITLEMD5_CATEGORY_MICRO_MAX_COEC<0.061999] yes=1,no=2,missing=1,gain=907704,cover=8.09755e+06
	1:[D_KEYWORD_MACRO_MEAN_COEC<0.055999] yes=3,no=4,missing=3,gain=248790,cover=3.54397e+06
		3:[CAT_REL<0.001999] yes=7,no=8,missing=8,gain=70247.1,cover=1.09875e+06
			7:[D_TITLEMD5_COEC<0.033999] yes=15,no=16,missing=15,gain=23594.4,cover=323523
				15:[U_CITY_COEC<0.044999] yes=31,no=32,missing=32,gain=4375.93,cover=163042
					31:[C_D_U_CATEGORY_CATEGORY_MICRO_MEAN_COEC<0.067999] yes=63,no=64,missing=64,gain=852.515,cover=23187.7
						63:leaf=-0.122907,cover=13051.1
						64:leaf=-0.0842273,cover=10136.6
					32:[D_KEYWORD_MACRO_MEAN_COEC<0.034999] yes=65,no=66,missing=66,gain=3778.69,cover=139854
						65:leaf=-0.0908649,cover=29533.9
						66:leaf=-0.05059,cover=110321
				16:[C_D_U_TITLEMD5_CATEGORY_MICRO_MAX_COEC<0.016999] yes=33,no=34,missing=33,gain=6565.33,cover=160481
					33:[U_CITY_COEC<0.059999] yes=67,no=68,missing=68,gain=2893.43,cover=105444
						67:leaf=-0.0573723,cover=23414.1
						68:leaf=-0.0175167,cover=82030.3
					34:[U_CATEGORY_MAX_EC<2066.97] yes=69,no=70,missing=70,gain=1988.58,cover=55036.4
						69:leaf=0.0300592,cover=36008.5
						70:leaf=-0.00990698,cover=19027.8
			8:[U_CITY_COEC<0.049999] yes=17,no=18,missing=18,gain=38567,cover=775229
				17:[D_TITLEMD5_COEC<0.033999] yes=35,no=36,missing=35,gain=5927.36,cover=106729
					35:[C_D_U_CATEGORY_CATEGORY_MICRO_MEAN_COEC<0.046999] yes=71,no=72,missing=71,gain=2903.81,cover=71143
						71:leaf=-0.0939941,cover=15674.2
						72:leaf=-0.0452474,cover=55468.8
					36:[C_D_U_TITLEMD5_CATEGORY_MICRO_MAX_COEC<0.029999] yes=73,no=74,missing=73,gain=1306.26,cover=35585.7
						73:leaf=-0.0172661,cover=26442.7
						74:leaf=0.0265804,cover=9143.02
				18:[D_TITLEMD5_COEC<0.037999] yes=37,no=38,missing=37,gain=26793.9,cover=668500
					37:[C_D_U_CATEGORY_CATEGORY_MICRO_MEAN_COEC<0.056999] yes=75,no=76,missing=76,gain=20100.8,cover=416763
						75:leaf=-0.0228102,cover=129752
						76:leaf=0.0246188,cover=287011
					38:[U_CITY_COEC<0.103999] yes=77,no=78,missing=77,gain=4674.57,cover=251737
						77:leaf=0.0466074,cover=226348
						78:leaf=0.0918595,cover=25388.8
		4:[CAT_REL<0.001999] yes=9,no=10,missing=10,gain=73535.2,cover=2.44521e+06
			9:[D_TITLEMD5_COEC<0.090999] yes=19,no=20,missing=19,gain=65509.5,cover=1.14323e+06
				19:[U_CATEGORY_MACRO_MAX_COEC<0.010999] yes=39,no=40,missing=40,gain=18457,cover=596803
					39:[U_CITY_COEC<0.047999] yes=79,no=80,missing=80,gain=10138.9,cover=322351
						79:leaf=-0.0203185,cover=32920.5
						80:leaf=0.0382482,cover=289431
					40:[DOC_AGE<66] yes=81,no=82,missing=82,gain=8547.16,cover=274451
						81:leaf=-0.0154939,cover=183000
						82:leaf=0.0219448,cover=91451.4
				20:[D_PUBLISHER_COEC<0.105999] yes=41,no=42,missing=41,gain=16964.7,cover=546429
					41:[U_CATEGORY_MAX_EC<1452.66] yes=83,no=84,missing=84,gain=5436.72,cover=336063
						83:leaf=0.0711767,cover=89227.6
						84:leaf=0.042374,cover=246836
					42:[D_PUBLISHER_EC<24208.7] yes=85,no=86,missing=86,gain=3688.6,cover=210366
						85:leaf=0.0924258,cover=172614
						86:leaf=0.0579153,cover=37751.5
			10:[D_TITLEMD5_COEC<0.067999] yes=21,no=22,missing=21,gain=35930.9,cover=1.30198e+06
				21:[U_CITY_COEC<0.053999] yes=43,no=44,missing=44,gain=16462.3,cover=581745
					43:[D_PUBLISHER_COEC<0.031999] yes=87,no=88,missing=87,gain=2282.93,cover=76809.2
						87:leaf=-0.0368506,cover=8479.35
						88:leaf=0.0181598,cover=68329.8
					44:[C_D_U_CATEGORY_CATEGORY_MICRO_MEAN_COEC<0.068999] yes=89,no=90,missing=89,gain=11039.7,cover=504936
						89:leaf=0.0437256,cover=202736
						90:leaf=0.0738897,cover=302200
				22:[U_CATEGORY_MAX_EC<2066.97] yes=45,no=46,missing=46,gain=13581.1,cover=720238
					45:[U_CITY_COEC<0.059999] yes=91,no=92,missing=92,gain=8054.3,cover=602893
						91:leaf=0.0676453,cover=93118.6
						92:leaf=0.0996305,cover=509774
					46:[U_CATEGORY_MAX_EC<3822.75] yes=93,no=94,missing=94,gain=1654.7,cover=117345
						93:leaf=0.0648798,cover=84689.6
						94:leaf=0.0383802,cover=32655.1
	2:[D_TITLEMD5_COEC<0.099999] yes=5,no=6,missing=6,gain=101980,cover=4.55359e+06
		5:[CAT_REL<0.001999] yes=11,no=12,missing=12,gain=54372.5,cover=2.24834e+06
			11:[D_TITLEMD5_C<48.795] yes=23,no=24,missing=24,gain=16320.1,cover=619307
				23:[D_TITLEMD5_COEC<0.052999] yes=47,no=48,missing=48,gain=7418.78,cover=195583
					47:[D_KEYWORD_MACRO_MEAN_COEC<0.040999] yes=95,no=96,missing=95,gain=1882.85,cover=37853.1
						95:leaf=-0.0797333,cover=2554.57
						96:leaf=0.00915438,cover=35298.6
					48:[U_CITY_COEC<0.053999] yes=97,no=98,missing=98,gain=4956.29,cover=157729
						97:leaf=0.00434511,cover=18856.7
						98:leaf=0.0589831,cover=138873
				24:[U_CATEGORY_MAX_EC<1782.29] yes=49,no=50,missing=50,gain=9413.54,cover=423724
					49:[C_D_U_TITLEMD5_CATEGORY_MICRO_MAX_COEC<0.109999] yes=99,no=100,missing=100,gain=3127.24,cover=310240
						99:leaf=0.0790439,cover=193413
						100:leaf=0.0997676,cover=116827
					50:[C_D_U_TITLEMD5_CATEGORY_MAX_C<0.208999] yes=101,no=102,missing=102,gain=1619.59,cover=113484
						101:leaf=0.0366765,cover=38998.5
						102:leaf=0.0618326,cover=74485.8
			12:[D_TITLEMD5_COEC<0.068999] yes=25,no=26,missing=26,gain=25289,cover=1.62903e+06
				25:[D_TITLEMD5_COEC<0.041999] yes=51,no=52,missing=52,gain=8995.35,cover=530359
					51:[C_D_U_CATEGORY_CATEGORY_MICRO_MEAN_COEC<0.063999] yes=103,no=104,missing=104,gain=2529.76,cover=68667.9
						103:leaf=0.0187407,cover=18880.4
						104:leaf=0.0617303,cover=49787.5
					52:[U_CITY_COEC<0.061999] yes=105,no=106,missing=106,gain=6304.17,cover=461691
						105:leaf=0.0632234,cover=80234.9
						106:leaf=0.0940632,cover=381456
				26:[C_D_U_CATEGORY_CATEGORY_MICRO_MEAN_COEC<0.072999] yes=53,no=54,missing=54,gain=11942.7,cover=1.09867e+06
					53:[U_CATEGORY_MAX_C<146.816] yes=107,no=108,missing=108,gain=4583.8,cover=397940
						107:leaf=0.10149,cover=325703
						108:leaf=0.0736435,cover=72237.1
					54:[C_D_U_TITLEMD5_CATEGORY_MICRO_MAX_COEC<0.114999] yes=109,no=110,missing=110,gain=3692.9,cover=700733
						109:leaf=0.109763,cover=301102
						110:leaf=0.124431,cover=399631
		6:[U_CATEGORY_MAX_EC<1782.29] yes=13,no=14,missing=14,gain=34710.4,cover=2.30525e+06
			13:[CAT_REL<0.001999] yes=27,no=28,missing=28,gain=14904.6,cover=1.69952e+06
				27:[D_TITLEMD5_COEC<0.134999] yes=55,no=56,missing=56,gain=6951.99,cover=578797
					55:[U_CITY_COEC<0.053999] yes=111,no=112,missing=112,gain=2148.94,cover=337006
						111:leaf=0.0841743,cover=36855.8
						112:leaf=0.109767,cover=300150
					56:[C_D_U_CATEGORY_CATEGORY_MICRO_MEAN_COEC<0.090999] yes=113,no=114,missing=114,gain=1454.76,cover=241791
						113:leaf=0.123369,cover=154698
						114:leaf=0.139536,cover=87092.6
				28:[C_D_U_CATEGORY_CATEGORY_MICRO_MEAN_COEC<0.080999] yes=57,no=58,missing=58,gain=6038.13,cover=1.12072e+06
					57:[D_TITLEMD5_C<5.56] yes=115,no=116,missing=116,gain=3170.61,cover=457813
						115:leaf=0.0947599,cover=28312.6
						116:leaf=0.129318,cover=429501
					58:[C_D_U_TITLEMD5_CATEGORY_MICRO_MAX_COEC<0.157999] yes=117,no=118,missing=118,gain=2926.82,cover=662905
						117:leaf=0.133499,cover=247312
						118:leaf=0.147243,cover=415593
			14:[CAT_REL<0.002999] yes=29,no=30,missing=30,gain=11158.9,cover=605731
				29:[D_KEYWORD_MICRO_MAX_COEC<0.129999] yes=59,no=60,missing=59,gain=4001.79,cover=275366
					59:[U_CATEGORY_MAX_EC<3822.75] yes=119,no=120,missing=120,gain=2088.68,cover=152642
						119:leaf=0.0833866,cover=106835
						120:leaf=0.0578592,cover=45806.8
					60:[C_D_U_TITLEMD5_CATEGORY_MICRO_MAX_COEC<0.132999] yes=121,no=122,missing=122,gain=1396.9,cover=122724
						121:leaf=0.0898181,cover=64358.7
						122:leaf=0.111189,cover=58365.2
				30:[C_D_U_TITLEMD5_CATEGORY_MICRO_MAX_COEC<0.112999] yes=61,no=62,missing=62,gain=4082.65,cover=330365
					61:[U_CATEGORY_MAX_C<211.506] yes=123,no=124,missing=124,gain=1268.82,cover=112898
						123:leaf=0.105427,cover=78211.7
						124:leaf=0.0824394,cover=34685.9
					62:[C_D_U_TITLEMD5_CATEGORY_MAX_C<0.086999] yes=125,no=126,missing=126,gain=2193.52,cover=217468
						125:leaf=0.102164,cover=45093.5
						126:leaf=0.126945,cover=172374
booster[2]:
0:[C_D_U_TITLEMD5_CATEGORY_MICRO_MAX_COEC<0.055999] yes=1,no=2,missing=1,gain=752508,cover=8.06065e+06
	1:[D_KEYWORD_MACRO_MEAN_COEC<0.052999] yes=3,no=4,missing=3,gain=196652,cover=3.33884e+06
		3:[CAT_REL<0.009999] yes=7,no=8,missing=8,gain=45802.2,cover=832844
			7:[D_TITLEMD5_COEC<0.027999] yes=15,no=16,missing=15,gain=15280.7,cover=295366
				15:[U_CITY_COEC<0.079999] yes=31,no=32,missing=31,gain=4823.09,cover=151816
					31:[C_D_U_CATEGORY_CATEGORY_MICRO_MEAN_COEC<0.061999] yes=63,no=64,missing=64,gain=3076.06,cover=125246
						63:leaf=-0.0858833,cover=61299.4
						64:leaf=-0.0545307,cover=63946.4
					32:[U_CATEGORY_MACRO_MAX_COEC<0.003999] yes=65,no=66,missing=66,gain=2476.77,cover=26570
						65:leaf=0.101104,cover=1516.13
						66:leaf=-0.0304794,cover=25053.9
				16:[C_D_U_TITLEMD5_CATEGORY_MACRO_MAX_COEC<0.000999] yes=33,no=34,missing=33,gain=4838.39,cover=143551
					33:[U_CITY_COEC<0.044999] yes=67,no=68,missing=68,gain=3118.56,cover=96887.8
						67:leaf=-0.0776428,cover=11558.8
						68:leaf=-0.0222954,cover=85329
					34:[U_CATEGORY_MAX_EC<1863.51] yes=69,no=70,missing=70,gain=1835.63,cover=46662.9
						69:leaf=0.025257,cover=29739.9
						70:leaf=-0.0159964,cover=16923
			8:[U_CITY_COEC<0.075999] yes=17,no=18,missing=17,gain=22600.2,cover=537477
				17:[D_KEYWORD_MACRO_MEAN_COEC<0.040999] yes=35,no=36,missing=36,gain=13961.7,cover=403178
					35:[C_D_U_CATEGORY_CATEGORY_MICRO_MEAN_COEC<0.042999] yes=71,no=72,missing=71,gain=3847.31,cover=116866
						71:leaf=-0.0676451,cover=23512.4
						72:leaf=-0.022386,cover=93353.5
					36:[U_CITY_COEC<0.049999] yes=73,no=74,missing=74,gain=9719.09,cover=286312
						73:leaf=-0.0295866,cover=51998.8
						74:leaf=0.0182031,cover=234314
				18:[U_CITY_COEC<0.141999] yes=37,no=38,missing=38,gain=5594.12,cover=134299
					37:[U_CATEGORY_MAX_EC<2045.53] yes=75,no=76,missing=76,gain=2724.81,cover=115762
						75:leaf=0.0433257,cover=98171
						76:leaf=0.0005879,cover=17591.2
					38:[U_CITY_C<147.248] yes=77,no=78,missing=78,gain=2391.86,cover=18536.4
						77:leaf=0.0816817,cover=15997.5
						78:leaf=0.186164,cover=2538.86
		4:[D_TITLEMD5_COEC<0.085999] yes=9,no=10,missing=9,gain=63907,cover=2.506e+06
			9:[CAT_REL<0.001999] yes=19,no=20,missing=20,gain=70505.6,cover=1.51716e+06
				19:[D_TITLEMD5_COEC<0.052999] yes=39,no=40,missing=39,gain=13581.5,cover=566584
					39:[U_CITY_COEC<0.039999] yes=79,no=80,missing=80,gain=4547.85,cover=171624
						79:leaf=-0.0658942,cover=16587.3
						80:leaf=-0.0108037,cover=155037
					40:[U_CATEGORY_MAX_C<141.366] yes=81,no=82,missing=82,gain=10797,cover=394960
						81:leaf=0.0344199,cover=193677
						82:leaf=0.00134602,cover=201283
				20:[U_CITY_COEC<0.057999] yes=41,no=42,missing=42,gain=22125.1,cover=950575
					41:[D_TITLEMD5_COEC<0.045999] yes=83,no=84,missing=83,gain=4154.55,cover=149050
						83:leaf=-0.0029454,cover=63078.3
						84:leaf=0.0308462,cover=85971.5
					42:[U_CATEGORY_MAX_C<132.987] yes=85,no=86,missing=86,gain=12649.3,cover=801525
						85:leaf=0.0642247,cover=663834
						86:leaf=0.0309194,cover=137691
			10:[CAT_REL<0.001999] yes=21,no=22,missing=22,gain=25311.3,cover=988842
				21:[D_PUBLISHER_COEC<0.103999] yes=43,no=44,missing=43,gain=16715,cover=580761
					43:[DOC_AGE<73] yes=87,no=88,missing=88,gain=5143.03,cover=362710
						87:leaf=0.0353234,cover=287999
						88:leaf=0.0647682,cover=74710.6
					44:[D_KEYWORD_MEAN_C<209.029] yes=89,no=90,missing=90,gain=3863.86,cover=218052
						89:leaf=0.0659429,cover=134625
						90:leaf=0.0933337,cover=83427.1
				22:[D_TITLEMD5_C<2.931] yes=45,no=46,missing=46,gain=8004.16,cover=408080
					45:[U_CITY_COEC<0.051999] yes=91,no=92,missing=92,gain=3448.51,cover=79205.5
						91:leaf=0.00408858,cover=10154.4
						92:leaf=0.0665027,cover=69051
					46:[U_CATEGORY_MAX_EC<1431.64] yes=93,no=94,missing=94,gain=5125.48,cover=328875
						93:leaf=0.101008,cover=248603
						94:leaf=0.0719419,cover=80271.9
	2:[D_TITLEMD5_COEC<0.086999] yes=5,no=6,missing=6,gain=98544,cover=4.72181e+06
		5:[CAT_REL<0.001999] yes=11,no=12,missing=12,gain=39270.3,cover=1.67453e+06
			11:[D_TITLEMD5_COEC<0.060999] yes=23,no=24,missing=24,gain=10770,cover=445080
				23:[U_CITY_COEC<0.057999] yes=47,no=48,missing=48,gain=3321.68,cover=98488.7
					47:[D_TITLEMD5_C<20.062] yes=95,no=96,missing=96,gain=1041.88,cover=15699.5
						95:leaf=-0.0474287,cover=7380.9
						96:leaf=0.00418361,cover=8318.61
					48:[U_CATEGORY_MAX_EC<1788.97] yes=97,no=98,missing=98,gain=2592.09,cover=82789.1
						97:leaf=0.0392187,cover=65373.9
						98:leaf=-0.00419651,cover=17415.2
				24:[U_CATEGORY_MAX_EC<1192.03] yes=49,no=50,missing=50,gain=6939.58,cover=346591
					49:[U_CITY_COEC<0.053999] yes=99,no=100,missing=100,gain=2978.88,cover=197652
						99:leaf=0.0365986,cover=21386
						100:leaf=0.0761223,cover=176266
					50:[U_CITY_COEC<0.059999] yes=101,no=102,missing=102,gain=1962.11,cover=148939
						101:leaf=0.0179006,cover=25321.8
						102:leaf=0.0484563,cover=123617
			12:[D_TITLEMD5_COEC<0.052999] yes=25,no=26,missing=26,gain=16672.2,cover=1.22945e+06
				25:[C_D_U_CATEGORY_CATEGORY_MICRO_MEAN_COEC<0.063999] yes=51,no=52,missing=52,gain=4957.28,cover=197233
					51:[D_TITLEMD5_COEC<0.027999] yes=103,no=104,missing=104,gain=1115.3,cover=47472.6
						103:leaf=-0.0109883,cover=5549.89
						104:leaf=0.0367134,cover=41922.7
					52:[U_CITY_COEC<0.053999] yes=105,no=106,missing=106,gain=2431.51,cover=149760
						105:leaf=0.0327581,cover=17125
						106:leaf=0.0728006,cover=132635
				26:[C_D_U_CATEGORY_CATEGORY_MICRO_MEAN_COEC<0.080999] yes=53,no=54,missing=54,gain=11543.4,cover=1.03221e+06
					53:[U_CATEGORY_MAX_EC<2045.53] yes=107,no=108,missing=108,gain=5096.22,cover=575219
						107:leaf=0.0866396,cover=447103
						108:leaf=0.064016,cover=128116
					54:[U_CITY_COEC<0.055999] yes=109,no=110,missing=110,gain=2926.71,cover=456996
						109:leaf=0.0795851,cover=48212.1
						110:leaf=0.10564,cover=408784
		6:[C_D_U_TITLEMD5_CATEGORY_MICRO_MAX_COEC<0.112999] yes=13,no=14,missing=14,gain=46129.7,cover=3.04728e+06
			13:[U_CATEGORY_MAX_EC<2289.72] yes=27,no=28,missing=28,gain=18098,cover=1.03886e+06
				27:[CAT_REL<0.001999] yes=55,no=56,missing=56,gain=9871.45,cover=753890
					55:[U_CITY_COEC<0.053999] yes=111,no=112,missing=112,gain=2542.59,cover=290482
						111:leaf=0.0570124,cover=32285.2
						112:leaf=0.0867821,cover=258197
					56:[U_CATEGORY_MAX_EC<1241.11] yes=113,no=114,missing=114,gain=1877.35,cover=463408
						113:leaf=0.11137,cover=314426
						114:leaf=0.0977378,cover=148982
				28:[U_CATEGORY_MAX_C<261.068] yes=57,no=58,missing=58,gain=3264.54,cover=284969
					57:[CAT_REL<0.011999] yes=115,no=116,missing=116,gain=2055.3,cover=201606
						115:leaf=0.0665605,cover=116104
						116:leaf=0.0869937,cover=85501.4
					58:[DOC_AGE<50] yes=117,no=118,missing=118,gain=959.645,cover=83363.5
						117:leaf=0.0444084,cover=57044.1
						118:leaf=0.0674947,cover=26319.4
			14:[C_D_U_CATEGORY_CATEGORY_MICRO_MAX_COEC<0.083999] yes=29,no=30,missing=30,gain=15684.8,cover=2.00842e+06
				29:[U_CATEGORY_MACRO_MAX_COEC<0.008999] yes=59,no=60,missing=60,gain=6881.34,cover=809828
					59:[D_TITLEMD5_C<26.138] yes=119,no=120,missing=120,gain=4394.45,cover=552725
						119:leaf=0.0936643,cover=112507
						120:leaf=0.115813,cover=440218
					60:[C_D_U_TITLEMD5_CATEGORY_MAX_C<0.038999] yes=121,no=122,missing=122,gain=2309,cover=257103
						121:leaf=0.0692492,cover=39487.5
						122:leaf=0.0955376,cover=217615
				30:[CAT_REL<0.002999] yes=61,no=62,missing=62,gain=6686.1,cover=1.1986e+06
					61:[D_TITLEMD5_COEC<0.141999] yes=123,no=124,missing=124,gain=2994.51,cover=359260
						123:leaf=0.104312,cover=219109
						124:leaf=0.123033,cover=140151
					62:[D_TITLEMD5_C<15.896] yes=125,no=126,missing=126,gain=3156.81,cover=839336
						125:leaf=0.110255,cover=90322.9
						126:leaf=0.13005,cover=749013
booster[3]:
0:[C_D_U_TITLEMD5_CATEGORY_MICRO_MAX_COEC<0.065999] yes=1,no=2,missing=1,gain=636359,cover=7.97891e+06
	1:[D_TITLEMD5_COEC<0.045999] yes=3,no=4,missing=3,gain=184628,cover=3.66267e+06
		3:[C_D_U_CATEGORY_CATEGORY_MICRO_MEAN_COEC<0.067999] yes=7,no=8,missing=7,gain=72432.9,cover=1.15769e+06
			7:[CAT_REL<0.010999] yes=15,no=16,missing=16,gain=22235.3,cover=623054
				15:[D_KEYWORD_MACRO_MEAN_COEC<0.043999] yes=31,no=32,missing=32,gain=6402.6,cover=277760
					31:[D_TITLEMD5_C<7.338] yes=63,no=64,missing=63,gain=2832.9,cover=94393.2
						63:leaf=-0.0734865,cover=76113.2
						64:leaf=-0.0296446,cover=18280
					32:[U_CITY_COEC<0.077999] yes=65,no=66,missing=65,gain=3538.02,cover=183367
						65:leaf=-0.039849,cover=147018
						66:leaf=-0.00500615,cover=36348.4
				16:[U_CITY_COEC<0.077999] yes=33,no=34,missing=33,gain=12714.9,cover=345295
					33:[C_D_U_CATEGORY_CATEGORY_MICRO_MEAN_COEC<0.044999] yes=67,no=68,missing=68,gain=7350.7,cover=272650
						67:leaf=-0.0447175,cover=66244.9
						68:leaf=-0.00643247,cover=206405
					34:[U_CITY_COEC<0.110999] yes=69,no=70,missing=70,gain=2546.76,cover=72644.7
						69:leaf=0.0196146,cover=52166.6
						70:leaf=0.06123,cover=20478
			8:[U_CITY_COEC<0.066999] yes=17,no=18,missing=18,gain=19673.5,cover=534632
				17:[CAT_REL<0.025999] yes=35,no=36,missing=36,gain=5845.5,cover=165433
					35:[U_CITY_COEC<0.035999] yes=71,no=72,missing=72,gain=3258.43,cover=57225.1
						71:leaf=-0.0759217,cover=11035.4
						72:leaf=-0.0154406,cover=46189.8
					36:[D_KEYWORD_MACRO_MEAN_COEC<0.049999] yes=73,no=74,missing=73,gain=3466.98,cover=108208
						73:leaf=-0.0101782,cover=41731.8
						74:leaf=0.0265954,cover=66476
				18:[U_CITY_COEC<0.097999] yes=37,no=38,missing=37,gain=9832.55,cover=369199
					37:[CAT_REL<0.019999] yes=75,no=76,missing=76,gain=8122.43,cover=311605
						75:leaf=0.00811015,cover=91117.9
						76:leaf=0.043604,cover=220487
					38:[U_CITY_COEC<0.180999] yes=77,no=78,missing=78,gain=1839.75,cover=57594.6
						77:leaf=0.06958,cover=46731.5
						78:leaf=0.115272,cover=10863.1
		4:[CAT_REL<0.001999] yes=9,no=10,missing=10,gain=57490.2,cover=2.50498e+06
			9:[D_KEYWORD_MACRO_MEAN_COEC<0.071999] yes=19,no=20,missing=19,gain=38803.1,cover=1.19801e+06
				19:[U_CATEGORY_MAX_C<124.579] yes=39,no=40,missing=40,gain=16039.6,cover=645911
					39:[U_CITY_COEC<0.055999] yes=79,no=80,missing=80,gain=9021.53,cover=318405
						79:leaf=-0.00818976,cover=47104.7
						80:leaf=0.0392204,cover=271300
					40:[DOC_AGE<51] yes=81,no=82,missing=82,gain=7190.62,cover=327506
						81:leaf=-0.0113454,cover=197366
						82:leaf=0.0189342,cover=130140
				20:[D_PUBLISHER_COEC<0.101999] yes=41,no=42,missing=41,gain=11610.6,cover=552096
					41:[U_CATEGORY_MAX_EC<1957.68] yes=83,no=84,missing=84,gain=4658.88,cover=326068
						83:leaf=0.0582182,cover=100077
						84:leaf=0.032301,cover=225991
					42:[D_PUBLISHER_EC<23675.3] yes=85,no=86,missing=86,gain=4158.4,cover=226027
						85:leaf=0.0770709,cover=175013
						86:leaf=0.0446231,cover=51014.1
			10:[U_CATEGORY_MAX_EC<1631.31] yes=21,no=22,missing=22,gain=19196.9,cover=1.30698e+06
				21:[D_KEYWORD_MACRO_MEAN_COEC<0.063999] yes=43,no=44,missing=43,gain=15525.9,cover=982851
					43:[U_CITY_COEC<0.059999] yes=87,no=88,missing=88,gain=8638.82,cover=457615
						87:leaf=0.0258435,cover=75780.7
						88:leaf=0.0628064,cover=381835
					44:[U_CITY_COEC<0.077999] yes=89,no=90,missing=89,gain=5507.02,cover=525236
						89:leaf=0.0757038,cover=385055
						90:leaf=0.098854,cover=140181
				22:[D_TITLEMD5_COEC<0.072999] yes=45,no=46,missing=46,gain=5423,cover=324126
					45:[C_D_U_TITLEMD5_CATEGORY_MICRO_MAX_COEC<0.016999] yes=91,no=92,missing=91,gain=2249.65,cover=149050
						91:leaf=0.00869478,cover=42750.7
						92:leaf=0.0358586,cover=106299
					46:[U_CATEGORY_MAX_C<193.641] yes=93,no=94,missing=94,gain=2140,cover=175076
						93:leaf=0.0611913,cover=123245
						94:leaf=0.0369718,cover=51831
	2:[D_TITLEMD5_COEC<0.103999] yes=5,no=6,missing=6,gain=72238.8,cover=4.31624e+06
		5:[CAT_REL<0.003999] yes=11,no=12,missing=12,gain=37579,cover=2.28949e+06
			11:[D_TITLEMD5_C<43.675] yes=23,no=24,missing=24,gain=14564.7,cover=693148
				23:[U_CITY_COEC<0.061999] yes=47,no=48,missing=48,gain=5852.59,cover=194640
					47:[U_CITY_COEC<0.039999] yes=95,no=96,missing=96,gain=1359.44,cover=37004.5
						95:leaf=-0.0288526,cover=11609.9
						96:leaf=0.0124527,cover=25394.6
					48:[D_TITLEMD5_COEC<0.047999] yes=97,no=98,missing=98,gain=3537.5,cover=157635
						97:leaf=0.00506673,cover=20618.5
						98:leaf=0.0494953,cover=137017
				24:[U_CATEGORY_MAX_EC<1957.68] yes=49,no=50,missing=50,gain=7644.38,cover=498508
					49:[U_CITY_COEC<0.061999] yes=99,no=100,missing=100,gain=3609.93,cover=388100
						99:leaf=0.0530713,cover=67223.3
						100:leaf=0.0785586,cover=320876
					50:[DOC_AGE<59] yes=101,no=102,missing=102,gain=1862.88,cover=110409
						101:leaf=0.0347356,cover=71484.8
						102:leaf=0.0619248,cover=38924
			12:[D_TITLEMD5_COEC<0.063999] yes=25,no=26,missing=26,gain=19521.6,cover=1.59634e+06
				25:[U_CITY_COEC<0.049999] yes=51,no=52,missing=52,gain=5502.4,cover=349920
					51:[C_D_U_TITLEMD5_CATEGORY_MAX_C<0.023999] yes=103,no=104,missing=104,gain=1917.18,cover=31897.1
						103:leaf=0.00163202,cover=16112.3
						104:leaf=0.0506667,cover=15784.7
					52:[C_D_U_CATEGORY_CATEGORY_MICRO_MAX_COEC<0.099999] yes=105,no=106,missing=106,gain=4525.41,cover=318023
						105:leaf=0.0627579,cover=241623
						106:leaf=0.090681,cover=76399.8
				26:[C_D_U_CATEGORY_CATEGORY_MICRO_MEAN_COEC<0.079999] yes=53,no=54,missing=54,gain=10706.2,cover=1.24642e+06
					53:[U_CATEGORY_MACRO_MAX_COEC<0.008999] yes=107,no=108,missing=108,gain=4572.93,cover=627993
						107:leaf=0.0882237,cover=458167
						108:leaf=0.0690108,cover=169826
					54:[C_D_U_CATEGORY_CATEGORY_MICRO_MEAN_COEC<0.105999] yes=109,no=110,missing=110,gain=2776.69,cover=618424
						109:leaf=0.0973667,cover=444124
						110:leaf=0.112263,cover=174300
		6:[U_CATEGORY_MAX_EC<1721.25] yes=13,no=14,missing=14,gain=23636.1,cover=2.02675e+06
			13:[CAT_REL<0.001999] yes=27,no=28,missing=28,gain=9527.84,cover=1.46851e+06
				27:[D_TITLEMD5_COEC<0.148999] yes=55,no=56,missing=56,gain=4113.9,cover=505150
					55:[D_TITLEMD5_C<127.534] yes=111,no=112,missing=112,gain=2041.76,cover=352054
						111:leaf=0.0804204,cover=89896.7
						112:leaf=0.0978885,cover=262157
					56:[D_TITLEMD5_C<9.674] yes=113,no=114,missing=114,gain=794.025,cover=153096
						113:leaf=0.0603527,cover=2808.65
						114:leaf=0.114051,cover=150287
				28:[D_TITLEMD5_C<4.632] yes=57,no=58,missing=58,gain=4582.08,cover=963361
					57:[U_CITY_COEC<0.066999] yes=115,no=116,missing=116,gain=1410.22,cover=43063
						115:leaf=0.0541015,cover=11299.2
						116:leaf=0.0952449,cover=31763.8
					58:[D_TITLEMD5_COEC<0.131999] yes=117,no=118,missing=118,gain=4638.09,cover=920298
						117:leaf=0.111163,cover=489083
						118:leaf=0.125391,cover=431215
			14:[CAT_REL<0.002999] yes=29,no=30,missing=30,gain=8059.15,cover=558240
				29:[D_PUBLISHER_COEC<0.101999] yes=59,no=60,missing=60,gain=2618.29,cover=254274
					59:[D_KEYWORD_MICRO_MEAN_COEC<0.094999] yes=119,no=120,missing=119,gain=1327.12,cover=115322
						119:leaf=0.0551224,cover=81374.1
						120:leaf=0.078663,cover=33948.4
					60:[C_D_U_TITLEMD5_CATEGORY_MICRO_MAX_COEC<0.134999] yes=121,no=122,missing=122,gain=1479.93,cover=138951
						121:leaf=0.0739594,cover=82979
						122:leaf=0.0950058,cover=55972.4
				30:[C_D_U_CATEGORY_CATEGORY_MICRO_MEAN_COEC<0.074999] yes=61,no=62,missing=62,gain=2484.39,cover=303966
					61:[D_PUBLISHER_COEC<0.081999] yes=123,no=124,missing=124,gain=1041.6,cover=152457
						123:leaf=0.0773936,cover=55611.6
						124:leaf=0.0945711,cover=96845
					62:[U_CATEGORY_MACRO_MAX_COEC<0.015999] yes=125,no=126,missing=126,gain=1028.19,cover=151509
						125:leaf=0.111027,cover=115081
						126:leaf=0.0917399,cover=36427.8
booster[4]:
0:[C_D_U_TITLEMD5_CATEGORY_MICRO_MAX_COEC<0.050999] yes=1,no=2,missing=1,gain=536565,cover=7.89752e+06
	1:[D_KEYWORD_MACRO_MEAN_COEC<0.058999] yes=3,no=4,missing=3,gain=133080,cover=3.15554e+06
		3:[C_D_U_CATEGORY_CATEGORY_MICRO_MEAN_COEC<0.046999] yes=7,no=8,missing=7,gain=44765.7,cover=1.29879e+06
			7:[D_TITLEMD5_COEC<0.032999] yes=15,no=16,missing=15,gain=12774,cover=332797
				15:[U_CITY_COEC<0.053999] yes=31,no=32,missing=32,gain=3479.87,cover=164245
					31:[C_D_U_CATEGORY_CATEGORY_MICRO_MEAN_COEC<0.032999] yes=63,no=64,missing=64,gain=683.291,cover=35082
						63:leaf=-0.10048,cover=9413.58
						64:leaf=-0.0689707,cover=25668.4
					32:[CAT_REL<0.027999] yes=65,no=66,missing=66,gain=2100.98,cover=129163
						65:leaf=-0.0507063,cover=87540.6
						66:leaf=-0.0234149,cover=41622.1
				16:[U_CATEGORY_MAX_EC<2073.08] yes=33,no=34,missing=34,gain=4567.28,cover=168552
					33:[D_TITLEMD5_C<2.36] yes=67,no=68,missing=68,gain=2769.03,cover=84488.9
						67:leaf=-0.0285642,cover=18098.6
						68:leaf=0.0155602,cover=66390.3
					34:[DOC_AGE<88] yes=69,no=70,missing=70,gain=841.522,cover=84063.1
						69:leaf=-0.0304971,cover=74032.9
						70:leaf=0.000367958,cover=10030.2
			8:[U_CITY_COEC<0.063999] yes=17,no=18,missing=18,gain=27067.9,cover=965991
				17:[D_TITLEMD5_COEC<0.032999] yes=35,no=36,missing=36,gain=8077.87,cover=248047
					35:[CAT_REL<0.033999] yes=71,no=72,missing=72,gain=5387.66,cover=120941
						71:leaf=-0.0572521,cover=54900
						72:leaf=-0.014859,cover=66040.5
					36:[U_CITY_COEC<0.039999] yes=73,no=74,missing=74,gain=3151.85,cover=127107
						73:leaf=-0.0219927,cover=38268
						74:leaf=0.0123349,cover=88838.5
				18:[U_CITY_COEC<0.105999] yes=37,no=38,missing=37,gain=15653.7,cover=717944
					37:[D_KEYWORD_MACRO_MEAN_COEC<0.045999] yes=75,no=76,missing=75,gain=13603.7,cover=640722
						75:leaf=-0.00561371,cover=181224
						76:leaf=0.0267392,cover=459498
					38:[U_CATEGORY_MAX_C<13.855] yes=77,no=78,missing=78,gain=3228.78,cover=77221.5
						77:leaf=0.122749,cover=8668.79
						78:leaf=0.0579748,cover=68552.7
		4:[U_CATEGORY_MAX_EC<1009.23] yes=9,no=10,missing=10,gain=34619.4,cover=1.85675e+06
			9:[U_CITY_COEC<0.045999] yes=19,no=20,missing=20,gain=13858.2,cover=751753
				19:[CAT_REL<0.006999] yes=39,no=40,missing=40,gain=2279.19,cover=61529.4
					39:[D_TITLEMD5_C<21.792] yes=79,no=80,missing=79,gain=1615.82,cover=22496.5
						79:leaf=-0.0357019,cover=11966.5
						80:leaf=0.0180059,cover=10530
					40:[D_TITLEMD5_C<5.194] yes=81,no=82,missing=81,gain=1871.52,cover=39032.8
						81:leaf=0.00607698,cover=18287.6
						82:leaf=0.0499576,cover=20745.2
				20:[D_TITLEMD5_COEC<0.082999] yes=41,no=42,missing=42,gain=11311.7,cover=690224
					41:[CAT_REL<0.018999] yes=83,no=84,missing=84,gain=6204.26,cover=373312
						83:leaf=0.0391007,cover=179155
						84:leaf=0.0649053,cover=194157
					42:[CAT_REL<0.010999] yes=85,no=86,missing=86,gain=3679.52,cover=316911
						85:leaf=0.0649569,cover=126116
						86:leaf=0.0869724,cover=190795
			10:[D_TITLEMD5_COEC<0.097999] yes=21,no=22,missing=22,gain=28435.2,cover=1.105e+06
				21:[CAT_REL<0.007999] yes=43,no=44,missing=44,gain=12763.8,cover=643082
					43:[DOC_AGE<73] yes=87,no=88,missing=88,gain=6743.73,cover=385325
						87:leaf=-0.00105603,cover=274920
						88:leaf=0.0282033,cover=110405
					44:[U_CATEGORY_MACRO_MAX_COEC<0.010999] yes=89,no=90,missing=90,gain=3541.36,cover=257757
						89:leaf=0.0432639,cover=187306
						90:leaf=0.0169626,cover=70450.4
				22:[D_PUBLISHER_COEC<0.127999] yes=45,no=46,missing=45,gain=7892.12,cover=461918
					45:[DOC_AGE<55] yes=91,no=92,missing=92,gain=6259.67,cover=382857
						91:leaf=0.0365067,cover=257412
						92:leaf=0.06375,cover=125445
					46:[D_KEYWORD_MEAN_EC<1895.61] yes=93,no=94,missing=94,gain=1724.51,cover=79061.3
						93:leaf=0.0652366,cover=39188.4
						94:leaf=0.0947808,cover=39872.9
	2:[D_TITLEMD5_COEC<0.093999] yes=5,no=6,missing=6,gain=84190.4,cover=4.74198e+06
		5:[CAT_REL<0.001999] yes=11,no=12,missing=12,gain=36537.2,cover=2.15576e+06
			11:[D_TITLEMD5_COEC<0.064999] yes=23,no=24,missing=24,gain=10231.9,cover=606468
				23:[U_CATEGORY_MICRO_MAX_COEC<0.071999] yes=47,no=48,missing=48,gain=3913.86,cover=148144
					47:[D_TITLEMD5_C<15.706] yes=95,no=96,missing=96,gain=2134.65,cover=84468.8
						95:leaf=-0.0164115,cover=26061
						96:leaf=0.0180056,cover=58407.8
					48:[D_TITLEMD5_COEC<0.027999] yes=97,no=98,missing=98,gain=1373.97,cover=63675.4
						97:leaf=-0.043569,cover=1897.95
						98:leaf=0.0427947,cover=61777.5
				24:[U_CATEGORY_MAX_EC<2302.35] yes=49,no=50,missing=50,gain=7214.11,cover=458324
					49:[U_CITY_COEC<0.051999] yes=99,no=100,missing=100,gain=3855,cover=362486
						99:leaf=0.0271979,cover=36153.8
						100:leaf=0.0616142,cover=326332
					50:[DOC_AGE<32] yes=101,no=102,missing=102,gain=1156.3,cover=95837.9
						101:leaf=0.0144729,cover=40435.8
						102:leaf=0.0367145,cover=55402.1
			12:[C_D_U_CATEGORY_CATEGORY_MICRO_MEAN_COEC<0.069999] yes=25,no=26,missing=26,gain=16983,cover=1.54929e+06
				25:[D_TITLEMD5_COEC<0.058999] yes=51,no=52,missing=52,gain=7298.7,cover=518642
					51:[U_CITY_COEC<0.091999] yes=103,no=104,missing=103,gain=2238.67,cover=113511
						103:leaf=0.0306267,cover=98412.3
						104:leaf=0.0719805,cover=15099.1
					52:[U_CATEGORY_MAX_C<124.323] yes=105,no=106,missing=106,gain=4468.82,cover=405130
						105:leaf=0.0710511,cover=299638
						106:leaf=0.0471177,cover=105492
				26:[D_TITLEMD5_COEC<0.070999] yes=53,no=54,missing=54,gain=9793.72,cover=1.03065e+06
					53:[U_CITY_COEC<0.053999] yes=107,no=108,missing=108,gain=3979.58,cover=444535
						107:leaf=0.0419358,cover=46761.8
						108:leaf=0.072777,cover=397773
					54:[U_CITY_COEC<0.055999] yes=109,no=110,missing=110,gain=2888.8,cover=586113
						109:leaf=0.0692424,cover=64463.5
						110:leaf=0.0916843,cover=521650
		6:[C_D_U_TITLEMD5_CATEGORY_MICRO_MAX_COEC<0.126999] yes=13,no=14,missing=14,gain=31703.2,cover=2.58622e+06
			13:[U_CATEGORY_MAX_C<139.03] yes=27,no=28,missing=28,gain=14722,cover=1.07974e+06
				27:[CAT_REL<0.002999] yes=55,no=56,missing=56,gain=7075.54,cover=776419
					55:[U_CITY_COEC<0.051999] yes=111,no=112,missing=112,gain=1727.48,cover=319902
						111:leaf=0.0531104,cover=33141.7
						112:leaf=0.0772279,cover=286760
					56:[U_CITY_COEC<0.063999] yes=113,no=114,missing=114,gain=1752.37,cover=456518
						113:leaf=0.0815586,cover=89301.6
						114:leaf=0.0971814,cover=367216
				28:[CAT_REL<0.003999] yes=57,no=58,missing=58,gain=3196.74,cover=303325
					57:[DOC_AGE<32] yes=115,no=116,missing=116,gain=1295.35,cover=166644
						115:leaf=0.0424898,cover=87704.4
						116:leaf=0.060149,cover=78939.7
					58:[D_PUBLISHER_COEC<0.102999] yes=117,no=118,missing=117,gain=1084.55,cover=136681
						117:leaf=0.0658151,cover=97248.1
						118:leaf=0.0854806,cover=39433
			14:[C_D_U_CATEGORY_CATEGORY_MICRO_MAX_COEC<0.082999] yes=29,no=30,missing=30,gain=9656.81,cover=1.50648e+06
				29:[D_TITLEMD5_C<12.671] yes=59,no=60,missing=60,gain=4268.16,cover=539950
					59:[CAT_REL<0.010999] yes=119,no=120,missing=120,gain=1407.42,cover=75277.2
						119:leaf=0.0406742,cover=14659.9
						120:leaf=0.0752077,cover=60617.3
					60:[CAT_REL<0.001999] yes=121,no=122,missing=122,gain=4118.25,cover=464673
						121:leaf=0.082783,cover=189014
						122:leaf=0.101949,cover=275659
				30:[U_CATEGORY_MACRO_MAX_COEC<0.014999] yes=61,no=62,missing=62,gain=4573.11,cover=966529
					61:[CAT_REL<0.005999] yes=123,no=124,missing=124,gain=3258.56,cover=878111
						123:leaf=0.10087,cover=294172
						124:leaf=0.113779,cover=583939
					62:[C_D_U_CATEGORY_CATEGORY_MICRO_MEAN_COEC<0.108999] yes=125,no=126,missing=126,gain=924.755,cover=88418.1
						125:leaf=0.0780702,cover=57401.5
						126:leaf=0.0995085,cover=31016.6
booster[5]:
0:[C_D_U_TITLEMD5_CATEGORY_MICRO_MAX_COEC<0.071999] yes=1,no=2,missing=1,gain=460579,cover=7.78425e+06
	1:[D_TITLEMD5_COEC<0.056999] yes=3,no=4,missing=3,gain=138737,cover=3.84103e+06
		3:[C_D_U_CATEGORY_CATEGORY_MICRO_MEAN_COEC<0.066999] yes=7,no=8,missing=7,gain=60698.8,cover=1.52323e+06
			7:[CAT_REL<0.009999] yes=15,no=16,missing=16,gain=18607.5,cover=795880
				15:[D_TITLEMD5_COEC<0.027999] yes=31,no=32,missing=31,gain=10927.3,cover=370147
					31:[U_CITY_COEC<0.069999] yes=63,no=64,missing=64,gain=3348.24,cover=161578
						63:leaf=-0.0659861,cover=71311.5
						64:leaf=-0.0369946,cover=90266.4
					32:[C_D_U_TITLEMD5_CATEGORY_MACRO_MAX_COEC<0.000999] yes=65,no=66,missing=65,gain=4094.29,cover=208569
						65:leaf=-0.0263304,cover=127392
						66:leaf=0.00240552,cover=81177.2
				16:[D_PUBLISHER_COEC<0.035999] yes=33,no=34,missing=34,gain=11702.3,cover=425733
					33:[C_D_U_CATEGORY_CATEGORY_MICRO_MEAN_COEC<0.038999] yes=67,no=68,missing=67,gain=3120.2,cover=101710
						67:leaf=-0.0667744,cover=18158.8
						68:leaf=-0.0210394,cover=83550.7
					34:[U_CITY_COEC<0.075999] yes=69,no=70,missing=69,gain=7033.03,cover=324024
						69:leaf=0.00112736,cover=242418
						70:leaf=0.0350676,cover=81605.5
			8:[U_CITY_COEC<0.051999] yes=17,no=18,missing=18,gain=17921.3,cover=727347
				17:[U_CITY_COEC<0.031999] yes=35,no=36,missing=36,gain=2744.11,cover=92911.8
					35:[U_CITY_EC<190.985] yes=71,no=72,missing=72,gain=2417.28,cover=33424.9
						71:leaf=-0.00680167,cover=14327.7
						72:leaf=-0.0611422,cover=19097.2
					36:[D_KEYWORD_MACRO_MEAN_COEC<0.047999] yes=73,no=74,missing=73,gain=1414.32,cover=59486.9
						73:leaf=-0.0270173,cover=16415.1
						74:leaf=0.00747771,cover=43071.8
				18:[CAT_REL<0.008999] yes=37,no=38,missing=38,gain=11092.7,cover=634435
					37:[D_TITLEMD5_COEC<0.037999] yes=75,no=76,missing=76,gain=3627.98,cover=144481
						75:leaf=-0.00904455,cover=68042.3
						76:leaf=0.0227015,cover=76438.3
					38:[U_CITY_COEC<0.099999] yes=77,no=78,missing=77,gain=7594.5,cover=489955
						77:leaf=0.0346934,cover=431377
						78:leaf=0.0730672,cover=58577.3
		4:[CAT_REL<0.001999] yes=9,no=10,missing=10,gain=39304.6,cover=2.3178e+06
			9:[D_PUBLISHER_COEC<0.068999] yes=19,no=20,missing=19,gain=22519.7,cover=1.13846e+06
				19:[U_CATEGORY_MACRO_MAX_COEC<0.008999] yes=39,no=40,missing=40,gain=7033.99,cover=338862
					39:[D_KEYWORD_MEAN_C<48.218] yes=79,no=80,missing=79,gain=3503.32,cover=158051
						79:leaf=0.000570402,cover=43803.5
						80:leaf=0.0338333,cover=114247
					40:[DOC_AGE<73] yes=81,no=82,missing=82,gain=3708.05,cover=180811
						81:leaf=-0.0123582,cover=137046
						82:leaf=0.0210757,cover=43764.3
				20:[D_TITLEMD5_COEC<0.102999] yes=41,no=42,missing=42,gain=9352.85,cover=799595
					41:[U_CATEGORY_MACRO_MAX_COEC<0.007999] yes=83,no=84,missing=84,gain=5260.69,cover=417743
						83:leaf=0.0443998,cover=152824
						84:leaf=0.0211014,cover=264919
					42:[DOC_AGE<45] yes=85,no=86,missing=86,gain=5064.68,cover=381852
						85:leaf=0.0415579,cover=223020
						86:leaf=0.0649244,cover=158832
			10:[U_CATEGORY_MAX_EC<1016.13] yes=21,no=22,missing=22,gain=12725.6,cover=1.17934e+06
				21:[D_TITLEMD5_C<3.703] yes=43,no=44,missing=44,gain=8266.47,cover=656962
					43:[C_D_U_CATEGORY_CATEGORY_MICRO_MEAN_COEC<0.074999] yes=87,no=88,missing=88,gain=3608.84,cover=117728
						87:leaf=0.025422,cover=61678.1
						88:leaf=0.0604792,cover=56049.9
					44:[D_TITLEMD5_COEC<0.100999] yes=89,no=90,missing=90,gain=5786.47,cover=539234
						89:leaf=0.0651725,cover=397382
						90:leaf=0.0887008,cover=141852
				22:[U_CITY_COEC<0.049999] yes=45,no=46,missing=46,gain=4800.41,cover=522380
					45:[D_TITLEMD5_C<17.758] yes=91,no=92,missing=92,gain=1059.04,cover=54487.4
						91:leaf=-0.000963637,cover=20316.7
						92:leaf=0.0278665,cover=34170.7
					46:[U_CATEGORY_MAX_C<172.73] yes=93,no=94,missing=94,gain=4478.4,cover=467892
						93:leaf=0.0538647,cover=359100
						94:leaf=0.0307048,cover=108792
	2:[D_TITLEMD5_COEC<0.110999] yes=5,no=6,missing=6,gain=50981.3,cover=3.94322e+06
		5:[C_D_U_CATEGORY_CATEGORY_MICRO_MEAN_COEC<0.069999] yes=11,no=12,missing=12,gain=28614.8,cover=2.33492e+06
			11:[D_TITLEMD5_COEC<0.067999] yes=23,no=24,missing=24,gain=10834.1,cover=755999
				23:[CAT_REL<0.002999] yes=47,no=48,missing=48,gain=4407.16,cover=178856
					47:[D_TITLEMD5_C<12.355] yes=95,no=96,missing=96,gain=1862.33,cover=54342
						95:leaf=-0.021194,cover=16692
						96:leaf=0.0189341,cover=37650
					48:[D_TITLEMD5_C<6.342] yes=97,no=98,missing=98,gain=2200.35,cover=124514
						97:leaf=0.0202241,cover=36822
						98:leaf=0.0493535,cover=87692.3
				24:[CAT_REL<0.001999] yes=49,no=50,missing=50,gain=7887.75,cover=577143
					49:[C_D_U_TITLEMD5_CATEGORY_MACRO_MAX_COEC<0.018999] yes=99,no=100,missing=100,gain=2791.99,cover=228603
						99:leaf=0.050037,cover=177440
						100:leaf=0.0235212,cover=51163.3
					50:[U_CATEGORY_MACRO_MAX_COEC<0.007999] yes=101,no=102,missing=102,gain=3262.06,cover=348540
						101:leaf=0.0750321,cover=228191
						102:leaf=0.0546836,cover=120349
			12:[CAT_REL<0.007999] yes=25,no=26,missing=26,gain=11361.9,cover=1.57892e+06
				25:[D_TITLEMD5_C<33.579] yes=51,no=52,missing=52,gain=5940.94,cover=496687
					51:[U_CITY_COEC<0.049999] yes=103,no=104,missing=104,gain=2180.36,cover=95972.3
						103:leaf=-0.00709757,cover=8692.67
						104:leaf=0.0454192,cover=87279.7
					52:[U_CATEGORY_MACRO_MAX_COEC<0.010999] yes=105,no=106,missing=106,gain=3471.3,cover=400715
						105:leaf=0.0731435,cover=317079
						106:leaf=0.0502395,cover=83636.3
				26:[D_TITLEMD5_C<13.916] yes=53,no=54,missing=54,gain=10143.3,cover=1.08223e+06
					53:[U_CITY_COEC<0.115999] yes=107,no=108,missing=107,gain=2731.35,cover=223464
						107:leaf=0.0588832,cover=203982
						108:leaf=0.0980752,cover=19482.3
					54:[C_D_U_TITLEMD5_CATEGORY_MICRO_MAX_COEC<0.121999] yes=109,no=110,missing=110,gain=5542.82,cover=858767
						109:leaf=0.0781538,cover=427784
						110:leaf=0.0942228,cover=430982
		6:[U_CATEGORY_MAX_EC<1573.02] yes=13,no=14,missing=14,gain=15150.1,cover=1.6083e+06
			13:[CAT_REL<0.001999] yes=27,no=28,missing=28,gain=5602.57,cover=1.11159e+06
				27:[D_TITLEMD5_COEC<0.153999] yes=55,no=56,missing=56,gain=2482.88,cover=384158
					55:[D_TITLEMD5_C<122.514] yes=111,no=112,missing=112,gain=1361.46,cover=264520
						111:leaf=0.0690206,cover=59647.7
						112:leaf=0.0861918,cover=204872
					56:[C_D_U_CATEGORY_CATEGORY_MICRO_MEAN_COEC<0.096999] yes=113,no=114,missing=114,gain=634.705,cover=119638
						113:leaf=0.0949553,cover=84218.4
						114:leaf=0.110923,cover=35419.8
				28:[D_TITLEMD5_C<4.336] yes=57,no=58,missing=58,gain=3712.56,cover=727432
					57:[U_CITY_COEC<0.055999] yes=115,no=116,missing=116,gain=1159.25,cover=34181.3
						115:leaf=0.0230779,cover=4483.61
						116:leaf=0.0776358,cover=29697.7
					58:[C_D_U_TITLEMD5_CATEGORY_MICRO_MAX_COEC<0.175999] yes=117,no=118,missing=118,gain=3045.33,cover=693251
						117:leaf=0.0978714,cover=360307
						118:leaf=0.11114,cover=332945
			14:[CAT_REL<0.001999] yes=29,no=30,missing=30,gain=5240.1,cover=496712
				29:[U_CATEGORY_MAX_EC<3441.07] yes=59,no=60,missing=60,gain=2198.77,cover=221709
					59:[D_TITLEMD5_COEC<0.153999] yes=119,no=120,missing=120,gain=1028.18,cover=150983
						119:leaf=0.0663875,cover=104811
						120:leaf=0.0843022,cover=46172.6
					60:[D_PUBLISHER_EC<10418.6] yes=121,no=122,missing=122,gain=827.805,cover=70726.1
						121:leaf=0.0633665,cover=29292.1
						122:leaf=0.0414,cover=41434.1
				30:[C_D_U_CATEGORY_CATEGORY_MICRO_MEAN_COEC<0.067999] yes=61,no=62,missing=62,gain=1584.1,cover=275002
					61:[D_KEYWORD_MACRO_MEAN_COEC<0.052999] yes=123,no=124,missing=123,gain=537.905,cover=83985.7
						123:leaf=-0.0101377,cover=748.146
						124:leaf=0.0750227,cover=83237.5
					62:[U_CATEGORY_MACRO_MAX_COEC<0.015999] yes=125,no=126,missing=126,gain=1010.67,cover=191017
						125:leaf=0.0943364,cover=153618
						126:leaf=0.075998,cover=37398.9
booster[6]:
0:[C_D_U_TITLEMD5_CATEGORY_MICRO_MAX_COEC<0.049999] yes=1,no=2,missing=1,gain=391176,cover=7.68104e+06
	1:[D_KEYWORD_MACRO_MEAN_COEC<0.059999] yes=3,no=4,missing=3,gain=96902.7,cover=3.08922e+06
		3:[CAT_REL<0.001999] yes=7,no=8,missing=8,gain=36466.8,cover=1.36727e+06
			7:[D_TITLEMD5_C<5.95] yes=15,no=16,missing=15,gain=11787.9,cover=419451
				15:[D_KEYWORD_MACRO_MEAN_COEC<0.042999] yes=31,no=32,missing=32,gain=4566.62,cover=221120
					31:[U_CITY_COEC<0.068999] yes=63,no=64,missing=64,gain=1063.82,cover=70567.1
						63:leaf=-0.0746409,cover=29485.9
						64:leaf=-0.0497424,cover=41081.1
					32:[U_CITY_COEC<0.080999] yes=65,no=66,missing=65,gain=2996.22,cover=150553
						65:leaf=-0.0356059,cover=125594
						66:leaf=0.00232868,cover=24958.5
				16:[U_CATEGORY_MAX_C<105.924] yes=33,no=34,missing=34,gain=3675.32,cover=198331
					33:[U_CITY_COEC<0.064999] yes=67,no=68,missing=68,gain=1945.3,cover=93489.9
						67:leaf=-0.0152986,cover=24604.6
						68:leaf=0.0174579,cover=68885.3
					34:[DOC_AGE<88] yes=69,no=70,missing=70,gain=1308.61,cover=104841
						69:leaf=-0.0229427,cover=90154.8
						70:leaf=0.00924648,cover=14686.5
			8:[D_KEYWORD_MACRO_MEAN_COEC<0.045999] yes=17,no=18,missing=18,gain=22675,cover=947816
				17:[U_CITY_COEC<0.073999] yes=35,no=36,missing=36,gain=7815.27,cover=289573
					35:[CAT_REL<0.034999] yes=71,no=72,missing=72,gain=3583.17,cover=154330
						71:leaf=-0.0468172,cover=55781.6
						72:leaf=-0.0151004,cover=98548.7
					36:[U_CITY_COEC<0.126999] yes=73,no=74,missing=73,gain=4104.82,cover=135243
						73:leaf=0.000747969,cover=122514
						74:leaf=0.0604109,cover=12728.7
				18:[U_CITY_COEC<0.075999] yes=37,no=38,missing=37,gain=13119.6,cover=658243
					37:[U_CITY_COEC<0.044999] yes=75,no=76,missing=76,gain=7938.16,cover=483285
						75:leaf=-0.0186658,cover=64817.1
						76:leaf=0.0189425,cover=418468
					38:[U_CITY_COEC<0.135999] yes=77,no=78,missing=78,gain=3240.2,cover=174958
						77:leaf=0.0400398,cover=147934
						78:leaf=0.0776974,cover=27024
		4:[U_CATEGORY_MAX_EC<1013.28] yes=9,no=10,missing=10,gain=25444.2,cover=1.72196e+06
			9:[U_CITY_COEC<0.062999] yes=19,no=20,missing=20,gain=11025.6,cover=687981
				19:[D_PUBLISHER_COEC<0.041999] yes=39,no=40,missing=39,gain=3148.76,cover=137823
					39:[WORD_COUNT<319] yes=79,no=80,missing=80,gain=1172.05,cover=13996.2
						79:leaf=-0.0891467,cover=2006.1
						80:leaf=-0.00658059,cover=11990.1
					40:[CAT_REL<0.017999] yes=81,no=82,missing=82,gain=3025.7,cover=123827
						81:leaf=0.0162977,cover=63158.5
						82:leaf=0.0475676,cover=60668.7
				20:[U_CITY_COEC<0.101999] yes=41,no=42,missing=41,gain=6030.5,cover=550157
					41:[D_TITLEMD5_COEC<0.084999] yes=83,no=84,missing=84,gain=5421.52,cover=476320
						83:leaf=0.0444624,cover=263672
						84:leaf=0.0659239,cover=212647
					42:[U_CITY_COEC<0.174999] yes=85,no=86,missing=86,gain=831.318,cover=73837.6
						85:leaf=0.078985,cover=56989
						86:leaf=0.104279,cover=16848.6
			10:[D_TITLEMD5_COEC<0.105999] yes=21,no=22,missing=22,gain=19757.9,cover=1.03398e+06
				21:[CAT_REL<0.020999] yes=43,no=44,missing=44,gain=7972.27,cover=661942
					43:[DOC_AGE<82] yes=87,no=88,missing=88,gain=6259.13,cover=459247
						87:leaf=0.00278323,cover=348666
						88:leaf=0.0300877,cover=110581
					44:[U_CATEGORY_MACRO_MAX_COEC<0.013999] yes=89,no=90,missing=90,gain=2383.68,cover=202695
						89:leaf=0.0379527,cover=169663
						90:leaf=0.00859044,cover=33032.1
				22:[D_PUBLISHER_COEC<0.131999] yes=45,no=46,missing=45,gain=5553.14,cover=372035
					45:[DOC_AGE<45] yes=91,no=92,missing=92,gain=3824.99,cover=307057
						91:leaf=0.0310254,cover=189269
						92:leaf=0.0539786,cover=117788
					46:[D_KEYWORD_MEAN_C<174.976] yes=93,no=94,missing=94,gain=1317.55,cover=64978
						93:leaf=0.0584749,cover=34145.7
						94:leaf=0.0869965,cover=30832.3
	2:[C_D_U_TITLEMD5_CATEGORY_MICRO_MAX_COEC<0.102999] yes=5,no=6,missing=6,gain=68205.7,cover=4.59182e+06
		5:[U_CATEGORY_MAX_C<147.038] yes=11,no=12,missing=12,gain=18781,cover=1.84744e+06
			11:[CAT_REL<0.006999] yes=23,no=24,missing=24,gain=11634.3,cover=1.41889e+06
				23:[D_TITLEMD5_C<106.95] yes=47,no=48,missing=48,gain=6567.36,cover=576917
					47:[U_CITY_COEC<0.067999] yes=95,no=96,missing=96,gain=3802.47,cover=250117
						95:leaf=0.0162732,cover=77235.8
						96:leaf=0.0429618,cover=172882
					48:[U_CATEGORY_MACRO_MAX_COEC<0.005999] yes=97,no=98,missing=98,gain=2008.5,cover=326800
						97:leaf=0.0668226,cover=115955
						98:leaf=0.0504362,cover=210845
				24:[D_TITLEMD5_COEC<0.075999] yes=49,no=50,missing=50,gain=7133.03,cover=841978
					49:[U_CITY_COEC<0.097999] yes=99,no=100,missing=99,gain=2752.35,cover=383165
						99:leaf=0.0521948,cover=338360
						100:leaf=0.0785709,cover=44805.1
					50:[U_CITY_COEC<0.076999] yes=101,no=102,missing=101,gain=2101.66,cover=458812
						101:leaf=0.0695861,cover=332294
						102:leaf=0.0847327,cover=126518
			12:[U_CATEGORY_MAX_C<259.296] yes=25,no=26,missing=26,gain=3727,cover=428546
				25:[D_TITLEMD5_COEC<0.089999] yes=51,no=52,missing=52,gain=2464.1,cover=298618
					51:[C_D_U_TITLEMD5_CATEGORY_MAX_C<0.126999] yes=103,no=104,missing=104,gain=2132.33,cover=154053
						103:leaf=0.0188562,cover=72591.9
						104:leaf=0.0424258,cover=81460.6
					52:[CAT_REL<0.016999] yes=105,no=106,missing=106,gain=841.783,cover=144565
						105:leaf=0.0435653,cover=90125.6
						106:leaf=0.0593163,cover=54439.8
				26:[DOC_AGE<32] yes=53,no=54,missing=54,gain=1697.2,cover=129928
					53:[D_TITLEMD5_COEC<0.103999] yes=107,no=108,missing=108,gain=1030.91,cover=62104.2
						107:leaf=-0.00235469,cover=38059.6
						108:leaf=0.0240952,cover=24044.6
					54:[D_TITLEMD5_COEC<0.076999] yes=109,no=110,missing=110,gain=771.964,cover=67824
						109:leaf=0.0141493,cover=19797.8
						110:leaf=0.0376164,cover=48026.3
		6:[D_TITLEMD5_C<23.374] yes=13,no=14,missing=14,gain=34840.5,cover=2.74438e+06
			13:[CAT_REL<0.019999] yes=27,no=28,missing=28,gain=13485.8,cover=580589
				27:[U_CITY_COEC<0.059999] yes=55,no=56,missing=56,gain=4626.81,cover=177337
					55:[D_KEYWORD_MACRO_MEAN_COEC<0.053999] yes=111,no=112,missing=112,gain=1272.75,cover=29090.3
						111:leaf=-0.049823,cover=5020.54
						112:leaf=0.00552449,cover=24069.8
					56:[D_KEYWORD_MACRO_MEAN_COEC<0.054999] yes=113,no=114,missing=114,gain=3114.28,cover=148247
						113:leaf=0.00832004,cover=26218.1
						114:leaf=0.0463078,cover=122029
				28:[D_KEYWORD_MACRO_MEAN_COEC<0.057999] yes=57,no=58,missing=58,gain=5675.09,cover=403252
					57:[D_TITLEMD5_C<4.437] yes=115,no=116,missing=116,gain=2270.91,cover=112742
						115:leaf=0.0307884,cover=50732.8
						116:leaf=0.0593174,cover=62009.7
					58:[U_CITY_COEC<0.052999] yes=117,no=118,missing=118,gain=2930.55,cover=290509
						117:leaf=0.0431819,cover=29759.5
						118:leaf=0.0763074,cover=260750
			14:[C_D_U_TITLEMD5_CATEGORY_MICRO_MAX_COEC<0.164999] yes=29,no=30,missing=30,gain=18275.3,cover=2.16379e+06
				29:[CAT_REL<0.001999] yes=59,no=60,missing=60,gain=10593.5,cover=1.32365e+06
					59:[D_TITLEMD5_C<144.696] yes=119,no=120,missing=120,gain=4137.31,cover=488919
						119:leaf=0.0503289,cover=152483
						120:leaf=0.0701869,cover=336437
					60:[U_CATEGORY_MACRO_MAX_COEC<0.010999] yes=121,no=122,missing=122,gain=4289.62,cover=834732
						121:leaf=0.0859836,cover=677517
						122:leaf=0.0676474,cover=157216
				30:[CAT_REL<0.001999] yes=61,no=62,missing=62,gain=5125.48,cover=840138
					61:[D_TITLEMD5_C<97.912] yes=123,no=124,missing=124,gain=3080.43,cover=265481
						123:leaf=0.0649172,cover=69271.5
						124:leaf=0.0894491,cover=196209
					62:[D_TITLEMD5_COEC<0.128999] yes=125,no=126,missing=126,gain=2089.69,cover=574657
						125:leaf=0.0938884,cover=290684
						126:leaf=0.105953,cover=283973
booster[7]:
0:[C_D_U_TITLEMD5_CATEGORY_MICRO_MAX_COEC<0.073999] yes=1,no=2,missing=1,gain=339210,cover=7.57331e+06
	1:[D_TITLEMD5_COEC<0.044999] yes=3,no=4,missing=3,gain=101219,cover=3.86457e+06
		3:[C_D_U_CATEGORY_CATEGORY_MICRO_MEAN_COEC<0.068999] yes=7,no=8,missing=7,gain=37274.1,cover=1.13376e+06
			7:[CAT_REL<0.019999] yes=15,no=16,missing=16,gain=12460.6,cover=628492
				15:[U_CITY_COEC<0.044999] yes=31,no=32,missing=32,gain=4699.42,cover=318247
					31:[D_PUBLISHER_COEC<0.055999] yes=63,no=64,missing=63,gain=990.487,cover=42487.1
						63:leaf=-0.0741401,cover=26826.2
						64:leaf=-0.0424854,cover=15661
					32:[D_KEYWORD_MACRO_MEAN_COEC<0.034999] yes=65,no=66,missing=66,gain=3913.19,cover=275760
						65:leaf=-0.0585546,cover=33916.7
						66:leaf=-0.022284,cover=241844
				16:[U_CITY_COEC<0.080999] yes=33,no=34,missing=33,gain=7397.16,cover=310244
					33:[D_PUBLISHER_COEC<0.035999] yes=67,no=68,missing=68,gain=5220.62,cover=256123
						67:leaf=-0.0326519,cover=74926.2
						68:leaf=-0.00126917,cover=181197
					34:[U_CATEGORY_MAX_C<69.029] yes=69,no=70,missing=70,gain=1836.79,cover=54121.2
						69:leaf=0.0459068,cover=31404.2
						70:leaf=0.00857781,cover=22717
			8:[U_CITY_COEC<0.068999] yes=17,no=18,missing=18,gain=10357.8,cover=505265
				17:[U_CITY_COEC<0.035999] yes=35,no=36,missing=36,gain=4088.35,cover=180221
					35:[U_CITY_EC<123.91] yes=71,no=72,missing=72,gain=1288.85,cover=31544.3
						71:leaf=0.000629063,cover=8350.15
						72:leaf=-0.0451875,cover=23194.2
					36:[CAT_REL<0.026999] yes=73,no=74,missing=74,gain=2621.23,cover=148677
						73:leaf=-0.0114097,cover=52445.1
						74:leaf=0.0163784,cover=96231.9
				18:[CAT_REL<0.020999] yes=37,no=38,missing=38,gain=5801.91,cover=325043
					37:[U_CATEGORY_MAX_EC<602.643] yes=75,no=76,missing=76,gain=2250.59,cover=94927.4
						75:leaf=0.0241253,cover=47459.7
						76:leaf=-0.00666955,cover=47467.7
					38:[C_D_U_CATEGORY_CATEGORY_MICRO_MAX_COEC<0.089999] yes=77,no=78,missing=78,gain=3123.21,cover=230116
						77:leaf=0.027746,cover=128469
						78:leaf=0.0512064,cover=101647
		4:[U_CATEGORY_MAX_EC<1509.46] yes=9,no=10,missing=10,gain=36511.3,cover=2.73081e+06
			9:[U_CITY_COEC<0.076999] yes=19,no=20,missing=19,gain=19613.2,cover=1.45798e+06
				19:[CAT_REL<0.009999] yes=39,no=40,missing=40,gain=12756.7,cover=1.05916e+06
					39:[D_TITLEMD5_C<21.112] yes=79,no=80,missing=80,gain=7665.96,cover=442435
						79:leaf=0.00686326,cover=153546
						80:leaf=0.0345151,cover=288889
					40:[D_TITLEMD5_C<2.883] yes=81,no=82,missing=82,gain=9149.51,cover=616725
						81:leaf=0.0196609,cover=101081
						82:leaf=0.0525641,cover=515644
				20:[U_CITY_COEC<0.124999] yes=41,no=42,missing=42,gain=4168.22,cover=398823
					41:[D_TITLEMD5_COEC<0.082999] yes=83,no=84,missing=84,gain=2839.44,cover=310267
						83:leaf=0.050116,cover=176733
						84:leaf=0.0694381,cover=133534
					42:[U_CITY_C<8.712] yes=85,no=86,missing=86,gain=844.557,cover=88556.4
						85:leaf=0.0670732,cover=24145.4
						86:leaf=0.0890112,cover=64411
			10:[D_KEYWORD_MACRO_MEAN_COEC<0.067999] yes=21,no=22,missing=21,gain=19736,cover=1.27283e+06
				21:[CAT_REL<0.005999] yes=43,no=44,missing=44,gain=11225.6,cover=532341
					43:[DOC_AGE<73] yes=87,no=88,missing=88,gain=4325.8,cover=299118
						87:leaf=-0.0128523,cover=220876
						88:leaf=0.0145103,cover=78241.9
					44:[C_D_U_TITLEMD5_CATEGORY_MICRO_MAX_COEC<0.032999] yes=89,no=90,missing=89,gain=2646.48,cover=233223
						89:leaf=0.011203,cover=99309.9
						90:leaf=0.0327464,cover=133913
				22:[D_PUBLISHER_COEC<0.125999] yes=45,no=46,missing=45,gain=7814.49,cover=740490
					45:[DOC_AGE<80] yes=91,no=92,missing=92,gain=6156.39,cover=656939
						91:leaf=0.0235746,cover=512751
						92:leaf=0.0469634,cover=144188
					46:[WORD_COUNT<1967] yes=93,no=94,missing=94,gain=1757.91,cover=83551.2
						93:leaf=0.0450171,cover=37284.8
						94:leaf=0.0741992,cover=46266.4
	2:[D_TITLEMD5_COEC<0.113999] yes=5,no=6,missing=6,gain=42131.6,cover=3.70873e+06
		5:[C_D_U_CATEGORY_CATEGORY_MICRO_MEAN_COEC<0.079999] yes=11,no=12,missing=12,gain=24596,cover=2.30427e+06
			11:[D_TITLEMD5_COEC<0.051999] yes=23,no=24,missing=24,gain=12106.6,cover=1.23431e+06
				23:[CAT_REL<0.017999] yes=47,no=48,missing=48,gain=2420.24,cover=90815.3
					47:[D_KEYWORD_MACRO_MEAN_COEC<0.042999] yes=95,no=96,missing=95,gain=1224.66,cover=36964.9
						95:leaf=-0.0577427,cover=4167.71
						96:leaf=-0.000200018,cover=32797.2
					48:[D_TITLEMD5_COEC<0.032999] yes=97,no=98,missing=98,gain=1198.35,cover=53850.3
						97:leaf=-0.0042401,cover=10242.8
						98:leaf=0.0337693,cover=43607.6
				24:[CAT_REL<0.001999] yes=49,no=50,missing=50,gain=10607.5,cover=1.14349e+06
					49:[D_TITLEMD5_C<104.678] yes=99,no=100,missing=100,gain=4531.8,cover=405740
						99:leaf=0.026482,cover=186148
						100:leaf=0.0476914,cover=219592
					50:[U_CITY_COEC<0.046999] yes=101,no=102,missing=102,gain=4834.99,cover=737753
						101:leaf=0.0304986,cover=58475.8
						102:leaf=0.0604663,cover=679277
			12:[D_TITLEMD5_COEC<0.072999] yes=25,no=26,missing=26,gain=6259.58,cover=1.06997e+06
				25:[U_CITY_COEC<0.066999] yes=51,no=52,missing=52,gain=2629.66,cover=289178
					51:[C_D_U_TITLEMD5_CATEGORY_MAX_C<0.019999] yes=103,no=104,missing=104,gain=1601.29,cover=74889.7
						103:leaf=0.0206291,cover=26879.1
						104:leaf=0.051114,cover=48010.6
					52:[CAT_REL<0.015999] yes=105,no=106,missing=106,gain=1525.48,cover=214289
						105:leaf=0.04913,cover=64832.7
						106:leaf=0.0674997,cover=149456
				26:[CAT_REL<0.005999] yes=53,no=54,missing=54,gain=4886.47,cover=780788
					53:[U_CATEGORY_MAX_EC<918.741] yes=107,no=108,missing=108,gain=2058.23,cover=231268
						107:leaf=0.0687735,cover=142585
						108:leaf=0.0493697,cover=88683.2
					54:[U_CATEGORY_MAX_EC<669.581] yes=109,no=110,missing=110,gain=2657.22,cover=549520
						109:leaf=0.0870695,cover=223199
						110:leaf=0.0729088,cover=326321
		6:[U_CATEGORY_MAX_EC<1389.68] yes=13,no=14,missing=14,gain=11865,cover=1.40446e+06
			13:[C_D_U_CATEGORY_CATEGORY_MICRO_MEAN_COEC<0.096999] yes=27,no=28,missing=28,gain=4242.36,cover=896538
				27:[CAT_REL<0.001999] yes=55,no=56,missing=56,gain=2529.46,cover=617520
					55:[U_CITY_COEC<0.049999] yes=111,no=112,missing=112,gain=1134.32,cover=232089
						111:leaf=0.0516254,cover=21000.5
						112:leaf=0.0760004,cover=211088
					56:[D_TITLEMD5_C<5.95] yes=113,no=114,missing=114,gain=2064.49,cover=385431
						113:leaf=0.0602234,cover=26780.7
						114:leaf=0.089011,cover=358651
				28:[C_D_U_TITLEMD5_CATEGORY_MICRO_MAX_COEC<0.189999] yes=57,no=58,missing=58,gain=1183.71,cover=279018
					57:[CAT_REL<0.003999] yes=115,no=116,missing=116,gain=629.612,cover=110865
						115:leaf=0.0782326,cover=37046.2
						116:leaf=0.0942189,cover=73819
					58:[D_TITLEMD5_C<4.99] yes=117,no=118,missing=118,gain=755.701,cover=168152
						117:leaf=0.0713564,cover=7597.78
						118:leaf=0.103652,cover=160555
			14:[CAT_REL<0.001999] yes=29,no=30,missing=30,gain=4282.35,cover=507923
				29:[U_CATEGORY_MAX_EC<3468.65] yes=59,no=60,missing=60,gain=2032.95,cover=225944
					59:[D_PUBLISHER_COEC<0.107999] yes=119,no=120,missing=120,gain=1188.86,cover=163559
						119:leaf=0.0541416,cover=77401.5
						120:leaf=0.0712202,cover=86157.9
					60:[D_PUBLISHER_COEC<0.110999] yes=121,no=122,missing=122,gain=718.398,cover=62384.7
						121:leaf=0.0314308,cover=31909.5
						122:leaf=0.0529009,cover=30475.2
				30:[C_D_U_CATEGORY_CATEGORY_MICRO_MEAN_COEC<0.087999] yes=61,no=62,missing=62,gain=1525.25,cover=281979
					61:[U_CATEGORY_MACRO_MAX_COEC<0.015999] yes=123,no=124,missing=124,gain=1208.06,cover=203107
						123:leaf=0.0738949,cover=180625
						124:leaf=0.0493093,cover=22482.2
					62:[U_CATEGORY_MACRO_MAX_COEC<0.014999] yes=125,no=126,missing=126,gain=416.452,cover=78871.7
						125:leaf=0.092243,cover=55762.5
						126:leaf=0.0762632,cover=23109.2
booster[8]:
0:[C_D_U_TITLEMD5_CATEGORY_MICRO_MAX_COEC<0.074999] yes=1,no=2,missing=1,gain=287413,cover=7.4682e+06
	1:[D_TITLEMD5_COEC<0.059999] yes=3,no=4,missing=3,gain=88377.8,cover=3.88133e+06
		3:[C_D_U_CATEGORY_CATEGORY_MICRO_MEAN_COEC<0.063999] yes=7,no=8,missing=7,gain=42110.1,cover=1.63339e+06
			7:[C_D_U_TITLEMD5_CATEGORY_MICRO_MAX_COEC<0.015999] yes=15,no=16,missing=15,gain=11418.3,cover=768908
				15:[U_CATEGORY_MAX_EC<985.336] yes=31,no=32,missing=32,gain=7779.27,cover=593877
					31:[U_CITY_COEC<0.085999] yes=63,no=64,missing=63,gain=6272.9,cover=258412
						63:leaf=-0.0126399,cover=223291
						64:leaf=0.0328242,cover=35120.5
					32:[D_KEYWORD_MACRO_MEAN_COEC<0.049999] yes=65,no=66,missing=66,gain=4152.74,cover=335465
						65:leaf=-0.0417472,cover=152308
						66:leaf=-0.0194001,cover=183157
				16:[U_CATEGORY_MAX_C<174.777] yes=33,no=34,missing=34,gain=4815.68,cover=175031
					33:[CAT_REL<0.015999] yes=67,no=68,missing=68,gain=1621.97,cover=138035
						67:leaf=0.00794287,cover=73175.8
						68:leaf=0.0296622,cover=64859.4
					34:[D_KEYWORD_MAX_EC<387.851] yes=69,no=70,missing=70,gain=480.349,cover=36996.1
						69:leaf=-0.0362985,cover=14971
						70:leaf=-0.0130828,cover=22025.1
			8:[U_CITY_COEC<0.080999] yes=17,no=18,missing=17,gain=14195.9,cover=864480
				17:[D_PUBLISHER_COEC<0.038999] yes=35,no=36,missing=35,gain=9070.65,cover=692745
					35:[CAT_REL<0.043999] yes=71,no=72,missing=72,gain=3580.62,cover=156645
						71:leaf=-0.0225213,cover=82928.3
						72:leaf=0.00776887,cover=73716.6
					36:[CAT_REL<0.019999] yes=73,no=74,missing=74,gain=6236.34,cover=536100
						73:leaf=0.004513,cover=189705
						74:leaf=0.027069,cover=346395
				18:[U_CITY_COEC<0.167999] yes=37,no=38,missing=38,gain=3068.65,cover=171735
					37:[CAT_REL<0.019999] yes=75,no=76,missing=76,gain=1697.24,cover=151477
						75:leaf=0.0253535,cover=51372
						76:leaf=0.0477135,cover=100105
					38:[U_CATEGORY_MACRO_MAX_COEC<0.003999] yes=77,no=78,missing=78,gain=1073.05,cover=20258.1
						77:leaf=0.148694,cover=2131.12
						78:leaf=0.073673,cover=18127
		4:[CAT_REL<0.001999] yes=9,no=10,missing=10,gain=25936.7,cover=2.24794e+06
			9:[D_PUBLISHER_COEC<0.068999] yes=19,no=20,missing=19,gain=13813.8,cover=1.12031e+06
				19:[U_CATEGORY_MACRO_MAX_COEC<0.009999] yes=39,no=40,missing=40,gain=4517.47,cover=323287
					39:[U_CITY_COEC<0.060999] yes=79,no=80,missing=80,gain=2558.73,cover=166094
						79:leaf=-0.00687151,cover=33132.3
						80:leaf=0.0241882,cover=132962
					40:[DOC_AGE<67] yes=81,no=82,missing=82,gain=1934.53,cover=157193
						81:leaf=-0.0125686,cover=113250
						82:leaf=0.0121508,cover=43942.7
				20:[U_CITY_COEC<0.076999] yes=41,no=42,missing=41,gain=6218.01,cover=797021
					41:[D_PUBLISHER_COEC<0.131999] yes=83,no=84,missing=84,gain=4884.01,cover=603380
						83:leaf=0.0232402,cover=551621
						84:leaf=0.055367,cover=51759.6
					42:[DOC_AGE<55] yes=85,no=86,missing=86,gain=1748.67,cover=193641
						85:leaf=0.0391616,cover=120184
						86:leaf=0.0587472,cover=73456.5
			10:[U_CITY_COEC<0.046999] yes=21,no=22,missing=22,gain=9178.25,cover=1.12764e+06
				21:[D_TITLEMD5_C<7.854] yes=43,no=44,missing=44,gain=2533.61,cover=94950.1
					43:[D_PUBLISHER_COEC<0.053999] yes=87,no=88,missing=87,gain=971.071,cover=27825.4
						87:leaf=-0.0391628,cover=7983.15
						88:leaf=0.00213654,cover=19842.3
					44:[D_TITLEMD5_COEC<0.108999] yes=89,no=90,missing=90,gain=1416.42,cover=67124.7
						89:leaf=0.0194843,cover=55378.9
						90:leaf=0.0577157,cover=11745.7
				22:[U_CATEGORY_MAX_C<110.943] yes=45,no=46,missing=46,gain=8119.19,cover=1.03269e+06
					45:[D_TITLEMD5_C<2.831] yes=91,no=92,missing=92,gain=5726.52,cover=775487
						91:leaf=0.0308658,cover=99589.2
						92:leaf=0.0565518,cover=675898
					46:[U_CATEGORY_MAX_EC<3949.55] yes=93,no=94,missing=94,gain=2189.41,cover=257199
						93:leaf=0.03734,cover=206169
						94:leaf=0.0142044,cover=51029.9
	2:[D_TITLEMD5_COEC<0.079999] yes=5,no=6,missing=6,gain=37552.8,cover=3.58686e+06
		5:[C_D_U_CATEGORY_CATEGORY_MICRO_MAX_COEC<0.068999] yes=11,no=12,missing=12,gain=12178.6,cover=870851
			11:[C_D_U_TITLEMD5_CATEGORY_MACRO_MAX_COEC<0.018999] yes=23,no=24,missing=24,gain=3637.59,cover=224303
				23:[CAT_REL<0.025999] yes=47,no=48,missing=48,gain=2374.39,cover=174990
					47:[U_CITY_COEC<0.052999] yes=95,no=96,missing=96,gain=1954.61,cover=100654
						95:leaf=-0.0187559,cover=11677.3
						96:leaf=0.0247575,cover=88976.2
					48:[D_TITLEMD5_COEC<0.036999] yes=97,no=98,missing=98,gain=1044.76,cover=74336.4
						97:leaf=-0.00269689,cover=4635.24
						98:leaf=0.0463316,cover=69701.2
				24:[CAT_REL<0.030999] yes=49,no=50,missing=50,gain=1199.49,cover=49313.1
					49:[DOC_AGE<48] yes=99,no=100,missing=100,gain=968.457,cover=26253.7
						99:leaf=-0.0293534,cover=17393.2
						100:leaf=0.0112629,cover=8860.54
					50:[U_CITY_COEC<0.091999] yes=101,no=102,missing=101,gain=534.256,cover=23059.4
						101:leaf=0.00975607,cover=20088
						102:leaf=0.055181,cover=2971.4
			12:[CAT_REL<0.015999] yes=25,no=26,missing=26,gain=5669.74,cover=646548
				25:[D_TITLEMD5_C<57.667] yes=51,no=52,missing=52,gain=2727.16,cover=227982
					51:[U_CITY_COEC<0.055999] yes=103,no=104,missing=104,gain=2494.25,cover=125792
						103:leaf=-0.0103562,cover=15320.3
						104:leaf=0.0326995,cover=110472
					52:[U_CATEGORY_MAX_EC<985.336] yes=105,no=106,missing=106,gain=1208.95,cover=102190
						105:leaf=0.0567922,cover=70194.3
						106:leaf=0.0333365,cover=31995.8
				26:[D_TITLEMD5_C<9.232] yes=53,no=54,missing=54,gain=3541.5,cover=418565
					53:[U_CITY_COEC<0.075999] yes=107,no=108,missing=107,gain=1884.35,cover=107818
						107:leaf=0.0325901,cover=75202
						108:leaf=0.0613715,cover=32615.6
					54:[U_CATEGORY_MACRO_MAX_COEC<0.012999] yes=109,no=110,missing=110,gain=1780.44,cover=310748
						109:leaf=0.0651622,cover=272642
						110:leaf=0.0420831,cover=38105.5
		6:[C_D_U_CATEGORY_CATEGORY_MICRO_MEAN_COEC<0.080999] yes=13,no=14,missing=14,gain=23350.3,cover=2.71601e+06
			13:[U_CATEGORY_MACRO_MAX_COEC<0.009999] yes=27,no=28,missing=28,gain=13176.9,cover=1.40329e+06
				27:[D_TITLEMD5_COEC<0.141999] yes=55,no=56,missing=56,gain=6021.25,cover=1.05807e+06
					55:[U_CITY_COEC<0.076999] yes=111,no=112,missing=111,gain=4542.43,cover=841930
						111:leaf=0.0551588,cover=613125
						112:leaf=0.0716705,cover=228805
					56:[D_TITLEMD5_C<2.239] yes=113,no=114,missing=114,gain=1178.11,cover=216138
						113:leaf=0.044109,cover=9601.74
						114:leaf=0.0799497,cover=206536
				28:[U_CATEGORY_MACRO_MAX_COEC<0.016999] yes=57,no=58,missing=58,gain=3584.29,cover=345227
					57:[C_D_U_TITLEMD5_CATEGORY_MICRO_MAX_COEC<0.101999] yes=115,no=116,missing=116,gain=1820.6,cover=268647
						115:leaf=0.0342899,cover=84828
						116:leaf=0.0520015,cover=183819
					58:[DOC_AGE<59] yes=117,no=118,missing=118,gain=1418.11,cover=76579.7
						117:leaf=0.0135885,cover=55834.3
						118:leaf=0.044208,cover=20745.4
			14:[C_D_U_TITLEMD5_CATEGORY_MICRO_MAX_COEC<0.151999] yes=29,no=30,missing=30,gain=9002.27,cover=1.31272e+06
				29:[U_CATEGORY_MACRO_MAX_COEC<0.013999] yes=59,no=60,missing=60,gain=3732.91,cover=591311
					59:[CAT_REL<0.011999] yes=119,no=120,missing=120,gain=2452.26,cover=520454
						119:leaf=0.0626098,cover=231731
						120:leaf=0.0764227,cover=288724
					60:[DOC_AGE<92] yes=121,no=122,missing=122,gain=539.312,cover=70856.7
						121:leaf=0.0419996,cover=59532.6
						122:leaf=0.0658117,cover=11324.1
				30:[D_TITLEMD5_C<15.168] yes=61,no=62,missing=62,gain=3148.68,cover=721407
					61:[U_CITY_COEC<0.062999] yes=123,no=124,missing=124,gain=1101.22,cover=74971.5
						123:leaf=0.0379466,cover=12861.9
						124:leaf=0.0700996,cover=62109.6
					62:[CAT_REL<0.006999] yes=125,no=126,missing=126,gain=2931.66,cover=646436
						125:leaf=0.0771075,cover=227876
						126:leaf=0.0912051,cover=418559
booster[9]:
0:[C_D_U_TITLEMD5_CATEGORY_MICRO_MAX_COEC<0.039999] yes=1,no=2,missing=1,gain=247346,cover=7.36278e+06
	1:[D_KEYWORD_MACRO_MEAN_COEC<0.060999] yes=3,no=4,missing=3,gain=58113.3,cover=2.77688e+06
		3:[C_D_U_CATEGORY_CATEGORY_MICRO_MEAN_COEC<0.058999] yes=7,no=8,missing=7,gain=23297,cover=1.34897e+06
			7:[U_CITY_COEC<0.044999] yes=15,no=16,missing=16,gain=8763.15,cover=615244
				15:[D_TITLEMD5_C<10.314] yes=31,no=32,missing=31,gain=1680.99,cover=78925.4
					31:[CAT_REL<0.067999] yes=63,no=64,missing=64,gain=1562.14,cover=60751.3
						63:leaf=-0.0628261,cover=48359.4
						64:leaf=-0.0230287,cover=12391.9
					32:[CAT_REL<0.011999] yes=65,no=66,missing=66,gain=564.828,cover=18174.1
						65:leaf=-0.0315392,cover=12750.9
						66:leaf=0.00698801,cover=5423.23
				16:[D_TITLEMD5_COEC<0.031999] yes=33,no=34,missing=34,gain=6811.92,cover=536319
					33:[U_CATEGORY_MAX_C<94.509] yes=67,no=68,missing=67,gain=3205.88,cover=215150
						67:leaf=-0.017247,cover=155502
						68:leaf=-0.0445167,cover=59647.7
					34:[U_CATEGORY_MACRO_MAX_COEC<0.007999] yes=69,no=70,missing=70,gain=5598.18,cover=321169
						69:leaf=0.0108207,cover=167643
						70:leaf=-0.0156098,cover=153526
			8:[U_CITY_COEC<0.066999] yes=17,no=18,missing=18,gain=12187.3,cover=733722
				17:[U_CITY_COEC<0.035999] yes=35,no=36,missing=36,gain=3932.52,cover=231565
					35:[U_CITY_EC<121.74] yes=71,no=72,missing=72,gain=2608.69,cover=46942.4
						71:leaf=0.00270195,cover=13681.8
						72:leaf=-0.0491726,cover=33260.6
					36:[CAT_REL<0.025999] yes=73,no=74,missing=74,gain=2425.76,cover=184623
						73:leaf=-0.0150077,cover=78219.3
						74:leaf=0.00818919,cover=106403
				18:[U_CATEGORY_MAX_EC<537.64] yes=37,no=38,missing=38,gain=6538.74,cover=502157
					37:[U_CITY_COEC<0.111999] yes=75,no=76,missing=75,gain=2952.5,cover=178876
						75:leaf=0.0301162,cover=157405
						76:leaf=0.0696471,cover=21470.8
					38:[CAT_REL<0.030999] yes=77,no=78,missing=78,gain=5606.75,cover=323282
						77:leaf=-0.00470501,cover=133142
						78:leaf=0.0220528,cover=190140
		4:[D_TITLEMD5_COEC<0.106999] yes=9,no=10,missing=10,gain=16308,cover=1.42791e+06
			9:[CAT_REL<0.002999] yes=19,no=20,missing=20,gain=15964.9,cover=935965
				19:[D_PUBLISHER_COEC<0.066999] yes=39,no=40,missing=39,gain=5182.38,cover=456823
					39:[U_CITY_COEC<0.038999] yes=79,no=80,missing=80,gain=2292.08,cover=170557
						79:leaf=-0.0454883,cover=14350.4
						80:leaf=-0.00372883,cover=156207
					40:[DOC_AGE<58] yes=81,no=82,missing=82,gain=3585.03,cover=286266
						81:leaf=0.00570408,cover=172724
						82:leaf=0.0285799,cover=113542
				20:[U_CITY_COEC<0.066999] yes=41,no=42,missing=42,gain=5920.35,cover=479142
					41:[U_CITY_COEC<0.035999] yes=83,no=84,missing=84,gain=1584.77,cover=139103
						83:leaf=-0.00770754,cover=24627.6
						84:leaf=0.0202552,cover=114476
					42:[C_D_U_CATEGORY_CATEGORY_MICRO_MEAN_COEC<0.079999] yes=85,no=86,missing=86,gain=3723.54,cover=340039
						85:leaf=0.0316754,cover=212280
						86:leaf=0.0532827,cover=127759
			10:[C_D_U_CATEGORY_CATEGORY_MICRO_MAX_COEC<0.066999] yes=21,no=22,missing=21,gain=6522.52,cover=491950
				21:[D_PUBLISHER_COEC<0.104999] yes=43,no=44,missing=43,gain=4205.91,cover=341103
					43:[C_D_U_TITLEMD5_CATEGORY_MACRO_MAX_COEC<0.004999] yes=87,no=88,missing=88,gain=2080.53,cover=167142
						87:leaf=0.0418662,cover=44817.6
						88:leaf=0.0166806,cover=122324
					44:[D_KEYWORD_MEAN_C<206.682] yes=89,no=90,missing=90,gain=2387.49,cover=173962
						89:leaf=0.0359179,cover=102958
						90:leaf=0.0597544,cover=71003.4
				22:[D_PUBLISHER_C<11.549] yes=45,no=46,missing=45,gain=1951.6,cover=150846
					45:[U_CITY_COEC<0.076999] yes=91,no=92,missing=91,gain=720.396,cover=21542.4
						91:leaf=0.0203449,cover=15422.8
						92:leaf=0.0608947,cover=6119.68
					46:[U_CATEGORY_MACRO_MAX_COEC<0.012999] yes=93,no=94,missing=94,gain=1498.92,cover=129304
						93:leaf=0.0678129,cover=117360
						94:leaf=0.0306245,cover=11943.7
	2:[D_TITLEMD5_COEC<0.102999] yes=5,no=6,missing=6,gain=59878.4,cover=4.5859e+06
		5:[C_D_U_CATEGORY_CATEGORY_MICRO_MEAN_COEC<0.072999] yes=11,no=12,missing=12,gain=27214.7,cover=2.70944e+06
			11:[U_CATEGORY_MACRO_MAX_COEC<0.008999] yes=23,no=24,missing=24,gain=11877.8,cover=1.28815e+06
				23:[U_CITY_COEC<0.085999] yes=47,no=48,missing=47,gain=6713.93,cover=925344
					47:[D_TITLEMD5_C<46.597] yes=95,no=96,missing=96,gain=6013.1,cover=778851
						95:leaf=0.0232301,cover=321255
						96:leaf=0.0410791,cover=457596
					48:[U_CITY_COEC<0.176999] yes=97,no=98,missing=98,gain=1233.85,cover=146493
						97:leaf=0.0535621,cover=127995
						98:leaf=0.0811948,cover=18498.4
				24:[CAT_REL<0.011999] yes=49,no=50,missing=50,gain=3329.19,cover=362803
					49:[DOC_AGE<50] yes=99,no=100,missing=100,gain=3166.93,cover=187312
						99:leaf=-0.00401881,cover=110764
						100:leaf=0.0224317,cover=76547.3
					50:[U_CATEGORY_MAX_C<265.069] yes=101,no=102,missing=102,gain=1630.69,cover=175492
						101:leaf=0.0304207,cover=144533
						102:leaf=0.00513095,cover=30958.3
			12:[D_TITLEMD5_COEC<0.069999] yes=25,no=26,missing=26,gain=8548.62,cover=1.42129e+06
				25:[CAT_REL<0.015999] yes=51,no=52,missing=52,gain=3966.73,cover=489150
					51:[U_CATEGORY_MAX_EC<691.126] yes=103,no=104,missing=104,gain=2119.15,cover=160872
						103:leaf=0.0384182,cover=87411.8
						104:leaf=0.0153765,cover=73460
					52:[U_CATEGORY_MAX_EC<691.126] yes=105,no=106,missing=106,gain=2850.18,cover=328278
						105:leaf=0.059027,cover=123972
						106:leaf=0.0398063,cover=204307
				26:[CAT_REL<0.003999] yes=53,no=54,missing=54,gain=5993.86,cover=932142
					53:[C_D_U_CATEGORY_CATEGORY_MACRO_MEAN_COEC<0.011999] yes=107,no=108,missing=108,gain=2552.44,cover=269793
						107:leaf=0.0501801,cover=201554
						108:leaf=0.0278035,cover=68238.9
					54:[U_CATEGORY_MAX_EC<970.351] yes=109,no=110,missing=110,gain=3281.04,cover=662349
						109:leaf=0.0685579,cover=364901
						110:leaf=0.0544071,cover=297449
		6:[U_CATEGORY_MAX_EC<1398.1] yes=13,no=14,missing=14,gain=17748,cover=1.87646e+06
			13:[D_TITLEMD5_COEC<0.143999] yes=27,no=28,missing=28,gain=5997.77,cover=1.17645e+06
				27:[CAT_REL<0.008999] yes=55,no=56,missing=56,gain=4699.52,cover=798737
					55:[U_CITY_COEC<0.052999] yes=111,no=112,missing=112,gain=2312.37,cover=360801
						111:leaf=0.0354748,cover=36590.5
						112:leaf=0.061996,cover=324211
					56:[D_TITLEMD5_C<6.863] yes=113,no=114,missing=114,gain=1999.47,cover=437936
						113:leaf=0.0442227,cover=20496.1
						114:leaf=0.0762176,cover=417440
				28:[D_TITLEMD5_C<4.926] yes=57,no=58,missing=58,gain=1711.2,cover=377710
					57:[U_CITY_COEC<0.066999] yes=115,no=116,missing=116,gain=656.401,cover=22896.9
						115:leaf=0.0288839,cover=6241.04
						116:leaf=0.066915,cover=16655.8
					58:[CAT_REL<0.003999] yes=117,no=118,missing=118,gain=1711.75,cover=354813
						117:leaf=0.0762736,cover=142341
						118:leaf=0.0904476,cover=212472
			14:[CAT_REL<0.001999] yes=29,no=30,missing=30,gain=6377.07,cover=700012
				29:[D_KEYWORD_MICRO_MAX_COEC<0.129999] yes=59,no=60,missing=59,gain=2785.73,cover=315065
					59:[DOC_AGE<28] yes=119,no=120,missing=120,gain=1626.17,cover=172167
						119:leaf=0.0233774,cover=83089
						120:leaf=0.0428271,cover=89077.5
					60:[D_PUBLISHER_COEC<0.141999] yes=121,no=122,missing=122,gain=930.03,cover=142899
						121:leaf=0.0485187,cover=116845
						122:leaf=0.0694155,cover=26053.5
				30:[C_D_U_TITLEMD5_CATEGORY_MICRO_MAX_COEC<0.120999] yes=61,no=62,missing=62,gain=2479.78,cover=384947
					61:[U_CATEGORY_MAX_EC<3256.48] yes=123,no=124,missing=124,gain=1119.33,cover=154617
						123:leaf=0.0568038,cover=110135
						124:leaf=0.0380063,cover=44481.8
					62:[C_D_U_TITLEMD5_CATEGORY_MAX_C<0.042999] yes=125,no=126,missing=126,gain=2086.82,cover=230330
						125:leaf=0.0444192,cover=32826
						126:leaf=0.0716501,cover=197504
booster[10]:
0:[C_D_U_TITLEMD5_CATEGORY_MICRO_MAX_COEC<0.082999] yes=1,no=2,missing=1,gain=214486,cover=7.26023e+06
	1:[D_TITLEMD5_COEC<0.043999] yes=3,no=4,missing=4,gain=67996.9,cover=4.10855e+06
		3:[CAT_REL<0.026999] yes=7,no=8,missing=8,gain=19752.1,cover=1.01535e+06
			7:[D_KEYWORD_MACRO_MEAN_COEC<0.044999] yes=15,no=16,missing=15,gain=7193.42,cover=482715
				15:[U_CITY_COEC<0.449999] yes=31,no=32,missing=31,gain=2987.69,cover=157277
					31:[D_TITLEMD5_COEC<0.018999] yes=63,no=64,missing=64,gain=2201.77,cover=156379
						63:leaf=-0.0462497,cover=96210.3
						64:leaf=-0.021861,cover=60168.7
					32:[U_CATEGORY_MAX_EC<792.691] yes=65,no=66,missing=66,gain=383.413,cover=897.539
						65:leaf=0.162709,cover=842.572
						66:leaf=-0.108321,cover=54.9675
				16:[U_CATEGORY_MAX_EC<1129.91] yes=33,no=34,missing=34,gain=5373.9,cover=325438
					33:[U_CITY_COEC<0.039999] yes=67,no=68,missing=68,gain=4152.27,cover=181422
						67:leaf=-0.049897,cover=14374.5
						68:leaf=0.00611189,cover=167047
					34:[U_CITY_COEC<0.056999] yes=69,no=70,missing=70,gain=1174.53,cover=144016
						69:leaf=-0.0422139,cover=28919.7
						70:leaf=-0.0196708,cover=115097
			8:[C_D_U_CATEGORY_CATEGORY_MICRO_MAX_COEC<0.079999] yes=17,no=18,missing=17,gain=7178.02,cover=532632
				17:[U_CITY_COEC<0.044999] yes=35,no=36,missing=36,gain=4620.75,cover=337298
					35:[U_CITY_EC<142.505] yes=71,no=72,missing=72,gain=1044.12,cover=42463.6
						71:leaf=-0.00424374,cover=11478.4
						72:leaf=-0.0395514,cover=30985.2
					36:[U_CITY_COEC<0.108999] yes=73,no=74,missing=73,gain=3359.67,cover=294835
						73:leaf=0.00225064,cover=272929
						74:leaf=0.0429532,cover=21906.2
				18:[U_CITY_COEC<0.066999] yes=37,no=38,missing=38,gain=2169.03,cover=195334
					37:[D_PUBLISHER_COEC<0.030999] yes=75,no=76,missing=75,gain=983.85,cover=58434.8
						75:leaf=-0.018205,cover=10964.4
						76:leaf=0.0150289,cover=47470.5
					38:[U_CATEGORY_MACRO_MAX_COEC<0.012999] yes=77,no=78,missing=78,gain=1614.57,cover=136899
						77:leaf=0.0360386,cover=118851
						78:leaf=0.00393778,cover=18048
		4:[U_CATEGORY_MACRO_MAX_COEC<0.008999] yes=9,no=10,missing=10,gain=29924,cover=3.0932e+06
			9:[U_CITY_COEC<0.049999] yes=19,no=20,missing=20,gain=17405.5,cover=1.81821e+06
				19:[D_TITLEMD5_C<12.31] yes=39,no=40,missing=39,gain=3365.24,cover=186001
					39:[CAT_REL<0.019999] yes=79,no=80,missing=80,gain=2380.94,cover=65631.9
						79:leaf=-0.035732,cover=26721.3
						80:leaf=0.00303514,cover=38910.5
					40:[CAT_REL<0.014999] yes=81,no=82,missing=82,gain=1615.49,cover=120369
						81:leaf=0.00568593,cover=70682
						82:leaf=0.0292165,cover=49686.9
				20:[C_D_U_CATEGORY_CATEGORY_MICRO_MEAN_COEC<0.058999] yes=41,no=42,missing=41,gain=12551.9,cover=1.63221e+06
					41:[D_PUBLISHER_COEC<0.070999] yes=83,no=84,missing=83,gain=4824.29,cover=542795
						83:leaf=0.0167012,cover=295371
						84:leaf=0.0356304,cover=247424
					42:[U_CITY_COEC<0.096999] yes=85,no=86,missing=85,gain=7304.28,cover=1.08941e+06
						85:leaf=0.0407651,cover=946776
						86:leaf=0.0650395,cover=142638
			10:[D_KEYWORD_MACRO_MEAN_COEC<0.070999] yes=21,no=22,missing=22,gain=15130.9,cover=1.27499e+06
				21:[C_D_U_CATEGORY_CATEGORY_MICRO_MEAN_COEC<0.071999] yes=43,no=44,missing=43,gain=10145.2,cover=662380
					43:[DOC_AGE<73] yes=87,no=88,missing=88,gain=3369.11,cover=467155
						87:leaf=-0.00875109,cover=356094
						88:leaf=0.0111981,cover=111060
					44:[CAT_REL<0.020999] yes=89,no=90,missing=90,gain=2110.25,cover=195225
						89:leaf=0.00955566,cover=72140.2
						90:leaf=0.0310957,cover=123085
				22:[DOC_AGE<73] yes=45,no=46,missing=46,gain=5445.97,cover=612611
					45:[D_PUBLISHER_COEC<0.139999] yes=91,no=92,missing=92,gain=5642.12,cover=456764
						91:leaf=0.0170011,cover=420014
						92:leaf=0.0578616,cover=36749.8
					46:[U_CITY_COEC<0.044999] yes=93,no=94,missing=93,gain=2015.87,cover=155847
						93:leaf=0.0250568,cover=48658.7
						94:leaf=0.0496006,cover=107188
	2:[D_KEYWORD_MACRO_MEAN_COEC<0.068999] yes=5,no=6,missing=5,gain=27783.5,cover=3.15168e+06
		5:[C_D_U_TITLEMD5_CATEGORY_MAX_C<0.024999] yes=11,no=12,missing=12,gain=10835.1,cover=1.0246e+06
			11:[U_CITY_COEC<0.066999] yes=23,no=24,missing=24,gain=8907.3,cover=427291
				23:[U_CITY_COEC<0.035999] yes=47,no=48,missing=48,gain=3009.68,cover=117074
					47:[U_CITY_EC<38.362] yes=95,no=96,missing=96,gain=1141.92,cover=18079.6
						95:leaf=0.0138991,cover=4008.57
						96:leaf=-0.0465974,cover=14071
					48:[U_CATEGORY_MAX_EC<1215.51] yes=97,no=98,missing=98,gain=1570.71,cover=98994.6
						97:leaf=0.017188,cover=80671.2
						98:leaf=-0.0152447,cover=18323.4
				24:[U_CITY_COEC<0.108999] yes=49,no=50,missing=49,gain=4291.14,cover=310216
					49:[U_CATEGORY_MAX_EC<699.899] yes=99,no=100,missing=100,gain=3339.86,cover=269208
						99:leaf=0.0412017,cover=161625
						100:leaf=0.0184618,cover=107583
					50:[U_CITY_COEC<0.168999] yes=101,no=102,missing=102,gain=695.493,cover=41008.5
						101:leaf=0.0577536,cover=27592
						102:leaf=0.0855186,cover=13416.5
			12:[U_CATEGORY_MAX_EC<1022.89] yes=25,no=26,missing=26,gain=6185.69,cover=597307
				25:[CAT_REL<0.022999] yes=51,no=52,missing=52,gain=1907.56,cover=255352
					51:[U_CATEGORY_MICRO_MAX_COEC<0.075999] yes=103,no=104,missing=104,gain=1082.08,cover=117299
						103:leaf=0.0415627,cover=59131.5
						104:leaf=0.0607748,cover=58167.8
					52:[U_CITY_COEC<0.047999] yes=105,no=106,missing=106,gain=479.015,cover=138052
						105:leaf=0.0468228,cover=9553.95
						106:leaf=0.070042,cover=128498
				26:[CAT_REL<0.027999] yes=53,no=54,missing=54,gain=5446.32,cover=341956
					53:[D_TITLEMD5_COEC<0.053999] yes=107,no=108,missing=108,gain=1535.91,cover=119661
						107:leaf=-0.0198233,cover=7931.73
						108:leaf=0.0257147,cover=111729
					54:[U_CATEGORY_MACRO_MAX_COEC<0.018999] yes=109,no=110,missing=110,gain=1781.16,cover=222295
						109:leaf=0.0519599,cover=202442
						110:leaf=0.020571,cover=19852.7
		6:[C_D_U_TITLEMD5_CATEGORY_MICRO_MAX_COEC<0.144999] yes=13,no=14,missing=14,gain=17673.7,cover=2.12709e+06
			13:[U_CATEGORY_MACRO_MAX_COEC<0.010999] yes=27,no=28,missing=28,gain=9173.47,cover=1.12284e+06
				27:[CAT_REL<0.003999] yes=55,no=56,missing=56,gain=4777.98,cover=878961
					55:[U_CITY_COEC<0.076999] yes=111,no=112,missing=111,gain=1847.21,cover=373210
						111:leaf=0.0433429,cover=273342
						112:leaf=0.0592355,cover=99868
					56:[U_CITY_COEC<0.076999] yes=113,no=114,missing=113,gain=1454.97,cover=505751
						113:leaf=0.0592017,cover=366246
						114:leaf=0.0712042,cover=139504
				28:[U_CATEGORY_MACRO_MAX_COEC<0.016999] yes=57,no=58,missing=58,gain=1857.47,cover=243877
					57:[CAT_REL<0.004999] yes=115,no=116,missing=116,gain=1050.62,cover=172099
						115:leaf=0.0316584,cover=81532.2
						116:leaf=0.0473077,cover=90566.8
					58:[DOC_AGE<55] yes=117,no=118,missing=118,gain=932.668,cover=71777.7
						117:leaf=0.0128378,cover=48466.2
						118:leaf=0.0371798,cover=23311.5
			14:[C_D_U_CATEGORY_CATEGORY_MICRO_MAX_COEC<0.088999] yes=29,no=30,missing=30,gain=5173.88,cover=1.00425e+06
				29:[U_CATEGORY_MACRO_MAX_COEC<0.011999] yes=59,no=60,missing=60,gain=2749.16,cover=411376
					59:[C_D_U_TITLEMD5_CATEGORY_MAX_C<0.028999] yes=119,no=120,missing=120,gain=2779.64,cover=351008
						119:leaf=0.0499594,cover=96137.1
						120:leaf=0.0699156,cover=254870
					60:[D_TITLEMD5_COEC<0.186999] yes=121,no=122,missing=122,gain=669.707,cover=60368.9
						121:leaf=0.0366957,cover=50524.5
						122:leaf=0.0652084,cover=9844.42
				30:[U_CATEGORY_MACRO_MAX_COEC<0.013999] yes=61,no=62,missing=62,gain=2684.24,cover=592872
					61:[C_D_U_TITLEMD5_CATEGORY_MAX_C<0.031999] yes=123,no=124,missing=124,gain=1719.89,cover=521147
						123:leaf=0.0652958,cover=86759
						124:leaf=0.0807202,cover=434388
					62:[C_D_U_TITLEMD5_CATEGORY_MICRO_MAX_COEC<0.207999] yes=125,no=126,missing=126,gain=638.444,cover=71725.9
						125:leaf=0.0498053,cover=43010.8
						126:leaf=0.0690656,cover=28715.1
booster[11]:
0:[C_D_U_TITLEMD5_CATEGORY_MICRO_MAX_COEC<0.088999] yes=1,no=2,missing=1,gain=185501,cover=7.16935e+06
	1:[D_KEYWORD_MACRO_MEAN_COEC<0.049999] yes=3,no=4,missing=3,gain=63045.7,cover=4.28685e+06
		3:[CAT_REL<0.030999] yes=7,no=8,missing=8,gain=11577.4,cover=658637
			7:[D_TITLEMD5_C<6.654] yes=15,no=16,missing=15,gain=4971.23,cover=336744
				15:[U_CITY_COEC<0.054999] yes=31,no=32,missing=32,gain=4316.46,cover=242553
					31:[U_CATEGORY_MICRO_MAX_COEC<0.076999] yes=63,no=64,missing=64,gain=702.147,cover=45686.5
						63:leaf=-0.0663389,cover=33248.8
						64:leaf=-0.0384814,cover=12437.7
					32:[U_CATEGORY_MACRO_MAX_COEC<0.003999] yes=65,no=66,missing=66,gain=4221.45,cover=196866
						65:leaf=0.0363684,cover=10724
						66:leaf=-0.0281525,cover=186142
				16:[U_CATEGORY_MAX_EC<602.226] yes=33,no=34,missing=34,gain=1450.15,cover=94191.6
					33:[CAT_REL<0.009999] yes=67,no=68,missing=68,gain=556.884,cover=28080.1
						67:leaf=0.00373639,cover=17074.4
						68:leaf=0.0325828,cover=11005.7
					34:[D_TITLEMD5_C<16.126] yes=69,no=70,missing=70,gain=654.867,cover=66111.5
						69:leaf=-0.0243425,cover=26258.9
						70:leaf=-0.0040027,cover=39852.7
			8:[D_KEYWORD_MACRO_MEAN_COEC<0.034999] yes=17,no=18,missing=17,gain=4285.15,cover=321893
				17:[U_CATEGORY_MICRO_MAX_COEC<0.046999] yes=35,no=36,missing=36,gain=1237.92,cover=53499.5
					35:[C_D_U_TITLEMD5_CITY_EC<0.994999] yes=71,no=72,missing=71,gain=205.103,cover=1284.9
						71:leaf=-0.12474,cover=1265.46
						72:leaf=0.195691,cover=19.4399
					36:[U_CATEGORY_MAX_C<39.581] yes=73,no=74,missing=73,gain=1329.98,cover=52214.6
						73:leaf=0.00235719,cover=17189.2
						74:leaf=-0.031605,cover=35025.4
				18:[WORD_COUNT<2507] yes=37,no=38,missing=38,gain=3249.6,cover=268393
					37:[U_CITY_COEC<0.069999] yes=75,no=76,missing=76,gain=2030.3,cover=148249
						75:leaf=-0.0156377,cover=61423.5
						76:leaf=0.00811884,cover=86825.2
					38:[U_CITY_COEC<0.086999] yes=77,no=78,missing=77,gain=1372.28,cover=120145
						77:leaf=0.0160834,cover=103267
						78:leaf=0.0468392,cover=16878
		4:[U_CITY_COEC<0.076999] yes=9,no=10,missing=9,gain=28789.9,cover=3.62821e+06
			9:[D_PUBLISHER_COEC<0.064999] yes=19,no=20,missing=19,gain=22310.1,cover=2.72451e+06
				19:[CAT_REL<0.009999] yes=39,no=40,missing=40,gain=15860.9,cover=1.06231e+06
					39:[D_TITLEMD5_C<5.662] yes=79,no=80,missing=79,gain=5509.51,cover=437361
						79:leaf=-0.0261937,cover=120143
						80:leaf=-0.00104898,cover=317219
					40:[D_TITLEMD5_C<1.784] yes=81,no=82,missing=82,gain=5562.95,cover=624953
						81:leaf=0.00142425,cover=169785
						82:leaf=0.0226343,cover=455168
				20:[CAT_REL<0.001999] yes=41,no=42,missing=42,gain=13217.9,cover=1.6622e+06
					41:[D_TITLEMD5_C<127.197] yes=83,no=84,missing=84,gain=6362.24,cover=842841
						83:leaf=0.00738532,cover=405360
						84:leaf=0.0247745,cover=437481
					42:[D_TITLEMD5_COEC<0.094999] yes=85,no=86,missing=86,gain=5383.73,cover=819356
						85:leaf=0.0284749,cover=543626
						86:leaf=0.0456299,cover=275730
			10:[U_CATEGORY_MAX_EC<1583.06] yes=21,no=22,missing=22,gain=10517.3,cover=903702
				21:[U_CITY_COEC<0.145999] yes=43,no=44,missing=44,gain=5280.42,cover=549001
					43:[D_TITLEMD5_COEC<0.082999] yes=87,no=88,missing=88,gain=3475.61,cover=470676
						87:leaf=0.0364557,cover=290054
						88:leaf=0.0541268,cover=180622
					44:[U_CITY_C<7.589] yes=89,no=90,missing=90,gain=1169.15,cover=78325.1
						89:leaf=0.0514014,cover=21482.9
						90:leaf=0.0787912,cover=56842.2
				22:[D_TITLEMD5_COEC<0.075999] yes=45,no=46,missing=46,gain=3872.6,cover=354701
					45:[U_CATEGORY_MAX_EC<3505.7] yes=91,no=92,missing=92,gain=1778.87,cover=137017
						91:leaf=0.0217101,cover=79199.6
						92:leaf=-0.00136094,cover=57817.4
					46:[DOC_AGE<50] yes=93,no=94,missing=94,gain=2160.43,cover=217684
						93:leaf=0.0257118,cover=135970
						94:leaf=0.046286,cover=81713.7
	2:[D_KEYWORD_MACRO_MEAN_COEC<0.066999] yes=5,no=6,missing=5,gain=24531.6,cover=2.8825e+06
		5:[C_D_U_TITLEMD5_CATEGORY_MAX_C<0.030999] yes=11,no=12,missing=12,gain=9706.21,cover=771146
			11:[U_CITY_COEC<0.055999] yes=23,no=24,missing=24,gain=7608.14,cover=383198
				23:[U_CITY_COEC<0.031999] yes=47,no=48,missing=48,gain=926.033,cover=48614.6
					47:[U_CITY_EC<160.37] yes=95,no=96,missing=96,gain=853.7,cover=13084.9
						95:leaf=-0.00949645,cover=6420.89
						96:leaf=-0.0605906,cover=6664.04
					48:[C_D_U_TITLEMD5_CATEGORY_MACRO_MAX_COEC<0.020999] yes=97,no=98,missing=98,gain=661.623,cover=35529.7
						97:leaf=0.00382035,cover=26064.2
						98:leaf=-0.0270463,cover=9465.43
				24:[U_CATEGORY_MAX_EC<718.005] yes=49,no=50,missing=50,gain=4135.83,cover=334584
					49:[U_CITY_COEC<0.093999] yes=99,no=100,missing=99,gain=1999.95,cover=200369
						99:leaf=0.0342523,cover=167773
						100:leaf=0.0613226,cover=32595.8
					50:[D_KEYWORD_MACRO_MEAN_COEC<0.051999] yes=101,no=102,missing=101,gain=1762.49,cover=134215
						101:leaf=-0.00846229,cover=24197.4
						102:leaf=0.0213465,cover=110018
			12:[U_CATEGORY_MACRO_MAX_COEC<0.015999] yes=25,no=26,missing=26,gain=3508.1,cover=387947
				25:[CAT_REL<0.027999] yes=51,no=52,missing=52,gain=2723.76,cover=350008
					51:[U_CATEGORY_MAX_EC<630.746] yes=103,no=104,missing=104,gain=1781.96,cover=134784
						103:leaf=0.0562792,cover=40089.7
						104:leaf=0.0311254,cover=94694.2
					52:[U_CATEGORY_MAX_EC<980.388] yes=105,no=106,missing=106,gain=1106.84,cover=215224
						105:leaf=0.0662673,cover=77813.3
						106:leaf=0.051339,cover=137411
				26:[C_D_U_TITLEMD5_CATEGORY_MAX_C<0.144999] yes=53,no=54,missing=54,gain=1184.41,cover=37939.3
					53:[DOC_AGE<50] yes=107,no=108,missing=108,gain=509.633,cover=14222.9
						107:leaf=-0.0183612,cover=9528.32
						108:leaf=0.0218899,cover=4694.63
					54:[CAT_REL<0.058999] yes=109,no=110,missing=110,gain=506.908,cover=23716.4
						109:leaf=0.00790685,cover=6611.67
						110:leaf=0.0405123,cover=17104.7
		6:[C_D_U_TITLEMD5_CATEGORY_MICRO_MAX_COEC<0.151999] yes=13,no=14,missing=14,gain=13861.5,cover=2.11135e+06
			13:[C_D_U_TITLEMD5_CATEGORY_MACRO_MAX_COEC<0.015999] yes=27,no=28,missing=28,gain=8054.85,cover=1.17383e+06
				27:[CAT_REL<0.011999] yes=55,no=56,missing=56,gain=3835.9,cover=809985
					55:[D_TITLEMD5_C<115.699] yes=111,no=112,missing=112,gain=2562.4,cover=423715
						111:leaf=0.0348033,cover=108555
						112:leaf=0.0526184,cover=315160
					56:[U_CITY_COEC<0.104999] yes=113,no=114,missing=113,gain=1251.43,cover=386270
						113:leaf=0.059901,cover=346385
						114:leaf=0.078609,cover=39884.7
				28:[C_D_U_TITLEMD5_CATEGORY_MACRO_MAX_COEC<0.030999] yes=57,no=58,missing=58,gain=2076.35,cover=363845
					57:[CAT_REL<0.045999] yes=115,no=116,missing=116,gain=1626.53,cover=299989
						115:leaf=0.0350857,cover=202413
						116:leaf=0.0508043,cover=97576.7
					58:[D_PUBLISHER_EC<8998.11] yes=117,no=118,missing=118,gain=757.494,cover=63855.5
						117:leaf=0.0333693,cover=26263.9
						118:leaf=0.0112348,cover=37591.6
			14:[D_TITLEMD5_C<34.29] yes=29,no=30,missing=30,gain=6114.43,cover=937524
				29:[CAT_REL<0.010999] yes=59,no=60,missing=60,gain=3318.06,cover=185646
					59:[U_CITY_COEC<0.059999] yes=119,no=120,missing=120,gain=630.003,cover=48303.9
						119:leaf=0.000664429,cover=7852.86
						120:leaf=0.0316161,cover=40451.1
					60:[U_CITY_COEC<0.073999] yes=121,no=122,missing=121,gain=1044.29,cover=137342
						121:leaf=0.0506229,cover=88944.4
						122:leaf=0.0688789,cover=48397.7
				30:[CAT_REL<0.001999] yes=61,no=62,missing=62,gain=4616.21,cover=751878
					61:[D_PUBLISHER_COEC<0.094999] yes=123,no=124,missing=124,gain=1617.51,cover=261928
						123:leaf=0.0467012,cover=78850.5
						124:leaf=0.0638344,cover=183078
					62:[C_D_U_TITLEMD5_CATEGORY_MICRO_MAX_COEC<0.234999] yes=125,no=126,missing=126,gain=2117.1,cover=489950
						125:leaf=0.0712846,cover=365388
						126:leaf=0.086383,cover=124562
booster[12]:
0:[D_TITLEMD5_COEC<0.073999] yes=1,no=2,missing=1,gain=157461,cover=7.07063e+06
	1:[C_D_U_CATEGORY_CATEGORY_MICRO_MEAN_COEC<0.060999] yes=3,no=4,missing=3,gain=44710.9,cover=2.80515e+06
		3:[C_D_U_TITLEMD5_CATEGORY_MICRO_MAX_COEC<0.022999] yes=7,no=8,missing=7,gain=11780.7,cover=1.05769e+06
			7:[D_PUBLISHER_COEC<0.034999] yes=15,no=16,missing=16,gain=6469.35,cover=681843
				15:[C_D_U_CATEGORY_CATEGORY_MICRO_MEAN_COEC<0.037999] yes=31,no=32,missing=32,gain=2834.02,cover=136508
					31:[U_CATEGORY_MACRO_MAX_COEC<0.003999] yes=63,no=64,missing=64,gain=335.864,cover=27258.5
						63:leaf=-0.00862156,cover=1110.81
						64:leaf=-0.0647731,cover=26147.7
					32:[U_CITY_COEC<0.031999] yes=65,no=66,missing=66,gain=1173.15,cover=109250
						65:leaf=-0.0620731,cover=8519.35
						66:leaf=-0.0234281,cover=100730
				16:[U_CATEGORY_MAX_C<51.451] yes=33,no=34,missing=34,gain=5430.96,cover=545335
					33:[U_CITY_COEC<0.068999] yes=67,no=68,missing=68,gain=2872.17,cover=170517
						67:leaf=-0.0106385,cover=66977.3
						68:leaf=0.0159363,cover=103540
					34:[DOC_AGE<64] yes=69,no=70,missing=70,gain=2555.24,cover=374818
						69:leaf=-0.0205063,cover=289634
						70:leaf=-0.000803718,cover=85183.8
			8:[U_CATEGORY_MACRO_MAX_COEC<0.005999] yes=17,no=18,missing=18,gain=4196.04,cover=375847
				17:[C_D_U_TITLEMD5_CATEGORY_MAX_EC<0.105999] yes=35,no=36,missing=36,gain=1530.15,cover=131861
					35:[U_CITY_COEC<0.060999] yes=71,no=72,missing=72,gain=949.713,cover=37921.1
						71:leaf=-0.0276966,cover=7091.74
						72:leaf=0.0128871,cover=30829.4
					36:[U_CATEGORY_MAX_C<112.051] yes=73,no=74,missing=74,gain=723.857,cover=93940.2
						73:leaf=0.0337982,cover=72995.5
						74:leaf=0.0127079,cover=20944.8
				18:[U_CATEGORY_MAX_C<188.688] yes=37,no=38,missing=38,gain=1831.67,cover=243985
					37:[U_CITY_COEC<0.044999] yes=75,no=76,missing=76,gain=1684.52,cover=182974
						75:leaf=-0.0260354,cover=15854.8
						76:leaf=0.0080703,cover=167119
					38:[C_D_U_TITLEMD5_CATEGORY_MAX_C<0.131999] yes=77,no=78,missing=78,gain=750.385,cover=61011.1
						77:leaf=-0.0251022,cover=33024.4
						78:leaf=-0.00284589,cover=27986.7
		4:[D_TITLEMD5_COEC<0.039999] yes=9,no=10,missing=10,gain=17697.1,cover=1.74746e+06
			9:[CAT_REL<0.037999] yes=19,no=20,missing=20,gain=6959.07,cover=556604
				19:[U_CATEGORY_MAX_EC<554.899] yes=39,no=40,missing=40,gain=4013.35,cover=260818
					39:[U_CITY_COEC<0.277999] yes=79,no=80,missing=79,gain=2359.7,cover=115813
						79:leaf=0.00522038,cover=114105
						80:leaf=0.123624,cover=1707.37
					40:[D_PUBLISHER_COEC<0.063999] yes=81,no=82,missing=81,gain=1678.19,cover=145006
						81:leaf=-0.0250138,cover=101745
						82:leaf=-0.0015007,cover=43260.3
				20:[U_CITY_COEC<0.077999] yes=41,no=42,missing=41,gain=3139.26,cover=295785
					41:[DOC_AGE<2] yes=83,no=84,missing=84,gain=2331.05,cover=227647
						83:leaf=0.0366065,cover=28499.8
						84:leaf=0.00602961,cover=199147
					42:[U_CITY_COEC<0.174999] yes=85,no=86,missing=86,gain=931.661,cover=68138.2
						85:leaf=0.0307219,cover=62234.2
						86:leaf=0.0722873,cover=5903.95
			10:[CAT_REL<0.015999] yes=21,no=22,missing=22,gain=9723.52,cover=1.19086e+06
				21:[U_CITY_COEC<0.057999] yes=43,no=44,missing=44,gain=4812.96,cover=468113
					43:[D_TITLEMD5_EC<729.632] yes=87,no=88,missing=87,gain=1047.24,cover=70235.4
						87:leaf=-0.0186145,cover=42558.8
						88:leaf=0.00637429,cover=27676.6
					44:[U_CATEGORY_MAX_EC<589.312] yes=89,no=90,missing=90,gain=3737.73,cover=397878
						89:leaf=0.0313772,cover=161093
						90:leaf=0.0116318,cover=236785
				22:[U_CITY_COEC<0.061999] yes=45,no=46,missing=46,gain=5082.21,cover=722746
					45:[U_CITY_COEC<0.031999] yes=91,no=92,missing=92,gain=1141.95,cover=134281
						91:leaf=-0.00212428,cover=26873.8
						92:leaf=0.0209245,cover=107407
					46:[U_CATEGORY_MAX_EC<714.977] yes=93,no=94,missing=94,gain=3797.19,cover=588465
						93:leaf=0.0477522,cover=234189
						94:leaf=0.0313408,cover=354276
	2:[C_D_U_CATEGORY_CATEGORY_MICRO_MEAN_COEC<0.063999] yes=5,no=6,missing=5,gain=62022.2,cover=4.26548e+06
		5:[U_CATEGORY_MACRO_MAX_COEC<0.007999] yes=11,no=12,missing=12,gain=9907.77,cover=1.47821e+06
			11:[D_TITLEMD5_C<4.785] yes=23,no=24,missing=24,gain=5786.89,cover=631025
				23:[U_CITY_COEC<0.052999] yes=47,no=48,missing=48,gain=1548.2,cover=58339.3
					47:[D_TITLEMD5_COEC<0.083999] yes=95,no=96,missing=96,gain=381.582,cover=8799.17
						95:leaf=-0.0859981,cover=1270.84
						96:leaf=-0.0267682,cover=7528.33
					48:[CAT_REL<0.026999] yes=97,no=98,missing=98,gain=1199.39,cover=49540.1
						97:leaf=-0.00719594,cover=22038.5
						98:leaf=0.0241139,cover=27501.7
				24:[CAT_REL<0.013999] yes=49,no=50,missing=50,gain=3986.76,cover=572686
					49:[U_CITY_COEC<0.050999] yes=99,no=100,missing=100,gain=2535.17,cover=330937
						99:leaf=0.00380815,cover=35024.4
						100:leaf=0.03226,cover=295913
					50:[D_TITLEMD5_COEC<0.140999] yes=101,no=102,missing=102,gain=1648.36,cover=241749
						101:leaf=0.0432457,cover=215267
						102:leaf=0.069686,cover=26481.9
			12:[D_PUBLISHER_COEC<0.103999] yes=25,no=26,missing=26,gain=8314.88,cover=847187
				25:[DOC_AGE<36] yes=51,no=52,missing=52,gain=4764.69,cover=604296
					51:[CAT_REL<0.036999] yes=103,no=104,missing=104,gain=2355.07,cover=326861
						103:leaf=-0.00186245,cover=263245
						104:leaf=0.0195772,cover=63616.2
					52:[D_TITLEMD5_C<1.73] yes=105,no=106,missing=106,gain=1797.81,cover=277434
						105:leaf=-0.0383519,cover=5158.07
						106:leaf=0.0212372,cover=272276
				26:[D_PUBLISHER_EC<24621.5] yes=53,no=54,missing=53,gain=3056.7,cover=242891
					53:[D_KEYWORD_MEAN_C<190.672] yes=107,no=108,missing=108,gain=1923.94,cover=196436
						107:leaf=0.0300718,cover=121391
						108:leaf=0.0504406,cover=75045.5
					54:[D_TITLEMD5_C<410.947] yes=109,no=110,missing=110,gain=943.654,cover=46454.7
						109:leaf=-0.00877166,cover=17777.9
						110:leaf=0.0205513,cover=28676.8
		6:[C_D_U_TITLEMD5_CATEGORY_MICRO_MAX_COEC<0.126999] yes=13,no=14,missing=13,gain=21270.8,cover=2.78727e+06
			13:[U_CATEGORY_MACRO_MAX_COEC<0.010999] yes=27,no=28,missing=28,gain=10058.3,cover=1.48525e+06
				27:[U_CITY_COEC<0.062999] yes=55,no=56,missing=56,gain=6164.42,cover=1.19223e+06
					55:[D_TITLEMD5_C<3.911] yes=111,no=112,missing=112,gain=2034.81,cover=227839
						111:leaf=-0.00164714,cover=18349.9
						112:leaf=0.0330807,cover=209489
					56:[U_CITY_COEC<0.121999] yes=113,no=114,missing=113,gain=4222.1,cover=964392
						113:leaf=0.0465834,cover=884446
						114:leaf=0.070581,cover=79946.1
				28:[U_CATEGORY_MACRO_MAX_COEC<0.017999] yes=57,no=58,missing=58,gain=2037.62,cover=293019
					57:[U_CITY_COEC<0.062999] yes=115,no=116,missing=116,gain=1347.19,cover=222183
						115:leaf=0.0133429,cover=43580.5
						116:leaf=0.0329535,cover=178602
					58:[D_TITLEMD5_EC<6670.32] yes=117,no=118,missing=118,gain=733.288,cover=70836.4
						117:leaf=0.00566349,cover=61493.3
						118:leaf=0.0357304,cover=9343.08
			14:[U_CATEGORY_MACRO_MAX_COEC<0.014999] yes=29,no=30,missing=30,gain=5653.01,cover=1.30202e+06
				29:[C_D_U_TITLEMD5_CATEGORY_MAX_C<0.026999] yes=59,no=60,missing=60,gain=5971.64,cover=1.18489e+06
					59:[U_CITY_COEC<0.052999] yes=119,no=120,missing=120,gain=2473.87,cover=236152
						119:leaf=0.0150427,cover=22804.2
						120:leaf=0.0496958,cover=213347
					60:[C_D_U_TITLEMD5_CATEGORY_MICRO_MAX_COEC<0.198999] yes=121,no=122,missing=122,gain=4585.04,cover=948733
						121:leaf=0.0593485,cover=644827
						122:leaf=0.0742479,cover=303906
				30:[C_D_U_TITLEMD5_CATEGORY_MAX_C<0.078999] yes=61,no=62,missing=62,gain=1073.27,cover=117131
					61:[U_CATEGORY_MICRO_MAX_COEC<0.086999] yes=123,no=124,missing=124,gain=284.963,cover=12146.8
						123:leaf=0.00219331,cover=9942.3
						124:leaf=0.0419263,cover=2204.48
					62:[D_PUBLISHER_C<2475.93] yes=125,no=126,missing=126,gain=990.741,cover=104984
						125:leaf=0.0468427,cover=75737
						126:leaf=0.0251719,cover=29247.4
booster[13]:
0:[C_D_U_TITLEMD5_CATEGORY_MICRO_MAX_COEC<0.038999] yes=1,no=2,missing=1,gain=135416,cover=6.98285e+06
	1:[D_PUBLISHER_COEC<0.064999] yes=3,no=4,missing=3,gain=34375.7,cover=2.69708e+06
		3:[CAT_REL<0.019999] yes=7,no=8,missing=8,gain=15814.1,cover=1.38415e+06
			7:[D_TITLEMD5_C<4.701] yes=15,no=16,missing=15,gain=8005.87,cover=662300
				15:[U_CITY_COEC<0.080999] yes=31,no=32,missing=31,gain=3732.76,cover=317595
					31:[C_D_U_CATEGORY_CATEGORY_MICRO_MEAN_COEC<0.058999] yes=63,no=64,missing=64,gain=2554.46,cover=263638
						63:leaf=-0.0433556,cover=95252.9
						64:leaf=-0.0228644,cover=168385
					32:[U_CITY_COEC<0.449999] yes=65,no=66,missing=66,gain=2375.55,cover=53957
						65:leaf=-0.00466756,cover=52680
						66:leaf=0.133315,cover=1276.98
				16:[U_CATEGORY_MAX_EC<473.616] yes=33,no=34,missing=34,gain=2978.02,cover=344705
					33:[D_TITLEMD5_COEC<0.083999] yes=67,no=68,missing=68,gain=840.554,cover=69836.5
						67:leaf=0.00957813,cover=55788
						68:leaf=0.0369454,cover=14048.5
					34:[DOC_AGE<70] yes=69,no=70,missing=70,gain=1589.27,cover=274869
						69:leaf=-0.0121332,cover=213141
						70:leaf=0.0060883,cover=61728.3
			8:[D_KEYWORD_MACRO_MEAN_COEC<0.048999] yes=17,no=18,missing=18,gain=8477.19,cover=721845
				17:[U_CITY_COEC<0.110999] yes=35,no=36,missing=35,gain=2964.18,cover=240061
					35:[U_CITY_COEC<0.025999] yes=71,no=72,missing=72,gain=2555.56,cover=225298
						71:leaf=-0.0562284,cover=11692.4
						72:leaf=-0.00821664,cover=213605
					36:[U_CITY_C<169.81] yes=73,no=74,missing=74,gain=1316.28,cover=14763.5
						73:leaf=0.0263606,cover=13489.3
						74:leaf=0.132658,cover=1274.19
				18:[U_CITY_COEC<0.065999] yes=37,no=38,missing=38,gain=4039.64,cover=481784
					37:[DOC_AGE<2] yes=75,no=76,missing=76,gain=1859.98,cover=140386
						75:leaf=0.0319776,cover=16893.9
						76:leaf=-0.00339929,cover=123492
					38:[U_CATEGORY_MACRO_MAX_COEC<0.012999] yes=77,no=78,missing=77,gain=3334.62,cover=341398
						77:leaf=0.0242538,cover=308188
						78:leaf=-0.00909725,cover=33209.8
		4:[U_CATEGORY_MAX_EC<948.571] yes=9,no=10,missing=10,gain=10085.7,cover=1.31293e+06
			9:[D_TITLEMD5_COEC<0.091999] yes=19,no=20,missing=20,gain=4488.68,cover=495550
				19:[U_CITY_COEC<0.086999] yes=39,no=40,missing=39,gain=3068.93,cover=323004
					39:[C_D_U_CATEGORY_CATEGORY_MICRO_MEAN_COEC<0.081999] yes=79,no=80,missing=79,gain=2212.85,cover=272425
						79:leaf=0.0137368,cover=184919
						80:leaf=0.0330383,cover=87505.9
					40:[U_CITY_COEC<0.144999] yes=81,no=82,missing=82,gain=546.306,cover=50578.6
						81:leaf=0.0408951,cover=38372.7
						82:leaf=0.0651878,cover=12205.9
				20:[D_PUBLISHER_C<6.785] yes=41,no=42,missing=42,gain=2177.84,cover=172546
					41:[CAT_REL<0.078999] yes=83,no=84,missing=84,gain=461.516,cover=12400.5
						83:leaf=-0.00366379,cover=10808.9
						84:leaf=0.0539964,cover=1591.67
					42:[D_TITLEMD5_COEC<0.150999] yes=85,no=86,missing=85,gain=1767.04,cover=160146
						85:leaf=0.0415043,cover=123360
						86:leaf=0.0664776,cover=36785.7
			10:[D_TITLEMD5_COEC<0.095999] yes=21,no=22,missing=22,gain=8665.66,cover=817384
				21:[U_CITY_COEC<0.069999] yes=43,no=44,missing=43,gain=3254.22,cover=426344
					43:[U_CITY_COEC<0.050999] yes=87,no=88,missing=88,gain=1563.84,cover=256844
						87:leaf=-0.0184891,cover=57410.6
						88:leaf=0.000240686,cover=199433
					44:[D_PUBLISHER_EC<8530.71] yes=89,no=90,missing=90,gain=1260.58,cover=169500
						89:leaf=0.0243707,cover=68552.6
						90:leaf=0.00679916,cover=100948
				22:[D_KEYWORD_MEAN_EC<2036.51] yes=45,no=46,missing=45,gain=2963.07,cover=391040
					45:[U_CITY_COEC<0.048999] yes=91,no=92,missing=91,gain=1940.22,cover=247282
						91:leaf=0.0048672,cover=84820.4
						92:leaf=0.0235266,cover=162462
					46:[D_PUBLISHER_COEC<0.159999] yes=93,no=94,missing=94,gain=1490.34,cover=143758
						93:leaf=0.032058,cover=131406
						94:leaf=0.0683893,cover=12352.2
	2:[D_TITLEMD5_COEC<0.113999] yes=5,no=6,missing=6,gain=39623.4,cover=4.28577e+06
		5:[C_D_U_CATEGORY_CATEGORY_MICRO_MAX_COEC<0.087999] yes=11,no=12,missing=12,gain=22108.9,cover=3.01999e+06
			11:[U_CATEGORY_MAX_EC<2358.23] yes=23,no=24,missing=24,gain=12173.7,cover=2.07155e+06
				23:[U_CITY_COEC<0.075999] yes=47,no=48,missing=47,gain=9339.73,cover=1.60842e+06
					47:[C_D_U_TITLEMD5_CATEGORY_MAX_C<0.030999] yes=95,no=96,missing=96,gain=8088.48,cover=1.15896e+06
						95:leaf=0.0153198,cover=544132
						96:leaf=0.0320592,cover=614823
					48:[U_CITY_COEC<0.120999] yes=97,no=98,missing=98,gain=3518.31,cover=449469
						97:leaf=0.0365028,cover=351238
						98:leaf=0.057912,cover=98231.1
				24:[C_D_U_TITLEMD5_CATEGORY_MAX_C<0.240999] yes=49,no=50,missing=50,gain=2986.03,cover=463126
					49:[CAT_REL<0.037999] yes=99,no=100,missing=100,gain=2150.73,cover=249431
						99:leaf=-0.00461954,cover=147282
						100:leaf=0.0142636,cover=102149
					50:[U_CATEGORY_MAX_EC<4509.19] yes=101,no=102,missing=102,gain=1908.5,cover=213694
						101:leaf=0.0265412,cover=133560
						102:leaf=0.0070204,cover=80134.3
			12:[U_CITY_COEC<0.066999] yes=25,no=26,missing=26,gain=4774.93,cover=948442
				25:[C_D_U_TITLEMD5_CATEGORY_MAX_C<0.048999] yes=51,no=52,missing=52,gain=1630.79,cover=245208
					51:[U_CATEGORY_MAX_EC<693.648] yes=103,no=104,missing=104,gain=1134.3,cover=118572
						103:leaf=0.0301957,cover=75603.7
						104:leaf=0.00984803,cover=42968.4
					52:[U_CATEGORY_MAX_EC<994.73] yes=105,no=106,missing=106,gain=1402.03,cover=126636
						105:leaf=0.0507222,cover=57268.8
						106:leaf=0.0295804,cover=69366.9
				26:[U_CITY_COEC<0.144999] yes=53,no=54,missing=53,gain=3448.18,cover=703234
					53:[U_CATEGORY_MAX_EC<556.553] yes=107,no=108,missing=108,gain=2817.93,cover=658543
						107:leaf=0.0543157,cover=238426
						108:leaf=0.0407041,cover=420117
					54:[U_CITY_C<9.836] yes=109,no=110,missing=110,gain=408.525,cover=44691.1
						109:leaf=0.0620896,cover=16939
						110:leaf=0.0818098,cover=27752
		6:[U_CATEGORY_MAX_EC<1741.2] yes=13,no=14,missing=14,gain=9875.33,cover=1.26578e+06
			13:[CAT_REL<0.003999] yes=27,no=28,missing=28,gain=4535.57,cover=894530
				27:[D_TITLEMD5_COEC<0.156999] yes=55,no=56,missing=56,gain=2112.45,cover=352230
					55:[U_CITY_COEC<0.100999] yes=111,no=112,missing=111,gain=1278.8,cover=252115
						111:leaf=0.0411729,cover=224471
						112:leaf=0.0639685,cover=27643.1
					56:[D_PUBLISHER_COEC<0.081999] yes=113,no=114,missing=114,gain=525.454,cover=100116
						113:leaf=0.0341196,cover=6857.95
						114:leaf=0.0628078,cover=93257.7
				28:[D_TITLEMD5_C<3.854] yes=57,no=58,missing=58,gain=2328.75,cover=542300
					57:[U_CITY_COEC<0.068999] yes=115,no=116,missing=115,gain=735.219,cover=27651.7
						115:leaf=0.0184409,cover=13736.1
						116:leaf=0.0510551,cover=13915.6
					58:[D_TITLEMD5_COEC<0.150999] yes=117,no=118,missing=118,gain=2519.64,cover=514648
						117:leaf=0.0597186,cover=344028
						118:leaf=0.074583,cover=170620
			14:[CAT_REL<0.001999] yes=29,no=30,missing=30,gain=2851.21,cover=371249
				29:[DOC_AGE<32] yes=59,no=60,missing=60,gain=1063.92,cover=177467
					59:[D_PUBLISHER_COEC<0.159999] yes=119,no=120,missing=120,gain=986.152,cover=108859
						119:leaf=0.0199918,cover=100805
						120:leaf=0.0563527,cover=8054.33
					60:[D_TITLEMD5_COEC<0.150999] yes=121,no=122,missing=122,gain=380.931,cover=68607.4
						121:leaf=0.0346079,cover=53416.4
						122:leaf=0.0525574,cover=15191
				30:[D_PUBLISHER_EC<29501] yes=61,no=62,missing=61,gain=999.926,cover=193782
					61:[D_TITLEMD5_C<6.391] yes=123,no=124,missing=124,gain=879.302,cover=146075
						123:leaf=0.0283973,cover=16054.3
						124:leaf=0.0532061,cover=130020
					62:[U_CATEGORY_MAX_EC<4040.51] yes=125,no=126,missing=126,gain=504.75,cover=47707.3
						125:leaf=0.0392167,cover=37359.1
						126:leaf=0.0142574,cover=10348.2
booster[14]:
0:[C_D_U_TITLEMD5_CATEGORY_MICRO_MAX_COEC<0.089999] yes=1,no=2,missing=1,gain=116890,cover=6.90143e+06
	1:[D_KEYWORD_MACRO_MEAN_COEC<0.049999] yes=3,no=4,missing=4,gain=38178.8,cover=4.23773e+06
		3:[CAT_REL<0.037999] yes=7,no=8,missing=8,gain=7832.29,cover=652906
			7:[U_CITY_COEC<0.055999] yes=15,no=16,missing=16,gain=4077.21,cover=369109
				15:[D_TITLEMD5_C<3.94] yes=31,no=32,missing=31,gain=1041.12,cover=66918.4
					31:[U_CITY_COEC<0.016999] yes=63,no=64,missing=64,gain=778.207,cover=47018.6
						63:leaf=-0.0799192,cover=6996.31
						64:leaf=-0.0437668,cover=40022.3
					32:[D_KEYWORD_MAX_EC<73.589] yes=65,no=66,missing=66,gain=249.671,cover=19899.9
						65:leaf=-0.0616629,cover=1459.4
						66:leaf=-0.0187054,cover=18440.5
				16:[U_CATEGORY_MACRO_MAX_COEC<0.004999] yes=33,no=34,missing=34,gain=3901.86,cover=302191
					33:[U_CITY_COEC<0.273999] yes=67,no=68,missing=67,gain=3016.47,cover=55084.3
						67:leaf=0.00600913,cover=53282.4
						68:leaf=0.137529,cover=1801.9
					34:[D_PUBLISHER_COEC<0.034999] yes=69,no=70,missing=70,gain=2485.12,cover=247106
						69:leaf=-0.0360929,cover=63931.5
						70:leaf=-0.0131934,cover=183175
			8:[WORD_COUNT<2985] yes=17,no=18,missing=18,gain=3119.82,cover=283797
				17:[D_KEYWORD_MACRO_MEAN_COEC<0.039999] yes=35,no=36,missing=36,gain=2149.47,cover=183090
					35:[U_CITY_COEC<0.068999] yes=71,no=72,missing=72,gain=944.037,cover=59912
						71:leaf=-0.0349794,cover=24553.8
						72:leaf=-0.00945545,cover=35358.2
					36:[U_CATEGORY_MAX_C<63.239] yes=73,no=74,missing=74,gain=1283.1,cover=123178
						73:leaf=0.0148773,cover=53221.2
						74:leaf=-0.00572591,cover=69956.4
				18:[D_PUBLISHER_COEC<0.021999] yes=37,no=38,missing=37,gain=1179.93,cover=100707
					37:[C_D_U_CATEGORY_CATEGORY_MICRO_MAX_COEC<0.039999] yes=75,no=76,missing=76,gain=856.066,cover=14811.8
						75:leaf=-0.0689775,cover=2022.1
						76:leaf=0.00102807,cover=12789.7
					38:[U_CATEGORY_MAX_C<91.51] yes=77,no=78,missing=78,gain=1174.88,cover=85895.6
						77:leaf=0.0307721,cover=55094.1
						78:leaf=0.00638577,cover=30801.4
		4:[U_CATEGORY_MACRO_MAX_COEC<0.007999] yes=9,no=10,missing=10,gain=22225.6,cover=3.58483e+06
			9:[U_CITY_COEC<0.064999] yes=19,no=20,missing=20,gain=12439.7,cover=1.82791e+06
				19:[U_CITY_COEC<0.031999] yes=39,no=40,missing=40,gain=4915.24,cover=450863
					39:[U_CITY_EC<94.036] yes=79,no=80,missing=80,gain=3100.97,cover=73546.3
						79:leaf=0.0113315,cover=30371.4
						80:leaf=-0.0303724,cover=43174.9
					40:[D_TITLEMD5_C<16.876] yes=81,no=82,missing=82,gain=3277.3,cover=377317
						81:leaf=0.0038037,cover=152677
						82:leaf=0.0227918,cover=224640
				20:[U_CITY_COEC<0.112999] yes=41,no=42,missing=41,gain=7253.62,cover=1.37705e+06
					41:[D_TITLEMD5_COEC<0.073999] yes=83,no=84,missing=84,gain=6679.79,cover=1.24509e+06
						83:leaf=0.0200628,cover=632296
						84:leaf=0.0347138,cover=612793
					42:[U_CITY_C<8.714] yes=85,no=86,missing=86,gain=1235.8,cover=131957
						85:leaf=0.0356126,cover=34341.2
						86:leaf=0.0576705,cover=97615.5
			10:[D_PUBLISHER_COEC<0.075999] yes=21,no=22,missing=22,gain=12236.1,cover=1.75692e+06
				21:[C_D_U_CATEGORY_CATEGORY_MICRO_MEAN_COEC<0.076999] yes=43,no=44,missing=43,gain=8217.25,cover=979724
					43:[D_TITLEMD5_COEC<0.065999] yes=87,no=88,missing=88,gain=3643.74,cover=720549
						87:leaf=-0.0119662,cover=309045
						88:leaf=0.00240214,cover=411504
					44:[CAT_REL<0.070999] yes=89,no=90,missing=90,gain=2741.89,cover=259175
						89:leaf=0.00870058,cover=156939
						90:leaf=0.0297459,cover=102236
				22:[D_PUBLISHER_EC<10462.2] yes=45,no=46,missing=45,gain=5408.68,cover=777195
					45:[U_CITY_COEC<0.050999] yes=91,no=92,missing=91,gain=3350.89,cover=397232
						91:leaf=0.0141098,cover=138063
						92:leaf=0.0333972,cover=259169
					46:[D_TITLEMD5_C<572.285] yes=93,no=94,missing=94,gain=3265,cover=379963
						93:leaf=0.00451187,cover=281211
						94:leaf=0.0256478,cover=98752
	2:[D_TITLEMD5_C<40.304] yes=5,no=6,missing=6,gain=19540.6,cover=2.66369e+06
		5:[CAT_REL<0.020999] yes=11,no=12,missing=12,gain=10616.7,cover=817237
			11:[U_CITY_COEC<0.068999] yes=23,no=24,missing=24,gain=3979.35,cover=291158
				23:[D_KEYWORD_MACRO_MEAN_COEC<0.049999] yes=47,no=48,missing=48,gain=1359.39,cover=96368.9
					47:[D_PUBLISHER_COEC<0.037999] yes=95,no=96,missing=96,gain=455.134,cover=6652.45
						95:leaf=-0.103287,cover=1236
						96:leaf=-0.0360428,cover=5416.45
					48:[U_CITY_COEC<0.043999] yes=97,no=98,missing=98,gain=997.921,cover=89716.4
						97:leaf=-0.0216691,cover=19570.8
						98:leaf=0.00386794,cover=70145.7
				24:[D_PUBLISHER_COEC<0.068999] yes=49,no=50,missing=49,gain=2023.16,cover=194789
					49:[U_CATEGORY_MICRO_MAX_COEC<0.062999] yes=99,no=100,missing=100,gain=1559.84,cover=87125.9
						99:leaf=-0.0177863,cover=17844.8
						100:leaf=0.0153681,cover=69281.1
					50:[U_CITY_COEC<0.141999] yes=101,no=102,missing=101,gain=810.522,cover=107663
						101:leaf=0.0267308,cover=100345
						102:leaf=0.0612032,cover=7317.82
			12:[D_TITLEMD5_C<3.94] yes=25,no=26,missing=26,gain=4462.3,cover=526079
				25:[U_CITY_COEC<0.096999] yes=51,no=52,missing=51,gain=1815.04,cover=110850
					51:[D_KEYWORD_MACRO_MEAN_COEC<0.059999] yes=103,no=104,missing=103,gain=1328.86,cover=96934.7
						103:leaf=0.0015441,cover=50334.6
						104:leaf=0.0249784,cover=46600
					52:[U_CITY_COEC<0.165999] yes=105,no=106,missing=106,gain=207.299,cover=13915.5
						105:leaf=0.0443418,cover=10412.2
						106:leaf=0.0724776,cover=3503.38
				26:[D_TITLEMD5_COEC<0.136999] yes=53,no=54,missing=54,gain=2722.27,cover=415229
					53:[C_D_U_CATEGORY_CATEGORY_MICRO_MEAN_COEC<0.096999] yes=107,no=108,missing=108,gain=2300.56,cover=365333
						107:leaf=0.0324939,cover=268796
						108:leaf=0.0504915,cover=96537
					54:[D_TITLEMD5_COEC<0.221999] yes=109,no=110,missing=110,gain=327.413,cover=49896.1
						109:leaf=0.058066,cover=39789.7
						110:leaf=0.0782327,cover=10106.3
		6:[C_D_U_TITLEMD5_CATEGORY_MICRO_MAX_COEC<0.169999] yes=13,no=14,missing=14,gain=14609.3,cover=1.84645e+06
			13:[CAT_REL<0.001999] yes=27,no=28,missing=28,gain=8086.75,cover=1.32841e+06
				27:[U_CATEGORY_MACRO_MAX_COEC<0.007999] yes=55,no=56,missing=56,gain=3229.15,cover=543172
					55:[D_TITLEMD5_C<252.387] yes=111,no=112,missing=112,gain=1903,cover=270576
						111:leaf=0.0297777,cover=131855
						112:leaf=0.0465564,cover=138721
					56:[DOC_AGE<59] yes=113,no=114,missing=114,gain=1998.31,cover=272596
						113:leaf=0.0176257,cover=196395
						114:leaf=0.0367044,cover=76201
				28:[U_CATEGORY_MACRO_MAX_COEC<0.010999] yes=57,no=58,missing=58,gain=3760.3,cover=785237
					57:[U_CATEGORY_MICRO_MAX_COEC<0.074999] yes=115,no=116,missing=116,gain=2009.43,cover=633464
						115:leaf=0.0458348,cover=416604
						116:leaf=0.0577053,cover=216860
					58:[U_CITY_COEC<0.061999] yes=117,no=118,missing=118,gain=960.415,cover=151773
						117:leaf=0.0145457,cover=25202.6
						118:leaf=0.035923,cover=126570
			14:[CAT_REL<0.001999] yes=29,no=30,missing=30,gain=3212.45,cover=518046
				29:[D_PUBLISHER_COEC<0.092999] yes=59,no=60,missing=60,gain=1138.43,cover=177173
					59:[U_CATEGORY_MICRO_MAX_COEC<0.076999] yes=119,no=120,missing=120,gain=782.684,cover=48842.7
						119:leaf=0.0248048,cover=27620.1
						120:leaf=0.050344,cover=21222.6
					60:[U_CATEGORY_MACRO_MAX_COEC<0.012999] yes=121,no=122,missing=122,gain=834.225,cover=128330
						121:leaf=0.0575913,cover=105526
						122:leaf=0.0364961,cover=22804.7
				30:[C_D_U_TITLEMD5_CATEGORY_MICRO_MAX_COEC<0.229999] yes=61,no=62,missing=62,gain=1245.74,cover=340873
					61:[C_D_U_TITLEMD5_CATEGORY_MACRO_MAX_COEC<0.025999] yes=123,no=124,missing=124,gain=1124.51,cover=222141
						123:leaf=0.0653328,cover=163627
						124:leaf=0.0491777,cover=58513.5
					62:[D_TITLEMD5_COEC<0.128999] yes=125,no=126,missing=126,gain=402.175,cover=118732
						125:leaf=0.065247,cover=37805.7
						126:leaf=0.0777484,cover=80925.8
booster[15]:
0:[D_TITLEMD5_COEC<0.070999] yes=1,no=2,missing=1,gain=101381,cover=6.82395e+06
	1:[C_D_U_CATEGORY_CATEGORY_MICRO_MAX_COEC<0.069999] yes=3,no=4,missing=3,gain=27016.2,cover=2.5621e+06
		3:[C_D_U_TITLEMD5_CATEGORY_MICRO_MAX_COEC<0.015999] yes=7,no=8,missing=7,gain=8809.45,cover=1.23695e+06
			7:[U_CITY_COEC<0.091999] yes=15,no=16,missing=15,gain=5342.64,cover=753202
				15:[U_CITY_COEC<0.031999] yes=31,no=32,missing=32,gain=4234.28,cover=676427
					31:[U_CITY_EC<109.031] yes=63,no=64,missing=64,gain=2573.32,cover=53002.1
						63:leaf=-0.0133802,cover=19979.1
						64:leaf=-0.0588479,cover=33023
					32:[U_CATEGORY_MACRO_MAX_COEC<0.003999] yes=65,no=66,missing=66,gain=3610.76,cover=623425
						65:leaf=0.0279894,cover=21510
						66:leaf=-0.0137067,cover=601915
				16:[U_CITY_COEC<0.150999] yes=33,no=34,missing=34,gain=1519.28,cover=76775.6
					33:[U_CATEGORY_MAX_EC<2127.16] yes=67,no=68,missing=67,gain=969.66,cover=59471.9
						67:leaf=0.0106937,cover=51509
						68:leaf=-0.0268006,cover=7962.89
					34:[U_CITY_C<169.067] yes=69,no=70,missing=70,gain=1476.14,cover=17303.7
						69:leaf=0.0306306,cover=15892.3
						70:leaf=0.137316,cover=1411.32
			8:[U_CATEGORY_MAX_EC<3032.71] yes=17,no=18,missing=18,gain=4823.76,cover=483747
				17:[U_CITY_COEC<0.050999] yes=35,no=36,missing=36,gain=3166.19,cover=403796
					35:[C_D_U_TITLEMD5_CATEGORY_MACRO_MAX_COEC<0.010999] yes=71,no=72,missing=72,gain=984.607,cover=45741
						71:leaf=-0.00724046,cover=36196.1
						72:leaf=-0.0433443,cover=9544.9
					36:[CAT_REL<0.014999] yes=73,no=74,missing=74,gain=2384.82,cover=358055
						73:leaf=0.00493704,cover=177584
						74:leaf=0.0212599,cover=180472
				18:[D_TITLEMD5_COEC<0.025999] yes=37,no=38,missing=38,gain=889.382,cover=79950.3
					37:[D_CATEGORY_MEAN_EC<34134.2] yes=75,no=76,missing=76,gain=161.223,cover=2655.61
						75:leaf=-0.051329,cover=1454.58
						76:leaf=-0.100898,cover=1201.04
					38:[C_D_U_TITLEMD5_CATEGORY_MACRO_MAX_COEC<0.024999] yes=77,no=78,missing=78,gain=609.768,cover=77294.6
						77:leaf=-0.0121284,cover=70302
						78:leaf=-0.0430906,cover=6992.61
		4:[U_CITY_COEC<0.067999] yes=9,no=10,missing=10,gain=9385.34,cover=1.32516e+06
			9:[U_CITY_COEC<0.035999] yes=19,no=20,missing=20,gain=3830.93,cover=423382
				19:[U_CITY_EC<175.423] yes=39,no=40,missing=40,gain=1727.63,cover=69814.2
					39:[CAT_REL<0.029999] yes=79,no=80,missing=80,gain=860.754,cover=30993.8
						79:leaf=-0.019626,cover=13381.4
						80:leaf=0.0140176,cover=17612.3
					40:[U_CITY_COEC<0.016999] yes=81,no=82,missing=82,gain=1716.25,cover=38820.4
						81:leaf=-0.0796249,cover=6369.51
						82:leaf=-0.0228524,cover=32450.9
				20:[C_D_U_TITLEMD5_CATEGORY_MAX_C<0.018999] yes=41,no=42,missing=41,gain=2457.49,cover=353568
					41:[DOC_AGE<2] yes=83,no=84,missing=84,gain=2124.24,cover=252848
						83:leaf=0.0290263,cover=26533.6
						84:leaf=-0.0008805,cover=226314
					42:[U_CATEGORY_MAX_EC<1208.2] yes=85,no=86,missing=86,gain=968.315,cover=100720
						85:leaf=0.0311889,cover=47109
						86:leaf=0.0115375,cover=53611.5
			10:[C_D_U_CATEGORY_CATEGORY_MICRO_MEAN_COEC<0.094999] yes=21,no=22,missing=22,gain=5394.15,cover=901773
				21:[U_CATEGORY_MACRO_MAX_COEC<0.014999] yes=43,no=44,missing=44,gain=4614.58,cover=685195
					43:[D_TITLEMD5_COEC<0.042999] yes=87,no=88,missing=88,gain=4012.1,cover=640428
						87:leaf=0.00881995,cover=236527
						88:leaf=0.02522,cover=403901
					44:[D_CATEGORY_MICRO_MAX_COEC<0.070999] yes=89,no=90,missing=90,gain=1425.16,cover=44767.5
						89:leaf=0.0072988,cover=18414.2
						90:leaf=-0.0289599,cover=26353.3
				22:[U_CITY_COEC<0.135999] yes=45,no=46,missing=45,gain=1221.38,cover=216578
					45:[D_PUBLISHER_COEC<0.034999] yes=91,no=92,missing=92,gain=1234.38,cover=200926
						91:leaf=0.0110332,cover=22689.5
						92:leaf=0.0357985,cover=178236
					46:[U_CITY_C<79.526] yes=93,no=94,missing=94,gain=295.155,cover=15651.9
						93:leaf=0.0578004,cover=14315.1
						94:leaf=0.106948,cover=1336.84
	2:[C_D_U_CATEGORY_CATEGORY_MICRO_MEAN_COEC<0.067999] yes=5,no=6,missing=5,gain=47331.9,cover=4.26184e+06
		5:[U_CATEGORY_MACRO_MAX_COEC<0.006999] yes=11,no=12,missing=12,gain=9933.52,cover=1.81402e+06
			11:[D_TITLEMD5_C<13.785] yes=23,no=24,missing=24,gain=4935.97,cover=650767
				23:[U_CITY_COEC<0.050999] yes=47,no=48,missing=48,gain=1747.17,cover=123812
					47:[CAT_REL<0.019999] yes=95,no=96,missing=96,gain=735.266,cover=15550.8
						95:leaf=-0.0446193,cover=7078.56
						96:leaf=-0.000956525,cover=8472.26
					48:[C_D_U_CATEGORY_CATEGORY_MICRO_MEAN_COEC<0.047999] yes=97,no=98,missing=97,gain=1191.87,cover=108261
						97:leaf=-0.00368445,cover=25930.3
						98:leaf=0.0209001,cover=82331.1
				24:[CAT_REL<0.006999] yes=49,no=50,missing=50,gain=4257.3,cover=526955
					49:[D_TITLEMD5_COEC<0.121999] yes=99,no=100,missing=100,gain=1660.12,cover=262619
						99:leaf=0.0195593,cover=207008
						100:leaf=0.0390203,cover=55610.8
					50:[U_CATEGORY_MAX_EC<1940.25] yes=101,no=102,missing=102,gain=1440.24,cover=264336
						101:leaf=0.0450636,cover=217932
						102:leaf=0.0256601,cover=46404
			12:[DOC_AGE<39] yes=25,no=26,missing=26,gain=7033.25,cover=1.16325e+06
				25:[D_TITLEMD5_COEC<0.143999] yes=51,no=52,missing=52,gain=4985.62,cover=642295
					51:[U_CATEGORY_MACRO_MAX_COEC<0.013999] yes=103,no=104,missing=104,gain=4565.02,cover=520906
						103:leaf=0.00979533,cover=300954
						104:leaf=-0.00915804,cover=219951
					52:[D_TITLEMD5_C<2.99] yes=105,no=106,missing=106,gain=2562.5,cover=121389
						105:leaf=-0.0171137,cover=13305.1
						106:leaf=0.0293937,cover=108084
				26:[D_PUBLISHER_COEC<0.095999] yes=53,no=54,missing=53,gain=3164.21,cover=520960
					53:[U_CITY_COEC<0.050999] yes=107,no=108,missing=108,gain=1729.62,cover=322227
						107:leaf=-0.00389209,cover=40025.8
						108:leaf=0.0183208,cover=282202
					54:[U_CITY_COEC<0.048999] yes=109,no=110,missing=109,gain=1179.19,cover=198732
						109:leaf=0.0208034,cover=66992
						110:leaf=0.037099,cover=131740
		6:[C_D_U_TITLEMD5_CATEGORY_MICRO_MAX_COEC<0.144999] yes=13,no=14,missing=13,gain=14661,cover=2.44782e+06
			13:[U_CATEGORY_MACRO_MAX_COEC<0.011999] yes=27,no=28,missing=28,gain=7856.23,cover=1.54212e+06
				27:[CAT_REL<0.017999] yes=55,no=56,missing=56,gain=5658.07,cover=1.29009e+06
					55:[U_CITY_COEC<0.052999] yes=111,no=112,missing=112,gain=3349.19,cover=682377
						111:leaf=0.0107064,cover=73498
						112:leaf=0.033305,cover=608879
					56:[D_TITLEMD5_C<4.885] yes=113,no=114,missing=114,gain=2236.84,cover=607715
						113:leaf=0.0278296,cover=73880.7
						114:leaf=0.0463954,cover=533834
				28:[D_PUBLISHER_EC<8923.86] yes=57,no=58,missing=58,gain=1358.79,cover=252026
					57:[C_D_U_TITLEMD5_CATEGORY_MAX_C<0.062999] yes=115,no=116,missing=115,gain=806.344,cover=112250
						115:leaf=0.0159705,cover=46708.4
						116:leaf=0.0331659,cover=65542
					58:[D_TITLEMD5_EC<5550.3] yes=117,no=118,missing=118,gain=1112.46,cover=139775
						117:leaf=0.00637438,cover=107761
						118:leaf=0.0276045,cover=32014.3
			14:[D_TITLEMD5_C<18.848] yes=29,no=30,missing=30,gain=4285.14,cover=905705
				29:[U_CITY_COEC<0.064999] yes=59,no=60,missing=60,gain=1658.51,cover=145565
					59:[CAT_REL<0.024999] yes=119,no=120,missing=120,gain=439.683,cover=32305.3
						119:leaf=-0.00418708,cover=9207.68
						120:leaf=0.0216556,cover=23097.7
					60:[CAT_REL<0.006999] yes=121,no=122,missing=122,gain=1101,cover=113260
						121:leaf=0.0163317,cover=16776.5
						122:leaf=0.0440889,cover=96483.2
				30:[CAT_REL<0.005999] yes=61,no=62,missing=62,gain=3839.26,cover=760140
					61:[U_CATEGORY_MACRO_MAX_COEC<0.008999] yes=123,no=124,missing=124,gain=1593.78,cover=287203
						123:leaf=0.0497704,cover=176848
						124:leaf=0.0344546,cover=110355
					62:[C_D_U_TITLEMD5_CATEGORY_MICRO_MAX_COEC<0.218999] yes=125,no=126,missing=126,gain=1825.38,cover=472937
						125:leaf=0.0544595,cover=330227
						126:leaf=0.0679953,cover=142710
booster[16]:
0:[C_D_U_TITLEMD5_CATEGORY_MICRO_MAX_COEC<0.093999] yes=1,no=2,missing=1,gain=86206.6,cover=6.749e+06
	1:[D_PUBLISHER_COEC<0.059999] yes=3,no=4,missing=4,gain=30143.1,cover=4.30972e+06
		3:[C_D_U_CATEGORY_CATEGORY_MICRO_MEAN_COEC<0.050999] yes=7,no=8,missing=7,gain=12582,cover=1.50246e+06
			7:[D_TITLEMD5_C<3.775] yes=15,no=16,missing=15,gain=4375.33,cover=412601
				15:[DOC_AGE<2] yes=31,no=32,missing=32,gain=2105.25,cover=190892
					31:[U_CATEGORY_MAX_C<60.157] yes=63,no=64,missing=63,gain=558.281,cover=33196.9
						63:leaf=0.0052743,cover=22657.6
						64:leaf=-0.0225834,cover=10539.4
					32:[U_CITY_COEC<0.057999] yes=65,no=66,missing=66,gain=1385.03,cover=157695
						65:leaf=-0.0473483,cover=40017.9
						66:leaf=-0.0258118,cover=117677
				16:[U_CATEGORY_MAX_EC<2859.77] yes=33,no=34,missing=33,gain=1174.86,cover=221709
					33:[U_CITY_COEC<0.069999] yes=67,no=68,missing=68,gain=1135.3,cover=192919
						67:leaf=-0.0124693,cover=76381.9
						68:leaf=0.00321677,cover=116538
					34:[D_TITLEMD5_COEC<0.038999] yes=69,no=70,missing=70,gain=491.872,cover=28789.3
						69:leaf=-0.048986,cover=6444.94
						70:leaf=-0.0176282,cover=22344.4
			8:[CAT_REL<0.014999] yes=17,no=18,missing=18,gain=7885.32,cover=1.08986e+06
				17:[D_TITLEMD5_C<13.794] yes=35,no=36,missing=35,gain=4111.32,cover=377901
					35:[U_CITY_COEC<0.063999] yes=71,no=72,missing=72,gain=2320.36,cover=200187
						71:leaf=-0.0341974,cover=53455.8
						72:leaf=-0.00986212,cover=146731
					36:[U_CATEGORY_MACRO_MAX_COEC<0.005999] yes=73,no=74,missing=74,gain=1843.31,cover=177714
						73:leaf=0.0187044,cover=60548.8
						74:leaf=-0.00278409,cover=117165
				18:[D_TITLEMD5_COEC<0.026999] yes=37,no=38,missing=38,gain=6062.48,cover=711955
					37:[CAT_REL<0.063999] yes=75,no=76,missing=76,gain=3088.11,cover=232331
						75:leaf=-0.0128845,cover=121985
						76:leaf=0.0102025,cover=110346
					38:[U_CATEGORY_MAX_C<131.866] yes=77,no=78,missing=78,gain=2938.18,cover=479624
						77:leaf=0.0216161,cover=386011
						78:leaf=0.00186812,cover=93612.9
		4:[U_CATEGORY_MAX_EC<1029.49] yes=9,no=10,missing=10,gain=16860.3,cover=2.80726e+06
			9:[U_CITY_COEC<0.084999] yes=19,no=20,missing=19,gain=6333.29,cover=1.13818e+06
				19:[CAT_REL<0.017999] yes=39,no=40,missing=40,gain=4914.4,cover=942255
					39:[D_TITLEMD5_C<48.806] yes=79,no=80,missing=79,gain=3393.33,cover=498981
						79:leaf=0.00842116,cover=262832
						80:leaf=0.0249379,cover=236148
					40:[D_TITLEMD5_C<8.2] yes=81,no=82,missing=81,gain=3415.32,cover=443275
						81:leaf=0.0203213,cover=184705
						82:leaf=0.0381258,cover=258570
				20:[U_CITY_COEC<0.148999] yes=41,no=42,missing=42,gain=1299.95,cover=195922
					41:[D_TITLEMD5_COEC<0.117999] yes=83,no=84,missing=84,gain=744.709,cover=154837
						83:leaf=0.0356828,cover=131449
						84:leaf=0.0550512,cover=23387.9
					42:[U_CITY_C<7.409] yes=85,no=86,missing=86,gain=612.591,cover=41085.3
						85:leaf=0.0384477,cover=11023.1
						86:leaf=0.0660136,cover=30062.2
			10:[D_TITLEMD5_COEC<0.076999] yes=21,no=22,missing=22,gain=8154.6,cover=1.66909e+06
				21:[U_CATEGORY_MAX_EC<3267.89] yes=43,no=44,missing=44,gain=4040.04,cover=611665
					43:[C_D_U_TITLEMD5_CATEGORY_MAX_C<0.043999] yes=87,no=88,missing=87,gain=2512.64,cover=418456
						87:leaf=0.00195141,cover=293972
						88:leaf=0.0189018,cover=124483
					44:[DOC_AGE<48] yes=89,no=90,missing=90,gain=2260.99,cover=193209
						89:leaf=-0.0197953,cover=111032
						90:leaf=0.0020854,cover=82177.3
				22:[DOC_AGE<79] yes=45,no=46,missing=46,gain=4258.47,cover=1.05742e+06
					45:[CAT_REL<0.018999] yes=91,no=92,missing=92,gain=5079.08,cover=860148
						91:leaf=0.00825163,cover=626906
						92:leaf=0.0255368,cover=233242
					46:[D_TITLEMD5_C<74.82] yes=93,no=94,missing=93,gain=1039.22,cover=197272
						93:leaf=0.0188008,cover=64380.2
						94:leaf=0.0342811,cover=132892
	2:[D_TITLEMD5_C<56.084] yes=5,no=6,missing=6,gain=16542,cover=2.43928e+06
		5:[CAT_REL<0.020999] yes=11,no=12,missing=12,gain=9107.16,cover=909413
			11:[U_CITY_COEC<0.068999] yes=23,no=24,missing=24,gain=3765.06,cover=343418
				23:[D_TITLEMD5_C<10.851] yes=47,no=48,missing=48,gain=1346.62,cover=113395
					47:[D_KEYWORD_MACRO_MEAN_COEC<0.052999] yes=95,no=96,missing=95,gain=848.102,cover=30859.2
						95:leaf=-0.053395,cover=6659.07
						96:leaf=-0.0130968,cover=24200.2
					48:[U_CATEGORY_MICRO_MAX_COEC<0.068999] yes=97,no=98,missing=98,gain=785.515,cover=82535.3
						97:leaf=-0.008328,cover=36267.1
						98:leaf=0.011328,cover=46268.2
				24:[U_CITY_COEC<0.148999] yes=49,no=50,missing=49,gain=2132.53,cover=230023
					49:[D_PUBLISHER_COEC<0.066999] yes=99,no=100,missing=100,gain=1822.35,cover=216567
						99:leaf=0.0042531,cover=82983.9
						100:leaf=0.0231217,cover=133583
					50:[U_CITY_C<9.891] yes=101,no=102,missing=102,gain=289.94,cover=13456.3
						101:leaf=0.0358347,cover=4396.92
						102:leaf=0.0671455,cover=9059.43
			12:[D_TITLEMD5_C<7.336] yes=25,no=26,missing=26,gain=4212.87,cover=565995
				25:[U_CITY_COEC<0.089999] yes=51,no=52,missing=51,gain=2263.64,cover=169843
					51:[D_KEYWORD_MACRO_MEAN_COEC<0.059999] yes=103,no=104,missing=103,gain=1842.57,cover=143328
						103:leaf=0.00147233,cover=67793.4
						104:leaf=0.0241819,cover=75534.8
					52:[U_CITY_COEC<0.148999] yes=105,no=106,missing=106,gain=277.237,cover=26515.1
						105:leaf=0.0391018,cover=19486.9
						106:leaf=0.0622764,cover=7028.21
				26:[D_TITLEMD5_COEC<0.138999] yes=53,no=54,missing=54,gain=2257.6,cover=396152
					53:[U_CITY_COEC<0.074999] yes=107,no=108,missing=107,gain=1859.81,cover=352010
						107:leaf=0.0296596,cover=242078
						108:leaf=0.0453446,cover=109933
					54:[D_TITLEMD5_COEC<0.170999] yes=109,no=110,missing=110,gain=260.236,cover=44141.2
						109:leaf=0.0510643,cover=22649.2
						110:leaf=0.0664359,cover=21492.1
		6:[C_D_U_TITLEMD5_CATEGORY_MICRO_MAX_COEC<0.168999] yes=13,no=14,missing=14,gain=9937.08,cover=1.52987e+06
			13:[U_CATEGORY_MACRO_MAX_COEC<0.008999] yes=27,no=28,missing=28,gain=5861.78,cover=1.08315e+06
				27:[CAT_REL<0.015999] yes=55,no=56,missing=56,gain=3553.81,cover=679295
					55:[U_CITY_COEC<0.096999] yes=111,no=112,missing=111,gain=1871.96,cover=407030
						111:leaf=0.0328771,cover=357613
						112:leaf=0.0536419,cover=49417.2
					56:[U_CITY_COEC<0.117999] yes=113,no=114,missing=113,gain=809.549,cover=272265
						113:leaf=0.0486065,cover=251888
						114:leaf=0.0693317,cover=20377.3
				28:[U_CATEGORY_MACRO_MAX_COEC<0.014999] yes=57,no=58,missing=58,gain=2195.95,cover=403854
					57:[U_CATEGORY_MICRO_MAX_COEC<0.077999] yes=115,no=116,missing=116,gain=1509.52,cover=299534
						115:leaf=0.0259455,cover=213489
						116:leaf=0.0416348,cover=86045.1
					58:[DOC_AGE<34] yes=117,no=118,missing=118,gain=1376.74,cover=104320
						117:leaf=0.0016917,cover=50262.1
						118:leaf=0.0246827,cover=54058.1
			14:[CAT_REL<0.001999] yes=29,no=30,missing=30,gain=2312.52,cover=446719
				29:[U_CATEGORY_MACRO_MAX_COEC<0.012999] yes=59,no=60,missing=60,gain=994.562,cover=160343
					59:[U_CATEGORY_MICRO_MAX_COEC<0.079999] yes=119,no=120,missing=120,gain=753.162,cover=133159
						119:leaf=0.0422745,cover=91956.6
						120:leaf=0.0585464,cover=41202.2
					60:[D_PUBLISHER_EC<12370.7] yes=121,no=122,missing=122,gain=337.223,cover=27184.2
						121:leaf=0.0362964,cover=15081
						122:leaf=0.0138844,cover=12103.2
				30:[C_D_U_TITLEMD5_CATEGORY_MICRO_MAX_COEC<0.245999] yes=61,no=62,missing=62,gain=1260.24,cover=286376
					61:[C_D_U_TITLEMD5_CATEGORY_MACRO_MAX_COEC<0.025999] yes=123,no=124,missing=124,gain=1136.09,cover=214388
						123:leaf=0.0594394,cover=154494
						124:leaf=0.0432133,cover=59894.4
					62:[C_D_U_CATEGORY_CATEGORY_MICRO_MEAN_COEC<0.105999] yes=125,no=126,missing=126,gain=256.913,cover=71988.2
						125:leaf=0.0647895,cover=39585.8
						126:leaf=0.0768087,cover=32402.4
booster[17]:
0:[D_TITLEMD5_COEC<0.078999] yes=1,no=2,missing=1,gain=73148.2,cover=6.68725e+06
	1:[C_D_U_CATEGORY_CATEGORY_MICRO_MEAN_COEC<0.069999] yes=3,no=4,missing=3,gain=23992.1,cover=3.07854e+06
		3:[U_CATEGORY_MACRO_MAX_COEC<0.005999] yes=7,no=8,missing=8,gain=10930.4,cover=1.65449e+06
			7:[D_PUBLISHER_COEC<0.034999] yes=15,no=16,missing=15,gain=5196.04,cover=507948
				15:[U_CITY_COEC<0.067999] yes=31,no=32,missing=32,gain=797.31,cover=61136.4
					31:[CAT_REL<0.032999] yes=63,no=64,missing=64,gain=378.974,cover=24205.8
						63:leaf=-0.0409474,cover=14855.2
						64:leaf=-0.015247,cover=9350.6
					32:[U_CATEGORY_MACRO_MAX_COEC<0.003999] yes=65,no=66,missing=66,gain=729.22,cover=36930.6
						65:leaf=0.0303171,cover=4444.44
						66:leaf=-0.0128669,cover=32486.2
				16:[U_CITY_COEC<0.067999] yes=33,no=34,missing=34,gain=3727.42,cover=446812
					33:[CAT_REL<0.008999] yes=67,no=68,missing=68,gain=2567.3,cover=154902
						67:leaf=-0.0141854,cover=61732.3
						68:leaf=0.0121094,cover=93169.4
					34:[U_CATEGORY_MACRO_MAX_COEC<0.003999] yes=69,no=70,missing=70,gain=2322.37,cover=291910
						69:leaf=0.0455122,cover=33697.6
						70:leaf=0.0175996,cover=258212
			8:[CAT_REL<0.056999] yes=17,no=18,missing=18,gain=6782.39,cover=1.14654e+06
				17:[D_TITLEMD5_C<20.508] yes=35,no=36,missing=35,gain=7179.97,cover=882648
					35:[D_KEYWORD_MACRO_MEAN_COEC<0.038999] yes=71,no=72,missing=72,gain=3105.89,cover=473059
						71:leaf=-0.0415205,cover=57753.8
						72:leaf=-0.0167704,cover=415305
					36:[DOC_AGE<73] yes=73,no=74,missing=74,gain=2778.61,cover=409589
						73:leaf=-0.00671453,cover=299050
						74:leaf=0.0118403,cover=110540
				18:[U_CATEGORY_MACRO_MAX_COEC<0.011999] yes=37,no=38,missing=37,gain=3425.33,cover=263892
					37:[C_D_U_CATEGORY_CATEGORY_MICRO_MEAN_COEC<0.041999] yes=75,no=76,missing=76,gain=2646.87,cover=199812
						75:leaf=-0.0189753,cover=22512.4
						76:leaf=0.017425,cover=177300
					38:[C_D_U_TITLEMD5_CATEGORY_MAX_EC<0.073999] yes=77,no=78,missing=77,gain=918.226,cover=64079.3
						77:leaf=-0.0291438,cover=23185
						78:leaf=-0.00423261,cover=40894.3
		4:[U_CITY_COEC<0.044999] yes=9,no=10,missing=10,gain=7350.81,cover=1.42405e+06
			9:[C_D_U_TITLEMD5_CATEGORY_MAX_EC<0.161999] yes=19,no=20,missing=19,gain=1149.55,cover=116389
				19:[DOC_AGE<0.999999] yes=39,no=40,missing=40,gain=967.87,cover=69141.1
					39:[C_D_U_TITLEMD5_CATEGORY_MAX_EC<0.065999] yes=79,no=80,missing=80,gain=278.284,cover=4190.32
						79:leaf=0.0652457,cover=1469.76
						80:leaf=0.0112496,cover=2720.55
					40:[U_CATEGORY_MAX_EC<680.312] yes=81,no=82,missing=82,gain=1019.79,cover=64950.8
						81:leaf=-0.00722956,cover=33472
						82:leaf=-0.0323021,cover=31478.8
				20:[D_CATEGORY_MEAN_C<2760.77] yes=41,no=42,missing=42,gain=582.105,cover=47247.5
					41:[CAT_REL<0.084999] yes=83,no=84,missing=84,gain=223.766,cover=22753.7
						83:leaf=0.00784574,cover=14431.4
						84:leaf=0.0284354,cover=8322.3
					42:[U_CATEGORY_MAX_C<145.428] yes=85,no=86,missing=86,gain=456.107,cover=24493.8
						85:leaf=0.00157471,cover=17750.3
						86:leaf=-0.0289739,cover=6743.49
			10:[C_D_U_CATEGORY_CATEGORY_MICRO_MEAN_COEC<0.094999] yes=21,no=22,missing=22,gain=5784.31,cover=1.30766e+06
				21:[U_CITY_COEC<0.099999] yes=43,no=44,missing=43,gain=4311.46,cover=963402
					43:[D_PUBLISHER_COEC<0.037999] yes=87,no=88,missing=87,gain=4093.59,cover=862227
						87:leaf=-0.00702842,cover=101858
						88:leaf=0.0143194,cover=760369
					44:[U_CITY_COEC<0.163999] yes=89,no=90,missing=90,gain=970.305,cover=101175
						89:leaf=0.0279636,cover=75883.1
						90:leaf=0.050581,cover=25292.3
				22:[D_KEYWORD_MACRO_MEAN_COEC<0.044999] yes=45,no=46,missing=46,gain=1471.21,cover=344261
					45:[U_CITY_COEC<0.134999] yes=91,no=92,missing=91,gain=414.127,cover=20388.7
						91:leaf=-0.000442051,cover=19180.7
						92:leaf=0.0599006,cover=1208.01
					46:[D_CATEGORY_MACRO_MAX_COEC<0.075999] yes=93,no=94,missing=94,gain=1367.77,cover=323872
						93:leaf=0.0346326,cover=241300
						94:leaf=0.0197214,cover=82572.1
	2:[C_D_U_CATEGORY_CATEGORY_MICRO_MAX_COEC<0.068999] yes=5,no=6,missing=5,gain=32921.7,cover=3.60871e+06
		5:[U_CITY_COEC<0.076999] yes=11,no=12,missing=11,gain=6130.78,cover=1.40147e+06
			11:[D_TITLEMD5_C<4.611] yes=23,no=24,missing=24,gain=5785.87,cover=1.06078e+06
				23:[CAT_REL<0.012999] yes=47,no=48,missing=48,gain=1142.05,cover=75057.4
					47:[D_CATEGORY_MACRO_MEAN_COEC<0.066999] yes=95,no=96,missing=96,gain=639.67,cover=29588.3
						95:leaf=-0.0431827,cover=16851.9
						96:leaf=-0.0134861,cover=12736.4
					48:[D_TITLEMD5_C<0.999999] yes=97,no=98,missing=98,gain=692.169,cover=45469.1
						97:leaf=-0.0233907,cover=14281.6
						98:leaf=0.0031905,cover=31187.5
				24:[CAT_REL<0.008999] yes=49,no=50,missing=50,gain=4574.07,cover=985718
					49:[D_KEYWORD_MEAN_C<97.944] yes=99,no=100,missing=99,gain=3976.05,cover=673639
						99:leaf=-0.000336073,cover=270057
						100:leaf=0.0153403,cover=403582
					50:[U_CATEGORY_MAX_EC<2066.66] yes=101,no=102,missing=102,gain=1828.32,cover=312079
						101:leaf=0.0289439,cover=212401
						102:leaf=0.0125273,cover=99678.3
			12:[U_CITY_COEC<0.134999] yes=25,no=26,missing=26,gain=2016.38,cover=340692
				25:[U_CATEGORY_MACRO_MAX_COEC<0.004999] yes=51,no=52,missing=52,gain=1546.98,cover=286455
					51:[D_PUBLISHER_COEC<0.059999] yes=103,no=104,missing=104,gain=184.153,cover=31645.4
						103:leaf=0.0260196,cover=4577.65
						104:leaf=0.0477161,cover=27067.7
					52:[D_PUBLISHER_COEC<0.104999] yes=105,no=106,missing=106,gain=1155.2,cover=254810
						105:leaf=0.0173133,cover=192708
						106:leaf=0.0329967,cover=62102
				26:[U_CITY_C<0.985999] yes=53,no=54,missing=54,gain=389.05,cover=54237.1
					53:[D_KEYWORD_MEAN_EC<349.866] yes=107,no=108,missing=108,gain=225.909,cover=2706.17
						107:leaf=-0.288612,cover=24.4731
						108:leaf=0.0106037,cover=2681.7
					54:[U_CATEGORY_MAX_C<177.903] yes=109,no=110,missing=109,gain=383.353,cover=51531
						109:leaf=0.0495048,cover=46585.3
						110:leaf=0.0202174,cover=4945.65
		6:[D_TITLEMD5_COEC<0.134999] yes=13,no=14,missing=14,gain=11350.9,cover=2.20725e+06
			13:[CAT_REL<0.011999] yes=27,no=28,missing=28,gain=7885.95,cover=1.63577e+06
				27:[U_CITY_COEC<0.052999] yes=55,no=56,missing=56,gain=3665.38,cover=730763
					55:[C_D_U_TITLEMD5_CITY_EC<15.898] yes=111,no=112,missing=112,gain=1128.51,cover=79265.2
						111:leaf=0.021817,cover=22272.1
						112:leaf=-0.00472876,cover=56993.1
					56:[U_CATEGORY_MACRO_MAX_COEC<0.013999] yes=113,no=114,missing=114,gain=2877.66,cover=651498
						113:leaf=0.0278437,cover=579707
						114:leaf=0.00661912,cover=71791.2
				28:[C_D_U_CATEGORY_CATEGORY_MICRO_MEAN_COEC<0.098999] yes=57,no=58,missing=58,gain=3783.4,cover=905002
					57:[C_D_U_CATEGORY_CATEGORY_MACRO_MEAN_COEC<0.009999] yes=115,no=116,missing=116,gain=4228.22,cover=674759
						115:leaf=0.0391278,cover=433570
						116:leaf=0.0226101,cover=241190
					58:[U_CITY_COEC<0.109999] yes=117,no=118,missing=117,gain=874.915,cover=230243
						117:leaf=0.0460163,cover=207260
						118:leaf=0.0665829,cover=22983.1
			14:[D_TITLEMD5_C<1.96] yes=29,no=30,missing=30,gain=3319.77,cover=571481
				29:[CAT_REL<0.034999] yes=59,no=60,missing=60,gain=736.774,cover=37366.1
					59:[U_CITY_COEC<0.095999] yes=119,no=120,missing=119,gain=317.031,cover=11841.1
						119:leaf=-0.00850224,cover=10354.1
						120:leaf=0.040861,cover=1487.01
					60:[U_CITY_COEC<0.035999] yes=121,no=122,missing=122,gain=616.682,cover=25525
						121:leaf=-0.0342969,cover=1500.57
						122:leaf=0.0317648,cover=24024.4
				30:[U_CATEGORY_MAX_EC<1036.73] yes=61,no=62,missing=62,gain=3316.56,cover=534115
					61:[CAT_REL<0.016999] yes=123,no=124,missing=124,gain=1099.82,cover=296571
						123:leaf=0.050839,cover=167077
						124:leaf=0.0631191,cover=129494
					62:[CAT_REL<0.001999] yes=125,no=126,missing=126,gain=1543.44,cover=237543
						125:leaf=0.0311617,cover=103401
						126:leaf=0.0474207,cover=134143
booster[18]:
0:[C_D_U_TITLEMD5_CATEGORY_MICRO_MAX_COEC<0.097999] yes=1,no=2,missing=1,gain=65463.6,cover=6.62406e+06
	1:[D_PUBLISHER_COEC<0.060999] yes=3,no=4,missing=4,gain=22587,cover=4.38063e+06
		3:[CAT_REL<0.033999] yes=7,no=8,missing=8,gain=10313.6,cover=1.60507e+06
			7:[D_TITLEMD5_C<5.95] yes=15,no=16,missing=15,gain=8656.92,cover=930446
				15:[U_CITY_COEC<0.075999] yes=31,no=32,missing=32,gain=3648.1,cover=407929
					31:[U_CITY_COEC<0.025999] yes=63,no=64,missing=64,gain=1871.87,cover=228089
						63:leaf=-0.0560657,cover=19592.8
						64:leaf=-0.0237368,cover=208497
					32:[U_CATEGORY_MACRO_MAX_COEC<0.004999] yes=65,no=66,missing=66,gain=3012.77,cover=179840
						65:leaf=0.0208817,cover=31021.2
						66:leaf=-0.0133763,cover=148819
				16:[U_CATEGORY_MACRO_MAX_COEC<0.005999] yes=33,no=34,missing=34,gain=5086.84,cover=522517
					33:[CAT_REL<0.002999] yes=67,no=68,missing=68,gain=1193.17,cover=167683
						67:leaf=0.00605903,cover=72919.7
						68:leaf=0.023075,cover=94763.5
					34:[U_CITY_COEC<0.050999] yes=69,no=70,missing=70,gain=2186.24,cover=354834
						69:leaf=-0.0265542,cover=43157.1
						70:leaf=-0.00253937,cover=311677
			8:[C_D_U_CATEGORY_CATEGORY_MICRO_MAX_COEC<0.043999] yes=17,no=18,missing=17,gain=5280.31,cover=674623
				17:[D_PUBLISHER_COEC<0.034999] yes=35,no=36,missing=36,gain=812.584,cover=49145.3
					35:[U_CATEGORY_MACRO_MAX_COEC<0.006999] yes=71,no=72,missing=72,gain=484.724,cover=16881.8
						71:leaf=-0.0228296,cover=8186.17
						72:leaf=-0.0567384,cover=8695.61
					36:[U_CATEGORY_MAX_C<180.212] yes=73,no=74,missing=74,gain=567.516,cover=32263.5
						73:leaf=-0.00820738,cover=28231.8
						74:leaf=-0.0483117,cover=4031.68
				18:[U_CATEGORY_MACRO_MAX_COEC<0.012999] yes=37,no=38,missing=38,gain=4062.36,cover=625478
					37:[D_PUBLISHER_COEC<0.040999] yes=75,no=76,missing=76,gain=3191.52,cover=542311
						75:leaf=0.00353733,cover=174491
						76:leaf=0.0199591,cover=367819
					38:[CAT_REL<0.159999] yes=77,no=78,missing=78,gain=2150.42,cover=83167
						77:leaf=-0.0259623,cover=39510.6
						78:leaf=0.00623749,cover=43656.3
		4:[U_CATEGORY_MACRO_MAX_COEC<0.008999] yes=9,no=10,missing=10,gain=13070.7,cover=2.77556e+06
			9:[CAT_REL<0.019999] yes=19,no=20,missing=20,gain=6999.3,cover=1.60182e+06
				19:[U_CATEGORY_MACRO_MAX_COEC<0.004999] yes=39,no=40,missing=40,gain=4588.92,cover=918020
					39:[D_TITLEMD5_C<44.096] yes=79,no=80,missing=79,gain=1653.99,cover=186761
						79:leaf=0.0183985,cover=85071.6
						80:leaf=0.0372953,cover=101690
					40:[U_CATEGORY_MICRO_MAX_COEC<0.071999] yes=81,no=82,missing=82,gain=5321.44,cover=731259
						81:leaf=0.00502732,cover=483998
						82:leaf=0.0230596,cover=247261
				20:[D_KEYWORD_MACRO_MEAN_COEC<0.064999] yes=41,no=42,missing=41,gain=2841.18,cover=683796
					41:[U_CITY_COEC<0.074999] yes=83,no=84,missing=83,gain=1890.95,cover=347498
						83:leaf=0.0170196,cover=247135
						84:leaf=0.0332963,cover=100363
					42:[D_TITLEMD5_COEC<0.124999] yes=85,no=86,missing=86,gain=1564.98,cover=336298
						85:leaf=0.0316091,cover=281643
						86:leaf=0.0501003,cover=54655.1
			10:[DOC_AGE<80] yes=21,no=22,missing=22,gain=5332.36,cover=1.17375e+06
				21:[D_TITLEMD5_COEC<0.124999] yes=43,no=44,missing=44,gain=5192.88,cover=932720
					43:[D_TITLEMD5_EC<3447.88] yes=87,no=88,missing=88,gain=2903.65,cover=737279
						87:leaf=-0.00390156,cover=589256
						88:leaf=0.0117649,cover=148023
					44:[D_KEYWORD_MICRO_MAX_COEC<0.210999] yes=89,no=90,missing=90,gain=1639.28,cover=195442
						89:leaf=0.015261,cover=183690
						90:leaf=0.0537841,cover=11752.1
				22:[D_TITLEMD5_C<120.188] yes=45,no=46,missing=45,gain=1556.97,cover=241028
					45:[U_CITY_COEC<0.079999] yes=91,no=92,missing=91,gain=882.805,cover=133991
						91:leaf=0.00857,cover=107630
						92:leaf=0.0289884,cover=26360.8
					46:[U_CITY_COEC<0.052999] yes=93,no=94,missing=93,gain=943.973,cover=107038
						93:leaf=0.0159246,cover=37310.3
						94:leaf=0.0356328,cover=69727.3
	2:[C_D_U_TITLEMD5_CATEGORY_MAX_C<0.025999] yes=5,no=6,missing=6,gain=13540.2,cover=2.24343e+06
		5:[D_KEYWORD_MACRO_MEAN_COEC<0.061999] yes=11,no=12,missing=12,gain=5616.54,cover=566005
			11:[U_CITY_COEC<0.077999] yes=23,no=24,missing=23,gain=2346.62,cover=187960
				23:[U_CATEGORY_MAX_EC<1301.71] yes=47,no=48,missing=48,gain=1485.67,cover=140745
					47:[C_D_U_TITLEMD5_CATEGORY_MAX_EC<0.081999] yes=95,no=96,missing=96,gain=1046.79,cover=116129
						95:leaf=-0.00558497,cover=79725.3
						96:leaf=0.0148806,cover=36404
					48:[CAT_REL<0.069999] yes=97,no=98,missing=98,gain=531.95,cover=24615.6
						97:leaf=-0.0368417,cover=16166.5
						98:leaf=-0.00587941,cover=8449.13
				24:[U_CATEGORY_MAX_EC<2451.97] yes=49,no=50,missing=50,gain=841.924,cover=47215.4
					49:[U_CITY_COEC<0.171999] yes=99,no=100,missing=100,gain=674.677,cover=45866
						99:leaf=0.0200265,cover=41107.4
						100:leaf=0.059798,cover=4758.57
					50:[U_CITY_C<38.906] yes=101,no=102,missing=102,gain=266.143,cover=1349.46
						101:leaf=-0.0211955,cover=837.621
						102:leaf=-0.112699,cover=511.842
			12:[U_CATEGORY_MAX_EC<583.498] yes=25,no=26,missing=26,gain=3032.76,cover=378045
				25:[D_TITLEMD5_COEC<0.153999] yes=51,no=52,missing=52,gain=1622.35,cover=212791
					51:[U_CITY_COEC<0.084999] yes=103,no=104,missing=103,gain=1384.71,cover=186517
						103:leaf=0.0240985,cover=150152
						104:leaf=0.0458473,cover=36365.5
					52:[D_PUBLISHER_C<13.886] yes=105,no=106,missing=106,gain=251.434,cover=26273.5
						105:leaf=0.0184257,cover=1765.98
						106:leaf=0.0575074,cover=24507.5
				26:[D_TITLEMD5_COEC<0.119999] yes=53,no=54,missing=54,gain=1811.29,cover=165254
					53:[CAT_REL<0.011999] yes=107,no=108,missing=108,gain=1131.39,cover=106336
						107:leaf=-0.00704718,cover=41811.1
						108:leaf=0.0140698,cover=64525.4
					54:[U_CITY_COEC<0.067999] yes=109,no=110,missing=109,gain=607.052,cover=58917.7
						109:leaf=0.0174241,cover=29317.4
						110:leaf=0.0377264,cover=29600.2
		6:[U_CATEGORY_MAX_EC<1172.78] yes=13,no=14,missing=14,gain=9781.5,cover=1.67743e+06
			13:[C_D_U_TITLEMD5_CATEGORY_MICRO_MAX_COEC<0.177999] yes=27,no=28,missing=28,gain=3898.49,cover=890798
				27:[U_CITY_COEC<0.076999] yes=55,no=56,missing=55,gain=2142.59,cover=601820
					55:[CAT_REL<0.028999] yes=111,no=112,missing=112,gain=1683.19,cover=433630
						111:leaf=0.0289467,cover=284316
						112:leaf=0.0420593,cover=149313
					56:[U_CITY_COEC<0.171999] yes=113,no=114,missing=114,gain=742.701,cover=168191
						113:leaf=0.0444338,cover=149854
						114:leaf=0.0657579,cover=18336.3
				28:[C_D_U_CATEGORY_CATEGORY_MICRO_MEAN_COEC<0.105999] yes=57,no=58,missing=58,gain=1212.05,cover=288978
					57:[U_CATEGORY_MACRO_MAX_COEC<0.008999] yes=115,no=116,missing=116,gain=1008.28,cover=185475
						115:leaf=0.05054,cover=142172
						116:leaf=0.0331096,cover=43303.1
					58:[C_D_U_TITLEMD5_CATEGORY_MICRO_MAX_COEC<0.248999] yes=117,no=118,missing=118,gain=380.982,cover=103503
						117:leaf=0.0552135,cover=64032.7
						118:leaf=0.0677101,cover=39470.1
			14:[C_D_U_TITLEMD5_CATEGORY_MAX_C<0.094999] yes=29,no=30,missing=30,gain=4140.27,cover=786627
				29:[D_TITLEMD5_COEC<0.153999] yes=59,no=60,missing=60,gain=1547.86,cover=170747
					59:[U_CATEGORY_MACRO_MAX_COEC<0.017999] yes=119,no=120,missing=120,gain=1311.39,cover=147609
						119:leaf=0.0114002,cover=137993
						120:leaf=-0.0267918,cover=9616.27
					60:[D_TITLEMD5_C<1.951] yes=121,no=122,missing=122,gain=224.431,cover=23138.1
						121:leaf=0.00206245,cover=1728.13
						122:leaf=0.0395272,cover=21410
				30:[U_CATEGORY_MACRO_MAX_COEC<0.016999] yes=61,no=62,missing=62,gain=3495.53,cover=615880
					61:[CAT_REL<0.039999] yes=123,no=124,missing=124,gain=2286.81,cover=505293
						123:leaf=0.0281103,cover=294390
						124:leaf=0.0417528,cover=210903
					62:[U_CITY_COEC<0.055999] yes=125,no=126,missing=126,gain=1007.83,cover=110587
						125:leaf=-0.0103997,cover=14498.4
						126:leaf=0.0178844,cover=96088.4
booster[19]:
0:[D_TITLEMD5_COEC<0.087999] yes=1,no=2,missing=1,gain=54800.5,cover=6.57618e+06
	1:[C_D_U_TITLEMD5_CATEGORY_MICRO_MAX_COEC<0.030999] yes=3,no=4,missing=3,gain=23573.2,cover=3.65096e+06
		3:[U_CITY_COEC<0.104999] yes=7,no=8,missing=7,gain=9167.76,cover=1.76946e+06
			7:[CAT_REL<0.028999] yes=15,no=16,missing=16,gain=8124.58,cover=1.63843e+06
				15:[U_CITY_COEC<0.038999] yes=31,no=32,missing=32,gain=4613.83,cover=948079
					31:[U_CITY_EC<128.645] yes=63,no=64,missing=64,gain=1392.27,cover=83160.3
						63:leaf=-0.0159709,cover=32216
						64:leaf=-0.042532,cover=50944.3
					32:[U_CATEGORY_MAX_EC<850.461] yes=65,no=66,missing=65,gain=4378.56,cover=864919
						65:leaf=-0.00246986,cover=570443
						66:leaf=-0.0174847,cover=294476
				16:[WORD_COUNT<828] yes=33,no=34,missing=34,gain=5201.93,cover=690347
					33:[DOC_AGE<2] yes=67,no=68,missing=68,gain=1468.46,cover=77826.1
						67:leaf=0.0141862,cover=10907.5
						68:leaf=-0.025382,cover=66918.6
					34:[U_CATEGORY_MACRO_MAX_COEC<0.011999] yes=69,no=70,missing=69,gain=4189.94,cover=612521
						69:leaf=0.0111132,cover=519362
						70:leaf=-0.0119178,cover=93159.4
			8:[U_CITY_COEC<0.270999] yes=17,no=18,missing=18,gain=2413.26,cover=131032
				17:[U_CITY_C<17.231] yes=35,no=36,missing=36,gain=1041.66,cover=121125
					35:[DOC_AGE<77] yes=71,no=72,missing=72,gain=562.657,cover=51082.1
						71:leaf=0.00398638,cover=41556.7
						72:leaf=0.0309313,cover=9525.41
					36:[U_CATEGORY_MAX_C<73.195] yes=73,no=74,missing=74,gain=493.106,cover=70043.3
						73:leaf=0.0341263,cover=44606.6
						74:leaf=0.0166781,cover=25436.7
				18:[U_CATEGORY_MACRO_MAX_COEC<0.003999] yes=37,no=38,missing=38,gain=1523.38,cover=9906.28
					37:[U_CITY_C<11.328] yes=75,no=76,missing=76,gain=65.485,cover=2910.92
						75:leaf=-0.0765297,cover=14.3869
						76:leaf=0.133048,cover=2896.54
					38:[U_CITY_C<4.343] yes=77,no=78,missing=78,gain=439.425,cover=6995.36
						77:leaf=0.0122535,cover=2497.35
						78:leaf=0.0645688,cover=4498.01
		4:[U_CATEGORY_MICRO_MAX_COEC<0.072999] yes=9,no=10,missing=10,gain=9966.26,cover=1.8815e+06
			9:[CAT_REL<0.009999] yes=19,no=20,missing=20,gain=5982.43,cover=1.19805e+06
				19:[DOC_AGE<69] yes=39,no=40,missing=40,gain=3886.49,cover=486183
					39:[D_TITLEMD5_EC<2456.09] yes=79,no=80,missing=80,gain=2542.44,cover=343885
						79:leaf=-0.00985668,cover=271615
						80:leaf=0.0112477,cover=72270.3
					40:[C_D_U_TITLEMD5_CATEGORY_MACRO_MAX_COEC<0.004999] yes=81,no=82,missing=82,gain=730.041,cover=142298
						81:leaf=0.0281504,cover=29783.7
						82:leaf=0.0105436,cover=112514
				20:[U_CATEGORY_MACRO_MAX_COEC<0.004999] yes=41,no=42,missing=42,gain=2526.09,cover=711864
					41:[D_TITLEMD5_EC<397.97] yes=83,no=84,missing=84,gain=1004.32,cover=93151.2
						83:leaf=0.0177221,cover=38577.3
						84:leaf=0.0388029,cover=54574
					42:[CAT_REL<0.049999] yes=85,no=86,missing=86,gain=2443.09,cover=618713
						85:leaf=0.00523987,cover=268815
						86:leaf=0.0179169,cover=349898
			10:[U_CATEGORY_MACRO_MAX_COEC<0.010999] yes=21,no=22,missing=22,gain=3260.11,cover=683457
				21:[U_CITY_COEC<0.063999] yes=43,no=44,missing=44,gain=2420.99,cover=559577
					43:[C_D_U_TITLEMD5_CATEGORY_MAX_EC<0.089999] yes=87,no=88,missing=88,gain=898.631,cover=106836
						87:leaf=-0.00222961,cover=26540.3
						88:leaf=0.0189954,cover=80296
					44:[U_CITY_COEC<0.128999] yes=89,no=90,missing=89,gain=1467.57,cover=452741
						89:leaf=0.0288372,cover=418787
						90:leaf=0.050454,cover=33954.1
				22:[U_CATEGORY_MICRO_MAX_COEC<0.087999] yes=45,no=46,missing=46,gain=1147,cover=123880
					45:[C_D_U_TITLEMD5_CATEGORY_MAX_C<0.083999] yes=91,no=92,missing=92,gain=1078.08,cover=97118.2
						91:leaf=-0.00581786,cover=50602.9
						92:leaf=0.0152726,cover=46515.3
					46:[CAT_REL<0.025999] yes=93,no=94,missing=94,gain=223.482,cover=26761.3
						93:leaf=0.0182871,cover=13037.6
						94:leaf=0.0365722,cover=13723.7
	2:[C_D_U_CATEGORY_CATEGORY_MICRO_MEAN_COEC<0.070999] yes=5,no=6,missing=5,gain=21707.2,cover=2.92522e+06
		5:[U_CATEGORY_MACRO_MAX_COEC<0.007999] yes=11,no=12,missing=12,gain=6089.06,cover=1.38845e+06
			11:[D_TITLEMD5_C<1.946] yes=23,no=24,missing=24,gain=3217.94,cover=606297
				23:[U_CITY_COEC<0.073999] yes=47,no=48,missing=47,gain=736.952,cover=29948.5
					47:[CAT_REL<0.027999] yes=95,no=96,missing=96,gain=515.374,cover=21163.2
						95:leaf=-0.0367885,cover=9002.33
						96:leaf=-0.00522502,cover=12160.9
					48:[U_CATEGORY_MACRO_MAX_COEC<0.003999] yes=97,no=98,missing=98,gain=247.324,cover=8785.28
						97:leaf=0.065994,cover=882.039
						98:leaf=0.0101904,cover=7903.24
				24:[D_TITLEMD5_COEC<0.137999] yes=49,no=50,missing=50,gain=2889.7,cover=576349
					49:[CAT_REL<0.018999] yes=99,no=100,missing=100,gain=2300.09,cover=463090
						99:leaf=0.0162538,cover=295054
						100:leaf=0.0309112,cover=168036
					50:[D_TITLEMD5_COEC<0.182999] yes=101,no=102,missing=102,gain=610.967,cover=113259
						101:leaf=0.0349766,cover=83199.7
						102:leaf=0.0516125,cover=30059.2
			12:[DOC_AGE<38] yes=25,no=26,missing=26,gain=4225.75,cover=782149
				25:[D_PUBLISHER_COEC<0.136999] yes=51,no=52,missing=52,gain=2867.61,cover=434201
					51:[U_CATEGORY_MACRO_MAX_COEC<0.013999] yes=103,no=104,missing=104,gain=1862.12,cover=397798
						103:leaf=0.0081593,cover=190523
						104:leaf=-0.00553646,cover=207276
					52:[D_CATEGORY_MACRO_MEAN_COEC<0.094999] yes=105,no=106,missing=106,gain=807.48,cover=36403
						105:leaf=0.0233625,cover=29844.9
						106:leaf=0.0621157,cover=6558.09
				26:[D_KEYWORD_MEAN_C<115.047] yes=53,no=54,missing=54,gain=1623.33,cover=347948
					53:[DOC_AGE<96] yes=107,no=108,missing=108,gain=644.359,cover=139107
						107:leaf=0.00625074,cover=108005
						108:leaf=0.0225857,cover=31102.1
					54:[U_CITY_COEC<0.048999] yes=109,no=110,missing=109,gain=825.987,cover=208841
						109:leaf=0.0150071,cover=70184.7
						110:leaf=0.0283213,cover=138656
		6:[U_CATEGORY_MAX_EC<723.393] yes=13,no=14,missing=14,gain=5916.76,cover=1.53678e+06
			13:[D_TITLEMD5_COEC<0.132999] yes=27,no=28,missing=28,gain=2951.7,cover=628420
				27:[CAT_REL<0.017999] yes=55,no=56,missing=56,gain=2027.68,cover=425931
					55:[U_CITY_COEC<0.067999] yes=111,no=112,missing=112,gain=1361.55,cover=236322
						111:leaf=0.0177264,cover=67775.4
						112:leaf=0.03451,cover=168546
					56:[D_TITLEMD5_C<5.081] yes=113,no=114,missing=114,gain=863.031,cover=189609
						113:leaf=0.0223376,cover=17375.8
						114:leaf=0.0457232,cover=172233
				28:[D_TITLEMD5_C<2.975] yes=57,no=58,missing=58,gain=1250.3,cover=202489
					57:[D_KEYWORD_MAX_EC<133.469] yes=115,no=116,missing=115,gain=280.951,cover=18707.4
						115:leaf=-0.00405808,cover=2679.69
						116:leaf=0.0309223,cover=16027.7
					58:[CAT_REL<0.013999] yes=117,no=118,missing=118,gain=743.767,cover=183782
						117:leaf=0.0471888,cover=99423.7
						118:leaf=0.0599574,cover=84358
			14:[U_CITY_COEC<0.056999] yes=29,no=30,missing=30,gain=3710.35,cover=908355
				29:[U_CITY_COEC<0.035999] yes=59,no=60,missing=60,gain=988.428,cover=121583
					59:[D_TITLEMD5_C<3.768] yes=119,no=120,missing=120,gain=507.846,cover=41049.2
						119:leaf=-0.0416164,cover=2850.32
						120:leaf=0.0021333,cover=38198.9
					60:[D_TITLEMD5_COEC<0.129999] yes=121,no=122,missing=122,gain=547.581,cover=80533.9
						121:leaf=0.0118295,cover=50667.2
						122:leaf=0.0289007,cover=29866.7
				30:[CAT_REL<0.001999] yes=61,no=62,missing=62,gain=3139.84,cover=786772
					61:[D_KEYWORD_MICRO_MAX_COEC<0.113999] yes=123,no=124,missing=123,gain=1168.73,cover=278369
						123:leaf=0.0138179,cover=107994
						124:leaf=0.0271155,cover=170374
					62:[D_PUBLISHER_COEC<0.110999] yes=125,no=126,missing=125,gain=1955.9,cover=508404
						125:leaf=0.0315651,cover=380111
						126:leaf=0.0458453,cover=128293
booster[20]:
0:[D_TITLEMD5_COEC<0.065999] yes=1,no=2,missing=1,gain=47484.6,cover=6.51846e+06
	1:[C_D_U_CATEGORY_CATEGORY_MICRO_MEAN_COEC<0.072999] yes=3,no=4,missing=3,gain=12100.9,cover=2.19402e+06
		3:[U_CITY_COEC<0.038999] yes=7,no=8,missing=8,gain=6019.31,cover=1.33164e+06
			7:[U_CITY_EC<127.436] yes=15,no=16,missing=16,gain=1760.66,cover=112237
				15:[U_CATEGORY_MAX_C<39.902] yes=31,no=32,missing=32,gain=415.079,cover=40999.2
					31:[CAT_REL<0.109999] yes=63,no=64,missing=64,gain=277.426,cover=6953.57
						63:leaf=0.00741171,cover=6610.26
						64:leaf=0.0994856,cover=343.306
					32:[CAT_REL<0.094999] yes=65,no=66,missing=66,gain=324.936,cover=34045.6
						65:leaf=-0.0184406,cover=29971.8
						66:leaf=0.0116575,cover=4073.84
				16:[U_CITY_COEC<0.025999] yes=33,no=34,missing=34,gain=2259.68,cover=71238
					33:[U_CITY_COEC<0.016999] yes=67,no=68,missing=68,gain=425.631,cover=28629.5
						67:leaf=-0.0729095,cover=11504.7
						68:leaf=-0.0480307,cover=17124.8
					34:[U_CITY_EC<1814.27] yes=69,no=70,missing=70,gain=655.935,cover=42608.6
						69:leaf=-0.0181883,cover=39444.8
						70:leaf=-0.0655074,cover=3163.73
			8:[U_CATEGORY_MACRO_MAX_COEC<0.005999] yes=17,no=18,missing=18,gain=5926.93,cover=1.2194e+06
				17:[D_PUBLISHER_COEC<0.034999] yes=35,no=36,missing=35,gain=2640.08,cover=381262
					35:[CAT_REL<0.067999] yes=71,no=72,missing=72,gain=777.269,cover=57088.3
						71:leaf=-0.0153221,cover=53029.1
						72:leaf=0.0300759,cover=4059.18
					36:[CAT_REL<0.022999] yes=73,no=74,missing=74,gain=2339.99,cover=324174
						73:leaf=0.0036749,cover=181075
						74:leaf=0.0207848,cover=143099
				18:[CAT_REL<0.064999] yes=37,no=38,missing=38,gain=4869,cover=838136
					37:[DOC_AGE<73] yes=75,no=76,missing=76,gain=3886.47,cover=641884
						75:leaf=-0.015427,cover=512522
						76:leaf=0.00397052,cover=129361
					38:[C_D_U_CATEGORY_CATEGORY_MICRO_MAX_COEC<0.042999] yes=77,no=78,missing=78,gain=2098.74,cover=196252
						77:leaf=-0.0251047,cover=18999.3
						78:leaf=0.00986664,cover=177253
		4:[U_CITY_COEC<0.065999] yes=9,no=10,missing=10,gain=4043.76,cover=862382
			9:[U_CITY_COEC<0.025999] yes=19,no=20,missing=20,gain=1622.42,cover=233209
				19:[U_CITY_EC<177.861] yes=39,no=40,missing=40,gain=1405.35,cover=24303.1
					39:[U_CITY_EC<17.702] yes=79,no=80,missing=80,gain=431.299,cover=13343.1
						79:leaf=0.0176102,cover=5657.79
						80:leaf=-0.0187671,cover=7685.26
					40:[U_CITY_C<4.418] yes=81,no=82,missing=82,gain=496.969,cover=10960.1
						81:leaf=-0.0941824,cover=2197.73
						82:leaf=-0.0409952,cover=8762.35
				20:[DOC_AGE<0.999999] yes=41,no=42,missing=42,gain=1309.64,cover=208906
					41:[D_KEYWORD_MACRO_MEAN_COEC<0.057999] yes=83,no=84,missing=83,gain=276.755,cover=10510.2
						83:leaf=0.0209302,cover=5454.06
						84:leaf=0.0534125,cover=5056.14
					42:[D_KEYWORD_MACRO_MEAN_COEC<0.045999] yes=85,no=86,missing=86,gain=1158.29,cover=198396
						85:leaf=-0.0189817,cover=26831.6
						86:leaf=0.00336078,cover=171564
			10:[U_CATEGORY_MAX_EC<543.164] yes=21,no=22,missing=22,gain=2636.79,cover=629173
				21:[U_CITY_COEC<0.149999] yes=43,no=44,missing=43,gain=1040.37,cover=224699
					43:[DOC_AGE<0.999999] yes=87,no=88,missing=88,gain=999.471,cover=213307
						87:leaf=0.0531822,cover=9714.05
						88:leaf=0.0203504,cover=203593
					44:[U_CITY_C<126.152] yes=89,no=90,missing=90,gain=632.575,cover=11392.6
						89:leaf=0.0441557,cover=10026.8
						90:leaf=0.11669,cover=1365.8
				22:[CAT_REL<0.059999] yes=45,no=46,missing=46,gain=3327.42,cover=404474
					45:[C_D_U_CATEGORY_CATEGORY_MACRO_MEAN_COEC<0.008999] yes=91,no=92,missing=92,gain=1744.29,cover=226461
						91:leaf=0.00997428,cover=122181
						92:leaf=-0.00763336,cover=104280
					46:[D_CATEGORY_MICRO_MEAN_COEC<0.072999] yes=93,no=94,missing=94,gain=1444.44,cover=178012
						93:leaf=0.0270983,cover=111463
						94:leaf=0.00848001,cover=66549.9
	2:[C_D_U_CATEGORY_CATEGORY_MICRO_MEAN_COEC<0.062999] yes=5,no=6,missing=5,gain=26340.6,cover=4.32444e+06
		5:[U_CITY_COEC<0.102999] yes=11,no=12,missing=11,gain=5551.4,cover=1.53514e+06
			11:[D_TITLEMD5_C<5.95] yes=23,no=24,missing=24,gain=5715.13,cover=1.41082e+06
				23:[C_D_U_CATEGORY_CATEGORY_MICRO_MAX_COEC<0.049999] yes=47,no=48,missing=47,gain=1490.32,cover=125291
					47:[D_TITLEMD5_C<1.965] yes=95,no=96,missing=96,gain=963.594,cover=53292.9
						95:leaf=-0.0420246,cover=21973.5
						96:leaf=-0.0147077,cover=31319.4
					48:[CAT_REL<0.048999] yes=97,no=98,missing=98,gain=704.013,cover=71997.7
						97:leaf=-0.0112294,cover=46520.2
						98:leaf=0.00945027,cover=25477.5
				24:[D_TITLEMD5_COEC<0.154999] yes=49,no=50,missing=50,gain=4621.7,cover=1.28553e+06
					49:[U_CATEGORY_MACRO_MAX_COEC<0.005999] yes=99,no=100,missing=100,gain=3917.76,cover=1.18464e+06
						99:leaf=0.0182751,cover=256265
						100:leaf=0.00430801,cover=928378
					50:[D_KEYWORD_MICRO_MAX_COEC<0.193999] yes=101,no=102,missing=102,gain=1307.57,cover=100888
						101:leaf=0.0239326,cover=80710.1
						102:leaf=0.0523941,cover=20177.8
			12:[U_CITY_COEC<0.161999] yes=25,no=26,missing=26,gain=1049.9,cover=124316
				25:[U_CATEGORY_MICRO_MAX_COEC<0.055999] yes=51,no=52,missing=51,gain=624.206,cover=89809.8
					51:[D_PUBLISHER_COEC<0.089999] yes=103,no=104,missing=104,gain=520.737,cover=34826.5
						103:leaf=0.00064945,cover=17292.3
						104:leaf=0.0251057,cover=17534.2
					52:[CAT_REL<0.013999] yes=105,no=106,missing=106,gain=271.582,cover=54983.3
						105:leaf=0.0235104,cover=29376.7
						106:leaf=0.0376018,cover=25606.6
				26:[U_CITY_C<0.954999] yes=53,no=54,missing=54,gain=338.119,cover=34506
					53:[C_D_U_TITLEMD5_AGE_C<2.581] yes=107,no=108,missing=107,gain=219.504,cover=2184.22
						107:leaf=0.00879384,cover=2166.84
						108:leaf=-0.338325,cover=17.3721
					54:[U_CATEGORY_MAX_C<205.385] yes=109,no=110,missing=109,gain=247.573,cover=32321.8
						109:leaf=0.048899,cover=30123.7
						110:leaf=0.0141282,cover=2198.14
		6:[D_TITLEMD5_COEC<0.133999] yes=13,no=14,missing=14,gain=11211.3,cover=2.7893e+06
			13:[CAT_REL<0.017999] yes=27,no=28,missing=28,gain=8735.25,cover=2.20857e+06
				27:[U_CITY_COEC<0.112999] yes=55,no=56,missing=55,gain=4797.87,cover=1.1161e+06
					55:[U_CITY_COEC<0.046999] yes=111,no=112,missing=112,gain=3857.88,cover=1.03408e+06
						111:leaf=-0.00576025,cover=91295.5
						112:leaf=0.0157685,cover=942789
					56:[U_CITY_COEC<0.161999] yes=113,no=114,missing=114,gain=761.631,cover=82015.5
						113:leaf=0.0312322,cover=49743.5
						114:leaf=0.0509599,cover=32272
				28:[U_CATEGORY_MACRO_MAX_COEC<0.013999] yes=57,no=58,missing=58,gain=4224.37,cover=1.09247e+06
					57:[D_TITLEMD5_C<5.038] yes=115,no=116,missing=116,gain=3555.56,cover=972221
						115:leaf=0.0122849,cover=96716.3
						116:leaf=0.03249,cover=875505
					58:[C_D_U_CATEGORY_CATEGORY_MICRO_MEAN_COEC<0.099999] yes=117,no=118,missing=118,gain=1239.64,cover=120250
						117:leaf=0.00413348,cover=85461.2
						118:leaf=0.026525,cover=34788.7
			14:[D_TITLEMD5_C<1.965] yes=29,no=30,missing=30,gain=3259.08,cover=580732
				29:[U_CITY_COEC<0.095999] yes=59,no=60,missing=59,gain=720.658,cover=39075.3
					59:[D_PUBLISHER_C<6.654] yes=119,no=120,missing=119,gain=663.752,cover=33898.5
						119:leaf=-0.0196908,cover=8576.46
						120:leaf=0.0124954,cover=25322.1
					60:[U_CITY_C<2.521] yes=121,no=122,missing=122,gain=70.7015,cover=5176.79
						121:leaf=-0.0315941,cover=118.927
						122:leaf=0.0462001,cover=5057.87
				30:[U_CATEGORY_MACRO_MAX_COEC<0.008999] yes=61,no=62,missing=62,gain=3062.17,cover=541657
					61:[D_TITLEMD5_COEC<0.168999] yes=123,no=124,missing=124,gain=1430.06,cover=336591
						123:leaf=0.0406938,cover=220236
						124:leaf=0.0544002,cover=116355
					62:[C_D_U_CATEGORY_CATEGORY_MICRO_MAX_COEC<0.100999] yes=125,no=126,missing=126,gain=1594.13,cover=205066
						125:leaf=0.0239563,cover=140553
						126:leaf=0.0429441,cover=64513.4
booster[21]:
0:[C_D_U_TITLEMD5_CATEGORY_MICRO_MAX_COEC<0.098999] yes=1,no=2,missing=1,gain=39933.5,cover=6.47579e+06
	1:[D_KEYWORD_MACRO_MEAN_COEC<0.051999] yes=3,no=4,missing=4,gain=15990.3,cover=4.36028e+06
		3:[D_KEYWORD_MACRO_MEAN_COEC<0.038999] yes=7,no=8,missing=8,gain=5133.38,cover=800031
			7:[C_D_U_CATEGORY_CATEGORY_MICRO_MEAN_COEC<0.031999] yes=15,no=16,missing=16,gain=1781.37,cover=181391
				15:[D_PUBLISHER_COEC<0.030999] yes=31,no=32,missing=32,gain=371.773,cover=19051.9
					31:[C_D_U_CATEGORY_CATEGORY_MEAN_EC<1.594] yes=63,no=64,missing=64,gain=173.523,cover=6863.49
						63:leaf=-0.0435644,cover=1994.01
						64:leaf=-0.0786268,cover=4869.49
					32:[D_KEYWORD_MAX_EC<669.742] yes=65,no=66,missing=66,gain=259.618,cover=12188.4
						65:leaf=-0.0443976,cover=10882.4
						66:leaf=0.00278683,cover=1305.91
				16:[U_CATEGORY_MAX_C<38.085] yes=33,no=34,missing=33,gain=1645.44,cover=162339
					33:[U_CITY_COEC<0.421999] yes=67,no=68,missing=67,gain=1167.45,cover=59936.4
						67:leaf=-0.00591651,cover=59190.7
						68:leaf=0.119912,cover=745.668
					34:[CAT_REL<0.061999] yes=69,no=70,missing=70,gain=1453.41,cover=102403
						69:leaf=-0.0344915,cover=63728.9
						70:leaf=-0.00991734,cover=38673.7
			8:[CAT_REL<0.054999] yes=17,no=18,missing=18,gain=3553.77,cover=618640
				17:[U_CATEGORY_MAX_EC<561.86] yes=35,no=36,missing=36,gain=3019.56,cover=426398
					35:[U_CITY_COEC<0.074999] yes=71,no=72,missing=72,gain=1670.55,cover=148420
						71:leaf=-0.00540389,cover=78165.3
						72:leaf=0.0158446,cover=70255
					36:[D_TITLEMD5_C<6.937] yes=73,no=74,missing=74,gain=2355.86,cover=277977
						73:leaf=-0.0207686,cover=162557
						74:leaf=-0.00208609,cover=115420
				18:[D_KEYWORD_MEAN_C<33.856] yes=37,no=38,missing=38,gain=2135.57,cover=192243
					37:[WORD_COUNT<1414] yes=75,no=76,missing=76,gain=1109.58,cover=90190.5
						75:leaf=0.00165919,cover=22804.5
						76:leaf=0.0271782,cover=67385.9
					38:[C_D_U_TITLEMD5_CATEGORY_MICRO_MAX_COEC<0.021999] yes=77,no=78,missing=77,gain=882.467,cover=102052
						77:leaf=-0.00619051,cover=73494.4
						78:leaf=0.0145235,cover=28557.7
		4:[CAT_REL<0.003999] yes=9,no=10,missing=10,gain=11987,cover=3.56024e+06
			9:[DOC_AGE<67] yes=19,no=20,missing=20,gain=6502.23,cover=1.65335e+06
				19:[C_D_U_TITLEMD5_CITY_C<0.931999] yes=39,no=40,missing=39,gain=4594.97,cover=1.19898e+06
					39:[D_TITLEMD5_COEC<0.129999] yes=79,no=80,missing=80,gain=3524.46,cover=1.0338e+06
						79:leaf=-0.00538707,cover=889126
						80:leaf=0.0114428,cover=144677
					40:[U_CATEGORY_MACRO_MAX_COEC<0.011999] yes=81,no=82,missing=81,gain=642.833,cover=165176
						81:leaf=0.0173196,cover=144044
						82:leaf=-0.00135718,cover=21132
				20:[D_TITLEMD5_C<46.509] yes=41,no=42,missing=41,gain=2805.6,cover=454368
					41:[U_CITY_COEC<0.025999] yes=83,no=84,missing=84,gain=1451.8,cover=158013
						83:leaf=-0.0448863,cover=6153.07
						84:leaf=0.00465854,cover=151860
					42:[DOC_AGE<112] yes=85,no=86,missing=86,gain=988.492,cover=296355
						85:leaf=0.0149125,cover=190168
						86:leaf=0.0269571,cover=106186
			10:[U_CATEGORY_MACRO_MAX_COEC<0.012999] yes=21,no=22,missing=21,gain=7125.2,cover=1.9069e+06
				21:[U_CITY_COEC<0.076999] yes=43,no=44,missing=43,gain=6067.94,cover=1.73047e+06
					43:[U_CATEGORY_MICRO_MAX_COEC<0.071999] yes=87,no=88,missing=88,gain=4016.97,cover=1.28876e+06
						87:leaf=0.00940241,cover=848658
						88:leaf=0.0211756,cover=440099
					44:[U_CITY_COEC<0.168999] yes=89,no=90,missing=90,gain=1943.81,cover=441713
						89:leaf=0.0249531,cover=403167
						90:leaf=0.0484584,cover=38546.1
				22:[D_CATEGORY_MICRO_MAX_COEC<0.072999] yes=45,no=46,missing=46,gain=1252.23,cover=176427
					45:[C_D_U_CATEGORY_CATEGORY_MICRO_MEAN_COEC<0.071999] yes=91,no=92,missing=91,gain=1253.92,cover=71121.1
						91:leaf=-0.00598923,cover=39046.4
						92:leaf=0.0206951,cover=32074.6
					46:[D_TITLEMD5_COEC<0.063999] yes=93,no=94,missing=94,gain=813.729,cover=105306
						93:leaf=-0.0240559,cover=33299.9
						94:leaf=-0.00515172,cover=72005.9
	2:[C_D_U_TITLEMD5_CATEGORY_MAX_C<0.038999] yes=5,no=6,missing=6,gain=11561.3,cover=2.11552e+06
		5:[U_CATEGORY_MAX_EC<1046.83] yes=11,no=12,missing=12,gain=5539.71,cover=705761
			11:[U_CITY_COEC<0.074999] yes=23,no=24,missing=23,gain=3838.4,cover=541897
				23:[C_D_U_TITLEMD5_CATEGORY_MAX_C<0.008999] yes=47,no=48,missing=48,gain=2093.87,cover=369432
					47:[D_PUBLISHER_COEC<0.063999] yes=95,no=96,missing=96,gain=1178.14,cover=117270
						95:leaf=-0.0108722,cover=48603
						96:leaf=0.00947403,cover=68666.7
					48:[U_CITY_C<34.068] yes=97,no=98,missing=98,gain=1410.6,cover=252162
						97:leaf=0.00284946,cover=53776.1
						98:leaf=0.0211091,cover=198386
				24:[U_CITY_COEC<0.168999] yes=49,no=50,missing=50,gain=1722.62,cover=172465
					49:[D_PUBLISHER_COEC<0.068999] yes=99,no=100,missing=99,gain=1180.6,cover=154700
						99:leaf=0.0156381,cover=59014.5
						100:leaf=0.0336229,cover=95685.1
					50:[U_CITY_C<6.387] yes=101,no=102,missing=102,gain=318.052,cover=17765.5
						101:leaf=0.0340969,cover=3828.19
						102:leaf=0.066654,cover=13937.3
			12:[D_TITLEMD5_COEC<0.152999] yes=25,no=26,missing=26,gain=1737.49,cover=163863
				25:[U_CITY_COEC<0.063999] yes=51,no=52,missing=52,gain=1398.61,cover=138316
					51:[C_D_U_TITLEMD5_CATEGORY_MACRO_MAX_COEC<0.023999] yes=103,no=104,missing=104,gain=452.645,cover=32767.5
						103:leaf=-0.0171274,cover=21522.5
						104:leaf=-0.0418839,cover=11245
					52:[U_CATEGORY_MAX_EC<1969.56] yes=105,no=106,missing=106,gain=843.828,cover=105549
						105:leaf=0.00350089,cover=76765.3
						106:leaf=-0.0165758,cover=28783.6
				26:[U_CATEGORY_MACRO_MAX_COEC<0.008999] yes=53,no=54,missing=54,gain=271.95,cover=25547
					53:[C_D_U_CATEGORY_CATEGORY_MICRO_MAX_COEC<0.045999] yes=107,no=108,missing=108,gain=219.096,cover=15202.8
						107:leaf=-0.038065,cover=466.9
						108:leaf=0.0314556,cover=14735.9
					54:[CAT_REL<0.078999] yes=109,no=110,missing=110,gain=169.612,cover=10344.2
						109:leaf=-0.00429819,cover=5256.79
						110:leaf=0.0213133,cover=5087.4
		6:[U_CATEGORY_MAX_EC<1227.07] yes=13,no=14,missing=14,gain=7212.85,cover=1.40976e+06
			13:[C_D_U_TITLEMD5_CATEGORY_MICRO_MAX_COEC<0.183999] yes=27,no=28,missing=28,gain=3419.19,cover=737757
				27:[U_CATEGORY_MACRO_MAX_COEC<0.007999] yes=55,no=56,missing=56,gain=1569.25,cover=522840
					55:[U_CITY_COEC<0.114999] yes=111,no=112,missing=111,gain=864.762,cover=330392
						111:leaf=0.0337479,cover=303156
						112:leaf=0.0523511,cover=27235.2
					56:[U_CATEGORY_MICRO_MAX_COEC<0.083999] yes=113,no=114,missing=114,gain=1635.77,cover=192448
						113:leaf=0.0169369,cover=122271
						114:leaf=0.0360911,cover=70177
				28:[U_CITY_COEC<0.102999] yes=57,no=58,missing=57,gain=825.324,cover=214917
					57:[U_CATEGORY_MICRO_MAX_COEC<0.085999] yes=115,no=116,missing=116,gain=715.942,cover=190762
						115:leaf=0.0399069,cover=134341
						116:leaf=0.0533319,cover=56421.5
					58:[U_CITY_C<6.445] yes=117,no=118,missing=118,gain=92.6463,cover=24154.6
						117:leaf=0.0526001,cover=5915.53
						118:leaf=0.0670322,cover=18239.1
			14:[U_CATEGORY_MACRO_MAX_COEC<0.016999] yes=29,no=30,missing=30,gain=3031.07,cover=671998
				29:[CAT_REL<0.067999] yes=59,no=60,missing=60,gain=2499.02,cover=556046
					59:[D_PUBLISHER_COEC<0.103999] yes=119,no=120,missing=120,gain=1808.03,cover=380230
						119:leaf=0.014493,cover=243792
						120:leaf=0.0288695,cover=136438
					60:[C_D_U_TITLEMD5_CATEGORY_MICRO_MAX_COEC<0.153999] yes=121,no=122,missing=122,gain=740.186,cover=175815
						121:leaf=0.0285869,cover=102587
						122:leaf=0.0417495,cover=73228.1
				30:[C_D_U_TITLEMD5_CATEGORY_MAX_C<0.293999] yes=61,no=62,missing=62,gain=1052.94,cover=115953
					61:[D_PUBLISHER_EC<14757] yes=123,no=124,missing=124,gain=634.966,cover=34772.1
						123:leaf=0.000776382,cover=24252.4
						124:leaf=-0.0286406,cover=10519.7
					62:[DOC_AGE<77] yes=125,no=126,missing=126,gain=665.523,cover=81180.6
						125:leaf=0.0088116,cover=68689.3
						126:leaf=0.0339045,cover=12491.2
booster[22]:
0:[C_D_U_CATEGORY_CATEGORY_MICRO_MEAN_COEC<0.077999] yes=1,no=2,missing=1,gain=35587.7,cover=6.42866e+06
	1:[D_TITLEMD5_C<12.784] yes=3,no=4,missing=3,gain=21526.5,cover=4.1864e+06
		3:[CAT_REL<0.047999] yes=7,no=8,missing=8,gain=9339.59,cover=1.38097e+06
			7:[U_CATEGORY_MACRO_MAX_COEC<0.003999] yes=15,no=16,missing=16,gain=5047.96,cover=904800
				15:[U_CITY_COEC<0.262999] yes=31,no=32,missing=31,gain=2171.87,cover=43524.3
					31:[U_CATEGORY_MAX_C<20.786] yes=63,no=64,missing=64,gain=954.45,cover=41686.5
						63:leaf=-0.000671025,cover=16630.5
						64:leaf=0.0302292,cover=25056
					32:[U_CITY_C<15.371] yes=65,no=66,missing=66,gain=49.8218,cover=1837.83
						65:leaf=-0.0323259,cover=18.5992
						66:leaf=0.130619,cover=1819.23
				16:[D_KEYWORD_MACRO_MEAN_COEC<0.041999] yes=33,no=34,missing=34,gain=4197.4,cover=861276
					33:[U_CITY_COEC<0.034999] yes=67,no=68,missing=68,gain=747.036,cover=122031
						67:leaf=-0.0560759,cover=9728.9
						68:leaf=-0.02719,cover=112302
					34:[U_CITY_COEC<0.092999] yes=69,no=70,missing=69,gain=3476.79,cover=739246
						69:leaf=-0.0118258,cover=661514
						70:leaf=0.0105313,cover=77731.4
			8:[U_CITY_COEC<0.077999] yes=17,no=18,missing=17,gain=2860.53,cover=476171
				17:[WORD_COUNT<1801] yes=35,no=36,missing=36,gain=2199.89,cover=372235
					35:[DOC_AGE<2] yes=71,no=72,missing=72,gain=1250.54,cover=140779
						71:leaf=0.0183345,cover=16783.1
						72:leaf=-0.0107504,cover=123996
					36:[D_KEYWORD_MEAN_C<31.642] yes=73,no=74,missing=73,gain=1275.32,cover=231456
						73:leaf=0.0180507,cover=87959.5
						74:leaf=0.00275815,cover=143496
				18:[U_CATEGORY_MAX_EC<1967.29] yes=37,no=38,missing=38,gain=1259.34,cover=103936
					37:[U_CITY_COEC<0.111999] yes=75,no=76,missing=76,gain=522.114,cover=74918.1
						75:leaf=0.0229138,cover=53548.4
						76:leaf=0.0414034,cover=21369.6
					38:[C_D_U_CATEGORY_CATEGORY_MICRO_MAX_COEC<0.050999] yes=77,no=78,missing=78,gain=684.855,cover=29017.9
						77:leaf=-0.0328958,cover=4356.61
						78:leaf=0.010108,cover=24661.3
		4:[U_CATEGORY_MACRO_MAX_COEC<0.006999] yes=9,no=10,missing=10,gain=12110.1,cover=2.80543e+06
			9:[CAT_REL<0.004999] yes=19,no=20,missing=20,gain=4696.26,cover=1.08484e+06
				19:[D_TITLEMD5_C<126.849] yes=39,no=40,missing=40,gain=2621.55,cover=485381
					39:[DOC_AGE<69] yes=79,no=80,missing=80,gain=1534.18,cover=272560
						79:leaf=0.000657473,cover=202898
						80:leaf=0.0178576,cover=69661.8
					40:[U_CATEGORY_MACRO_MAX_COEC<0.004999] yes=81,no=82,missing=82,gain=1124.77,cover=212822
						81:leaf=0.0319523,cover=56531.4
						82:leaf=0.0154921,cover=156291
				20:[D_TITLEMD5_COEC<0.120999] yes=41,no=42,missing=42,gain=2315.76,cover=599456
					41:[U_CATEGORY_MAX_EC<2414.98] yes=83,no=84,missing=84,gain=2210.09,cover=516644
						83:leaf=0.0242327,cover=474822
						84:leaf=0.000253556,cover=41821.9
					42:[D_TITLEMD5_COEC<0.169999] yes=85,no=86,missing=86,gain=534.055,cover=82811.7
						85:leaf=0.0363522,cover=66670.8
						86:leaf=0.0566272,cover=16140.9
			10:[D_TITLEMD5_COEC<0.090999] yes=21,no=22,missing=22,gain=6439.45,cover=1.72059e+06
				21:[DOC_AGE<73] yes=43,no=44,missing=44,gain=2580.03,cover=813143
					43:[CAT_REL<0.043999] yes=87,no=88,missing=88,gain=2256.67,cover=617514
						87:leaf=-0.00767032,cover=468753
						88:leaf=0.00646612,cover=148761
					44:[U_CITY_COEC<0.057999] yes=89,no=90,missing=89,gain=596.426,cover=195629
						89:leaf=0.00174256,cover=72817.1
						90:leaf=0.013165,cover=122812
				22:[D_TITLEMD5_COEC<0.181999] yes=45,no=46,missing=46,gain=3655.05,cover=907447
					45:[DOC_AGE<73] yes=91,no=92,missing=92,gain=3620.58,cover=858326
						91:leaf=0.00630006,cover=678717
						92:leaf=0.0222665,cover=179608
					46:[D_KEYWORD_MICRO_MAX_COEC<0.209999] yes=93,no=94,missing=94,gain=566.847,cover=49121.8
						93:leaf=0.0305448,cover=34064.7
						94:leaf=0.0538466,cover=15057.1
	2:[D_TITLEMD5_COEC<0.102999] yes=5,no=6,missing=5,gain=13052,cover=2.24226e+06
		5:[U_CITY_COEC<0.063999] yes=11,no=12,missing=12,gain=5846.97,cover=1.4413e+06
			11:[C_D_U_TITLEMD5_CITY_EC<76.269] yes=23,no=24,missing=24,gain=1602.35,cover=304529
				23:[U_CATEGORY_MACRO_MAX_COEC<0.014999] yes=47,no=48,missing=48,gain=462.818,cover=79543
					47:[U_CATEGORY_MICRO_MAX_COEC<0.079999] yes=95,no=96,missing=96,gain=401.092,cover=72514.9
						95:leaf=0.0129022,cover=50916.5
						96:leaf=0.0291654,cover=21598.4
					48:[CAT_REL<0.068999] yes=97,no=98,missing=98,gain=262.881,cover=7028.13
						97:leaf=-0.0275453,cover=3685.26
						98:leaf=0.011176,cover=3342.87
				24:[DOC_AGE<3] yes=49,no=50,missing=50,gain=1509.23,cover=224986
					49:[D_KEYWORD_MACRO_MEAN_COEC<0.054999] yes=99,no=100,missing=99,gain=506.246,cover=23043.1
						99:leaf=0.001961,cover=7592.8
						100:leaf=0.0334951,cover=15450.3
					50:[CAT_REL<0.030999] yes=101,no=102,missing=102,gain=1265.35,cover=201943
						101:leaf=-0.0122169,cover=96071.3
						102:leaf=0.00363308,cover=105872
			12:[C_D_U_CATEGORY_CATEGORY_MICRO_MAX_COEC<0.104999] yes=25,no=26,missing=26,gain=3517.43,cover=1.13677e+06
				25:[D_TITLEMD5_COEC<0.058999] yes=51,no=52,missing=52,gain=2600.2,cover=815558
					51:[D_CATEGORY_MICRO_MEAN_COEC<0.082999] yes=103,no=104,missing=104,gain=1167.15,cover=277436
						103:leaf=0.0105648,cover=224629
						104:leaf=-0.0059574,cover=52806.1
					52:[C_D_U_CATEGORY_CATEGORY_MACRO_MEAN_COEC<0.007999] yes=105,no=106,missing=106,gain=1681.33,cover=538123
						105:leaf=0.0262058,cover=214434
						106:leaf=0.0147886,cover=323689
				26:[U_CATEGORY_MAX_EC<581.795] yes=53,no=54,missing=54,gain=1154.19,cover=321210
					53:[U_CITY_COEC<0.262999] yes=107,no=108,missing=107,gain=700.739,cover=160953
						107:leaf=0.0327461,cover=158182
						108:leaf=0.0834605,cover=2771.75
					54:[CAT_REL<0.080999] yes=109,no=110,missing=110,gain=1893.86,cover=160257
						109:leaf=0.0130808,cover=99012.1
						110:leaf=0.0354529,cover=61244.8
		6:[CAT_REL<0.001999] yes=13,no=14,missing=14,gain=2990.02,cover=800967
			13:[C_D_U_CATEGORY_CATEGORY_MACRO_MAX_COEC<0.009999] yes=27,no=28,missing=28,gain=1633.57,cover=281259
				27:[U_CITY_COEC<0.068999] yes=55,no=56,missing=56,gain=708.663,cover=171058
					55:[D_TITLEMD5_C<204.163] yes=111,no=112,missing=112,gain=347.458,cover=54108.9
						111:leaf=0.009208,cover=19820.5
						112:leaf=0.025841,cover=34288.4
					56:[D_TITLEMD5_COEC<0.159999] yes=113,no=114,missing=114,gain=420.519,cover=116949
						113:leaf=0.0304285,cover=91521.4
						114:leaf=0.0449672,cover=25427.9
				28:[U_CATEGORY_MICRO_MAX_COEC<0.075999] yes=57,no=58,missing=58,gain=823.232,cover=110200
					57:[C_D_U_TITLEMD5_CATEGORY_MAX_C<0.261999] yes=115,no=116,missing=115,gain=518.399,cover=65696.3
						115:leaf=-0.00571847,cover=22751.4
						116:leaf=0.0129512,cover=42944.9
					58:[C_D_U_TITLEMD5_CATEGORY_MICRO_MAX_COEC<0.244999] yes=117,no=118,missing=117,gain=431.843,cover=44504.1
						117:leaf=0.0196112,cover=36852.5
						118:leaf=0.0457182,cover=7651.6
			14:[D_TITLEMD5_C<4.955] yes=29,no=30,missing=30,gain=1793.9,cover=519709
				29:[U_CITY_COEC<0.034999] yes=59,no=60,missing=60,gain=558.736,cover=53423.2
					59:[U_CITY_EC<184.842] yes=119,no=120,missing=120,gain=494.459,cover=2324.05
						119:leaf=0.0211316,cover=1055.93
						120:leaf=-0.0714742,cover=1268.11
					60:[D_PUBLISHER_C<6.58] yes=121,no=122,missing=121,gain=399.817,cover=51099.2
						121:leaf=0.00420834,cover=11396.9
						122:leaf=0.0254576,cover=39702.2
				30:[D_TITLEMD5_COEC<0.153999] yes=61,no=62,missing=62,gain=1921.18,cover=466285
					61:[U_CATEGORY_MAX_EC<753.832] yes=123,no=124,missing=124,gain=1130.61,cover=361874
						123:leaf=0.0404324,cover=168241
						124:leaf=0.0292251,cover=193633
					62:[U_CATEGORY_MACRO_MAX_COEC<0.008999] yes=125,no=126,missing=126,gain=661.957,cover=104411
						125:leaf=0.0559783,cover=65446.2
						126:leaf=0.0395124,cover=38964.7
booster[23]:
0:[D_KEYWORD_MACRO_MEAN_COEC<0.064999] yes=1,no=2,missing=1,gain=32922,cover=6.38234e+06
	1:[U_CITY_COEC<0.074999] yes=3,no=4,missing=3,gain=11313,cover=2.72293e+06
		3:[C_D_U_TITLEMD5_CATEGORY_MICRO_MAX_COEC<0.021999] yes=7,no=8,missing=7,gain=8132.68,cover=1.9799e+06
			7:[DOC_AGE<2] yes=15,no=16,missing=16,gain=5574.54,cover=1.04068e+06
				15:[U_CATEGORY_MAX_EC<2056.94] yes=31,no=32,missing=31,gain=1107.89,cover=135460
					31:[CAT_REL<0.064999] yes=63,no=64,missing=64,gain=1109.18,cover=112062
						63:leaf=0.00973561,cover=90694.1
						64:leaf=0.0350608,cover=21368.3
					32:[TIME_OF_DAY<0.999999] yes=65,no=66,missing=66,gain=351.238,cover=23397.4
						65:leaf=-0.0593055,cover=1327.07
						66:leaf=-0.00635333,cover=22070.3
				16:[U_CITY_COEC<0.025999] yes=33,no=34,missing=34,gain=3607.65,cover=905219
					33:[U_CITY_EC<82.354] yes=67,no=68,missing=68,gain=3060.31,cover=52068.2
						67:leaf=-0.00505047,cover=19122.7
						68:leaf=-0.0553422,cover=32945.5
					34:[U_CATEGORY_MAX_EC<596.849] yes=69,no=70,missing=70,gain=3252.66,cover=853150
						69:leaf=-0.00120858,cover=292423
						70:leaf=-0.0142178,cover=560727
			8:[U_CITY_COEC<0.038999] yes=17,no=18,missing=18,gain=3381.57,cover=939218
				17:[U_CITY_EC<40.409] yes=35,no=36,missing=36,gain=746.045,cover=76401.9
					35:[D_KEYWORD_MAX_C<111.56] yes=71,no=72,missing=72,gain=331.89,cover=20869.8
						71:leaf=0.00307394,cover=19909.3
						72:leaf=-0.0570802,cover=960.491
					36:[U_CITY_COEC<0.017999] yes=73,no=74,missing=74,gain=1052.03,cover=55532.1
						73:leaf=-0.0533729,cover=8902.46
						74:leaf=-0.0158593,cover=46629.7
				18:[CAT_REL<0.036999] yes=37,no=38,missing=38,gain=2927.46,cover=862816
					37:[C_D_U_TITLEMD5_CATEGORY_MACRO_MAX_COEC<0.012999] yes=75,no=76,missing=76,gain=2843.42,cover=511576
						75:leaf=0.00528069,cover=398389
						76:leaf=-0.0126799,cover=113187
					38:[U_CATEGORY_MAX_C<128.363] yes=77,no=78,missing=78,gain=1632.68,cover=351240
						77:leaf=0.0176014,cover=246697
						78:leaf=0.00268977,cover=104543
		4:[U_CITY_COEC<0.160999] yes=9,no=10,missing=10,gain=4278.94,cover=743034
			9:[U_CATEGORY_MAX_EC<1976.66] yes=19,no=20,missing=20,gain=3309.33,cover=680943
				19:[D_PUBLISHER_COEC<0.047999] yes=39,no=40,missing=39,gain=2121.21,cover=523740
					39:[CAT_REL<0.058999] yes=79,no=80,missing=80,gain=1152.86,cover=133681
						79:leaf=-0.0028328,cover=98391.6
						80:leaf=0.0182348,cover=35289.8
					40:[CAT_REL<0.045999] yes=81,no=82,missing=82,gain=1413.67,cover=390059
						81:leaf=0.0133411,cover=271253
						82:leaf=0.0264219,cover=118806
				20:[C_D_U_TITLEMD5_CATEGORY_MAX_C<0.035999] yes=41,no=42,missing=41,gain=1313.83,cover=157203
					41:[D_PUBLISHER_EC<8415.52] yes=83,no=84,missing=83,gain=831.389,cover=103651
						83:leaf=-0.00219864,cover=62163.4
						84:leaf=-0.020478,cover=41487.4
					42:[D_PUBLISHER_EC<994.483] yes=85,no=86,missing=86,gain=759.532,cover=53552.2
						85:leaf=0.0399942,cover=7197.9
						86:leaf=0.00508095,cover=46354.3
			10:[U_CITY_C<8.784] yes=21,no=22,missing=22,gain=1681.93,cover=62090.6
				21:[D_PUBLISHER_COEC<0.034999] yes=43,no=44,missing=43,gain=370.618,cover=22793.3
					43:[D_KEYWORD_MACRO_MEAN_COEC<0.044999] yes=87,no=88,missing=87,gain=186.779,cover=1672.09
						87:leaf=-0.0789295,cover=526.893
						88:leaf=-0.00702541,cover=1145.2
					44:[U_CITY_C<0.927999] yes=89,no=90,missing=90,gain=277.425,cover=21121.2
						89:leaf=-0.0186591,cover=1774.18
						90:leaf=0.0226496,cover=19347
				22:[U_CITY_COEC<0.373999] yes=45,no=46,missing=46,gain=1462.18,cover=39297.3
					45:[U_CATEGORY_MAX_C<79.355] yes=91,no=92,missing=92,gain=247.293,cover=34591.4
						91:leaf=0.0478256,cover=25085.2
						92:leaf=0.0288796,cover=9506.17
					46:[U_CATEGORY_MAX_EC<255.933] yes=93,no=94,missing=94,gain=269.731,cover=4705.92
						93:leaf=0.121441,cover=2841.13
						94:leaf=0.0724108,cover=1864.79
	2:[U_CATEGORY_MICRO_MAX_COEC<0.071999] yes=5,no=6,missing=5,gain=16002,cover=3.65941e+06
		5:[U_CATEGORY_MACRO_MAX_COEC<0.005999] yes=11,no=12,missing=12,gain=9855.51,cover=2.38765e+06
			11:[D_TITLEMD5_COEC<0.115999] yes=23,no=24,missing=24,gain=3154,cover=573798
				23:[CAT_REL<0.025999] yes=47,no=48,missing=48,gain=2262.75,cover=394980
					47:[U_CITY_COEC<0.065999] yes=95,no=96,missing=96,gain=1382.52,cover=274985
						95:leaf=0.00124675,cover=76386.4
						96:leaf=0.0170772,cover=198599
					48:[C_D_U_CATEGORY_CATEGORY_MICRO_MEAN_COEC<0.047999] yes=97,no=98,missing=97,gain=543.298,cover=119995
						97:leaf=0.0064399,cover=9694.37
						98:leaf=0.0311324,cover=110301
				24:[CAT_REL<0.017999] yes=49,no=50,missing=50,gain=876.93,cover=178817
					49:[U_CITY_COEC<0.070999] yes=99,no=100,missing=100,gain=788.312,cover=113128
						99:leaf=0.0182854,cover=46107.4
						100:leaf=0.0352742,cover=67020.9
					50:[D_KEYWORD_MEAN_C<55.09] yes=101,no=102,missing=102,gain=420.754,cover=65689.2
						101:leaf=0.0271681,cover=13540.9
						102:leaf=0.046956,cover=52148.3
			12:[D_PUBLISHER_COEC<0.127999] yes=25,no=26,missing=25,gain=5827.64,cover=1.81385e+06
				25:[CAT_REL<0.045999] yes=51,no=52,missing=52,gain=5096.22,cover=1.64929e+06
					51:[D_TITLEMD5_EC<3397.53] yes=103,no=104,missing=104,gain=4020.42,cover=1.27006e+06
						103:leaf=-0.000838941,cover=894902
						104:leaf=0.0114936,cover=375154
					52:[D_CATEGORY_MICRO_MAX_COEC<0.072999] yes=105,no=106,missing=106,gain=1787.21,cover=379231
						105:leaf=0.0240894,cover=159092
						106:leaf=0.0101781,cover=220139
				26:[D_KEYWORD_MICRO_MAX_COEC<0.208999] yes=53,no=54,missing=54,gain=1102.5,cover=164563
					53:[WORD_COUNT<1889] yes=107,no=108,missing=108,gain=613.164,cover=149937
						107:leaf=0.0166393,cover=75146.3
						108:leaf=0.0294296,cover=74790.7
					54:[D_PUBLISHER_C<6.458] yes=109,no=110,missing=110,gain=403.853,cover=14626.2
						109:leaf=-0.0445794,cover=421.668
						110:leaf=0.054646,cover=14204.5
		6:[U_CATEGORY_MACRO_MAX_COEC<0.010999] yes=13,no=14,missing=14,gain=4503.62,cover=1.27177e+06
			13:[D_TITLEMD5_COEC<0.120999] yes=27,no=28,missing=28,gain=3385.33,cover=984072
				27:[CAT_REL<0.027999] yes=55,no=56,missing=56,gain=2480.77,cover=700632
					55:[U_CITY_COEC<0.053999] yes=111,no=112,missing=112,gain=1538.49,cover=449476
						111:leaf=0.0028682,cover=46115.3
						112:leaf=0.0221494,cover=403361
					56:[C_D_U_CATEGORY_CATEGORY_MICRO_MEAN_COEC<0.112999] yes=113,no=114,missing=114,gain=823.876,cover=251156
						113:leaf=0.0297715,cover=202492
						114:leaf=0.0442632,cover=48663.9
				28:[C_D_U_CATEGORY_CATEGORY_MICRO_MAX_COEC<0.113999] yes=57,no=58,missing=58,gain=1050.55,cover=283441
					57:[U_CITY_COEC<0.074999] yes=115,no=116,missing=115,gain=887.858,cover=223460
						115:leaf=0.0300653,cover=151343
						116:leaf=0.0435486,cover=72117.1
					58:[C_D_U_TITLEMD5_CATEGORY_MICRO_MAX_COEC<0.266999] yes=117,no=118,missing=117,gain=193.186,cover=59981.1
						117:leaf=0.0457799,cover=43181.1
						118:leaf=0.058426,cover=16800
			14:[C_D_U_TITLEMD5_CATEGORY_MAX_C<0.166999] yes=29,no=30,missing=29,gain=1947.83,cover=287693
				29:[CAT_REL<0.031999] yes=59,no=60,missing=60,gain=1188.83,cover=149725
					59:[U_CATEGORY_MICRO_MAX_COEC<0.088999] yes=119,no=120,missing=120,gain=743.504,cover=81651.5
						119:leaf=-0.00704633,cover=63301.3
						120:leaf=0.0158142,cover=18350.2
					60:[U_CATEGORY_MACRO_MAX_COEC<0.014999] yes=121,no=122,missing=122,gain=696.966,cover=68073.6
						121:leaf=0.0224137,cover=48503.2
						122:leaf=5.69869e-05,cover=19570.4
				30:[U_CATEGORY_MACRO_MAX_COEC<0.021999] yes=61,no=62,missing=62,gain=1112.17,cover=137968
					61:[U_CATEGORY_MICRO_MAX_COEC<0.085999] yes=123,no=124,missing=124,gain=711.717,cover=115801
						123:leaf=0.0221124,cover=86975.8
						124:leaf=0.0402441,cover=28825.6
					62:[D_PUBLISHER_EC<10651.2] yes=125,no=126,missing=126,gain=600.588,cover=22166.6
						125:leaf=0.0202896,cover=10025.5
						126:leaf=-0.0127806,cover=12141.1
booster[24]:
0:[D_PUBLISHER_COEC<0.075999] yes=1,no=2,missing=1,gain=28826.5,cover=6.35335e+06
	1:[C_D_U_CATEGORY_CATEGORY_MICRO_MEAN_COEC<0.058999] yes=3,no=4,missing=3,gain=13920.7,cover=3.66494e+06
		3:[D_TITLEMD5_C<4.916] yes=7,no=8,missing=8,gain=4133.79,cover=1.25453e+06
			7:[C_D_U_CATEGORY_CATEGORY_MICRO_MEAN_COEC<0.031999] yes=15,no=16,missing=16,gain=2280.54,cover=391080
				15:[D_PUBLISHER_COEC<0.036999] yes=31,no=32,missing=31,gain=743.488,cover=36165.6
					31:[U_CATEGORY_MICRO_MAX_COEC<0.077999] yes=63,no=64,missing=64,gain=297.922,cover=13421.2
						63:leaf=-0.0608155,cover=12302.3
						64:leaf=-0.00691448,cover=1118.97
					32:[DOC_AGE<80] yes=65,no=66,missing=66,gain=428.017,cover=22744.3
						65:leaf=-0.0315488,cover=20163.8
						66:leaf=0.0117012,cover=2580.55
				16:[CAT_REL<0.064999] yes=33,no=34,missing=34,gain=2286.77,cover=354915
					33:[U_CATEGORY_MACRO_MAX_COEC<0.003999] yes=67,no=68,missing=68,gain=1911.39,cover=281633
						67:leaf=0.0213665,cover=13468.4
						68:leaf=-0.0172386,cover=268165
					34:[D_CATEGORY_MAX_C<359.213] yes=69,no=70,missing=70,gain=1322.43,cover=73281.1
						69:leaf=0.0326003,cover=13582.4
						70:leaf=-0.00196959,cover=59698.7
			8:[U_CATEGORY_MACRO_MAX_COEC<0.004999] yes=17,no=18,missing=18,gain=2702.45,cover=863452
				17:[D_TITLEMD5_EC<1084.67] yes=35,no=36,missing=35,gain=605.354,cover=107127
					35:[U_CITY_COEC<0.074999] yes=71,no=72,missing=72,gain=616.208,cover=74094.8
						71:leaf=0.00018546,cover=40449.7
						72:leaf=0.0185017,cover=33645.1
					36:[WORD_COUNT<2658] yes=73,no=74,missing=74,gain=286.724,cover=33031.8
						73:leaf=0.0161989,cover=17873.4
						74:leaf=0.0348971,cover=15158.5
				18:[CAT_REL<0.054999] yes=37,no=38,missing=38,gain=2392.28,cover=756325
					37:[DOC_AGE<70] yes=75,no=76,missing=76,gain=2104.25,cover=647589
						75:leaf=-0.00890563,cover=495905
						76:leaf=0.00455388,cover=151683
					38:[U_CATEGORY_MAX_EC<3661.66] yes=77,no=78,missing=77,gain=1064.9,cover=108737
						77:leaf=0.0148027,cover=89925.6
						78:leaf=-0.0113603,cover=18811
		4:[D_TITLEMD5_COEC<0.041999] yes=9,no=10,missing=10,gain=8109.59,cover=2.41041e+06
			9:[CAT_REL<0.079999] yes=19,no=20,missing=20,gain=2491.66,cover=525544
				19:[U_CATEGORY_MACRO_MAX_COEC<0.007999] yes=39,no=40,missing=40,gain=2768.28,cover=395437
					39:[DOC_AGE<2] yes=79,no=80,missing=80,gain=2010.62,cover=278766
						79:leaf=0.0217921,cover=32127.1
						80:leaf=-0.0048037,cover=246638
					40:[U_CATEGORY_MAX_EC<669.112] yes=81,no=82,missing=82,gain=1315.57,cover=116672
						81:leaf=-0.00123985,cover=28118
						82:leaf=-0.026068,cover=88553.7
				20:[D_CATEGORY_MACRO_MEAN_COEC<0.069999] yes=41,no=42,missing=42,gain=1986.86,cover=130106
					41:[WORD_COUNT<3044] yes=83,no=84,missing=84,gain=726.615,cover=86272.4
						83:leaf=0.0108957,cover=56192.2
						84:leaf=0.0301538,cover=30080.2
					42:[C_D_U_CATEGORY_CATEGORY_MICRO_MEAN_COEC<0.089999] yes=85,no=86,missing=86,gain=1184.55,cover=43833.9
						85:leaf=-0.0231925,cover=24418.1
						86:leaf=0.00990076,cover=19415.7
			10:[U_CITY_COEC<0.092999] yes=21,no=22,missing=21,gain=5406.85,cover=1.88487e+06
				21:[U_CATEGORY_MACRO_MAX_COEC<0.007999] yes=43,no=44,missing=44,gain=4140.34,cover=1.65969e+06
					43:[CAT_REL<0.028999] yes=87,no=88,missing=88,gain=3242.78,cover=955528
						87:leaf=0.00837807,cover=570827
						88:leaf=0.0202567,cover=384701
					44:[CAT_REL<0.069999] yes=89,no=90,missing=90,gain=3319.56,cover=704161
						89:leaf=-0.00202095,cover=455336
						90:leaf=0.0123426,cover=248825
				22:[U_CITY_COEC<0.159999] yes=45,no=46,missing=46,gain=1371.16,cover=225179
					45:[U_CITY_C<3.464] yes=91,no=92,missing=92,gain=521.255,cover=176095
						91:leaf=0.00151449,cover=12419
						92:leaf=0.0227648,cover=163676
					46:[U_CITY_C<8.857] yes=93,no=94,missing=94,gain=925.954,cover=49084.2
						93:leaf=0.0228038,cover=18895.2
						94:leaf=0.0510327,cover=30189
	2:[CAT_REL<0.000999] yes=5,no=6,missing=6,gain=11442.7,cover=2.6884e+06
		5:[D_TITLEMD5_COEC<0.157999] yes=11,no=12,missing=12,gain=3523.24,cover=1.22703e+06
			11:[DOC_AGE<31] yes=23,no=24,missing=24,gain=3432.51,cover=1.06706e+06
				23:[U_CATEGORY_MACRO_MAX_COEC<0.010999] yes=47,no=48,missing=48,gain=2848.04,cover=492112
					47:[D_KEYWORD_MACRO_MAX_COEC<0.015999] yes=95,no=96,missing=96,gain=1190.78,cover=291676
						95:leaf=-0.000864988,cover=100438
						96:leaf=0.0125821,cover=191239
					48:[D_PUBLISHER_EC<5661.36] yes=97,no=98,missing=98,gain=2041.21,cover=200436
						97:leaf=0.00804073,cover=59278.7
						98:leaf=-0.0140713,cover=141158
				24:[U_CITY_COEC<0.067999] yes=49,no=50,missing=49,gain=1729.93,cover=574949
					49:[D_TITLEMD5_C<240.621] yes=99,no=100,missing=100,gain=990.783,cover=304449
						99:leaf=0.00238881,cover=158790
						100:leaf=0.0138088,cover=145659
					50:[U_CITY_COEC<0.146999] yes=101,no=102,missing=102,gain=986.548,cover=270500
						101:leaf=0.0171959,cover=251788
						102:leaf=0.0409954,cover=18711.5
			12:[D_TITLEMD5_C<1.96] yes=25,no=26,missing=26,gain=872.957,cover=159968
				25:[D_PUBLISHER_C<158.63] yes=51,no=52,missing=52,gain=252.84,cover=2090.62
					51:[D_CATEGORY_MEAN_EC<39876.2] yes=103,no=104,missing=104,gain=300.228,cover=1155.61
						103:leaf=-0.125316,cover=548.434
						104:leaf=-0.0232442,cover=607.177
					52:[C_D_U_TITLEMD5_CATEGORY_MAX_EC<0.015999] yes=105,no=106,missing=105,gain=178.778,cover=935.008
						105:leaf=0.00535354,cover=911.41
						106:leaf=-0.267849,cover=23.598
				26:[D_KEYWORD_MICRO_MAX_COEC<0.193999] yes=53,no=54,missing=53,gain=891.501,cover=157877
					53:[C_D_U_CATEGORY_CATEGORY_MAX_EC<24.376] yes=107,no=108,missing=108,gain=652.448,cover=126207
						107:leaf=0.0284065,cover=59353.1
						108:leaf=0.0140006,cover=66853.7
					54:[D_CATEGORY_MACRO_MAX_COEC<0.045999] yes=109,no=110,missing=110,gain=492.639,cover=31670.3
						109:leaf=0.0525988,cover=15109.6
						110:leaf=0.0276253,cover=16560.8
		6:[D_TITLEMD5_COEC<0.120999] yes=13,no=14,missing=14,gain=6380.37,cover=1.46137e+06
			13:[U_CITY_COEC<0.046999] yes=27,no=28,missing=28,gain=3365.75,cover=988254
				27:[U_CITY_COEC<0.025999] yes=55,no=56,missing=56,gain=375.863,cover=79535.9
					55:[U_CITY_EC<17.583] yes=111,no=112,missing=112,gain=466.606,cover=25381.5
						111:leaf=0.00744611,cover=8662.13
						112:leaf=-0.0211493,cover=16719.4
					56:[U_CATEGORY_MACRO_MAX_COEC<0.015999] yes=113,no=114,missing=114,gain=343.926,cover=54154.4
						113:leaf=0.00525837,cover=51238
						114:leaf=-0.0300405,cover=2916.38
				28:[U_CATEGORY_MICRO_MAX_COEC<0.077999] yes=57,no=58,missing=58,gain=2344.39,cover=908718
					57:[U_CATEGORY_MACRO_MAX_COEC<0.006999] yes=115,no=116,missing=116,gain=2172.21,cover=685662
						115:leaf=0.0231372,cover=324895
						116:leaf=0.0118647,cover=360767
					58:[U_CATEGORY_MAX_EC<687.658] yes=117,no=118,missing=118,gain=835.129,cover=223055
						117:leaf=0.0336606,cover=141353
						118:leaf=0.0209597,cover=81702.3
			14:[D_PUBLISHER_C<3.927] yes=29,no=30,missing=30,gain=2153.88,cover=473119
				29:[D_TITLEMD5_C<0.994999] yes=59,no=60,missing=60,gain=288.005,cover=9462.21
					59:[C_D_U_CATEGORY_CATEGORY_MICRO_MAX_COEC<0.110999] yes=119,no=120,missing=120,gain=288.523,cover=2662.94
						119:leaf=-0.0571344,cover=2228.4
						120:leaf=0.0318798,cover=434.546
					60:[CAT_REL<0.017999] yes=121,no=122,missing=122,gain=284.201,cover=6799.27
						121:leaf=-0.0605367,cover=780.694
						122:leaf=0.00355583,cover=6018.57
				30:[D_TITLEMD5_COEC<0.168999] yes=61,no=62,missing=61,gain=1620.46,cover=463657
					61:[C_D_U_CATEGORY_CATEGORY_MICRO_MEAN_COEC<0.088999] yes=123,no=124,missing=124,gain=1306.96,cover=354078
						123:leaf=0.0256098,cover=226376
						124:leaf=0.0382624,cover=127702
					62:[U_CATEGORY_MACRO_MAX_COEC<0.007999] yes=125,no=126,missing=126,gain=565.076,cover=109579
						125:leaf=0.0505794,cover=60319.3
						126:leaf=0.0361412,cover=49259.5
booster[25]:
0:[D_PUBLISHER_COEC<0.066999] yes=1,no=2,missing=2,gain=25216.8,cover=6.30449e+06
	1:[U_CITY_COEC<0.045999] yes=3,no=4,missing=4,gain=8423.82,cover=2.56202e+06
		3:[U_CITY_COEC<0.024999] yes=7,no=8,missing=8,gain=1634.96,cover=261478
			7:[U_CITY_EC<79.854] yes=15,no=16,missing=16,gain=3690.65,cover=85971.5
				15:[CAT_REL<0.078999] yes=31,no=32,missing=32,gain=384.774,cover=41408.3
					31:[U_CATEGORY_MAX_EC<686.649] yes=63,no=64,missing=64,gain=346.093,cover=33198.7
						63:leaf=0.0065191,cover=8237.76
						64:leaf=-0.0171188,cover=24960.9
					32:[D_PUBLISHER_C<3403.17] yes=65,no=66,missing=66,gain=301.839,cover=8209.63
						65:leaf=0.017339,cover=7796.8
						66:leaf=-0.070304,cover=412.83
				16:[U_CITY_COEC<0.017999] yes=33,no=34,missing=34,gain=721.626,cover=44563.2
					33:[C_D_U_TITLEMD5_CATEGORY_MAX_EC<0.325999] yes=67,no=68,missing=67,gain=486.779,cover=21767
						67:leaf=-0.0671262,cover=18594.8
						68:leaf=-0.024733,cover=3172.18
					34:[C_D_U_CATEGORY_CATEGORY_MAX_C<0.545999] yes=69,no=70,missing=69,gain=358.479,cover=22796.2
						69:leaf=-0.0509919,cover=9016.15
						70:leaf=-0.0253421,cover=13780
			8:[D_KEYWORD_MACRO_MEAN_COEC<0.044999] yes=17,no=18,missing=17,gain=757.516,cover=175507
				17:[WORD_COUNT<3690] yes=35,no=36,missing=36,gain=362.175,cover=28187.9
					35:[C_D_U_CATEGORY_CATEGORY_MICRO_MEAN_COEC<0.043999] yes=71,no=72,missing=72,gain=271.682,cover=21017.6
						71:leaf=-0.0541915,cover=4616.31
						72:leaf=-0.0267263,cover=16401.3
					36:[CAT_REL<0.023999] yes=73,no=74,missing=74,gain=332.862,cover=7170.33
						73:leaf=-0.033856,cover=2773.31
						74:leaf=0.0103783,cover=4397.02
				18:[DOC_AGE<2] yes=37,no=38,missing=38,gain=858.721,cover=147319
					37:[U_CATEGORY_MACRO_MAX_COEC<0.008999] yes=75,no=76,missing=75,gain=198.549,cover=11364.4
						75:leaf=0.0265662,cover=8090.17
						76:leaf=-0.00261846,cover=3274.22
					38:[U_CATEGORY_MAX_EC<413.879] yes=77,no=78,missing=78,gain=548.002,cover=135954
						77:leaf=0.0041276,cover=21662.9
						78:leaf=-0.0132192,cover=114291
		4:[C_D_U_CATEGORY_CATEGORY_MICRO_MAX_COEC<0.063999] yes=9,no=10,missing=9,gain=7384.23,cover=2.30054e+06
			9:[U_CITY_COEC<0.131999] yes=19,no=20,missing=19,gain=2701.11,cover=890630
				19:[CAT_REL<0.054999] yes=39,no=40,missing=40,gain=2247.69,cover=855623
					39:[U_CATEGORY_MACRO_MAX_COEC<0.005999] yes=79,no=80,missing=79,gain=2479.68,cover=683705
						79:leaf=-0.0028263,cover=360596
						80:leaf=-0.0148891,cover=323108
					40:[U_CATEGORY_MACRO_MAX_COEC<0.010999] yes=81,no=82,missing=82,gain=2090.94,cover=171918
						81:leaf=0.0103931,cover=131351
						82:leaf=-0.0155799,cover=40567.2
				20:[U_CITY_C<163.476] yes=41,no=42,missing=42,gain=710.664,cover=35006.9
					41:[CAT_REL<0.277999] yes=83,no=84,missing=84,gain=511.178,cover=33798.2
						83:leaf=0.0203316,cover=33706.3
						84:leaf=-0.214636,cover=91.8502
					42:[U_CATEGORY_MAX_C<77.863] yes=85,no=86,missing=85,gain=391.383,cover=1208.69
						85:leaf=0.106502,cover=1180.89
						86:leaf=-0.267037,cover=27.8035
			10:[D_TITLEMD5_COEC<0.030999] yes=21,no=22,missing=22,gain=4004.89,cover=1.40991e+06
				21:[D_TITLEMD5_EC<9.205] yes=43,no=44,missing=44,gain=2547.79,cover=283509
					43:[C_D_U_TITLEMD5_CATEGORY_MICRO_MAX_COEC<0.056999] yes=87,no=88,missing=88,gain=1212.49,cover=118252
						87:leaf=0.0172497,cover=60588.7
						88:leaf=-0.00300815,cover=57663.7
					44:[D_PUBLISHER_EC<691.555] yes=89,no=90,missing=90,gain=1931.46,cover=165257
						89:leaf=0.00304696,cover=56988.4
						90:leaf=-0.0196976,cover=108268
				22:[U_CITY_COEC<0.117999] yes=45,no=46,missing=45,gain=2927.75,cover=1.1264e+06
					45:[CAT_REL<0.021999] yes=91,no=92,missing=92,gain=2566.59,cover=1.05217e+06
						91:leaf=0.00240493,cover=450935
						92:leaf=0.0123852,cover=601233
					46:[U_CITY_C<8.636] yes=93,no=94,missing=94,gain=551.843,cover=74231.2
						93:leaf=0.0151745,cover=21550.5
						94:leaf=0.0341708,cover=52680.7
	2:[U_CATEGORY_MICRO_MAX_COEC<0.071999] yes=5,no=6,missing=5,gain=12924.1,cover=3.74247e+06
		5:[U_CITY_COEC<0.076999] yes=11,no=12,missing=11,gain=7077.19,cover=2.43147e+06
			11:[CAT_REL<0.027999] yes=23,no=24,missing=24,gain=4820.59,cover=1.84509e+06
				23:[D_TITLEMD5_C<141.692] yes=47,no=48,missing=47,gain=5438.18,cover=1.30763e+06
					47:[U_CITY_COEC<0.043999] yes=95,no=96,missing=96,gain=2490.76,cover=633354
						95:leaf=-0.0210394,cover=76013.5
						96:leaf=-0.00174273,cover=557341
					48:[U_CATEGORY_MACRO_MAX_COEC<0.004999] yes=97,no=98,missing=98,gain=2084.03,cover=674274
						97:leaf=0.0274096,cover=55493.4
						98:leaf=0.00718047,cover=618780
				24:[U_CATEGORY_MACRO_MAX_COEC<0.007999] yes=49,no=50,missing=49,gain=2746.61,cover=537461
					49:[D_KEYWORD_MACRO_MEAN_COEC<0.074999] yes=99,no=100,missing=100,gain=1211.5,cover=274486
						99:leaf=0.0161138,cover=182198
						100:leaf=0.0301769,cover=92287.5
					50:[C_D_U_CATEGORY_CATEGORY_MICRO_MEAN_COEC<0.088999] yes=101,no=102,missing=102,gain=1629.75,cover=262975
						101:leaf=0.002891,cover=216435
						102:leaf=0.0235181,cover=46539.5
			12:[U_CITY_COEC<0.117999] yes=25,no=26,missing=26,gain=2482.54,cover=586379
				25:[D_TITLEMD5_COEC<0.120999] yes=51,no=52,missing=52,gain=1464.92,cover=450914
					51:[U_CATEGORY_MACRO_MAX_COEC<0.004999] yes=103,no=104,missing=104,gain=1069.05,cover=321572
						103:leaf=0.0263825,cover=41013.3
						104:leaf=0.00909784,cover=280559
					52:[U_CATEGORY_MACRO_MAX_COEC<0.008999] yes=105,no=106,missing=106,gain=691.8,cover=129342
						105:leaf=0.0307088,cover=69331.2
						106:leaf=0.0160433,cover=60010.6
				26:[U_CITY_C<0.739999] yes=53,no=54,missing=54,gain=749.574,cover=135465
					53:[D_PUBLISHER_EC<2981.07] yes=107,no=108,missing=108,gain=209.577,cover=3078.2
						107:leaf=0.0280603,cover=736.893
						108:leaf=-0.033059,cover=2341.31
					54:[D_TITLEMD5_COEC<0.135999] yes=109,no=110,missing=110,gain=558.889,cover=132387
						109:leaf=0.0282678,cover=106273
						110:leaf=0.0445971,cover=26114
		6:[U_CATEGORY_MAX_EC<587.672] yes=13,no=14,missing=14,gain=4028.14,cover=1.31101e+06
			13:[C_D_U_TITLEMD5_CATEGORY_MAX_C<0.044999] yes=27,no=28,missing=27,gain=2020.57,cover=518928
				27:[U_CITY_COEC<0.068999] yes=55,no=56,missing=56,gain=1462.44,cover=374504
					55:[D_PUBLISHER_C<3.95] yes=111,no=112,missing=111,gain=574.875,cover=113628
						111:leaf=-0.0428397,cover=1707.19
						112:leaf=0.0156147,cover=111921
					56:[D_TITLEMD5_COEC<0.125999] yes=113,no=114,missing=113,gain=900.912,cover=260876
						113:leaf=0.0256944,cover=217223
						114:leaf=0.0414383,cover=43653.3
				28:[C_D_U_TITLEMD5_CATEGORY_MICRO_MAX_COEC<0.242999] yes=57,no=58,missing=58,gain=725.677,cover=144424
					57:[U_CATEGORY_MICRO_MAX_COEC<0.080999] yes=115,no=116,missing=116,gain=393.625,cover=121173
						115:leaf=0.0284099,cover=51659.2
						116:leaf=0.0399365,cover=69513.8
					58:[C_D_U_CATEGORY_CATEGORY_MACRO_MAX_COEC<0.028999] yes=117,no=118,missing=118,gain=163.377,cover=23251.3
						117:leaf=0.0544495,cover=23245.8
						118:leaf=-0.446541,cover=5.52282
			14:[C_D_U_TITLEMD5_CATEGORY_MAX_C<0.092999] yes=29,no=30,missing=29,gain=3085.52,cover=792079
				29:[CAT_REL<0.040999] yes=59,no=60,missing=60,gain=1679.65,cover=442839
					59:[U_CATEGORY_MACRO_MAX_COEC<0.008999] yes=119,no=120,missing=120,gain=1600.06,cover=303005
						119:leaf=0.0129218,cover=182540
						120:leaf=-0.00192668,cover=120465
					60:[U_CATEGORY_MACRO_MAX_COEC<0.013999] yes=121,no=122,missing=122,gain=1050.95,cover=139834
						121:leaf=0.0237206,cover=120693
						122:leaf=-0.00150085,cover=19141.3
				30:[U_CATEGORY_MACRO_MAX_COEC<0.014999] yes=61,no=62,missing=62,gain=1836.44,cover=349239
					61:[C_D_U_TITLEMD5_CATEGORY_MICRO_MAX_COEC<0.182999] yes=123,no=124,missing=124,gain=970.139,cover=276293
						123:leaf=0.0241771,cover=210224
						124:leaf=0.0380695,cover=66068.3
					62:[D_PUBLISHER_EC<10763.1] yes=125,no=126,missing=126,gain=694.419,cover=72946.6
						125:leaf=0.0203099,cover=33287.6
						126:leaf=0.000721493,cover=39659
booster[26]:
0:[D_PUBLISHER_COEC<0.066999] yes=1,no=2,missing=2,gain=20955.9,cover=6.27892e+06
	1:[D_KEYWORD_MACRO_MEAN_COEC<0.044999] yes=3,no=4,missing=3,gain=7971.71,cover=2.55915e+06
		3:[CAT_REL<0.063999] yes=7,no=8,missing=8,gain=1884.4,cover=326144
			7:[U_CITY_COEC<0.350999] yes=15,no=16,missing=15,gain=1569.8,cover=233491
				15:[D_KEYWORD_MACRO_MEAN_COEC<0.033999] yes=31,no=32,missing=32,gain=1225.94,cover=232170
					31:[C_D_U_TITLEMD5_CATEGORY_MICRO_MAX_COEC<0.092999] yes=63,no=64,missing=63,gain=695.296,cover=56792.5
						63:leaf=-0.0308818,cover=55873.9
						64:leaf=-0.118556,cover=918.566
					32:[U_CATEGORY_MAX_C<71.136] yes=65,no=66,missing=65,gain=740.684,cover=175378
						65:leaf=-0.0108175,cover=117188
						66:leaf=-0.0246196,cover=58189.5
				16:[U_CATEGORY_MAX_EC<225.317] yes=33,no=34,missing=34,gain=364.445,cover=1320.27
					33:[C_D_U_TITLEMD5_CITY_EC<0.969999] yes=67,no=68,missing=67,gain=6.36027,cover=1020.5
						67:leaf=0.118833,cover=1014.57
						68:leaf=0.0127327,cover=5.93741
					34:[D_TITLEMD5_EC<13.278] yes=69,no=70,missing=70,gain=171.234,cover=299.766
						69:leaf=0.0933972,cover=107.522
						70:leaf=-0.0635759,cover=192.244
			8:[D_CATEGORY_MAX_EC<8628.67] yes=17,no=18,missing=18,gain=1678.67,cover=92653.8
				17:[U_CITY_C<3519.85] yes=35,no=36,missing=35,gain=407.024,cover=17800.3
					35:[D_CATEGORY_MACRO_MAX_COEC<0.048999] yes=71,no=72,missing=72,gain=385.908,cover=17650.6
						71:leaf=0.0354392,cover=13265.2
						72:leaf=0.00122092,cover=4385.43
					36:[WORD_COUNT<496] yes=73,no=74,missing=74,gain=122.67,cover=149.661
						73:leaf=0.0486421,cover=28.1302
						74:leaf=-0.181418,cover=121.531
				18:[C_D_U_CATEGORY_CATEGORY_MICRO_MAX_COEC<0.047999] yes=37,no=38,missing=38,gain=871.824,cover=74853.5
					37:[D_TITLEMD5_C<3.657] yes=75,no=76,missing=75,gain=458.499,cover=11089.3
						75:leaf=-0.0433778,cover=9313.76
						76:leaf=0.0120653,cover=1775.5
					38:[D_CATEGORY_MACRO_MEAN_COEC<0.067999] yes=77,no=78,missing=78,gain=961.99,cover=63764.3
						77:leaf=0.00270624,cover=48710.6
						78:leaf=-0.0262158,cover=15053.7
		4:[U_CITY_COEC<0.074999] yes=9,no=10,missing=9,gain=6300.83,cover=2.233e+06
			9:[CAT_REL<0.033999] yes=19,no=20,missing=20,gain=4702.4,cover=1.6217e+06
				19:[U_CATEGORY_MICRO_MAX_COEC<0.071999] yes=39,no=40,missing=39,gain=3184.5,cover=950682
					39:[U_CATEGORY_MACRO_MAX_COEC<0.004999] yes=79,no=80,missing=79,gain=2447.65,cover=638866
						79:leaf=-0.000761657,cover=222888
						80:leaf=-0.0137484,cover=415978
					40:[D_TITLEMD5_C<15.689] yes=81,no=82,missing=81,gain=1529.51,cover=311817
						81:leaf=-0.00460553,cover=140860
						82:leaf=0.0094675,cover=170956
				20:[U_CATEGORY_MACRO_MAX_COEC<0.011999] yes=41,no=42,missing=42,gain=2474.1,cover=671014
					41:[WORD_COUNT<1390] yes=83,no=84,missing=84,gain=2054.04,cover=552516
						83:leaf=-0.00279182,cover=123514
						84:leaf=0.011843,cover=429001
					42:[CAT_REL<0.158999] yes=85,no=86,missing=86,gain=2150.11,cover=118498
						85:leaf=-0.0203209,cover=61496.2
						86:leaf=0.00663886,cover=57001.5
			10:[U_CITY_COEC<0.149999] yes=21,no=22,missing=22,gain=2811.38,cover=611308
				21:[U_CATEGORY_MAX_EC<2073.66] yes=43,no=44,missing=44,gain=1958.66,cover=549255
					43:[U_CITY_C<1130.76] yes=87,no=88,missing=88,gain=1453.44,cover=419437
						87:leaf=0.0106193,cover=387623
						88:leaf=0.0328532,cover=31813.6
					44:[U_CATEGORY_MICRO_MAX_COEC<0.054999] yes=89,no=90,missing=90,gain=746.418,cover=129818
						89:leaf=-0.0227894,cover=14923.2
						90:leaf=0.000982509,cover=114895
				22:[U_CITY_C<8.517] yes=45,no=46,missing=46,gain=864.828,cover=62052.3
					45:[U_CITY_C<1.711] yes=91,no=92,missing=92,gain=250.409,cover=22862.3
						91:leaf=-0.0044709,cover=4743.89
						92:leaf=0.0213363,cover=18118.4
					46:[U_CITY_COEC<0.350999] yes=93,no=94,missing=94,gain=849.345,cover=39190
						93:leaf=0.0358812,cover=35741.7
						94:leaf=0.0878477,cover=3448.3
	2:[C_D_U_TITLEMD5_CATEGORY_MICRO_MAX_COEC<0.111999] yes=5,no=6,missing=5,gain=11553,cover=3.71977e+06
		5:[U_CATEGORY_MACRO_MAX_COEC<0.014999] yes=11,no=12,missing=11,gain=6235.58,cover=2.46356e+06
			11:[U_CITY_COEC<0.043999] yes=23,no=24,missing=24,gain=5173.64,cover=2.29452e+06
				23:[U_CITY_EC<2401.42] yes=47,no=48,missing=48,gain=2128.2,cover=191213
					47:[DOC_AGE<89] yes=95,no=96,missing=96,gain=773.327,cover=186256
						95:leaf=-0.00710077,cover=158538
						96:leaf=0.0110037,cover=27717.6
					48:[C_D_U_CATEGORY_CATEGORY_MEAN_EC<71.884] yes=97,no=98,missing=98,gain=1043.58,cover=4956.75
						97:leaf=-0.0309,cover=2824.11
						98:leaf=-0.123578,cover=2132.64
				24:[CAT_REL<0.027999] yes=49,no=50,missing=50,gain=4463.1,cover=2.10331e+06
					49:[U_CATEGORY_MACRO_MAX_COEC<0.004999] yes=99,no=100,missing=100,gain=3434.52,cover=1.511e+06
						99:leaf=0.0216859,cover=167171
						100:leaf=0.006487,cover=1.34383e+06
					50:[DOC_AGE<0.999999] yes=101,no=102,missing=102,gain=1318.33,cover=592309
						101:leaf=0.0437578,cover=19831
						102:leaf=0.0175319,cover=572478
			12:[DOC_AGE<58] yes=25,no=26,missing=26,gain=1115.87,cover=169039
				25:[D_PUBLISHER_EC<2704.88] yes=51,no=52,missing=52,gain=998.214,cover=117746
					51:[U_CITY_COEC<0.081999] yes=103,no=104,missing=104,gain=434.809,cover=25370.9
						103:leaf=-0.00906528,cover=14880.6
						104:leaf=0.0175172,cover=10490.3
					52:[C_D_U_CATEGORY_CATEGORY_MICRO_MEAN_COEC<0.082999] yes=105,no=106,missing=105,gain=479.601,cover=92375.2
						105:leaf=-0.0242031,cover=72810.8
						106:leaf=-0.00656725,cover=19564.4
				26:[C_D_U_TITLEMD5_CATEGORY_MICRO_MAX_COEC<0.090999] yes=53,no=54,missing=54,gain=369.069,cover=51293.4
					53:[U_CITY_COEC<0.071999] yes=107,no=108,missing=107,gain=270.722,cover=37028
						107:leaf=-0.00933579,cover=24537.7
						108:leaf=0.00874883,cover=12490.3
					54:[C_D_U_CATEGORY_GENDER_MICRO_MEAN_COEC<0.108999] yes=109,no=110,missing=109,gain=158.516,cover=14265.4
						109:leaf=0.016008,cover=14253.8
						110:leaf=-0.338325,cover=11.6387
		6:[U_CITY_COEC<0.076999] yes=13,no=14,missing=13,gain=4164.92,cover=1.25621e+06
			13:[C_D_U_CATEGORY_CATEGORY_MICRO_MEAN_COEC<0.108999] yes=27,no=28,missing=28,gain=2730.92,cover=921872
				27:[U_CATEGORY_MACRO_MAX_COEC<0.007999] yes=55,no=56,missing=56,gain=2247.47,cover=795647
					55:[C_D_U_TITLEMD5_CATEGORY_MAX_C<0.068999] yes=111,no=112,missing=112,gain=1907.4,cover=409136
						111:leaf=0.0132709,cover=221039
						112:leaf=0.0269713,cover=188097
					56:[C_D_U_TITLEMD5_CATEGORY_MAX_C<0.063999] yes=113,no=114,missing=114,gain=2189.15,cover=386511
						113:leaf=-0.00432977,cover=94111.3
						114:leaf=0.0132053,cover=292400
				28:[U_CATEGORY_MACRO_MAX_COEC<0.026999] yes=57,no=58,missing=58,gain=500.47,cover=126225
					57:[C_D_U_TITLEMD5_CATEGORY_MICRO_MAX_COEC<0.240999] yes=115,no=116,missing=116,gain=408.146,cover=123668
						115:leaf=0.0277883,cover=92241.7
						116:leaf=0.0409853,cover=31426
					58:[D_CATEGORY_MEAN_C<7229.85] yes=117,no=118,missing=118,gain=220.928,cover=2557.36
						117:leaf=-0.00749536,cover=2454.4
						118:leaf=-0.156338,cover=102.953
			14:[U_CITY_COEC<0.161999] yes=29,no=30,missing=30,gain=1503.52,cover=334337
				29:[CAT_REL<0.009999] yes=59,no=60,missing=60,gain=781.728,cover=295206
					59:[D_TITLEMD5_C<142.327] yes=119,no=120,missing=120,gain=508.927,cover=134220
						119:leaf=0.013613,cover=50650.4
						120:leaf=0.0263169,cover=83569.2
					60:[D_TITLEMD5_COEC<0.168999] yes=121,no=122,missing=122,gain=497.392,cover=160986
						121:leaf=0.0298832,cover=142954
						122:leaf=0.0475091,cover=18032.6
				30:[U_CITY_C<6.468] yes=61,no=62,missing=62,gain=251.243,cover=39130.7
					61:[U_CATEGORY_MICRO_MAX_COEC<0.065999] yes=123,no=124,missing=124,gain=111.467,cover=14694.7
						123:leaf=0.0224311,cover=3617.56
						124:leaf=0.0426593,cover=11077.1
					62:[U_CATEGORY_MAX_EC<972.169] yes=125,no=126,missing=126,gain=159.038,cover=24436
						125:leaf=0.059418,cover=17302.1
						126:leaf=0.0416587,cover=7133.98
booster[27]:
0:[C_D_U_CATEGORY_CATEGORY_MICRO_MAX_COEC<0.089999] yes=1,no=2,missing=1,gain=18008.9,cover=6.25528e+06
	1:[D_TITLEMD5_C<5.795] yes=3,no=4,missing=4,gain=12943.6,cover=4.80977e+06
		3:[CAT_REL<0.048999] yes=7,no=8,missing=8,gain=4589.09,cover=1.1106e+06
			7:[DOC_AGE<0.999999] yes=15,no=16,missing=16,gain=3712.89,cover=690292
				15:[U_CATEGORY_MACRO_MAX_COEC<0.003999] yes=31,no=32,missing=32,gain=670.758,cover=55127.1
					31:[D_CATEGORY_MICRO_MAX_COEC<0.068999] yes=63,no=64,missing=64,gain=109.876,cover=2637.58
						63:leaf=0.0408682,cover=1187.53
						64:leaf=0.0819517,cover=1450.05
					32:[D_PUBLISHER_COEC<0.072999] yes=65,no=66,missing=66,gain=412.659,cover=52489.5
						65:leaf=0.00651463,cover=38710.1
						66:leaf=0.0266657,cover=13779.4
				16:[U_CATEGORY_MACRO_MAX_COEC<0.004999] yes=33,no=34,missing=34,gain=2570.97,cover=635165
					33:[U_CITY_COEC<0.070999] yes=67,no=68,missing=68,gain=2306.65,cover=121889
						67:leaf=-0.0150854,cover=54233
						68:leaf=0.0125958,cover=67655.7
					34:[DOC_AGE<93] yes=69,no=70,missing=70,gain=2146.08,cover=513277
						69:leaf=-0.0181691,cover=455966
						70:leaf=0.002362,cover=57310.8
			8:[WORD_COUNT<1795] yes=17,no=18,missing=18,gain=2382.63,cover=420311
				17:[D_PUBLISHER_EC<12488.5] yes=35,no=36,missing=36,gain=1140.36,cover=157828
					35:[U_CITY_COEC<0.072999] yes=71,no=72,missing=71,gain=652.702,cover=129360
						71:leaf=-0.00772998,cover=90599.1
						72:leaf=0.00777585,cover=38760.8
					36:[D_PUBLISHER_COEC<0.051999] yes=73,no=74,missing=74,gain=1192.79,cover=28467.8
						73:leaf=-0.0543836,cover=9382.24
						74:leaf=-0.0108379,cover=19085.6
				18:[D_CATEGORY_MICRO_MEAN_COEC<0.072999] yes=37,no=38,missing=38,gain=1285.71,cover=262483
					37:[C_D_U_CATEGORY_CATEGORY_MICRO_MAX_COEC<0.045999] yes=75,no=76,missing=76,gain=943.408,cover=219599
						75:leaf=-0.00801956,cover=22110
						76:leaf=0.0137622,cover=197489
					38:[U_CATEGORY_MACRO_MAX_COEC<0.012999] yes=77,no=78,missing=78,gain=659.392,cover=42884
						77:leaf=-0.0017717,cover=35643
						78:leaf=-0.0348702,cover=7241.02
		4:[U_CATEGORY_MACRO_MAX_COEC<0.006999] yes=9,no=10,missing=10,gain=10150.8,cover=3.69917e+06
			9:[D_TITLEMD5_COEC<0.105999] yes=19,no=20,missing=19,gain=3646.11,cover=1.4641e+06
				19:[CAT_REL<0.001999] yes=39,no=40,missing=40,gain=3125.34,cover=1.10509e+06
					39:[DOC_AGE<89] yes=79,no=80,missing=80,gain=2009.72,cover=392132
						79:leaf=4.97753e-05,cover=329622
						80:leaf=0.0196066,cover=62510
					40:[U_CATEGORY_MAX_EC<2442.78] yes=81,no=82,missing=82,gain=1821.25,cover=712953
						81:leaf=0.0155687,cover=669569
						82:leaf=-0.0055734,cover=43384.7
				20:[D_TITLEMD5_COEC<0.179999] yes=41,no=42,missing=42,gain=1297.82,cover=359012
					41:[U_CITY_COEC<0.067999] yes=83,no=84,missing=84,gain=1127.85,cover=329003
						83:leaf=0.0114548,cover=103096
						84:leaf=0.0240773,cover=225907
					42:[U_CATEGORY_MAX_EC<2007.49] yes=85,no=86,missing=86,gain=167.35,cover=30008.5
						85:leaf=0.0445599,cover=26508.2
						86:leaf=0.0212861,cover=3500.23
			10:[D_PUBLISHER_EC<7198.25] yes=21,no=22,missing=21,gain=4921.51,cover=2.23507e+06
				21:[U_CITY_COEC<0.043999] yes=43,no=44,missing=44,gain=3255.24,cover=892882
					43:[C_D_U_TITLEMD5_CITY_EC<4.015] yes=87,no=88,missing=87,gain=2449.33,cover=79771.8
						87:leaf=-0.00949115,cover=79143.9
						88:leaf=-0.207609,cover=627.982
					44:[D_PUBLISHER_COEC<0.081999] yes=89,no=90,missing=90,gain=2135.4,cover=813110
						89:leaf=0.00518445,cover=422248
						90:leaf=0.0154414,cover=390862
				22:[D_TITLEMD5_EC<3733.63] yes=45,no=46,missing=46,gain=5614.38,cover=1.34219e+06
					45:[U_CATEGORY_MAX_EC<3712.4] yes=91,no=92,missing=91,gain=3295.97,cover=974836
						91:leaf=-0.00296955,cover=837213
						92:leaf=-0.0196686,cover=137623
					46:[C_D_U_CATEGORY_CATEGORY_MACRO_MAX_COEC<0.013999] yes=93,no=94,missing=93,gain=1148.58,cover=367350
						93:leaf=0.0110868,cover=329047
						94:leaf=-0.00720967,cover=38303.6
	2:[D_TITLEMD5_COEC<0.105999] yes=5,no=6,missing=5,gain=4510.4,cover=1.44551e+06
		5:[U_CITY_COEC<0.066999] yes=11,no=12,missing=12,gain=2596.28,cover=960807
			11:[D_PUBLISHER_COEC<0.029999] yes=23,no=24,missing=23,gain=1056.73,cover=264612
				23:[WORD_COUNT<1678] yes=47,no=48,missing=48,gain=225.165,cover=13024.7
					47:[C_D_U_TITLEMD5_CATEGORY_MAX_EC<0.019999] yes=95,no=96,missing=95,gain=175.905,cover=4475.05
						95:leaf=-0.0565424,cover=2873.91
						96:leaf=-0.0151722,cover=1601.14
					48:[D_CATEGORY_MAX_EC<32641.1] yes=97,no=98,missing=98,gain=246.721,cover=8549.68
						97:leaf=-0.000968679,cover=5364.39
						98:leaf=-0.0361007,cover=3185.29
				24:[DOC_AGE<2] yes=49,no=50,missing=50,gain=980.871,cover=251587
					49:[U_CATEGORY_MAX_C<277.603] yes=99,no=100,missing=100,gain=248.341,cover=13448.8
						99:leaf=0.0344689,cover=12988
						100:leaf=-0.0401778,cover=460.716
					50:[U_CATEGORY_MAX_EC<613.391] yes=101,no=102,missing=102,gain=782.898,cover=238138
						101:leaf=0.0107434,cover=102567
						102:leaf=-0.00083576,cover=135571
			12:[D_CATEGORY_MICRO_MAX_COEC<0.081999] yes=25,no=26,missing=26,gain=1766.04,cover=696195
				25:[WORD_COUNT<904] yes=51,no=52,missing=52,gain=1097.72,cover=405021
					51:[D_KEYWORD_MACRO_MEAN_COEC<0.065999] yes=103,no=104,missing=103,gain=389.881,cover=37508.2
						103:leaf=-0.00513744,cover=21192.1
						104:leaf=0.0154273,cover=16316.1
					52:[C_D_U_CATEGORY_CATEGORY_MICRO_MEAN_COEC<0.108999] yes=105,no=106,missing=106,gain=939.58,cover=367513
						105:leaf=0.0191477,cover=289730
						106:leaf=0.0315263,cover=77783.1
				26:[U_CATEGORY_MICRO_MAX_COEC<0.076999] yes=53,no=54,missing=54,gain=1214.78,cover=291174
					53:[D_TITLEMD5_COEC<0.056999] yes=107,no=108,missing=108,gain=561.584,cover=143607
						107:leaf=-0.00654898,cover=40984.7
						108:leaf=0.00729815,cover=102622
					54:[U_CATEGORY_MACRO_MAX_COEC<0.011999] yes=109,no=110,missing=110,gain=744.458,cover=147567
						109:leaf=0.0195144,cover=122036
						110:leaf=0.000736931,cover=25531.1
		6:[CAT_REL<0.017999] yes=13,no=14,missing=14,gain=1571.26,cover=484702
			13:[C_D_U_TITLEMD5_CATEGORY_MICRO_MAX_COEC<0.223999] yes=27,no=28,missing=27,gain=908.214,cover=245539
				27:[C_D_U_CATEGORY_CATEGORY_MACRO_MEAN_COEC<0.009999] yes=55,no=56,missing=56,gain=925.253,cover=197364
					55:[D_PUBLISHER_C<137.38] yes=111,no=112,missing=112,gain=471.125,cover=98410.8
						111:leaf=0.00455904,cover=12494.7
						112:leaf=0.0253415,cover=85916
					56:[U_CATEGORY_MICRO_MAX_COEC<0.078999] yes=113,no=114,missing=114,gain=472.02,cover=98952.9
						113:leaf=0.00355476,cover=60947
						114:leaf=0.0177549,cover=38005.9
				28:[D_TITLEMD5_C<40.812] yes=57,no=58,missing=58,gain=619.255,cover=48175.2
					57:[D_PUBLISHER_C<9.852] yes=115,no=116,missing=116,gain=157.896,cover=8062.62
						115:leaf=-0.0493997,cover=484.898
						116:leaf=0.00940486,cover=7577.73
					58:[U_CITY_COEC<0.043999] yes=117,no=118,missing=118,gain=205.27,cover=40112.5
						117:leaf=0.00671377,cover=2225.2
						118:leaf=0.0379686,cover=37887.3
			14:[D_TITLEMD5_C<1.926] yes=29,no=30,missing=30,gain=878.354,cover=239163
				29:[D_KEYWORD_MEAN_EC<1778.28] yes=59,no=60,missing=59,gain=267.742,cover=14974
					59:[U_CITY_COEC<0.037999] yes=119,no=120,missing=120,gain=241.313,cover=10741.7
						119:leaf=-0.0637537,cover=589.574
						120:leaf=0.00200152,cover=10152.1
					60:[D_KEYWORD_MACRO_MEAN_COEC<0.056999] yes=121,no=122,missing=122,gain=137.695,cover=4232.24
						121:leaf=-0.076071,cover=122.326
						122:leaf=0.0311983,cover=4109.92
				30:[U_CATEGORY_MACRO_MAX_COEC<0.008999] yes=61,no=62,missing=62,gain=893.005,cover=224189
					61:[D_TITLEMD5_COEC<0.152999] yes=123,no=124,missing=124,gain=496.545,cover=119326
						123:leaf=0.0338088,cover=87342
						124:leaf=0.0483743,cover=31984.2
					62:[U_CATEGORY_MACRO_MAX_COEC<0.018999] yes=125,no=126,missing=126,gain=446.389,cover=104863
						125:leaf=0.0274028,cover=92919.5
						126:leaf=0.00686442,cover=11943.3
booster[28]:
0:[C_D_U_CATEGORY_CATEGORY_MICRO_MAX_COEC<0.075999] yes=1,no=2,missing=1,gain=15013.3,cover=6.21828e+06
	1:[D_TITLEMD5_C<34.265] yes=3,no=4,missing=3,gain=7609.96,cover=3.50946e+06
		3:[U_CITY_COEC<0.025999] yes=7,no=8,missing=8,gain=4860.93,cover=1.67662e+06
			7:[U_CITY_EC<114.531] yes=15,no=16,missing=16,gain=3262.89,cover=69679
				15:[U_CITY_EC<17.754] yes=31,no=32,missing=32,gain=504.066,cover=33183.4
					31:[U_CATEGORY_MAX_C<90.54] yes=63,no=64,missing=64,gain=483.868,cover=16535.5
						63:leaf=0.0288929,cover=5955.77
						64:leaf=-0.00673879,cover=10579.7
					32:[DOC_AGE<6] yes=65,no=66,missing=66,gain=337.511,cover=16647.9
						65:leaf=0.00454584,cover=4583.67
						66:leaf=-0.0273292,cover=12064.2
				16:[U_CITY_COEC<0.016999] yes=33,no=34,missing=34,gain=1257.01,cover=36495.6
					33:[U_GENDER_EC<38647.2] yes=67,no=68,missing=68,gain=405.098,cover=14224.1
						67:leaf=0.098209,cover=136.339
						68:leaf=-0.0744834,cover=14087.8
					34:[CAT_REL<0.072999] yes=69,no=70,missing=70,gain=305.351,cover=22271.5
						69:leaf=-0.0413406,cover=16931
						70:leaf=-0.0139126,cover=5340.46
			8:[CAT_REL<0.048999] yes=17,no=18,missing=18,gain=4193.51,cover=1.60694e+06
				17:[U_CATEGORY_MACRO_MAX_COEC<0.003999] yes=35,no=36,missing=36,gain=3798.13,cover=1.12837e+06
					35:[U_CITY_COEC<0.343999] yes=71,no=72,missing=71,gain=1257.51,cover=50539.2
						71:leaf=0.0189053,cover=49229.3
						72:leaf=0.118144,cover=1309.93
					36:[DOC_AGE<89] yes=73,no=74,missing=74,gain=2804.84,cover=1.07783e+06
						73:leaf=-0.00851813,cover=940549
						74:leaf=0.00678346,cover=137278
				18:[U_CATEGORY_MACRO_MAX_COEC<0.008999] yes=37,no=38,missing=37,gain=2140.72,cover=478575
					37:[WORD_COUNT<904] yes=75,no=76,missing=76,gain=1236.48,cover=293405
						75:leaf=-0.00585674,cover=37232.6
						76:leaf=0.0136461,cover=256172
					38:[CAT_REL<0.113999] yes=77,no=78,missing=78,gain=1526.19,cover=185170
						77:leaf=-0.0123136,cover=85964
						78:leaf=0.0058901,cover=99206.2
		4:[U_CATEGORY_MACRO_MAX_COEC<0.004999] yes=9,no=10,missing=10,gain=4586.34,cover=1.83284e+06
			9:[CAT_REL<0.003999] yes=19,no=20,missing=20,gain=654.672,cover=176732
				19:[U_CITY_COEC<0.065999] yes=39,no=40,missing=40,gain=561.119,cover=84272.1
					39:[C_D_U_TITLEMD5_CATEGORY_MAX_C<0.047999] yes=79,no=80,missing=79,gain=324.463,cover=22457.8
						79:leaf=-0.00852805,cover=13117.1
						80:leaf=0.0158578,cover=9340.65
					40:[D_KEYWORD_MEAN_C<90.144] yes=81,no=82,missing=82,gain=342.203,cover=61814.3
						81:leaf=0.0122156,cover=29234.1
						82:leaf=0.0271189,cover=32580.2
				20:[U_CATEGORY_MAX_EC<1068.14] yes=41,no=42,missing=42,gain=415.151,cover=92460.3
					41:[D_TITLEMD5_COEC<0.100999] yes=83,no=84,missing=84,gain=231.33,cover=63404.9
						83:leaf=0.0280547,cover=45298.8
						84:leaf=0.0414302,cover=18106
					42:[D_CATEGORY_MACRO_MEAN_COEC<0.087999] yes=85,no=86,missing=86,gain=186.52,cover=29055.5
						85:leaf=0.0156632,cover=27696.8
						86:leaf=0.0536024,cover=1358.67
			10:[DOC_AGE<89] yes=21,no=22,missing=22,gain=3432.34,cover=1.65611e+06
				21:[U_CATEGORY_MACRO_MAX_COEC<0.013999] yes=43,no=44,missing=43,gain=3145.42,cover=1.4361e+06
					43:[U_CATEGORY_MICRO_MAX_COEC<0.059999] yes=87,no=88,missing=87,gain=2981.53,cover=1.30293e+06
						87:leaf=-0.000680916,cover=625745
						88:leaf=0.00889384,cover=677184
					44:[D_PUBLISHER_EC<6446.51] yes=89,no=90,missing=90,gain=821.2,cover=133176
						89:leaf=0.000695942,cover=37533.7
						90:leaf=-0.0167583,cover=95642.4
				22:[TIME_OF_DAY<16] yes=45,no=46,missing=46,gain=625.035,cover=220005
					45:[U_CITY_COEC<0.073999] yes=91,no=92,missing=91,gain=526.438,cover=112305
						91:leaf=0.0169562,cover=78683.6
						92:leaf=0.0319062,cover=33620.9
					46:[D_TITLEMD5_COEC<0.095999] yes=93,no=94,missing=94,gain=440.471,cover=107700
						93:leaf=0.0055685,cover=64827.4
						94:leaf=0.0186332,cover=42872.6
	2:[D_TITLEMD5_COEC<0.103999] yes=5,no=6,missing=5,gain=7254.68,cover=2.70882e+06
		5:[U_CITY_COEC<0.107999] yes=11,no=12,missing=11,gain=4275.74,cover=1.82683e+06
			11:[D_CATEGORY_MICRO_MAX_COEC<0.081999] yes=23,no=24,missing=24,gain=3539.44,cover=1.67989e+06
				23:[D_KEYWORD_MACRO_MEAN_COEC<0.045999] yes=47,no=48,missing=48,gain=2275.61,cover=1.11191e+06
					47:[WORD_COUNT<4234] yes=95,no=96,missing=96,gain=630.525,cover=81645.2
						95:leaf=-0.0104326,cover=65946.9
						96:leaf=0.0118663,cover=15698.3
					48:[C_D_U_CATEGORY_CATEGORY_MICRO_MEAN_COEC<0.101999] yes=97,no=98,missing=98,gain=2055.72,cover=1.03026e+06
						97:leaf=0.00929123,cover=871370
						98:leaf=0.0216593,cover=158893
				24:[U_CATEGORY_MACRO_MAX_COEC<0.012999] yes=49,no=50,missing=50,gain=2336.92,cover=567981
					49:[U_CATEGORY_MICRO_MAX_COEC<0.075999] yes=99,no=100,missing=100,gain=1973.76,cover=502098
						99:leaf=-0.0021411,cover=322108
						100:leaf=0.0109331,cover=179991
					50:[DOC_AGE<84] yes=101,no=102,missing=102,gain=1215.64,cover=65882.3
						101:leaf=-0.0261085,cover=46958.3
						102:leaf=0.00391215,cover=18924
			12:[U_CITY_COEC<0.343999] yes=25,no=26,missing=26,gain=984.245,cover=146937
				25:[U_CITY_C<8.684] yes=51,no=52,missing=52,gain=567.133,cover=140392
					51:[CAT_REL<0.009999] yes=103,no=104,missing=104,gain=328.807,cover=36693.1
						103:leaf=-0.00229268,cover=11209.1
						104:leaf=0.0182585,cover=25484
					52:[U_CITY_COEC<0.166999] yes=105,no=106,missing=106,gain=674.191,cover=103698
						105:leaf=0.0218752,cover=78478.2
						106:leaf=0.0406702,cover=25220.3
				26:[U_CATEGORY_MAX_EC<260.283] yes=53,no=54,missing=54,gain=385.296,cover=6545.44
					53:[U_CITY_C<17.128] yes=107,no=108,missing=108,gain=29.3768,cover=1660.65
						107:leaf=0.0666127,cover=192.729
						108:leaf=0.108796,cover=1467.92
					54:[U_CITY_C<369.372] yes=109,no=110,missing=110,gain=140.959,cover=4884.8
						109:leaf=0.0510185,cover=4751.58
						110:leaf=-0.0529863,cover=133.214
		6:[U_CATEGORY_MACRO_MAX_COEC<0.010999] yes=13,no=14,missing=14,gain=2513.4,cover=881992
			13:[CAT_REL<0.019999] yes=27,no=28,missing=28,gain=1811.71,cover=669035
				27:[D_TITLEMD5_C<2.933] yes=55,no=56,missing=56,gain=995.545,cover=384160
					55:[D_CATEGORY_MEAN_EC<76517.8] yes=111,no=112,missing=112,gain=381.39,cover=9807.75
						111:leaf=-0.0255911,cover=7224.42
						112:leaf=0.0191719,cover=2583.33
					56:[D_TITLEMD5_COEC<0.180999] yes=113,no=114,missing=114,gain=1209.71,cover=374352
						113:leaf=0.0167061,cover=341352
						114:leaf=0.0367565,cover=32999.7
				28:[D_TITLEMD5_C<1.926] yes=57,no=58,missing=58,gain=1120.87,cover=284875
					57:[DOC_AGE<0.999999] yes=115,no=116,missing=116,gain=292.923,cover=21226.6
						115:leaf=0.0420141,cover=2047.14
						116:leaf=0.00222803,cover=19179.4
					58:[D_TITLEMD5_COEC<0.150999] yes=117,no=118,missing=118,gain=960.988,cover=263649
						117:leaf=0.0263348,cover=193965
						118:leaf=0.0400266,cover=69683.8
			14:[CAT_REL<0.063999] yes=29,no=30,missing=30,gain=1000.64,cover=212957
				29:[U_CATEGORY_MICRO_MAX_COEC<0.088999] yes=59,no=60,missing=60,gain=770.94,cover=144665
					59:[U_CITY_COEC<0.107999] yes=119,no=120,missing=119,gain=536.063,cover=124936
						119:leaf=0.000216673,cover=115894
						120:leaf=0.0254955,cover=9042.48
					60:[D_PUBLISHER_COEC<0.091999] yes=121,no=122,missing=122,gain=185.428,cover=19728.5
						121:leaf=0.00598074,cover=4700.31
						122:leaf=0.0287392,cover=15028.2
				30:[U_CATEGORY_MACRO_MAX_COEC<0.022999] yes=61,no=62,missing=62,gain=509.734,cover=68292.1
					61:[C_D_U_CATEGORY_CATEGORY_MICRO_MAX_COEC<0.113999] yes=123,no=124,missing=124,gain=272.049,cover=59935
						123:leaf=0.0190666,cover=45512.9
						124:leaf=0.0348286,cover=14422.1
					62:[D_PUBLISHER_C<2871.26] yes=125,no=126,missing=126,gain=361.703,cover=8357.09
						125:leaf=0.00607772,cover=6895.48
						126:leaf=-0.0486715,cover=1461.61
booster[29]:
0:[D_PUBLISHER_COEC<0.075999] yes=1,no=2,missing=2,gain=13988.1,cover=6.19818e+06
	1:[C_D_U_TITLEMD5_CATEGORY_MAX_C<0.014999] yes=3,no=4,missing=3,gain=8123.4,cover=3.60657e+06
		3:[U_CATEGORY_MAX_EC<645.646] yes=7,no=8,missing=8,gain=5602.77,cover=2.15621e+06
			7:[U_CITY_COEC<0.072999] yes=15,no=16,missing=16,gain=3902.36,cover=853838
				15:[D_PUBLISHER_COEC<0.036999] yes=31,no=32,missing=32,gain=2801.81,cover=411013
					31:[D_TITLEMD5_COEC<0.024999] yes=63,no=64,missing=63,gain=723.009,cover=67780.9
						63:leaf=-0.0299507,cover=41271.4
						64:leaf=-0.00878619,cover=26509.5
					32:[CAT_REL<0.030999] yes=65,no=66,missing=66,gain=1779.01,cover=343232
						65:leaf=-0.00480692,cover=220187
						66:leaf=0.0102056,cover=123045
				16:[U_CITY_COEC<0.341999] yes=33,no=34,missing=33,gain=2007.72,cover=442825
					33:[U_CATEGORY_MICRO_MAX_COEC<0.065999] yes=67,no=68,missing=68,gain=1583.03,cover=438986
						67:leaf=0.000595619,cover=130939
						68:leaf=0.0137215,cover=308047
					34:[U_CATEGORY_MAX_EC<260.604] yes=69,no=70,missing=70,gain=521.897,cover=3839.41
						69:leaf=0.107198,cover=2644.87
						70:leaf=0.0275351,cover=1194.54
			8:[DOC_AGE<2] yes=17,no=18,missing=18,gain=4499.98,cover=1.30237e+06
				17:[C_D_U_CATEGORY_CATEGORY_MICRO_MEAN_COEC<0.058999] yes=35,no=36,missing=36,gain=719.616,cover=149976
					35:[C_D_U_CATEGORY_CATEGORY_MACRO_MEAN_COEC<0.001999] yes=71,no=72,missing=72,gain=387.358,cover=41907.9
						71:leaf=-0.0911251,cover=473.955
						72:leaf=-0.000300094,cover=41433.9
					36:[U_CATEGORY_MACRO_MAX_COEC<0.021999] yes=73,no=74,missing=73,gain=522.054,cover=108068
						73:leaf=0.0151846,cover=105535
						74:leaf=-0.0307397,cover=2533.86
				18:[DOC_AGE<89] yes=37,no=38,missing=38,gain=2989.05,cover=1.15239e+06
					37:[CAT_REL<0.082999] yes=75,no=76,missing=76,gain=2726.92,cover=1.00226e+06
						75:leaf=-0.0128914,cover=839130
						76:leaf=0.00123865,cover=163131
					38:[U_CITY_COEC<0.052999] yes=77,no=78,missing=77,gain=457.187,cover=150131
						77:leaf=-0.00295566,cover=52783.5
						78:leaf=0.00860194,cover=97347.6
		4:[U_CATEGORY_MAX_EC<3161.94] yes=9,no=10,missing=10,gain=5252.4,cover=1.45037e+06
			9:[U_CATEGORY_MAX_EC<546.518] yes=19,no=20,missing=20,gain=2458.78,cover=1.20917e+06
				19:[U_CATEGORY_MICRO_MAX_COEC<0.073999] yes=39,no=40,missing=40,gain=1275.55,cover=194568
					39:[U_CATEGORY_MACRO_MAX_COEC<0.003999] yes=79,no=80,missing=80,gain=476.414,cover=84981.7
						79:leaf=0.0414537,cover=4872.44
						80:leaf=0.00925015,cover=80109.3
					40:[U_CITY_C<26.757] yes=81,no=82,missing=82,gain=365.5,cover=109586
						81:leaf=0.016889,cover=25334.3
						82:leaf=0.0305888,cover=84251.7
				20:[C_D_U_TITLEMD5_CATEGORY_MAX_C<0.105999] yes=41,no=42,missing=42,gain=2787.57,cover=1.0146e+06
					41:[U_CATEGORY_MACRO_MAX_COEC<0.011999] yes=83,no=84,missing=84,gain=1631.96,cover=652821
						83:leaf=0.00587085,cover=581334
						84:leaf=-0.0101402,cover=71487.8
					42:[U_CATEGORY_MAX_EC<1462.83] yes=85,no=86,missing=86,gain=619.375,cover=361776
						85:leaf=0.0201838,cover=142825
						86:leaf=0.0117188,cover=218952
			10:[D_PUBLISHER_C<177.371] yes=21,no=22,missing=22,gain=1288.26,cover=241201
				21:[D_CATEGORY_MACRO_MEAN_COEC<0.083999] yes=43,no=44,missing=44,gain=405.603,cover=47115.7
					43:[C_D_U_TITLEMD5_CATEGORY_MAX_EC<0.299999] yes=87,no=88,missing=88,gain=240.986,cover=44458
						87:leaf=-0.0085619,cover=5548.2
						88:leaf=0.0137143,cover=38909.8
					44:[D_PUBLISHER_COEC<0.062999] yes=89,no=90,missing=90,gain=307.254,cover=2657.65
						89:leaf=-0.0588214,cover=1513.63
						90:leaf=0.00983182,cover=1144.03
				22:[C_D_U_TITLEMD5_CATEGORY_MAX_C<0.145999] yes=45,no=46,missing=46,gain=1142.13,cover=194086
					45:[D_PUBLISHER_EC<32370.6] yes=91,no=92,missing=92,gain=531.151,cover=69323.1
						91:leaf=-0.0135123,cover=44457.1
						92:leaf=-0.0317631,cover=24866
					46:[U_CATEGORY_MACRO_MAX_COEC<0.025999] yes=93,no=94,missing=94,gain=930.615,cover=124762
						93:leaf=-0.00124449,cover=112856
						94:leaf=-0.0306383,cover=11906.6
	2:[CAT_REL<0.009999] yes=5,no=6,missing=6,gain=6905.64,cover=2.59161e+06
		5:[U_CITY_COEC<0.049999] yes=11,no=12,missing=12,gain=3411.54,cover=1.44238e+06
			11:[C_D_U_TITLEMD5_CITY_EC<10.267] yes=23,no=24,missing=23,gain=1300.29,cover=158869
				23:[D_TITLEMD5_EC<4707.4] yes=47,no=48,missing=47,gain=991.704,cover=157782
					47:[U_CITY_COEC<0.035999] yes=95,no=96,missing=96,gain=703.604,cover=123941
						95:leaf=-0.0180559,cover=63215.5
						96:leaf=-0.00298377,cover=60725.1
					48:[D_CATEGORY_MACRO_MAX_COEC<0.049999] yes=97,no=98,missing=98,gain=302.502,cover=33841.7
						97:leaf=0.0262691,cover=7560.45
						98:leaf=0.00357177,cover=26281.2
				24:[D_PUBLISHER_EC<9869.57] yes=49,no=50,missing=50,gain=548.299,cover=1086.94
					49:[D_CATEGORY_MEAN_C<5596.81] yes=99,no=100,missing=100,gain=293.194,cover=551.861
						99:leaf=-0.231605,cover=396.705
						100:leaf=-0.0689516,cover=155.156
					50:[C_D_U_TITLEMD5_CITY_COEC<0.080999] yes=101,no=102,missing=102,gain=201.851,cover=535.076
						101:leaf=-0.00864456,cover=402.744
						102:leaf=-0.150623,cover=132.332
			12:[D_TITLEMD5_COEC<0.150999] yes=25,no=26,missing=26,gain=2859.49,cover=1.28351e+06
				25:[U_CATEGORY_MICRO_MAX_COEC<0.074999] yes=51,no=52,missing=51,gain=1893.22,cover=1.08396e+06
					51:[D_KEYWORD_MEAN_C<113.449] yes=103,no=104,missing=104,gain=1835.11,cover=841836
						103:leaf=-0.00113727,cover=381785
						104:leaf=0.0082412,cover=460051
					52:[U_CITY_COEC<0.133999] yes=105,no=106,missing=105,gain=827.138,cover=242121
						105:leaf=0.0125676,cover=228005
						106:leaf=0.0375118,cover=14115.8
				26:[D_KEYWORD_MICRO_MAX_COEC<0.194999] yes=53,no=54,missing=54,gain=898.864,cover=199555
					53:[U_CATEGORY_MAX_EC<2321.37] yes=107,no=108,missing=108,gain=694.173,cover=167886
						107:leaf=0.0215924,cover=100698
						108:leaf=0.00846767,cover=67187.5
					54:[D_CATEGORY_MACRO_MAX_COEC<0.045999] yes=109,no=110,missing=109,gain=561.575,cover=31669
						109:leaf=0.0483434,cover=15459.4
						110:leaf=0.0217011,cover=16209.6
		6:[U_CITY_COEC<0.102999] yes=13,no=14,missing=13,gain=2903.65,cover=1.14922e+06
			13:[D_TITLEMD5_COEC<0.121999] yes=27,no=28,missing=28,gain=2265.84,cover=1.03983e+06
				27:[U_CATEGORY_MACRO_MAX_COEC<0.011999] yes=55,no=56,missing=56,gain=1399.82,cover=724810
					55:[CAT_REL<0.043999] yes=111,no=112,missing=112,gain=1434.81,cover=610195
						111:leaf=0.00994966,cover=349988
						112:leaf=0.0197546,cover=260207
					56:[C_D_U_TITLEMD5_CATEGORY_MAX_C<0.192999] yes=113,no=114,missing=113,gain=670.773,cover=114615
						113:leaf=-0.00431941,cover=67376.3
						114:leaf=0.0112225,cover=47238.4
				28:[D_PUBLISHER_C<3.891] yes=57,no=58,missing=57,gain=1514.41,cover=315020
					57:[D_CATEGORY_MICRO_MEAN_COEC<0.036999] yes=115,no=116,missing=115,gain=498.083,cover=9210.11
						115:leaf=0.0676939,cover=636.809
						116:leaf=-0.0239069,cover=8573.3
					58:[U_CATEGORY_MACRO_MAX_COEC<0.007999] yes=117,no=118,missing=118,gain=971.83,cover=305810
						117:leaf=0.02934,cover=149818
						118:leaf=0.0180629,cover=155992
			14:[U_CITY_COEC<0.159999] yes=29,no=30,missing=30,gain=540.916,cover=109395
				29:[D_TITLEMD5_COEC<0.128999] yes=59,no=60,missing=59,gain=296.199,cover=74231.7
					59:[U_CITY_C<4.409] yes=119,no=120,missing=120,gain=241.747,cover=55677
						119:leaf=0.00537221,cover=6226.24
						120:leaf=0.0262815,cover=49450.7
					60:[D_KEYWORD_MAX_EC<286.755] yes=121,no=122,missing=122,gain=93.9042,cover=18554.7
						121:leaf=0.0258262,cover=4433.07
						122:leaf=0.0425209,cover=14121.6
				30:[U_CITY_C<6.324] yes=61,no=62,missing=62,gain=205.093,cover=35163.2
					61:[C_D_U_TITLEMD5_CITY_C<0.482999] yes=123,no=124,missing=123,gain=224.94,cover=12544.4
						123:leaf=0.0328041,cover=12533.2
						124:leaf=-0.396238,cover=11.2375
					62:[U_CITY_COEC<0.341999] yes=125,no=126,missing=126,gain=150.679,cover=22618.8
						125:leaf=0.045494,cover=20178.1
						126:leaf=0.0718159,cover=2440.73
booster[30]:
0:[U_CITY_COEC<0.049999] yes=1,no=2,missing=2,gain=12243.2,cover=6.16943e+06
	1:[U_CITY_COEC<0.025999] yes=3,no=4,missing=4,gain=2502.25,cover=696350
		3:[U_CITY_EC<86.031] yes=7,no=8,missing=8,gain=4300.43,cover=206448
			7:[U_CITY_EC<18.205] yes=15,no=16,missing=16,gain=467.57,cover=116499
				15:[U_CATEGORY_MAX_EC<2296.67] yes=31,no=32,missing=31,gain=535.25,cover=69948.9
					31:[C_D_U_TITLEMD5_CATEGORY_MAX_C<0.008999] yes=63,no=64,missing=64,gain=271.804,cover=53637
						63:leaf=0.020189,cover=10643.4
						64:leaf=0.0023404,cover=42993.6
					32:[C_D_U_CATEGORY_AGE_MACRO_MAX_COEC<0.064999] yes=65,no=66,missing=65,gain=278.644,cover=16311.9
						65:leaf=-0.0176008,cover=15597.8
						66:leaf=0.0462384,cover=714.114
				16:[U_CITY_COEC<0.017999] yes=33,no=34,missing=34,gain=412.733,cover=46550.5
					33:[DOC_AGE<0.999999] yes=67,no=68,missing=68,gain=392.043,cover=29715.9
						67:leaf=0.0464948,cover=886.758
						68:leaf=-0.0209775,cover=28829.1
					34:[U_CATEGORY_MAX_EC<759.597] yes=69,no=70,missing=69,gain=303.114,cover=16834.6
						69:leaf=0.0164645,cover=7038.15
						70:leaf=-0.0107383,cover=9796.49
			8:[U_CITY_COEC<0.017999] yes=17,no=18,missing=18,gain=1406.9,cover=89948.9
				17:[C_D_U_TITLEMD5_CATEGORY_MAX_EC<0.350999] yes=35,no=36,missing=35,gain=999.866,cover=38145.1
					35:[DOC_AGE<2] yes=71,no=72,missing=72,gain=430.431,cover=28889.9
						71:leaf=-0.0164769,cover=2408.93
						72:leaf=-0.0606366,cover=26481
					36:[C_D_U_TITLEMD5_CITY_EC<0.227999] yes=73,no=74,missing=73,gain=268.202,cover=9255.19
						73:leaf=-0.0276828,cover=7408.5
						74:leaf=0.0149056,cover=1846.69
				18:[D_TITLEMD5_C<167.354] yes=37,no=38,missing=37,gain=450.231,cover=51803.8
					37:[DOC_AGE<5] yes=75,no=76,missing=76,gain=440.846,cover=43057.7
						75:leaf=-0.00464205,cover=7493.73
						76:leaf=-0.0313306,cover=35564
					38:[CAT_REL<0.007999] yes=77,no=78,missing=78,gain=158.588,cover=8746.07
						77:leaf=-0.0118352,cover=5622.47
						78:leaf=0.0162638,cover=3123.6
		4:[U_CITY_EC<2345.89] yes=9,no=10,missing=10,gain=1926.82,cover=489902
			9:[D_PUBLISHER_COEC<0.042999] yes=19,no=20,missing=19,gain=1056.46,cover=470569
				19:[CAT_REL<0.077999] yes=39,no=40,missing=40,gain=524.572,cover=59991.6
					39:[U_CATEGORY_MAX_C<32.732] yes=79,no=80,missing=79,gain=511.401,cover=46320.1
						79:leaf=-0.00481305,cover=15169.7
						80:leaf=-0.0272028,cover=31150.4
					40:[U_CATEGORY_MICRO_MAX_COEC<0.080999] yes=81,no=82,missing=82,gain=334.087,cover=13671.5
						81:leaf=0.0052295,cover=13245
						82:leaf=-0.0845885,cover=426.493
				20:[DOC_AGE<97] yes=41,no=42,missing=42,gain=825.719,cover=410577
					41:[DOC_AGE<2] yes=83,no=84,missing=84,gain=941.489,cover=371920
						83:leaf=0.0185363,cover=21001.8
						84:leaf=-0.00326042,cover=350918
					42:[C_D_U_TITLEMD5_CATEGORY_MAX_EC<0.406999] yes=85,no=86,missing=85,gain=244.712,cover=38657
						85:leaf=0.00785549,cover=26249.4
						86:leaf=0.0248982,cover=12407.6
			10:[U_CATEGORY_MACRO_MAX_COEC<0.008999] yes=21,no=22,missing=22,gain=1797.61,cover=19333.4
				21:[D_TITLEMD5_EC<95.664] yes=43,no=44,missing=43,gain=315.249,cover=10661.9
					43:[U_CATEGORY_MAX_C<54.419] yes=87,no=88,missing=88,gain=486.629,cover=3264.09
						87:leaf=-0.0617365,cover=2099.34
						88:leaf=0.018841,cover=1164.76
					44:[TIME_OF_DAY<3] yes=89,no=90,missing=90,gain=245.213,cover=7397.8
						89:leaf=0.0379769,cover=1673.57
						90:leaf=-0.00552766,cover=5724.23
				22:[U_CITY_COEC<0.045999] yes=45,no=46,missing=46,gain=594.75,cover=8671.48
					45:[D_PUBLISHER_EC<10807.4] yes=91,no=92,missing=91,gain=551.325,cover=6696.23
						91:leaf=-0.106119,cover=4010.39
						92:leaf=-0.0475476,cover=2685.83
					46:[TIME_OF_DAY<14] yes=93,no=94,missing=94,gain=361.389,cover=1975.25
						93:leaf=-0.0521411,cover=1267.18
						94:leaf=0.0370061,cover=708.07
	2:[D_TITLEMD5_COEC<0.095999] yes=5,no=6,missing=5,gain=10396.7,cover=5.47308e+06
		5:[U_CATEGORY_MICRO_MAX_COEC<0.070999] yes=11,no=12,missing=11,gain=6034.58,cover=3.52657e+06
			11:[U_CATEGORY_MACRO_MAX_COEC<0.003999] yes=23,no=24,missing=24,gain=4939.37,cover=2.17895e+06
				23:[U_CITY_COEC<0.332999] yes=47,no=48,missing=47,gain=1481.64,cover=74038.7
					47:[U_CATEGORY_MICRO_MAX_COEC<0.062999] yes=95,no=96,missing=96,gain=1456.73,cover=72088.4
						95:leaf=0.0109823,cover=41787.8
						96:leaf=0.0397811,cover=30300.6
					48:[U_CATEGORY_MAX_C<14.292] yes=97,no=98,missing=98,gain=38.1051,cover=1950.34
						97:leaf=0.114056,cover=1882.47
						98:leaf=0.0371038,cover=67.8735
				24:[CAT_REL<0.045999] yes=49,no=50,missing=50,gain=4805.05,cover=2.10491e+06
					49:[DOC_AGE<49] yes=99,no=100,missing=100,gain=3837.44,cover=1.4634e+06
						99:leaf=-0.00785381,cover=939031
						100:leaf=0.00282554,cover=524365
					50:[U_CATEGORY_MAX_EC<4844.74] yes=101,no=102,missing=101,gain=1959.26,cover=641518
						101:leaf=0.00798349,cover=590115
						102:leaf=-0.0123721,cover=51403.4
			12:[D_PUBLISHER_COEC<0.033999] yes=25,no=26,missing=25,gain=3722,cover=1.34762e+06
				25:[U_CITY_COEC<0.087999] yes=51,no=52,missing=52,gain=702.092,cover=100891
					51:[C_D_U_TITLEMD5_CATEGORY_MAX_EC<0.077999] yes=103,no=104,missing=103,gain=627.209,cover=60234
						103:leaf=-0.0221359,cover=47244.1
						104:leaf=0.00267521,cover=12989.9
					52:[U_CATEGORY_MACRO_MAX_COEC<0.009999] yes=105,no=106,missing=106,gain=440.258,cover=40656.5
						105:leaf=0.00585786,cover=31436.1
						106:leaf=-0.0189912,cover=9220.4
				26:[U_CATEGORY_MACRO_MAX_COEC<0.012999] yes=53,no=54,missing=54,gain=2928.18,cover=1.24673e+06
					53:[CAT_REL<0.040999] yes=107,no=108,missing=108,gain=2170.39,cover=1.11751e+06
						107:leaf=0.00879843,cover=781951
						108:leaf=0.0184128,cover=335556
					54:[DOC_AGE<93] yes=109,no=110,missing=110,gain=751.81,cover=129223
						109:leaf=-0.00746456,cover=109365
						110:leaf=0.0136853,cover=19858
		6:[CAT_REL<0.001999] yes=13,no=14,missing=14,gain=4975.61,cover=1.9465e+06
			13:[DOC_AGE<47] yes=27,no=28,missing=28,gain=2147.48,cover=930464
				27:[D_TITLEMD5_COEC<0.156999] yes=55,no=56,missing=56,gain=1980.28,cover=624388
					55:[U_CATEGORY_MACRO_MAX_COEC<0.010999] yes=111,no=112,missing=112,gain=1515.35,cover=492184
						111:leaf=0.00555625,cover=284798
						112:leaf=-0.00568104,cover=207386
					56:[D_TITLEMD5_C<3.926] yes=113,no=114,missing=114,gain=779.441,cover=132204
						113:leaf=-0.0145958,cover=8548.48
						114:leaf=0.0166251,cover=123656
				28:[U_CITY_COEC<0.134999] yes=57,no=58,missing=57,gain=575.153,cover=306076
					57:[U_CATEGORY_MICRO_MAX_COEC<0.065999] yes=115,no=116,missing=116,gain=528.196,cover=291769
						115:leaf=0.00610824,cover=80430.3
						116:leaf=0.0156301,cover=211339
					58:[D_TITLEMD5_EC<3.482] yes=117,no=118,missing=118,gain=89.4079,cover=14306.5
						117:leaf=-0.209821,cover=14.0996
						118:leaf=0.0337959,cover=14292.4
			14:[D_TITLEMD5_C<1.956] yes=29,no=30,missing=30,gain=2982.27,cover=1.01604e+06
				29:[U_CITY_COEC<0.091999] yes=59,no=60,missing=59,gain=673.686,cover=63842.1
					59:[C_D_U_CATEGORY_CATEGORY_MICRO_MAX_COEC<0.051999] yes=119,no=120,missing=120,gain=532.873,cover=54006.4
						119:leaf=-0.0359521,cover=6086.11
						120:leaf=-0.00454154,cover=47920.3
					60:[C_D_U_CATEGORY_AGE_MEAN_EC<5501.73] yes=121,no=122,missing=121,gain=192.445,cover=9835.71
						121:leaf=0.0208319,cover=9825.98
						122:leaf=-0.402952,cover=9.72965
				30:[D_TITLEMD5_COEC<0.152999] yes=61,no=62,missing=62,gain=2745.07,cover=952198
					61:[U_CITY_COEC<0.101999] yes=123,no=124,missing=123,gain=1505.39,cover=779055
						123:leaf=0.0145757,cover=695756
						124:leaf=0.0288009,cover=83299.8
					62:[D_TITLEMD5_COEC<0.213999] yes=125,no=126,missing=126,gain=679.237,cover=173143
						125:leaf=0.0269247,cover=139212
						126:leaf=0.0427044,cover=33930.9
booster[31]:
0:[U_CITY_COEC<0.075999] yes=1,no=2,missing=1,gain=11751,cover=6.1529e+06
	1:[D_TITLEMD5_C<9.703] yes=3,no=4,missing=3,gain=8912.98,cover=4.5591e+06
		3:[DOC_AGE<2] yes=7,no=8,missing=8,gain=5747.24,cover=1.35719e+06
			7:[C_D_U_CATEGORY_CATEGORY_MICRO_MAX_COEC<0.094999] yes=15,no=16,missing=15,gain=1200.82,cover=186615
				15:[U_CATEGORY_MACRO_MAX_COEC<0.006999] yes=31,no=32,missing=32,gain=693.838,cover=157852
					31:[D_PUBLISHER_COEC<0.052999] yes=63,no=64,missing=63,gain=734.866,cover=65971.3
						63:leaf=0.00146135,cover=23222.8
						64:leaf=0.0235599,cover=42748.5
					32:[D_PUBLISHER_EC<7241.34] yes=65,no=66,missing=65,gain=549.357,cover=91880.8
						65:leaf=0.00883103,cover=53891.9
						66:leaf=-0.00687059,cover=37988.9
				16:[U_CATEGORY_MACRO_MAX_COEC<0.016999] yes=33,no=34,missing=34,gain=327.572,cover=28762.7
					33:[D_PUBLISHER_C<3.93] yes=67,no=68,missing=67,gain=229.025,cover=27027
						67:leaf=0.0078308,cover=3216.96
						68:leaf=0.036261,cover=23810
					34:[U_CITY_EC<622.275] yes=69,no=70,missing=70,gain=165.911,cover=1735.71
						69:leaf=-0.063893,cover=452.907
						70:leaf=0.0064484,cover=1282.81
			8:[CAT_REL<0.079999] yes=17,no=18,missing=18,gain=4826.98,cover=1.17057e+06
				17:[U_CATEGORY_MAX_EC<721.653] yes=35,no=36,missing=35,gain=2585.51,cover=914986
					35:[U_CATEGORY_MICRO_MAX_COEC<0.082999] yes=71,no=72,missing=71,gain=1588.13,cover=481250
						71:leaf=-0.00853656,cover=395538
						72:leaf=0.00647794,cover=85712.1
					36:[DOC_AGE<64] yes=73,no=74,missing=74,gain=1780.19,cover=433736
						73:leaf=-0.0200498,cover=332217
						74:leaf=-0.00491897,cover=101519
				18:[WORD_COUNT<898] yes=37,no=38,missing=38,gain=1716.74,cover=255586
					37:[U_CATEGORY_MAX_C<5.33] yes=75,no=76,missing=76,gain=286.381,cover=31096.5
						75:leaf=0.110007,cover=174.49
						76:leaf=-0.0181076,cover=30922
					38:[U_CATEGORY_MACRO_MAX_COEC<0.020999] yes=77,no=78,missing=77,gain=1162.42,cover=224490
						77:leaf=0.00965467,cover=208846
						78:leaf=-0.0186063,cover=15643.5
		4:[CAT_REL<0.003999] yes=9,no=10,missing=10,gain=6217.33,cover=3.20192e+06
			9:[C_D_U_TITLEMD5_CITY_COEC<0.037999] yes=19,no=20,missing=19,gain=3451.64,cover=1.56654e+06
				19:[D_TITLEMD5_COEC<0.141999] yes=39,no=40,missing=40,gain=2490.25,cover=1.18149e+06
					39:[DOC_AGE<34] yes=79,no=80,missing=80,gain=2652.33,cover=1.04703e+06
						79:leaf=-0.00903195,cover=531391
						80:leaf=0.00103534,cover=515640
					40:[D_KEYWORD_MICRO_MAX_COEC<0.206999] yes=81,no=82,missing=82,gain=873.596,cover=134458
						81:leaf=0.00789105,cover=122734
						82:leaf=0.0364618,cover=11723.6
				20:[D_KEYWORD_MEAN_EC<1298.56] yes=41,no=42,missing=42,gain=882.474,cover=385054
					41:[DOC_AGE<79] yes=83,no=84,missing=84,gain=496.294,cover=150291
						83:leaf=-0.000223394,cover=122893
						84:leaf=0.0146603,cover=27397.4
					42:[C_D_U_CATEGORY_CATEGORY_MACRO_MEAN_COEC<0.010999] yes=85,no=86,missing=85,gain=610.232,cover=234763
						85:leaf=0.0151639,cover=178561
						86:leaf=0.00321591,cover=56202.1
			10:[U_CATEGORY_MAX_EC<681.554] yes=21,no=22,missing=22,gain=4088.42,cover=1.63538e+06
				21:[C_D_U_CATEGORY_CATEGORY_MICRO_MAX_COEC<0.113999] yes=43,no=44,missing=43,gain=1346.59,cover=533138
					43:[U_CITY_C<30.876] yes=87,no=88,missing=88,gain=1122.8,cover=454741
						87:leaf=0.00451346,cover=95225.4
						88:leaf=0.0167258,cover=359516
					44:[CAT_REL<0.024999] yes=89,no=90,missing=90,gain=290.989,cover=78396.9
						89:leaf=0.0205948,cover=29880.2
						90:leaf=0.0331408,cover=48516.7
				22:[C_D_U_TITLEMD5_CATEGORY_MAX_C<0.115999] yes=45,no=46,missing=45,gain=2374.85,cover=1.10224e+06
					45:[U_CATEGORY_MACRO_MAX_COEC<0.008999] yes=91,no=92,missing=92,gain=2545.48,cover=639629
						91:leaf=0.00608125,cover=427731
						92:leaf=-0.00732167,cover=211898
					46:[C_D_U_TITLEMD5_CATEGORY_MICRO_MAX_COEC<0.134999] yes=93,no=94,missing=94,gain=1838.89,cover=462608
						93:leaf=0.00632734,cover=296491
						94:leaf=0.0194697,cover=166118
	2:[U_CITY_COEC<0.139999] yes=5,no=6,missing=6,gain=5163.51,cover=1.59379e+06
		5:[U_CITY_C<1086.06] yes=11,no=12,missing=12,gain=3204.16,cover=1.37736e+06
			11:[D_PUBLISHER_COEC<0.059999] yes=23,no=24,missing=23,gain=2743.82,cover=1.26932e+06
				23:[D_KEYWORD_MACRO_MEAN_COEC<0.038999] yes=47,no=48,missing=48,gain=932.703,cover=360186
					47:[U_CATEGORY_MAX_C<53.998] yes=95,no=96,missing=95,gain=368.527,cover=24679.5
						95:leaf=-0.00627848,cover=12893.6
						96:leaf=-0.030743,cover=11785.8
					48:[U_CATEGORY_MICRO_MAX_COEC<0.054999] yes=97,no=98,missing=98,gain=986.896,cover=335506
						97:leaf=-0.02432,cover=13487.5
						98:leaf=0.00328985,cover=322018
				24:[U_CATEGORY_MACRO_MAX_COEC<0.005999] yes=49,no=50,missing=50,gain=2039.57,cover=909134
					49:[D_KEYWORD_MEAN_EC<1233.4] yes=99,no=100,missing=99,gain=780.524,cover=217962
						99:leaf=0.014082,cover=118844
						100:leaf=0.0260998,cover=99117.8
					50:[CAT_REL<0.036999] yes=101,no=102,missing=102,gain=1834.45,cover=691172
						101:leaf=0.00505195,cover=481392
						102:leaf=0.016257,cover=209781
			12:[U_CATEGORY_MAX_EC<1615.91] yes=25,no=26,missing=25,gain=778.238,cover=108041
				25:[U_CATEGORY_MACRO_MAX_COEC<0.003999] yes=51,no=52,missing=52,gain=693.96,cover=81164.7
					51:[U_CATEGORY_MICRO_MAX_COEC<0.063999] yes=103,no=104,missing=104,gain=280.974,cover=2339.07
						103:leaf=0.00360573,cover=361.526
						104:leaf=0.0994908,cover=1977.54
					52:[U_AGE_C<13621.3] yes=105,no=106,missing=106,gain=421.989,cover=78825.6
						105:leaf=0.0521285,cover=7411.12
						106:leaf=0.0270578,cover=71414.5
				26:[D_TITLEMD5_C<0.999999] yes=53,no=54,missing=54,gain=744.716,cover=26876.4
					53:[D_KEYWORD_MACRO_MEAN_COEC<0.047999] yes=107,no=108,missing=107,gain=203.337,cover=1908.88
						107:leaf=-0.0982304,cover=578.944
						108:leaf=-0.0272387,cover=1329.93
					54:[C_D_U_TITLEMD5_CATEGORY_MAX_EC<2.036] yes=109,no=110,missing=110,gain=212.7,cover=24967.5
						109:leaf=0.00718128,cover=13083
						110:leaf=0.0256627,cover=11884.5
		6:[U_CITY_COEC<0.260999] yes=13,no=14,missing=14,gain=1735.35,cover=216434
			13:[U_CITY_C<6.304] yes=27,no=28,missing=28,gain=1016.46,cover=176663
				27:[D_TITLEMD5_COEC<0.077999] yes=55,no=56,missing=55,gain=512.656,cover=49727.1
					55:[DOC_AGE<70] yes=111,no=112,missing=112,gain=352.668,cover=18524.9
						111:leaf=-0.0116198,cover=13617.5
						112:leaf=0.0196446,cover=4907.42
					56:[C_D_U_TITLEMD5_CITY_C<0.457999] yes=113,no=114,missing=113,gain=190.558,cover=31202.1
						113:leaf=0.0181035,cover=31104.4
						114:leaf=-0.121038,cover=97.7551
				28:[U_CATEGORY_MAX_C<83.653] yes=57,no=58,missing=58,gain=470.669,cover=126936
					57:[D_KEYWORD_MACRO_MEAN_COEC<0.065999] yes=115,no=116,missing=116,gain=323.241,cover=83801.9
						115:leaf=0.0246084,cover=40210.6
						116:leaf=0.0370415,cover=43591.3
					58:[D_KEYWORD_MACRO_MEAN_COEC<0.059999] yes=117,no=118,missing=117,gain=306.693,cover=43133.7
						117:leaf=0.00349988,cover=10658.6
						118:leaf=0.0230497,cover=32475.2
			14:[U_CITY_C<8.605] yes=29,no=30,missing=30,gain=1073.82,cover=39771
				29:[D_TITLEMD5_COEC<0.043999] yes=59,no=60,missing=59,gain=340.855,cover=20597.2
					59:[U_CATEGORY_MAX_C<185.498] yes=119,no=120,missing=120,gain=451.493,cover=2008.81
						119:leaf=0.0176127,cover=1502.89
						120:leaf=-0.0915156,cover=505.923
					60:[U_CITY_C<0.740999] yes=121,no=122,missing=122,gain=255.976,cover=18588.3
						121:leaf=-0.00774448,cover=1394.68
						122:leaf=0.0367953,cover=17193.7
				30:[U_CATEGORY_MAX_EC<221.719] yes=61,no=62,missing=62,gain=629.193,cover=19173.9
					61:[U_CITY_EC<146.45] yes=123,no=124,missing=124,gain=77.8422,cover=3386.97
						123:leaf=0.0795212,cover=1121.85
						124:leaf=0.111931,cover=2265.11
					62:[U_CITY_C<219.761] yes=125,no=126,missing=126,gain=398.681,cover=15786.9
						125:leaf=0.0575187,cover=14931.1
						126:leaf=-0.0126494,cover=855.823
booster[32]:
0:[U_CITY_COEC<0.116999] yes=1,no=2,missing=1,gain=10111.8,cover=6.12886e+06
	1:[D_TITLEMD5_C<20.865] yes=3,no=4,missing=3,gain=9003.2,cover=5.77543e+06
		3:[CAT_REL<0.047999] yes=7,no=8,missing=8,gain=5719.64,cover=2.27071e+06
			7:[DOC_AGE<2] yes=15,no=16,missing=16,gain=4191.79,cover=1.44236e+06
				15:[U_CATEGORY_MAX_C<115.13] yes=31,no=32,missing=31,gain=1182.01,cover=178343
					31:[D_KEYWORD_MEAN_EC<793.183] yes=63,no=64,missing=64,gain=1053.67,cover=147916
						63:leaf=0.0024673,cover=61865.8
						64:leaf=0.0195776,cover=86050.3
					32:[D_KEYWORD_MACRO_MEAN_COEC<0.041999] yes=65,no=66,missing=65,gain=407.86,cover=30427.1
						65:leaf=-0.0409476,cover=3574.72
						66:leaf=-0.00499563,cover=26852.4
				16:[D_CATEGORY_MEAN_EC<47310.6] yes=33,no=34,missing=34,gain=2783.23,cover=1.26402e+06
					33:[DOC_AGE<95] yes=67,no=68,missing=68,gain=3201.47,cover=820381
						67:leaf=-0.0137927,cover=691722
						68:leaf=0.0033862,cover=128659
					34:[U_CATEGORY_MACRO_MAX_COEC<0.007999] yes=69,no=70,missing=69,gain=1362.89,cover=443640
						69:leaf=0.00225844,cover=315859
						70:leaf=-0.00998109,cover=127781
			8:[WORD_COUNT<811] yes=17,no=18,missing=18,gain=2616.25,cover=828348
				17:[D_PUBLISHER_COEC<0.029999] yes=35,no=36,missing=35,gain=507.236,cover=82232.2
					35:[C_D_U_TITLEMD5_CATEGORY_MICRO_MAX_COEC<0.098999] yes=71,no=72,missing=72,gain=507.658,cover=13658.1
						71:leaf=-0.0146946,cover=8497.14
						72:leaf=-0.0544577,cover=5160.99
					36:[D_CATEGORY_MACRO_MAX_COEC<0.050999] yes=73,no=74,missing=74,gain=347.392,cover=68574.1
						73:leaf=0.00208064,cover=21033.7
						74:leaf=-0.013354,cover=47540.5
				18:[U_CATEGORY_MACRO_MAX_COEC<0.014999] yes=37,no=38,missing=37,gain=1817.15,cover=746115
					37:[D_KEYWORD_MACRO_MEAN_COEC<0.052999] yes=75,no=76,missing=76,gain=1592.6,cover=662875
						75:leaf=0.00200739,cover=244575
						76:leaf=0.0121656,cover=418300
					38:[CAT_REL<0.189999] yes=77,no=78,missing=78,gain=1606.8,cover=83240.2
						77:leaf=-0.0238424,cover=34326
						78:leaf=0.00438127,cover=48914.2
		4:[U_CATEGORY_MICRO_MAX_COEC<0.071999] yes=9,no=10,missing=9,gain=7264.72,cover=3.50472e+06
			9:[U_CATEGORY_MACRO_MAX_COEC<0.004999] yes=19,no=20,missing=20,gain=5196.31,cover=2.34887e+06
				19:[CAT_REL<0.022999] yes=39,no=40,missing=40,gain=937.378,cover=250682
					39:[D_KEYWORD_MEAN_C<85.966] yes=79,no=80,missing=80,gain=642.279,cover=183191
						79:leaf=0.00636448,cover=81680.3
						80:leaf=0.018277,cover=101511
					40:[U_CATEGORY_MAX_C<95.895] yes=81,no=82,missing=82,gain=317.814,cover=67490.9
						81:leaf=0.0297262,cover=56817.1
						82:leaf=0.0109182,cover=10673.8
				20:[C_D_U_TITLEMD5_CITY_COEC<0.037999] yes=41,no=42,missing=41,gain=3426.27,cover=2.09819e+06
					41:[D_TITLEMD5_COEC<0.147999] yes=83,no=84,missing=84,gain=2810.2,cover=1.56094e+06
						83:leaf=-0.00226732,cover=1.41925e+06
						84:leaf=0.012502,cover=141691
					42:[D_PUBLISHER_COEC<0.105999] yes=85,no=86,missing=86,gain=910.416,cover=537245
						85:leaf=0.00597746,cover=404805
						86:leaf=0.015529,cover=132440
			10:[U_CATEGORY_MACRO_MAX_COEC<0.008999] yes=21,no=22,missing=22,gain=3336.35,cover=1.15585e+06
				21:[U_CITY_C<23.364] yes=43,no=44,missing=44,gain=1791.49,cover=703688
					43:[CAT_REL<0.042999] yes=87,no=88,missing=88,gain=521.319,cover=133931
						87:leaf=0.00384491,cover=111363
						88:leaf=0.0205126,cover=22567.2
					44:[CAT_REL<0.019999] yes=89,no=90,missing=90,gain=1253.46,cover=569758
						89:leaf=0.0159025,cover=358228
						90:leaf=0.0256107,cover=211530
				22:[C_D_U_TITLEMD5_CATEGORY_MAX_C<0.173999] yes=45,no=46,missing=45,gain=1511.89,cover=452164
					45:[U_CATEGORY_MICRO_MAX_COEC<0.089999] yes=91,no=92,missing=92,gain=1359.63,cover=270094
						91:leaf=-0.00223997,cover=216165
						92:leaf=0.0155085,cover=53929.2
					46:[U_CATEGORY_MACRO_MAX_COEC<0.022999] yes=93,no=94,missing=94,gain=1036.25,cover=182070
						93:leaf=0.0156487,cover=163344
						94:leaf=-0.00918654,cover=18726.1
	2:[U_CITY_COEC<0.295999] yes=5,no=6,missing=6,gain=1776.83,cover=353425
		5:[U_CITY_C<3.361] yes=11,no=12,missing=12,gain=1026.48,cover=325160
			11:[C_D_U_TITLEMD5_CATEGORY_MAX_C<0.099999] yes=23,no=24,missing=24,gain=443.041,cover=43156.3
				23:[U_CATEGORY_MICRO_MAX_COEC<0.059999] yes=47,no=48,missing=48,gain=356.512,cover=21692.9
					47:[D_CATEGORY_MAX_EC<63267.1] yes=95,no=96,missing=96,gain=181.595,cover=3407.21
						95:leaf=-0.0269984,cover=2983.79
						96:leaf=-0.0969307,cover=423.417
					48:[D_KEYWORD_MACRO_MEAN_COEC<0.033999] yes=97,no=98,missing=98,gain=219.979,cover=18285.7
						97:leaf=-0.140565,cover=110.426
						98:leaf=0.000371892,cover=18175.2
				24:[U_CITY_C<0.928999] yes=49,no=50,missing=50,gain=254.439,cover=21463.4
					49:[D_TITLEMD5_COEC<0.116999] yes=99,no=100,missing=99,gain=182.96,cover=3768.36
						99:leaf=-0.0265299,cover=2343.08
						100:leaf=0.0188947,cover=1425.29
					50:[D_KEYWORD_MACRO_MEAN_COEC<0.051999] yes=101,no=102,missing=101,gain=216.919,cover=17695
						101:leaf=-0.0284331,cover=903.814
						102:leaf=0.0218361,cover=16791.2
			12:[D_TITLEMD5_COEC<0.128999] yes=25,no=26,missing=26,gain=691.878,cover=282003
				25:[U_CITY_COEC<0.155999] yes=51,no=52,missing=52,gain=437.059,cover=236838
					51:[U_CITY_EC<146.765] yes=103,no=104,missing=104,gain=371.934,cover=148249
						103:leaf=0.00970772,cover=68215.4
						104:leaf=0.0197576,cover=80033.5
					52:[U_CATEGORY_MAX_C<87.103] yes=105,no=106,missing=106,gain=276.901,cover=88589
						105:leaf=0.0278858,cover=59850.5
						106:leaf=0.0159425,cover=28738.6
				26:[C_D_U_TITLEMD5_CATEGORY_MAX_EC<3.9] yes=53,no=54,missing=54,gain=248.607,cover=45165.5
					53:[U_CITY_C<6.405] yes=107,no=108,missing=108,gain=114.944,cover=31598.4
						107:leaf=0.0213311,cover=4163.3
						108:leaf=0.0391718,cover=27435.1
					54:[D_CATEGORY_MACRO_MAX_COEC<0.046999] yes=109,no=110,missing=110,gain=159.641,cover=13567.1
						109:leaf=0.0360198,cover=4504.55
						110:leaf=0.0129851,cover=9062.54
		6:[U_CATEGORY_MAX_EC<220.803] yes=13,no=14,missing=14,gain=856.501,cover=28265
			13:[U_CITY_EC<28.761] yes=27,no=28,missing=28,gain=201.216,cover=3052.26
				27:[U_CATEGORY_MICRO_MAX_COEC<0.068999] yes=55,no=56,missing=56,gain=239.286,cover=323.583
					55:[D_PUBLISHER_COEC<0.098999] yes=111,no=112,missing=112,gain=108.048,cover=26.9553
						111:leaf=-0.433161,cover=14.7387
						112:leaf=-0.033815,cover=12.2166
					56:[D_CATEGORY_MICRO_MEAN_COEC<0.054999] yes=113,no=114,missing=114,gain=89.2782,cover=296.628
						113:leaf=-0.328992,cover=5.23077
						114:leaf=0.0540064,cover=291.397
				28:[C_D_U_TITLEMD5_CITY_C<0.994999] yes=57,no=58,missing=57,gain=26.3559,cover=2728.67
					57:[U_CITY_EC<170.22] yes=115,no=116,missing=116,gain=27.3245,cover=2720.02
						115:leaf=0.0881433,cover=801.261
						116:leaf=0.110549,cover=1918.76
					58:leaf=-0.0648773,cover=8.65225
			14:[U_CITY_C<1.766] yes=29,no=30,missing=30,gain=538.55,cover=25212.7
				29:[U_GENDER_COEC<0.075999] yes=59,no=60,missing=60,gain=183.76,cover=5016.05
					59:[CAT_REL<0.189999] yes=117,no=118,missing=118,gain=134.928,cover=28.3775
						117:leaf=-0.371248,cover=20.4317
						118:leaf=0.100585,cover=7.94579
					60:[C_D_U_CATEGORY_AGE_MICRO_MAX_COEC<0.091999] yes=119,no=120,missing=120,gain=173.92,cover=4987.67
						119:leaf=0.0795183,cover=340.479
						120:leaf=0.00557455,cover=4647.19
				30:[U_CITY_C<221.745] yes=61,no=62,missing=62,gain=241.56,cover=20196.7
					61:[U_CITY_C<8.665] yes=121,no=122,missing=122,gain=151.645,cover=19282.4
						121:leaf=0.0396789,cover=10076.5
						122:leaf=0.057446,cover=9205.88
					62:[U_CATEGORY_MICRO_MAX_COEC<0.079999] yes=123,no=124,missing=123,gain=261.238,cover=914.269
						123:leaf=0.00167051,cover=903.453
						124:leaf=-0.471596,cover=10.8159
booster[33]:
0:[U_CITY_COEC<0.045999] yes=1,no=2,missing=2,gain=9761.9,cover=6.11105e+06
	1:[D_TITLEMD5_C<158.087] yes=3,no=4,missing=3,gain=1834.92,cover=575227
		3:[U_CITY_COEC<0.025999] yes=7,no=8,missing=8,gain=1870.85,cover=434742
			7:[U_CITY_EC<99.254] yes=15,no=16,missing=16,gain=2752.97,cover=149640
				15:[D_PUBLISHER_C<2862.55] yes=31,no=32,missing=32,gain=603.774,cover=78529.2
					31:[U_CITY_EC<18.035] yes=63,no=64,missing=64,gain=578.561,cover=67411.6
						63:leaf=0.00390868,cover=36699.6
						64:leaf=-0.014693,cover=30712.1
					32:[C_D_U_CATEGORY_CATEGORY_MAX_C<1.924] yes=65,no=66,missing=66,gain=571.064,cover=11117.5
						65:leaf=-0.00875311,cover=5991.88
						66:leaf=-0.0542188,cover=5125.67
				16:[U_CITY_COEC<0.017999] yes=33,no=34,missing=34,gain=873.459,cover=71110.5
					33:[C_D_U_TITLEMD5_CATEGORY_MAX_EC<1.453] yes=67,no=68,missing=67,gain=446.353,cover=30576.2
						67:leaf=-0.0504797,cover=29386.7
						68:leaf=0.0119956,cover=1189.51
					34:[CAT_REL<0.041999] yes=69,no=70,missing=70,gain=336.086,cover=40534.3
						69:leaf=-0.0327956,cover=25116
						70:leaf=-0.0140382,cover=15418.4
			8:[U_CITY_EC<2175.02] yes=17,no=18,missing=18,gain=870.971,cover=285102
				17:[DOC_AGE<4] yes=35,no=36,missing=36,gain=595.732,cover=273381
					35:[C_D_U_CATEGORY_CATEGORY_MICRO_MAX_COEC<0.058999] yes=71,no=72,missing=72,gain=286.865,cover=38485.3
						71:leaf=-0.00972378,cover=9411.4
						72:leaf=0.0103621,cover=29073.9
					36:[DOC_AGE<66] yes=73,no=74,missing=74,gain=724.73,cover=234896
						73:leaf=-0.0111891,cover=175895
						74:leaf=0.00161853,cover=59001.2
				18:[U_CATEGORY_MACRO_MAX_COEC<0.008999] yes=37,no=38,missing=38,gain=984.555,cover=11721.4
					37:[U_CITY_C<148.995] yes=75,no=76,missing=76,gain=392.025,cover=6896.61
						75:leaf=-0.017632,cover=6205.82
						76:leaf=0.0617314,cover=690.794
					38:[U_CITY_C<126.509] yes=77,no=78,missing=78,gain=425.749,cover=4824.79
						77:leaf=-0.0472532,cover=3187.85
						78:leaf=-0.110013,cover=1636.94
		4:[C_D_U_TITLEMD5_CITY_EC<10.626] yes=9,no=10,missing=9,gain=1261.44,cover=140485
			9:[U_CATEGORY_MACRO_MAX_COEC<0.012999] yes=19,no=20,missing=19,gain=691.832,cover=139457
				19:[DOC_AGE<85] yes=39,no=40,missing=40,gain=445.355,cover=121086
					39:[D_TITLEMD5_EC<7514.35] yes=79,no=80,missing=80,gain=395.692,cover=105992
						79:leaf=-8.2796e-05,cover=90607
						80:leaf=0.017262,cover=15385.3
					40:[D_CATEGORY_MACRO_MAX_COEC<0.036999] yes=81,no=82,missing=82,gain=124.434,cover=15094.1
						81:leaf=-0.012864,cover=1023.32
						82:leaf=0.0232425,cover=14070.8
				20:[DOC_AGE<27] yes=41,no=42,missing=42,gain=391.26,cover=18370.6
					41:[D_CATEGORY_MAX_C<431.63] yes=83,no=84,missing=84,gain=248.357,cover=6940.21
						83:leaf=-0.343982,cover=24.9003
						84:leaf=-0.0336665,cover=6915.31
					42:[D_CATEGORY_MAX_C<6962.01] yes=85,no=86,missing=86,gain=213.712,cover=11430.4
						85:leaf=-0.00136961,cover=10780.5
						86:leaf=-0.0603766,cover=649.854
			10:[D_PUBLISHER_EC<10813.7] yes=21,no=22,missing=22,gain=393.327,cover=1027.74
				21:[D_CATEGORY_MAX_EC<72153.4] yes=43,no=44,missing=44,gain=213.236,cover=555.001
					43:[C_D_U_TITLEMD5_CITY_EC<20.83] yes=87,no=88,missing=88,gain=178.745,cover=461.37
						87:leaf=-0.126251,cover=214.204
						88:leaf=-0.252087,cover=247.166
					44:[D_KEYWORD_MICRO_MEAN_COEC<0.090999] yes=89,no=90,missing=90,gain=108.353,cover=93.6313
						89:leaf=-0.244277,cover=17.6513
						90:leaf=0.024465,cover=75.98
				22:[WORD_COUNT<1433] yes=45,no=46,missing=46,gain=186.436,cover=472.738
					45:[D_CATEGORY_MACRO_MAX_COEC<0.068999] yes=91,no=92,missing=92,gain=181.626,cover=260.723
						91:leaf=-0.193362,cover=35.2133
						92:leaf=0.0478429,cover=225.51
					46:[D_TITLEMD5_EC<10758.4] yes=93,no=94,missing=94,gain=141.786,cover=212.015
						93:leaf=-0.171622,cover=136.897
						94:leaf=-0.000855667,cover=75.1178
	2:[D_PUBLISHER_COEC<0.075999] yes=5,no=6,missing=6,gain=7854.59,cover=5.53582e+06
		5:[D_PUBLISHER_COEC<0.033999] yes=11,no=12,missing=12,gain=4401.52,cover=3.21967e+06
			11:[D_PUBLISHER_EC<318.243] yes=23,no=24,missing=24,gain=2302.8,cover=287277
				23:[TIME_OF_DAY<4] yes=47,no=48,missing=48,gain=703.684,cover=158351
					47:[C_D_U_TITLEMD5_CATEGORY_MICRO_MAX_COEC<0.080999] yes=95,no=96,missing=96,gain=368.088,cover=36806.8
						95:leaf=-0.00503558,cover=20157.4
						96:leaf=-0.0251276,cover=16649.4
					48:[TIME_OF_DAY<16] yes=97,no=98,missing=98,gain=618.888,cover=121544
						97:leaf=0.00923297,cover=57141.3
						98:leaf=-0.00506394,cover=64402.5
				24:[D_TITLEMD5_C<3.926] yes=49,no=50,missing=49,gain=2232.29,cover=128926
					49:[DOC_AGE<7] yes=99,no=100,missing=100,gain=1146.4,cover=69154.3
						99:leaf=-0.0129424,cover=21295.1
						100:leaf=-0.0408335,cover=47859.2
					50:[U_CATEGORY_MACRO_MAX_COEC<0.009999] yes=101,no=102,missing=101,gain=349.858,cover=59771.8
						101:leaf=-0.00216654,cover=48483.9
						102:leaf=-0.0217133,cover=11287.9
			12:[U_CATEGORY_MICRO_MAX_COEC<0.061999] yes=25,no=26,missing=25,gain=4251.16,cover=2.93239e+06
				25:[D_PUBLISHER_EC<2344.18] yes=51,no=52,missing=52,gain=1863.68,cover=934581
					51:[CAT_REL<0.071999] yes=103,no=104,missing=104,gain=596.144,cover=223191
						103:leaf=0.00228338,cover=166865
						104:leaf=0.0141814,cover=56326.4
					52:[U_CATEGORY_MAX_EC<3391.73] yes=105,no=106,missing=105,gain=1676.81,cover=711389
						105:leaf=-0.00287413,cover=579747
						106:leaf=-0.0153761,cover=131642
				26:[U_CATEGORY_MACRO_MAX_COEC<0.020999] yes=53,no=54,missing=54,gain=2976.16,cover=1.99781e+06
					53:[C_D_U_TITLEMD5_CATEGORY_MAX_C<0.030999] yes=107,no=108,missing=107,gain=3195.81,cover=1.94688e+06
						107:leaf=0.00335265,cover=1.3309e+06
						108:leaf=0.0120644,cover=615983
					54:[C_D_U_TITLEMD5_CATEGORY_MAX_EC<2.578] yes=109,no=110,missing=109,gain=532.053,cover=50930.2
						109:leaf=-0.0260047,cover=32715.7
						110:leaf=-0.00468011,cover=18214.6
		6:[CAT_REL<0.028999] yes=13,no=14,missing=14,gain=4165.13,cover=2.31615e+06
			13:[U_CATEGORY_MACRO_MAX_COEC<0.005999] yes=27,no=28,missing=28,gain=2856.39,cover=1.6392e+06
				27:[D_TITLEMD5_COEC<0.130999] yes=55,no=56,missing=56,gain=983.168,cover=363434
					55:[U_CATEGORY_MICRO_MAX_COEC<0.061999] yes=111,no=112,missing=112,gain=631.051,cover=279611
						111:leaf=0.00469339,cover=89677
						112:leaf=0.0148716,cover=189934
					56:[D_PUBLISHER_C<17.824] yes=113,no=114,missing=113,gain=479.216,cover=83823.1
						113:leaf=-0.0135098,cover=3280.06
						114:leaf=0.0254803,cover=80543.1
				28:[U_CATEGORY_MICRO_MAX_COEC<0.080999] yes=57,no=58,missing=57,gain=2575.08,cover=1.27577e+06
					57:[D_PUBLISHER_COEC<0.126999] yes=115,no=116,missing=116,gain=1895.06,cover=1.09988e+06
						115:leaf=0.000962736,cover=950326
						116:leaf=0.0130729,cover=149552
					58:[U_CATEGORY_MAX_EC<590.465] yes=117,no=118,missing=118,gain=701.781,cover=175891
						117:leaf=0.021283,cover=97829.3
						118:leaf=0.00856925,cover=78061.7
			14:[U_CATEGORY_MACRO_MAX_COEC<0.014999] yes=29,no=30,missing=29,gain=1923.6,cover=676950
				29:[C_D_U_TITLEMD5_CATEGORY_MICRO_MAX_COEC<0.159999] yes=59,no=60,missing=59,gain=1273.72,cover=605998
					59:[D_CATEGORY_MEAN_C<9033.11] yes=119,no=120,missing=119,gain=804.151,cover=458374
						119:leaf=0.0159344,cover=443979
						120:leaf=-0.00808013,cover=14395.6
					60:[C_D_U_TITLEMD5_CATEGORY_MAX_C<0.057999] yes=121,no=122,missing=122,gain=425.679,cover=147624
						121:leaf=0.0189374,cover=55456.9
						122:leaf=0.0300262,cover=92167
				30:[D_PUBLISHER_C<2531.55] yes=61,no=62,missing=62,gain=702.093,cover=70951.9
					61:[C_D_U_CATEGORY_CATEGORY_MICRO_MEAN_COEC<0.091999] yes=123,no=124,missing=124,gain=326.725,cover=54201.8
						123:leaf=-0.000307636,cover=33026.5
						124:leaf=0.0156051,cover=21175.2
					62:[U_CATEGORY_MACRO_MAX_COEC<0.022999] yes=125,no=126,missing=126,gain=279.653,cover=16750.1
						125:leaf=-0.0103996,cover=12854.6
						126:leaf=-0.0409829,cover=3895.52
booster[34]:
0:[U_CITY_COEC<0.074999] yes=1,no=2,missing=1,gain=8134.45,cover=6.09443e+06
	1:[D_TITLEMD5_C<64.119] yes=3,no=4,missing=3,gain=6194.72,cover=4.42227e+06
		3:[CAT_REL<0.048999] yes=7,no=8,missing=8,gain=4898.23,cover=2.56801e+06
			7:[U_CATEGORY_MICRO_MAX_COEC<0.079999] yes=15,no=16,missing=15,gain=3215.53,cover=1.75066e+06
				15:[U_CATEGORY_MACRO_MAX_COEC<0.004999] yes=31,no=32,missing=32,gain=3466.53,cover=1.49755e+06
					31:[U_CITY_COEC<0.073999] yes=63,no=64,missing=64,gain=1410.16,cover=249308
						63:leaf=-0.000762996,cover=179126
						64:leaf=0.0159598,cover=70181.9
					32:[DOC_AGE<80] yes=65,no=66,missing=66,gain=1992.03,cover=1.24824e+06
						65:leaf=-0.0108667,cover=1.01884e+06
						66:leaf=-0.000552303,cover=229403
				16:[U_CITY_C<1486.82] yes=33,no=34,missing=34,gain=905.8,cover=253107
					33:[U_CATEGORY_MACRO_MAX_COEC<0.004999] yes=67,no=68,missing=68,gain=711.443,cover=150771
						67:leaf=0.0280526,cover=8784.4
						68:leaf=-0.00127158,cover=141987
					34:[D_KEYWORD_MACRO_MAX_COEC<0.005999] yes=69,no=70,missing=69,gain=477.003,cover=102336
						69:leaf=-0.0435561,cover=1488.23
						70:leaf=0.0134564,cover=100847
			8:[WORD_COUNT<797] yes=17,no=18,missing=18,gain=1969.33,cover=817348
				17:[C_D_U_CATEGORY_CATEGORY_MICRO_MAX_COEC<0.042999] yes=35,no=36,missing=35,gain=420.439,cover=74334.1
					35:[D_CATEGORY_MICRO_MAX_COEC<0.068999] yes=71,no=72,missing=72,gain=288.696,cover=6762.12
						71:leaf=-0.0290929,cover=6257.08
						72:leaf=-0.107635,cover=505.047
					36:[U_CATEGORY_MACRO_MAX_COEC<0.009999] yes=73,no=74,missing=74,gain=338.504,cover=67571.9
						73:leaf=-0.00354003,cover=43399.1
						74:leaf=-0.0183059,cover=24172.9
				18:[U_CATEGORY_MACRO_MAX_COEC<0.013999] yes=37,no=38,missing=37,gain=1484.49,cover=743014
					37:[DOC_AGE<4] yes=75,no=76,missing=76,gain=1179.92,cover=636429
						75:leaf=0.017595,cover=101299
						76:leaf=0.00582525,cover=535130
					38:[CAT_REL<0.128999] yes=77,no=78,missing=78,gain=1682.66,cover=106585
						77:leaf=-0.024462,cover=31475.3
						78:leaf=0.00308078,cover=75110
		4:[U_CATEGORY_MACRO_MAX_COEC<0.006999] yes=9,no=10,missing=10,gain=3930.86,cover=1.85426e+06
			9:[U_CATEGORY_MICRO_MAX_COEC<0.061999] yes=19,no=20,missing=20,gain=1714.26,cover=611391
				19:[D_KEYWORD_MEAN_C<101.431] yes=39,no=40,missing=40,gain=475.036,cover=209938
					39:[CAT_REL<0.045999] yes=79,no=80,missing=80,gain=332.107,cover=89568.1
						79:leaf=-0.00322727,cover=76956.2
						80:leaf=0.0142788,cover=12611.9
					40:[U_GENDER_EC<48395.4] yes=81,no=82,missing=81,gain=353.489,cover=120370
						81:leaf=0.00898334,cover=120304
						82:leaf=-0.220875,cover=65.9434
				20:[CAT_REL<0.025999] yes=41,no=42,missing=42,gain=1324.23,cover=401453
					41:[U_CITY_C<22.438] yes=83,no=84,missing=84,gain=659.794,cover=304333
						83:leaf=0.00296679,cover=57063.8
						84:leaf=0.0148961,cover=247269
					42:[U_CATEGORY_MACRO_MAX_COEC<0.004999] yes=85,no=86,missing=86,gain=352.535,cover=97119.8
						85:leaf=0.0405016,cover=14416.6
						86:leaf=0.0235546,cover=82703.2
			10:[DOC_AGE<89] yes=21,no=22,missing=22,gain=2314.09,cover=1.24287e+06
				21:[C_D_U_TITLEMD5_CATEGORY_MICRO_MAX_COEC<0.185999] yes=43,no=44,missing=43,gain=2099,cover=1.08617e+06
					43:[U_CATEGORY_MACRO_MAX_COEC<0.018999] yes=87,no=88,missing=87,gain=1920.59,cover=987578
						87:leaf=0.000414939,cover=923450
						88:leaf=-0.0174816,cover=64128
					44:[C_D_U_CATEGORY_CATEGORY_MICRO_MEAN_COEC<0.093999] yes=89,no=90,missing=90,gain=550.622,cover=98593.2
						89:leaf=0.00590696,cover=42152
						90:leaf=0.0210129,cover=56441.1
				22:[U_CATEGORY_MICRO_MAX_COEC<0.075999] yes=45,no=46,missing=46,gain=241.797,cover=156703
					45:[D_TITLEMD5_C<248.844] yes=91,no=92,missing=92,gain=222.922,cover=77137.9
						91:leaf=0.00588035,cover=51701.1
						92:leaf=0.0173152,cover=25436.9
					46:[U_CITY_COEC<0.051999] yes=93,no=94,missing=93,gain=225.683,cover=79565.1
						93:leaf=0.0119038,cover=37755.8
						94:leaf=0.0225699,cover=41809.3
	2:[U_CITY_COEC<0.156999] yes=5,no=6,missing=6,gain=3666.06,cover=1.67216e+06
		5:[U_CITY_EC<15695.1] yes=11,no=12,missing=12,gain=2934.69,cover=1.5216e+06
			11:[C_D_U_TITLEMD5_CATEGORY_MICRO_MAX_COEC<0.123999] yes=23,no=24,missing=23,gain=2335.05,cover=1.43383e+06
				23:[U_CATEGORY_MACRO_MAX_COEC<0.005999] yes=47,no=48,missing=48,gain=1781.25,cover=1.10944e+06
					47:[U_CITY_C<11.348] yes=95,no=96,missing=96,gain=793.502,cover=288891
						95:leaf=-0.00143914,cover=41791
						96:leaf=0.01346,cover=247100
					48:[D_PUBLISHER_EC<9776.91] yes=97,no=98,missing=97,gain=1431.32,cover=820553
						97:leaf=0.00615455,cover=430002
						98:leaf=-0.00220816,cover=390551
				24:[C_D_U_TITLEMD5_CATEGORY_MAX_C<0.046999] yes=49,no=50,missing=50,gain=1625.18,cover=324387
					49:[D_TITLEMD5_COEC<0.167999] yes=99,no=100,missing=100,gain=657.193,cover=129102
						99:leaf=0.00305073,cover=115577
						100:leaf=0.0263473,cover=13525.3
					50:[C_D_U_TITLEMD5_CATEGORY_MICRO_MAX_COEC<0.237999] yes=101,no=102,missing=102,gain=685.736,cover=195285
						101:leaf=0.0176537,cover=169753
						102:leaf=0.0352318,cover=25531.4
			12:[U_CATEGORY_MACRO_MAX_COEC<0.003999] yes=25,no=26,missing=26,gain=662.629,cover=87773.7
				25:[U_CATEGORY_MICRO_MAX_COEC<0.057999] yes=51,no=52,missing=52,gain=277.328,cover=2023.64
					51:[WORD_COUNT<2203] yes=103,no=104,missing=104,gain=98.5553,cover=107.157
						103:leaf=-0.0142342,cover=77.9053
						104:leaf=-0.227111,cover=29.2514
					52:[C_D_U_TITLEMD5_AGE_C<1.334] yes=105,no=106,missing=106,gain=179.985,cover=1916.49
						105:leaf=-0.277784,cover=12.2154
						106:leaf=0.093385,cover=1904.27
				26:[U_CATEGORY_MICRO_MAX_COEC<0.072999] yes=53,no=54,missing=54,gain=557.51,cover=85750.1
					53:[D_KEYWORD_MACRO_MEAN_COEC<0.047999] yes=107,no=108,missing=107,gain=498.57,cover=45903.4
						107:leaf=-0.0187352,cover=3649.62
						108:leaf=0.0197848,cover=42253.8
					54:[U_CITY_COEC<0.077999] yes=109,no=110,missing=110,gain=262.447,cover=39846.6
						109:leaf=0.0244188,cover=19076.6
						110:leaf=0.0406677,cover=20770
		6:[U_CITY_C<6.36] yes=13,no=14,missing=14,gain=937.154,cover=150555
			13:[C_D_U_TITLEMD5_CATEGORY_MAX_C<0.040999] yes=27,no=28,missing=28,gain=440.739,cover=53454
				27:[DOC_AGE<93] yes=55,no=56,missing=56,gain=172.32,cover=20169
					55:[D_KEYWORD_MACRO_MEAN_COEC<0.077999] yes=111,no=112,missing=111,gain=148.7,cover=17235.1
						111:leaf=-0.00596219,cover=14507.5
						112:leaf=0.0194832,cover=2727.58
					56:[C_D_U_CATEGORY_GENDER_MEAN_EC<378.324] yes=113,no=114,missing=114,gain=193.634,cover=2933.95
						113:leaf=-0.401147,cover=9.66356
						114:leaf=0.0258209,cover=2924.28
				28:[U_CITY_C<1.663] yes=57,no=58,missing=58,gain=330.163,cover=33285
					57:[D_PUBLISHER_COEC<0.105999] yes=115,no=116,missing=115,gain=244.658,cover=9977.81
						115:leaf=-0.00440315,cover=7172.52
						116:leaf=0.0304235,cover=2805.29
					58:[D_CATEGORY_MEAN_C<1815.91] yes=117,no=118,missing=118,gain=201.846,cover=23307.2
						117:leaf=0.00830648,cover=4578.89
						118:leaf=0.0317307,cover=18728.3
			14:[U_CITY_COEC<0.285999] yes=29,no=30,missing=30,gain=1178.68,cover=97100.9
				29:[D_TITLEMD5_COEC<0.130999] yes=59,no=60,missing=60,gain=271.44,cover=81679.4
					59:[D_KEYWORD_MACRO_MEAN_COEC<0.045999] yes=119,no=120,missing=120,gain=233.333,cover=69413.2
						119:leaf=0.000971401,cover=4566.23
						120:leaf=0.0243592,cover=64846.9
					60:[C_D_U_CATEGORY_CATEGORY_MACRO_MAX_COEC<0.022999] yes=121,no=122,missing=121,gain=134.564,cover=12266.3
						121:leaf=0.0400151,cover=12143.1
						122:leaf=-0.0646884,cover=123.141
				30:[U_CATEGORY_MAX_EC<208.994] yes=61,no=62,missing=62,gain=564.404,cover=15421.5
					61:[U_CITY_EC<147.643] yes=123,no=124,missing=124,gain=48.1498,cover=2481.39
						123:leaf=0.0765059,cover=695.55
						124:leaf=0.107816,cover=1785.84
					62:[U_CATEGORY_MICRO_MAX_COEC<0.056999] yes=125,no=126,missing=125,gain=273.108,cover=12940.1
						125:leaf=-0.00200655,cover=1045.08
						126:leaf=0.0513101,cover=11895
booster[35]:
0:[U_CITY_COEC<0.097999] yes=1,no=2,missing=1,gain=7530.15,cover=6.0755e+06
	1:[C_D_U_TITLEMD5_CITY_COEC<0.024999] yes=3,no=4,missing=3,gain=6480.88,cover=5.49754e+06
		3:[C_D_U_CATEGORY_CATEGORY_MICRO_MEAN_COEC<0.046999] yes=7,no=8,missing=8,gain=5330.37,cover=4.56663e+06
			7:[C_D_U_TITLEMD5_CATEGORY_MACRO_MAX_COEC<0.009999] yes=15,no=16,missing=16,gain=1021.09,cover=389035
				15:[U_CATEGORY_MICRO_MAX_COEC<0.070999] yes=31,no=32,missing=32,gain=830.322,cover=265714
					31:[D_CATEGORY_MICRO_MAX_COEC<0.047999] yes=63,no=64,missing=64,gain=474.903,cover=218082
						63:leaf=-0.00185962,cover=54234.3
						64:leaf=-0.0126555,cover=163847
					32:[D_KEYWORD_MACRO_MEAN_COEC<0.033999] yes=65,no=66,missing=65,gain=372.109,cover=47632.9
						65:leaf=-0.0292988,cover=3030.61
						66:leaf=0.00690702,cover=44602.3
				16:[C_D_U_CATEGORY_CATEGORY_MICRO_MEAN_COEC<0.037999] yes=33,no=34,missing=34,gain=922.828,cover=123321
					33:[D_TITLEMD5_EC<3.926] yes=67,no=68,missing=67,gain=341.054,cover=46155.5
						67:leaf=-0.0424461,cover=14204.8
						68:leaf=-0.0238206,cover=31950.6
					34:[D_CATEGORY_MICRO_MEAN_COEC<0.044999] yes=69,no=70,missing=70,gain=634.6,cover=77165.1
						69:leaf=0.00842173,cover=13050.7
						70:leaf=-0.0157694,cover=64114.4
			8:[U_CATEGORY_MACRO_MAX_COEC<0.007999] yes=17,no=18,missing=18,gain=5078.68,cover=4.1776e+06
				17:[DOC_AGE<3] yes=35,no=36,missing=36,gain=2943.48,cover=2.13437e+06
					35:[D_PUBLISHER_COEC<0.042999] yes=71,no=72,missing=71,gain=1126.9,cover=201996
						71:leaf=-0.000222005,cover=34320.6
						72:leaf=0.0196664,cover=167676
					36:[D_TITLEMD5_C<9.322] yes=73,no=74,missing=74,gain=3622.75,cover=1.93238e+06
						73:leaf=-0.00273582,cover=615091
						74:leaf=0.0065593,cover=1.31729e+06
				18:[CAT_REL<0.079999] yes=37,no=38,missing=38,gain=5552.06,cover=2.04322e+06
					37:[U_CATEGORY_MICRO_MAX_COEC<0.077999] yes=75,no=76,missing=76,gain=3271.83,cover=1.57855e+06
						75:leaf=-0.00917278,cover=858245
						76:leaf=-3.24652e-05,cover=720301
					38:[U_CATEGORY_MACRO_MAX_COEC<0.017999] yes=77,no=78,missing=77,gain=2456.6,cover=464678
						77:leaf=0.0106002,cover=390609
						78:leaf=-0.00926318,cover=74068.8
		4:[TIME_OF_DAY<16] yes=9,no=10,missing=10,gain=1081.73,cover=930903
			9:[U_CATEGORY_MACRO_MAX_COEC<0.017999] yes=19,no=20,missing=19,gain=1025.04,cover=468841
				19:[U_CATEGORY_MICRO_MAX_COEC<0.068999] yes=39,no=40,missing=39,gain=998.711,cover=446092
					39:[D_KEYWORD_MEAN_EC<1553.23] yes=79,no=80,missing=79,gain=603.251,cover=264756
						79:leaf=0.00565981,cover=144146
						80:leaf=0.0152446,cover=120609
					40:[U_CATEGORY_MACRO_MAX_COEC<0.012999] yes=81,no=82,missing=82,gain=342.544,cover=181336
						81:leaf=0.0210613,cover=164247
						82:leaf=0.00618482,cover=17089.4
				20:[C_D_U_TITLEMD5_CATEGORY_MAX_C<0.994999] yes=41,no=42,missing=41,gain=245.454,cover=22749.2
					41:[DOC_AGE<66] yes=83,no=84,missing=84,gain=327.486,cover=14240.7
						83:leaf=-0.0256313,cover=10054.9
						84:leaf=0.00765436,cover=4185.82
					42:[C_D_U_CATEGORY_AGE_MICRO_MAX_COEC<0.085999] yes=85,no=86,missing=86,gain=141.505,cover=8508.51
						85:leaf=-0.159512,cover=50.5806
						86:leaf=0.00662504,cover=8457.93
			10:[C_D_U_CATEGORY_CATEGORY_MICRO_MEAN_COEC<0.058999] yes=21,no=22,missing=22,gain=632.832,cover=462062
				21:[C_D_U_CATEGORY_CATEGORY_MICRO_MEAN_COEC<0.037999] yes=43,no=44,missing=44,gain=228.518,cover=88357.5
					43:[D_KEYWORD_MICRO_MAX_COEC<0.074999] yes=87,no=88,missing=88,gain=294.838,cover=4704.63
						87:leaf=-0.126334,cover=259.764
						88:leaf=-0.0169178,cover=4444.86
					44:[D_PUBLISHER_EC<62345.9] yes=89,no=90,missing=90,gain=204.22,cover=83652.8
						89:leaf=0.00194596,cover=68942.2
						90:leaf=-0.0110324,cover=14710.6
				22:[C_D_U_TITLEMD5_CATEGORY_MICRO_MAX_COEC<0.267999] yes=45,no=46,missing=45,gain=378.966,cover=373704
					45:[U_CATEGORY_MACRO_MAX_COEC<0.007999] yes=91,no=92,missing=91,gain=377,cover=365931
						91:leaf=0.0101442,cover=211639
						92:leaf=0.00364437,cover=154292
					46:[C_D_U_TITLEMD5_CATEGORY_MAX_C<0.017999] yes=93,no=94,missing=94,gain=182.893,cover=7773.36
						93:leaf=-0.00966071,cover=1023.81
						94:leaf=0.0356889,cover=6749.55
	2:[U_CITY_COEC<0.265999] yes=5,no=6,missing=6,gain=1955.65,cover=577963
		5:[U_CITY_C<5.237] yes=11,no=12,missing=12,gain=1270.84,cover=542957
			11:[D_KEYWORD_MACRO_MEAN_COEC<0.056999] yes=23,no=24,missing=23,gain=656.619,cover=90784.8
				23:[C_D_U_PUBLISHER_AGE_EC<19.363] yes=47,no=48,missing=48,gain=223.639,cover=15380.7
					47:[C_D_U_CATEGORY_GENDER_MEAN_EC<578.831] yes=95,no=96,missing=95,gain=120.575,cover=123.866
						95:leaf=-0.229661,cover=74.7441
						96:leaf=-0.0278696,cover=49.1224
					48:[C_D_U_TITLEMD5_CATEGORY_MAX_C<0.773999] yes=97,no=98,missing=97,gain=199.814,cover=15256.9
						97:leaf=-0.0171502,cover=15133.8
						98:leaf=0.110288,cover=123.059
				24:[U_CITY_C<0.913999] yes=49,no=50,missing=50,gain=382.783,cover=75404.1
					49:[D_TITLEMD5_COEC<0.088999] yes=99,no=100,missing=99,gain=223.671,cover=7389.37
						99:leaf=-0.0389416,cover=2719.86
						100:leaf=-0.0028706,cover=4669.51
					50:[C_D_U_TITLEMD5_CATEGORY_MAX_C<0.177999] yes=101,no=102,missing=102,gain=377.004,cover=68014.8
						101:leaf=0.00175062,cover=40902.9
						102:leaf=0.0169566,cover=27111.9
			12:[D_TITLEMD5_COEC<0.156999] yes=25,no=26,missing=25,gain=822.33,cover=452172
				25:[U_CATEGORY_MACRO_MAX_COEC<0.005999] yes=51,no=52,missing=52,gain=731.086,cover=422458
					51:[D_TITLEMD5_C<43.386] yes=103,no=104,missing=103,gain=520.532,cover=117814
						103:leaf=0.0144376,cover=67808.9
						104:leaf=0.0278864,cover=50004.7
					52:[CAT_REL<0.052999] yes=105,no=106,missing=106,gain=611.084,cover=304644
						105:leaf=0.00817986,cover=223901
						106:leaf=0.0183276,cover=80742.9
				26:[C_D_U_CATEGORY_CATEGORY_MACRO_MAX_COEC<0.012999] yes=53,no=54,missing=54,gain=174.734,cover=29714.3
					53:[D_TITLEMD5_C<0.999999] yes=107,no=108,missing=108,gain=122.356,cover=23606.8
						107:leaf=0.0106707,cover=1965.28
						108:leaf=0.0367373,cover=21641.6
					54:[C_D_U_PUBLISHER_GENDER_COEC<0.118999] yes=109,no=110,missing=110,gain=109.968,cover=6107.49
						109:leaf=-0.261419,cover=13.3012
						110:leaf=0.0162347,cover=6094.19
		6:[U_CITY_C<6.261] yes=13,no=14,missing=14,gain=729.088,cover=35005.7
			13:[D_PUBLISHER_C<1.301] yes=27,no=28,missing=27,gain=224.202,cover=16452.9
				27:[D_CATEGORY_MEAN_C<1168.95] yes=55,no=56,missing=56,gain=97.7456,cover=90.4957
					55:[C_D_U_TITLEMD5_CATEGORY_MAX_EC<0.031999] yes=111,no=112,missing=112,gain=82.5004,cover=47.2021
						111:leaf=0.0620825,cover=30.9683
						112:leaf=-0.209538,cover=16.2337
					56:[C_D_U_CATEGORY_CATEGORY_MICRO_MEAN_COEC<0.065999] yes=113,no=114,missing=113,gain=7.37679,cover=43.2936
						113:leaf=-0.189167,cover=24.704
						114:leaf=-0.297619,cover=18.5896
				28:[D_KEYWORD_MACRO_MEAN_COEC<0.041999] yes=57,no=58,missing=58,gain=164.883,cover=16362.4
					57:[D_PUBLISHER_EC<1177.31] yes=115,no=116,missing=116,gain=153.477,cover=325.986
						115:leaf=0.0212044,cover=161.656
						116:leaf=-0.115715,cover=164.33
					58:[U_CITY_C<0.913999] yes=117,no=118,missing=118,gain=156.571,cover=16036.4
						117:leaf=-0.00135916,cover=2145.52
						118:leaf=0.0276654,cover=13890.9
			14:[U_CATEGORY_MAX_EC<224.852] yes=29,no=30,missing=30,gain=520.039,cover=18552.8
				29:[U_CITY_C<43.687] yes=59,no=60,missing=60,gain=104.376,cover=2609.66
					59:[U_CITY_C<8.748] yes=119,no=120,missing=120,gain=55.444,cover=851.972
						119:leaf=-0.150536,cover=11.0902
						120:leaf=0.0659107,cover=840.882
					60:[C_D_U_TITLEMD5_CITY_C<0.994999] yes=121,no=122,missing=121,gain=15.0338,cover=1757.69
						121:leaf=0.106269,cover=1751.6
						122:leaf=-0.0449839,cover=6.08829
				30:[U_CITY_C<219.761] yes=61,no=62,missing=62,gain=201.665,cover=15943.1
					61:[DAY_OF_WEEK<2] yes=123,no=124,missing=124,gain=130.754,cover=15025.6
						123:leaf=0.0603944,cover=4623.92
						124:leaf=0.0401686,cover=10401.7
					62:[C_D_U_CATEGORY_CATEGORY_MICRO_MAX_COEC<0.106999] yes=125,no=126,missing=125,gain=246.735,cover=917.449
						125:leaf=0.00346531,cover=908.714
						126:leaf=-0.502662,cover=8.73497
booster[36]:
0:[U_CITY_COEC<0.034999] yes=1,no=2,missing=2,gain=6972.81,cover=6.06223e+06
	1:[U_CITY_EC<96.546] yes=3,no=4,missing=4,gain=1753.9,cover=330685
		3:[C_D_U_TITLEMD5_CITY_EC<0.999999] yes=7,no=8,missing=8,gain=439.013,cover=150023
			7:[C_D_U_CATEGORY_CATEGORY_MAX_EC<33.388] yes=15,no=16,missing=15,gain=167.942,cover=5574.19
				15:[D_TITLEMD5_COEC<0.040999] yes=31,no=32,missing=32,gain=130.214,cover=4310.44
					31:[WORD_COUNT<1755] yes=63,no=64,missing=64,gain=127.599,cover=115.787
						63:leaf=-0.0258657,cover=33.6601
						64:leaf=0.204205,cover=82.1272
					32:[U_CATEGORY_MACRO_MAX_COEC<0.016999] yes=65,no=66,missing=65,gain=116.202,cover=4194.66
						65:leaf=0.0325842,cover=4135.01
						66:leaf=-0.106899,cover=59.6511
				16:[D_KEYWORD_MAX_EC<168.104] yes=33,no=34,missing=34,gain=148.645,cover=1263.75
					33:[C_D_U_TITLEMD5_CATEGORY_MICRO_MAX_COEC<0.093999] yes=67,no=68,missing=68,gain=3.42281,cover=16.6793
						67:leaf=-0.222893,cover=11.2792
						68:leaf=-0.389722,cover=5.40014
					34:[D_TITLEMD5_EC<255.414] yes=69,no=70,missing=70,gain=139.345,cover=1247.07
						69:leaf=0.121938,cover=81.2348
						70:leaf=-0.0127438,cover=1165.83
			8:[D_TITLEMD5_EC<79.401] yes=17,no=18,missing=17,gain=427.346,cover=144449
				17:[U_CITY_EC<17.425] yes=35,no=36,missing=36,gain=283.857,cover=25111
					35:[U_CATEGORY_MAX_EC<2092.37] yes=71,no=72,missing=72,gain=155.836,cover=10289.9
						71:leaf=0.0313506,cover=5607.09
						72:leaf=0.0066373,cover=4682.81
					36:[C_D_U_CATEGORY_AGE_MACRO_MAX_COEC<0.061999] yes=73,no=74,missing=73,gain=242.689,cover=14821.1
						73:leaf=-0.0044571,cover=14076.6
						74:leaf=0.0540911,cover=744.474
				18:[U_CATEGORY_MAX_EC<2215.79] yes=37,no=38,missing=37,gain=447.997,cover=119338
					37:[U_CATEGORY_MICRO_MAX_COEC<0.080999] yes=75,no=76,missing=75,gain=353.777,cover=91682.7
						75:leaf=-0.00566417,cover=82887.9
						76:leaf=0.0154283,cover=8794.87
					38:[D_PUBLISHER_C<2474.98] yes=77,no=78,missing=78,gain=360.715,cover=27655
						77:leaf=-0.0103481,cover=18839.5
						78:leaf=-0.0348562,cover=8815.54
		4:[U_CITY_COEC<0.017999] yes=9,no=10,missing=10,gain=2268.3,cover=180662
			9:[C_D_U_TITLEMD5_CITY_EC<0.955999] yes=19,no=20,missing=20,gain=708.936,cover=35754.9
				19:[D_CATEGORY_MACRO_MEAN_COEC<0.074999] yes=39,no=40,missing=40,gain=207.926,cover=2229.41
					39:[U_CATEGORY_MACRO_MAX_COEC<0.003999] yes=79,no=80,missing=80,gain=135.013,cover=1381.62
						79:leaf=-0.226848,cover=18.0248
						80:leaf=0.0415402,cover=1363.6
					40:[C_D_U_TITLEMD5_CATEGORY_MAX_C<1.904] yes=81,no=82,missing=81,gain=141.834,cover=847.785
						81:leaf=-0.0198642,cover=835.705
						82:leaf=-0.351793,cover=12.0804
				20:[C_D_U_TITLEMD5_CATEGORY_MAX_EC<0.754999] yes=41,no=42,missing=41,gain=418.824,cover=33525.5
					41:[DOC_AGE<0.999999] yes=83,no=84,missing=84,gain=454.129,cover=28938
						83:leaf=0.0106128,cover=1234.83
						84:leaf=-0.0513599,cover=27703.2
					42:[D_TITLEMD5_C<17.375] yes=85,no=86,missing=86,gain=214.695,cover=4587.41
						85:leaf=-0.11875,cover=194.423
						86:leaf=-0.011623,cover=4392.99
			10:[D_PUBLISHER_COEC<0.033999] yes=21,no=22,missing=21,gain=642.081,cover=144907
				21:[D_KEYWORD_MEAN_EC<404.233] yes=43,no=44,missing=44,gain=329.318,cover=14047
					43:[D_PUBLISHER_EC<64.913] yes=87,no=88,missing=88,gain=278.061,cover=4162.18
						87:leaf=0.0243735,cover=1546.69
						88:leaf=-0.0291002,cover=2615.49
					44:[U_CITY_EC<112.169] yes=89,no=90,missing=90,gain=354.606,cover=9884.78
						89:leaf=0.0623407,cover=310.096
						90:leaf=-0.0461719,cover=9574.68
				22:[C_D_U_TITLEMD5_CITY_EC<2.651] yes=45,no=46,missing=46,gain=480.506,cover=130860
					45:[C_D_U_CATEGORY_AGE_MACRO_MEAN_COEC<0.083999] yes=91,no=92,missing=91,gain=222.53,cover=18579.7
						91:leaf=0.00609837,cover=18223.6
						92:leaf=-0.073615,cover=356.074
					46:[CAT_REL<0.017999] yes=93,no=94,missing=94,gain=570.886,cover=112280
						93:leaf=-0.0199859,cover=55660.9
						94:leaf=-0.00572418,cover=56619.5
	2:[C_D_U_CATEGORY_CATEGORY_MICRO_MEAN_COEC<0.091999] yes=5,no=6,missing=5,gain=6263.07,cover=5.73155e+06
		5:[U_CATEGORY_MACRO_MAX_COEC<0.005999] yes=11,no=12,missing=12,gain=6113.45,cover=4.81814e+06
			11:[D_TITLEMD5_C<64.486] yes=23,no=24,missing=24,gain=2271.46,cover=1.25607e+06
				23:[CAT_REL<0.023999] yes=47,no=48,missing=48,gain=2190.83,cover=807546
					47:[U_CATEGORY_MICRO_MAX_COEC<0.061999] yes=95,no=96,missing=96,gain=1388.17,cover=461527
						95:leaf=-0.0077746,cover=143882
						96:leaf=0.00406518,cover=317645
					48:[WORD_COUNT<724] yes=97,no=98,missing=98,gain=1076.74,cover=346019
						97:leaf=-0.00904606,cover=25101.4
						98:leaf=0.0124596,cover=320917
				24:[CAT_REL<0.001999] yes=49,no=50,missing=50,gain=1167.34,cover=448521
					49:[DOC_AGE<73] yes=99,no=100,missing=100,gain=738.427,cover=193698
						99:leaf=0.00504147,cover=159356
						100:leaf=0.0212079,cover=34342.1
					50:[U_CATEGORY_MICRO_MAX_COEC<0.059999] yes=101,no=102,missing=102,gain=663.902,cover=254823
						101:leaf=0.0102588,cover=74405.1
						102:leaf=0.0214851,cover=180418
			12:[DOC_AGE<73] yes=25,no=26,missing=26,gain=4541.91,cover=3.56207e+06
				25:[D_TITLEMD5_COEC<0.068999] yes=51,no=52,missing=52,gain=3904.3,cover=2.8652e+06
					51:[D_PUBLISHER_EC<4506.13] yes=103,no=104,missing=103,gain=2368.79,cover=1.0047e+06
						103:leaf=-0.00139815,cover=444897
						104:leaf=-0.0111735,cover=559806
					52:[CAT_REL<0.040999] yes=105,no=106,missing=106,gain=2230.14,cover=1.8605e+06
						105:leaf=-0.00114344,cover=1.38293e+06
						106:leaf=0.00678271,cover=477571
				26:[D_TITLEMD5_C<111.48] yes=53,no=54,missing=53,gain=1149.02,cover=696870
					53:[DOC_AGE<149] yes=107,no=108,missing=108,gain=1026.45,cover=462538
						107:leaf=0.00140802,cover=336585
						108:leaf=0.0119906,cover=125953
					54:[TIME_OF_DAY<15] yes=109,no=110,missing=110,gain=487.498,cover=234332
						109:leaf=0.0176816,cover=111270
						110:leaf=0.00854765,cover=123062
		6:[D_TITLEMD5_COEC<0.151999] yes=13,no=14,missing=13,gain=1464.85,cover=913406
			13:[U_CATEGORY_MAX_EC<591.979] yes=27,no=28,missing=28,gain=1189.48,cover=824921
				27:[C_D_U_TITLEMD5_CATEGORY_MAX_C<0.062999] yes=55,no=56,missing=55,gain=902.865,cover=352713
					55:[DOC_AGE<3] yes=111,no=112,missing=112,gain=879.548,cover=284663
						111:leaf=0.0288876,cover=26937.8
						112:leaf=0.0098973,cover=257725
					56:[U_CATEGORY_MICRO_MAX_COEC<0.083999] yes=113,no=114,missing=114,gain=277.639,cover=68049.9
						113:leaf=0.0176387,cover=31519.4
						114:leaf=0.0304495,cover=36530.4
				28:[CAT_REL<0.079999] yes=57,no=58,missing=58,gain=2117.88,cover=472208
					57:[C_D_U_TITLEMD5_CATEGORY_MAX_EC<0.061999] yes=115,no=116,missing=115,gain=1302.58,cover=317854
						115:leaf=-0.0129688,cover=50125.2
						116:leaf=0.00459572,cover=267729
					58:[U_CATEGORY_MACRO_MAX_COEC<0.028999] yes=117,no=118,missing=118,gain=570.863,cover=154353
						117:leaf=0.0173287,cover=148328
						118:leaf=-0.0140693,cover=6025.2
			14:[C_D_U_TITLEMD5_CATEGORY_MICRO_MAX_COEC<0.263999] yes=29,no=30,missing=29,gain=328.832,cover=88485.9
				29:[C_D_U_CATEGORY_CATEGORY_MACRO_MAX_COEC<0.004999] yes=59,no=60,missing=60,gain=253.8,cover=62043.1
					59:[D_PUBLISHER_COEC<0.033999] yes=119,no=120,missing=119,gain=56.188,cover=7446.26
						119:leaf=-0.0998678,cover=29.0999
						120:leaf=0.0372005,cover=7417.16
					60:[C_D_U_TITLEMD5_CATEGORY_MACRO_MAX_COEC<0.008999] yes=121,no=122,missing=122,gain=180.622,cover=54596.9
						121:leaf=0.0325395,cover=6556.5
						122:leaf=0.0148451,cover=48040.4
				30:[D_TITLEMD5_C<25.198] yes=61,no=62,missing=62,gain=163.651,cover=26442.7
					61:[CAT_REL<0.010999] yes=123,no=124,missing=124,gain=116.339,cover=8396.4
						123:leaf=-0.0132984,cover=878.941
						124:leaf=0.0251388,cover=7517.45
					62:[C_D_U_CATEGORY_CATEGORY_MACRO_MAX_COEC<0.008999] yes=125,no=126,missing=126,gain=95.2341,cover=18046.4
						125:leaf=0.045614,cover=8624.7
						126:leaf=0.0310607,cover=9421.65
booster[37]:
0:[U_CATEGORY_MICRO_MAX_COEC<0.071999] yes=1,no=2,missing=1,gain=6050.97,cover=6.05021e+06
	1:[U_CATEGORY_MACRO_MAX_COEC<0.003999] yes=3,no=4,missing=4,gain=4753.83,cover=4.00889e+06
		3:[U_CATEGORY_MICRO_MAX_COEC<0.062999] yes=7,no=8,missing=8,gain=1495.05,cover=108374
			7:[TIME_OF_DAY<17] yes=15,no=16,missing=16,gain=959.79,cover=64896.3
				15:[U_CITY_COEC<0.271999] yes=31,no=32,missing=31,gain=566.961,cover=43137.6
					31:[D_KEYWORD_MEAN_EC<1188.45] yes=63,no=64,missing=64,gain=486.505,cover=42302.7
						63:leaf=0.00934852,cover=25145.2
						64:leaf=0.0311897,cover=17157.5
					32:[C_D_U_TITLEMD5_CITY_C<0.955999] yes=65,no=66,missing=65,gain=37.6311,cover=834.895
						65:leaf=0.103117,cover=829.669
						66:leaf=-0.147001,cover=5.22569
				16:[D_TITLEMD5_C<15.251] yes=33,no=34,missing=33,gain=492.057,cover=21758.8
					33:[U_CATEGORY_MAX_C<11.832] yes=67,no=68,missing=68,gain=327.877,cover=8930.13
						67:leaf=0.00738012,cover=2429.27
						68:leaf=-0.035675,cover=6500.86
					34:[U_AGE_EC<190607] yes=69,no=70,missing=69,gain=271.215,cover=12828.6
						69:leaf=0.00717535,cover=12810
						70:leaf=-0.364431,cover=18.6708
			8:[U_CITY_C<148.947] yes=17,no=18,missing=18,gain=945.767,cover=43477.4
				17:[D_PUBLISHER_EC<1114.42] yes=35,no=36,missing=35,gain=336.366,cover=15792.5
					35:[U_AGE_C<12559] yes=71,no=72,missing=72,gain=227.754,cover=2265.08
						71:leaf=-0.152732,cover=121.38
						72:leaf=-0.0124612,cover=2143.7
					36:[TIME_OF_DAY<22] yes=73,no=74,missing=74,gain=177.704,cover=13527.4
						73:leaf=0.0253713,cover=12198.7
						74:leaf=-0.0131313,cover=1328.73
				18:[U_CATEGORY_MAX_EC<310.728] yes=37,no=38,missing=38,gain=630.88,cover=27685
					37:[U_CITY_COEC<0.088999] yes=75,no=76,missing=75,gain=678.547,cover=8322.9
						75:leaf=0.0134905,cover=7452.26
						76:leaf=0.106742,cover=870.639
					38:[U_CITY_C<2181.53] yes=77,no=78,missing=77,gain=474.566,cover=19362.1
						77:leaf=0.0602928,cover=18113.4
						78:leaf=-0.0034435,cover=1248.64
		4:[D_PUBLISHER_COEC<0.063999] yes=9,no=10,missing=10,gain=3959.62,cover=3.90051e+06
			9:[CAT_REL<0.064999] yes=19,no=20,missing=20,gain=3451.01,cover=1.43661e+06
				19:[U_CATEGORY_MACRO_MAX_COEC<0.005999] yes=39,no=40,missing=39,gain=2146.41,cover=1.0537e+06
					39:[D_CATEGORY_MEAN_EC<33801.9] yes=79,no=80,missing=80,gain=1464.83,cover=504542
						79:leaf=-0.00872743,cover=230605
						80:leaf=0.00208894,cover=273937
					40:[C_D_U_TITLEMD5_CATEGORY_MAX_EC<0.139999] yes=81,no=82,missing=81,gain=1448.2,cover=549162
						81:leaf=-0.0172673,cover=261919
						82:leaf=-0.00698582,cover=287243
				20:[D_CATEGORY_MICRO_MAX_COEC<0.072999] yes=41,no=42,missing=42,gain=1912.25,cover=382911
					41:[WORD_COUNT<2656] yes=83,no=84,missing=84,gain=1251.08,cover=284700
						83:leaf=0.00187387,cover=161298
						84:leaf=0.0152509,cover=123402
					42:[D_PUBLISHER_EC<62660.3] yes=85,no=86,missing=86,gain=1315.71,cover=98211
						85:leaf=-0.0042587,cover=86535.5
						86:leaf=-0.0400198,cover=11675.5
			10:[D_PUBLISHER_EC<8505.14] yes=21,no=22,missing=21,gain=2533.9,cover=2.4639e+06
				21:[U_CITY_COEC<0.069999] yes=43,no=44,missing=43,gain=1725.8,cover=1.04534e+06
					43:[D_KEYWORD_MICRO_MAX_COEC<0.206999] yes=87,no=88,missing=88,gain=934.671,cover=622432
						87:leaf=0.00178046,cover=607734
						88:leaf=0.0272995,cover=14698.7
					44:[C_D_U_CATEGORY_CATEGORY_MAX_EC<62.591] yes=89,no=90,missing=90,gain=618.605,cover=422905
						89:leaf=0.00808814,cover=291100
						90:leaf=0.0163455,cover=131805
				22:[D_TITLEMD5_EC<3422.15] yes=45,no=46,missing=46,gain=2927.07,cover=1.41856e+06
					45:[CAT_REL<0.001999] yes=91,no=92,missing=92,gain=2795.79,cover=975714
						91:leaf=-0.00949109,cover=459422
						92:leaf=0.00123299,cover=516292
					46:[D_PUBLISHER_EC<92835.1] yes=93,no=94,missing=94,gain=1383.24,cover=442845
						93:leaf=0.00341923,cover=365693
						94:leaf=0.0181539,cover=77151.7
	2:[D_TITLEMD5_C<4.712] yes=5,no=6,missing=5,gain=3498.62,cover=2.04132e+06
		5:[DOC_AGE<0.999999] yes=11,no=12,missing=12,gain=1614.64,cover=459298
			11:[D_PUBLISHER_COEC<0.045999] yes=23,no=24,missing=23,gain=361.002,cover=36633.6
				23:[D_KEYWORD_MACRO_MEAN_COEC<0.038999] yes=47,no=48,missing=47,gain=160.151,cover=9356.71
					47:[U_CITY_COEC<0.079999] yes=95,no=96,missing=96,gain=191.076,cover=1270.68
						95:leaf=-0.0671324,cover=673.472
						96:leaf=0.0105211,cover=597.207
					48:[C_D_U_CATEGORY_GENDER_MEAN_EC<420.649] yes=97,no=98,missing=98,gain=168.235,cover=8086.03
						97:leaf=-0.154086,cover=62.9114
						98:leaf=0.00880586,cover=8023.12
				24:[C_D_U_CATEGORY_CATEGORY_MICRO_MAX_COEC<0.083999] yes=49,no=50,missing=50,gain=239.239,cover=27276.9
					49:[D_KEYWORD_MACRO_MAX_COEC<0.027999] yes=99,no=100,missing=100,gain=243.511,cover=11990.4
						99:leaf=0.0101093,cover=10943.7
						100:leaf=0.0605753,cover=1046.76
					50:[D_TITLEMD5_EC<115.909] yes=101,no=102,missing=101,gain=223.554,cover=15286.5
						101:leaf=0.0338681,cover=15263.4
						102:leaf=-0.271376,cover=23.0429
			12:[D_KEYWORD_MACRO_MEAN_COEC<0.033999] yes=25,no=26,missing=25,gain=1210.26,cover=422664
				25:[TIME_OF_DAY<20] yes=51,no=52,missing=52,gain=423.546,cover=20299.1
					51:[C_D_U_TITLEMD5_CATEGORY_MACRO_MAX_COEC<0.013999] yes=103,no=104,missing=103,gain=260.626,cover=16490.6
						103:leaf=-0.0183789,cover=16365.9
						104:leaf=-0.1629,cover=124.759
					52:[D_KEYWORD_MEAN_C<144.475] yes=105,no=106,missing=105,gain=183.707,cover=3808.45
						105:leaf=-0.0587077,cover=3770.2
						106:leaf=0.158945,cover=38.2508
				26:[U_CITY_COEC<0.085999] yes=53,no=54,missing=54,gain=1075.96,cover=402365
					53:[C_D_U_CATEGORY_AGE_MEAN_EC<46.82] yes=107,no=108,missing=108,gain=800.207,cover=254639
						107:leaf=0.110469,cover=594.259
						108:leaf=-0.00561081,cover=254045
					54:[U_CATEGORY_MAX_C<11.832] yes=109,no=110,missing=110,gain=435.411,cover=147726
						109:leaf=0.0264624,cover=9192.99
						110:leaf=0.00398982,cover=138533
		6:[U_CATEGORY_MACRO_MAX_COEC<0.010999] yes=13,no=14,missing=14,gain=2557.66,cover=1.58203e+06
			13:[CAT_REL<0.028999] yes=27,no=28,missing=28,gain=2423.43,cover=1.2455e+06
				27:[D_TITLEMD5_C<112.153] yes=55,no=56,missing=56,gain=1532.46,cover=833969
					55:[U_CATEGORY_MACRO_MAX_COEC<0.004999] yes=111,no=112,missing=112,gain=1143.44,cover=501533
						111:leaf=0.0192921,cover=47665.3
						112:leaf=0.00301087,cover=453868
					56:[U_CATEGORY_MACRO_MAX_COEC<0.005999] yes=113,no=114,missing=114,gain=669.658,cover=332436
						113:leaf=0.0217056,cover=73936.4
						114:leaf=0.010913,cover=258500
				28:[D_TITLEMD5_COEC<0.124999] yes=57,no=58,missing=58,gain=637.703,cover=411530
					57:[WORD_COUNT<895] yes=115,no=116,missing=116,gain=559.24,cover=355165
						115:leaf=0.0042678,cover=37263.8
						116:leaf=0.0172166,cover=317901
					58:[D_KEYWORD_MEAN_EC<2088.15] yes=117,no=118,missing=118,gain=197.135,cover=56365.1
						117:leaf=0.0239625,cover=42709.2
						118:leaf=0.0377675,cover=13656
			14:[C_D_U_TITLEMD5_CATEGORY_MAX_C<0.187999] yes=29,no=30,missing=29,gain=1241.53,cover=336527
				29:[D_PUBLISHER_EC<3712.29] yes=59,no=60,missing=60,gain=1028.56,cover=206774
					59:[C_D_U_TITLEMD5_CATEGORY_MAX_EC<0.139999] yes=119,no=120,missing=120,gain=257.087,cover=84524.3
						119:leaf=-0.0047887,cover=20390.2
						120:leaf=0.00810176,cover=64134.2
					60:[U_CATEGORY_MACRO_MAX_COEC<0.014999] yes=121,no=122,missing=122,gain=588.947,cover=122250
						121:leaf=-0.00454989,cover=82649.7
						122:leaf=-0.0193816,cover=39599.9
				30:[U_CATEGORY_MACRO_MAX_COEC<0.029999] yes=61,no=62,missing=62,gain=683.771,cover=129753
					61:[U_CATEGORY_MICRO_MAX_COEC<0.085999] yes=123,no=124,missing=124,gain=373.133,cover=122368
						123:leaf=0.00780631,cover=94968.3
						124:leaf=0.0210529,cover=27399.7
					62:[D_PUBLISHER_EC<4896.17] yes=125,no=126,missing=126,gain=294.636,cover=7385.4
						125:leaf=0.0109249,cover=2119.15
						126:leaf=-0.0332265,cover=5266.25
booster[38]:
0:[U_CITY_COEC<0.063999] yes=1,no=2,missing=2,gain=6018.27,cover=6.04228e+06
	1:[DOC_AGE<82] yes=3,no=4,missing=4,gain=2107.9,cover=1.43728e+06
		3:[U_CITY_COEC<0.030999] yes=7,no=8,missing=8,gain=1948.68,cover=1.22207e+06
			7:[U_CITY_EC<112.636] yes=15,no=16,missing=16,gain=1487.84,cover=227764
				15:[D_TITLEMD5_EC<123.395] yes=31,no=32,missing=31,gain=349.244,cover=119775
					31:[U_CITY_EC<18.753] yes=63,no=64,missing=64,gain=346.364,cover=26404.2
						63:leaf=0.0173442,cover=11726.7
						64:leaf=-0.00570587,cover=14677.5
					32:[D_TITLEMD5_EC<4742.98] yes=65,no=66,missing=66,gain=323.807,cover=93370.3
						65:leaf=-0.0110534,cover=78538.1
						66:leaf=0.00505664,cover=14832.3
				16:[U_CITY_COEC<0.017999] yes=33,no=34,missing=34,gain=1113.08,cover=107990
					33:[D_TITLEMD5_EC<1119.19] yes=67,no=68,missing=68,gain=530.322,cover=29064.5
						67:leaf=-0.0462757,cover=21884.8
						68:leaf=-0.0149527,cover=7179.67
					34:[D_PUBLISHER_COEC<0.029999] yes=69,no=70,missing=69,gain=408.259,cover=78925.4
						69:leaf=-0.0390877,cover=6790.5
						70:leaf=-0.0134407,cover=72134.9
			8:[C_D_U_CATEGORY_CATEGORY_MICRO_MAX_COEC<0.058999] yes=17,no=18,missing=18,gain=1422.91,cover=994307
				17:[CAT_REL<0.063999] yes=35,no=36,missing=36,gain=635.995,cover=206537
					35:[U_CATEGORY_MICRO_MAX_COEC<0.070999] yes=71,no=72,missing=72,gain=415.838,cover=168606
						71:leaf=-0.015401,cover=138009
						72:leaf=-0.00251537,cover=30597.5
					36:[D_KEYWORD_MACRO_MAX_COEC<0.008999] yes=73,no=74,missing=74,gain=408.096,cover=37930.1
						73:leaf=-0.0196117,cover=7506.48
						74:leaf=0.00642138,cover=30423.6
				18:[U_CATEGORY_MACRO_MAX_COEC<0.006999] yes=37,no=38,missing=38,gain=1226.6,cover=787770
					37:[DOC_AGE<3] yes=75,no=76,missing=76,gain=780.549,cover=298667
						75:leaf=0.0194572,cover=29255.5
						76:leaf=0.00225931,cover=269412
					38:[CAT_REL<0.098999] yes=77,no=78,missing=78,gain=948.119,cover=489103
						77:leaf=-0.00608726,cover=412446
						78:leaf=0.00602345,cover=76657.1
		4:[D_TITLEMD5_C<120.373] yes=9,no=10,missing=9,gain=522.75,cover=215206
			9:[CAT_REL<0.045999] yes=19,no=20,missing=20,gain=541.028,cover=157384
				19:[D_PUBLISHER_COEC<0.039999] yes=39,no=40,missing=39,gain=398.326,cover=117415
					39:[TIME_OF_DAY<23] yes=79,no=80,missing=80,gain=211.413,cover=10277.5
						79:leaf=-0.0161602,cover=9770.07
						80:leaf=-0.0823087,cover=507.392
					40:[D_CATEGORY_MICRO_MAX_COEC<0.078999] yes=81,no=82,missing=82,gain=307.442,cover=107138
						81:leaf=0.00542507,cover=65749.3
						82:leaf=-0.0055767,cover=41388.7
				20:[D_CATEGORY_MEAN_C<2096.34] yes=41,no=42,missing=42,gain=294.582,cover=39968.3
					41:[WORD_COUNT<3158] yes=83,no=84,missing=84,gain=260.106,cover=19033.8
						83:leaf=0.0126104,cover=11722.7
						84:leaf=0.0366456,cover=7311.08
					42:[C_D_U_CATEGORY_CATEGORY_MICRO_MEAN_COEC<0.045999] yes=85,no=86,missing=86,gain=213.106,cover=20934.5
						85:leaf=-0.0811655,cover=284.407
						86:leaf=0.00584021,cover=20650.1
			10:[D_CATEGORY_MAX_EC<53745.2] yes=21,no=22,missing=22,gain=192.136,cover=57822.6
				21:[C_D_U_TITLEMD5_CITY_EC<10.571] yes=43,no=44,missing=43,gain=117.316,cover=49460.9
					43:[D_CATEGORY_MACRO_MAX_COEC<0.036999] yes=87,no=88,missing=88,gain=112.546,cover=45595.8
						87:leaf=0.00160526,cover=3967.77
						88:leaf=0.019232,cover=41628
					44:[U_CITY_COEC<0.051999] yes=89,no=90,missing=90,gain=416.133,cover=3865.13
						89:leaf=-0.110354,cover=315.317
						90:leaf=0.00934386,cover=3549.81
				22:[D_TITLEMD5_COEC<0.064999] yes=45,no=46,missing=46,gain=236.586,cover=8361.65
					45:[C_D_U_TITLEMD5_CITY_C<0.515999] yes=91,no=92,missing=91,gain=89.1099,cover=315.133
						91:leaf=0.0933644,cover=307.537
						92:leaf=-0.234367,cover=7.59607
					46:[C_D_U_TITLEMD5_AGE_COEC<0.137999] yes=93,no=94,missing=94,gain=175.197,cover=8046.52
						93:leaf=0.0646905,cover=359.505
						94:leaf=-0.00663757,cover=7687.01
	2:[U_CATEGORY_MICRO_MAX_COEC<0.062999] yes=5,no=6,missing=5,gain=4675.38,cover=4.605e+06
		5:[U_CATEGORY_MACRO_MAX_COEC<0.005999] yes=11,no=12,missing=11,gain=1782.54,cover=1.65319e+06
			11:[D_KEYWORD_MEAN_EC<1222.9] yes=23,no=24,missing=24,gain=1977.92,cover=828393
				23:[CAT_REL<0.058999] yes=47,no=48,missing=48,gain=1528.82,cover=398942
					47:[D_CATEGORY_MEAN_C<2245.58] yes=95,no=96,missing=95,gain=1114.58,cover=367932
						95:leaf=-0.0101811,cover=156470
						96:leaf=0.000951815,cover=211462
					48:[D_TITLEMD5_EC<5.728] yes=97,no=98,missing=97,gain=250.652,cover=31010.5
						97:leaf=0.0399747,cover=4945.9
						98:leaf=0.01542,cover=26064.6
				24:[D_KEYWORD_MICRO_MAX_COEC<0.206999] yes=49,no=50,missing=50,gain=800.13,cover=429451
					49:[U_CITY_C<0.985999] yes=99,no=100,missing=99,gain=642.239,cover=422493
						99:leaf=0.000924605,cover=116593
						100:leaf=0.00964694,cover=305901
					50:[D_CATEGORY_MAX_C<8898.4] yes=101,no=102,missing=102,gain=181.189,cover=6958.21
						101:leaf=0.0371504,cover=6504.1
						102:leaf=0.102448,cover=454.108
			12:[U_CATEGORY_MICRO_MAX_COEC<0.054999] yes=25,no=26,missing=26,gain=1531.11,cover=824797
				25:[C_D_U_TITLEMD5_CATEGORY_MAX_C<0.097999] yes=51,no=52,missing=51,gain=836.951,cover=141457
					51:[D_PUBLISHER_EC<4134.1] yes=103,no=104,missing=104,gain=580.434,cover=66569.2
						103:leaf=-0.0102675,cover=28346.4
						104:leaf=-0.0291523,cover=38222.7
					52:[D_PUBLISHER_EC<9554.81] yes=105,no=106,missing=106,gain=391.948,cover=74887.5
						105:leaf=0.00558418,cover=21813.2
						106:leaf=-0.0103383,cover=53074.2
				26:[CAT_REL<0.079999] yes=53,no=54,missing=54,gain=1305.3,cover=683341
					53:[C_D_U_TITLEMD5_CATEGORY_MAX_EC<0.517999] yes=107,no=108,missing=107,gain=1046.28,cover=518139
						107:leaf=-0.00878033,cover=242560
						108:leaf=0.000225284,cover=275579
					54:[D_CATEGORY_MICRO_MAX_COEC<0.072999] yes=109,no=110,missing=110,gain=781.741,cover=165201
						109:leaf=0.010835,cover=113886
						110:leaf=-0.0040304,cover=51315.3
		6:[D_KEYWORD_MACRO_MEAN_COEC<0.057999] yes=13,no=14,missing=13,gain=3454.53,cover=2.95181e+06
			13:[DOC_AGE<92] yes=27,no=28,missing=28,gain=1856.76,cover=745083
				27:[D_KEYWORD_MACRO_MEAN_COEC<0.038999] yes=55,no=56,missing=55,gain=1558.63,cover=670630
					55:[U_CITY_COEC<0.070999] yes=111,no=112,missing=112,gain=478.777,cover=73854.7
						111:leaf=-0.0294374,cover=17162.9
						112:leaf=-0.0103741,cover=56691.8
					56:[U_CATEGORY_MACRO_MAX_COEC<0.003999] yes=113,no=114,missing=114,gain=1262.18,cover=596776
						113:leaf=0.0307569,cover=13558.1
						114:leaf=-0.000105896,cover=583218
				28:[D_CATEGORY_MACRO_MAX_COEC<0.075999] yes=57,no=58,missing=58,gain=322.378,cover=74453.1
					57:[D_KEYWORD_MEAN_C<122.836] yes=115,no=116,missing=115,gain=248.246,cover=70389.6
						115:leaf=0.0184566,cover=67023.7
						116:leaf=-0.00937207,cover=3365.92
					58:[TIME_OF_DAY<6] yes=117,no=118,missing=118,gain=213.558,cover=4063.45
						117:leaf=-0.0536382,cover=938.747
						118:leaf=0.000730297,cover=3124.71
			14:[U_CATEGORY_MACRO_MAX_COEC<0.013999] yes=29,no=30,missing=30,gain=2382.41,cover=2.20673e+06
				29:[CAT_REL<0.025999] yes=59,no=60,missing=60,gain=2357.62,cover=1.97121e+06
					59:[U_CATEGORY_MACRO_MAX_COEC<0.004999] yes=119,no=120,missing=120,gain=1551.46,cover=1.19884e+06
						119:leaf=0.0172584,cover=126787
						120:leaf=0.00556057,cover=1.07205e+06
					60:[WORD_COUNT<789] yes=121,no=122,missing=122,gain=1009.04,cover=772373
						121:leaf=0.00254032,cover=71208.2
						122:leaf=0.0150341,cover=701165
				30:[C_D_U_TITLEMD5_CATEGORY_MAX_C<0.280999] yes=61,no=62,missing=61,gain=1281.72,cover=235512
					61:[D_PUBLISHER_EC<2052.89] yes=123,no=124,missing=124,gain=858.972,cover=138802
						123:leaf=0.00406445,cover=45362.7
						124:leaf=-0.012707,cover=93439.5
					62:[DOC_AGE<53] yes=125,no=126,missing=126,gain=492.112,cover=96709.7
						125:leaf=0.0029712,cover=66580.5
						126:leaf=0.0183739,cover=30129.2
booster[39]:
0:[D_TITLEMD5_COEC<0.121999] yes=1,no=2,missing=1,gain=5234.5,cover=6.02167e+06
	1:[DOC_AGE<82] yes=3,no=4,missing=4,gain=4692.91,cover=5.00587e+06
		3:[DOC_AGE<3] yes=7,no=8,missing=8,gain=3800.99,cover=4.19596e+06
			7:[U_CATEGORY_MACRO_MAX_COEC<0.015999] yes=15,no=16,missing=15,gain=1042.72,cover=411590
				15:[C_D_U_CATEGORY_CATEGORY_MICRO_MAX_COEC<0.086999] yes=31,no=32,missing=31,gain=920.109,cover=387684
					31:[D_KEYWORD_MACRO_MEAN_COEC<0.038999] yes=63,no=64,missing=64,gain=626.211,cover=303332
						63:leaf=-0.00716559,cover=28362.3
						64:leaf=0.00844076,cover=274970
					32:[DOC_AGE<0.999999] yes=65,no=66,missing=66,gain=365.613,cover=84352.1
						65:leaf=0.028538,cover=26419.3
						66:leaf=0.0143425,cover=57932.8
				16:[TIME_OF_DAY<2] yes=33,no=34,missing=34,gain=257.207,cover=23905.6
					33:[U_CITY_EC<20922.9] yes=67,no=68,missing=68,gain=297.833,cover=2490.55
						67:leaf=-0.0667179,cover=1664.93
						68:leaf=0.00672639,cover=825.619
					34:[D_CATEGORY_MICRO_MEAN_COEC<0.047999] yes=69,no=70,missing=70,gain=244.296,cover=21415
						69:leaf=0.0280391,cover=1690.82
						70:leaf=-0.0115574,cover=19724.2
			8:[C_D_U_TITLEMD5_CATEGORY_MAX_EC<0.094999] yes=17,no=18,missing=17,gain=5075.38,cover=3.78437e+06
				17:[D_CATEGORY_MEAN_EC<46244.6] yes=35,no=36,missing=36,gain=2914.5,cover=1.45064e+06
					35:[U_CATEGORY_MAX_EC<629.601] yes=71,no=72,missing=72,gain=2461.25,cover=881255
						71:leaf=-0.00432755,cover=404413
						72:leaf=-0.014933,cover=476841
					36:[U_CITY_COEC<0.055999] yes=73,no=74,missing=74,gain=1065.52,cover=569383
						73:leaf=-0.0107126,cover=92444
						74:leaf=0.00101771,cover=476939
				18:[U_CATEGORY_MACRO_MAX_COEC<0.017999] yes=37,no=38,missing=38,gain=3144.61,cover=2.33373e+06
					37:[CAT_REL<0.024999] yes=75,no=76,missing=76,gain=2796.54,cover=2.1918e+06
						75:leaf=-0.00112097,cover=1.24183e+06
						76:leaf=0.00608718,cover=949973
					38:[D_PUBLISHER_EC<2086.07] yes=77,no=78,missing=78,gain=1148.05,cover=141932
						77:leaf=0.00415342,cover=29629.4
						78:leaf=-0.0179756,cover=112302
		4:[C_D_U_TITLEMD5_CATEGORY_MAX_EC<0.047999] yes=9,no=10,missing=9,gain=1241.6,cover=809906
			9:[U_CITY_COEC<0.052999] yes=19,no=20,missing=19,gain=654.862,cover=275287
				19:[C_D_U_CATEGORY_CATEGORY_MACRO_MEAN_COEC<0.010999] yes=39,no=40,missing=39,gain=385.172,cover=97268.6
					39:[U_CATEGORY_MAX_EC<438.132] yes=79,no=80,missing=80,gain=361.376,cover=89206.6
						79:leaf=0.00885071,cover=20848.4
						80:leaf=-0.00618895,cover=68358.2
					40:[D_CATEGORY_MICRO_MEAN_COEC<0.083999] yes=81,no=82,missing=82,gain=262.172,cover=8061.96
						81:leaf=-0.0139495,cover=5718.87
						82:leaf=-0.0536632,cover=2343.09
				20:[D_TITLEMD5_EC<892.777] yes=41,no=42,missing=41,gain=419.088,cover=178018
					41:[D_CATEGORY_MICRO_MAX_COEC<0.088999] yes=83,no=84,missing=84,gain=524.34,cover=139053
						83:leaf=0.00569171,cover=117602
						84:leaf=-0.0113087,cover=21450.9
					42:[D_CATEGORY_MICRO_MAX_COEC<0.067999] yes=85,no=86,missing=86,gain=246.954,cover=38965.3
						85:leaf=-0.00598535,cover=4983.06
						86:leaf=0.0178518,cover=33982.2
			10:[U_CATEGORY_MICRO_MAX_COEC<0.072999] yes=21,no=22,missing=22,gain=811.807,cover=534619
				21:[TIME_OF_DAY<17] yes=43,no=44,missing=44,gain=889.566,cover=349780
					43:[C_D_U_TITLEMD5_CATEGORY_MAX_EC<0.346999] yes=87,no=88,missing=88,gain=548.038,cover=200916
						87:leaf=0.00577513,cover=86098.8
						88:leaf=0.016329,cover=114817
					44:[C_D_U_CATEGORY_CATEGORY_MICRO_MAX_COEC<0.080999] yes=89,no=90,missing=90,gain=320.942,cover=148864
						89:leaf=-0.00106066,cover=111926
						90:leaf=0.00968912,cover=36938.4
				22:[DOC_AGE<151] yes=45,no=46,missing=46,gain=337.399,cover=184840
					45:[U_CATEGORY_MACRO_MAX_COEC<0.009999] yes=91,no=92,missing=92,gain=278.249,cover=127022
						91:leaf=0.0160314,cover=85608.9
						92:leaf=0.00604659,cover=41412.7
					46:[U_GENDER_EC<50205.9] yes=93,no=94,missing=93,gain=138.83,cover=57817.9
						93:leaf=0.0220539,cover=57809.4
						94:leaf=-0.360492,cover=8.49156
	2:[D_TITLEMD5_C<1.923] yes=5,no=6,missing=6,gain=1942.03,cover=1.0158e+06
		5:[C_D_U_CATEGORY_CATEGORY_MICRO_MAX_COEC<0.054999] yes=11,no=12,missing=11,gain=534.699,cover=63182.7
			11:[C_D_U_CATEGORY_GENDER_MICRO_MAX_COEC<0.057999] yes=23,no=24,missing=23,gain=279.288,cover=13074.6
				23:[D_KEYWORD_MEAN_C<14.321] yes=47,no=48,missing=48,gain=198.401,cover=12781.7
					47:[D_PUBLISHER_EC<264.413] yes=95,no=96,missing=96,gain=245.926,cover=1685.32
						95:leaf=-0.122997,cover=460.542
						96:leaf=-0.0372907,cover=1224.78
					48:[D_KEYWORD_MACRO_MEAN_COEC<0.069999] yes=97,no=98,missing=97,gain=168.349,cover=11096.4
						97:leaf=-0.0164408,cover=8092.79
						98:leaf=-0.0441638,cover=3003.59
				24:[D_KEYWORD_MACRO_MEAN_COEC<0.087999] yes=49,no=50,missing=50,gain=86.7537,cover=292.933
					49:[C_D_U_CATEGORY_CATEGORY_MEAN_EC<1.104] yes=99,no=100,missing=100,gain=73.2836,cover=285.483
						99:leaf=-0.216568,cover=7.23809
						100:leaf=0.0873339,cover=278.245
					50:leaf=-0.247125,cover=7.44956
			12:[CAT_REL<0.010999] yes=25,no=26,missing=26,gain=363.774,cover=50108
				25:[U_CATEGORY_MAX_EC<764.203] yes=51,no=52,missing=52,gain=214.148,cover=8148.71
					51:[D_CATEGORY_MEAN_C<2643.69] yes=101,no=102,missing=102,gain=232.775,cover=4337.49
						101:leaf=-0.0392076,cover=1541.39
						102:leaf=0.00918088,cover=2796.1
					52:[U_CITY_COEC<0.066999] yes=103,no=104,missing=104,gain=190.871,cover=3811.22
						103:leaf=-0.0143115,cover=1608.69
						104:leaf=-0.0596295,cover=2202.53
				26:[D_KEYWORD_MEAN_EC<2086.26] yes=53,no=54,missing=54,gain=278.729,cover=41959.3
					53:[U_CITY_COEC<0.080999] yes=105,no=106,missing=105,gain=213.973,cover=35022.7
						105:leaf=-0.00768379,cover=27967.7
						106:leaf=0.0118035,cover=7055.03
					54:[C_D_U_PUBLISHER_GENDER_COEC<0.049999] yes=107,no=108,missing=108,gain=196.796,cover=6936.65
						107:leaf=-0.342593,cover=14.0896
						108:leaf=0.0189653,cover=6922.56
		6:[D_TITLEMD5_COEC<0.212999] yes=13,no=14,missing=14,gain=3238.54,cover=952619
			13:[U_CATEGORY_MACRO_MAX_COEC<0.008999] yes=27,no=28,missing=28,gain=1558.49,cover=889364
				27:[CAT_REL<0.015999] yes=55,no=56,missing=56,gain=943.172,cover=462093
					55:[U_CITY_COEC<0.067999] yes=109,no=110,missing=110,gain=529.158,cover=278847
						109:leaf=0.0019122,cover=88013.7
						110:leaf=0.0112851,cover=190834
					56:[D_KEYWORD_MEAN_C<62.385] yes=111,no=112,missing=111,gain=471.538,cover=183245
						111:leaf=0.0087519,cover=45625.2
						112:leaf=0.0204831,cover=137620
				28:[DOC_AGE<47] yes=57,no=58,missing=58,gain=1073.32,cover=427271
					57:[D_PUBLISHER_EC<10836.9] yes=113,no=114,missing=114,gain=869.841,cover=299637
						113:leaf=0.00538792,cover=159550
						114:leaf=-0.00541071,cover=140087
					58:[D_CATEGORY_MAX_C<6570.94] yes=115,no=116,missing=116,gain=285.405,cover=127634
						115:leaf=0.0125112,cover=119652
						116:leaf=-0.00701793,cover=7981.98
			14:[D_TITLEMD5_C<10.891] yes=29,no=30,missing=30,gain=320.859,cover=63255.2
				29:[C_D_U_PUBLISHER_GENDER_C<29.368] yes=59,no=60,missing=59,gain=256.502,cover=23470.4
					59:[C_D_U_PUBLISHER_AGE_COEC<0.048999] yes=117,no=118,missing=118,gain=184.084,cover=23456.2
						117:leaf=-0.0666929,cover=228.857
						118:leaf=0.023252,cover=23227.4
					60:[CAT_REL<0.002999] yes=119,no=120,missing=120,gain=1.87373,cover=14.1315
						119:leaf=-0.247849,cover=5.76811
						120:leaf=-0.450328,cover=8.3634
				30:[WORD_COUNT<1627] yes=61,no=62,missing=62,gain=160.285,cover=39784.9
					61:[D_PUBLISHER_COEC<0.056999] yes=121,no=122,missing=122,gain=194.929,cover=15844.6
						121:leaf=0.0847258,cover=603.972
						122:leaf=0.0268341,cover=15240.6
					62:[D_CATEGORY_MEAN_C<8993.75] yes=123,no=124,missing=124,gain=72.1339,cover=23940.3
						123:leaf=0.0422528,cover=23896.6
						124:leaf=-0.0851374,cover=43.6416
booster[40]:
0:[U_CITY_COEC<0.096999] yes=1,no=2,missing=1,gain=5499.42,cover=6.02144e+06
	1:[C_D_U_TITLEMD5_CITY_C<0.979999] yes=3,no=4,missing=3,gain=4256.96,cover=5.43657e+06
		3:[U_CATEGORY_MICRO_MAX_COEC<0.080999] yes=7,no=8,missing=7,gain=3934.93,cover=4.89453e+06
			7:[U_CATEGORY_MACRO_MAX_COEC<0.004999] yes=15,no=16,missing=16,gain=3911.97,cover=4.32443e+06
				15:[U_CITY_COEC<0.070999] yes=31,no=32,missing=32,gain=1246.04,cover=486406
					31:[D_TITLEMD5_C<1.922] yes=63,no=64,missing=63,gain=1185.59,cover=228092
						63:leaf=-0.011507,cover=50901.1
						64:leaf=0.00580845,cover=177191
					32:[TIME_OF_DAY<19] yes=65,no=66,missing=66,gain=1000.28,cover=258314
						65:leaf=0.0160443,cover=183920
						66:leaf=0.00230218,cover=74393.9
				16:[CAT_REL<0.065999] yes=33,no=34,missing=34,gain=3965.59,cover=3.83803e+06
					33:[U_CATEGORY_MACRO_MAX_COEC<0.007999] yes=67,no=68,missing=67,gain=3169.58,cover=3.0463e+06
						67:leaf=-0.00146614,cover=1.98335e+06
						68:leaf=-0.0082337,cover=1.06294e+06
					34:[D_CATEGORY_MICRO_MEAN_COEC<0.072999] yes=69,no=70,missing=69,gain=2020.84,cover=791730
						69:leaf=0.00745431,cover=551142
						70:leaf=-0.00353031,cover=240588
			8:[U_CATEGORY_MAX_EC<569.658] yes=17,no=18,missing=18,gain=1615.99,cover=570100
				17:[U_CITY_C<59.782] yes=35,no=36,missing=36,gain=1157.64,cover=333853
					35:[U_AGE_C<157.333] yes=71,no=72,missing=72,gain=683.212,cover=100949
						71:leaf=0.11782,cover=516.868
						72:leaf=0.00266408,cover=100432
					36:[TIME_OF_DAY<16] yes=73,no=74,missing=74,gain=653.104,cover=232903
						73:leaf=0.0208413,cover=128690
						74:leaf=0.0101912,cover=104213
				18:[C_D_U_TITLEMD5_CATEGORY_MAX_EC<0.027999] yes=37,no=38,missing=37,gain=895.423,cover=236248
					37:[TIME_OF_DAY<0.999999] yes=75,no=76,missing=76,gain=997.387,cover=41717.5
						75:leaf=-0.0757468,cover=2310.37
						76:leaf=-0.00815775,cover=39407.1
					38:[U_CITY_C<20.659] yes=77,no=78,missing=78,gain=480.35,cover=194530
						77:leaf=-0.00612663,cover=36331.5
						78:leaf=0.00662381,cover=158199
		4:[TIME_OF_DAY<13] yes=9,no=10,missing=10,gain=708.342,cover=542037
			9:[U_CATEGORY_MACRO_MAX_COEC<0.024999] yes=19,no=20,missing=19,gain=551.598,cover=204392
				19:[TIME_OF_DAY<3] yes=39,no=40,missing=40,gain=547.956,cover=201360
					39:[U_CITY_COEC<0.076999] yes=79,no=80,missing=80,gain=257.2,cover=91420.9
						79:leaf=0.0067157,cover=79047.9
						80:leaf=0.0222205,cover=12373.1
					40:[U_CITY_COEC<0.047999] yes=81,no=82,missing=82,gain=454.231,cover=109939
						81:leaf=-0.0739641,cover=518.876
						82:leaf=0.019735,cover=109420
				20:[C_D_U_TITLEMD5_CATEGORY_MICRO_MAX_COEC<0.070999] yes=41,no=42,missing=41,gain=196.334,cover=3032.3
					41:[C_D_U_TITLEMD5_CATEGORY_MACRO_MAX_COEC<0.022999] yes=83,no=84,missing=84,gain=164.135,cover=515.995
						83:leaf=-0.0359571,cover=297.156
						84:leaf=-0.150095,cover=218.839
					42:[C_D_U_TITLEMD5_CITY_COEC<0.253999] yes=85,no=86,missing=86,gain=159.951,cover=2516.31
						85:leaf=-0.0297361,cover=1997.57
						86:leaf=0.0325421,cover=518.732
			10:[U_CITY_COEC<0.077999] yes=21,no=22,missing=22,gain=405.71,cover=337645
				21:[U_CATEGORY_MACRO_MAX_COEC<0.029999] yes=43,no=44,missing=43,gain=310.049,cover=292485
					43:[U_CATEGORY_MICRO_MAX_COEC<0.087999] yes=87,no=88,missing=87,gain=271.527,cover=290393
						87:leaf=0.00462758,cover=274928
						88:leaf=0.0182449,cover=15465.9
					44:[D_CATEGORY_MACRO_MAX_COEC<0.028999] yes=89,no=90,missing=90,gain=188.389,cover=2091.46
						89:leaf=0.133864,cover=64.3788
						90:leaf=-0.0386509,cover=2027.09
				22:[U_CITY_C<1240.63] yes=45,no=46,missing=46,gain=542.98,cover=45160.2
					45:[C_D_U_CATEGORY_GENDER_MEAN_C<16.985] yes=91,no=92,missing=92,gain=141.7,cover=35834
						91:leaf=-0.278772,cover=16.0251
						92:leaf=0.00980258,cover=35818
					46:[C_D_U_CATEGORY_CATEGORY_MACRO_MAX_COEC<0.032999] yes=93,no=94,missing=93,gain=207.682,cover=9326.14
						93:leaf=0.0372864,cover=9315.06
						94:leaf=-0.377664,cover=11.0851
	2:[U_CITY_COEC<0.238999] yes=5,no=6,missing=6,gain=2174.2,cover=584870
		5:[U_CITY_C<14.131] yes=11,no=12,missing=12,gain=1010.98,cover=538082
			11:[D_TITLEMD5_COEC<0.077999] yes=23,no=24,missing=23,gain=676.563,cover=208499
				23:[D_KEYWORD_MACRO_MEAN_COEC<0.033999] yes=47,no=48,missing=47,gain=307.95,cover=86787.4
					47:[D_KEYWORD_MAX_C<62.037] yes=95,no=96,missing=95,gain=216.968,cover=1940.98
						95:leaf=-0.0513323,cover=1809.74
						96:leaf=0.0814032,cover=131.249
					48:[U_CITY_C<2.571] yes=97,no=98,missing=98,gain=269.183,cover=84846.4
						97:leaf=-0.0143538,cover=14689.3
						98:leaf=0.000532703,cover=70157.1
				24:[D_KEYWORD_MEAN_C<86.36] yes=49,no=50,missing=49,gain=350.105,cover=121711
					49:[CAT_REL<0.036999] yes=99,no=100,missing=100,gain=218.447,cover=45618
						99:leaf=-0.00327523,cover=30142.2
						100:leaf=0.0113403,cover=15475.8
					50:[U_CITY_C<0.976999] yes=101,no=102,missing=102,gain=191.318,cover=76093.2
						101:leaf=-0.00841494,cover=4038.7
						102:leaf=0.0139499,cover=72054.5
			12:[U_CATEGORY_MICRO_MAX_COEC<0.054999] yes=25,no=26,missing=26,gain=591.674,cover=329584
				25:[C_D_U_PUBLISHER_AGE_COEC<0.062999] yes=51,no=52,missing=52,gain=238.289,cover=11817.6
					51:[D_CATEGORY_MACRO_MAX_COEC<0.085999] yes=103,no=104,missing=104,gain=90.8731,cover=61.5712
						103:leaf=-0.250456,cover=53.5334
						104:leaf=0.0995292,cover=8.03784
					52:[C_D_U_CATEGORY_CATEGORY_MICRO_MAX_COEC<0.056999] yes=105,no=106,missing=106,gain=167.623,cover=11756
						105:leaf=-0.0213844,cover=5312.86
						106:leaf=0.00260694,cover=6443.15
				26:[U_CATEGORY_MAX_C<54.896] yes=53,no=54,missing=54,gain=496.973,cover=317766
					53:[U_CITY_C<33.618] yes=107,no=108,missing=108,gain=462.797,cover=137710
						107:leaf=0.0118378,cover=64253.5
						108:leaf=0.0234583,cover=73456.6
					54:[C_D_U_TITLEMD5_CATEGORY_MAX_C<0.053999] yes=109,no=110,missing=109,gain=298.883,cover=180056
						109:leaf=0.00700267,cover=115308
						110:leaf=0.0154928,cover=64748
		6:[U_CITY_C<6.289] yes=13,no=14,missing=14,gain=741.415,cover=46787.5
			13:[U_CITY_C<0.976999] yes=27,no=28,missing=28,gain=291.138,cover=21692.1
				27:[D_PUBLISHER_EC<14905.8] yes=55,no=56,missing=56,gain=243.41,cover=3452.98
					55:[D_TITLEMD5_COEC<0.017999] yes=111,no=112,missing=111,gain=147.698,cover=2119.12
						111:leaf=-0.0860235,cover=140.673
						112:leaf=0.0196771,cover=1978.45
					56:[D_KEYWORD_MACRO_MEAN_COEC<0.066999] yes=113,no=114,missing=114,gain=215.174,cover=1333.86
						113:leaf=-0.112022,cover=328.533
						114:leaf=-0.0188827,cover=1005.33
				28:[U_CATEGORY_MACRO_MAX_COEC<0.036999] yes=57,no=58,missing=57,gain=186.874,cover=18239.1
					57:[U_GENDER_C<2794.18] yes=115,no=116,missing=116,gain=140.314,cover=18114.4
						115:leaf=-0.144268,cover=48.4036
						116:leaf=0.0245245,cover=18066
					58:[D_KEYWORD_MAX_EC<326.32] yes=117,no=118,missing=118,gain=226.333,cover=124.712
						117:leaf=-0.234542,cover=60.9117
						118:leaf=0.0333911,cover=63.7999
			14:[U_CATEGORY_MAX_EC<207.457] yes=29,no=30,missing=30,gain=506.865,cover=25095.5
				29:[U_CITY_C<59.782] yes=59,no=60,missing=60,gain=113.358,cover=2486.39
					59:[U_CATEGORY_MICRO_MAX_COEC<0.059999] yes=119,no=120,missing=120,gain=124.925,cover=1077.39
						119:leaf=-0.194042,cover=17.8243
						120:leaf=0.0662417,cover=1059.57
					60:[C_D_U_TITLEMD5_CITY_C<0.989999] yes=121,no=122,missing=121,gain=27.2847,cover=1409
						121:leaf=0.105997,cover=1401.57
						122:leaf=-0.0780773,cover=7.42785
				30:[U_CITY_EC<147.163] yes=61,no=62,missing=62,gain=174.669,cover=22609.1
					61:[U_AGE_C<11458.6] yes=123,no=124,missing=123,gain=97.129,cover=19019.8
						123:leaf=0.0404567,cover=17549.5
						124:leaf=0.0672306,cover=1470.28
					62:[U_CATEGORY_MICRO_MAX_COEC<0.056999] yes=125,no=126,missing=126,gain=330.47,cover=3589.27
						125:leaf=-0.164024,cover=95.5748
						126:leaf=0.0235088,cover=3493.7
booster[41]:
0:[D_KEYWORD_MACRO_MEAN_COEC<0.067999] yes=1,no=2,missing=2,gain=4529.59,cover=6.01073e+06
	1:[DOC_AGE<73] yes=3,no=4,missing=4,gain=3441.59,cover=3.13399e+06
		3:[DOC_AGE<2] yes=7,no=8,missing=8,gain=3272.77,cover=2.54425e+06
			7:[C_D_U_CATEGORY_CATEGORY_MICRO_MAX_COEC<0.086999] yes=15,no=16,missing=16,gain=739.661,cover=242685
				15:[D_KEYWORD_MACRO_MEAN_COEC<0.033999] yes=31,no=32,missing=32,gain=474.803,cover=166687
					31:[C_D_U_CATEGORY_CATEGORY_MACRO_MAX_COEC<0.022999] yes=63,no=64,missing=64,gain=200.846,cover=9966.39
						63:leaf=-0.0152016,cover=9890.98
						64:leaf=-0.177969,cover=75.4064
					32:[U_CATEGORY_MACRO_MAX_COEC<0.016999] yes=65,no=66,missing=66,gain=381.096,cover=156721
						65:leaf=0.00722347,cover=148433
						66:leaf=-0.014809,cover=8288.18
				16:[U_CATEGORY_MAX_C<249.793] yes=33,no=34,missing=33,gain=315.101,cover=75998
					33:[D_KEYWORD_MEAN_EC<793.641] yes=67,no=68,missing=68,gain=208.112,cover=74363.3
						67:leaf=0.0110335,cover=29429.9
						68:leaf=0.0218522,cover=44933.4
					34:[D_KEYWORD_MICRO_MAX_COEC<0.110999] yes=69,no=70,missing=70,gain=157.637,cover=1634.64
						69:leaf=-0.0422315,cover=1310.87
						70:leaf=0.0356026,cover=323.772
			8:[C_D_U_TITLEMD5_CATEGORY_MAX_C<0.034999] yes=17,no=18,missing=17,gain=2841.7,cover=2.30156e+06
				17:[U_CATEGORY_MACRO_MAX_COEC<0.008999] yes=35,no=36,missing=35,gain=2265.57,cover=1.7788e+06
					35:[CAT_REL<0.027999] yes=71,no=72,missing=72,gain=2523.05,cover=1.37819e+06
						71:leaf=-0.00732872,cover=810969
						72:leaf=0.00136567,cover=567223
					36:[C_D_U_TITLEMD5_CATEGORY_MACRO_MAX_COEC<0.017999] yes=73,no=74,missing=74,gain=1402.97,cover=400608
						73:leaf=-0.00893348,cover=302932
						74:leaf=-0.0227157,cover=97676.3
				18:[U_CATEGORY_MACRO_MAX_COEC<0.020999] yes=37,no=38,missing=38,gain=1132.79,cover=522761
					37:[C_D_U_TITLEMD5_CATEGORY_MICRO_MAX_COEC<0.123999] yes=75,no=76,missing=76,gain=967.309,cover=495164
						75:leaf=0.0012755,cover=372554
						76:leaf=0.0115155,cover=122609
					38:[D_CATEGORY_MACRO_MEAN_COEC<0.073999] yes=77,no=78,missing=78,gain=395.93,cover=27597.9
						77:leaf=-0.0103007,cover=21015
						78:leaf=-0.0384043,cover=6582.94
		4:[C_D_U_TITLEMD5_CATEGORY_MAX_C<0.010999] yes=9,no=10,missing=9,gain=884.599,cover=589742
			9:[C_D_U_TITLEMD5_CATEGORY_MACRO_MAX_COEC<0.006999] yes=19,no=20,missing=20,gain=661.999,cover=344607
				19:[U_CATEGORY_MAX_EC<1076.67] yes=39,no=40,missing=40,gain=547.323,cover=218150
					39:[C_D_U_TITLEMD5_CATEGORY_MAX_EC<0.005999] yes=79,no=80,missing=80,gain=356.854,cover=150285
						79:leaf=-0.00234504,cover=22361.2
						80:leaf=0.0113473,cover=127923
					40:[D_CATEGORY_MICRO_MEAN_COEC<0.048999] yes=81,no=82,missing=82,gain=408.737,cover=67865.1
						81:leaf=0.0238397,cover=5814.64
						82:leaf=-0.0038856,cover=62050.5
				20:[D_CATEGORY_MAX_EC<32673.7] yes=41,no=42,missing=41,gain=422.526,cover=126458
					41:[DOC_AGE<112] yes=83,no=84,missing=84,gain=459.834,cover=76173.4
						83:leaf=-0.0148577,cover=41982
						84:leaf=0.000763339,cover=34191.4
					42:[C_D_U_CATEGORY_CATEGORY_MEAN_C<0.797999] yes=85,no=86,missing=85,gain=335.804,cover=50284.2
						85:leaf=0.0103062,cover=31384.4
						86:leaf=-0.00656577,cover=18899.7
			10:[TIME_OF_DAY<18] yes=21,no=22,missing=22,gain=422.911,cover=245135
				21:[D_CATEGORY_MICRO_MAX_COEC<0.061999] yes=43,no=44,missing=44,gain=231.96,cover=148891
					43:[U_CITY_COEC<0.076999] yes=87,no=88,missing=88,gain=143.992,cover=34705.9
						87:leaf=0.0150464,cover=18823.7
						88:leaf=0.027977,cover=15882.2
					44:[C_D_U_TITLEMD5_CATEGORY_MACRO_MAX_COEC<0.004999] yes=89,no=90,missing=90,gain=251.799,cover=114185
						89:leaf=0.0228049,cover=17133.4
						90:leaf=0.00965542,cover=97051.9
				22:[U_CATEGORY_MAX_EC<3415.55] yes=45,no=46,missing=46,gain=303.858,cover=96243.4
					45:[D_TITLEMD5_C<0.672999] yes=91,no=92,missing=92,gain=150.366,cover=82918.7
						91:leaf=-0.16077,cover=52.0403
						92:leaf=0.00765928,cover=82866.7
					46:[D_KEYWORD_MEAN_C<33.712] yes=93,no=94,missing=94,gain=300.295,cover=13324.7
						93:leaf=0.0310319,cover=1662.48
						94:leaf=-0.0143856,cover=11662.2
	2:[D_TITLEMD5_COEC<0.177999] yes=5,no=6,missing=6,gain=3630.42,cover=2.87674e+06
		5:[U_CATEGORY_MICRO_MAX_COEC<0.062999] yes=11,no=12,missing=11,gain=2530.17,cover=2.70971e+06
			11:[D_KEYWORD_MEAN_EC<1774.86] yes=23,no=24,missing=24,gain=1387.58,cover=1.06053e+06
				23:[U_CATEGORY_MICRO_MAX_COEC<0.056999] yes=47,no=48,missing=47,gain=978.274,cover=636809
					47:[D_PUBLISHER_C<994.722] yes=95,no=96,missing=96,gain=857.756,cover=331453
						95:leaf=-0.00172467,cover=162263
						96:leaf=-0.0119011,cover=169190
					48:[U_CATEGORY_MACRO_MAX_COEC<0.021999] yes=97,no=98,missing=98,gain=976.385,cover=305356
						97:leaf=0.00191776,cover=296248
						98:leaf=-0.0313223,cover=9107.57
				24:[C_D_U_CATEGORY_CATEGORY_MACRO_MEAN_COEC<0.010999] yes=49,no=50,missing=49,gain=1329.37,cover=423718
					49:[D_PUBLISHER_EC<113698] yes=99,no=100,missing=99,gain=798.646,cover=348301
						99:leaf=0.00564047,cover=327928
						100:leaf=0.0260451,cover=20373.1
					50:[D_TITLEMD5_EC<4707.4] yes=101,no=102,missing=102,gain=299.896,cover=75417
						101:leaf=-0.012702,cover=47077.7
						102:leaf=0.000318109,cover=28339.3
			12:[U_CITY_COEC<0.067999] yes=25,no=26,missing=26,gain=2158.98,cover=1.64919e+06
				25:[U_CITY_COEC<0.025999] yes=51,no=52,missing=52,gain=674.438,cover=501492
					51:[U_CITY_EC<17.767] yes=103,no=104,missing=104,gain=620.642,cover=44920.3
						103:leaf=0.0039076,cover=17063.8
						104:leaf=-0.0203102,cover=27856.6
					52:[DOC_AGE<7] yes=105,no=106,missing=106,gain=579.801,cover=456572
						105:leaf=0.0105867,cover=63627.3
						106:leaf=0.000296973,cover=392945
				26:[U_CATEGORY_MACRO_MAX_COEC<0.007999] yes=53,no=54,missing=54,gain=1243.65,cover=1.1477e+06
					53:[D_KEYWORD_MEAN_C<91.988] yes=107,no=108,missing=107,gain=860.964,cover=574179
						107:leaf=0.00717799,cover=240706
						108:leaf=0.0150257,cover=333474
					54:[CAT_REL<0.063999] yes=109,no=110,missing=110,gain=960.269,cover=573516
						109:leaf=0.00291659,cover=441676
						110:leaf=0.0126417,cover=131839
		6:[D_TITLEMD5_C<0.994999] yes=13,no=14,missing=14,gain=911.361,cover=167024
			13:[D_KEYWORD_MEAN_C<89.284] yes=27,no=28,missing=27,gain=514.827,cover=9000.53
				27:[D_CATEGORY_MEAN_C<645.7] yes=55,no=56,missing=56,gain=295.991,cover=5700.66
					55:[CAT_REL<0.021999] yes=111,no=112,missing=112,gain=223.771,cover=756.696
						111:leaf=-0.190927,cover=165.786
						112:leaf=-0.0595601,cover=590.91
					56:[C_D_U_PUBLISHER_AGE_COEC<0.058999] yes=113,no=114,missing=114,gain=162.867,cover=4943.96
						113:leaf=-0.139234,cover=113.653
						114:leaf=-0.0186255,cover=4830.31
				28:[D_KEYWORD_MICRO_MAX_COEC<0.084999] yes=57,no=58,missing=58,gain=175.065,cover=3299.87
					57:[U_CATEGORY_MACRO_MAX_COEC<0.005999] yes=115,no=116,missing=116,gain=47.5075,cover=28.1767
						115:leaf=-0.0563141,cover=11.1158
						116:leaf=-0.325094,cover=17.0609
					58:[D_CATEGORY_MACRO_MAX_COEC<0.089999] yes=117,no=118,missing=118,gain=133.375,cover=3271.7
						117:leaf=0.0229622,cover=3254.12
						118:leaf=-0.24579,cover=17.5777
			14:[D_TITLEMD5_COEC<0.212999] yes=29,no=30,missing=30,gain=823.391,cover=158024
				29:[WORD_COUNT<1882] yes=59,no=60,missing=60,gain=518.875,cover=88568.7
					59:[U_CATEGORY_MAX_EC<2216.64] yes=119,no=120,missing=120,gain=445.166,cover=48198.8
						119:leaf=0.0136788,cover=33009.3
						120:leaf=-0.00700735,cover=15189.5
					60:[C_D_U_TITLEMD5_CATEGORY_MACRO_MAX_COEC<0.050999] yes=121,no=122,missing=122,gain=199.115,cover=40369.9
						121:leaf=0.0272331,cover=27864
						122:leaf=0.0120437,cover=12505.9
				30:[D_KEYWORD_MEAN_C<64.484] yes=61,no=62,missing=62,gain=330.707,cover=69454.9
					61:[U_CITY_COEC<0.063999] yes=123,no=124,missing=124,gain=262.696,cover=17758.9
						123:leaf=-0.00448726,cover=4328.96
						124:leaf=0.0238389,cover=13430
					62:[D_CATEGORY_MACRO_MAX_COEC<0.045999] yes=125,no=126,missing=125,gain=203.929,cover=51696
						125:leaf=0.0397903,cover=22925.6
						126:leaf=0.0271446,cover=28770.4
booster[42]:
0:[C_D_U_CATEGORY_CATEGORY_MICRO_MEAN_COEC<0.048999] yes=1,no=2,missing=2,gain=4367.89,cover=5.99989e+06
	1:[D_CATEGORY_MACRO_MEAN_COEC<0.045999] yes=3,no=4,missing=4,gain=1164.65,cover=574562
		3:[D_TITLEMD5_C<4.656] yes=7,no=8,missing=7,gain=1107.84,cover=136045
			7:[C_D_U_CATEGORY_CATEGORY_MICRO_MEAN_COEC<0.031999] yes=15,no=16,missing=16,gain=907.385,cover=73182.1
				15:[D_KEYWORD_MACRO_MEAN_COEC<0.033999] yes=31,no=32,missing=31,gain=499.797,cover=28287.1
					31:[CAT_REL<0.184999] yes=63,no=64,missing=64,gain=247.157,cover=8994.86
						63:leaf=-0.0356881,cover=8268.33
						64:leaf=-0.096504,cover=726.527
					32:[WORD_COUNT<1167] yes=65,no=66,missing=66,gain=333.205,cover=19292.2
						65:leaf=-0.033518,cover=5264.26
						66:leaf=-0.00401569,cover=14027.9
				16:[D_CATEGORY_MICRO_MEAN_COEC<0.035999] yes=33,no=34,missing=34,gain=468.818,cover=44895
					33:[CAT_REL<0.031999] yes=67,no=68,missing=68,gain=320.433,cover=12165.1
						67:leaf=-0.000540469,cover=5124.74
						68:leaf=0.0323279,cover=7040.33
					34:[DOC_AGE<63] yes=69,no=70,missing=70,gain=319.798,cover=32729.9
						69:leaf=-0.00883261,cover=27472.3
						70:leaf=0.0180848,cover=5257.64
			8:[U_CITY_C<4.347] yes=17,no=18,missing=18,gain=205.432,cover=62863.1
				17:[D_PUBLISHER_COEC<0.057999] yes=35,no=36,missing=36,gain=264.178,cover=4209.74
					35:[D_PUBLISHER_C<527.264] yes=71,no=72,missing=72,gain=207.46,cover=1651.77
						71:leaf=-0.0235728,cover=1316.03
						72:leaf=-0.111564,cover=335.74
					36:[D_CATEGORY_MAX_EC<31573.6] yes=73,no=74,missing=74,gain=318.73,cover=2557.97
						73:leaf=0.0227687,cover=2253.22
						74:leaf=-0.0860375,cover=304.75
				18:[D_KEYWORD_MEAN_EC<434.068] yes=37,no=38,missing=38,gain=232.551,cover=58653.3
					37:[D_TITLEMD5_C<7.364] yes=75,no=76,missing=76,gain=240.469,cover=15844.8
						75:leaf=-0.0226984,cover=3122.38
						76:leaf=0.00826772,cover=12722.4
					38:[CAT_REL<0.007999] yes=77,no=78,missing=78,gain=223.038,cover=42808.6
						77:leaf=0.0224343,cover=25010.3
						78:leaf=0.00778816,cover=17798.3
		4:[D_TITLEMD5_C<50.323] yes=9,no=10,missing=9,gain=940.477,cover=438517
			9:[D_PUBLISHER_EC<1804.95] yes=19,no=20,missing=20,gain=600.288,cover=281052
				19:[U_CITY_COEC<0.047999] yes=39,no=40,missing=40,gain=520.071,cover=113280
					39:[C_D_U_CATEGORY_CATEGORY_MICRO_MEAN_COEC<0.046999] yes=79,no=80,missing=80,gain=347.448,cover=15573.2
						79:leaf=-0.03196,cover=12234.4
						80:leaf=0.00443366,cover=3338.87
					40:[DOC_AGE<111] yes=81,no=82,missing=82,gain=464.583,cover=97707.1
						81:leaf=-0.0066601,cover=88836.3
						82:leaf=0.0173391,cover=8870.82
				20:[D_CATEGORY_MAX_EC<10440.5] yes=41,no=42,missing=42,gain=602.727,cover=167772
					41:[D_PUBLISHER_C<35.481] yes=83,no=84,missing=84,gain=215.029,cover=42973.8
						83:leaf=0.206136,cover=46.554
						84:leaf=-0.00662915,cover=42927.3
					42:[D_PUBLISHER_COEC<0.081999] yes=85,no=86,missing=85,gain=389.53,cover=124798
						85:leaf=-0.0220828,cover=111153
						86:leaf=-0.00417931,cover=13644.7
			10:[D_CATEGORY_MEAN_C<3152.66] yes=21,no=22,missing=22,gain=397.577,cover=157465
				21:[D_TITLEMD5_COEC<0.130999] yes=43,no=44,missing=44,gain=276.208,cover=126302
					43:[C_D_U_TITLEMD5_CITY_COEC<0.316999] yes=87,no=88,missing=88,gain=293.359,cover=116606
						87:leaf=0.00311806,cover=57014.4
						88:leaf=-0.00691588,cover=59591.7
					44:[C_D_U_TITLEMD5_CATEGORY_MICRO_MAX_COEC<0.066999] yes=89,no=90,missing=90,gain=130.677,cover=9696.2
						89:leaf=0.0319937,cover=3225.75
						90:leaf=0.00735592,cover=6470.45
				22:[D_PUBLISHER_C<3895.14] yes=45,no=46,missing=46,gain=259.831,cover=31162.3
					45:[TIME_OF_DAY<2] yes=91,no=92,missing=92,gain=226.741,cover=24370.8
						91:leaf=-0.0357839,cover=2698.11
						92:leaf=-0.00504786,cover=21672.7
					46:[U_CATEGORY_MICRO_MAX_COEC<0.075999] yes=93,no=94,missing=94,gain=258.56,cover=6791.51
						93:leaf=-0.0273179,cover=6609.48
						94:leaf=-0.14783,cover=182.028
	2:[C_D_U_CATEGORY_CATEGORY_MACRO_MAX_COEC<0.004999] yes=5,no=6,missing=6,gain=4145.98,cover=5.42533e+06
		5:[CAT_REL<0.021999] yes=11,no=12,missing=12,gain=2970.52,cover=1.43633e+06
			11:[D_TITLEMD5_C<117.233] yes=23,no=24,missing=24,gain=1743.66,cover=897740
				23:[U_CATEGORY_MACRO_MAX_COEC<0.003999] yes=47,no=48,missing=48,gain=1084.28,cover=587542
					47:[U_CATEGORY_MICRO_MAX_COEC<0.061999] yes=95,no=96,missing=96,gain=693.771,cover=44918.2
						95:leaf=-0.000291139,cover=17664.9
						96:leaf=0.0251508,cover=27253.3
					48:[D_PUBLISHER_COEC<0.036999] yes=97,no=98,missing=97,gain=805.131,cover=542624
						97:leaf=-0.0148363,cover=39141.7
						98:leaf=5.2723e-05,cover=503483
				24:[TIME_OF_DAY<16] yes=49,no=50,missing=50,gain=462.01,cover=310197
					49:[U_CATEGORY_MAX_EC<2026.22] yes=99,no=100,missing=100,gain=356.593,cover=156629
						99:leaf=0.0149733,cover=139542
						100:leaf=-0.000332077,cover=17086.3
					50:[D_KEYWORD_MAX_EC<340.699] yes=101,no=102,missing=101,gain=349.345,cover=153569
						101:leaf=-0.00178704,cover=45315.9
						102:leaf=0.00867056,cover=108253
			12:[C_D_U_CATEGORY_CATEGORY_MACRO_MAX_COEC<0.002999] yes=25,no=26,missing=26,gain=885.165,cover=538589
				25:[D_PUBLISHER_C<16.874] yes=51,no=52,missing=51,gain=221.852,cover=81940.3
					51:[D_KEYWORD_MACRO_MAX_COEC<0.004999] yes=103,no=104,missing=104,gain=182.512,cover=10996.1
						103:leaf=-0.127363,cover=96.0586
						104:leaf=0.0103779,cover=10900
					52:[D_TITLEMD5_COEC<0.167999] yes=105,no=106,missing=105,gain=202.709,cover=70944.2
						105:leaf=0.0231759,cover=67249.2
						106:leaf=0.0472332,cover=3695.09
				26:[WORD_COUNT<1546] yes=53,no=54,missing=54,gain=734.312,cover=456648
					53:[D_TITLEMD5_C<2.844] yes=107,no=108,missing=107,gain=728.618,cover=116949
						107:leaf=-0.00845915,cover=32519.3
						108:leaf=0.00915756,cover=84430
					54:[U_CATEGORY_MAX_EC<2596.15] yes=109,no=110,missing=110,gain=612.586,cover=339699
						109:leaf=0.0144856,cover=320501
						110:leaf=-0.00390456,cover=19197.9
		6:[C_D_U_CATEGORY_CATEGORY_MICRO_MEAN_COEC<0.107999] yes=13,no=14,missing=13,gain=3633.86,cover=3.989e+06
			13:[DOC_AGE<85] yes=27,no=28,missing=28,gain=2706.25,cover=3.67217e+06
				27:[CAT_REL<0.059999] yes=55,no=56,missing=56,gain=2489.53,cover=3.15888e+06
					55:[D_TITLEMD5_C<147.102] yes=111,no=112,missing=112,gain=2831.23,cover=2.38019e+06
						111:leaf=-0.00562132,cover=1.47225e+06
						112:leaf=0.00147893,cover=907947
					56:[D_CATEGORY_MICRO_MAX_COEC<0.072999] yes=113,no=114,missing=113,gain=3162.39,cover=778682
						113:leaf=0.00880617,cover=467077
						114:leaf=-0.00420125,cover=311604
				28:[D_TITLEMD5_C<117.233] yes=57,no=58,missing=57,gain=917.149,cover=513294
					57:[WORD_COUNT<684] yes=115,no=116,missing=116,gain=640.274,cover=349386
						115:leaf=-0.0151313,cover=17295.5
						116:leaf=0.00460335,cover=332090
					58:[TIME_OF_DAY<8] yes=117,no=118,missing=118,gain=384.194,cover=163908
						117:leaf=0.0199568,cover=50418.1
						118:leaf=0.00946604,cover=113490
			14:[U_CATEGORY_MICRO_MAX_COEC<0.092999] yes=29,no=30,missing=30,gain=597.545,cover=316831
				29:[CAT_REL<0.079999] yes=59,no=60,missing=60,gain=724.995,cover=242151
					59:[C_D_U_CATEGORY_CATEGORY_MACRO_MEAN_COEC<0.011999] yes=119,no=120,missing=120,gain=604.468,cover=162847
						119:leaf=0.0100251,cover=92603.2
						120:leaf=-0.00227643,cover=70243.9
					60:[U_CITY_C<3254.28] yes=121,no=122,missing=121,gain=515.648,cover=79303.4
						121:leaf=0.0143939,cover=74777.4
						122:leaf=0.0491512,cover=4526.01
				30:[C_D_U_CATEGORY_CATEGORY_MAX_EC<33.183] yes=61,no=62,missing=62,gain=310.938,cover=74680.8
					61:[C_D_U_PUBLISHER_AGE_C<59.907] yes=123,no=124,missing=124,gain=354.945,cover=69929
						123:leaf=-0.00713362,cover=4372.56
						124:leaf=0.0222911,cover=65556.5
					62:[D_TITLEMD5_EC<5.689] yes=125,no=126,missing=126,gain=246.218,cover=4751.8
						125:leaf=-0.208327,cover=58.3855
						126:leaf=-0.00342202,cover=4693.42
booster[43]:
0:[U_CITY_COEC<0.115999] yes=1,no=2,missing=1,gain=4259.66,cover=5.9898e+06
	1:[D_PUBLISHER_COEC<0.033999] yes=3,no=4,missing=4,gain=3741.46,cover=5.64862e+06
		3:[D_PUBLISHER_EC<408.015] yes=7,no=8,missing=8,gain=1633.84,cover=310378
			7:[D_TITLEMD5_C<1.418] yes=15,no=16,missing=15,gain=637.575,cover=180418
				15:[D_KEYWORD_MEAN_EC<569.9] yes=31,no=32,missing=31,gain=553.742,cover=151557
					31:[WORD_COUNT<2575] yes=63,no=64,missing=64,gain=494.757,cover=61380.4
						63:leaf=-0.00646639,cover=36521.4
						64:leaf=0.0118225,cover=24859
					32:[C_D_U_CATEGORY_CATEGORY_MICRO_MEAN_COEC<0.037999] yes=65,no=66,missing=66,gain=460.478,cover=90176.7
						65:leaf=-0.0435598,cover=4235.04
						66:leaf=-0.00978614,cover=85941.7
				16:[C_D_U_TITLEMD5_CATEGORY_MICRO_MAX_COEC<0.090999] yes=33,no=34,missing=33,gain=220.836,cover=28860.8
					33:[C_D_U_TITLEMD5_CATEGORY_MACRO_MAX_COEC<0.000999] yes=67,no=68,missing=68,gain=210.617,cover=24922.4
						67:leaf=0.00502116,cover=13750.5
						68:leaf=0.0235062,cover=11171.9
					34:[U_CATEGORY_MAX_C<117.13] yes=69,no=70,missing=70,gain=238.869,cover=3938.46
						69:leaf=-0.00109738,cover=3276.75
						70:leaf=-0.0669267,cover=661.702
			8:[D_TITLEMD5_C<3.901] yes=17,no=18,missing=17,gain=2017.04,cover=129960
				17:[D_PUBLISHER_COEC<0.021999] yes=35,no=36,missing=36,gain=958.185,cover=70093.7
					35:[C_D_U_CATEGORY_CATEGORY_MAX_C<8.717] yes=71,no=72,missing=72,gain=625.943,cover=18544.7
						71:leaf=-0.0561267,cover=16412.2
						72:leaf=0.00146194,cover=2132.56
					36:[D_PUBLISHER_EC<26742.3] yes=73,no=74,missing=74,gain=1383.77,cover=51549
						73:leaf=-0.016708,cover=44929.2
						74:leaf=-0.0656784,cover=6619.84
				18:[D_TITLEMD5_COEC<0.212999] yes=37,no=38,missing=38,gain=354.384,cover=59866.3
					37:[CAT_REL<0.003999] yes=75,no=76,missing=76,gain=307.591,cover=59408.1
						75:leaf=-0.013667,cover=26666.3
						76:leaf=0.000799823,cover=32741.8
					38:[TIME_OF_DAY<22] yes=77,no=78,missing=78,gain=30.7377,cover=458.229
						77:leaf=0.0870428,cover=444.62
						78:leaf=-0.0619837,cover=13.6098
		4:[U_CATEGORY_MICRO_MAX_COEC<0.062999] yes=9,no=10,missing=9,gain=3271.43,cover=5.33824e+06
			9:[D_TITLEMD5_EC<5073.49] yes=19,no=20,missing=20,gain=1684.2,cover=1.99894e+06
				19:[D_PUBLISHER_EC<5575.27] yes=39,no=40,missing=39,gain=2225.7,cover=1.76323e+06
					39:[C_D_U_CATEGORY_CATEGORY_MEAN_EC<100.903] yes=79,no=80,missing=80,gain=1058.65,cover=706990
						79:leaf=-0.00174292,cover=423171
						80:leaf=0.00615122,cover=283819
					40:[U_CATEGORY_MACRO_MAX_COEC<0.004999] yes=81,no=82,missing=82,gain=2101.13,cover=1.05624e+06
						81:leaf=0.00546223,cover=142687
						82:leaf=-0.00758586,cover=913554
				20:[D_CATEGORY_MACRO_MAX_COEC<0.050999] yes=41,no=42,missing=41,gain=978.62,cover=235709
					41:[D_KEYWORD_MEAN_EC<1524.91] yes=83,no=84,missing=84,gain=561.335,cover=82760.2
						83:leaf=-0.00132756,cover=17045.1
						84:leaf=0.0190375,cover=65715.1
					42:[C_D_U_CATEGORY_CATEGORY_MACRO_MAX_COEC<0.008999] yes=85,no=86,missing=86,gain=329.044,cover=152949
						85:leaf=0.00768864,cover=53269.9
						86:leaf=-0.00204677,cover=99678.7
			10:[U_CITY_C<20.617] yes=21,no=22,missing=22,gain=2978.66,cover=3.3393e+06
				21:[U_CITY_EC<566.374] yes=43,no=44,missing=44,gain=1533.36,cover=619569
					43:[CAT_REL<0.052999] yes=87,no=88,missing=88,gain=1014.69,cover=607055
						87:leaf=-0.00459008,cover=460480
						88:leaf=0.00496304,cover=146574
					44:[U_CITY_C<9.889] yes=89,no=90,missing=90,gain=555.449,cover=12513.8
						89:leaf=-0.0821792,cover=2287.83
						90:leaf=-0.0276754,cover=10226
				22:[U_CATEGORY_MACRO_MAX_COEC<0.007999] yes=45,no=46,missing=46,gain=2222.48,cover=2.71973e+06
					45:[TIME_OF_DAY<21] yes=91,no=92,missing=92,gain=1761.6,cover=1.48481e+06
						91:leaf=0.00888754,cover=1.22256e+06
						92:leaf=-0.000144618,cover=262257
					46:[C_D_U_TITLEMD5_CATEGORY_MAX_C<0.157999] yes=93,no=94,missing=93,gain=2274.15,cover=1.23492e+06
						93:leaf=-0.00111358,cover=891342
						94:leaf=0.00846263,cover=343579
	2:[U_CITY_COEC<0.257999] yes=5,no=6,missing=6,gain=1231.05,cover=341174
		5:[U_CITY_C<2.571] yes=11,no=12,missing=12,gain=685.291,cover=305617
			11:[D_TITLEMD5_C<279.845] yes=23,no=24,missing=24,gain=273.962,cover=29135.2
				23:[C_D_U_CATEGORY_GENDER_MEAN_C<152.708] yes=47,no=48,missing=47,gain=203.031,cover=21469
					47:[U_AGE_C<10590.3] yes=95,no=96,missing=96,gain=144.954,cover=21455.8
						95:leaf=-0.2401,cover=26.3326
						96:leaf=-0.00965574,cover=21429.4
					48:leaf=-0.388056,cover=13.2116
				24:[C_D_U_TITLEMD5_CATEGORY_MAX_EC<1.004] yes=49,no=50,missing=50,gain=90.8505,cover=7666.26
					49:[DAY_OF_WEEK<3] yes=97,no=98,missing=98,gain=127.162,cover=886.818
						97:leaf=-0.0756358,cover=268.197
						98:leaf=0.00669133,cover=618.62
					50:[C_D_U_CATEGORY_CATEGORY_MACRO_MAX_COEC<0.017999] yes=99,no=100,missing=99,gain=82.8038,cover=6779.45
						99:leaf=0.018079,cover=6493.39
						100:leaf=-0.0368113,cover=286.06
			12:[D_KEYWORD_MACRO_MEAN_COEC<0.064999] yes=25,no=26,missing=26,gain=428.716,cover=276482
				25:[WORD_COUNT<1976] yes=51,no=52,missing=52,gain=234.271,cover=118064
					51:[U_CITY_C<42.792] yes=101,no=102,missing=102,gain=277.364,cover=49207.6
						101:leaf=-0.00205189,cover=38585.2
						102:leaf=0.0161956,cover=10622.4
					52:[D_CATEGORY_MACRO_MAX_COEC<0.062999] yes=103,no=104,missing=104,gain=191.59,cover=68856.1
						103:leaf=0.0141749,cover=49888.7
						104:leaf=0.00236745,cover=18967.4
				26:[U_CATEGORY_MACRO_MAX_COEC<0.005999] yes=53,no=54,missing=54,gain=220.189,cover=158418
					53:[D_PUBLISHER_C<348.386] yes=105,no=106,missing=105,gain=162.371,cover=39121.9
						105:leaf=0.0123967,cover=12815.7
						106:leaf=0.0261248,cover=26306.3
					54:[U_CATEGORY_MICRO_MAX_COEC<0.068999] yes=107,no=108,missing=107,gain=182.133,cover=119296
						107:leaf=0.00901495,cover=58739.2
						108:leaf=0.0168308,cover=60557.2
		6:[U_CATEGORY_MACRO_MAX_COEC<0.003999] yes=13,no=14,missing=14,gain=630.148,cover=35557
			13:[U_CITY_C<67.606] yes=27,no=28,missing=28,gain=73.1931,cover=1489.14
				27:[C_D_U_CATEGORY_CATEGORY_MICRO_MAX_COEC<0.058999] yes=55,no=56,missing=56,gain=29.1136,cover=236.768
					55:[D_PUBLISHER_C<3.815] yes=109,no=110,missing=110,gain=44.4318,cover=33.9463
						109:leaf=0.115128,cover=11.0936
						110:leaf=-0.120639,cover=22.8527
					56:[WORD_COUNT<1003] yes=111,no=112,missing=112,gain=24.4906,cover=202.822
						111:leaf=-0.0648372,cover=14.6144
						112:leaf=0.0663112,cover=188.207
				28:[C_D_U_TITLEMD5_CITY_C<0.989999] yes=57,no=58,missing=57,gain=25.7536,cover=1252.37
					57:[C_D_U_TITLEMD5_CATEGORY_MAX_C<0.018999] yes=113,no=114,missing=113,gain=2.81751,cover=1244.7
						113:leaf=0.104584,cover=1239.67
						114:leaf=0.0239377,cover=5.03177
					58:leaf=-0.0722399,cover=7.66637
			14:[U_CITY_C<6.301] yes=29,no=30,missing=30,gain=352.736,cover=34067.9
				29:[D_PUBLISHER_COEC<0.036999] yes=59,no=60,missing=59,gain=231.927,cover=16739.8
					59:[C_D_U_TITLEMD5_CATEGORY_MAX_EC<0.022999] yes=115,no=116,missing=116,gain=170.869,cover=540.997
						115:leaf=0.0484875,cover=137.24
						116:leaf=-0.0803684,cover=403.757
					60:[U_CATEGORY_MICRO_MAX_COEC<0.061999] yes=117,no=118,missing=118,gain=174.406,cover=16198.8
						117:leaf=-0.00196471,cover=3223.34
						118:leaf=0.0240246,cover=12975.5
				30:[U_CITY_C<220.891] yes=61,no=62,missing=62,gain=154.881,cover=17328
					61:[DAY_OF_WEEK<2] yes=119,no=120,missing=120,gain=126.759,cover=16393.6
						119:leaf=0.0526901,cover=4948.78
						120:leaf=0.0335255,cover=11444.9
					62:[C_D_U_TITLEMD5_CITY_EC<0.305999] yes=121,no=122,missing=122,gain=117.892,cover=934.392
						121:leaf=-0.355616,cover=8.36225
						122:leaf=0.00102755,cover=926.03
booster[44]:
0:[D_PUBLISHER_COEC<0.104999] yes=1,no=2,missing=1,gain=3615.08,cover=5.98301e+06
	1:[DOC_AGE<81] yes=3,no=4,missing=4,gain=3048.03,cover=5.15858e+06
		3:[DOC_AGE<4] yes=7,no=8,missing=8,gain=3799.17,cover=4.37978e+06
			7:[D_KEYWORD_MACRO_MEAN_COEC<0.049999] yes=15,no=16,missing=16,gain=1281.4,cover=609908
				15:[C_D_U_TITLEMD5_CATEGORY_MICRO_MAX_COEC<0.094999] yes=31,no=32,missing=31,gain=400.384,cover=139940
					31:[D_CATEGORY_MICRO_MEAN_COEC<0.047999] yes=63,no=64,missing=64,gain=395.018,cover=133582
						63:leaf=0.0100681,cover=27507.9
						64:leaf=-0.00337945,cover=106074
					32:[U_CITY_COEC<0.075999] yes=65,no=66,missing=65,gain=260.851,cover=6357.4
						65:leaf=-0.0396472,cover=4431.1
						66:leaf=0.00442673,cover=1926.3
				16:[U_CATEGORY_MACRO_MAX_COEC<0.006999] yes=33,no=34,missing=34,gain=923.757,cover=469969
					33:[CAT_REL<0.002999] yes=67,no=68,missing=68,gain=574.944,cover=192130
						67:leaf=0.00566446,cover=53632.4
						68:leaf=0.0178594,cover=138497
					34:[D_PUBLISHER_EC<58717.1] yes=69,no=70,missing=69,gain=1391,cover=277839
						69:leaf=0.00805124,cover=244469
						70:leaf=-0.013714,cover=33370.2
			8:[C_D_U_TITLEMD5_CATEGORY_MAX_EC<0.092999] yes=17,no=18,missing=17,gain=3353.96,cover=3.76987e+06
				17:[D_CATEGORY_MEAN_EC<46312] yes=35,no=36,missing=36,gain=2681.29,cover=1.4267e+06
					35:[U_CATEGORY_MAX_C<10.766] yes=71,no=72,missing=72,gain=1831.55,cover=866583
						71:leaf=0.00763137,cover=60214.8
						72:leaf=-0.0104484,cover=806368
					36:[U_CATEGORY_MACRO_MAX_COEC<0.005999] yes=73,no=74,missing=73,gain=1090.8,cover=560114
						73:leaf=0.00379716,cover=299828
						74:leaf=-0.00505089,cover=260286
				18:[U_CATEGORY_MICRO_MAX_COEC<0.059999] yes=37,no=38,missing=38,gain=2275.02,cover=2.34318e+06
					37:[U_CATEGORY_MACRO_MAX_COEC<0.004999] yes=75,no=76,missing=76,gain=802.994,cover=476012
						75:leaf=0.00413785,cover=70310.5
						76:leaf=-0.00743792,cover=405701
					38:[U_CATEGORY_MACRO_MAX_COEC<0.018999] yes=77,no=78,missing=78,gain=1967.38,cover=1.86717e+06
						77:leaf=0.00278918,cover=1.76703e+06
						78:leaf=-0.0116189,cover=100141
		4:[C_D_U_TITLEMD5_CATEGORY_MAX_EC<0.060999] yes=9,no=10,missing=9,gain=986.605,cover=778799
			9:[C_D_U_CATEGORY_CATEGORY_MACRO_MEAN_COEC<0.009999] yes=19,no=20,missing=19,gain=456.519,cover=291101
				19:[TIME_OF_DAY<19] yes=39,no=40,missing=40,gain=456.928,cover=255515
					39:[TIME_OF_DAY<0.999999] yes=79,no=80,missing=80,gain=444.743,cover=187313
						79:leaf=-0.0127026,cover=12508.4
						80:leaf=0.0068159,cover=174805
					40:[D_KEYWORD_MEAN_C<280.824] yes=81,no=82,missing=82,gain=272.59,cover=68201.7
						81:leaf=-0.00622748,cover=60953.5
						82:leaf=0.0142847,cover=7248.23
				20:[D_KEYWORD_MEAN_EC<1648.28] yes=41,no=42,missing=41,gain=364.766,cover=35585.9
					41:[D_PUBLISHER_COEC<0.066999] yes=83,no=84,missing=83,gain=180.562,cover=25809.7
						83:leaf=-0.00975956,cover=15425.3
						84:leaf=0.00729657,cover=10384.4
					42:[U_CITY_C<3293.02] yes=85,no=86,missing=85,gain=223.327,cover=9776.19
						85:leaf=-0.0289654,cover=9308.81
						86:leaf=0.0418117,cover=467.383
			10:[TIME_OF_DAY<16] yes=21,no=22,missing=22,gain=618.79,cover=487698
				21:[C_D_U_TITLEMD5_CATEGORY_MAX_EC<0.473999] yes=43,no=44,missing=44,gain=487.242,cover=245276
					43:[U_CATEGORY_MAX_C<46.909] yes=87,no=88,missing=88,gain=536.881,cover=132438
						87:leaf=0.01651,cover=49486.5
						88:leaf=0.00334896,cover=82951.7
					44:[U_CATEGORY_MAX_C<90.564] yes=89,no=90,missing=90,gain=203.554,cover=112838
						89:leaf=0.0227809,cover=41475.2
						90:leaf=0.0139712,cover=71362.8
				22:[WORD_COUNT<3856] yes=45,no=46,missing=46,gain=471.27,cover=242422
					45:[C_D_U_PUBLISHER_AGE_EC<5014.87] yes=91,no=92,missing=91,gain=343.605,cover=178396
						91:leaf=0.00222174,cover=176975
						92:leaf=0.0515625,cover=1421.74
					46:[DOC_AGE<260] yes=93,no=94,missing=94,gain=477.95,cover=64025.2
						93:leaf=0.00860577,cover=52676.6
						94:leaf=0.0312302,cover=11348.6
	2:[CAT_REL<0.008999] yes=5,no=6,missing=6,gain=1460.13,cover=824425
		5:[WORD_COUNT<1713] yes=11,no=12,missing=12,gain=1318.69,cover=497545
			11:[D_TITLEMD5_COEC<0.108999] yes=23,no=24,missing=24,gain=465.655,cover=227988
				23:[D_PUBLISHER_EC<19179] yes=47,no=48,missing=48,gain=590.95,cover=39713.9
					47:[C_D_U_PUBLISHER_GENDER_C<1.396] yes=95,no=96,missing=96,gain=236.547,cover=19431.5
						95:leaf=-0.287744,cover=27.3168
						96:leaf=0.00149197,cover=19404.2
					48:[C_D_U_CATEGORY_CATEGORY_MAX_C<1.07] yes=97,no=98,missing=98,gain=514.469,cover=20282.4
						97:leaf=-0.00113867,cover=6894.92
						98:leaf=-0.0347605,cover=13387.5
				24:[D_CATEGORY_MEAN_C<948.445] yes=49,no=50,missing=50,gain=357.714,cover=188274
					49:[U_CATEGORY_MAX_EC<3407.99] yes=99,no=100,missing=100,gain=444.022,cover=23326.3
						99:leaf=-0.0020501,cover=16345.2
						100:leaf=-0.0321766,cover=6981.1
					50:[C_D_U_CATEGORY_CATEGORY_MACRO_MEAN_COEC<0.012999] yes=101,no=102,missing=101,gain=289.716,cover=164948
						101:leaf=0.00407137,cover=136611
						102:leaf=-0.0070391,cover=28337.2
			12:[D_TITLEMD5_COEC<0.157999] yes=25,no=26,missing=26,gain=573.73,cover=269557
				25:[WORD_COUNT<1990] yes=51,no=52,missing=52,gain=408.097,cover=205771
					51:[D_PUBLISHER_EC<3870.18] yes=103,no=104,missing=104,gain=357.225,cover=52355.1
						103:leaf=-0.00202395,cover=11172.4
						104:leaf=0.0181372,cover=41182.6
					52:[U_CITY_COEC<0.024999] yes=105,no=106,missing=106,gain=365.032,cover=153416
						105:leaf=-0.0227444,cover=5080.56
						106:leaf=0.00451282,cover=148335
				26:[D_TITLEMD5_C<3.946] yes=53,no=54,missing=54,gain=297.051,cover=63786
					53:[D_KEYWORD_MEAN_C<35.28] yes=107,no=108,missing=108,gain=211.902,cover=1065.19
						107:leaf=-0.130365,cover=191.143
						108:leaf=-0.0143571,cover=874.051
					54:[D_CATEGORY_MACRO_MAX_COEC<0.045999] yes=109,no=110,missing=110,gain=280.384,cover=62720.8
						109:leaf=0.0268067,cover=22788.2
						110:leaf=0.0129046,cover=39932.6
		6:[D_KEYWORD_MEAN_EC<2194.37] yes=13,no=14,missing=13,gain=766.564,cover=326879
			13:[D_PUBLISHER_C<1.466] yes=27,no=28,missing=28,gain=557.423,cover=245862
				27:[U_CATEGORY_MICRO_MAX_COEC<0.071999] yes=55,no=56,missing=56,gain=137.086,cover=2822.97
					55:[CAT_REL<0.163999] yes=111,no=112,missing=112,gain=163.176,cover=1861.56
						111:leaf=-0.0108662,cover=1747.99
						112:leaf=-0.134067,cover=113.571
					56:[DOC_AGE<23] yes=113,no=114,missing=114,gain=201.56,cover=961.405
						113:leaf=-0.113913,cover=447.801
						114:leaf=-0.0221229,cover=513.605
				28:[U_CATEGORY_MACRO_MAX_COEC<0.008999] yes=57,no=58,missing=58,gain=381.808,cover=243039
					57:[D_TITLEMD5_COEC<0.167999] yes=115,no=116,missing=116,gain=338.946,cover=152603
						115:leaf=0.0114825,cover=130281
						116:leaf=0.0248191,cover=22321.6
					58:[D_CATEGORY_MICRO_MAX_COEC<0.073999] yes=117,no=118,missing=118,gain=343.637,cover=90436.4
						117:leaf=0.0153526,cover=24475.6
						118:leaf=0.00147845,cover=65960.8
			14:[U_CATEGORY_MACRO_MAX_COEC<0.013999] yes=29,no=30,missing=30,gain=218.259,cover=81016.9
				29:[CAT_REL<0.033999] yes=59,no=60,missing=60,gain=197.249,cover=70140.1
					59:[U_CITY_C<6.303] yes=119,no=120,missing=120,gain=158.452,cover=34108.7
						119:leaf=-0.00301214,cover=3339.02
						120:leaf=0.0199226,cover=30769.6
					60:[D_CATEGORY_MAX_EC<107238] yes=121,no=122,missing=122,gain=145.843,cover=36031.5
						121:leaf=0.0284142,cover=36018.3
						122:leaf=-0.292467,cover=13.1777
				30:[D_CATEGORY_MEAN_EC<99266.9] yes=61,no=62,missing=62,gain=190.161,cover=10876.8
					61:[D_CATEGORY_MEAN_EC<6140.64] yes=123,no=124,missing=124,gain=129.422,cover=10845.2
						123:leaf=-0.426641,cover=5.82727
						124:leaf=0.00890088,cover=10839.3
					62:[U_CITY_EC<20623.9] yes=125,no=126,missing=125,gain=107.212,cover=31.5909
						125:leaf=-0.345531,cover=22.5864
						126:leaf=0.0546373,cover=9.00456
booster[45]:
0:[U_CITY_COEC<0.087999] yes=1,no=2,missing=1,gain=3503.55,cover=5.9729e+06
	1:[C_D_U_TITLEMD5_CATEGORY_MAX_C<0.078999] yes=3,no=4,missing=3,gain=3147.27,cover=5.18466e+06
		3:[U_CATEGORY_MACRO_MAX_COEC<0.007999] yes=7,no=8,missing=7,gain=3081.06,cover=3.84632e+06
			7:[CAT_REL<0.040999] yes=15,no=16,missing=16,gain=2853.47,cover=2.62749e+06
				15:[D_KEYWORD_MEAN_C<48.76] yes=31,no=32,missing=32,gain=2940.92,cover=2.08012e+06
					31:[DOC_AGE<111] yes=63,no=64,missing=64,gain=972.158,cover=568339
						63:leaf=-0.00848636,cover=526102
						64:leaf=0.00728211,cover=42236.4
					32:[DOC_AGE<5] yes=65,no=66,missing=66,gain=1646.17,cover=1.51178e+06
						65:leaf=0.009278,cover=212722
						66:leaf=-0.000211867,cover=1.29906e+06
				16:[D_CATEGORY_MACRO_MAX_COEC<0.041999] yes=33,no=34,missing=33,gain=1097.14,cover=547364
					33:[U_CATEGORY_MAX_EC<1744.9] yes=67,no=68,missing=67,gain=507.403,cover=109325
						67:leaf=0.0184458,cover=95876.8
						68:leaf=-0.00229558,cover=13448.6
					34:[D_CATEGORY_MEAN_EC<50992.5] yes=69,no=70,missing=70,gain=890.004,cover=438038
						69:leaf=0.00179551,cover=309771
						70:leaf=0.0117009,cover=128267
			8:[CAT_REL<0.084999] yes=17,no=18,missing=18,gain=1855.2,cover=1.21884e+06
				17:[U_CATEGORY_MICRO_MAX_COEC<0.088999] yes=35,no=36,missing=36,gain=2068.4,cover=925626
					35:[DOC_AGE<127] yes=71,no=72,missing=72,gain=1027.51,cover=828602
						71:leaf=-0.0104608,cover=758245
						72:leaf=0.00217222,cover=70357.5
					36:[U_CATEGORY_MAX_C<66.795] yes=73,no=74,missing=74,gain=577.747,cover=97023.4
						73:leaf=0.0100358,cover=76540.8
						74:leaf=-0.00887288,cover=20482.6
				18:[U_CATEGORY_MACRO_MAX_COEC<0.012999] yes=37,no=38,missing=38,gain=1245.75,cover=293212
					37:[U_CATEGORY_MICRO_MAX_COEC<0.052999] yes=75,no=76,missing=76,gain=1159.53,cover=189223
						75:leaf=-0.0505001,cover=3539.61
						76:leaf=0.00727011,cover=185684
					38:[D_CATEGORY_MICRO_MAX_COEC<0.071999] yes=77,no=78,missing=78,gain=1078.12,cover=103989
						77:leaf=0.00100454,cover=61639.2
						78:leaf=-0.0197193,cover=42349.9
		4:[C_D_U_TITLEMD5_CATEGORY_MICRO_MAX_COEC<0.220999] yes=9,no=10,missing=10,gain=2003.72,cover=1.33834e+06
			9:[U_CATEGORY_MACRO_MAX_COEC<0.020999] yes=19,no=20,missing=20,gain=1645.69,cover=1.25401e+06
				19:[C_D_U_TITLEMD5_CATEGORY_MICRO_MAX_COEC<0.108999] yes=39,no=40,missing=40,gain=1113.19,cover=1.17365e+06
					39:[WORD_COUNT<2575] yes=79,no=80,missing=80,gain=663.028,cover=609737
						79:leaf=-0.00111879,cover=408721
						80:leaf=0.00589588,cover=201016
					40:[C_D_U_CATEGORY_CATEGORY_MACRO_MEAN_COEC<0.006999] yes=81,no=82,missing=82,gain=694.617,cover=563912
						81:leaf=0.0156241,cover=86130.6
						82:leaf=0.00586781,cover=477781
				20:[DOC_AGE<36] yes=41,no=42,missing=42,gain=385.173,cover=80361.5
					41:[D_PUBLISHER_C<229.45] yes=83,no=84,missing=84,gain=488.366,cover=42751.9
						83:leaf=0.00676263,cover=7128.16
						84:leaf=-0.0219107,cover=35623.7
					42:[C_D_U_TITLEMD5_CATEGORY_MAX_C<0.762999] yes=85,no=86,missing=86,gain=272.72,cover=37609.7
						85:leaf=-0.0107008,cover=21313.9
						86:leaf=0.00648339,cover=16295.8
			10:[C_D_U_TITLEMD5_CATEGORY_MICRO_MAX_COEC<0.264999] yes=21,no=22,missing=22,gain=309.686,cover=84324.9
				21:[C_D_U_TITLEMD5_CATEGORY_MACRO_MAX_COEC<0.045999] yes=43,no=44,missing=44,gain=231.345,cover=46827.9
					43:[D_CATEGORY_MICRO_MEAN_COEC<0.046999] yes=87,no=88,missing=88,gain=96.1569,cover=38291.9
						87:leaf=0.0643393,cover=423.929
						88:leaf=0.0164961,cover=37867.9
					44:[C_D_U_TITLEMD5_CATEGORY_MAX_EC<2.909] yes=89,no=90,missing=90,gain=225.848,cover=8536.05
						89:leaf=-0.0172353,cover=4322.56
						90:leaf=0.0152954,cover=4213.49
				22:[D_TITLEMD5_C<8.316] yes=45,no=46,missing=46,gain=277.672,cover=37497
					45:[C_D_U_CATEGORY_CATEGORY_MICRO_MEAN_COEC<0.051999] yes=91,no=92,missing=92,gain=132.547,cover=2433.69
						91:leaf=-0.134988,cover=77.0253
						92:leaf=-0.00250966,cover=2356.67
					46:[D_CATEGORY_MACRO_MEAN_COEC<0.071999] yes=93,no=94,missing=94,gain=137.796,cover=35063.3
						93:leaf=0.0372049,cover=11400
						94:leaf=0.0238185,cover=23663.3
	2:[U_CITY_COEC<0.251999] yes=5,no=6,missing=6,gain=1446.24,cover=788244
		5:[U_CITY_C<13.896] yes=11,no=12,missing=12,gain=876.928,cover=751248
			11:[D_TITLEMD5_COEC<0.062999] yes=23,no=24,missing=24,gain=629.648,cover=254863
				23:[DOC_AGE<97] yes=47,no=48,missing=48,gain=369.709,cover=66034.8
					47:[D_TITLEMD5_EC<5.784] yes=95,no=96,missing=96,gain=257.558,cover=58827.5
						95:leaf=0.0102826,cover=5890.05
						96:leaf=-0.01176,cover=52937.5
					48:[C_D_U_CATEGORY_CATEGORY_MICRO_MEAN_COEC<0.064999] yes=97,no=98,missing=98,gain=185.768,cover=7207.29
						97:leaf=0.0338771,cover=2922.46
						98:leaf=0.00118137,cover=4284.83
				24:[U_CITY_C<0.917999] yes=49,no=50,missing=50,gain=367.748,cover=188828
					49:[U_CATEGORY_MAX_EC<1015.51] yes=99,no=100,missing=99,gain=196.19,cover=7883.47
						99:leaf=-0.00254272,cover=4358.71
						100:leaf=-0.0342697,cover=3524.75
					50:[CAT_REL<0.036999] yes=101,no=102,missing=102,gain=299.823,cover=180945
						101:leaf=0.00279,cover=130188
						102:leaf=0.0118509,cover=50757.2
			12:[U_CATEGORY_MAX_EC<2949.92] yes=25,no=26,missing=26,gain=904.682,cover=496385
				25:[U_GENDER_COEC<0.074999] yes=51,no=52,missing=51,gain=521.25,cover=412819
					51:[U_CATEGORY_MACRO_MAX_COEC<0.005999] yes=103,no=104,missing=104,gain=506.267,cover=401992
						103:leaf=0.0151502,cover=130274
						104:leaf=0.00756769,cover=271718
					52:[U_GENDER_EC<33242.1] yes=105,no=106,missing=106,gain=310.281,cover=10827.6
						105:leaf=-0.0450217,cover=494.948
						106:leaf=0.0359647,cover=10332.6
				26:[C_D_U_TITLEMD5_CITY_COEC<0.203999] yes=53,no=54,missing=53,gain=541.441,cover=83565.5
					53:[U_CATEGORY_MICRO_MAX_COEC<0.079999] yes=107,no=108,missing=107,gain=656.605,cover=75187.9
						107:leaf=-0.00292625,cover=74918.1
						108:leaf=-0.158912,cover=269.833
					54:[C_D_U_CATEGORY_CATEGORY_MAX_EC<10.656] yes=109,no=110,missing=110,gain=199.306,cover=8377.55
						109:leaf=-0.201625,cover=38.2184
						110:leaf=0.0243666,cover=8339.33
		6:[U_CATEGORY_MACRO_MAX_COEC<0.003999] yes=13,no=14,missing=14,gain=587.012,cover=36996
			13:[U_CITY_C<60.976] yes=27,no=28,missing=28,gain=83.501,cover=1396.01
				27:[TIME_OF_DAY<22] yes=55,no=56,missing=56,gain=76.885,cover=250.586
					55:[C_D_U_TITLEMD5_CATEGORY_MAX_EC<0.022999] yes=111,no=112,missing=112,gain=23.826,cover=228.855
						111:leaf=-0.0656369,cover=14.5689
						112:leaf=0.0632674,cover=214.286
					56:[D_TITLEMD5_COEC<0.062999] yes=113,no=114,missing=114,gain=71.4342,cover=21.7312
						113:leaf=-0.0282506,cover=16.5667
						114:leaf=-0.428939,cover=5.16448
				28:[C_D_U_TITLEMD5_CITY_C<0.989999] yes=57,no=58,missing=57,gain=35.3078,cover=1145.42
					57:[U_CATEGORY_MAX_EC<201.63] yes=115,no=116,missing=116,gain=7.32131,cover=1139.96
						115:leaf=0.104286,cover=1102.29
						116:leaf=0.0569387,cover=37.6764
					58:leaf=-0.135018,cover=5.46281
			14:[U_CITY_C<1.687] yes=29,no=30,missing=30,gain=403.939,cover=35600
				29:[D_KEYWORD_MICRO_MAX_COEC<0.143999] yes=59,no=60,missing=60,gain=156.457,cover=5521.23
					59:[U_CATEGORY_MICRO_MAX_COEC<0.061999] yes=117,no=118,missing=117,gain=182.365,cover=4700.76
						117:leaf=-0.0321377,cover=1868.97
						118:leaf=0.00809973,cover=2831.79
					60:[D_PUBLISHER_EC<55661.9] yes=119,no=120,missing=120,gain=83.4886,cover=820.471
						119:leaf=0.0461057,cover=786.158
						120:leaf=-0.111211,cover=34.3135
				30:[CAT_REL<0.376999] yes=61,no=62,missing=62,gain=201.685,cover=30078.8
					61:[U_CITY_C<223.896] yes=121,no=122,missing=122,gain=180.411,cover=29976
						121:leaf=0.0303194,cover=29182.6
						122:leaf=-0.0179915,cover=793.397
					62:[U_CATEGORY_MICRO_MAX_COEC<0.063999] yes=123,no=124,missing=124,gain=200.602,cover=102.782
						123:leaf=-0.223501,cover=61.5995
						124:leaf=0.0594859,cover=41.1829
booster[46]:
0:[D_PUBLISHER_COEC<0.064999] yes=1,no=2,missing=1,gain=3404.81,cover=5.97031e+06
	1:[D_PUBLISHER_COEC<0.032999] yes=3,no=4,missing=3,gain=1657.36,cover=2.29849e+06
		3:[D_PUBLISHER_EC<559.546] yes=7,no=8,missing=7,gain=1520.19,cover=305694
			7:[C_D_U_CATEGORY_CATEGORY_MICRO_MEAN_COEC<0.031999] yes=15,no=16,missing=16,gain=608.598,cover=194224
				15:[U_CATEGORY_MACRO_MAX_COEC<0.007999] yes=31,no=32,missing=32,gain=396.519,cover=7656.27
					31:[D_KEYWORD_MACRO_MAX_COEC<0.067999] yes=63,no=64,missing=64,gain=294.669,cover=4697.3
						63:leaf=-0.0159352,cover=4639.79
						64:leaf=0.209902,cover=57.5074
					32:[U_CITY_COEC<0.080999] yes=65,no=66,missing=66,gain=324.938,cover=2958.97
						65:leaf=-0.0312057,cover=1694.52
						66:leaf=-0.098207,cover=1264.45
				16:[D_KEYWORD_MEAN_EC<515.297] yes=33,no=34,missing=33,gain=697.722,cover=186568
					33:[D_CATEGORY_MEAN_C<7280.44] yes=67,no=68,missing=68,gain=311.405,cover=63223.3
						67:leaf=0.00504247,cover=61786.7
						68:leaf=0.0521242,cover=1436.52
					34:[TIME_OF_DAY<3] yes=69,no=70,missing=70,gain=427.824,cover=123344
						69:leaf=-0.0196237,cover=21502.4
						70:leaf=-0.00410059,cover=101842
			8:[D_TITLEMD5_C<3.937] yes=17,no=18,missing=18,gain=1443.11,cover=111470
				17:[U_CATEGORY_MACRO_MAX_COEC<0.003999] yes=35,no=36,missing=35,gain=905.226,cover=58045.7
					35:[DAY_OF_WEEK<3] yes=71,no=72,missing=72,gain=344.969,cover=6410.29
						71:leaf=-0.0183865,cover=3004.01
						72:leaf=0.0280942,cover=3406.28
					36:[D_PUBLISHER_C<771.659] yes=73,no=74,missing=74,gain=697.796,cover=51635.5
						73:leaf=-0.029343,cover=45711.5
						74:leaf=-0.0658203,cover=5923.93
				18:[D_TITLEMD5_COEC<0.130999] yes=37,no=38,missing=37,gain=452.32,cover=53424.4
					37:[D_KEYWORD_MACRO_MAX_COEC<0.004999] yes=75,no=76,missing=75,gain=292.226,cover=52184.8
						75:leaf=-0.0644868,cover=891.964
						76:leaf=-0.00678428,cover=51292.8
					38:[C_D_U_TITLEMD5_CITY_EC<1.445] yes=77,no=78,missing=77,gain=93.6734,cover=1239.58
						77:leaf=0.0554624,cover=1232.83
						78:leaf=-0.293703,cover=6.75514
		4:[D_PUBLISHER_EC<559.546] yes=9,no=10,missing=10,gain=1690.24,cover=1.9928e+06
			9:[C_D_U_TITLEMD5_CATEGORY_MICRO_MAX_COEC<0.078999] yes=19,no=20,missing=20,gain=906.965,cover=353682
				19:[C_D_U_TITLEMD5_CATEGORY_MAX_EC<0.031999] yes=39,no=40,missing=40,gain=572.864,cover=187883
					39:[U_CITY_COEC<0.071999] yes=79,no=80,missing=80,gain=397.38,cover=91804.2
						79:leaf=-0.00294134,cover=41012.2
						80:leaf=0.0102922,cover=50792
					40:[CAT_REL<0.119999] yes=81,no=82,missing=82,gain=208.942,cover=96079.2
						81:leaf=0.01331,cover=79667.2
						82:leaf=0.0257013,cover=16412
				20:[TIME_OF_DAY<4] yes=41,no=42,missing=42,gain=445.392,cover=165798
					41:[U_CATEGORY_MAX_C<280.253] yes=83,no=84,missing=83,gain=346.845,cover=34083.1
						83:leaf=-0.0122801,cover=32827.9
						84:leaf=0.0412622,cover=1255.21
					42:[C_D_U_TITLEMD5_CATEGORY_MAX_EC<0.135999] yes=85,no=86,missing=86,gain=488.704,cover=131715
						85:leaf=-0.00769349,cover=34565.6
						86:leaf=0.00615153,cover=97149.6
			10:[U_CATEGORY_MACRO_MAX_COEC<0.005999] yes=21,no=22,missing=22,gain=1477.7,cover=1.63911e+06
				21:[CAT_REL<0.014999] yes=43,no=44,missing=44,gain=1210.81,cover=474174
					43:[D_KEYWORD_MEAN_C<46.43] yes=87,no=88,missing=87,gain=1073.67,cover=217073
						87:leaf=-0.0139003,cover=65001.6
						88:leaf=0.0014547,cover=152072
					44:[U_CATEGORY_MAX_EC<2014.54] yes=89,no=90,missing=90,gain=849.864,cover=257101
						89:leaf=0.00852015,cover=240288
						90:leaf=-0.0147355,cover=16812.9
				22:[D_PUBLISHER_EC<62204.9] yes=45,no=46,missing=46,gain=2054.16,cover=1.16494e+06
					45:[CAT_REL<0.063999] yes=91,no=92,missing=92,gain=1538.9,cover=1.08307e+06
						91:leaf=-0.00544234,cover=783432
						92:leaf=0.00298391,cover=299637
					46:[U_CATEGORY_MAX_EC<3434.2] yes=93,no=94,missing=93,gain=1212.66,cover=81872.2
						93:leaf=-0.0146313,cover=70424.1
						94:leaf=-0.0497227,cover=11448.1
	2:[D_TITLEMD5_COEC<0.178999] yes=5,no=6,missing=6,gain=2490.91,cover=3.67182e+06
		5:[U_CATEGORY_MICRO_MAX_COEC<0.077999] yes=11,no=12,missing=11,gain=2237.79,cover=3.49945e+06
			11:[U_CATEGORY_MACRO_MAX_COEC<0.004999] yes=23,no=24,missing=24,gain=1852.08,cover=2.87386e+06
				23:[D_KEYWORD_MEAN_C<108.343] yes=47,no=48,missing=48,gain=467.214,cover=284422
					47:[TIME_OF_DAY<21] yes=95,no=96,missing=96,gain=598.822,cover=176596
						95:leaf=0.00809523,cover=149082
						96:leaf=-0.00796101,cover=27514
					48:[CAT_REL<0.022999] yes=97,no=98,missing=98,gain=280.138,cover=107827
						97:leaf=0.0109914,cover=80691.6
						98:leaf=0.0227371,cover=27135.1
				24:[CAT_REL<0.048999] yes=49,no=50,missing=50,gain=1719.36,cover=2.58944e+06
					49:[C_D_U_TITLEMD5_CATEGORY_MAX_C<0.135999] yes=99,no=100,missing=100,gain=1774.77,cover=2.05754e+06
						99:leaf=-0.00386155,cover=1.07387e+06
						100:leaf=0.00201801,cover=983673
					50:[D_CATEGORY_MEAN_C<7280.44] yes=101,no=102,missing=102,gain=1569.66,cover=531900
						101:leaf=0.00695246,cover=488219
						102:leaf=-0.0128335,cover=43681.3
			12:[U_CATEGORY_MAX_EC<596.244] yes=25,no=26,missing=26,gain=841.889,cover=625591
				25:[U_GENDER_COEC<0.080999] yes=51,no=52,missing=52,gain=618.479,cover=322336
					51:[U_CITY_C<9.839] yes=103,no=104,missing=103,gain=173.852,cover=6055
						103:leaf=-0.0494861,cover=1533.18
						104:leaf=-0.0105254,cover=4521.82
					52:[TIME_OF_DAY<18] yes=105,no=106,missing=106,gain=516.87,cover=316281
						105:leaf=0.0146759,cover=213199
						106:leaf=0.00605115,cover=103082
				26:[C_D_U_TITLEMD5_CATEGORY_MAX_C<0.148999] yes=53,no=54,missing=53,gain=829.706,cover=303255
					53:[WORD_COUNT<789] yes=107,no=108,missing=108,gain=391.15,cover=200472
						107:leaf=-0.0145825,cover=16486.4
						108:leaf=0.00149549,cover=183986
					54:[C_D_U_CATEGORY_CATEGORY_MACRO_MEAN_COEC<0.030999] yes=109,no=110,missing=110,gain=383.966,cover=102783
						109:leaf=0.0129062,cover=95542.2
						110:leaf=-0.0109772,cover=7240.77
		6:[D_PUBLISHER_C<12.977] yes=13,no=14,missing=14,gain=1009.55,cover=172365
			13:[C_D_U_CATEGORY_CATEGORY_MEAN_C<0.414999] yes=27,no=28,missing=28,gain=455.717,cover=16355.1
				27:[U_CATEGORY_MAX_EC<765.299] yes=55,no=56,missing=56,gain=244.977,cover=3507.51
					55:[D_CATEGORY_MACRO_MAX_COEC<0.036999] yes=111,no=112,missing=112,gain=239.418,cover=2850.75
						111:leaf=0.0118369,cover=977.34
						112:leaf=-0.0492019,cover=1873.41
					56:[DAY_OF_WEEK<2] yes=113,no=114,missing=114,gain=175.56,cover=656.762
						113:leaf=-0.193956,cover=142.453
						114:leaf=-0.0685484,cover=514.309
				28:[D_TITLEMD5_C<1.363] yes=57,no=58,missing=58,gain=267.994,cover=12847.5
					57:[U_CATEGORY_MAX_C<250.584] yes=115,no=116,missing=115,gain=319.849,cover=3221.84
						115:leaf=-0.01937,cover=3113.56
						116:leaf=-0.193441,cover=108.284
					58:[U_CITY_EC<17.556] yes=117,no=118,missing=117,gain=127.85,cover=9625.71
						117:leaf=0.0285044,cover=2316.29
						118:leaf=0.00154809,cover=7309.41
			14:[D_TITLEMD5_COEC<0.211999] yes=29,no=30,missing=29,gain=644.728,cover=156010
				29:[C_D_U_TITLEMD5_CATEGORY_MACRO_MAX_COEC<0.010999] yes=59,no=60,missing=60,gain=343.681,cover=98052.8
					59:[D_TITLEMD5_EC<28.142] yes=119,no=120,missing=119,gain=87.3863,cover=13512.8
						119:leaf=0.00816717,cover=2096.46
						120:leaf=0.0303838,cover=11416.3
					60:[C_D_U_CATEGORY_CATEGORY_MICRO_MEAN_COEC<0.098999] yes=121,no=122,missing=121,gain=327.068,cover=84540
						121:leaf=0.00688515,cover=69637.6
						122:leaf=0.0232079,cover=14902.4
				30:[D_TITLEMD5_C<3.276] yes=61,no=62,missing=62,gain=327.339,cover=57957.5
					61:[D_CATEGORY_MACRO_MAX_COEC<0.033999] yes=123,no=124,missing=124,gain=230.187,cover=13246.8
						123:leaf=0.0395117,cover=2418.57
						124:leaf=0.00539447,cover=10828.3
					62:[C_D_U_TITLEMD5_CATEGORY_MACRO_MAX_COEC<0.005999] yes=125,no=126,missing=126,gain=203.197,cover=44710.7
						125:leaf=0.0469558,cover=5818.25
						126:leaf=0.0269159,cover=38892.4
booster[47]:
0:[U_CITY_COEC<0.143999] yes=1,no=2,missing=1,gain=2935.53,cover=5.96322e+06
	1:[U_CATEGORY_MICRO_MAX_COEC<0.083999] yes=3,no=4,missing=3,gain=2701.27,cover=5.78374e+06
		3:[U_CATEGORY_MACRO_MAX_COEC<0.004999] yes=7,no=8,missing=8,gain=2694.46,cover=5.28881e+06
			7:[D_TITLEMD5_C<13.578] yes=15,no=16,missing=15,gain=920.768,cover=563038
				15:[TIME_OF_DAY<23] yes=31,no=32,missing=32,gain=699.198,cover=231236
					31:[DAY_OF_WEEK<6] yes=63,no=64,missing=64,gain=711.019,cover=218363
						63:leaf=0.000709281,cover=190304
						64:leaf=0.0177609,cover=28058.7
					32:[U_CATEGORY_MAX_EC<74.977] yes=65,no=66,missing=66,gain=343.773,cover=12873.4
						65:leaf=-0.101119,cover=514.207
						66:leaf=-0.0177431,cover=12359.2
				16:[CAT_REL<0.006999] yes=33,no=34,missing=34,gain=621.648,cover=331802
					33:[U_CATEGORY_MICRO_MAX_COEC<0.055999] yes=67,no=68,missing=68,gain=362.299,cover=164505
						67:leaf=-0.0047169,cover=29033.2
						68:leaf=0.00759277,cover=135472
					34:[U_CATEGORY_MAX_EC<2145.23] yes=69,no=70,missing=70,gain=375.804,cover=167296
						69:leaf=0.0152587,cover=157514
						70:leaf=-0.00494021,cover=9782.66
			8:[CAT_REL<0.086999] yes=17,no=18,missing=18,gain=2688.25,cover=4.72578e+06
				17:[C_D_U_TITLEMD5_CITY_COEC<7.169] yes=35,no=36,missing=36,gain=3004.78,cover=4.11743e+06
					35:[U_CATEGORY_MACRO_MAX_COEC<0.007999] yes=71,no=72,missing=71,gain=1320.2,cover=1.5454e+06
						71:leaf=0.00394377,cover=959368
						72:leaf=-0.00208027,cover=586027
					36:[D_TITLEMD5_COEC<0.158999] yes=73,no=74,missing=73,gain=1706.47,cover=2.57203e+06
						73:leaf=-0.00457661,cover=2.41495e+06
						74:leaf=0.00617966,cover=157087
				18:[D_CATEGORY_MICRO_MEAN_COEC<0.072999] yes=37,no=38,missing=37,gain=2072.55,cover=608346
					37:[WORD_COUNT<2315] yes=75,no=76,missing=76,gain=1032.38,cover=425885
						75:leaf=0.0043056,cover=217871
						76:leaf=0.0141552,cover=208014
					38:[D_CATEGORY_MEAN_EC<29922.8] yes=77,no=78,missing=78,gain=1036.92,cover=182461
						77:leaf=0.0100203,cover=42683.8
						78:leaf=-0.00778717,cover=139777
		4:[U_CATEGORY_MAX_EC<677.86] yes=9,no=10,missing=10,gain=1027.99,cover=494924
			9:[U_CITY_C<59.506] yes=19,no=20,missing=20,gain=943.759,cover=355641
				19:[C_D_U_TITLEMD5_CATEGORY_MAX_EC<0.041999] yes=39,no=40,missing=39,gain=705.555,cover=108877
					39:[U_AGE_C<154.275] yes=79,no=80,missing=80,gain=395.379,cover=40863.3
						79:leaf=0.117789,cover=248.575
						80:leaf=-0.00846358,cover=40614.7
					40:[U_AGE_EC<174841] yes=81,no=82,missing=81,gain=334.837,cover=68013.9
						81:leaf=0.0100337,cover=66379.1
						82:leaf=-0.0357637,cover=1634.81
				20:[C_D_U_PUBLISHER_AGE_C<41.209] yes=41,no=42,missing=42,gain=611.688,cover=246764
					41:[DAY_OF_WEEK<3] yes=83,no=84,missing=84,gain=251.469,cover=13259.4
						83:leaf=-0.0211946,cover=6439.26
						84:leaf=0.00635797,cover=6820.09
					42:[TIME_OF_DAY<16] yes=85,no=86,missing=86,gain=425.456,cover=233505
						85:leaf=0.019022,cover=125327
						86:leaf=0.0104616,cover=108178
			10:[C_D_U_TITLEMD5_CATEGORY_MAX_EC<0.115999] yes=21,no=22,missing=21,gain=683.096,cover=139283
				21:[U_CITY_EC<47503.1] yes=43,no=44,missing=43,gain=829.017,cover=39554.4
					43:[TIME_OF_DAY<0.999999] yes=87,no=88,missing=88,gain=470.352,cover=37434.2
						87:leaf=-0.0608798,cover=2044.27
						88:leaf=-0.0115572,cover=35389.9
					44:[DAY_OF_WEEK<3] yes=89,no=90,missing=90,gain=511.851,cover=2120.15
						89:leaf=0.0905812,cover=1260.05
						90:leaf=-0.00945835,cover=860.109
				22:[C_D_U_CATEGORY_CATEGORY_MACRO_MAX_COEC<0.032999] yes=45,no=46,missing=46,gain=404.499,cover=99728.6
					45:[D_TITLEMD5_EC<194.15] yes=91,no=92,missing=92,gain=260.881,cover=97687.4
						91:leaf=0.0225546,cover=8343.11
						92:leaf=0.00406525,cover=89344.3
					46:[U_CITY_EC<11231.4] yes=93,no=94,missing=93,gain=243.298,cover=2041.14
						93:leaf=-0.0266947,cover=1801.59
						94:leaf=-0.133797,cover=239.557
	2:[U_CITY_C<6.376] yes=5,no=6,missing=6,gain=576.199,cover=179483
		5:[U_CITY_C<0.976999] yes=11,no=12,missing=12,gain=269.477,cover=59601.9
			11:[U_CATEGORY_MACRO_MAX_COEC<0.036999] yes=23,no=24,missing=23,gain=197.606,cover=7312.71
				23:[C_D_U_TITLEMD5_CITY_C<0.445999] yes=47,no=48,missing=48,gain=152.181,cover=7174.25
					47:[D_CATEGORY_MACRO_MEAN_COEC<0.088999] yes=95,no=96,missing=96,gain=32.3998,cover=123.438
						95:leaf=0.107818,cover=116.122
						96:leaf=-0.0992444,cover=7.31634
					48:[D_PUBLISHER_COEC<0.119999] yes=97,no=98,missing=97,gain=141.343,cover=7050.81
						97:leaf=-0.021819,cover=6241.44
						98:leaf=0.022577,cover=809.364
				24:[C_D_U_CATEGORY_CATEGORY_MAX_EC<105.077] yes=49,no=50,missing=50,gain=98.2996,cover=138.466
					49:leaf=-0.237523,cover=7.00605
					50:[U_CATEGORY_MICRO_MAX_COEC<0.060999] yes=99,no=100,missing=100,gain=32.5866,cover=131.46
						99:leaf=-0.00782648,cover=16.0383
						100:leaf=0.143744,cover=115.421
			12:[C_D_U_TITLEMD5_CATEGORY_MAX_EC<0.270999] yes=25,no=26,missing=26,gain=228.658,cover=52289.2
				25:[CAT_REL<0.013999] yes=51,no=52,missing=52,gain=149.174,cover=16591.3
					51:[D_KEYWORD_MICRO_MAX_COEC<0.072999] yes=101,no=102,missing=101,gain=115.221,cover=6410.52
						101:leaf=-0.0939075,cover=173.054
						102:leaf=-0.011411,cover=6237.47
					52:[C_D_U_CATEGORY_GENDER_MEAN_C<21.458] yes=103,no=104,missing=103,gain=113.906,cover=10180.7
						103:leaf=0.00778613,cover=9841.47
						104:leaf=-0.0510634,cover=339.278
				26:[D_KEYWORD_MACRO_MEAN_COEC<0.033999] yes=53,no=54,missing=54,gain=246.619,cover=35697.9
					53:[D_CATEGORY_MAX_EC<3073] yes=105,no=106,missing=106,gain=103.721,cover=153.734
						105:leaf=0.062144,cover=27.1289
						106:leaf=-0.151296,cover=126.605
					54:[C_D_U_TITLEMD5_CITY_C<0.485999] yes=107,no=108,missing=107,gain=179.239,cover=35544.2
						107:leaf=0.0134524,cover=35432.4
						108:leaf=-0.112798,cover=111.821
		6:[U_CITY_COEC<0.251999] yes=13,no=14,missing=14,gain=760.917,cover=119882
			13:[U_CATEGORY_MAX_C<74.32] yes=27,no=28,missing=28,gain=309.75,cover=100663
				27:[U_CITY_C<22.178] yes=55,no=56,missing=56,gain=221.704,cover=60840.6
					55:[U_CATEGORY_MACRO_MAX_COEC<0.016999] yes=109,no=110,missing=110,gain=169.039,cover=30940.4
						109:leaf=0.0128383,cover=30904.6
						110:leaf=-0.201669,cover=35.7841
					56:[U_CATEGORY_MICRO_MAX_COEC<0.054999] yes=111,no=112,missing=112,gain=212.711,cover=29900.2
						111:leaf=-0.0738818,cover=216.528
						112:leaf=0.0253806,cover=29683.6
				28:[C_D_U_CATEGORY_GENDER_MAX_EC<1600.11] yes=57,no=58,missing=57,gain=262.834,cover=39822.8
					57:[U_CITY_C<100.283] yes=113,no=114,missing=114,gain=195.205,cover=39802.3
						113:leaf=0.00788827,cover=39580
						114:leaf=-0.0858607,cover=222.365
					58:[C_D_U_TITLEMD5_CATEGORY_MICRO_MAX_COEC<0.295999] yes=115,no=116,missing=116,gain=50.7962,cover=20.4331
						115:leaf=-0.442972,cover=14.1465
						116:leaf=-0.0878861,cover=6.28656
			14:[U_CATEGORY_MACRO_MAX_COEC<0.003999] yes=29,no=30,missing=30,gain=411.481,cover=19218.2
				29:[U_CITY_C<22.178] yes=59,no=60,missing=60,gain=48.2935,cover=1142.01
					59:[D_CATEGORY_MEAN_C<2402.92] yes=117,no=118,missing=118,gain=35.7508,cover=80.201
						117:leaf=0.065788,cover=53.4015
						118:leaf=-0.0736789,cover=26.7995
					60:[C_D_U_PUBLISHER_AGE_EC<4.312] yes=119,no=120,missing=119,gain=10.8211,cover=1061.81
						119:leaf=0.100402,cover=1055
						120:leaf=-0.023051,cover=6.80759
				30:[U_CATEGORY_MICRO_MAX_COEC<0.056999] yes=61,no=62,missing=62,gain=154.754,cover=18076.2
					61:[DAY_OF_WEEK<4] yes=121,no=122,missing=122,gain=288.752,cover=524.966
						121:leaf=0.0261059,cover=372.428
						122:leaf=-0.136815,cover=152.538
					62:[DAY_OF_WEEK<0.999999] yes=123,no=124,missing=124,gain=107.423,cover=17551.2
						123:leaf=0.0480022,cover=4028.08
						124:leaf=0.02939,cover=13523.2
booster[48]:
0:[U_CITY_COEC<0.069999] yes=1,no=2,missing=2,gain=2793.09,cover=5.95482e+06
	1:[C_D_U_TITLEMD5_CITY_C<64.469] yes=3,no=4,missing=4,gain=1814.7,cover=2.30024e+06
		3:[TIME_OF_DAY<16] yes=7,no=8,missing=8,gain=881.141,cover=953659
			7:[U_CATEGORY_MACRO_MAX_COEC<0.012999] yes=15,no=16,missing=16,gain=710.373,cover=512830
				15:[U_CATEGORY_MICRO_MAX_COEC<0.077999] yes=31,no=32,missing=32,gain=534.309,cover=392594
					31:[C_D_U_TITLEMD5_CATEGORY_MAX_EC<0.473999] yes=63,no=64,missing=63,gain=515.065,cover=323490
						63:leaf=0.000234528,cover=146129
						64:leaf=0.00825248,cover=177361
					32:[U_CATEGORY_MACRO_MAX_COEC<0.004999] yes=65,no=66,missing=66,gain=282.39,cover=69104.2
						65:leaf=0.04541,cover=2801.72
						66:leaf=0.0130029,cover=66302.4
				16:[D_PUBLISHER_EC<3020.31] yes=33,no=34,missing=34,gain=506.948,cover=120235
					33:[U_CITY_COEC<0.043999] yes=67,no=68,missing=68,gain=311.412,cover=23278.7
						67:leaf=-0.0284361,cover=1860.04
						68:leaf=0.0142109,cover=21418.7
					34:[D_TITLEMD5_EC<4657.94] yes=69,no=70,missing=70,gain=519.549,cover=96956.7
						69:leaf=-0.010637,cover=66061.1
						70:leaf=0.00507298,cover=30895.7
			8:[U_CATEGORY_MACRO_MAX_COEC<0.022999] yes=17,no=18,missing=17,gain=380.464,cover=440829
				17:[C_D_U_TITLEMD5_CATEGORY_MAX_EC<0.125999] yes=35,no=36,missing=36,gain=400.332,cover=432222
					35:[CAT_REL<0.040999] yes=71,no=72,missing=72,gain=433.725,cover=68394.1
						71:leaf=-0.0128094,cover=52486.4
						72:leaf=0.00603929,cover=15907.7
					36:[WORD_COUNT<2261] yes=73,no=74,missing=74,gain=221.997,cover=363828
						73:leaf=-0.00212873,cover=216117
						74:leaf=0.00290129,cover=147711
				18:[D_CATEGORY_MAX_C<5026.11] yes=37,no=38,missing=38,gain=249.204,cover=8607.57
					37:[C_D_U_CATEGORY_CATEGORY_MACRO_MEAN_COEC<0.021999] yes=75,no=76,missing=76,gain=272.405,cover=6781.82
						75:leaf=-0.0620507,cover=997.087
						76:leaf=-0.00547929,cover=5784.73
					38:[D_KEYWORD_MAX_C<9.085] yes=77,no=78,missing=78,gain=156.55,cover=1825.75
						77:leaf=0.0559867,cover=117.265
						78:leaf=-0.0630963,cover=1708.48
		4:[U_CATEGORY_MAX_EC<377.529] yes=9,no=10,missing=9,gain=1508.16,cover=1.34658e+06
			9:[D_KEYWORD_MEAN_C<143.661] yes=19,no=20,missing=19,gain=573.471,cover=303186
				19:[U_AGE_COEC<0.082999] yes=39,no=40,missing=39,gain=443.07,cover=234732
					39:[U_CITY_C<504.505] yes=79,no=80,missing=80,gain=410.911,cover=234399
						79:leaf=0.000806144,cover=212215
						80:leaf=-0.0134971,cover=22184.1
					40:[U_CATEGORY_MAX_C<13.719] yes=81,no=82,missing=82,gain=47.1434,cover=332.147
						81:leaf=0.136852,cover=247.609
						82:leaf=0.0495919,cover=84.5384
				20:[D_KEYWORD_MAX_C<47.454] yes=41,no=42,missing=42,gain=251.547,cover=68454
					41:[C_D_U_CATEGORY_AGE_MAX_C<103.562] yes=83,no=84,missing=84,gain=188.43,cover=7834.55
						83:leaf=-0.293505,cover=17.3217
						84:leaf=0.0276267,cover=7817.23
					42:[D_KEYWORD_MEAN_C<254.29] yes=85,no=86,missing=86,gain=306.65,cover=60619.5
						85:leaf=0.00117456,cover=32280.2
						86:leaf=0.0154294,cover=28339.3
			10:[CAT_REL<0.079999] yes=21,no=22,missing=22,gain=1304.6,cover=1.04339e+06
				21:[DOC_AGE<7] yes=43,no=44,missing=44,gain=1023.79,cover=840171
					43:[D_CATEGORY_MEAN_C<5994.23] yes=87,no=88,missing=87,gain=577.888,cover=199755
						87:leaf=-0.00385128,cover=168534
						88:leaf=0.0109601,cover=31221.2
					44:[DOC_AGE<49] yes=89,no=90,missing=90,gain=1010.05,cover=640416
						89:leaf=-0.0127448,cover=406892
						90:leaf=-0.00449394,cover=233523
				22:[D_CATEGORY_MACRO_MAX_COEC<0.071999] yes=45,no=46,missing=46,gain=764.244,cover=203223
					45:[D_PUBLISHER_C<3968.78] yes=91,no=92,missing=91,gain=491.738,cover=162262
						91:leaf=0.00537052,cover=155509
						92:leaf=-0.0221919,cover=6753.09
					46:[CAT_REL<0.403999] yes=93,no=94,missing=94,gain=426.704,cover=40960.8
						93:leaf=-0.00966793,cover=40210.7
						94:leaf=-0.0857428,cover=750.092
	2:[U_CATEGORY_MICRO_MAX_COEC<0.062999] yes=5,no=6,missing=5,gain=2158.45,cover=3.65458e+06
		5:[U_CATEGORY_MAX_EC<5293.88] yes=11,no=12,missing=11,gain=1434.97,cover=1.31761e+06
			11:[D_PUBLISHER_EC<3020.31] yes=23,no=24,missing=23,gain=1105.65,cover=1.23752e+06
				23:[C_D_U_CATEGORY_CATEGORY_MEAN_C<4.441] yes=47,no=48,missing=47,gain=724.476,cover=363289
					47:[C_D_U_CATEGORY_CATEGORY_MICRO_MAX_COEC<0.038999] yes=95,no=96,missing=96,gain=552.558,cover=303568
						95:leaf=-0.0148857,cover=16644.7
						96:leaf=0.00385494,cover=286924
					48:[D_KEYWORD_MEAN_C<24.384] yes=97,no=98,missing=98,gain=453.619,cover=59720.3
						97:leaf=0.0321417,cover=12126.4
						98:leaf=0.0104766,cover=47594
				24:[DOC_AGE<44] yes=49,no=50,missing=50,gain=1285.95,cover=874227
					49:[D_TITLEMD5_EC<6420.2] yes=99,no=100,missing=100,gain=663.893,cover=534745
						99:leaf=-0.00592828,cover=485925
						100:leaf=0.00630477,cover=48820.2
					50:[D_PUBLISHER_COEC<0.047999] yes=101,no=102,missing=102,gain=473.73,cover=339482
						101:leaf=-0.0110767,cover=22162.5
						102:leaf=0.00404521,cover=317319
			12:[C_D_U_TITLEMD5_CATEGORY_MAX_C<0.524999] yes=25,no=26,missing=25,gain=506.912,cover=80097.1
				25:[D_PUBLISHER_EC<37630.3] yes=51,no=52,missing=52,gain=599.055,cover=48949.1
					51:[C_D_U_CATEGORY_AGE_MICRO_MEAN_COEC<0.063999] yes=103,no=104,missing=104,gain=423.217,cover=39746.7
						103:leaf=-0.202935,cover=118.043
						104:leaf=-0.0140961,cover=39628.6
					52:[C_D_U_CATEGORY_CATEGORY_MAX_EC<454.356] yes=105,no=106,missing=106,gain=363.048,cover=9202.38
						105:leaf=-0.0516203,cover=7736.62
						106:leaf=0.00265566,cover=1465.75
				26:[D_CATEGORY_MACRO_MEAN_COEC<0.073999] yes=53,no=54,missing=54,gain=224.567,cover=31148
					53:[WORD_COUNT<6033] yes=107,no=108,missing=108,gain=204.062,cover=13752.2
						107:leaf=0.00800852,cover=13346.5
						108:leaf=-0.0638938,cover=405.743
					54:[D_KEYWORD_MACRO_MAX_COEC<0.007999] yes=109,no=110,missing=110,gain=210.075,cover=17395.8
						109:leaf=-0.228903,cover=43.2211
						110:leaf=-0.0106608,cover=17352.6
		6:[U_CATEGORY_MACRO_MAX_COEC<0.004999] yes=13,no=14,missing=14,gain=2006.89,cover=2.33697e+06
			13:[U_CATEGORY_MACRO_MAX_COEC<0.003999] yes=27,no=28,missing=28,gain=839.885,cover=199317
				27:[U_CITY_C<324.2] yes=55,no=56,missing=55,gain=923.569,cover=33429.6
					55:[C_D_U_PUBLISHER_AGE_C<2.604] yes=111,no=112,missing=112,gain=608.731,cover=19807.9
						111:leaf=-0.14046,cover=248.786
						112:leaf=0.0166456,cover=19559.2
					56:[U_CATEGORY_MAX_EC<436.985] yes=113,no=114,missing=114,gain=343.931,cover=13621.6
						113:leaf=0.0277676,cover=5045.3
						114:leaf=0.0606806,cover=8576.32
				28:[U_CITY_EC<40339.1] yes=57,no=58,missing=57,gain=675.82,cover=165887
					57:[U_GENDER_C<3147.67] yes=115,no=116,missing=116,gain=564.754,cover=162426
						115:leaf=-0.0381006,cover=2217.6
						116:leaf=0.0127015,cover=160208
					58:[C_D_U_TITLEMD5_CATEGORY_MAX_EC<0.272999] yes=117,no=118,missing=117,gain=446.527,cover=3461.39
						117:leaf=-0.0564052,cover=2407.05
						118:leaf=0.0216134,cover=1054.34
			14:[C_D_U_TITLEMD5_CATEGORY_MAX_C<0.072999] yes=29,no=30,missing=29,gain=1679.11,cover=2.13765e+06
				29:[C_D_U_CATEGORY_AGE_MICRO_MAX_COEC<0.094999] yes=59,no=60,missing=60,gain=1419.95,cover=1.51937e+06
					59:[U_GENDER_COEC<0.070999] yes=119,no=120,missing=120,gain=622.734,cover=119315
						119:leaf=-0.00546286,cover=17129.1
						120:leaf=0.0151401,cover=102186
					60:[U_CATEGORY_MICRO_MAX_COEC<0.081999] yes=121,no=122,missing=122,gain=1381.39,cover=1.40005e+06
						121:leaf=-0.000762095,cover=1.11734e+06
						122:leaf=0.00706253,cover=282714
				30:[C_D_U_TITLEMD5_CATEGORY_MICRO_MAX_COEC<0.248999] yes=61,no=62,missing=62,gain=917.479,cover=618279
					61:[C_D_U_CATEGORY_CATEGORY_MACRO_MEAN_COEC<0.009999] yes=123,no=124,missing=124,gain=559.603,cover=587318
						123:leaf=0.01051,cover=256727
						124:leaf=0.00428709,cover=330591
					62:[U_CATEGORY_MACRO_MAX_COEC<0.010999] yes=125,no=126,missing=126,gain=196.16,cover=30960.5
						125:leaf=0.0307845,cover=19469.6
						126:leaf=0.0143065,cover=11490.9
booster[49]:
0:[U_CITY_COEC<0.034999] yes=1,no=2,missing=2,gain=2879.57,cover=5.95044e+06
	1:[U_CITY_EC<100.274] yes=3,no=4,missing=4,gain=1204.9,cover=328037
		3:[D_PUBLISHER_C<2890.89] yes=7,no=8,missing=8,gain=369.618,cover=151976
			7:[U_CITY_EC<16.273] yes=15,no=16,missing=16,gain=361.549,cover=118929
				15:[C_D_U_TITLEMD5_CATEGORY_MAX_C<0.015999] yes=31,no=32,missing=32,gain=333.67,cover=53559.1
					31:[D_PUBLISHER_COEC<0.060999] yes=63,no=64,missing=64,gain=191.198,cover=14053.4
						63:leaf=0.00708215,cover=6285.06
						64:leaf=0.0305422,cover=7768.34
					32:[DOC_AGE<27] yes=65,no=66,missing=66,gain=179.738,cover=39505.7
						65:leaf=-0.00596055,cover=16244.9
						66:leaf=0.00774727,cover=23260.7
				16:[U_CITY_COEC<0.015999] yes=33,no=34,missing=34,gain=396.652,cover=65369.6
					33:[C_D_U_TITLEMD5_CITY_EC<0.984999] yes=67,no=68,missing=68,gain=207.862,cover=24138.5
						67:leaf=0.0308115,cover=973.09
						68:leaf=-0.0163462,cover=23165.5
					34:[CAT_REL<0.077999] yes=69,no=70,missing=70,gain=202.419,cover=41231.1
						69:leaf=-0.00150384,cover=34114.4
						70:leaf=0.0170359,cover=7116.72
			8:[C_D_U_CATEGORY_CATEGORY_MEAN_EC<23.704] yes=17,no=18,missing=17,gain=420.488,cover=33047.1
				17:[D_CATEGORY_MACRO_MEAN_COEC<0.063999] yes=35,no=36,missing=35,gain=187.794,cover=19189.5
					35:[CAT_REL<0.008999] yes=71,no=72,missing=72,gain=226.571,cover=2255.3
						71:leaf=-0.0592218,cover=1171.04
						72:leaf=0.00419991,cover=1084.26
					36:[D_KEYWORD_MICRO_MAX_COEC<0.070999] yes=73,no=74,missing=73,gain=232.612,cover=16934.2
						73:leaf=-0.211328,cover=49.975
						74:leaf=0.0026126,cover=16884.3
				18:[C_D_U_TITLEMD5_AGE_COEC<0.076999] yes=37,no=38,missing=38,gain=275.938,cover=13857.5
					37:[C_D_U_TITLEMD5_CATEGORY_MAX_EC<0.007999] yes=75,no=76,missing=76,gain=88.407,cover=86.6865
						75:leaf=0.130213,cover=6.77552
						76:leaf=-0.230726,cover=79.911
					38:[D_TITLEMD5_EC<2192.12] yes=77,no=78,missing=77,gain=220.871,cover=13770.8
						77:leaf=-0.0365736,cover=6599.77
						78:leaf=-0.0112214,cover=7171.08
		4:[U_CITY_COEC<0.015999] yes=9,no=10,missing=10,gain=1641.36,cover=176061
			9:[DAY_OF_WEEK<4] yes=19,no=20,missing=20,gain=357.526,cover=26886.5
				19:[U_GENDER_EC<45066.5] yes=39,no=40,missing=40,gain=276.062,cover=13698.4
					39:[C_D_U_CATEGORY_AGE_MACRO_MAX_COEC<0.077999] yes=79,no=80,missing=79,gain=112.559,cover=160.726
						79:leaf=0.10137,cover=152.861
						80:leaf=-0.26617,cover=7.86458
					40:[C_D_U_CATEGORY_CATEGORY_MAX_EC<13.022] yes=81,no=82,missing=81,gain=233.51,cover=13537.6
						81:leaf=-0.0378373,cover=7498.46
						82:leaf=-0.0642702,cover=6039.17
				20:[U_CATEGORY_MACRO_MAX_COEC<0.005999] yes=41,no=42,missing=42,gain=436.119,cover=13188.2
					41:[U_CITY_EC<331.854] yes=83,no=84,missing=84,gain=263.714,cover=3330
						83:leaf=-0.0205118,cover=1273.41
						84:leaf=-0.078434,cover=2056.6
					42:[U_CATEGORY_MAX_EC<978.537] yes=85,no=86,missing=86,gain=357.594,cover=9858.17
						85:leaf=0.0100249,cover=3719.39
						86:leaf=-0.0292649,cover=6138.79
			10:[C_D_U_TITLEMD5_CITY_EC<2.651] yes=21,no=22,missing=22,gain=474.134,cover=149175
				21:[D_CATEGORY_MICRO_MEAN_COEC<0.042999] yes=43,no=44,missing=44,gain=205.146,cover=19446.4
					43:[C_D_U_TITLEMD5_CATEGORY_MAX_C<0.082999] yes=87,no=88,missing=87,gain=60.7881,cover=111.877
						87:leaf=-0.165247,cover=90.5243
						88:leaf=0.02121,cover=21.3527
					44:[C_D_U_CATEGORY_CATEGORY_MACRO_MAX_COEC<0.004999] yes=89,no=90,missing=90,gain=209.36,cover=19334.6
						89:leaf=0.0229718,cover=5026.85
						90:leaf=-0.000750057,cover=14307.7
				22:[D_PUBLISHER_C<254.449] yes=45,no=46,missing=45,gain=368.527,cover=129729
					45:[D_KEYWORD_MEAN_C<31.048] yes=91,no=92,missing=92,gain=434.117,cover=60629.9
						91:leaf=-0.00394154,cover=16465.8
						92:leaf=-0.0229666,cover=44164.1
					46:[U_CATEGORY_MAX_C<149.992] yes=93,no=94,missing=93,gain=296.78,cover=69098.7
						93:leaf=-0.00440859,cover=59018.4
						94:leaf=-0.0229741,cover=10080.3
	2:[D_PUBLISHER_COEC<0.039999] yes=5,no=6,missing=6,gain=2556.8,cover=5.6224e+06
		5:[D_PUBLISHER_EC<376.163] yes=11,no=12,missing=12,gain=1092.83,cover=467825
			11:[C_D_U_TITLEMD5_CATEGORY_MAX_EC<0.015999] yes=23,no=24,missing=23,gain=685.547,cover=217887
				23:[U_CATEGORY_MAX_EC<550.459] yes=47,no=48,missing=47,gain=765.817,cover=140930
					47:[U_AGE_COEC<0.076999] yes=95,no=96,missing=95,gain=485.701,cover=67110.3
						95:leaf=0.00460465,cover=64599.4
						96:leaf=-0.0402152,cover=2510.86
					48:[C_D_U_CATEGORY_CATEGORY_MEAN_EC<15.854] yes=97,no=98,missing=97,gain=396.569,cover=73820.2
						97:leaf=-0.019677,cover=34407.2
						98:leaf=-0.00498421,cover=39413
				24:[U_AGE_EC<171813] yes=49,no=50,missing=50,gain=364.747,cover=76956.1
					49:[U_GENDER_EC<33242.1] yes=99,no=100,missing=100,gain=179.804,cover=4719.99
						99:leaf=-0.162063,cover=45.413
						100:leaf=0.035799,cover=4674.58
					50:[C_D_U_TITLEMD5_CATEGORY_MICRO_MAX_COEC<0.103999] yes=101,no=102,missing=102,gain=255.336,cover=72236.1
						101:leaf=0.0072742,cover=64205.2
						102:leaf=-0.0116381,cover=8030.93
			12:[D_TITLEMD5_COEC<0.024999] yes=25,no=26,missing=26,gain=1475.8,cover=249938
				25:[D_PUBLISHER_EC<15849.1] yes=51,no=52,missing=52,gain=1200.81,cover=80621.1
					51:[D_PUBLISHER_COEC<0.021999] yes=103,no=104,missing=104,gain=1319.31,cover=62909
						103:leaf=-0.0409106,cover=14979.9
						104:leaf=-0.00691145,cover=47929.1
					52:[U_CATEGORY_MACRO_MAX_COEC<0.003999] yes=105,no=106,missing=105,gain=474.029,cover=17712.1
						105:leaf=0.00224229,cover=1933.98
						106:leaf=-0.050211,cover=15778.1
				26:[C_D_U_CATEGORY_CATEGORY_MACRO_MAX_COEC<0.003999] yes=53,no=54,missing=53,gain=396.702,cover=169317
					53:[C_D_U_CATEGORY_CATEGORY_MICRO_MAX_COEC<0.054999] yes=107,no=108,missing=107,gain=370.869,cover=53826.9
						107:leaf=-0.00537107,cover=29935.8
						108:leaf=0.0113355,cover=23891.1
					54:[DOC_AGE<85] yes=109,no=110,missing=110,gain=312.286,cover=115490
						109:leaf=-0.0107181,cover=95658.1
						110:leaf=0.00306992,cover=19831.9
		6:[U_CATEGORY_MACRO_MAX_COEC<0.020999] yes=13,no=14,missing=13,gain=2252.79,cover=5.15457e+06
			13:[CAT_REL<0.037999] yes=27,no=28,missing=28,gain=2341.7,cover=5.01319e+06
				27:[D_KEYWORD_MEAN_C<50.84] yes=55,no=56,missing=56,gain=2873.67,cover=3.54174e+06
					55:[DOC_AGE<89] yes=111,no=112,missing=112,gain=1186.9,cover=796422
						111:leaf=-0.0059879,cover=686751
						112:leaf=0.00521501,cover=109671
					56:[D_KEYWORD_MICRO_MAX_COEC<0.205999] yes=113,no=114,missing=114,gain=1446.58,cover=2.74532e+06
						113:leaf=0.00213757,cover=2.71565e+06
						114:leaf=0.024336,cover=29675.8
				28:[D_PUBLISHER_COEC<0.081999] yes=57,no=58,missing=57,gain=1479.79,cover=1.47145e+06
					57:[D_CATEGORY_MACRO_MAX_COEC<0.073999] yes=115,no=116,missing=115,gain=1569.3,cover=1.07821e+06
						115:leaf=0.00529448,cover=913459
						116:leaf=-0.00530903,cover=164747
					58:[C_D_U_CATEGORY_CATEGORY_MICRO_MAX_COEC<0.047999] yes=117,no=118,missing=118,gain=530.129,cover=393244
						117:leaf=-0.0075218,cover=15117.6
						118:leaf=0.0115747,cover=378126
			14:[C_D_U_TITLEMD5_CATEGORY_MAX_C<0.767999] yes=29,no=30,missing=29,gain=878.288,cover=141380
				29:[DOC_AGE<70] yes=59,no=60,missing=60,gain=587.102,cover=102396
					59:[D_PUBLISHER_EC<2389.01] yes=119,no=120,missing=120,gain=577.007,cover=80367.5
						119:leaf=-0.00594457,cover=22843.5
						120:leaf=-0.0247304,cover=57524
					60:[D_CATEGORY_MICRO_MEAN_COEC<0.047999] yes=121,no=122,missing=122,gain=222.586,cover=22028.1
						121:leaf=0.0510696,cover=791.557
						122:leaf=-0.00290506,cover=21236.5
				30:[D_CATEGORY_MICRO_MEAN_COEC<0.071999] yes=61,no=62,missing=62,gain=256.258,cover=38984.5
					61:[C_D_U_CATEGORY_CATEGORY_MEAN_C<4.443] yes=123,no=124,missing=124,gain=285.312,cover=10911.2
						123:leaf=-0.0340703,cover=1059.61
						124:leaf=0.0205182,cover=9851.59
					62:[U_CATEGORY_MICRO_MAX_COEC<0.064999] yes=125,no=126,missing=126,gain=255.986,cover=28073.3
						125:leaf=-0.0153482,cover=10340.7
						126:leaf=0.00444772,cover=17732.6
booster[50]:
0:[U_CITY_COEC<0.096999] yes=1,no=2,missing=1,gain=2465.14,cover=5.93974e+06
	1:[DOC_AGE<0.999999] yes=3,no=4,missing=4,gain=2272.37,cover=5.37247e+06
		3:[U_CATEGORY_MAX_EC<2234.41] yes=7,no=8,missing=7,gain=545.455,cover=135360
			7:[C_D_U_CATEGORY_CATEGORY_MICRO_MEAN_COEC<0.031999] yes=15,no=16,missing=16,gain=344.953,cover=111414
				15:[D_PUBLISHER_COEC<0.036999] yes=31,no=32,missing=31,gain=143.731,cover=2188.78
					31:[U_CATEGORY_MAX_C<114.486] yes=63,no=64,missing=64,gain=159.643,cover=442.378
						63:leaf=-0.096472,cover=390.336
						64:leaf=0.0887193,cover=52.0415
					32:[D_KEYWORD_MICRO_MAX_COEC<0.167999] yes=65,no=66,missing=66,gain=142.104,cover=1746.41
						65:leaf=-0.00660073,cover=1710.89
						66:leaf=-0.205962,cover=35.5196
				16:[D_TITLEMD5_COEC<0.051999] yes=33,no=34,missing=34,gain=339.399,cover=109225
					33:[D_KEYWORD_MACRO_MEAN_COEC<0.056999] yes=67,no=68,missing=67,gain=222.22,cover=50624.8
						67:leaf=0.0171675,cover=31192
						68:leaf=0.0307921,cover=19432.8
					34:[D_KEYWORD_MACRO_MEAN_COEC<0.061999] yes=69,no=70,missing=70,gain=326.26,cover=58600.1
						69:leaf=0.00295452,cover=26316.5
						70:leaf=0.0179558,cover=32283.6
			8:[C_D_U_CATEGORY_CATEGORY_MEAN_EC<27.222] yes=17,no=18,missing=18,gain=286.345,cover=23945.7
				17:[D_CATEGORY_MEAN_C<2243.54] yes=35,no=36,missing=36,gain=245.14,cover=2796.22
					35:[D_KEYWORD_MAX_C<9.176] yes=71,no=72,missing=71,gain=259.671,cover=2660.73
						71:leaf=-0.0905738,cover=483.685
						72:leaf=-0.00963406,cover=2177.05
					36:[C_D_U_CATEGORY_AGE_MEAN_EC<2752.64] yes=73,no=74,missing=73,gain=98.156,cover=135.487
						73:leaf=-0.187774,cover=123.933
						74:leaf=0.109417,cover=11.554
				18:[D_PUBLISHER_C<564.513] yes=37,no=38,missing=37,gain=229.084,cover=21149.5
					37:[WORD_COUNT<8117] yes=75,no=76,missing=76,gain=158.623,cover=10896.7
						75:leaf=0.0142714,cover=10786.7
						76:leaf=-0.105878,cover=110.025
					38:[U_CATEGORY_MICRO_MAX_COEC<0.053999] yes=77,no=78,missing=78,gain=293.89,cover=10252.8
						77:leaf=-0.0523173,cover=1293.32
						78:leaf=-0.00134026,cover=8959.52
		4:[D_TITLEMD5_C<5.721] yes=9,no=10,missing=9,gain=3101.3,cover=5.23712e+06
			9:[TIME_OF_DAY<0.999999] yes=19,no=20,missing=20,gain=2530.75,cover=1.20254e+06
				19:[C_D_U_TITLEMD5_CITY_C<0.186999] yes=39,no=40,missing=40,gain=625.276,cover=77633.2
					39:[U_CITY_C<53.37] yes=79,no=80,missing=80,gain=1107.4,cover=8617.31
						79:leaf=0.13696,cover=575.067
						80:leaf=-0.0065682,cover=8042.24
					40:[U_CATEGORY_MAX_C<67.341] yes=81,no=82,missing=81,gain=569.088,cover=69015.9
						81:leaf=-0.0178747,cover=40284.6
						82:leaf=-0.0362966,cover=28731.3
				20:[TIME_OF_DAY<23] yes=41,no=42,missing=42,gain=1230.62,cover=1.1249e+06
					41:[C_D_U_TITLEMD5_CATEGORY_MICRO_MAX_COEC<0.069999] yes=83,no=84,missing=84,gain=1060.16,cover=1.0629e+06
						83:leaf=-4.67937e-05,cover=584049
						84:leaf=-0.00639436,cover=478850
					42:[U_CATEGORY_MAX_EC<2865.9] yes=85,no=86,missing=85,gain=462.279,cover=62004.5
						85:leaf=-0.020562,cover=54670.4
						86:leaf=0.0061743,cover=7334.11
			10:[D_TITLEMD5_COEC<0.208999] yes=21,no=22,missing=22,gain=2411.52,cover=4.03458e+06
				21:[U_CATEGORY_MICRO_MAX_COEC<0.072999] yes=43,no=44,missing=43,gain=2061.11,cover=3.9927e+06
					43:[U_CITY_C<952.248] yes=87,no=88,missing=87,gain=1617.94,cover=2.79101e+06
						87:leaf=-0.00190295,cover=2.3542e+06
						88:leaf=0.0047237,cover=436808
					44:[U_CATEGORY_MACRO_MAX_COEC<0.009999] yes=89,no=90,missing=90,gain=1403.55,cover=1.20169e+06
						89:leaf=0.00627711,cover=851991
						90:leaf=-0.00124685,cover=349697
				22:[D_KEYWORD_MICRO_MEAN_COEC<0.106999] yes=45,no=46,missing=46,gain=161.426,cover=41878.8
					45:[D_KEYWORD_MICRO_MEAN_COEC<0.054999] yes=91,no=92,missing=92,gain=116.518,cover=35045.9
						91:leaf=-0.214273,cover=18.9369
						92:leaf=0.027625,cover=35027
					46:[D_TITLEMD5_C<36.06] yes=93,no=94,missing=94,gain=180.268,cover=6832.87
						93:leaf=0.0803413,cover=351.374
						94:leaf=0.00689591,cover=6481.5
	2:[U_CITY_C<13.952] yes=5,no=6,missing=6,gain=795.689,cover=567265
		5:[D_TITLEMD5_COEC<0.077999] yes=11,no=12,missing=11,gain=556.579,cover=229768
			11:[CAT_REL<0.048999] yes=23,no=24,missing=24,gain=288.218,cover=94930.4
				23:[DOC_AGE<92] yes=47,no=48,missing=48,gain=292.989,cover=65219.8
					47:[C_D_U_TITLEMD5_CATEGORY_MAX_C<0.062999] yes=95,no=96,missing=95,gain=168.702,cover=55242
						95:leaf=-0.0123756,cover=47611.4
						96:leaf=0.00364011,cover=7630.65
					48:[TIME_OF_DAY<0.999999] yes=97,no=98,missing=98,gain=165.503,cover=9977.76
						97:leaf=-0.0543422,cover=401.772
						98:leaf=0.0110955,cover=9575.98
				24:[U_CATEGORY_MACRO_MAX_COEC<0.019999] yes=49,no=50,missing=50,gain=261.027,cover=29710.6
					49:[D_CATEGORY_MACRO_MAX_COEC<0.029999] yes=99,no=100,missing=100,gain=218.071,cover=28396.8
						99:leaf=0.0404199,cover=1784.1
						100:leaf=0.00431471,cover=26612.7
					50:[D_CATEGORY_MACRO_MAX_COEC<0.047999] yes=101,no=102,missing=102,gain=167.956,cover=1313.78
						101:leaf=-0.11517,cover=236.267
						102:leaf=-0.0221977,cover=1077.52
			12:[D_KEYWORD_MEAN_EC<1328] yes=25,no=26,missing=25,gain=338.617,cover=134838
				25:[U_CITY_C<2.434] yes=51,no=52,missing=52,gain=194.168,cover=65818.5
					51:[U_GENDER_EC<46395.7] yes=103,no=104,missing=103,gain=196.282,cover=13045.9
						103:leaf=-0.00914338,cover=13024.3
						104:leaf=-0.303683,cover=21.6657
					52:[U_CITY_COEC<0.160999] yes=105,no=106,missing=106,gain=124.594,cover=52772.6
						105:leaf=0.000703702,cover=36360.1
						106:leaf=0.0112002,cover=16412.4
				26:[DOC_AGE<97] yes=53,no=54,missing=54,gain=169.409,cover=69019.5
					53:[U_CITY_C<0.649999] yes=107,no=108,missing=108,gain=121.737,cover=60444.9
						107:leaf=-0.0154469,cover=1904.75
						108:leaf=0.0102364,cover=58540.2
					54:[C_D_U_TITLEMD5_CITY_C<0.908999] yes=109,no=110,missing=109,gain=135.828,cover=8574.62
						109:leaf=0.024782,cover=8569.43
						110:leaf=-0.44383,cover=5.19253
		6:[U_CITY_COEC<0.251999] yes=13,no=14,missing=14,gain=677.681,cover=337497
			13:[U_CATEGORY_MAX_EC<287.529] yes=27,no=28,missing=28,gain=404.651,cover=325934
				27:[U_CATEGORY_MICRO_MAX_COEC<0.081999] yes=55,no=56,missing=56,gain=305.677,cover=28867.6
					55:[CAT_REL<0.050999] yes=111,no=112,missing=112,gain=272.034,cover=22549
						111:leaf=0.0211729,cover=19146.8
						112:leaf=0.0518591,cover=3402.22
					56:[U_CITY_EC<299.144] yes=113,no=114,missing=114,gain=199.145,cover=6318.59
						113:leaf=-0.0202997,cover=2601.25
						114:leaf=0.0157677,cover=3717.34
				28:[U_CATEGORY_MICRO_MAX_COEC<0.054999] yes=57,no=58,missing=58,gain=415.558,cover=297066
					57:[D_PUBLISHER_COEC<0.064999] yes=115,no=116,missing=116,gain=220.226,cover=10631.4
						115:leaf=-0.0317646,cover=3553.59
						116:leaf=-0.00125691,cover=7077.8
					58:[U_CATEGORY_MACRO_MAX_COEC<0.004999] yes=117,no=118,missing=118,gain=324.868,cover=286435
						117:leaf=0.0193308,cover=26022
						118:leaf=0.00761255,cover=260413
			14:[U_CATEGORY_MAX_EC<261.323] yes=29,no=30,missing=30,gain=428.33,cover=11563.1
				29:[U_CITY_C<113.722] yes=59,no=60,missing=60,gain=93.7264,cover=2071.08
					59:[U_AGE_EC<162861] yes=119,no=120,missing=119,gain=98.0992,cover=1113.88
						119:leaf=0.0345866,cover=756.15
						120:leaf=0.098169,cover=357.729
					60:[U_CATEGORY_MAX_C<11.499] yes=121,no=122,missing=122,gain=12.4569,cover=957.198
						121:leaf=0.102969,cover=801.785
						122:leaf=0.070959,cover=155.413
				30:[U_CATEGORY_MAX_EC<1416.58] yes=61,no=62,missing=61,gain=161.371,cover=9492.02
					61:[D_KEYWORD_MICRO_MEAN_COEC<0.060999] yes=123,no=124,missing=123,gain=167.463,cover=8020.74
						123:leaf=-0.0343104,cover=381.549
						124:leaf=0.0335073,cover=7639.2
					62:[D_TITLEMD5_EC<11.94] yes=125,no=126,missing=125,gain=250.725,cover=1471.28
						125:leaf=0.0761729,cover=297.06
						126:leaf=-0.0265183,cover=1174.22
booster[51]:
0:[DOC_AGE<129] yes=1,no=2,missing=2,gain=2669.67,cover=5.94136e+06
	1:[DOC_AGE<4] yes=3,no=4,missing=4,gain=2388.98,cover=5.57345e+06
		3:[D_KEYWORD_MACRO_MEAN_COEC<0.049999] yes=7,no=8,missing=8,gain=966.075,cover=647972
			7:[DOC_AGE<0.999999] yes=15,no=16,missing=16,gain=360.663,cover=141954
				15:[C_D_U_CATEGORY_CATEGORY_MICRO_MEAN_COEC<0.031999] yes=31,no=32,missing=32,gain=142.98,cover=40447.4
					31:[U_CATEGORY_MACRO_MAX_COEC<0.011999] yes=63,no=64,missing=64,gain=211.404,cover=1967.66
						63:leaf=-0.0346374,cover=1634.8
						64:leaf=0.0526883,cover=332.866
					32:[D_CATEGORY_MICRO_MEAN_COEC<0.054999] yes=65,no=66,missing=66,gain=228.727,cover=38479.8
						65:leaf=0.0199187,cover=11067
						66:leaf=0.00288642,cover=27412.8
				16:[D_CATEGORY_MACRO_MAX_COEC<0.062999] yes=33,no=34,missing=34,gain=376.749,cover=101506
					33:[D_PUBLISHER_COEC<0.052999] yes=67,no=68,missing=67,gain=283.702,cover=79503.9
						67:leaf=-0.00669101,cover=45455
						68:leaf=0.00538093,cover=34048.8
					34:[D_PUBLISHER_C<291.295] yes=69,no=70,missing=69,gain=278.852,cover=22002.4
						69:leaf=-0.00703911,cover=13116
						70:leaf=-0.0299825,cover=8886.41
			8:[D_PUBLISHER_EC<32992.3] yes=17,no=18,missing=18,gain=757.179,cover=506018
				17:[D_PUBLISHER_EC<24.907] yes=35,no=36,missing=36,gain=738.378,cover=382641
					35:[C_D_U_TITLEMD5_CATEGORY_MAX_EC<0.015999] yes=71,no=72,missing=71,gain=294.193,cover=8793.3
						71:leaf=-0.0271364,cover=7236.72
						72:leaf=0.0207753,cover=1556.58
					36:[D_CATEGORY_MEAN_C<2963.02] yes=73,no=74,missing=73,gain=576.085,cover=373848
						73:leaf=0.00634653,cover=169305
						74:leaf=0.0142327,cover=204543
				18:[U_CATEGORY_MAX_EC<2616.97] yes=37,no=38,missing=38,gain=1484.25,cover=123377
					37:[D_TITLEMD5_EC<8.716] yes=75,no=76,missing=76,gain=522.007,cover=94051.9
						75:leaf=0.0338142,cover=6787.34
						76:leaf=0.00502532,cover=87264.6
					38:[D_CATEGORY_MACRO_MEAN_COEC<0.076999] yes=77,no=78,missing=77,gain=468.874,cover=29324.9
						77:leaf=-0.0102492,cover=20326
						78:leaf=-0.0376664,cover=8998.84
		4:[C_D_U_TITLEMD5_CATEGORY_MAX_C<0.109999] yes=9,no=10,missing=9,gain=3059.39,cover=4.92548e+06
			9:[U_CATEGORY_MACRO_MAX_COEC<0.008999] yes=19,no=20,missing=19,gain=2085.34,cover=3.75353e+06
				19:[CAT_REL<0.014999] yes=39,no=40,missing=40,gain=2179.02,cover=2.9022e+06
					39:[D_KEYWORD_MEAN_EC<619.285] yes=79,no=80,missing=80,gain=2231.07,cover=1.58605e+06
						79:leaf=-0.0109069,cover=311823
						80:leaf=-0.00146981,cover=1.27423e+06
					40:[WORD_COUNT<1173] yes=81,no=82,missing=82,gain=2076.83,cover=1.31615e+06
						81:leaf=-0.00606852,cover=247834
						82:leaf=0.00409216,cover=1.06832e+06
				20:[D_PUBLISHER_EC<7955.05] yes=41,no=42,missing=42,gain=1660.34,cover=851330
					41:[C_D_U_TITLEMD5_CATEGORY_MAX_EC<0.035999] yes=83,no=84,missing=83,gain=1213.14,cover=497101
						83:leaf=-0.0110015,cover=130687
						84:leaf=0.000220631,cover=366414
					42:[U_CATEGORY_MICRO_MAX_COEC<0.089999] yes=85,no=86,missing=86,gain=673.754,cover=354229
						85:leaf=-0.0129326,cover=327600
						86:leaf=0.00360762,cover=26629
			10:[C_D_U_TITLEMD5_CATEGORY_MICRO_MAX_COEC<0.205999] yes=21,no=22,missing=22,gain=1554.73,cover=1.17195e+06
				21:[U_CATEGORY_MACRO_MAX_COEC<0.015999] yes=43,no=44,missing=44,gain=1229.41,cover=1.07447e+06
					43:[TIME_OF_DAY<16] yes=87,no=88,missing=88,gain=810.964,cover=910760
						87:leaf=0.00702931,cover=461351
						88:leaf=0.0010608,cover=449409
					44:[C_D_U_TITLEMD5_CATEGORY_MAX_C<0.776999] yes=89,no=90,missing=90,gain=482.19,cover=163706
						89:leaf=-0.00963054,cover=100533
						90:leaf=0.00151806,cover=63172.5
				22:[C_D_U_TITLEMD5_CATEGORY_MICRO_MAX_COEC<0.261999] yes=45,no=46,missing=46,gain=364.457,cover=97482.5
					45:[D_TITLEMD5_COEC<0.098999] yes=91,no=92,missing=92,gain=245.047,cover=65827.2
						91:leaf=0.0269579,cover=8971.2
						92:leaf=0.00917496,cover=56856
					46:[D_TITLEMD5_C<5.625] yes=93,no=94,missing=94,gain=207.358,cover=31655.3
						93:leaf=-0.023821,cover=857.686
						94:leaf=0.0260074,cover=30797.6
	2:[CAT_REL<0.052999] yes=5,no=6,missing=6,gain=471.687,cover=367904
		5:[D_CATEGORY_MACRO_MAX_COEC<0.050999] yes=11,no=12,missing=11,gain=429.607,cover=309452
			11:[D_TITLEMD5_C<53.311] yes=23,no=24,missing=23,gain=366.99,cover=136743
				23:[D_CATEGORY_MICRO_MEAN_COEC<0.068999] yes=47,no=48,missing=47,gain=403.525,cover=76677.4
					47:[C_D_U_CATEGORY_GENDER_MACRO_MAX_COEC<0.031999] yes=95,no=96,missing=96,gain=217.682,cover=30126.8
						95:leaf=-0.120768,cover=115.115
						96:leaf=0.0164243,cover=30011.7
					48:[D_TITLEMD5_EC<956.425] yes=97,no=98,missing=98,gain=230.833,cover=46550.6
						97:leaf=0.0016829,cover=46169.9
						98:leaf=-0.076409,cover=380.647
				24:[C_D_U_TITLEMD5_GENDER_C<0.707999] yes=49,no=50,missing=50,gain=260.515,cover=60066
					49:[C_D_U_TITLEMD5_GENDER_EC<8.518] yes=99,no=100,missing=100,gain=239.37,cover=77.46
						99:leaf=-0.0185752,cover=46.2392
						100:leaf=-0.37405,cover=31.2207
					50:[D_KEYWORD_MAX_EC<200.521] yes=101,no=102,missing=102,gain=185.609,cover=59988.6
						101:leaf=0.00326566,cover=7894.33
						102:leaf=0.0197205,cover=52094.3
			12:[D_CATEGORY_MICRO_MAX_COEC<0.080999] yes=25,no=26,missing=26,gain=313.852,cover=172708
				25:[D_PUBLISHER_COEC<0.032999] yes=51,no=52,missing=52,gain=198.741,cover=100652
					51:[C_D_U_TITLEMD5_CITY_COEC<0.129999] yes=103,no=104,missing=103,gain=186.869,cover=4725.42
						103:leaf=-0.0100658,cover=4659.51
						104:leaf=-0.178384,cover=65.9118
					52:[D_KEYWORD_MICRO_MEAN_COEC<0.049999] yes=105,no=106,missing=106,gain=169.058,cover=95926.3
						105:leaf=-0.0766883,cover=231.108
						106:leaf=0.0087611,cover=95695.2
				26:[D_TITLEMD5_EC<41.816] yes=53,no=54,missing=53,gain=292.332,cover=72056.5
					53:[U_CATEGORY_MAX_C<143.905] yes=107,no=108,missing=107,gain=213.532,cover=6529.86
						107:leaf=-0.0278457,cover=5763.68
						108:leaf=0.0283187,cover=766.176
					54:[U_CATEGORY_MICRO_MAX_COEC<0.079999] yes=109,no=110,missing=110,gain=257.765,cover=65526.7
						109:leaf=-0.00396221,cover=40715.2
						110:leaf=0.00896811,cover=24811.4
		6:[C_D_U_TITLEMD5_CATEGORY_MACRO_MAX_COEC<0.026999] yes=13,no=14,missing=14,gain=257.869,cover=58452
			13:[D_PUBLISHER_EC<6001.2] yes=27,no=28,missing=28,gain=174.568,cover=46693.1
				27:[U_GENDER_COEC<0.088999] yes=55,no=56,missing=55,gain=175.698,cover=31698.5
					55:[D_CATEGORY_MEAN_EC<38249.4] yes=111,no=112,missing=112,gain=101.342,cover=31664.8
						111:leaf=0.0286412,cover=21874.1
						112:leaf=0.0163971,cover=9790.74
					56:[C_D_U_CATEGORY_CATEGORY_MICRO_MAX_COEC<0.055999] yes=113,no=114,missing=114,gain=168.593,cover=33.7385
						113:leaf=0.0470179,cover=15.1745
						114:leaf=-0.394354,cover=18.564
				28:[C_D_U_CATEGORY_CATEGORY_MICRO_MEAN_COEC<0.060999] yes=57,no=58,missing=58,gain=139.305,cover=14994.5
					57:[C_D_U_TITLEMD5_CATEGORY_MACRO_MAX_COEC<0.005999] yes=115,no=116,missing=116,gain=212.302,cover=2835.55
						115:leaf=0.0133524,cover=1734.76
						116:leaf=-0.0427734,cover=1100.79
					58:[C_D_U_CATEGORY_GENDER_MEAN_C<22.944] yes=117,no=118,missing=118,gain=219.735,cover=12159
						117:leaf=-0.361464,cover=14.391
						118:leaf=0.016645,cover=12144.6
			14:[U_GENDER_EC<35371.7] yes=29,no=30,missing=30,gain=283.944,cover=11758.9
				29:[D_KEYWORD_MACRO_MEAN_COEC<0.060999] yes=59,no=60,missing=60,gain=18.595,cover=15.4088
					59:leaf=-0.242786,cover=7.43265
					60:leaf=-0.524815,cover=7.97613
				30:[U_CATEGORY_MAX_C<33.696] yes=61,no=62,missing=62,gain=227.381,cover=11743.5
					61:[C_D_U_PUBLISHER_AGE_C<72.085] yes=119,no=120,missing=120,gain=208.436,cover=1727.76
						119:leaf=-0.178722,cover=42.3414
						120:leaf=0.0434525,cover=1685.42
					62:[D_PUBLISHER_C<6955.21] yes=121,no=122,missing=122,gain=173.828,cover=10015.8
						121:leaf=-0.0007203,cover=9992.88
						122:leaf=-0.270777,cover=22.8917
booster[52]:
0:[U_CITY_COEC<0.076999] yes=1,no=2,missing=1,gain=2343.22,cover=5.9275e+06
	1:[U_CITY_COEC<0.025999] yes=3,no=4,missing=4,gain=1837.04,cover=4.51158e+06
		3:[U_CITY_EC<29.151] yes=7,no=8,missing=8,gain=1627.41,cover=202282
			7:[D_TITLEMD5_C<5380.98] yes=15,no=16,missing=16,gain=253.036,cover=82263.8
				15:[C_D_U_TITLEMD5_CATEGORY_MACRO_MAX_COEC<0.005999] yes=31,no=32,missing=32,gain=265.37,cover=81520.1
					31:[U_CATEGORY_MAX_EC<2131.93] yes=63,no=64,missing=64,gain=141.604,cover=19582.9
						63:leaf=0.0152487,cover=14850.8
						64:leaf=-0.00461463,cover=4732.12
					32:[DOC_AGE<27] yes=65,no=66,missing=66,gain=265.504,cover=61937.2
						65:leaf=-0.0103858,cover=26868
						66:leaf=0.00282488,cover=35069.2
				16:[WORD_COUNT<784] yes=33,no=34,missing=34,gain=135.754,cover=743.646
					33:[D_CATEGORY_MACRO_MAX_COEC<0.026999] yes=67,no=68,missing=68,gain=143.94,cover=85.6348
						67:leaf=0.157508,cover=21.8767
						68:leaf=-0.13464,cover=63.7581
					34:[D_PUBLISHER_EC<32827.9] yes=69,no=70,missing=70,gain=115.7,cover=658.011
						69:leaf=0.085559,cover=613.665
						70:leaf=-0.0803555,cover=44.346
			8:[U_CITY_COEC<0.015999] yes=17,no=18,missing=18,gain=1294.7,cover=120018
				17:[U_CITY_EC<528.362] yes=35,no=36,missing=36,gain=531.767,cover=44919.8
					35:[DOC_AGE<6] yes=71,no=72,missing=72,gain=470.074,cover=36692.9
						71:leaf=-0.000503531,cover=6159.67
						72:leaf=-0.0307872,cover=30533.3
					36:[U_CITY_C<11.326] yes=73,no=74,missing=74,gain=279.786,cover=8226.82
						73:leaf=-0.0700103,cover=4649.76
						74:leaf=-0.032795,cover=3577.06
				18:[C_D_U_CATEGORY_CATEGORY_MICRO_MAX_COEC<0.064999] yes=37,no=38,missing=38,gain=335.19,cover=75098.5
					37:[D_CATEGORY_MEAN_EC<14465.7] yes=75,no=76,missing=76,gain=305.409,cover=24852.7
						75:leaf=0.000165234,cover=6282.5
						76:leaf=-0.0253412,cover=18570.2
					38:[D_PUBLISHER_COEC<0.047999] yes=77,no=78,missing=77,gain=269.556,cover=50245.9
						77:leaf=-0.0220421,cover=7602.03
						78:leaf=-0.0016031,cover=42643.8
		4:[U_CATEGORY_MACRO_MAX_COEC<0.014999] yes=9,no=10,missing=9,gain=1530.64,cover=4.3093e+06
			9:[C_D_U_TITLEMD5_CATEGORY_MAX_C<0.082999] yes=19,no=20,missing=19,gain=1554.51,cover=3.97108e+06
				19:[DOC_AGE<4] yes=39,no=40,missing=40,gain=1795.71,cover=3.07739e+06
					39:[C_D_U_CATEGORY_CATEGORY_MICRO_MAX_COEC<0.103999] yes=79,no=80,missing=79,gain=606.271,cover=409571
						79:leaf=0.00420808,cover=373814
						80:leaf=0.0178378,cover=35756.7
					40:[DOC_AGE<89] yes=81,no=82,missing=82,gain=1543.53,cover=2.66782e+06
						81:leaf=-0.0027269,cover=2.26569e+06
						82:leaf=0.00399593,cover=402130
				20:[C_D_U_TITLEMD5_CATEGORY_MICRO_MAX_COEC<0.235999] yes=41,no=42,missing=42,gain=863.601,cover=893690
					41:[TIME_OF_DAY<16] yes=83,no=84,missing=84,gain=787.588,cover=854352
						83:leaf=0.00633878,cover=427317
						84:leaf=0.000266375,cover=427035
					42:[C_D_U_TITLEMD5_CATEGORY_MAX_C<0.325999] yes=85,no=86,missing=86,gain=187.793,cover=39337.6
						85:leaf=0.013088,cover=24528.9
						86:leaf=0.0273498,cover=14808.7
			10:[C_D_U_TITLEMD5_CATEGORY_MAX_C<1.311] yes=21,no=22,missing=21,gain=793.691,cover=338215
				21:[D_CATEGORY_MICRO_MAX_COEC<0.071999] yes=43,no=44,missing=44,gain=750.94,cover=299816
					43:[CAT_REL<0.159999] yes=87,no=88,missing=88,gain=491.938,cover=117754
						87:leaf=-0.00704605,cover=75597.4
						88:leaf=0.0064359,cover=42156.6
					44:[DOC_AGE<58] yes=89,no=90,missing=90,gain=441.746,cover=182062
						89:leaf=-0.0156032,cover=129555
						90:leaf=-0.00472978,cover=52507.1
				22:[C_D_U_TITLEMD5_GENDER_C<0.886999] yes=45,no=46,missing=46,gain=174.777,cover=38399.4
					45:leaf=-0.401444,cover=9.48286
					46:[U_CATEGORY_MICRO_MAX_COEC<0.060999] yes=91,no=92,missing=92,gain=147.099,cover=38389.9
						91:leaf=-0.00209537,cover=12265.4
						92:leaf=0.0111798,cover=26124.5
	2:[U_CITY_C<1232.28] yes=5,no=6,missing=6,gain=2492.71,cover=1.41592e+06
		5:[U_CITY_COEC<0.130999] yes=11,no=12,missing=12,gain=1195.81,cover=1.35889e+06
			11:[U_CATEGORY_MAX_C<13.626] yes=23,no=24,missing=24,gain=848.937,cover=1.12688e+06
				23:[U_CITY_C<33.98] yes=47,no=48,missing=48,gain=389.785,cover=41324.6
					47:[CAT_REL<0.066999] yes=93,no=94,missing=94,gain=183.596,cover=14047.5
						93:leaf=-0.00101134,cover=12959.1
						94:leaf=0.0417323,cover=1088.37
					48:[U_CATEGORY_MACRO_MAX_COEC<0.004999] yes=95,no=96,missing=96,gain=208.067,cover=27277.1
						95:leaf=0.00919821,cover=7959.29
						96:leaf=0.0284121,cover=19317.8
				24:[WORD_COUNT<3879] yes=49,no=50,missing=50,gain=705.919,cover=1.08556e+06
					49:[U_CATEGORY_MACRO_MAX_COEC<0.003999] yes=97,no=98,missing=98,gain=639.611,cover=889612
						97:leaf=0.0196136,cover=16381.1
						98:leaf=-0.000330252,cover=873231
					50:[C_D_U_TITLEMD5_CATEGORY_MAX_EC<0.060999] yes=99,no=100,missing=99,gain=337.539,cover=195944
						99:leaf=0.00118459,cover=71381.4
						100:leaf=0.00980925,cover=124563
			12:[U_CITY_COEC<0.242999] yes=25,no=26,missing=26,gain=494.621,cover=232014
				25:[U_CITY_C<28.522] yes=51,no=52,missing=52,gain=293.019,cover=191956
					51:[C_D_U_TITLEMD5_CATEGORY_MAX_C<0.061999] yes=101,no=102,missing=101,gain=224.693,cover=141465
						101:leaf=0.00256344,cover=98185.7
						102:leaf=0.0112122,cover=43279.7
					52:[U_CATEGORY_MAX_EC<1609.35] yes=103,no=104,missing=103,gain=400.384,cover=50490.5
						103:leaf=0.0178305,cover=42895.5
						104:leaf=-0.00707859,cover=7595.05
				26:[U_CITY_C<6.324] yes=53,no=54,missing=54,gain=495.771,cover=40057.7
					53:[D_PUBLISHER_EC<149.876] yes=105,no=106,missing=105,gain=193.439,cover=19411.9
						105:leaf=-0.0500438,cover=551.385
						106:leaf=0.00999438,cover=18860.5
					54:[U_CATEGORY_MAX_EC<224.943] yes=107,no=108,missing=108,gain=367.141,cover=20645.8
						107:leaf=0.0713728,cover=1989.75
						108:leaf=0.0261895,cover=18656
		6:[U_CATEGORY_MACRO_MAX_COEC<0.003999] yes=13,no=14,missing=14,gain=300.479,cover=57022.8
			13:[U_CATEGORY_MICRO_MAX_COEC<0.060999] yes=27,no=28,missing=28,gain=202.829,cover=1456.28
				27:[C_D_U_TITLEMD5_CATEGORY_MAX_C<0.012999] yes=55,no=56,missing=56,gain=104.991,cover=66.8312
					55:[C_D_U_TITLEMD5_CITY_EC<1.802] yes=109,no=110,missing=109,gain=77.5407,cover=43.651
						109:leaf=-0.254,cover=8.93591
						110:leaf=0.0618446,cover=34.7151
					56:[C_D_U_TITLEMD5_CITY_EC<73.397] yes=111,no=112,missing=112,gain=35.5478,cover=23.1802
						111:leaf=-0.347077,cover=15.9146
						112:leaf=-0.0707608,cover=7.26557
				28:[D_PUBLISHER_C<3.57] yes=57,no=58,missing=58,gain=126.137,cover=1389.45
					57:leaf=-0.246966,cover=10.9401
					58:[D_KEYWORD_MICRO_MAX_COEC<0.075999] yes=113,no=114,missing=114,gain=57.3833,cover=1378.51
						113:leaf=-0.00721481,cover=71.0108
						114:leaf=0.0849888,cover=1307.5
			14:[C_D_U_CATEGORY_AGE_MICRO_MEAN_COEC<0.106999] yes=29,no=30,missing=30,gain=330.848,cover=55566.5
				29:[D_TITLEMD5_EC<56.541] yes=59,no=60,missing=59,gain=167.394,cover=7277.59
					59:[C_D_U_TITLEMD5_CATEGORY_MICRO_MAX_COEC<0.490999] yes=115,no=116,missing=115,gain=167.213,cover=2018.84
						115:leaf=0.0692847,cover=2012.96
						116:leaf=-0.425457,cover=5.87349
					60:[C_D_U_TITLEMD5_CITY_EC<1.802] yes=117,no=118,missing=117,gain=132.456,cover=5258.76
						117:leaf=-0.000861004,cover=913.642
						118:leaf=0.0410251,cover=4345.11
				30:[U_CATEGORY_MAX_C<13.626] yes=61,no=62,missing=62,gain=298.151,cover=48288.9
					61:[C_D_U_CATEGORY_CATEGORY_MICRO_MAX_COEC<0.051999] yes=119,no=120,missing=120,gain=394.519,cover=1658.08
						119:leaf=-0.153955,cover=196.703
						120:leaf=-0.00343752,cover=1461.38
					62:[C_D_U_TITLEMD5_GENDER_COEC<0.064999] yes=121,no=122,missing=122,gain=250.906,cover=46630.8
						121:leaf=-0.34472,cover=17.6769
						122:leaf=0.021913,cover=46613.2
booster[53]:
0:[U_CATEGORY_MICRO_MAX_COEC<0.054999] yes=1,no=2,missing=2,gain=2116.48,cover=5.92933e+06
	1:[D_KEYWORD_MEAN_EC<1330.85] yes=3,no=4,missing=4,gain=566.273,cover=308965
		3:[U_CITY_EC<49449] yes=7,no=8,missing=7,gain=514.842,cover=152041
			7:[U_CATEGORY_MAX_EC<204.565] yes=15,no=16,missing=16,gain=415.408,cover=147768
				15:[U_CITY_COEC<0.034999] yes=31,no=32,missing=32,gain=402.642,cover=11367
					31:[C_D_U_CATEGORY_CATEGORY_MAX_EC<14.743] yes=63,no=64,missing=64,gain=442.42,cover=1756.25
						63:leaf=-0.0633589,cover=1409.52
						64:leaf=0.0625978,cover=346.726
					32:[CAT_REL<0.023999] yes=65,no=66,missing=66,gain=408.266,cover=9610.76
						65:leaf=-0.00310315,cover=5804.06
						66:leaf=0.0390346,cover=3806.7
				16:[C_D_U_PUBLISHER_GENDER_EC<22.031] yes=33,no=34,missing=34,gain=266.165,cover=136401
					33:[U_AGE_EC<146493] yes=67,no=68,missing=68,gain=191.638,cover=704.831
						67:leaf=-0.295106,cover=15.0368
						68:leaf=0.0547694,cover=689.795
					34:[C_D_U_TITLEMD5_CATEGORY_MAX_C<0.070999] yes=69,no=70,missing=69,gain=290.946,cover=135696
						69:leaf=-0.018109,cover=87495.9
						70:leaf=-0.00843334,cover=48200.6
			8:[U_CATEGORY_MAX_EC<605.947] yes=17,no=18,missing=18,gain=162.861,cover=4272.66
				17:[U_CATEGORY_MACRO_MAX_COEC<0.006999] yes=35,no=36,missing=36,gain=257.496,cover=820.34
					35:[U_CATEGORY_MAX_C<5.492] yes=71,no=72,missing=72,gain=209.144,cover=710.384
						71:leaf=-0.275119,cover=14.8802
						72:leaf=0.0925257,cover=695.504
					36:[D_KEYWORD_MEAN_C<64.057] yes=73,no=74,missing=74,gain=213.91,cover=109.956
						73:leaf=-0.263766,cover=39.181
						74:leaf=0.0248203,cover=70.7748
				18:[C_D_U_CATEGORY_AGE_MICRO_MEAN_COEC<0.078999] yes=37,no=38,missing=38,gain=131.344,cover=3452.32
					37:[D_KEYWORD_MICRO_MAX_COEC<0.077999] yes=75,no=76,missing=76,gain=15.0935,cover=26.2827
						75:leaf=-0.0635664,cover=6.67987
						76:leaf=-0.248703,cover=19.6028
					38:[D_PUBLISHER_C<27.497] yes=77,no=78,missing=78,gain=121.274,cover=3426.04
						77:leaf=0.0783546,cover=273.442
						78:leaf=0.00904122,cover=3152.6
		4:[D_PUBLISHER_EC<35075.5] yes=9,no=10,missing=9,gain=425.363,cover=156924
			9:[U_CATEGORY_MAX_C<58.027] yes=19,no=20,missing=20,gain=388.629,cover=107725
				19:[U_CITY_COEC<0.025999] yes=39,no=40,missing=40,gain=415.518,cover=15204.7
					39:[U_CATEGORY_MAX_EC<160.677] yes=79,no=80,missing=80,gain=188.597,cover=786.068
						79:leaf=0.0342837,cover=112.49
						80:leaf=-0.105318,cover=673.578
					40:[U_CATEGORY_MICRO_MAX_COEC<0.051999] yes=81,no=82,missing=82,gain=378.852,cover=14418.6
						81:leaf=-0.0356028,cover=4291.16
						82:leaf=-0.000152233,cover=10127.5
				20:[D_KEYWORD_MICRO_MEAN_COEC<0.061999] yes=41,no=42,missing=41,gain=301.579,cover=92520.5
					41:[U_CITY_C<15.347] yes=83,no=84,missing=84,gain=177.22,cover=3365.01
						83:leaf=0.0736637,cover=784.379
						84:leaf=0.0193989,cover=2580.63
					42:[D_CATEGORY_MICRO_MAX_COEC<0.059999] yes=85,no=86,missing=86,gain=208.103,cover=89155.5
						85:leaf=0.0209365,cover=5224.36
						86:leaf=0.000368313,cover=83931.2
			10:[D_TITLEMD5_EC<2526.31] yes=21,no=22,missing=22,gain=526.397,cover=49198.8
				21:[C_D_U_CATEGORY_CATEGORY_MACRO_MEAN_COEC<0.008999] yes=43,no=44,missing=44,gain=506.938,cover=26852.5
					43:[U_CATEGORY_MACRO_MAX_COEC<0.004999] yes=87,no=88,missing=88,gain=227.448,cover=18171.1
						87:leaf=0.00504982,cover=5986.08
						88:leaf=-0.018753,cover=12185.1
					44:[C_D_U_CATEGORY_CATEGORY_MICRO_MEAN_COEC<0.089999] yes=89,no=90,missing=89,gain=209.439,cover=8681.37
						89:leaf=-0.0447113,cover=8029.78
						90:leaf=0.0142199,cover=651.58
				22:[C_D_U_CATEGORY_CATEGORY_MEAN_C<15.798] yes=45,no=46,missing=46,gain=254.703,cover=22346.3
					45:[WORD_COUNT<1535] yes=91,no=92,missing=92,gain=262.084,cover=20822.1
						91:leaf=-0.01691,cover=4921.38
						92:leaf=0.00949548,cover=15900.8
					46:[WORD_COUNT<3390] yes=93,no=94,missing=94,gain=206.687,cover=1524.18
						93:leaf=-0.0328389,cover=1482.86
						94:leaf=-0.257046,cover=41.3203
	2:[U_CATEGORY_MACRO_MAX_COEC<0.004999] yes=5,no=6,missing=6,gain=2185.72,cover=5.62037e+06
		5:[TIME_OF_DAY<19] yes=11,no=12,missing=12,gain=859.389,cover=523181
			11:[TIME_OF_DAY<6] yes=23,no=24,missing=24,gain=828,cover=370692
				23:[D_TITLEMD5_C<41.746] yes=47,no=48,missing=47,gain=526.584,cover=156218
					47:[U_CATEGORY_MAX_EC<1244.31] yes=95,no=96,missing=96,gain=524.181,cover=96064.6
						95:leaf=0.00154224,cover=90088
						96:leaf=-0.0290372,cover=5976.53
					48:[U_CATEGORY_MAX_EC<2597.52] yes=97,no=98,missing=98,gain=216.683,cover=60153
						97:leaf=0.0118629,cover=60011.7
						98:leaf=-0.111659,cover=141.362
				24:[U_CITY_COEC<0.234999] yes=49,no=50,missing=50,gain=769.442,cover=214474
					49:[U_GENDER_C<2864.85] yes=99,no=100,missing=100,gain=534.52,cover=171118
						99:leaf=-0.0376533,cover=2246.83
						100:leaf=0.0114348,cover=168871
					50:[U_CATEGORY_MAX_C<20.2] yes=101,no=102,missing=102,gain=531.207,cover=43356.6
						101:leaf=0.00752995,cover=11731.7
						102:leaf=0.0324458,cover=31624.9
			12:[C_D_U_TITLEMD5_CATEGORY_MAX_EC<0.036999] yes=25,no=26,missing=25,gain=562.913,cover=152489
				25:[CAT_REL<0.005999] yes=51,no=52,missing=52,gain=473.353,cover=57014.5
					51:[U_CATEGORY_MACRO_MAX_COEC<0.003999] yes=103,no=104,missing=104,gain=349.396,cover=17165.2
						103:leaf=0.00416494,cover=4202.37
						104:leaf=-0.0290146,cover=12962.8
					52:[C_D_U_CATEGORY_AGE_MEAN_EC<779.581] yes=105,no=106,missing=106,gain=434.893,cover=39849.3
						105:leaf=-0.11563,cover=327.406
						106:leaf=-7.66966e-05,cover=39521.9
				26:[U_CATEGORY_MICRO_MAX_COEC<0.077999] yes=53,no=54,missing=54,gain=335.523,cover=95474.1
					53:[D_KEYWORD_MEAN_C<150.228] yes=107,no=108,missing=107,gain=210.779,cover=89909.4
						107:leaf=0.00128301,cover=67496.9
						108:leaf=0.0124754,cover=22412.4
					54:[U_GENDER_EC<46525.8] yes=109,no=110,missing=109,gain=219.625,cover=5564.72
						109:leaf=0.030887,cover=5533.42
						110:leaf=-0.230686,cover=31.2993
		6:[C_D_U_TITLEMD5_CATEGORY_MAX_C<0.210999] yes=13,no=14,missing=13,gain=2107.16,cover=5.09719e+06
			13:[U_CATEGORY_MACRO_MAX_COEC<0.011999] yes=27,no=28,missing=27,gain=2068.18,cover=4.39642e+06
				27:[CAT_REL<0.063999] yes=55,no=56,missing=56,gain=2576.6,cover=3.87024e+06
					55:[U_CATEGORY_MICRO_MAX_COEC<0.090999] yes=111,no=112,missing=111,gain=1917.47,cover=3.28496e+06
						111:leaf=-0.00125606,cover=3.12874e+06
						112:leaf=0.010096,cover=156221
					56:[D_CATEGORY_MACRO_MAX_COEC<0.040999] yes=113,no=114,missing=113,gain=1278.31,cover=585282
						113:leaf=0.0175667,cover=88384.4
						114:leaf=0.00451464,cover=496897
				28:[CAT_REL<0.159999] yes=57,no=58,missing=58,gain=1356.86,cover=526176
					57:[D_PUBLISHER_EC<29986.2] yes=115,no=116,missing=116,gain=763.506,cover=430927
						115:leaf=-0.00656858,cover=343214
						116:leaf=-0.0170228,cover=87713
					58:[U_CATEGORY_MACRO_MAX_COEC<0.020999] yes=117,no=118,missing=118,gain=671.267,cover=95248.5
						117:leaf=0.00970535,cover=68739.7
						118:leaf=-0.00902612,cover=26508.8
			14:[U_CATEGORY_MACRO_MAX_COEC<0.025999] yes=29,no=30,missing=30,gain=916.728,cover=700769
				29:[C_D_U_TITLEMD5_CATEGORY_MICRO_MAX_COEC<0.262999] yes=59,no=60,missing=60,gain=618.923,cover=664177
					59:[D_CATEGORY_MACRO_MEAN_COEC<0.074999] yes=119,no=120,missing=120,gain=622.32,cover=644533
						119:leaf=0.00908327,cover=303909
						120:leaf=0.00285854,cover=340624
					60:[D_PUBLISHER_COEC<0.039999] yes=121,no=122,missing=122,gain=192.697,cover=19643.7
						121:leaf=-0.356953,cover=12.2861
						122:leaf=0.0240685,cover=19631.4
				30:[U_CATEGORY_MICRO_MAX_COEC<0.062999] yes=61,no=62,missing=62,gain=328.864,cover=36591.9
					61:[C_D_U_CATEGORY_CATEGORY_MEAN_C<11.785] yes=123,no=124,missing=124,gain=221.879,cover=9661.27
						123:leaf=-0.0453912,cover=3606.5
						124:leaf=-0.0140585,cover=6054.77
					62:[D_PUBLISHER_EC<6051.28] yes=125,no=126,missing=126,gain=298.164,cover=26930.7
						125:leaf=0.0120496,cover=7918.93
						126:leaf=-0.0110437,cover=19011.7
booster[54]:
0:[U_CATEGORY_MICRO_MAX_COEC<0.059999] yes=1,no=2,missing=2,gain=1957.37,cover=5.92509e+06
	1:[D_PUBLISHER_EC<3340.09] yes=3,no=4,missing=4,gain=879.094,cover=986433
		3:[C_D_U_CATEGORY_CATEGORY_MICRO_MEAN_COEC<0.031999] yes=7,no=8,missing=7,gain=718.13,cover=293750
			7:[U_CATEGORY_MAX_EC<1415.54] yes=15,no=16,missing=16,gain=448.648,cover=12286.3
				15:[U_CITY_EC<2656.55] yes=31,no=32,missing=32,gain=494.522,cover=7556.92
					31:[C_D_U_CATEGORY_CATEGORY_MEAN_C<0.330999] yes=63,no=64,missing=63,gain=326.277,cover=3433.7
						63:leaf=-0.0253361,cover=2735.4
						64:leaf=0.0512032,cover=698.304
					32:[C_D_U_CATEGORY_CATEGORY_MACRO_MEAN_COEC<0.004999] yes=65,no=66,missing=66,gain=283.569,cover=4123.22
						65:leaf=-0.0498278,cover=3479.21
						66:leaf=-0.122063,cover=644.017
				16:[WORD_COUNT<1061] yes=33,no=34,missing=34,gain=190.869,cover=4729.38
					33:[CAT_REL<0.058999] yes=67,no=68,missing=68,gain=227.39,cover=932.166
						67:leaf=-0.0180122,cover=790.037
						68:leaf=-0.155031,cover=142.129
					34:[U_CATEGORY_MICRO_MAX_COEC<0.057999] yes=69,no=70,missing=70,gain=207.017,cover=3797.21
						69:leaf=0.0238737,cover=2957.15
						70:leaf=-0.0323524,cover=840.067
			8:[D_CATEGORY_MAX_C<1006.52] yes=17,no=18,missing=18,gain=520.384,cover=281463
				17:[C_D_U_CATEGORY_CATEGORY_MAX_EC<44.96] yes=35,no=36,missing=36,gain=566.383,cover=64223.7
					35:[C_D_U_CATEGORY_CATEGORY_MACRO_MAX_COEC<0.027999] yes=71,no=72,missing=72,gain=223.311,cover=55809.7
						71:leaf=0.00648965,cover=55747.9
						72:leaf=-0.182176,cover=61.8093
					36:[D_KEYWORD_MEAN_EC<513.639] yes=73,no=74,missing=74,gain=332.993,cover=8413.96
						73:leaf=0.0540944,cover=4186.91
						74:leaf=0.0143042,cover=4227.06
				18:[C_D_U_CATEGORY_CATEGORY_MAX_EC<105.074] yes=37,no=38,missing=38,gain=546.798,cover=217240
					37:[TIME_OF_DAY<15] yes=75,no=76,missing=76,gain=328.697,cover=165136
						75:leaf=0.000886826,cover=91001.2
						76:leaf=-0.00808296,cover=74134.8
					38:[U_CITY_EC<777.324] yes=77,no=78,missing=78,gain=167.187,cover=52103.5
						77:leaf=0.0154671,cover=21132
						78:leaf=0.00393037,cover=30971.5
		4:[U_CATEGORY_MAX_C<9.821] yes=9,no=10,missing=10,gain=753.501,cover=692684
			9:[U_CITY_EC<4469.28] yes=19,no=20,missing=19,gain=568.892,cover=17656.4
				19:[U_CITY_EC<1071.34] yes=39,no=40,missing=40,gain=191.159,cover=14088.9
					39:[U_CITY_COEC<0.047999] yes=79,no=80,missing=80,gain=268.5,cover=7969.02
						79:leaf=0.0684389,cover=1769.27
						80:leaf=0.0242737,cover=6199.75
					40:[U_CITY_C<88.295] yes=81,no=82,missing=81,gain=163.397,cover=6119.9
						81:leaf=-0.00109092,cover=4051.65
						82:leaf=0.0334476,cover=2068.25
				20:[D_PUBLISHER_COEC<0.039999] yes=41,no=42,missing=41,gain=234.188,cover=3567.43
					41:[D_TITLEMD5_COEC<0.043999] yes=83,no=84,missing=84,gain=109.346,cover=250.652
						83:leaf=-0.0811915,cover=203.317
						84:leaf=-0.249431,cover=47.3349
					42:[U_AGE_COEC<0.076999] yes=85,no=86,missing=85,gain=186.682,cover=3316.78
						85:leaf=-0.0121669,cover=3302.97
						86:leaf=-0.367945,cover=13.8161
			10:[DOC_AGE<29] yes=21,no=22,missing=22,gain=776.948,cover=675027
				21:[U_CATEGORY_MAX_EC<3009.32] yes=43,no=44,missing=44,gain=620.882,cover=354538
					43:[CAT_REL<0.002999] yes=87,no=88,missing=88,gain=434.286,cover=219688
						87:leaf=-0.0116074,cover=85277.7
						88:leaf=-0.00248405,cover=134410
					44:[D_PUBLISHER_COEC<0.064999] yes=89,no=90,missing=89,gain=467.714,cover=134851
						89:leaf=-0.0233671,cover=42232.2
						90:leaf=-0.0106686,cover=92618.4
				22:[C_D_U_TITLEMD5_CATEGORY_MAX_C<0.056999] yes=45,no=46,missing=46,gain=474.226,cover=320489
					45:[TIME_OF_DAY<0.999999] yes=91,no=92,missing=92,gain=544.871,cover=119382
						91:leaf=-0.0359515,cover=6372.14
						92:leaf=-0.00589863,cover=113009
					46:[C_D_U_CATEGORY_CATEGORY_MACRO_MEAN_COEC<0.031999] yes=93,no=94,missing=94,gain=341.162,cover=201108
						93:leaf=0.000906983,cover=198698
						94:leaf=-0.0369429,cover=2409.29
	2:[C_D_U_TITLEMD5_CATEGORY_MAX_EC<0.135999] yes=5,no=6,missing=5,gain=2164.75,cover=4.93865e+06
		5:[D_CATEGORY_MEAN_EC<42858.3] yes=11,no=12,missing=12,gain=2594.03,cover=2.4244e+06
			11:[D_CATEGORY_MACRO_MAX_COEC<0.048999] yes=23,no=24,missing=24,gain=2205.03,cover=1.36373e+06
				23:[CAT_REL<0.030999] yes=47,no=48,missing=48,gain=1219.14,cover=613314
					47:[D_KEYWORD_MICRO_MEAN_COEC<0.070999] yes=95,no=96,missing=96,gain=648.519,cover=411042
						95:leaf=-0.00615249,cover=218215
						96:leaf=0.00180685,cover=192826
					48:[U_CATEGORY_MAX_C<53.004] yes=97,no=98,missing=98,gain=862.006,cover=202272
						97:leaf=0.0133359,cover=105192
						98:leaf=0.000269206,cover=97079.9
				24:[D_KEYWORD_MEAN_EC<3511.2] yes=49,no=50,missing=49,gain=1223.21,cover=750413
					49:[DOC_AGE<111] yes=99,no=100,missing=100,gain=831.255,cover=690743
						99:leaf=-0.00977529,cover=615327
						100:leaf=0.00134814,cover=75416.5
					50:[D_CATEGORY_MAX_EC<30622.5] yes=101,no=102,missing=102,gain=482.563,cover=59670
						101:leaf=-0.000255749,cover=38707.1
						102:leaf=0.0185819,cover=20962.9
			12:[U_CATEGORY_MACRO_MAX_COEC<0.010999] yes=25,no=26,missing=25,gain=1216.09,cover=1.06068e+06
				25:[DOC_AGE<4] yes=51,no=52,missing=52,gain=878.803,cover=967398
					51:[DAY_OF_WEEK<0.999999] yes=103,no=104,missing=104,gain=433.432,cover=175246
						103:leaf=0.0254136,cover=17149.8
						104:leaf=0.00867619,cover=158097
					52:[D_PUBLISHER_EC<88613.5] yes=105,no=106,missing=106,gain=634.713,cover=792151
						105:leaf=0.0019652,cover=765960
						106:leaf=0.017796,cover=26191.2
				26:[TIME_OF_DAY<0.999999] yes=53,no=54,missing=54,gain=474.769,cover=93277.4
					53:[C_D_U_TITLEMD5_CATEGORY_MAX_EC<0.047999] yes=107,no=108,missing=108,gain=234.893,cover=5027.11
						107:leaf=-0.0132102,cover=2178.37
						108:leaf=-0.0568362,cover=2848.74
					54:[U_CATEGORY_MAX_EC<67.424] yes=109,no=110,missing=110,gain=355.808,cover=88250.3
						109:leaf=0.062703,cover=739.019
						110:leaf=-0.00693039,cover=87511.3
		6:[U_CATEGORY_MACRO_MAX_COEC<0.005999] yes=13,no=14,missing=14,gain=1549.28,cover=2.51425e+06
			13:[U_CATEGORY_MICRO_MAX_COEC<0.072999] yes=27,no=28,missing=28,gain=554.676,cover=436279
				27:[U_CITY_COEC<0.015999] yes=55,no=56,missing=56,gain=387.557,cover=315945
					55:[U_CITY_EC<52.092] yes=111,no=112,missing=112,gain=336.946,cover=5039.26
						111:leaf=-0.0056147,cover=3727.94
						112:leaf=-0.064535,cover=1311.33
					56:[U_CATEGORY_MACRO_MAX_COEC<0.003999] yes=113,no=114,missing=114,gain=399.532,cover=310906
						113:leaf=0.0230731,cover=14725.6
						114:leaf=0.00619728,cover=296180
				28:[C_D_U_CATEGORY_GENDER_MICRO_MEAN_COEC<0.059999] yes=57,no=58,missing=57,gain=290.914,cover=120334
					57:[U_CITY_C<8.621] yes=115,no=116,missing=116,gain=242.986,cover=116072
						115:leaf=0.00230521,cover=12507.8
						116:leaf=0.0170611,cover=103565
					58:[U_CITY_C<54.427] yes=117,no=118,missing=117,gain=285.029,cover=4261.36
						117:leaf=-0.0356131,cover=2246.75
						118:leaf=0.0161777,cover=2014.61
			14:[D_PUBLISHER_EC<2328.84] yes=29,no=30,missing=30,gain=1450.88,cover=2.07797e+06
				29:[D_CATEGORY_MICRO_MAX_COEC<0.057999] yes=59,no=60,missing=60,gain=940.085,cover=422299
					59:[C_D_U_CATEGORY_CATEGORY_MEAN_C<0.058999] yes=119,no=120,missing=120,gain=211.281,cover=57182.4
						119:leaf=-0.0552404,cover=376.305
						120:leaf=0.0198457,cover=56806.1
					60:[DOC_AGE<7] yes=121,no=122,missing=122,gain=429.782,cover=365116
						121:leaf=0.0151423,cover=41496.8
						122:leaf=0.00433263,cover=323619
				30:[C_D_U_TITLEMD5_CATEGORY_MAX_C<0.312999] yes=61,no=62,missing=62,gain=1448.97,cover=1.65567e+06
					61:[C_D_U_CATEGORY_CATEGORY_MACRO_MEAN_COEC<0.009999] yes=123,no=124,missing=124,gain=1674.83,cover=1.30592e+06
						123:leaf=0.00219655,cover=796147
						124:leaf=-0.00514449,cover=509776
					62:[C_D_U_CATEGORY_CATEGORY_MACRO_MEAN_COEC<0.018999] yes=125,no=126,missing=126,gain=647.987,cover=349752
						125:leaf=0.00918266,cover=256020
						126:leaf=-0.000535472,cover=93731.7
booster[55]:
0:[D_TITLEMD5_COEC<0.142999] yes=1,no=2,missing=1,gain=1849.46,cover=5.92099e+06
	1:[DOC_AGE<89] yes=3,no=4,missing=4,gain=1782.05,cover=5.40336e+06
		3:[DOC_AGE<2] yes=7,no=8,missing=8,gain=1981.27,cover=4.71218e+06
			7:[D_PUBLISHER_EC<21.126] yes=15,no=16,missing=15,gain=370.328,cover=283802
				15:[U_CITY_EC<2680.05] yes=31,no=32,missing=31,gain=240.948,cover=8407.92
					31:[U_CATEGORY_MACRO_MAX_COEC<0.003999] yes=61,no=62,missing=61,gain=202.15,cover=6060.08
						61:leaf=0.0500916,cover=642.662
						62:leaf=-0.00918503,cover=5417.42
					32:[C_D_U_CATEGORY_CATEGORY_MICRO_MEAN_COEC<0.052999] yes=63,no=64,missing=64,gain=180.441,cover=2347.84
						63:leaf=0.00506722,cover=631.735
						64:leaf=-0.0574321,cover=1716.1
				16:[D_TITLEMD5_EC<8.871] yes=33,no=34,missing=33,gain=397.738,cover=275394
					33:[D_KEYWORD_MACRO_MEAN_COEC<0.065999] yes=65,no=66,missing=65,gain=647.875,cover=84270.3
						65:leaf=0.00975053,cover=70675.2
						66:leaf=0.0335874,cover=13595.2
					34:[D_TITLEMD5_C<4.456] yes=67,no=68,missing=68,gain=488.141,cover=191123
						67:leaf=0.0001532,cover=92901.4
						68:leaf=0.0102646,cover=98221.9
			8:[C_D_U_TITLEMD5_CATEGORY_MAX_EC<0.317999] yes=17,no=18,missing=17,gain=1740.07,cover=4.42838e+06
				17:[D_CATEGORY_MEAN_EC<49833.5] yes=35,no=36,missing=36,gain=1781.2,cover=2.52021e+06
					35:[C_D_U_TITLEMD5_CATEGORY_MACRO_MAX_COEC<0.007999] yes=69,no=70,missing=70,gain=1654.3,cover=1.60646e+06
						69:leaf=-0.00227561,cover=903348
						70:leaf=-0.00874408,cover=703114
					36:[D_PUBLISHER_EC<32766.5] yes=71,no=72,missing=71,gain=1147.98,cover=913752
						71:leaf=0.00250842,cover=678830
						72:leaf=-0.0056019,cover=234923
				18:[D_PUBLISHER_EC<2188.92] yes=37,no=38,missing=38,gain=1211.49,cover=1.90817e+06
					37:[D_CATEGORY_MACRO_MEAN_COEC<0.053999] yes=73,no=74,missing=74,gain=569.362,cover=245545
						73:leaf=0.0206504,cover=28867.2
						74:leaf=0.00570021,cover=216678
					38:[U_CATEGORY_MACRO_MAX_COEC<0.013999] yes=75,no=76,missing=76,gain=1396.04,cover=1.66262e+06
						75:leaf=0.001151,cover=1.41294e+06
						76:leaf=-0.00696032,cover=249680
		4:[D_CATEGORY_MICRO_MEAN_COEC<0.070999] yes=9,no=10,missing=9,gain=546.982,cover=691173
			9:[C_D_U_CATEGORY_CATEGORY_MICRO_MEAN_COEC<0.040999] yes=19,no=20,missing=19,gain=418.618,cover=274686
				19:[D_KEYWORD_MICRO_MEAN_COEC<0.070999] yes=39,no=40,missing=39,gain=273.005,cover=44672.5
					39:[U_CITY_C<54.808] yes=77,no=78,missing=78,gain=276.891,cover=23404.1
						77:leaf=0.0203552,cover=9033.53
						78:leaf=-0.00198657,cover=14370.6
					40:[U_CATEGORY_MAX_EC<4702.88] yes=79,no=80,missing=79,gain=219.424,cover=21268.3
						79:leaf=-0.00760966,cover=20870
						80:leaf=-0.0824423,cover=398.345
				20:[TIME_OF_DAY<19] yes=41,no=42,missing=42,gain=433.769,cover=230013
					41:[DOC_AGE<127] yes=81,no=82,missing=82,gain=343.516,cover=158949
						81:leaf=0.00835828,cover=85492.6
						82:leaf=0.0176829,cover=73456.8
					42:[C_D_U_PUBLISHER_AGE_EC<28.048] yes=83,no=84,missing=84,gain=172.884,cover=71063.8
						83:leaf=0.0446029,cover=996.717
						84:leaf=0.00268061,cover=70067.1
			10:[D_TITLEMD5_C<275.774] yes=21,no=22,missing=21,gain=645.374,cover=416487
				21:[C_D_U_TITLEMD5_CATEGORY_MAX_EC<0.047999] yes=43,no=44,missing=43,gain=429.108,cover=364872
					43:[D_TITLEMD5_C<77.307] yes=85,no=86,missing=85,gain=337.581,cover=121490
						85:leaf=-0.00666797,cover=97297.1
						86:leaf=0.00653152,cover=24193.1
					44:[CAT_REL<0.013999] yes=87,no=88,missing=88,gain=450.265,cover=243382
						87:leaf=-0.000579336,cover=136167
						88:leaf=0.00808456,cover=107215
				22:[D_KEYWORD_MICRO_MAX_COEC<0.103999] yes=45,no=46,missing=46,gain=217.791,cover=51615.2
					45:[U_CATEGORY_MACRO_MAX_COEC<0.014999] yes=89,no=90,missing=89,gain=114.951,cover=12769.2
						89:leaf=0.0268522,cover=11771.7
						90:leaf=-0.00849626,cover=997.497
					46:[U_CITY_EC<20850.4] yes=91,no=92,missing=92,gain=179.523,cover=38846
						91:leaf=0.0134302,cover=27399.2
						92:leaf=-0.00148117,cover=11446.8
	2:[D_PUBLISHER_C<9.536] yes=5,no=6,missing=6,gain=1163.46,cover=517631
		5:[C_D_U_CATEGORY_GENDER_MEAN_EC<104.292] yes=11,no=12,missing=12,gain=236.929,cover=26271
			11:[D_PUBLISHER_COEC<0.039999] yes=23,no=24,missing=24,gain=22.5201,cover=35.1825
				23:leaf=-0.0782109,cover=6.04163
				24:[C_D_U_TITLEMD5_CATEGORY_MACRO_MAX_COEC<1.106] yes=47,no=48,missing=48,gain=2.7615,cover=29.1409
					47:leaf=-0.359073,cover=14.2541
					48:leaf=-0.235803,cover=14.8867
			12:[D_TITLEMD5_C<0.994999] yes=25,no=26,missing=26,gain=212.871,cover=26235.8
				25:[D_CATEGORY_MEAN_EC<32927.3] yes=49,no=50,missing=50,gain=324.492,cover=9452.13
					49:[CAT_REL<0.042999] yes=93,no=94,missing=94,gain=341.369,cover=4870.87
						93:leaf=-0.078006,cover=1838.96
						94:leaf=-0.0233933,cover=3031.91
					50:[C_D_U_CATEGORY_GENDER_MEAN_EC<1015.34] yes=95,no=96,missing=95,gain=196.933,cover=4581.26
						95:leaf=-0.00522098,cover=4550.66
						96:leaf=-0.255738,cover=30.5981
				26:[U_CATEGORY_MACRO_MAX_COEC<0.035999] yes=51,no=52,missing=51,gain=136.564,cover=16783.7
					51:[U_GENDER_C<3581.73] yes=97,no=98,missing=97,gain=128.418,cover=16755.3
						97:leaf=-0.00791643,cover=16540.3
						98:leaf=0.0696893,cover=215.018
					52:[D_TITLEMD5_COEC<0.149999] yes=99,no=100,missing=100,gain=47.5582,cover=28.3669
						99:leaf=-0.00319264,cover=7.40648
						100:leaf=-0.296659,cover=20.9605
		6:[C_D_U_TITLEMD5_CATEGORY_MICRO_MAX_COEC<0.069999] yes=13,no=14,missing=14,gain=1297.61,cover=491360
			13:[D_TITLEMD5_C<2.865] yes=27,no=28,missing=28,gain=481.337,cover=60089.3
				27:[C_D_U_TITLEMD5_CATEGORY_MAX_EC<0.015999] yes=53,no=54,missing=54,gain=165.173,cover=9886.58
					53:[C_D_U_PUBLISHER_GENDER_C<0.721999] yes=101,no=102,missing=102,gain=188.062,cover=6507.42
						101:leaf=-0.308378,cover=19.8497
						102:leaf=-0.00755916,cover=6487.58
					54:[C_D_U_CATEGORY_CATEGORY_MAX_C<0.162999] yes=103,no=104,missing=104,gain=139.96,cover=3379.15
						103:leaf=-0.182134,cover=33.3497
						104:leaf=0.0207796,cover=3345.8
				28:[CAT_REL<0.023999] yes=55,no=56,missing=56,gain=138.192,cover=50202.8
					55:[C_D_U_CATEGORY_GENDER_MACRO_MEAN_COEC<0.049999] yes=105,no=106,missing=106,gain=167.328,cover=31194.7
						105:leaf=-0.326889,cover=12.8365
						106:leaf=0.0209868,cover=31181.9
					56:[C_D_U_TITLEMD5_CATEGORY_MAX_EC<1.869] yes=107,no=108,missing=108,gain=141.859,cover=19008
						107:leaf=0.0324165,cover=18860.8
						108:leaf=-0.0658289,cover=147.231
			14:[D_TITLEMD5_COEC<0.209999] yes=29,no=30,missing=30,gain=826.211,cover=431271
				29:[U_CITY_COEC<0.154999] yes=57,no=58,missing=57,gain=445.259,cover=364028
					57:[D_KEYWORD_MEAN_EC<1409.16] yes=109,no=110,missing=109,gain=381.556,cover=353586
						109:leaf=-0.000301543,cover=187470
						110:leaf=0.0062804,cover=166117
					58:[C_D_U_CATEGORY_CATEGORY_MACRO_MAX_COEC<0.021999] yes=111,no=112,missing=111,gain=78.2697,cover=10441.8
						111:leaf=0.0249386,cover=10246.5
						112:leaf=-0.0388353,cover=195.273
				30:[D_KEYWORD_MAX_C<9.817] yes=59,no=60,missing=60,gain=351.115,cover=67242.2
					59:[U_AGE_EC<176831] yes=113,no=114,missing=113,gain=232.898,cover=6220.33
						113:leaf=-0.00591489,cover=6195.09
						114:leaf=-0.304463,cover=25.2411
					60:[CAT_REL<0.013999] yes=115,no=116,missing=116,gain=234.33,cover=61021.9
						115:leaf=0.0114188,cover=29792.5
						116:leaf=0.0238165,cover=31229.4
booster[56]:
0:[D_KEYWORD_MACRO_MEAN_COEC<0.038999] yes=1,no=2,missing=2,gain=1909.62,cover=5.92315e+06
	1:[WORD_COUNT<3848] yes=3,no=4,missing=4,gain=686.101,cover=173985
		3:[DOC_AGE<63] yes=7,no=8,missing=8,gain=514.752,cover=134511
			7:[U_CATEGORY_MAX_C<14.021] yes=15,no=16,missing=15,gain=632.071,cover=118003
				15:[C_D_U_CATEGORY_AGE_MEAN_EC<1194.74] yes=31,no=32,missing=32,gain=283.696,cover=16769.7
					31:[WORD_COUNT<823] yes=63,no=64,missing=64,gain=144.406,cover=495.23
						63:leaf=-0.121952,cover=33.2472
						64:leaf=0.0912828,cover=461.982
					32:[U_CITY_EC<8572.11] yes=65,no=66,missing=65,gain=293.841,cover=16274.5
						65:leaf=0.00597153,cover=13587.2
						66:leaf=-0.0302126,cover=2687.28
				16:[D_KEYWORD_MACRO_MAX_COEC<0.007999] yes=33,no=34,missing=34,gain=448.663,cover=101233
					33:[TIME_OF_DAY<0.999999] yes=67,no=68,missing=68,gain=265.287,cover=57273.7
						67:leaf=-0.0448053,cover=5798.02
						68:leaf=-0.0222416,cover=51475.7
					34:[D_CATEGORY_MACRO_MAX_COEC<0.038999] yes=69,no=70,missing=70,gain=287.392,cover=43959.7
						69:leaf=0.000630447,cover=14167
						70:leaf=-0.0166704,cover=29792.7
			8:[C_D_U_CATEGORY_CATEGORY_MACRO_MEAN_COEC<0.002999] yes=17,no=18,missing=18,gain=286.341,cover=16507.8
				17:[U_CITY_COEC<0.081999] yes=35,no=36,missing=35,gain=264.037,cover=999.936
					35:[D_TITLEMD5_EC<90.643] yes=71,no=72,missing=72,gain=86.0636,cover=767.516
						71:leaf=-0.0613904,cover=633.685
						72:leaf=-0.149664,cover=133.831
					36:[WORD_COUNT<2206] yes=73,no=74,missing=74,gain=229.021,cover=232.42
						73:leaf=0.0904236,cover=191.6
						74:leaf=-0.167863,cover=40.8201
				18:[U_CITY_EC<2992.14] yes=37,no=38,missing=37,gain=242.703,cover=15507.9
					37:[U_CATEGORY_MACRO_MAX_COEC<0.006999] yes=75,no=76,missing=76,gain=230.692,cover=11196.8
						75:leaf=0.0294814,cover=5264.11
						76:leaf=0.000723711,cover=5932.73
					38:[D_CATEGORY_MICRO_MAX_COEC<0.039999] yes=77,no=78,missing=78,gain=215.463,cover=4311.06
						77:leaf=0.0541404,cover=421.658
						78:leaf=-0.0210401,cover=3889.4
		4:[C_D_U_CATEGORY_CATEGORY_MAX_C<0.074999] yes=9,no=10,missing=10,gain=395.466,cover=39474
			9:[U_CITY_COEC<0.071999] yes=19,no=20,missing=20,gain=235.262,cover=4983.83
				19:[U_CITY_COEC<0.055999] yes=39,no=40,missing=40,gain=228.565,cover=2286.97
					39:[D_KEYWORD_MEAN_EC<1219.95] yes=79,no=80,missing=80,gain=233.917,cover=942.071
						79:leaf=-0.0218578,cover=896.512
						80:leaf=0.208033,cover=45.5592
					40:[DAY_OF_WEEK<6] yes=81,no=82,missing=82,gain=183.608,cover=1344.9
						81:leaf=-0.0887093,cover=1177.06
						82:leaf=0.0229638,cover=167.843
				20:[D_KEYWORD_MAX_C<24.39] yes=41,no=42,missing=42,gain=193.136,cover=2696.86
					41:[D_PUBLISHER_EC<4090.92] yes=83,no=84,missing=84,gain=166.176,cover=2512.11
						83:leaf=0.0229363,cover=1542.54
						84:leaf=-0.0298723,cover=969.578
					42:[U_CATEGORY_MAX_C<131.615] yes=85,no=86,missing=86,gain=123.784,cover=184.743
						85:leaf=-0.131583,cover=164.859
						86:leaf=0.127852,cover=19.8836
			10:[C_D_U_CATEGORY_AGE_MICRO_MEAN_COEC<0.052999] yes=21,no=22,missing=22,gain=340.039,cover=34490.1
				21:[U_CATEGORY_MICRO_MAX_COEC<0.076999] yes=43,no=44,missing=44,gain=166.994,cover=673.777
					43:[C_D_U_PUBLISHER_AGE_C<164.66] yes=87,no=88,missing=88,gain=171.235,cover=618.229
						87:leaf=0.10065,cover=596.923
						88:leaf=-0.18221,cover=21.3063
					44:[U_CITY_COEC<0.150999] yes=89,no=90,missing=89,gain=94.9541,cover=55.548
						89:leaf=-0.154329,cover=44.413
						90:leaf=0.161857,cover=11.135
				22:[D_TITLEMD5_EC<49.995] yes=45,no=46,missing=45,gain=301.702,cover=33816.3
					45:[D_CATEGORY_MICRO_MEAN_COEC<0.087999] yes=91,no=92,missing=92,gain=283.323,cover=22811.6
						91:leaf=0.0116808,cover=22581.9
						92:leaf=-0.0997058,cover=229.699
					46:[D_CATEGORY_MICRO_MEAN_COEC<0.056999] yes=93,no=94,missing=94,gain=269.218,cover=11004.7
						93:leaf=0.00454628,cover=6051.6
						94:leaf=-0.0268902,cover=4953.13
	2:[U_CATEGORY_MACRO_MAX_COEC<0.006999] yes=5,no=6,missing=6,gain=1674.45,cover=5.74916e+06
		5:[CAT_REL<0.013999] yes=11,no=12,missing=12,gain=1841.68,cover=2.23237e+06
			11:[C_D_U_TITLEMD5_CATEGORY_MAX_C<0.032999] yes=23,no=24,missing=23,gain=1089.37,cover=1.09577e+06
				23:[TIME_OF_DAY<21] yes=47,no=48,missing=48,gain=936.144,cover=712108
					47:[D_KEYWORD_MICRO_MEAN_COEC<0.067999] yes=95,no=96,missing=95,gain=705.352,cover=590847
						95:leaf=-0.00636297,cover=165377
						96:leaf=0.00133307,cover=425470
					48:[C_D_U_TITLEMD5_CATEGORY_MAX_EC<0.026999] yes=97,no=98,missing=98,gain=330.209,cover=121261
						97:leaf=-0.0204852,cover=25878.6
						98:leaf=-0.00774872,cover=95382.5
				24:[U_CATEGORY_MICRO_MAX_COEC<0.066999] yes=49,no=50,missing=50,gain=517.265,cover=383664
					49:[D_TITLEMD5_C<43.568] yes=99,no=100,missing=100,gain=331.106,cover=231689
						99:leaf=0.0169229,cover=12618.9
						100:leaf=0.000265169,cover=219070
					50:[D_CATEGORY_MACRO_MEAN_COEC<0.054999] yes=101,no=102,missing=102,gain=257.867,cover=151975
						101:leaf=0.0282844,cover=6424.92
						102:leaf=0.00781438,cover=145550
			12:[WORD_COUNT<2101] yes=25,no=26,missing=26,gain=1257.79,cover=1.1366e+06
				25:[D_KEYWORD_MACRO_MEAN_COEC<0.075999] yes=51,no=52,missing=51,gain=903.409,cover=526361
					51:[DOC_AGE<5] yes=103,no=104,missing=104,gain=694.151,cover=411590
						103:leaf=0.00878135,cover=71523.1
						104:leaf=-0.0020567,cover=340067
					52:[DOC_AGE<17] yes=105,no=106,missing=106,gain=331.6,cover=114771
						105:leaf=0.0163266,cover=46893.2
						106:leaf=0.00539193,cover=67877.5
				26:[U_CATEGORY_MAX_C<161.114] yes=53,no=54,missing=54,gain=757.737,cover=610239
					53:[D_PUBLISHER_C<42.019] yes=107,no=108,missing=107,gain=720.035,cover=595156
						107:leaf=0.00257327,cover=127141
						108:leaf=0.0110596,cover=468015
					54:[D_PUBLISHER_EC<68980.9] yes=109,no=110,missing=110,gain=299.158,cover=15082.8
						109:leaf=-0.00778084,cover=12981.6
						110:leaf=-0.0484446,cover=2101.29
		6:[D_PUBLISHER_EC<6621.81] yes=13,no=14,missing=13,gain=1914.24,cover=3.51679e+06
			13:[C_D_U_CATEGORY_CATEGORY_MEAN_C<6.666] yes=27,no=28,missing=28,gain=1565.37,cover=1.5722e+06
				27:[C_D_U_TITLEMD5_CATEGORY_MAX_EC<0.026999] yes=55,no=56,missing=55,gain=1561.89,cover=1.11871e+06
					55:[U_CITY_EC<334.277] yes=111,no=112,missing=111,gain=577.398,cover=263132
						111:leaf=-0.00140745,cover=111324
						112:leaf=-0.0108891,cover=151808
					56:[D_CATEGORY_MICRO_MEAN_COEC<0.048999] yes=113,no=114,missing=114,gain=822.061,cover=855578
						113:leaf=0.0148431,cover=46627
						114:leaf=0.00118795,cover=808951
				28:[U_CITY_COEC<0.034999] yes=57,no=58,missing=57,gain=1176.17,cover=453491
					57:[U_CATEGORY_MICRO_MAX_COEC<0.059999] yes=115,no=116,missing=115,gain=431.311,cover=131080
						115:leaf=-0.00544193,cover=84205
						116:leaf=0.00652601,cover=46875.2
					58:[D_CATEGORY_MAX_EC<8532.2] yes=117,no=118,missing=118,gain=565.409,cover=322411
						117:leaf=-0.0178986,cover=7067.65
						118:leaf=0.0106991,cover=315343
			14:[D_TITLEMD5_EC<3102.16] yes=29,no=30,missing=30,gain=1655.1,cover=1.94459e+06
				29:[U_CATEGORY_MICRO_MAX_COEC<0.083999] yes=59,no=60,missing=59,gain=1509.45,cover=1.38981e+06
					59:[D_CATEGORY_MICRO_MAX_COEC<0.079999] yes=119,no=120,missing=120,gain=1219.29,cover=1.25417e+06
						119:leaf=-0.00371867,cover=880328
						120:leaf=-0.0105352,cover=373840
					60:[U_CATEGORY_MAX_EC<694.29] yes=121,no=122,missing=122,gain=424.269,cover=135645
						121:leaf=0.0092561,cover=91234
						122:leaf=-0.0026617,cover=44410.9
				30:[D_PUBLISHER_EC<89593.5] yes=61,no=62,missing=62,gain=1567.15,cover=554776
					61:[D_CATEGORY_MACRO_MAX_COEC<0.074999] yes=123,no=124,missing=124,gain=743.036,cover=464398
						123:leaf=0.00207283,cover=324721
						124:leaf=-0.00664946,cover=139677
					62:[TIME_OF_DAY<15] yes=125,no=126,missing=126,gain=550.535,cover=90378.1
						125:leaf=0.02352,cover=35614
						126:leaf=0.00754771,cover=54764.1
booster[57]:
0:[U_CITY_COEC<0.080999] yes=1,no=2,missing=1,gain=1774.74,cover=5.91902e+06
	1:[U_CATEGORY_MICRO_MAX_COEC<0.084999] yes=3,no=4,missing=3,gain=1505.42,cover=4.82893e+06
		3:[U_CATEGORY_MACRO_MAX_COEC<0.005999] yes=7,no=8,missing=7,gain=1572.98,cover=4.46961e+06
			7:[CAT_REL<0.027999] yes=15,no=16,missing=16,gain=1333.28,cover=1.5824e+06
				15:[D_KEYWORD_MEAN_C<33.271] yes=31,no=32,missing=32,gain=1424.51,cover=1.21727e+06
					31:[C_D_U_CATEGORY_CATEGORY_MICRO_MAX_COEC<0.042999] yes=63,no=64,missing=64,gain=514.773,cover=146080
						63:leaf=-0.0268374,cover=14905.3
						64:leaf=-0.0072265,cover=131175
					32:[D_CATEGORY_MACRO_MAX_COEC<0.056999] yes=65,no=66,missing=65,gain=579.873,cover=1.07119e+06
						65:leaf=0.00368254,cover=522690
						66:leaf=-0.000972138,cover=548497
				16:[WORD_COUNT<1414] yes=33,no=34,missing=34,gain=702.443,cover=365128
					33:[D_TITLEMD5_C<2.128] yes=67,no=68,missing=68,gain=296.698,cover=86671.3
						67:leaf=-0.00985604,cover=26072.1
						68:leaf=0.00290148,cover=60599.2
					34:[D_TITLEMD5_C<0.931999] yes=69,no=70,missing=70,gain=400.001,cover=278457
						69:leaf=0.00120602,cover=49347.7
						70:leaf=0.0111316,cover=229109
			8:[CAT_REL<0.090999] yes=17,no=18,missing=18,gain=1680.65,cover=2.88721e+06
				17:[C_D_U_TITLEMD5_CATEGORY_MAX_EC<1.328] yes=35,no=36,missing=35,gain=1740.46,cover=2.41489e+06
					35:[C_D_U_TITLEMD5_CATEGORY_MACRO_MAX_COEC<0.012999] yes=71,no=72,missing=72,gain=1198.18,cover=1.76966e+06
						71:leaf=-0.00311941,cover=1.16871e+06
						72:leaf=-0.00861397,cover=600950
					36:[D_CATEGORY_MACRO_MAX_COEC<0.075999] yes=73,no=74,missing=74,gain=452.308,cover=645225
						73:leaf=0.00247524,cover=505273
						74:leaf=-0.00394896,cover=139952
				18:[D_CATEGORY_MEAN_EC<30743.5] yes=37,no=38,missing=38,gain=1329.35,cover=472325
					37:[C_D_U_CATEGORY_CATEGORY_MICRO_MAX_COEC<0.068999] yes=75,no=76,missing=76,gain=648.206,cover=172775
						75:leaf=0.00219996,cover=64422.6
						76:leaf=0.0148665,cover=108353
					38:[D_CATEGORY_MICRO_MAX_COEC<0.073999] yes=77,no=78,missing=78,gain=1009.59,cover=299549
						77:leaf=0.00377914,cover=182478
						78:leaf=-0.00811888,cover=117071
		4:[U_CITY_EC<1266.48] yes=9,no=10,missing=10,gain=673.012,cover=359322
			9:[U_AGE_COEC<0.076999] yes=19,no=20,missing=19,gain=392.123,cover=90713.6
				19:[D_TITLEMD5_C<0.994999] yes=39,no=40,missing=39,gain=308.24,cover=85104.2
					39:[U_AGE_C<11367.9] yes=79,no=80,missing=80,gain=294.11,cover=10354.3
						79:leaf=0.10277,cover=203.035
						80:leaf=-0.0184965,cover=10151.3
					40:[U_GENDER_EC<32731] yes=81,no=82,missing=82,gain=177.879,cover=74749.9
						81:leaf=-0.405811,cover=9.67843
						82:leaf=0.00235859,cover=74740.2
				20:[U_AGE_COEC<0.078999] yes=41,no=42,missing=42,gain=334.283,cover=5609.43
					41:[C_D_U_PUBLISHER_GENDER_EC<15.303] yes=83,no=84,missing=84,gain=163.792,cover=5248.28
						83:leaf=0.0171851,cover=565.203
						84:leaf=-0.0397774,cover=4683.08
					42:[C_D_U_CATEGORY_GENDER_MAX_EC<544.499] yes=85,no=86,missing=86,gain=175.623,cover=361.146
						85:leaf=-0.187272,cover=24.6063
						86:leaf=0.0847016,cover=336.54
			10:[C_D_U_PUBLISHER_GENDER_COEC<0.099999] yes=21,no=22,missing=22,gain=593.333,cover=268608
				21:[U_CITY_EC<2107.46] yes=43,no=44,missing=44,gain=315.072,cover=5865.59
					43:[TIME_OF_DAY<22] yes=87,no=88,missing=88,gain=248.872,cover=404.226
						87:leaf=0.0796474,cover=385.217
						88:leaf=-0.282323,cover=19.0095
					44:[U_CITY_EC<4460.09] yes=89,no=90,missing=90,gain=248.627,cover=5461.37
						89:leaf=-0.0885371,cover=628.67
						90:leaf=-0.0217206,cover=4832.7
				22:[U_CATEGORY_MAX_C<61.417] yes=45,no=46,missing=46,gain=600.573,cover=262742
					45:[TIME_OF_DAY<23] yes=91,no=92,missing=92,gain=396.314,cover=187622
						91:leaf=0.0131841,cover=177067
						92:leaf=-0.00676109,cover=10555.7
					46:[C_D_U_PUBLISHER_AGE_C<58.155] yes=93,no=94,missing=94,gain=537.128,cover=75120.1
						93:leaf=0.0440379,cover=2852.12
						94:leaf=-0.000199222,cover=72268
	2:[U_CITY_C<45.623] yes=5,no=6,missing=6,gain=781.178,cover=1.09009e+06
		5:[U_CITY_COEC<0.159999] yes=11,no=12,missing=12,gain=1022.8,cover=668858
			11:[D_PUBLISHER_COEC<0.047999] yes=23,no=24,missing=23,gain=544.992,cover=551904
				23:[U_CITY_EC<18.498] yes=47,no=48,missing=48,gain=360.392,cover=72489.8
					47:[U_CATEGORY_MAX_EC<2967.26] yes=95,no=96,missing=95,gain=227.673,cover=2881.09
						95:leaf=-0.0322866,cover=2541.06
						96:leaf=-0.119337,cover=340.029
					48:[CAT_REL<0.084999] yes=97,no=98,missing=98,gain=340.191,cover=69608.7
						97:leaf=-0.00960784,cover=58192.9
						98:leaf=0.0092717,cover=11415.8
				24:[CAT_REL<0.036999] yes=49,no=50,missing=50,gain=409.988,cover=479415
					49:[DOC_AGE<92] yes=99,no=100,missing=100,gain=433.1,cover=337795
						99:leaf=-0.00192708,cover=293537
						100:leaf=0.00868474,cover=44257.9
					50:[D_CATEGORY_MAX_C<6986.04] yes=101,no=102,missing=102,gain=256.299,cover=141620
						101:leaf=0.00686315,cover=134345
						102:leaf=-0.0124077,cover=7274.39
			12:[U_CITY_C<8.479] yes=25,no=26,missing=26,gain=316.954,cover=116953
				25:[C_D_U_TITLEMD5_CITY_C<0.175999] yes=51,no=52,missing=51,gain=228.391,cover=58103
					51:[C_D_U_TITLEMD5_CATEGORY_MAX_C<0.247999] yes=103,no=104,missing=104,gain=226.538,cover=57893.2
						103:leaf=0.00122077,cover=39036
						104:leaf=0.0145685,cover=18857.2
					52:[C_D_U_TITLEMD5_CATEGORY_MICRO_MAX_COEC<0.191999] yes=105,no=106,missing=105,gain=198.71,cover=209.78
						105:leaf=-0.0816311,cover=204.753
						106:leaf=-0.665624,cover=5.02639
				26:[U_CITY_COEC<0.239999] yes=53,no=54,missing=54,gain=224.801,cover=58850.3
					53:[D_PUBLISHER_COEC<0.036999] yes=107,no=108,missing=107,gain=126.499,cover=44517.1
						107:leaf=-0.00968171,cover=2516.04
						108:leaf=0.0133997,cover=42001.1
					54:[U_AGE_COEC<0.077999] yes=109,no=110,missing=110,gain=115.634,cover=14333.2
						109:leaf=0.0520088,cover=1580.13
						110:leaf=0.0233295,cover=12753
		6:[U_CATEGORY_MAX_EC<2008.76] yes=13,no=14,missing=13,gain=847.346,cover=421233
			13:[U_CATEGORY_MAX_EC<152.908] yes=27,no=28,missing=28,gain=518.701,cover=344490
				27:[U_CITY_COEC<0.239999] yes=55,no=56,missing=56,gain=360.719,cover=14524.7
					55:[U_CATEGORY_MACRO_MAX_COEC<0.004999] yes=111,no=112,missing=112,gain=178.044,cover=13878.3
						111:leaf=0.0042936,cover=3284.16
						112:leaf=0.0309441,cover=10594.2
					56:[D_KEYWORD_MAX_EC<2428.63] yes=113,no=114,missing=114,gain=1.17533,cover=646.388
						113:leaf=0.101444,cover=640.853
						114:leaf=0.0432057,cover=5.53493
				28:[TIME_OF_DAY<3] yes=57,no=58,missing=58,gain=422.519,cover=329965
					57:[U_GENDER_C<2679.57] yes=115,no=116,missing=116,gain=287.994,cover=49768.9
						115:leaf=-0.089646,cover=352.879
						116:leaf=0.000888433,cover=49416
					58:[TIME_OF_DAY<15] yes=117,no=118,missing=118,gain=397.894,cover=280196
						117:leaf=0.0149225,cover=110239
						118:leaf=0.00720849,cover=169957
			14:[C_D_U_CATEGORY_CATEGORY_MICRO_MAX_COEC<0.064999] yes=29,no=30,missing=30,gain=321.931,cover=76742.8
				29:[U_GENDER_C<3271.16] yes=59,no=60,missing=59,gain=289.69,cover=32276.7
					59:[C_D_U_TITLEMD5_CATEGORY_MAX_EC<0.134999] yes=119,no=120,missing=119,gain=229.993,cover=32041.8
						119:leaf=-0.0267625,cover=5861.31
						120:leaf=-0.00484936,cover=26180.5
					60:[C_D_U_CATEGORY_AGE_MICRO_MAX_COEC<0.094999] yes=121,no=122,missing=121,gain=174.059,cover=234.911
						121:leaf=-0.15729,cover=197.746
						122:leaf=0.0768351,cover=37.1642
				30:[D_PUBLISHER_EC<7343.83] yes=61,no=62,missing=61,gain=280.604,cover=44466.1
					61:[U_CITY_COEC<0.095999] yes=123,no=124,missing=124,gain=140.112,cover=19720.3
						123:leaf=0.0170241,cover=15077.2
						124:leaf=-0.00284209,cover=4643.11
					62:[TIME_OF_DAY<4] yes=125,no=126,missing=126,gain=212.959,cover=24745.9
						125:leaf=-0.0251914,cover=3868.3
						126:leaf=0.000350428,cover=20877.6
booster[58]:
0:[C_D_U_PUBLISHER_AGE_COEC<0.075999] yes=1,no=2,missing=1,gain=1748.51,cover=5.9119e+06
	1:[DOC_AGE<73] yes=3,no=4,missing=4,gain=1680.25,cover=5.67612e+06
		3:[DOC_AGE<2] yes=7,no=8,missing=8,gain=1819.78,cover=4.61224e+06
			7:[D_KEYWORD_MEAN_EC<792.195] yes=15,no=16,missing=16,gain=374.09,cover=315242
				15:[C_D_U_CATEGORY_CATEGORY_MEAN_C<0.198999] yes=31,no=32,missing=32,gain=300.688,cover=128454
					31:[CAT_REL<0.044999] yes=63,no=64,missing=64,gain=305.242,cover=16114
						63:leaf=-0.0182648,cover=12223.4
						64:leaf=0.0138926,cover=3890.59
					32:[D_TITLEMD5_EC<5.783] yes=65,no=66,missing=65,gain=308.941,cover=112341
						65:leaf=0.0114023,cover=38267.5
						66:leaf=0.00033712,cover=74073
				16:[DAY_OF_WEEK<0.999999] yes=33,no=34,missing=34,gain=390.784,cover=186788
					33:[D_TITLEMD5_EC<49.591] yes=67,no=68,missing=68,gain=222.901,cover=19234.1
						67:leaf=0.0352153,cover=8242.54
						68:leaf=0.0134603,cover=10991.6
					34:[C_D_U_CATEGORY_CATEGORY_MICRO_MEAN_COEC<0.089999] yes=69,no=70,missing=69,gain=335.697,cover=167554
						69:leaf=0.00571089,cover=139112
						70:leaf=0.0176339,cover=28442
			8:[U_CITY_COEC<0.025999] yes=17,no=18,missing=18,gain=1432.17,cover=4.297e+06
				17:[U_CITY_EC<111.529] yes=35,no=36,missing=36,gain=939.132,cover=146608
					35:[D_KEYWORD_MICRO_MEAN_COEC<0.064999] yes=71,no=72,missing=71,gain=351.359,cover=88156
						71:leaf=0.00972945,cover=14262.7
						72:leaf=-0.00741351,cover=73893.3
					36:[U_CITY_C<1.715] yes=73,no=74,missing=74,gain=461.994,cover=58451.8
						73:leaf=-0.052385,cover=4337.56
						74:leaf=-0.0184684,cover=54114.2
				18:[D_TITLEMD5_COEC<0.108999] yes=37,no=38,missing=37,gain=1423.15,cover=4.15039e+06
					37:[D_CATEGORY_MICRO_MAX_COEC<0.081999] yes=75,no=76,missing=75,gain=1373.94,cover=3.10458e+06
						75:leaf=-0.00116648,cover=2.52425e+06
						76:leaf=-0.00656262,cover=580326
					38:[D_TITLEMD5_COEC<0.211999] yes=77,no=78,missing=78,gain=894.832,cover=1.04581e+06
						77:leaf=0.00138892,cover=988991
						78:leaf=0.0142936,cover=56819.6
		4:[C_D_U_TITLEMD5_CATEGORY_MAX_C<0.023999] yes=9,no=10,missing=9,gain=892.124,cover=1.06389e+06
			9:[D_TITLEMD5_C<106.34] yes=19,no=20,missing=19,gain=378.17,cover=649052
				19:[CAT_REL<0.017999] yes=39,no=40,missing=40,gain=443.635,cover=546367
					39:[D_CATEGORY_MAX_EC<32759.4] yes=79,no=80,missing=80,gain=450.765,cover=302445
						79:leaf=-0.00547459,cover=185876
						80:leaf=0.00245762,cover=116568
					40:[D_CATEGORY_MACRO_MAX_COEC<0.059999] yes=81,no=82,missing=81,gain=347.88,cover=243923
						81:leaf=0.00643171,cover=145082
						82:leaf=-0.00126074,cover=98841
				20:[D_CATEGORY_MACRO_MEAN_COEC<0.077999] yes=41,no=42,missing=42,gain=303.337,cover=102684
					41:[D_KEYWORD_MACRO_MEAN_COEC<0.067999] yes=83,no=84,missing=84,gain=284.936,cover=45350
						83:leaf=0.0117577,cover=15291.3
						84:leaf=-0.00500878,cover=30058.8
					42:[WORD_COUNT<2571] yes=85,no=86,missing=86,gain=203.265,cover=57334
						85:leaf=0.016387,cover=34765.9
						86:leaf=0.00419939,cover=22568.2
			10:[TIME_OF_DAY<16] yes=21,no=22,missing=22,gain=387.81,cover=414835
				21:[U_CITY_COEC<0.083999] yes=43,no=44,missing=43,gain=293.296,cover=206850
					43:[C_D_U_TITLEMD5_CITY_EC<0.522999] yes=87,no=88,missing=87,gain=370.398,cover=172433
						87:leaf=0.00417305,cover=91957.9
						88:leaf=0.0134632,cover=80474.8
					44:[D_CATEGORY_MICRO_MAX_COEC<0.097999] yes=89,no=90,missing=90,gain=119.555,cover=34417.4
						89:leaf=0.0197148,cover=33268.8
						90:leaf=-0.0130906,cover=1148.63
				22:[U_CATEGORY_MAX_EC<3436.2] yes=45,no=46,missing=46,gain=243.979,cover=207985
					45:[D_TITLEMD5_C<27.911] yes=91,no=92,missing=92,gain=193.46,cover=173561
						91:leaf=0.0143888,cover=21892.7
						92:leaf=0.00433292,cover=151668
					46:[C_D_U_TITLEMD5_CATEGORY_MICRO_MAX_COEC<0.048999] yes=93,no=94,missing=94,gain=250.751,cover=34423.5
						93:leaf=-0.0207432,cover=6845.7
						94:leaf=0.000638109,cover=27577.8
	2:[U_CATEGORY_MICRO_MAX_COEC<0.096999] yes=5,no=6,missing=6,gain=490.241,cover=235776
		5:[U_GENDER_COEC<0.072999] yes=11,no=12,missing=12,gain=419.04,cover=228417
			11:[U_CATEGORY_MAX_EC<445.519] yes=23,no=24,missing=24,gain=253.551,cover=47809.7
				23:[C_D_U_TITLEMD5_CATEGORY_MAX_EC<0.022999] yes=47,no=48,missing=47,gain=265.548,cover=9350.83
					47:[D_KEYWORD_MAX_EC<605.933] yes=95,no=96,missing=96,gain=322.548,cover=2528.33
						95:leaf=-0.0251834,cover=2104.56
						96:leaf=-0.120735,cover=423.775
					48:[U_CITY_EC<20959.8] yes=97,no=98,missing=98,gain=196.981,cover=6822.5
						97:leaf=0.00304803,cover=5986.57
						98:leaf=-0.0487459,cover=835.929
				24:[TIME_OF_DAY<23] yes=49,no=50,missing=50,gain=213.614,cover=38458.9
					49:[C_D_U_CATEGORY_AGE_MAX_C<606.421] yes=99,no=100,missing=100,gain=183.179,cover=36361.7
						99:leaf=0.00777914,cover=35359.9
						100:leaf=-0.0355624,cover=1001.82
					50:[U_CITY_COEC<0.128999] yes=101,no=102,missing=102,gain=188.248,cover=2097.13
						101:leaf=-0.0145758,cover=1822.56
						102:leaf=-0.103268,cover=274.571
			12:[U_CITY_COEC<0.074999] yes=25,no=26,missing=26,gain=401.117,cover=180608
				25:[CAT_REL<0.070999] yes=51,no=52,missing=52,gain=214.811,cover=89793.6
					51:[U_CATEGORY_MACRO_MAX_COEC<0.008999] yes=103,no=104,missing=104,gain=211.957,cover=78763.9
						103:leaf=0.00809383,cover=59692.2
						104:leaf=-0.00401569,cover=19071.7
					52:[C_D_U_PUBLISHER_AGE_COEC<0.097999] yes=105,no=106,missing=106,gain=164.383,cover=11029.7
						105:leaf=0.00688614,cover=5095.85
						106:leaf=0.0313738,cover=5933.85
				26:[U_CITY_C<1045.14] yes=53,no=54,missing=53,gain=276.955,cover=90814.1
					53:[U_CITY_EC<2970.47] yes=107,no=108,missing=107,gain=255.533,cover=84396.3
						107:leaf=0.0165682,cover=77248.8
						108:leaf=-0.00319477,cover=7147.48
					54:[U_CATEGORY_MICRO_MAX_COEC<0.069999] yes=109,no=110,missing=110,gain=108.901,cover=6417.8
						109:leaf=0.0183067,cover=2185.98
						110:leaf=0.0458049,cover=4231.81
		6:[D_TITLEMD5_C<16.451] yes=13,no=14,missing=13,gain=187.945,cover=7358.75
			13:[D_CATEGORY_MACRO_MEAN_COEC<0.092999] yes=27,no=28,missing=28,gain=160.318,cover=1533
				27:[D_KEYWORD_MAX_C<5.832] yes=55,no=56,missing=56,gain=147.475,cover=1503.18
					55:[C_D_U_PUBLISHER_AGE_C<496.652] yes=111,no=112,missing=112,gain=91.6648,cover=57.2488
						111:leaf=-0.24508,cover=50.5207
						112:leaf=0.13203,cover=6.72816
					56:[C_D_U_PUBLISHER_GENDER_EC<260.201] yes=113,no=114,missing=113,gain=140.132,cover=1445.94
						113:leaf=-0.0307854,cover=1394.17
						114:leaf=-0.196882,cover=51.7668
				28:[C_D_U_CATEGORY_AGE_MACRO_MEAN_COEC<0.090999] yes=57,no=58,missing=58,gain=108.954,cover=29.8114
					57:leaf=0.0965525,cover=5.94346
					58:[CAT_REL<0.001999] yes=115,no=116,missing=116,gain=6.20876,cover=23.868
						115:leaf=-0.231156,cover=7.68578
						116:leaf=-0.413097,cover=16.1822
			14:[U_CATEGORY_MAX_C<31.935] yes=29,no=30,missing=29,gain=165.974,cover=5825.76
				29:[C_D_U_CATEGORY_GENDER_MICRO_MAX_COEC<0.090999] yes=59,no=60,missing=60,gain=177.842,cover=2842.02
					59:[TIME_OF_DAY<21] yes=117,no=118,missing=118,gain=242.884,cover=445.664
						117:leaf=-0.0626105,cover=413.339
						118:leaf=-0.343629,cover=32.3255
					60:[U_CATEGORY_MAX_EC<313.928] yes=119,no=120,missing=119,gain=222.902,cover=2396.35
						119:leaf=-0.0126729,cover=2383.79
						120:leaf=-0.419346,cover=12.556
				30:[TIME_OF_DAY<0.999999] yes=61,no=62,missing=62,gain=386.209,cover=2983.74
					61:[U_CITY_COEC<0.069999] yes=121,no=122,missing=122,gain=192.066,cover=50.5024
						121:leaf=-0.122111,cover=34.2152
						122:leaf=-0.536258,cover=16.2871
					62:[U_AGE_EC<187954] yes=123,no=124,missing=124,gain=90.8496,cover=2933.24
						123:leaf=0.0177982,cover=2710
						124:leaf=-0.0484384,cover=223.243
booster[59]:
0:[C_D_U_CATEGORY_CATEGORY_MICRO_MEAN_COEC<0.046999] yes=1,no=2,missing=2,gain=1582.47,cover=5.90922e+06
	1:[D_CATEGORY_MICRO_MEAN_COEC<0.045999] yes=3,no=4,missing=4,gain=970.022,cover=461337
		3:[D_TITLEMD5_C<3.921] yes=7,no=8,missing=7,gain=733.1,cover=121517
			7:[D_KEYWORD_MACRO_MAX_COEC<0.007999] yes=15,no=16,missing=15,gain=334.305,cover=62070.3
				15:[D_KEYWORD_MEAN_C<35.368] yes=31,no=32,missing=31,gain=254.607,cover=21643.1
					31:[U_CITY_COEC<0.063999] yes=63,no=64,missing=64,gain=268.944,cover=16164.2
						63:leaf=-0.0291801,cover=4662.48
						64:leaf=-0.000710252,cover=11501.8
					32:[D_CATEGORY_MEAN_EC<48504.3] yes=65,no=66,missing=66,gain=236.345,cover=5478.88
						65:leaf=-0.0377665,cover=5292.71
						66:leaf=0.076602,cover=186.169
				16:[D_TITLEMD5_COEC<0.085999] yes=33,no=34,missing=33,gain=438.021,cover=40427.2
					33:[C_D_U_CATEGORY_CATEGORY_MICRO_MEAN_COEC<0.037999] yes=67,no=68,missing=68,gain=341.43,cover=35584.9
						67:leaf=-0.00382623,cover=21718.7
						68:leaf=0.016259,cover=13866.1
					34:[C_D_U_PUBLISHER_GENDER_COEC<0.038999] yes=69,no=70,missing=69,gain=205.4,cover=4842.37
						69:leaf=-0.031988,cover=4672.31
						70:leaf=0.0795998,cover=170.059
			8:[D_TITLEMD5_C<116.43] yes=17,no=18,missing=18,gain=220.17,cover=59446.5
				17:[TIME_OF_DAY<20] yes=35,no=36,missing=36,gain=195.688,cover=56583.3
					35:[U_CITY_EC<28.58] yes=71,no=72,missing=72,gain=164.138,cover=42519
						71:leaf=-0.0236324,cover=1230.74
						72:leaf=0.0134142,cover=41288.3
					36:[DOC_AGE<19] yes=73,no=74,missing=74,gain=176.431,cover=14064.3
						73:leaf=0.0105037,cover=6683.2
						74:leaf=-0.0119228,cover=7381.11
				18:[U_CATEGORY_MAX_C<251.955] yes=37,no=38,missing=38,gain=161.061,cover=2863.17
					37:[U_CITY_COEC<0.060999] yes=75,no=76,missing=76,gain=154.585,cover=2698.08
						75:leaf=-0.0178288,cover=358.786
						76:leaf=0.0526207,cover=2339.29
					38:[C_D_U_TITLEMD5_CATEGORY_MICRO_MAX_COEC<0.041999] yes=77,no=78,missing=78,gain=111.328,cover=165.088
						77:leaf=0.0223346,cover=84.101
						78:leaf=-0.141193,cover=80.9872
		4:[D_KEYWORD_MACRO_MAX_COEC<0.015999] yes=9,no=10,missing=10,gain=687.872,cover=339820
			9:[U_CITY_COEC<0.060999] yes=19,no=20,missing=20,gain=347.837,cover=187917
				19:[U_CITY_EC<68.602] yes=39,no=40,missing=40,gain=368.248,cover=41704
					39:[D_TITLEMD5_COEC<0.047999] yes=79,no=80,missing=79,gain=237.026,cover=6552.2
						79:leaf=0.0256344,cover=2528.35
						80:leaf=-0.0134299,cover=4023.85
					40:[C_D_U_CATEGORY_GENDER_MACRO_MAX_COEC<0.089999] yes=81,no=82,missing=81,gain=313.698,cover=35151.8
						81:leaf=-0.0247179,cover=35037.2
						82:leaf=0.140321,cover=114.572
				20:[C_D_U_TITLEMD5_CATEGORY_MACRO_MAX_COEC<0.009999] yes=41,no=42,missing=41,gain=292.736,cover=146213
					41:[D_KEYWORD_MACRO_MEAN_COEC<0.033999] yes=83,no=84,missing=84,gain=270.181,cover=126713
						83:leaf=-0.0290007,cover=5848.09
						84:leaf=-0.00699425,cover=120865
					42:[D_PUBLISHER_COEC<0.064999] yes=85,no=86,missing=86,gain=367.518,cover=19499.6
						85:leaf=-0.037228,cover=8234.4
						86:leaf=-0.00943277,cover=11265.2
			10:[D_CATEGORY_MAX_C<1058.34] yes=21,no=22,missing=22,gain=326.892,cover=151904
				21:[CAT_REL<0.005999] yes=43,no=44,missing=44,gain=245.893,cover=75140.4
					43:[C_D_U_CATEGORY_CATEGORY_MICRO_MAX_COEC<0.044999] yes=87,no=88,missing=88,gain=190.586,cover=35957
						87:leaf=0.0130344,cover=23231.1
						88:leaf=-0.00219034,cover=12725.9
					44:[WORD_COUNT<2575] yes=89,no=90,missing=90,gain=183.457,cover=39183.4
						89:leaf=-0.00930616,cover=23800.5
						90:leaf=0.00470571,cover=15382.9
				22:[D_KEYWORD_MEAN_C<33.074] yes=45,no=46,missing=45,gain=250.729,cover=76763.4
					45:[C_D_U_CATEGORY_GENDER_MEAN_EC<392.022] yes=91,no=92,missing=92,gain=219.661,cover=10954
						91:leaf=-0.237761,cover=45.8241
						92:leaf=-0.0206816,cover=10908.1
					46:[D_KEYWORD_MEAN_C<471.866] yes=93,no=94,missing=94,gain=229.435,cover=65809.4
						93:leaf=-0.00377287,cover=61825.9
						94:leaf=-0.0285305,cover=3983.48
	2:[C_D_U_CATEGORY_CATEGORY_MACRO_MAX_COEC<0.004999] yes=5,no=6,missing=6,gain=1670.01,cover=5.44788e+06
		5:[CAT_REL<0.022999] yes=11,no=12,missing=12,gain=1912.71,cover=1.46397e+06
			11:[C_D_U_TITLEMD5_CATEGORY_MAX_EC<0.075999] yes=23,no=24,missing=23,gain=743.501,cover=935137
				23:[D_TITLEMD5_EC<3.926] yes=47,no=48,missing=48,gain=642.266,cover=332793
					47:[D_CATEGORY_MEAN_EC<51639.7] yes=95,no=96,missing=96,gain=270.857,cover=18782.2
						95:leaf=0.00695355,cover=12802
						96:leaf=0.0327308,cover=5980.13
					48:[U_CATEGORY_MACRO_MAX_COEC<0.003999] yes=97,no=98,missing=98,gain=514.009,cover=314010
						97:leaf=0.00804994,cover=32416.7
						98:leaf=-0.00524713,cover=281594
				24:[C_D_U_CATEGORY_CATEGORY_MACRO_MEAN_COEC<0.005999] yes=49,no=50,missing=50,gain=542.091,cover=602344
					49:[U_CATEGORY_MICRO_MAX_COEC<0.071999] yes=99,no=100,missing=100,gain=488.847,cover=340428
						99:leaf=0.00327598,cover=240378
						100:leaf=0.0115944,cover=100050
					50:[C_D_U_TITLEMD5_CATEGORY_MAX_C<0.061999] yes=101,no=102,missing=102,gain=442.182,cover=261916
						101:leaf=-0.00418772,cover=139231
						102:leaf=0.00404638,cover=122685
			12:[WORD_COUNT<684] yes=25,no=26,missing=26,gain=643.924,cover=528830
				25:[D_PUBLISHER_EC<96.927] yes=51,no=52,missing=52,gain=379.639,cover=25923.7
					51:[U_CITY_C<460.857] yes=103,no=104,missing=103,gain=179.396,cover=2063.23
						103:leaf=-0.0337489,cover=1674.61
						104:leaf=-0.10913,cover=388.614
					52:[D_TITLEMD5_COEC<0.157999] yes=105,no=106,missing=105,gain=338.66,cover=23860.5
						105:leaf=-0.00708628,cover=21663
						106:leaf=0.0341049,cover=2197.54
				26:[U_CATEGORY_MAX_C<10.824] yes=53,no=54,missing=54,gain=603.417,cover=502907
					53:[U_CATEGORY_MICRO_MAX_COEC<0.058999] yes=107,no=108,missing=108,gain=258.835,cover=18774.1
						107:leaf=0.0506652,cover=3683.3
						108:leaf=0.0210969,cover=15090.8
					54:[U_CATEGORY_MAX_EC<2985.35] yes=109,no=110,missing=110,gain=532.601,cover=484133
						109:leaf=0.0092701,cover=466665
						110:leaf=-0.00851495,cover=17467.6
		6:[CAT_REL<0.088999] yes=13,no=14,missing=14,gain=1287.31,cover=3.98392e+06
			13:[U_CATEGORY_MICRO_MAX_COEC<0.083999] yes=27,no=28,missing=28,gain=1677.04,cover=3.40812e+06
				27:[C_D_U_TITLEMD5_CATEGORY_MAX_EC<1.475] yes=55,no=56,missing=55,gain=1372.8,cover=2.49087e+06
					55:[C_D_U_CATEGORY_CATEGORY_MACRO_MEAN_COEC<0.010999] yes=111,no=112,missing=112,gain=1508.46,cover=1.85693e+06
						111:leaf=-0.00217845,cover=1.44739e+06
						112:leaf=-0.00905264,cover=409544
					56:[WORD_COUNT<1453] yes=113,no=114,missing=114,gain=565.967,cover=633938
						113:leaf=-0.00265511,cover=203206
						114:leaf=0.00374734,cover=430732
				28:[D_CATEGORY_MEAN_EC<36432.4] yes=57,no=58,missing=58,gain=1041.26,cover=917251
					57:[C_D_U_TITLEMD5_CATEGORY_MAX_EC<0.026999] yes=115,no=116,missing=115,gain=972.499,cover=346742
						115:leaf=-0.00516957,cover=240223
						116:leaf=0.00631,cover=106519
					58:[U_CITY_C<925.002] yes=117,no=118,missing=117,gain=763.698,cover=570509
						117:leaf=0.00380668,cover=488535
						118:leaf=0.0142371,cover=81974.8
			14:[D_CATEGORY_MEAN_C<1678.23] yes=29,no=30,missing=29,gain=1331.37,cover=575795
				29:[D_KEYWORD_MEAN_C<16.673] yes=59,no=60,missing=59,gain=465.485,cover=153491
					59:[WORD_COUNT<830] yes=119,no=120,missing=120,gain=333.715,cover=24406.6
						119:leaf=-0.0086113,cover=2666.26
						120:leaf=0.0288708,cover=21740.3
					60:[U_CATEGORY_MACRO_MAX_COEC<0.019999] yes=121,no=122,missing=122,gain=510.787,cover=129085
						121:leaf=0.0113218,cover=121195
						122:leaf=-0.0149353,cover=7890.32
				30:[D_KEYWORD_MACRO_MEAN_COEC<0.038999] yes=61,no=62,missing=62,gain=834.49,cover=422304
					61:[U_CATEGORY_MACRO_MAX_COEC<0.036999] yes=123,no=124,missing=124,gain=204.611,cover=11113.1
						123:leaf=-0.0240081,cover=10923.7
						124:leaf=-0.128585,cover=189.417
					62:[D_CATEGORY_MICRO_MAX_COEC<0.072999] yes=125,no=126,missing=126,gain=801.448,cover=411191
						125:leaf=0.00609744,cover=219278
						126:leaf=-0.00275186,cover=191913
booster[60]:
0:[DOC_AGE<111] yes=1,no=2,missing=2,gain=1671.46,cover=5.90824e+06
	1:[U_CATEGORY_MACRO_MAX_COEC<0.003999] yes=3,no=4,missing=4,gain=1462.27,cover=5.44774e+06
		3:[C_D_U_PUBLISHER_AGE_C<21.304] yes=7,no=8,missing=8,gain=688.019,cover=104896
			7:[U_CATEGORY_MICRO_MAX_COEC<0.065999] yes=15,no=16,missing=16,gain=279.017,cover=2785.54
				15:[D_KEYWORD_MICRO_MEAN_COEC<0.049999] yes=31,no=32,missing=32,gain=249.396,cover=2081.99
					31:[C_D_U_CATEGORY_AGE_MICRO_MEAN_COEC<0.052999] yes=63,no=64,missing=64,gain=159.88,cover=76.6531
						63:leaf=0.216408,cover=65.4196
						64:leaf=-0.179963,cover=11.2335
					32:[U_CITY_COEC<0.056999] yes=65,no=66,missing=66,gain=247.535,cover=2005.34
						65:leaf=-0.0811487,cover=576.67
						66:leaf=-0.0035723,cover=1428.67
				16:[U_CITY_COEC<0.090999] yes=33,no=34,missing=34,gain=172.429,cover=703.551
					33:[WORD_COUNT<821] yes=67,no=68,missing=68,gain=139.63,cover=651.078
						67:leaf=-0.241111,cover=47.4913
						68:leaf=-0.0643671,cover=603.587
					34:[C_D_U_TITLEMD5_AGE_C<13.15] yes=69,no=70,missing=70,gain=27.7239,cover=52.4726
						69:leaf=-0.312425,cover=37.0217
						70:leaf=-0.138813,cover=15.4508
			8:[DAY_OF_WEEK<6] yes=17,no=18,missing=18,gain=563.472,cover=102111
				17:[D_KEYWORD_MEAN_C<224.312] yes=35,no=36,missing=35,gain=493.924,cover=87504.1
					35:[U_CITY_COEC<0.221999] yes=71,no=72,missing=71,gain=384.821,cover=78217.4
						71:leaf=0.00644737,cover=77308.7
						72:leaf=0.0718669,cover=908.768
					36:[D_PUBLISHER_COEC<0.047999] yes=73,no=74,missing=74,gain=113.11,cover=9286.69
						73:leaf=0.0593458,cover=1268.33
						74:leaf=0.0272046,cover=8018.36
				18:[U_CATEGORY_MICRO_MAX_COEC<0.060999] yes=37,no=38,missing=38,gain=366.126,cover=14606.5
					37:[TIME_OF_DAY<23] yes=75,no=76,missing=76,gain=352.495,cover=6521.61
						75:leaf=0.0176644,cover=6308.39
						76:leaf=-0.112774,cover=213.223
					38:[U_CATEGORY_MAX_EC<237.395] yes=77,no=78,missing=78,gain=436.392,cover=8084.94
						77:leaf=-0.00145401,cover=1604.74
						78:leaf=0.0567921,cover=6480.2
		4:[U_CATEGORY_MICRO_MAX_COEC<0.070999] yes=9,no=10,missing=10,gain=1591.72,cover=5.34284e+06
			9:[C_D_U_PUBLISHER_AGE_COEC<0.028999] yes=19,no=20,missing=19,gain=1313.92,cover=2.88219e+06
				19:[C_D_U_TITLEMD5_CATEGORY_MAX_C<0.204999] yes=39,no=40,missing=39,gain=1220.06,cover=2.70329e+06
					39:[DOC_AGE<5] yes=79,no=80,missing=80,gain=1080.13,cover=2.18591e+06
						79:leaf=0.00125343,cover=378396
						80:leaf=-0.00462202,cover=1.80751e+06
					40:[D_CATEGORY_MACRO_MEAN_COEC<0.073999] yes=81,no=82,missing=82,gain=686.813,cover=517379
						81:leaf=0.00573421,cover=238563
						82:leaf=-0.00157487,cover=278816
				20:[U_CATEGORY_MAX_EC<237.395] yes=41,no=42,missing=42,gain=535.449,cover=178905
					41:[U_GENDER_COEC<0.068999] yes=83,no=84,missing=84,gain=241.854,cover=9151.67
						83:leaf=-0.0899126,cover=164.672
						84:leaf=0.0320419,cover=8986.99
					42:[U_GENDER_COEC<0.075999] yes=85,no=86,missing=85,gain=355.935,cover=169754
						85:leaf=0.00256921,cover=132264
						86:leaf=0.0136078,cover=37490
			10:[U_CATEGORY_MACRO_MAX_COEC<0.008999] yes=21,no=22,missing=22,gain=1183.4,cover=2.46065e+06
				21:[U_CITY_COEC<0.074999] yes=43,no=44,missing=44,gain=1123.4,cover=1.25924e+06
					43:[D_TITLEMD5_C<1.872] yes=87,no=88,missing=87,gain=974.85,cover=631002
						87:leaf=-0.00829278,cover=103076
						88:leaf=0.00233927,cover=527926
					44:[U_CITY_EC<16713.3] yes=89,no=90,missing=89,gain=544.214,cover=628243
						89:leaf=0.00606215,cover=609649
						90:leaf=0.0234289,cover=18593.5
				22:[U_CITY_C<1343.52] yes=45,no=46,missing=45,gain=833.982,cover=1.20141e+06
					45:[D_KEYWORD_MACRO_MAX_COEC<0.023999] yes=91,no=92,missing=92,gain=557.144,cover=1.08706e+06
						91:leaf=-0.00292651,cover=827615
						92:leaf=0.00238445,cover=259445
					46:[D_TITLEMD5_EC<3.428] yes=93,no=94,missing=93,gain=710.117,cover=114346
						93:leaf=0.0426297,cover=5424.17
						94:leaf=0.00556036,cover=108921
	2:[D_CATEGORY_MICRO_MAX_COEC<0.076999] yes=5,no=6,missing=5,gain=380.68,cover=460503
		5:[TIME_OF_DAY<19] yes=11,no=12,missing=12,gain=327.907,cover=218278
			11:[D_CATEGORY_MACRO_MAX_COEC<0.061999] yes=23,no=24,missing=24,gain=216.877,cover=149040
				23:[C_D_U_TITLEMD5_AGE_COEC<0.408999] yes=47,no=48,missing=47,gain=136.637,cover=90349.3
					47:[C_D_U_CATEGORY_AGE_MICRO_MEAN_COEC<0.069999] yes=95,no=96,missing=96,gain=133.93,cover=90317.4
						95:leaf=0.0332263,cover=3816.81
						96:leaf=0.0140862,cover=86500.6
					48:[C_D_U_TITLEMD5_AGE_EC<3.99] yes=97,no=98,missing=98,gain=103.477,cover=31.8243
						97:leaf=-0.315728,cover=20.7913
						98:leaf=0.0557018,cover=11.033
				24:[WORD_COUNT<4015] yes=49,no=50,missing=50,gain=209.953,cover=58691.1
					49:[U_AGE_EC<141617] yes=99,no=100,missing=100,gain=135.212,cover=35429
						99:leaf=-0.081821,cover=189.65
						100:leaf=0.00262153,cover=35239.3
					50:[U_CATEGORY_MACRO_MAX_COEC<0.039999] yes=101,no=102,missing=101,gain=152.659,cover=23262.1
						101:leaf=0.0146317,cover=23243.1
						102:leaf=-0.261861,cover=18.9888
			12:[U_GENDER_C<3022.93] yes=25,no=26,missing=26,gain=204.436,cover=69238.1
				25:[C_D_U_CATEGORY_AGE_MAX_EC<1493.62] yes=51,no=52,missing=51,gain=262.565,cover=332.811
					51:[C_D_U_TITLEMD5_AGE_COEC<0.157999] yes=103,no=104,missing=103,gain=115.145,cover=85.4738
						103:leaf=-0.282382,cover=68.166
						104:leaf=0.00569429,cover=17.3079
					52:[C_D_U_TITLEMD5_CATEGORY_MAX_EC<0.022999] yes=105,no=106,missing=105,gain=146.026,cover=247.337
						105:leaf=-0.250614,cover=24.1375
						106:leaf=0.00360193,cover=223.2
				26:[C_D_U_CATEGORY_CATEGORY_MAX_C<0.050999] yes=53,no=54,missing=54,gain=131.513,cover=68905.3
					53:[D_KEYWORD_MAX_EC<416.517] yes=107,no=108,missing=107,gain=184.906,cover=1827.04
						107:leaf=-0.05295,cover=957.819
						108:leaf=0.0107243,cover=869.223
					54:[C_D_U_TITLEMD5_GENDER_COEC<0.181999] yes=109,no=110,missing=109,gain=127.255,cover=67078.3
						109:leaf=0.00420153,cover=66727.5
						110:leaf=0.0645079,cover=350.754
		6:[D_TITLEMD5_C<30.719] yes=13,no=14,missing=13,gain=340.81,cover=242225
			13:[CAT_REL<0.045999] yes=27,no=28,missing=28,gain=304.373,cover=103316
				27:[C_D_U_TITLEMD5_AGE_C<5.173] yes=55,no=56,missing=55,gain=244.554,cover=79265.7
					55:[WORD_COUNT<3391] yes=111,no=112,missing=112,gain=235.463,cover=79247.5
						111:leaf=0.000104106,cover=51422.1
						112:leaf=-0.0113156,cover=27825.4
					56:leaf=-0.360882,cover=18.1957
				28:[U_GENDER_COEC<0.070999] yes=57,no=58,missing=58,gain=276.996,cover=24050.2
					57:[U_CITY_C<54.795] yes=113,no=114,missing=114,gain=248.861,cover=145.919
						113:leaf=-0.0485672,cover=107.375
						114:leaf=-0.342603,cover=38.5444
					58:[C_D_U_TITLEMD5_CATEGORY_MAX_EC<0.370999] yes=115,no=116,missing=116,gain=231.238,cover=23904.3
						115:leaf=0.0148688,cover=18718.5
						116:leaf=-0.00899272,cover=5185.8
			14:[WORD_COUNT<5735] yes=29,no=30,missing=30,gain=231.141,cover=138909
				29:[D_KEYWORD_MICRO_MAX_COEC<0.118999] yes=59,no=60,missing=60,gain=205.327,cover=120627
					59:[CAT_REL<0.020999] yes=117,no=118,missing=118,gain=286.863,cover=81823.5
						117:leaf=-0.00107896,cover=63045.4
						118:leaf=0.0130014,cover=18778.1
					60:[C_D_U_TITLEMD5_CATEGORY_MACRO_MAX_COEC<0.008999] yes=119,no=120,missing=119,gain=339.688,cover=38803.2
						119:leaf=0.0210242,cover=18035.9
						120:leaf=0.00226515,cover=20767.3
				30:[D_KEYWORD_MACRO_MAX_COEC<0.016999] yes=61,no=62,missing=62,gain=290.346,cover=18282.5
					61:[U_CITY_COEC<0.060999] yes=121,no=122,missing=122,gain=196.923,cover=4926.79
						121:leaf=-0.053196,cover=689.819
						122:leaf=0.00438229,cover=4236.97
					62:[D_KEYWORD_MAX_C<49.682] yes=123,no=124,missing=124,gain=129.263,cover=13355.7
						123:leaf=0.0132632,cover=5674.18
						124:leaf=0.0331682,cover=7681.52
booster[61]:
0:[TIME_OF_DAY<16] yes=1,no=2,missing=2,gain=1596.24,cover=5.90271e+06
	1:[TIME_OF_DAY<4] yes=3,no=4,missing=4,gain=4012.2,cover=3.18483e+06
		3:[D_TITLEMD5_C<45.846] yes=7,no=8,missing=7,gain=1489.02,cover=1.28672e+06
			7:[CAT_REL<0.098999] yes=15,no=16,missing=16,gain=765.832,cover=677143
				15:[U_CATEGORY_MAX_EC<586.649] yes=31,no=32,missing=31,gain=703.649,cover=594907
					31:[CAT_REL<0.010999] yes=63,no=64,missing=64,gain=398.644,cover=243939
						63:leaf=-0.00747108,cover=109357
						64:leaf=0.000657512,cover=134583
					32:[U_CATEGORY_MAX_EC<5412.38] yes=65,no=66,missing=66,gain=462.509,cover=350968
						65:leaf=-0.0105701,cover=341901
						66:leaf=0.0123126,cover=9066.37
				16:[U_CATEGORY_MAX_EC<654.276] yes=33,no=34,missing=34,gain=607.132,cover=82236.2
					33:[U_CATEGORY_MACRO_MAX_COEC<0.005999] yes=67,no=68,missing=68,gain=269.177,cover=6518.71
						67:leaf=0.154029,cover=176.252
						68:leaf=0.0290633,cover=6342.46
					34:[D_KEYWORD_MACRO_MEAN_COEC<0.050999] yes=69,no=70,missing=69,gain=818.451,cover=75717.5
						69:leaf=-0.0159246,cover=21356.1
						70:leaf=0.00717902,cover=54361.3
			8:[WORD_COUNT<1274] yes=17,no=18,missing=18,gain=534.777,cover=609579
				17:[D_CATEGORY_MEAN_EC<64763.3] yes=35,no=36,missing=36,gain=331.746,cover=132738
					35:[D_CATEGORY_MEAN_C<1020.53] yes=71,no=72,missing=72,gain=203.305,cover=90705.7
						71:leaf=-0.0114451,cover=16112.7
						72:leaf=0.000941346,cover=74593
					36:[C_D_U_CATEGORY_CATEGORY_MICRO_MEAN_COEC<0.037999] yes=73,no=74,missing=74,gain=330.669,cover=42032.1
						73:leaf=-0.179924,cover=115.952
						74:leaf=-0.0115373,cover=41916.1
				18:[D_KEYWORD_MAX_C<28.286] yes=37,no=38,missing=38,gain=372.567,cover=476841
					37:[CAT_REL<0.006999] yes=75,no=76,missing=76,gain=384.481,cover=165202
						75:leaf=-0.00593442,cover=86357
						76:leaf=0.003724,cover=78845.3
					38:[D_PUBLISHER_EC<92218.3] yes=77,no=78,missing=77,gain=471.305,cover=311639
						77:leaf=0.00350058,cover=290507
						78:leaf=0.0189681,cover=21132
		4:[U_CITY_COEC<0.062999] yes=9,no=10,missing=10,gain=1535.37,cover=1.8981e+06
			9:[U_CATEGORY_MAX_EC<488.524] yes=19,no=20,missing=19,gain=549.913,cover=433964
				19:[DAY_OF_WEEK<5] yes=39,no=40,missing=40,gain=393.548,cover=136278
					39:[U_CATEGORY_MICRO_MAX_COEC<0.055999] yes=79,no=80,missing=80,gain=426.866,cover=93049.5
						79:leaf=-0.0296795,cover=4330.51
						80:leaf=0.00247025,cover=88719
					40:[U_CATEGORY_MICRO_MAX_COEC<0.096999] yes=81,no=82,missing=81,gain=283.909,cover=43228.8
						81:leaf=0.0134749,cover=42638.2
						82:leaf=-0.0562805,cover=590.605
				20:[U_CITY_EC<147.757] yes=41,no=42,missing=42,gain=390.108,cover=297685
					41:[C_D_U_TITLEMD5_CATEGORY_MAX_C<0.014999] yes=83,no=84,missing=83,gain=534.591,cover=75372.6
						83:leaf=0.0138762,cover=28856.6
						84:leaf=-0.00344933,cover=46516
					42:[U_CITY_C<5.141] yes=85,no=86,missing=86,gain=841.16,cover=222313
						85:leaf=-0.0386692,cover=7238.08
						86:leaf=-0.00401249,cover=215075
			10:[U_CATEGORY_MACRO_MAX_COEC<0.007999] yes=21,no=22,missing=22,gain=1326.39,cover=1.46414e+06
				21:[U_CATEGORY_MICRO_MAX_COEC<0.081999] yes=43,no=44,missing=44,gain=614.327,cover=749922
					43:[U_CATEGORY_MACRO_MAX_COEC<0.004999] yes=87,no=88,missing=88,gain=573.213,cover=677244
						87:leaf=0.0137934,cover=142098
						88:leaf=0.00664838,cover=535146
					44:[U_CITY_EC<47937.4] yes=89,no=90,missing=89,gain=402.057,cover=72678.3
						89:leaf=0.0189228,cover=71121.3
						90:leaf=-0.0324322,cover=1557
				22:[U_CATEGORY_MICRO_MAX_COEC<0.051999] yes=45,no=46,missing=46,gain=939.217,cover=714217
					45:[D_KEYWORD_MACRO_MEAN_COEC<0.057999] yes=91,no=92,missing=91,gain=409.671,cover=3449.87
						91:leaf=-0.0980064,cover=1140.02
						92:leaf=-0.024751,cover=2309.84
					46:[D_CATEGORY_MICRO_MAX_COEC<0.080999] yes=93,no=94,missing=94,gain=924.24,cover=710767
						93:leaf=0.00584022,cover=477068
						94:leaf=-0.00183581,cover=233699
	2:[D_KEYWORD_MACRO_MEAN_COEC<0.075999] yes=5,no=6,missing=6,gain=992.454,cover=2.71788e+06
		5:[C_D_U_TITLEMD5_CATEGORY_MAX_EC<0.162999] yes=11,no=12,missing=11,gain=1091.09,cover=1.93428e+06
			11:[C_D_U_TITLEMD5_CATEGORY_MICRO_MAX_COEC<0.063999] yes=23,no=24,missing=24,gain=963.414,cover=1.02577e+06
				23:[TIME_OF_DAY<23] yes=47,no=48,missing=48,gain=715.829,cover=503813
					47:[D_TITLEMD5_EC<3.911] yes=95,no=96,missing=96,gain=638.664,cover=443107
						95:leaf=0.0157373,cover=22809.7
						96:leaf=-0.00144346,cover=420297
					48:[D_CATEGORY_MACRO_MAX_COEC<0.041999] yes=97,no=98,missing=98,gain=254.879,cover=60705.9
						97:leaf=-0.00144912,cover=16314
						98:leaf=-0.0160659,cover=44391.9
				24:[D_TITLEMD5_C<406.142] yes=49,no=50,missing=49,gain=664.843,cover=521957
					49:[D_CATEGORY_MEAN_EC<33730.2] yes=99,no=100,missing=99,gain=582.27,cover=511657
						99:leaf=-0.0125166,cover=217335
						100:leaf=-0.005692,cover=294322
					50:[C_D_U_TITLEMD5_CITY_COEC<0.248999] yes=101,no=102,missing=102,gain=167.633,cover=10300.6
						101:leaf=0.0268813,cover=6470.65
						102:leaf=0.000485876,cover=3829.97
			12:[U_CATEGORY_MICRO_MAX_COEC<0.059999] yes=25,no=26,missing=26,gain=946.979,cover=908513
				25:[D_PUBLISHER_C<4143.85] yes=51,no=52,missing=52,gain=387.127,cover=192680
					51:[D_PUBLISHER_C<21.064] yes=103,no=104,missing=104,gain=277.005,cover=154195
						103:leaf=0.0162989,cover=6263.21
						104:leaf=-0.00517038,cover=147932
					52:[D_KEYWORD_MAX_C<401.572] yes=105,no=106,missing=106,gain=266.326,cover=38485.4
						105:leaf=-0.01318,cover=35688.6
						106:leaf=-0.045221,cover=2796.81
				26:[D_PUBLISHER_EC<922.742] yes=53,no=54,missing=54,gain=607.999,cover=715833
					53:[CAT_REL<0.003999] yes=107,no=108,missing=108,gain=333.627,cover=72365
						107:leaf=0.0230751,cover=15463.7
						108:leaf=0.00651081,cover=56901.3
					54:[D_KEYWORD_MEAN_C<391.932] yes=109,no=110,missing=110,gain=490.77,cover=643468
						109:leaf=0.000883114,cover=623030
						110:leaf=-0.0148647,cover=20437.7
		6:[D_TITLEMD5_COEC<0.058999] yes=13,no=14,missing=13,gain=704.745,cover=783599
			13:[D_KEYWORD_MACRO_MAX_COEC<0.046999] yes=27,no=28,missing=27,gain=367.502,cover=17566.4
				27:[D_TITLEMD5_EC<5.862] yes=55,no=56,missing=55,gain=232.088,cover=14715.3
					55:[C_D_U_CATEGORY_AGE_MICRO_MEAN_COEC<0.088999] yes=111,no=112,missing=111,gain=173.728,cover=4599.85
						111:leaf=0.0474106,cover=4581.95
						112:leaf=-0.256592,cover=17.8988
					56:[U_CATEGORY_MAX_C<330.617] yes=113,no=114,missing=113,gain=201.209,cover=10115.5
						113:leaf=0.0213465,cover=9860.89
						114:leaf=-0.0685272,cover=254.607
				28:[D_PUBLISHER_COEC<0.054999] yes=57,no=58,missing=58,gain=215.94,cover=2851.08
					57:[D_KEYWORD_MACRO_MAX_COEC<0.048999] yes=115,no=116,missing=116,gain=200.961,cover=1639.77
						115:leaf=-0.173068,cover=98.5178
						116:leaf=-0.0264062,cover=1541.26
					58:[DAY_OF_WEEK<4] yes=117,no=118,missing=118,gain=119.276,cover=1211.3
						117:leaf=0.0458623,cover=728.422
						118:leaf=-0.0181816,cover=482.879
			14:[DAY_OF_WEEK<0.999999] yes=29,no=30,missing=30,gain=514.496,cover=766032
				29:[C_D_U_TITLEMD5_CATEGORY_MICRO_MAX_COEC<0.065999] yes=59,no=60,missing=59,gain=292.021,cover=126803
					59:[WORD_COUNT<1117] yes=119,no=120,missing=120,gain=270.761,cover=37361.2
						119:leaf=0.0264514,cover=12124.1
						120:leaf=0.00826868,cover=25237.2
					60:[U_CITY_C<0.941999] yes=121,no=122,missing=122,gain=296.817,cover=89441.9
						121:leaf=-0.0259031,cover=3274.55
						122:leaf=0.0047662,cover=86167.4
				30:[D_TITLEMD5_COEC<0.175999] yes=61,no=62,missing=62,gain=537.78,cover=639229
					61:[CAT_REL<0.001999] yes=123,no=124,missing=124,gain=420.846,cover=589765
						123:leaf=-0.00353598,cover=318210
						124:leaf=0.0018234,cover=271554
					62:[D_KEYWORD_MAX_EC<893.286] yes=125,no=126,missing=126,gain=416.823,cover=49464.2
						125:leaf=0.00376942,cover=34598
						126:leaf=0.0237906,cover=14866.2
booster[62]:
0:[DOC_AGE<0.999999] yes=1,no=2,missing=2,gain=1409.76,cover=5.89756e+06
	1:[DAY_OF_WEEK<0.999999] yes=3,no=4,missing=4,gain=338.412,cover=146902
		3:[U_GENDER_EC<37957.8] yes=7,no=8,missing=7,gain=264.257,cover=14471.4
			7:[D_CATEGORY_MAX_EC<79501.6] yes=15,no=16,missing=15,gain=205.22,cover=14426.9
				15:[D_KEYWORD_MAX_C<109.376] yes=31,no=32,missing=31,gain=202.64,cover=12914.9
					31:[C_D_U_CATEGORY_CATEGORY_MEAN_C<0.137999] yes=61,no=62,missing=62,gain=242.506,cover=10924.1
						61:leaf=-0.0413049,cover=699.705
						62:leaf=0.0195097,cover=10224.4
					32:[D_CATEGORY_MAX_EC<23814.9] yes=63,no=64,missing=64,gain=139.033,cover=1990.83
						63:leaf=0.0749734,cover=1062.97
						64:leaf=0.0219766,cover=927.858
				16:[D_KEYWORD_MICRO_MAX_COEC<0.089999] yes=33,no=34,missing=34,gain=185.636,cover=1511.99
					33:leaf=-0.189926,cover=28.2358
					34:[D_TITLEMD5_EC<49.305] yes=65,no=66,missing=65,gain=127.11,cover=1483.76
						65:leaf=0.0877646,cover=917.146
						66:leaf=0.0274673,cover=566.611
			8:[C_D_U_CATEGORY_AGE_MAX_C<14.938] yes=17,no=18,missing=18,gain=56.0292,cover=44.5536
				17:leaf=0.0644312,cover=5.79454
				18:[D_KEYWORD_MACRO_MEAN_COEC<0.048999] yes=35,no=36,missing=36,gain=4.10763,cover=38.759
					35:leaf=-0.180104,cover=12.5773
					36:leaf=-0.288495,cover=26.1817
		4:[C_D_U_CATEGORY_CATEGORY_MICRO_MAX_COEC<0.094999] yes=9,no=10,missing=9,gain=273.484,cover=132430
			9:[D_TITLEMD5_COEC<0.076999] yes=19,no=20,missing=19,gain=303.49,cover=112229
				19:[D_KEYWORD_MACRO_MEAN_COEC<0.057999] yes=37,no=38,missing=38,gain=350.74,cover=81850.2
					37:[U_CATEGORY_MACRO_MAX_COEC<0.003999] yes=67,no=68,missing=67,gain=228.92,cover=51464.5
						67:leaf=0.0191234,cover=8753.2
						68:leaf=0.00137248,cover=42711.3
					38:[D_TITLEMD5_EC<8.348] yes=69,no=70,missing=70,gain=332.815,cover=30385.6
						69:leaf=0.0333598,cover=9583.16
						70:leaf=0.0108368,cover=20802.5
				20:[C_D_U_CATEGORY_CATEGORY_MACRO_MEAN_COEC<0.013999] yes=39,no=40,missing=40,gain=269.824,cover=30378.8
					39:[C_D_U_CATEGORY_AGE_MICRO_MAX_COEC<0.097999] yes=71,no=72,missing=71,gain=181.633,cover=24475.2
						71:leaf=0.00275814,cover=24420.5
						72:leaf=-0.178137,cover=54.6329
					40:[D_PUBLISHER_C<421.413] yes=73,no=74,missing=74,gain=527.879,cover=5903.68
						73:leaf=0.0093697,cover=2860.8
						74:leaf=-0.050456,cover=3042.88
			10:[D_KEYWORD_MICRO_MEAN_COEC<0.094999] yes=21,no=22,missing=22,gain=223.022,cover=20201
				21:[C_D_U_CATEGORY_AGE_MACRO_MEAN_COEC<0.061999] yes=41,no=42,missing=42,gain=127.699,cover=20141.1
					41:[C_D_U_CATEGORY_CATEGORY_MICRO_MEAN_COEC<0.123999] yes=75,no=76,missing=76,gain=67.0825,cover=23.3327
						75:leaf=-0.298269,cover=17.9831
						76:leaf=0.0888334,cover=5.34958
					42:[D_KEYWORD_MICRO_MAX_COEC<0.080999] yes=77,no=78,missing=78,gain=121.538,cover=20117.7
						77:leaf=-0.00290455,cover=2119.14
						78:leaf=0.0224131,cover=17998.6
				22:[U_CATEGORY_MAX_EC<507.641] yes=43,no=44,missing=44,gain=71.4413,cover=59.9694
					43:[D_CATEGORY_MEAN_C<3931.12] yes=79,no=80,missing=80,gain=71.5458,cover=33.0806
						79:leaf=-0.302565,cover=8.54641
						80:leaf=0.0193894,cover=24.5342
					44:[CAT_REL<0.001999] yes=81,no=82,missing=82,gain=1.92721,cover=26.8888
						81:leaf=-0.170466,cover=5.47086
						82:leaf=-0.312069,cover=21.418
	2:[D_TITLEMD5_C<4.725] yes=5,no=6,missing=5,gain=1672.98,cover=5.75066e+06
		5:[D_TITLEMD5_EC<148.535] yes=11,no=12,missing=11,gain=1789.67,cover=1.2157e+06
			11:[TIME_OF_DAY<0.999999] yes=23,no=24,missing=24,gain=1247.39,cover=1.19036e+06
				23:[C_D_U_TITLEMD5_CITY_EC<1.16] yes=45,no=46,missing=46,gain=503.773,cover=77437.2
					45:[U_CITY_C<36.469] yes=83,no=84,missing=84,gain=802.92,cover=5556.11
						83:leaf=0.133222,cover=510.603
						84:leaf=0.0017467,cover=5045.51
					46:[U_CATEGORY_MICRO_MAX_COEC<0.040999] yes=85,no=86,missing=85,gain=353.515,cover=71881.1
						85:leaf=0.0202105,cover=2414.3
						86:leaf=-0.0187081,cover=69466.8
				24:[C_D_U_TITLEMD5_CATEGORY_MICRO_MAX_COEC<0.071999] yes=47,no=48,missing=48,gain=1145.33,cover=1.11292e+06
					47:[D_TITLEMD5_EC<5.926] yes=87,no=88,missing=88,gain=1293.15,cover=607508
						87:leaf=0.0122213,cover=86440.3
						88:leaf=-0.000985393,cover=521068
					48:[D_CATEGORY_MEAN_EC<51134] yes=89,no=90,missing=90,gain=805.653,cover=505411
						89:leaf=-0.00815755,cover=354242
						90:leaf=0.000562398,cover=151170
			12:[U_CATEGORY_MACRO_MAX_COEC<0.004999] yes=25,no=26,missing=25,gain=753.678,cover=25339
				25:[C_D_U_TITLEMD5_CITY_EC<3.813] yes=49,no=50,missing=49,gain=183.074,cover=6328.93
					49:[U_CITY_C<29.086] yes=91,no=92,missing=91,gain=241.353,cover=6154.99
						91:leaf=-0.0186442,cover=2802.06
						92:leaf=0.0211132,cover=3352.93
					50:[DOC_AGE<84] yes=93,no=94,missing=94,gain=121.46,cover=173.938
						93:leaf=-0.13305,cover=151.269
						94:leaf=0.111463,cover=22.6684
				26:[D_TITLEMD5_COEC<0.017999] yes=51,no=52,missing=52,gain=505.384,cover=19010.1
					51:[C_D_U_CATEGORY_CATEGORY_MICRO_MEAN_COEC<0.040999] yes=95,no=96,missing=96,gain=347.74,cover=10441
						95:leaf=-0.0178774,cover=2081.18
						96:leaf=-0.0635696,cover=8359.86
					52:[U_CATEGORY_MACRO_MAX_COEC<0.009999] yes=97,no=98,missing=98,gain=245.825,cover=8569.02
						97:leaf=-0.0127845,cover=6713.8
						98:leaf=-0.0539032,cover=1855.21
		6:[D_CATEGORY_MACRO_MEAN_COEC<0.048999] yes=13,no=14,missing=13,gain=1689.21,cover=4.53497e+06
			13:[D_PUBLISHER_COEC<0.057999] yes=27,no=28,missing=28,gain=440.356,cover=150314
				27:[D_KEYWORD_MACRO_MAX_COEC<0.007999] yes=53,no=54,missing=54,gain=354.214,cover=56167.6
					53:[C_D_U_TITLEMD5_CITY_EC<0.696999] yes=99,no=100,missing=100,gain=221.209,cover=11539.4
						99:leaf=-0.0910681,cover=337.889
						100:leaf=-0.0090601,cover=11201.5
					54:[C_D_U_TITLEMD5_AGE_EC<100.728] yes=101,no=102,missing=101,gain=275.462,cover=44628.2
						101:leaf=0.00858485,cover=44514.1
						102:leaf=-0.146325,cover=114.09
				28:[CAT_REL<0.001999] yes=55,no=56,missing=56,gain=438.078,cover=94146.7
					55:[C_D_U_CATEGORY_CATEGORY_MICRO_MEAN_COEC<0.031999] yes=103,no=104,missing=103,gain=271.597,cover=43023.4
						103:leaf=0.0111566,cover=13716.6
						104:leaf=0.028207,cover=29306.8
					56:[C_D_U_CATEGORY_CATEGORY_MICRO_MEAN_COEC<0.037999] yes=105,no=106,missing=106,gain=300.349,cover=51123.3
						105:leaf=-0.00466823,cover=12125.1
						106:leaf=0.0133515,cover=38998.2
			14:[D_TITLEMD5_COEC<0.177999] yes=29,no=30,missing=30,gain=1459.18,cover=4.38465e+06
				29:[CAT_REL<0.009999] yes=57,no=58,missing=58,gain=1327.71,cover=4.26752e+06
					57:[DOC_AGE<44] yes=107,no=108,missing=108,gain=1773.05,cover=2.29013e+06
						107:leaf=-0.00387564,cover=1.35647e+06
						108:leaf=0.00178663,cover=933662
					58:[U_CATEGORY_MACRO_MAX_COEC<0.008999] yes=109,no=110,missing=110,gain=1323.02,cover=1.9774e+06
						109:leaf=0.00382206,cover=1.30724e+06
						110:leaf=-0.0016426,cover=670159
				30:[C_D_U_TITLEMD5_CATEGORY_MICRO_MAX_COEC<0.071999] yes=59,no=60,missing=60,gain=648.744,cover=117128
					59:[C_D_U_CATEGORY_GENDER_MACRO_MAX_COEC<0.107999] yes=111,no=112,missing=111,gain=119.858,cover=14068.4
						111:leaf=0.0317195,cover=14063.2
						112:leaf=-0.408304,cover=5.19821
					60:[WORD_COUNT<1884] yes=113,no=114,missing=114,gain=410.759,cover=103060
						113:leaf=0.00270656,cover=54761.7
						114:leaf=0.0153578,cover=48298.2
booster[63]:
0:[U_CATEGORY_MICRO_MAX_COEC<0.061999] yes=1,no=2,missing=2,gain=1329.13,cover=5.89721e+06
	1:[U_CATEGORY_MACRO_MAX_COEC<0.026999] yes=3,no=4,missing=4,gain=691.477,cover=1.43583e+06
		3:[CAT_REL<0.159999] yes=7,no=8,missing=8,gain=754.384,cover=1.41832e+06
			7:[C_D_U_TITLEMD5_CITY_C<1.814] yes=15,no=16,missing=15,gain=610.838,cover=1.35185e+06
				15:[DAY_OF_WEEK<6] yes=31,no=32,missing=32,gain=617.951,cover=1.25985e+06
					31:[DAY_OF_WEEK<0.999999] yes=63,no=64,missing=64,gain=632.125,cover=1.06926e+06
						63:leaf=0.000995774,cover=193075
						64:leaf=-0.00532517,cover=876185
					32:[U_CATEGORY_MAX_C<53.21] yes=65,no=66,missing=66,gain=813.473,cover=190594
						65:leaf=0.0123451,cover=54315.6
						66:leaf=-0.00212753,cover=136278
				16:[C_D_U_TITLEMD5_GENDER_C<0.339999] yes=33,no=34,missing=34,gain=154.854,cover=91993.6
					33:[C_D_U_PUBLISHER_GENDER_COEC<0.024999] yes=67,no=68,missing=68,gain=41.477,cover=31.1089
						67:leaf=-0.0449971,cover=10.3663
						68:leaf=-0.293067,cover=20.7426
					34:[U_GENDER_EC<48677.1] yes=69,no=70,missing=69,gain=141.955,cover=91962.5
						69:leaf=0.00534766,cover=91926.3
						70:leaf=-0.190038,cover=36.2004
			8:[C_D_U_CATEGORY_CATEGORY_MICRO_MEAN_COEC<0.037999] yes=17,no=18,missing=17,gain=609.603,cover=66477
				17:[D_CATEGORY_MAX_C<287.375] yes=35,no=36,missing=36,gain=175.287,cover=2338.12
					35:[U_CATEGORY_MAX_C<64.924] yes=71,no=72,missing=72,gain=525.171,cover=684.498
						71:leaf=-0.0651369,cover=437.441
						72:leaf=0.116933,cover=247.057
					36:[D_KEYWORD_MAX_EC<157.283] yes=73,no=74,missing=73,gain=166.106,cover=1653.63
						73:leaf=-0.0256769,cover=773.968
						74:leaf=-0.0892232,cover=879.657
				18:[D_CATEGORY_MICRO_MAX_COEC<0.056999] yes=37,no=38,missing=38,gain=913.705,cover=64138.9
					37:[C_D_U_CATEGORY_CATEGORY_MACRO_MAX_COEC<0.009999] yes=75,no=76,missing=76,gain=195.281,cover=13067.7
						75:leaf=0.0624115,cover=2000.4
						76:leaf=0.0284582,cover=11067.3
					38:[D_PUBLISHER_C<2674.71] yes=77,no=78,missing=78,gain=294.363,cover=51071.2
						77:leaf=0.00745628,cover=42420.7
						78:leaf=-0.0127833,cover=8650.43
		4:[TIME_OF_DAY<8] yes=9,no=10,missing=10,gain=376.32,cover=17503
			9:[U_CATEGORY_MACRO_MAX_COEC<0.029999] yes=19,no=20,missing=20,gain=321.194,cover=5803.74
				19:[C_D_U_TITLEMD5_CATEGORY_MAX_EC<0.443999] yes=39,no=40,missing=40,gain=308.584,cover=1493.74
					39:[C_D_U_CATEGORY_CATEGORY_MACRO_MAX_COEC<0.040999] yes=79,no=80,missing=80,gain=108.9,cover=190.825
						79:leaf=-0.185245,cover=171.129
						80:leaf=0.0603544,cover=19.6959
					40:[U_CATEGORY_MICRO_MAX_COEC<0.054999] yes=81,no=82,missing=82,gain=173.414,cover=1302.91
						81:leaf=-0.0994686,cover=244.955
						82:leaf=-0.0062427,cover=1057.96
				20:[U_CITY_EC<762.217] yes=41,no=42,missing=42,gain=362.923,cover=4310
					41:[U_CITY_EC<164.104] yes=83,no=84,missing=84,gain=175.565,cover=1988.23
						83:leaf=0.00340247,cover=697.068
						84:leaf=0.0656756,cover=1291.16
					42:[D_CATEGORY_MAX_C<651.138] yes=85,no=86,missing=86,gain=204.854,cover=2321.77
						85:leaf=-0.1439,cover=114.955
						86:leaf=-0.00753192,cover=2206.82
			10:[C_D_U_CATEGORY_CATEGORY_MACRO_MAX_COEC<0.058999] yes=21,no=22,missing=22,gain=239.287,cover=11699.3
				21:[U_CITY_COEC<0.061999] yes=43,no=44,missing=43,gain=200.578,cover=11274.8
					43:[C_D_U_CATEGORY_CATEGORY_MACRO_MAX_COEC<0.031999] yes=87,no=88,missing=88,gain=193.397,cover=4920.51
						87:leaf=-0.0614979,cover=2887.11
						88:leaf=-0.0212245,cover=2033.4
					44:[U_CITY_COEC<0.064999] yes=89,no=90,missing=90,gain=234.867,cover=6354.34
						89:leaf=0.0382347,cover=664.88
						90:leaf=-0.0245382,cover=5689.46
				22:[U_CITY_C<99.687] yes=45,no=46,missing=46,gain=230.465,cover=424.437
					45:[C_D_U_TITLEMD5_CATEGORY_MAX_EC<17.098] yes=91,no=92,missing=92,gain=144.904,cover=229.903
						91:leaf=-0.118059,cover=113.38
						92:leaf=0.040129,cover=116.522
					46:[D_KEYWORD_MICRO_MEAN_COEC<0.055999] yes=93,no=94,missing=94,gain=130.254,cover=194.535
						93:leaf=0.00842458,cover=29.2347
						94:leaf=-0.220176,cover=165.3
	2:[U_CITY_COEC<0.228999] yes=5,no=6,missing=5,gain=1185.92,cover=4.46139e+06
		5:[C_D_U_TITLEMD5_CATEGORY_MAX_EC<0.618999] yes=11,no=12,missing=11,gain=1131.67,cover=4.42358e+06
			11:[DOC_AGE<5] yes=23,no=24,missing=24,gain=1535.45,cover=3.29031e+06
				23:[C_D_U_TITLEMD5_CATEGORY_MACRO_MAX_COEC<0.006999] yes=47,no=48,missing=48,gain=637.43,cover=540376
					47:[D_KEYWORD_MACRO_MEAN_COEC<0.068999] yes=95,no=96,missing=95,gain=633.842,cover=221030
						95:leaf=0.00605522,cover=169623
						96:leaf=0.0187306,cover=51407.6
					48:[C_D_U_CATEGORY_CATEGORY_MICRO_MAX_COEC<0.086999] yes=97,no=98,missing=98,gain=556.304,cover=319345
						97:leaf=-0.00231439,cover=153730
						98:leaf=0.00603886,cover=165615
				24:[U_CATEGORY_MAX_EC<553.018] yes=49,no=50,missing=49,gain=1281.11,cover=2.74993e+06
					49:[TIME_OF_DAY<16] yes=99,no=100,missing=100,gain=925.041,cover=1.39889e+06
						99:leaf=0.00339039,cover=799992
						100:leaf=-0.00180661,cover=598899
					50:[U_AGE_C<10999] yes=101,no=102,missing=101,gain=1637.86,cover=1.35104e+06
						101:leaf=-0.00418574,cover=1.2416e+06
						102:leaf=0.00857543,cover=109440
			12:[WORD_COUNT<3848] yes=25,no=26,missing=26,gain=753.768,cover=1.13327e+06
				25:[C_D_U_CATEGORY_CATEGORY_MACRO_MEAN_COEC<0.007999] yes=51,no=52,missing=52,gain=592.894,cover=973582
					51:[U_CITY_C<6.229] yes=103,no=104,missing=103,gain=305.475,cover=278000
						103:leaf=0.00130055,cover=79796.1
						104:leaf=0.00862819,cover=198204
					52:[C_D_U_TITLEMD5_CATEGORY_MAX_C<0.311999] yes=105,no=106,missing=106,gain=637.279,cover=695582
						105:leaf=-0.00133745,cover=427247
						106:leaf=0.00488069,cover=268335
				26:[C_D_U_CATEGORY_CATEGORY_MACRO_MEAN_COEC<0.010999] yes=53,no=54,missing=54,gain=219.37,cover=159693
					53:[C_D_U_TITLEMD5_GENDER_EC<2.717] yes=107,no=108,missing=108,gain=157.028,cover=88081.1
						107:leaf=-0.34699,cover=11.0915
						108:leaf=0.013425,cover=88070
					54:[C_D_U_CATEGORY_CATEGORY_MICRO_MAX_COEC<0.116999] yes=109,no=110,missing=110,gain=180.582,cover=71611.5
						109:leaf=0.00381792,cover=60908.1
						110:leaf=0.0179016,cover=10703.4
		6:[U_CITY_C<5.193] yes=13,no=14,missing=14,gain=225.277,cover=37804.1
			13:[D_PUBLISHER_C<1.293] yes=27,no=28,missing=27,gain=231.156,cover=15233.5
				27:[D_KEYWORD_MICRO_MAX_COEC<0.075999] yes=55,no=56,missing=56,gain=48.1626,cover=75.1174
					55:[D_KEYWORD_MICRO_MEAN_COEC<0.063999] yes=111,no=112,missing=112,gain=39.6788,cover=18.9936
						111:leaf=-0.185248,cover=7.84075
						112:leaf=0.0934083,cover=11.1528
					56:[C_D_U_CATEGORY_CATEGORY_MAX_EC<139.905] yes=113,no=114,missing=113,gain=23.9744,cover=56.1238
						113:leaf=-0.230592,cover=51.067
						114:leaf=-0.00210519,cover=5.05677
				28:[C_D_U_CATEGORY_GENDER_MAX_C<150.775] yes=57,no=58,missing=57,gain=160.212,cover=15158.4
					57:[D_CATEGORY_MACRO_MEAN_COEC<0.036999] yes=115,no=116,missing=116,gain=150.586,cover=15152.1
						115:leaf=-0.148196,cover=58.6177
						116:leaf=0.0110529,cover=15093.5
					58:leaf=-0.458786,cover=6.28102
			14:[U_CATEGORY_MAX_EC<224.69] yes=29,no=30,missing=30,gain=168.956,cover=22570.6
				29:[U_CITY_C<87.661] yes=59,no=60,missing=60,gain=102.32,cover=1774.29
					59:[U_CATEGORY_MAX_EC<69.68] yes=117,no=118,missing=118,gain=85.3127,cover=1255.81
						117:leaf=-0.0921768,cover=46.6622
						118:leaf=0.044344,cover=1209.15
					60:[C_D_U_TITLEMD5_CITY_C<0.984999] yes=119,no=120,missing=119,gain=16.9933,cover=518.479
						119:leaf=0.0944319,cover=509.651
						120:leaf=-0.041589,cover=8.82729
				30:[TIME_OF_DAY<2] yes=61,no=62,missing=62,gain=111.531,cover=20796.3
					61:[C_D_U_CATEGORY_AGE_MEAN_EC<2409.11] yes=121,no=122,missing=122,gain=85.842,cover=2400.06
						121:leaf=-0.199595,cover=19.8841
						122:leaf=0.00403345,cover=2380.18
					62:[U_CATEGORY_MAX_EC<2967.26] yes=123,no=124,missing=123,gain=112.441,cover=18396.2
						123:leaf=0.0236357,cover=17703.5
						124:leaf=0.0646876,cover=692.735
booster[64]:
0:[DOC_AGE<81] yes=1,no=2,missing=2,gain=1357.24,cover=5.89372e+06
	1:[U_CATEGORY_MACRO_MAX_COEC<0.004999] yes=3,no=4,missing=4,gain=1308.15,cover=4.98804e+06
		3:[D_CATEGORY_MACRO_MAX_COEC<0.043999] yes=7,no=8,missing=8,gain=653.714,cover=503642
			7:[TIME_OF_DAY<17] yes=15,no=16,missing=16,gain=385.545,cover=148266
				15:[U_CATEGORY_MICRO_MAX_COEC<0.074999] yes=31,no=32,missing=32,gain=384.381,cover=92998.8
					31:[U_CATEGORY_MACRO_MAX_COEC<0.003999] yes=63,no=64,missing=64,gain=357.86,cover=82059.4
						63:leaf=0.0238745,cover=18229.9
						64:leaf=0.00798844,cover=63829.4
					32:[D_CATEGORY_MICRO_MEAN_COEC<0.049999] yes=65,no=66,missing=66,gain=302.575,cover=10939.4
						65:leaf=0.060543,cover=2696.94
						66:leaf=0.0219549,cover=8242.48
				16:[C_D_U_CATEGORY_AGE_MAX_EC<268.818] yes=33,no=34,missing=34,gain=229.31,cover=55266.7
					33:[D_CATEGORY_MAX_C<3653.31] yes=67,no=68,missing=68,gain=91.7683,cover=163.582
						67:leaf=-0.131771,cover=155.634
						68:leaf=0.199825,cover=7.94808
					34:[U_CITY_C<11.098] yes=69,no=70,missing=69,gain=185.589,cover=55103.1
						69:leaf=-0.00522134,cover=16458.1
						70:leaf=0.00745864,cover=38645.1
			8:[D_PUBLISHER_COEC<0.075999] yes=17,no=18,missing=17,gain=825.187,cover=355377
				17:[D_KEYWORD_MICRO_MEAN_COEC<0.058999] yes=35,no=36,missing=35,gain=505.815,cover=232835
					35:[U_AGE_EC<146111] yes=71,no=72,missing=72,gain=313.2,cover=20241.1
						71:leaf=-0.225445,cover=70.54
						72:leaf=-0.0158295,cover=20170.5
					36:[CAT_REL<0.002999] yes=73,no=74,missing=74,gain=420.703,cover=212594
						73:leaf=-0.00646115,cover=68769.7
						74:leaf=0.00304809,cover=143825
				18:[D_PUBLISHER_C<6810.51] yes=37,no=38,missing=38,gain=205.506,cover=122542
					37:[DOC_AGE<2] yes=75,no=76,missing=76,gain=195.289,cover=108711
						75:leaf=0.0255799,cover=5494.31
						76:leaf=0.00623301,cover=103216
					38:[D_KEYWORD_MAX_C<11.196] yes=77,no=78,missing=78,gain=149.479,cover=13830.7
						77:leaf=0.0676066,cover=632.53
						78:leaf=0.0178735,cover=13198.2
		4:[D_PUBLISHER_EC<5503.04] yes=9,no=10,missing=9,gain=1256.93,cover=4.48439e+06
			9:[TIME_OF_DAY<4] yes=19,no=20,missing=20,gain=1330.6,cover=1.86571e+06
				19:[C_D_U_TITLEMD5_CATEGORY_MAX_C<0.065999] yes=39,no=40,missing=39,gain=942.224,cover=404002
					39:[C_D_U_TITLEMD5_CITY_EC<0.984999] yes=79,no=80,missing=79,gain=409.713,cover=326888
						79:leaf=-0.0078341,cover=284100
						80:leaf=0.00266234,cover=42787.7
					40:[WORD_COUNT<595] yes=81,no=82,missing=82,gain=195.188,cover=77114.8
						81:leaf=-0.0132422,cover=5016.85
						82:leaf=0.00715549,cover=72098
				20:[TIME_OF_DAY<15] yes=41,no=42,missing=42,gain=1217.04,cover=1.46171e+06
					41:[U_CITY_COEC<0.029999] yes=83,no=84,missing=84,gain=884.827,cover=565414
						83:leaf=-0.0117319,cover=26800.4
						84:leaf=0.00688454,cover=538614
					42:[D_CATEGORY_MEAN_C<3805.89] yes=85,no=86,missing=86,gain=793.072,cover=896298
						85:leaf=-0.00198732,cover=604888
						86:leaf=0.00436295,cover=291410
			10:[D_TITLEMD5_EC<5404.76] yes=21,no=22,missing=22,gain=1498.51,cover=2.61868e+06
				21:[U_CATEGORY_MICRO_MAX_COEC<0.092999] yes=43,no=44,missing=43,gain=1365.9,cover=2.28308e+06
					43:[CAT_REL<0.027999] yes=87,no=88,missing=88,gain=1297.48,cover=2.21738e+06
						87:leaf=-0.00560708,cover=1.40608e+06
						88:leaf=-0.000585087,cover=811294
					44:[U_CATEGORY_MAX_C<67.545] yes=89,no=90,missing=90,gain=251.472,cover=65705.6
						89:leaf=0.0132765,cover=57010.1
						90:leaf=-0.00497967,cover=8695.52
				22:[D_CATEGORY_MACRO_MAX_COEC<0.049999] yes=45,no=46,missing=46,gain=809.55,cover=335597
					45:[C_D_U_TITLEMD5_CATEGORY_MICRO_MAX_COEC<0.219999] yes=91,no=92,missing=92,gain=483.139,cover=107368
						91:leaf=0.00647686,cover=74132
						92:leaf=0.0209868,cover=33236.5
					46:[WORD_COUNT<1546] yes=93,no=94,missing=94,gain=318.034,cover=228229
						93:leaf=-0.00381414,cover=99305.7
						94:leaf=0.00371538,cover=128923
	2:[D_CATEGORY_MICRO_MAX_COEC<0.054999] yes=5,no=6,missing=5,gain=438.596,cover=905683
		5:[C_D_U_PUBLISHER_AGE_COEC<0.071999] yes=11,no=12,missing=11,gain=260.824,cover=53749.3
			11:[C_D_U_CATEGORY_CATEGORY_MICRO_MEAN_COEC<0.048999] yes=23,no=24,missing=23,gain=190.896,cover=51680.7
				23:[U_AGE_EC<144296] yes=47,no=48,missing=48,gain=274.003,cover=27894.1
					47:[U_CITY_COEC<0.159999] yes=95,no=96,missing=95,gain=49.0574,cover=70.5165
						95:leaf=-0.220321,cover=62.0833
						96:leaf=0.0328977,cover=8.43329
					48:[TIME_OF_DAY<17] yes=97,no=98,missing=98,gain=177.374,cover=27823.6
						97:leaf=0.0118439,cover=18093
						98:leaf=-0.00489827,cover=9730.64
				24:[D_KEYWORD_MICRO_MAX_COEC<0.101999] yes=49,no=50,missing=50,gain=166.901,cover=23786.5
					49:[C_D_U_CATEGORY_AGE_MAX_EC<1648.64] yes=99,no=100,missing=99,gain=178.862,cover=18266.2
						99:leaf=0.0225963,cover=18249
						100:leaf=-0.291272,cover=17.1793
					50:[C_D_U_CATEGORY_AGE_MACRO_MEAN_COEC<0.052999] yes=101,no=102,missing=102,gain=139.996,cover=5520.34
						101:leaf=-0.164537,cover=48.7578
						102:leaf=0.00396048,cover=5471.58
			12:[U_CATEGORY_MICRO_MAX_COEC<0.093999] yes=25,no=26,missing=26,gain=173.04,cover=2068.69
				25:[D_TITLEMD5_EC<3.911] yes=51,no=52,missing=52,gain=135.9,cover=2053.71
					51:[C_D_U_CATEGORY_CATEGORY_MICRO_MEAN_COEC<0.043999] yes=103,no=104,missing=104,gain=79.9951,cover=178.124
						103:leaf=0.195403,cover=95.0421
						104:leaf=0.0603619,cover=83.0818
					52:[D_KEYWORD_MEAN_C<183.538] yes=105,no=106,missing=106,gain=95.0738,cover=1875.59
						105:leaf=0.0346537,cover=1703.37
						106:leaf=0.112484,cover=172.219
				26:[D_TITLEMD5_COEC<0.064999] yes=53,no=54,missing=54,gain=1.81629,cover=14.9778
					53:leaf=-0.180582,cover=6.42707
					54:leaf=-0.329248,cover=8.55071
		6:[C_D_U_TITLEMD5_CATEGORY_MAX_EC<0.212999] yes=13,no=14,missing=13,gain=422.261,cover=851934
			13:[U_CATEGORY_MACRO_MAX_COEC<0.012999] yes=27,no=28,missing=27,gain=344.581,cover=467375
				27:[CAT_REL<0.048999] yes=55,no=56,missing=56,gain=455.098,cover=445087
					55:[D_TITLEMD5_C<82.458] yes=107,no=108,missing=107,gain=453.612,cover=378070
						107:leaf=-0.00152532,cover=287314
						108:leaf=0.00658449,cover=90755.9
					56:[D_KEYWORD_MEAN_EC<370.456] yes=109,no=110,missing=110,gain=227.939,cover=67017
						109:leaf=0.0227832,cover=10644.4
						110:leaf=0.00682816,cover=56372.6
				28:[C_D_U_TITLEMD5_CITY_EC<18.75] yes=57,no=58,missing=57,gain=203.21,cover=22288.1
					57:[C_D_U_TITLEMD5_CATEGORY_MAX_EC<0.015999] yes=111,no=112,missing=112,gain=181.514,cover=22271.4
						111:leaf=-0.0384172,cover=2135.73
						112:leaf=-0.00776279,cover=20135.7
					58:[D_KEYWORD_MACRO_MEAN_COEC<0.061999] yes=113,no=114,missing=114,gain=7.73141,cover=16.67
						113:leaf=-0.186102,cover=5.15183
						114:leaf=-0.402543,cover=11.5181
			14:[TIME_OF_DAY<16] yes=29,no=30,missing=30,gain=320.5,cover=384559
				29:[TIME_OF_DAY<4] yes=59,no=60,missing=60,gain=210.577,cover=187880
					59:[C_D_U_CATEGORY_CATEGORY_MICRO_MEAN_COEC<0.056999] yes=115,no=116,missing=116,gain=197.186,cover=71376.5
						115:leaf=-0.00677867,cover=13093.2
						116:leaf=0.00680162,cover=58283.3
					60:[D_CATEGORY_MACRO_MEAN_COEC<0.078999] yes=117,no=118,missing=118,gain=208.25,cover=116504
						117:leaf=0.0142001,cover=77626.5
						118:leaf=0.00523371,cover=38877.2
				30:[D_TITLEMD5_COEC<0.017999] yes=61,no=62,missing=62,gain=301.577,cover=196679
					61:[WORD_COUNT<3003] yes=119,no=120,missing=120,gain=120.162,cover=258.955
						119:leaf=-0.0557633,cover=171.867
						120:leaf=-0.199915,cover=87.0882
					62:[U_CATEGORY_MICRO_MAX_COEC<0.071999] yes=121,no=122,missing=122,gain=290.364,cover=196420
						121:leaf=0.000124952,cover=127405
						122:leaf=0.00817867,cover=69015.3
booster[65]:
0:[D_PUBLISHER_COEC<0.076999] yes=1,no=2,missing=1,gain=1284.28,cover=5.88929e+06
	1:[WORD_COUNT<2424] yes=3,no=4,missing=4,gain=1397.58,cover=3.56375e+06
		3:[DAY_OF_WEEK<6] yes=7,no=8,missing=8,gain=967.534,cover=1.95074e+06
			7:[D_KEYWORD_MACRO_MEAN_COEC<0.058999] yes=15,no=16,missing=16,gain=1048.91,cover=1.69657e+06
				15:[U_CATEGORY_MAX_EC<155.841] yes=31,no=32,missing=31,gain=630.956,cover=638628
					31:[TIME_OF_DAY<16] yes=63,no=64,missing=64,gain=352.483,cover=62494.5
						63:leaf=0.00896823,cover=35962.8
						64:leaf=-0.00622582,cover=26531.7
					32:[DOC_AGE<70] yes=65,no=66,missing=66,gain=685.716,cover=576134
						65:leaf=-0.00947965,cover=492824
						66:leaf=0.0003297,cover=83309.6
				16:[D_KEYWORD_MICRO_MEAN_COEC<0.060999] yes=33,no=34,missing=34,gain=895.589,cover=1.05794e+06
					33:[C_D_U_TITLEMD5_CATEGORY_MACRO_MAX_COEC<0.047999] yes=67,no=68,missing=67,gain=171.526,cover=16797.8
						67:leaf=-0.0229392,cover=16249.1
						68:leaf=-0.0797503,cover=548.626
					34:[DOC_AGE<4] yes=69,no=70,missing=70,gain=595.45,cover=1.04114e+06
						69:leaf=0.00516454,cover=118006
						70:leaf=-0.00237928,cover=923134
			8:[D_PUBLISHER_EC<1348.59] yes=17,no=18,missing=18,gain=387.561,cover=254174
				17:[D_PUBLISHER_EC<104.769] yes=35,no=36,missing=36,gain=373.283,cover=69931
					35:[U_CITY_COEC<0.106999] yes=71,no=72,missing=72,gain=260.918,cover=14655.4
						71:leaf=-0.013466,cover=10491.6
						72:leaf=0.0161172,cover=4163.78
					36:[C_D_U_TITLEMD5_CATEGORY_MICRO_MAX_COEC<0.059999] yes=73,no=74,missing=73,gain=276.153,cover=55275.7
						73:leaf=0.0174559,cover=39001.2
						74:leaf=0.00194806,cover=16274.5
				18:[D_PUBLISHER_COEC<0.056999] yes=37,no=38,missing=37,gain=383.151,cover=184243
					37:[U_CATEGORY_MAX_C<38.616] yes=75,no=76,missing=75,gain=324.91,cover=61082.7
						75:leaf=0.00400897,cover=20934.5
						76:leaf=-0.0113573,cover=40148.2
					38:[WORD_COUNT<595] yes=77,no=78,missing=78,gain=253.172,cover=123160
						77:leaf=-0.0180927,cover=5155.81
						78:leaf=0.00454365,cover=118004
		4:[CAT_REL<0.011999] yes=9,no=10,missing=10,gain=1158.15,cover=1.61301e+06
			9:[C_D_U_TITLEMD5_CATEGORY_MAX_EC<0.083999] yes=19,no=20,missing=19,gain=915.917,cover=673391
				19:[C_D_U_TITLEMD5_CATEGORY_MACRO_MAX_COEC<0.006999] yes=39,no=40,missing=39,gain=712.239,cover=295936
					39:[D_PUBLISHER_EC<260.531] yes=79,no=80,missing=79,gain=545.902,cover=262572
						79:leaf=0.00588551,cover=41979.3
						80:leaf=-0.00655576,cover=220592
					40:[D_KEYWORD_MEAN_EC<260.26] yes=81,no=82,missing=82,gain=299.104,cover=33364.6
						81:leaf=-0.0600183,cover=1774.38
						82:leaf=-0.0178324,cover=31590.2
				20:[D_CATEGORY_MEAN_C<963.597] yes=41,no=42,missing=42,gain=809.269,cover=377455
					41:[D_KEYWORD_MACRO_MAX_COEC<0.012999] yes=83,no=84,missing=84,gain=379.192,cover=55823.5
						83:leaf=0.00148367,cover=20676.1
						84:leaf=0.0185507,cover=35147.4
					42:[D_CATEGORY_MAX_EC<32641.1] yes=85,no=86,missing=86,gain=585.763,cover=321631
						85:leaf=-0.00502283,cover=163038
						86:leaf=0.00351312,cover=158593
			10:[U_CATEGORY_MAX_C<50.284] yes=21,no=22,missing=21,gain=1091.77,cover=939619
				21:[D_CATEGORY_MACRO_MAX_COEC<0.067999] yes=43,no=44,missing=43,gain=534.558,cover=346474
					43:[C_D_U_CATEGORY_AGE_MEAN_C<19.347] yes=87,no=88,missing=88,gain=443.739,cover=280614
						87:leaf=0.0550189,cover=2138.06
						88:leaf=0.00929761,cover=278476
					44:[C_D_U_CATEGORY_CATEGORY_MICRO_MAX_COEC<0.122999] yes=89,no=90,missing=89,gain=275.438,cover=65860.5
						89:leaf=-0.00211103,cover=61384.3
						90:leaf=0.0235809,cover=4476.19
				22:[D_KEYWORD_MAX_C<61.719] yes=45,no=46,missing=46,gain=670.141,cover=593144
					45:[C_D_U_TITLEMD5_CATEGORY_MAX_EC<0.558999] yes=91,no=92,missing=91,gain=746.011,cover=468261
						91:leaf=-0.000391415,cover=313434
						92:leaf=0.00809295,cover=154827
					46:[D_PUBLISHER_EC<47290.2] yes=93,no=94,missing=94,gain=552.696,cover=124884
						93:leaf=-0.00206382,cover=94566.6
						94:leaf=-0.0175798,cover=30317.1
	2:[CAT_REL<0.039999] yes=5,no=6,missing=6,gain=1112.55,cover=2.32554e+06
		5:[D_PUBLISHER_C<3.846] yes=11,no=12,missing=12,gain=868.547,cover=1.81229e+06
			11:[D_CATEGORY_MAX_EC<2973.15] yes=23,no=24,missing=24,gain=230.603,cover=9046.38
				23:[D_KEYWORD_MAX_EC<604.154] yes=47,no=48,missing=47,gain=131.84,cover=291.264
					47:[C_D_U_TITLEMD5_CITY_EC<1.718] yes=95,no=96,missing=95,gain=110.664,cover=243.516
						95:leaf=-0.163174,cover=230.825
						96:leaf=0.132244,cover=12.6915
					48:[D_KEYWORD_MICRO_MEAN_COEC<0.063999] yes=97,no=98,missing=98,gain=125.865,cover=47.7477
						97:leaf=0.136021,cover=34.0685
						98:leaf=-0.212896,cover=13.6792
				24:[U_CATEGORY_MAX_C<125.794] yes=49,no=50,missing=49,gain=204.218,cover=8755.12
					49:[WORD_COUNT<1980] yes=99,no=100,missing=100,gain=178.945,cover=7566.99
						99:leaf=-0.0530065,cover=2871.29
						100:leaf=-0.0213107,cover=4695.7
					50:[C_D_U_CATEGORY_CATEGORY_MACRO_MEAN_COEC<0.017999] yes=101,no=102,missing=102,gain=281.454,cover=1188.12
						101:leaf=0.0268853,cover=1077.42
						102:leaf=-0.139873,cover=110.701
			12:[C_D_U_CATEGORY_CATEGORY_MACRO_MEAN_COEC<0.006999] yes=25,no=26,missing=26,gain=692.737,cover=1.80325e+06
				25:[DOC_AGE<3] yes=51,no=52,missing=52,gain=561.665,cover=573065
					51:[D_TITLEMD5_C<0.917999] yes=103,no=104,missing=104,gain=192.972,cover=34669.8
						103:leaf=0.035985,cover=4261.49
						104:leaf=0.013264,cover=30408.3
					52:[U_CITY_COEC<0.082999] yes=105,no=106,missing=106,gain=533.707,cover=538396
						105:leaf=0.000507986,cover=338615
						106:leaf=0.00702535,cover=199780
				26:[D_KEYWORD_MEAN_EC<2189.15] yes=53,no=54,missing=54,gain=640.151,cover=1.23018e+06
					53:[D_KEYWORD_MACRO_MAX_COEC<0.021999] yes=107,no=108,missing=108,gain=540.706,cover=869331
						107:leaf=-0.00386914,cover=547769
						108:leaf=0.0012967,cover=321562
					54:[D_CATEGORY_MACRO_MAX_COEC<0.046999] yes=109,no=110,missing=110,gain=638.161,cover=360850
						109:leaf=0.00996813,cover=97402.8
						110:leaf=0.000494975,cover=263447
		6:[U_CATEGORY_MACRO_MAX_COEC<0.014999] yes=13,no=14,missing=14,gain=603.394,cover=513243
			13:[C_D_U_CATEGORY_CATEGORY_MICRO_MEAN_COEC<0.037999] yes=27,no=28,missing=28,gain=519.511,cover=445193
				27:[D_KEYWORD_MEAN_EC<816.766] yes=55,no=56,missing=56,gain=226.733,cover=5809.93
					55:[WORD_COUNT<1270] yes=111,no=112,missing=112,gain=233.298,cover=3670.09
						111:leaf=-0.0570753,cover=748.596
						112:leaf=0.00546022,cover=2921.5
					56:[C_D_U_CATEGORY_CATEGORY_MAX_C<0.046999] yes=113,no=114,missing=114,gain=197.279,cover=2139.83
						113:leaf=0.00823619,cover=479.403
						114:leaf=-0.0645661,cover=1660.43
				28:[WORD_COUNT<942] yes=57,no=58,missing=58,gain=439.903,cover=439383
					57:[D_KEYWORD_MACRO_MEAN_COEC<0.068999] yes=115,no=116,missing=115,gain=321.635,cover=61244.2
						115:leaf=-0.0119804,cover=16731.9
						116:leaf=0.00428224,cover=44512.4
					58:[D_CATEGORY_MAX_EC<107402] yes=117,no=118,missing=118,gain=416.747,cover=378139
						117:leaf=0.00960126,cover=365140
						118:leaf=-0.00861929,cover=12999.2
			14:[D_CATEGORY_MICRO_MAX_COEC<0.073999] yes=29,no=30,missing=30,gain=238.447,cover=68050.4
				29:[C_D_U_CATEGORY_CATEGORY_MEAN_EC<40.199] yes=59,no=60,missing=60,gain=195.39,cover=23814.5
					59:[CAT_REL<0.139999] yes=119,no=120,missing=120,gain=164.545,cover=4184.53
						119:leaf=-0.00106081,cover=2888.09
						120:leaf=-0.0439327,cover=1296.44
					60:[U_CATEGORY_MICRO_MAX_COEC<0.052999] yes=121,no=122,missing=122,gain=198.268,cover=19630
						121:leaf=-0.162505,cover=65.8302
						122:leaf=0.0100347,cover=19564.2
				30:[U_CATEGORY_MACRO_MAX_COEC<0.026999] yes=61,no=62,missing=62,gain=271.918,cover=44235.9
					61:[C_D_U_CATEGORY_AGE_MICRO_MEAN_COEC<0.080999] yes=123,no=124,missing=123,gain=194.721,cover=38724.1
						123:leaf=-0.00578739,cover=36847.2
						124:leaf=0.0272246,cover=1876.85
					62:[DOC_AGE<22] yes=125,no=126,missing=126,gain=207.472,cover=5511.79
						125:leaf=-0.0564099,cover=1745.86
						126:leaf=-0.0147072,cover=3765.93
booster[66]:
0:[U_CITY_COEC<0.089999] yes=1,no=2,missing=1,gain=1222.58,cover=5.88742e+06
	1:[TIME_OF_DAY<0.999999] yes=3,no=4,missing=4,gain=1202.07,cover=5.17515e+06
		3:[C_D_U_TITLEMD5_CITY_COEC<0.351999] yes=7,no=8,missing=8,gain=709.785,cover=309600
			7:[U_CITY_C<26.263] yes=15,no=16,missing=16,gain=586.402,cover=109909
				15:[D_TITLEMD5_EC<166.151] yes=31,no=32,missing=32,gain=579.575,cover=8252.24
					31:[U_CATEGORY_MACRO_MAX_COEC<0.014999] yes=63,no=64,missing=63,gain=91.6911,cover=449.554
						63:leaf=0.141979,cover=441.796
						64:leaf=-0.188026,cover=7.75852
					32:[C_D_U_TITLEMD5_CITY_EC<0.899999] yes=65,no=66,missing=66,gain=165.852,cover=7802.68
						65:leaf=0.00451206,cover=3865.95
						66:leaf=0.0336714,cover=3936.73
				16:[C_D_U_CATEGORY_CATEGORY_MICRO_MEAN_COEC<0.085999] yes=33,no=34,missing=33,gain=296.596,cover=101657
					33:[C_D_U_TITLEMD5_CATEGORY_MACRO_MAX_COEC<0.034999] yes=67,no=68,missing=67,gain=279.308,cover=77941
						67:leaf=-0.00426593,cover=76461.7
						68:leaf=-0.0481224,cover=1479.29
					34:[C_D_U_CATEGORY_GENDER_MACRO_MAX_COEC<0.036999] yes=69,no=70,missing=70,gain=188.396,cover=23716
						69:leaf=-0.391807,cover=10.8
						70:leaf=0.00787105,cover=23705.2
			8:[C_D_U_TITLEMD5_CATEGORY_MAX_C<0.111999] yes=17,no=18,missing=17,gain=501.009,cover=199691
				17:[U_CATEGORY_MAX_EC<489.918] yes=35,no=36,missing=35,gain=344.235,cover=168053
					35:[U_CITY_COEC<0.063999] yes=71,no=72,missing=71,gain=321.787,cover=56529.6
						71:leaf=-0.000459232,cover=37375.4
						72:leaf=-0.0163993,cover=19154.3
					36:[U_CATEGORY_MICRO_MAX_COEC<0.091999] yes=73,no=74,missing=74,gain=309.856,cover=111524
						73:leaf=-0.014785,cover=109830
						74:leaf=-0.0578792,cover=1693.35
				18:[U_CITY_C<154.346] yes=37,no=38,missing=37,gain=180.39,cover=31637.3
					37:[D_KEYWORD_MEAN_C<701.218] yes=75,no=76,missing=76,gain=151.621,cover=30520.3
						75:leaf=0.00390323,cover=29967.4
						76:leaf=-0.0488959,cover=552.94
					38:[D_KEYWORD_MACRO_MEAN_COEC<0.051999] yes=77,no=78,missing=78,gain=138.005,cover=1117.05
						77:leaf=-0.282893,cover=21.556
						78:leaf=-0.0328783,cover=1095.5
		4:[TIME_OF_DAY<23] yes=9,no=10,missing=10,gain=1150.47,cover=4.86555e+06
			9:[DOC_AGE<7] yes=19,no=20,missing=20,gain=1110.87,cover=4.58011e+06
				19:[C_D_U_TITLEMD5_CATEGORY_MACRO_MAX_COEC<0.006999] yes=39,no=40,missing=40,gain=851.713,cover=841017
					39:[D_KEYWORD_MACRO_MEAN_COEC<0.071999] yes=79,no=80,missing=80,gain=649.895,cover=340860
						79:leaf=0.00546352,cover=282085
						80:leaf=0.0170226,cover=58774.7
					40:[D_PUBLISHER_EC<47802.6] yes=81,no=82,missing=81,gain=366.835,cover=500157
						81:leaf=0.00216891,cover=418738
						82:leaf=-0.00516697,cover=81419.2
				20:[DOC_AGE<47] yes=41,no=42,missing=42,gain=1203.04,cover=3.73909e+06
					41:[U_CATEGORY_MICRO_MAX_COEC<0.071999] yes=83,no=84,missing=83,gain=909.802,cover=2.22899e+06
						83:leaf=-0.00332454,cover=1.48668e+06
						84:leaf=0.000962183,cover=742312
					42:[WORD_COUNT<1746] yes=85,no=86,missing=86,gain=531.671,cover=1.5101e+06
						85:leaf=-0.000785285,cover=532063
						86:leaf=0.00314265,cover=978040
			10:[C_D_U_TITLEMD5_CATEGORY_MAX_EC<0.136999] yes=21,no=22,missing=22,gain=634.903,cover=285439
				21:[D_PUBLISHER_EC<643.086] yes=43,no=44,missing=43,gain=266.198,cover=79151.1
					43:[D_CATEGORY_MICRO_MEAN_COEC<0.094999] yes=87,no=88,missing=88,gain=214.333,cover=22802.4
						87:leaf=-0.00367259,cover=22539.1
						88:leaf=-0.0942615,cover=263.244
					44:[C_D_U_CATEGORY_AGE_MACRO_MAX_COEC<0.051999] yes=89,no=90,missing=89,gain=266.994,cover=56348.8
						89:leaf=-0.0192263,cover=53116.7
						90:leaf=0.0103743,cover=3232.04
				22:[D_KEYWORD_MACRO_MAX_COEC<0.430999] yes=45,no=46,missing=46,gain=253.301,cover=206287
					45:[D_KEYWORD_MACRO_MAX_COEC<0.006999] yes=91,no=92,missing=92,gain=214.961,cover=205909
						91:leaf=-0.0235527,cover=5186.51
						92:leaf=-0.00293488,cover=200723
					46:[D_CATEGORY_MACRO_MEAN_COEC<0.056999] yes=93,no=94,missing=93,gain=38.2332,cover=378.068
						93:leaf=0.0825324,cover=372.088
						94:leaf=-0.15558,cover=5.97956
	2:[U_CITY_COEC<0.230999] yes=5,no=6,missing=6,gain=718.692,cover=712276
		5:[U_CITY_C<18.877] yes=11,no=12,missing=12,gain=581.133,cover=666996
			11:[D_KEYWORD_MACRO_MAX_COEC<0.023999] yes=23,no=24,missing=23,gain=316.58,cover=293920
				23:[U_CATEGORY_MICRO_MAX_COEC<0.063999] yes=47,no=48,missing=47,gain=267.086,cover=227684
					47:[D_CATEGORY_MACRO_MAX_COEC<0.060999] yes=95,no=96,missing=96,gain=188.364,cover=98081.7
						95:leaf=0.0055253,cover=59313.6
						96:leaf=-0.00343813,cover=38768.2
					48:[D_KEYWORD_MACRO_MEAN_COEC<0.051999] yes=97,no=98,missing=97,gain=373.607,cover=129603
						97:leaf=-0.0183984,cover=17780.4
						98:leaf=-0.00279313,cover=111822
				24:[C_D_U_TITLEMD5_CATEGORY_MICRO_MAX_COEC<0.147999] yes=49,no=50,missing=50,gain=160.404,cover=66235.5
					49:[C_D_U_TITLEMD5_GENDER_COEC<0.217999] yes=99,no=100,missing=99,gain=114.062,cover=40439.9
						99:leaf=0.00148824,cover=40111.1
						100:leaf=0.0605444,cover=328.737
					50:[DOC_AGE<56] yes=101,no=102,missing=102,gain=116.059,cover=25795.7
						101:leaf=0.00774439,cover=18241.3
						102:leaf=0.0224841,cover=7554.37
			12:[U_CATEGORY_MICRO_MAX_COEC<0.095999] yes=25,no=26,missing=25,gain=374.17,cover=373076
				25:[C_D_U_CATEGORY_CATEGORY_MACRO_MAX_COEC<0.008999] yes=51,no=52,missing=52,gain=368.106,cover=363728
					51:[CAT_REL<0.098999] yes=103,no=104,missing=104,gain=296.631,cover=261497
						103:leaf=0.00664389,cover=253496
						104:leaf=0.0261996,cover=8000.55
					52:[DOC_AGE<4] yes=105,no=106,missing=106,gain=312.642,cover=102231
						105:leaf=0.0155035,cover=11759.4
						106:leaf=-0.00182851,cover=90471.7
				26:[U_CITY_C<394.248] yes=53,no=54,missing=54,gain=248.237,cover=9347.74
					53:[C_D_U_CATEGORY_GENDER_MACRO_MEAN_COEC<0.103999] yes=107,no=108,missing=107,gain=122.451,cover=9313.75
						107:leaf=0.0270116,cover=9296.81
						108:leaf=-0.234595,cover=16.9369
					54:[DAY_OF_WEEK<4] yes=109,no=110,missing=110,gain=66.2142,cover=33.9905
						109:leaf=-0.312856,cover=26.3912
						110:leaf=0.0184396,cover=7.5993
		6:[U_CITY_C<1.768] yes=13,no=14,missing=14,gain=354.254,cover=45280.6
			13:[U_CATEGORY_MICRO_MAX_COEC<0.061999] yes=27,no=28,missing=27,gain=254.851,cover=7551.65
				27:[D_KEYWORD_MACRO_MEAN_COEC<0.071999] yes=55,no=56,missing=56,gain=270.915,cover=2910.12
					55:[TIME_OF_DAY<19] yes=111,no=112,missing=112,gain=195.826,cover=1296.77
						111:leaf=-0.085855,cover=915.906
						112:leaf=-0.000546261,cover=380.867
					56:[U_CITY_C<0.750999] yes=113,no=114,missing=114,gain=183.632,cover=1613.35
						113:leaf=-0.0585336,cover=395.774
						114:leaf=0.0197932,cover=1217.57
				28:[U_CATEGORY_MICRO_MAX_COEC<0.069999] yes=57,no=58,missing=58,gain=148.262,cover=4641.53
					57:[D_CATEGORY_MACRO_MAX_COEC<0.081999] yes=115,no=116,missing=116,gain=98.1765,cover=2107.15
						115:leaf=0.0349644,cover=2022.19
						116:leaf=-0.0742022,cover=84.963
					58:[U_GENDER_COEC<0.070999] yes=117,no=118,missing=118,gain=118.105,cover=2534.38
						117:leaf=-0.272081,cover=15.4941
						118:leaf=-0.00361337,cover=2518.88
			14:[U_CATEGORY_MACRO_MAX_COEC<0.003999] yes=29,no=30,missing=30,gain=282.118,cover=37728.9
				29:[U_CITY_C<65.233] yes=59,no=60,missing=60,gain=87.2769,cover=978.546
					59:[TIME_OF_DAY<17] yes=119,no=120,missing=120,gain=41.8407,cover=317.802
						119:leaf=0.0526179,cover=227.919
						120:leaf=-0.0276644,cover=89.8826
					60:[C_D_U_TITLEMD5_CITY_C<0.984999] yes=121,no=122,missing=121,gain=18.7952,cover=660.744
						121:leaf=0.0955586,cover=653.63
						122:leaf=-0.0611102,cover=7.11455
				30:[U_CITY_EC<467.853] yes=61,no=62,missing=62,gain=168.761,cover=36750.4
					61:[C_D_U_CATEGORY_CATEGORY_MEAN_C<0.032999] yes=123,no=124,missing=124,gain=126.107,cover=35933.3
						123:leaf=-0.0589307,cover=201.742
						124:leaf=0.0201724,cover=35731.6
					62:[C_D_U_CATEGORY_CATEGORY_MEAN_EC<42.593] yes=125,no=126,missing=125,gain=186.769,cover=817.068
						125:leaf=-0.00850145,cover=719.374
						126:leaf=-0.155214,cover=97.6938
booster[67]:
0:[D_KEYWORD_MACRO_MEAN_COEC<0.033999] yes=1,no=2,missing=2,gain=1179.22,cover=5.89043e+06
	1:[D_KEYWORD_MEAN_C<17.219] yes=3,no=4,missing=4,gain=620.12,cover=86312.2
		3:[C_D_U_CATEGORY_CATEGORY_MAX_C<0.111999] yes=7,no=8,missing=8,gain=595.81,cover=42711.8
			7:[D_TITLEMD5_COEC<0.095999] yes=15,no=16,missing=16,gain=279.741,cover=8258.59
				15:[C_D_U_TITLEMD5_CATEGORY_MICRO_MAX_COEC<0.094999] yes=31,no=32,missing=31,gain=185.478,cover=7594.08
					31:[TIME_OF_DAY<17] yes=63,no=64,missing=64,gain=168.617,cover=7463.59
						63:leaf=-0.0102504,cover=5449.42
						64:leaf=-0.0441083,cover=2014.17
					32:[CAT_REL<0.120999] yes=65,no=66,missing=66,gain=116.024,cover=130.482
						65:leaf=-0.169376,cover=118.419
						66:leaf=0.147114,cover=12.0632
				16:[U_AGE_COEC<0.076999] yes=33,no=34,missing=33,gain=137.249,cover=664.511
					33:[U_CITY_COEC<0.087999] yes=67,no=68,missing=67,gain=81.9598,cover=620.67
						67:leaf=-0.116234,cover=529.515
						68:leaf=-0.013429,cover=91.1545
					34:[U_CITY_EC<683.34] yes=69,no=70,missing=69,gain=120.433,cover=43.8416
						69:leaf=-0.159786,cover=13.5335
						70:leaf=0.189459,cover=30.3081
			8:[D_PUBLISHER_EC<10981.1] yes=17,no=18,missing=17,gain=400.187,cover=34453.2
				17:[D_KEYWORD_MACRO_MAX_COEC<0.008999] yes=35,no=36,missing=36,gain=321.352,cover=24774.8
					35:[C_D_U_CATEGORY_CATEGORY_MAX_EC<44.769] yes=71,no=72,missing=71,gain=334.294,cover=19098.9
						71:leaf=0.0105097,cover=14922.9
						72:leaf=-0.0214951,cover=4176.08
					36:[D_PUBLISHER_EC<24.098] yes=73,no=74,missing=74,gain=222.617,cover=5675.89
						73:leaf=0.0810828,cover=756.436
						74:leaf=0.0228338,cover=4919.45
				18:[U_CATEGORY_MICRO_MAX_COEC<0.058999] yes=37,no=38,missing=38,gain=267.112,cover=9678.38
					37:[U_CITY_COEC<0.040999] yes=75,no=76,missing=76,gain=255.395,cover=2409.82
						75:leaf=0.0858281,cover=415.338
						76:leaf=-0.000281112,cover=1994.48
					38:[C_D_U_PUBLISHER_GENDER_COEC<0.053999] yes=77,no=78,missing=77,gain=237.729,cover=7268.56
						77:leaf=-0.0267598,cover=7082.35
						78:leaf=0.0874219,cover=186.206
		4:[C_D_U_CATEGORY_CATEGORY_MICRO_MAX_COEC<0.116999] yes=9,no=10,missing=10,gain=348.378,cover=43600.4
			9:[D_PUBLISHER_C<1.247] yes=19,no=20,missing=20,gain=238.514,cover=39874.4
				19:[C_D_U_CATEGORY_CATEGORY_MICRO_MAX_COEC<0.038999] yes=39,no=40,missing=40,gain=238.391,cover=6487.33
					39:[D_CATEGORY_MAX_EC<3137.99] yes=79,no=80,missing=80,gain=138.932,cover=922.917
						79:leaf=0.0310165,cover=165.036
						80:leaf=-0.0700685,cover=757.881
					40:[C_D_U_CATEGORY_CATEGORY_MICRO_MEAN_COEC<0.062999] yes=81,no=82,missing=82,gain=344.257,cover=5564.41
						81:leaf=0.0260392,cover=2979.1
						82:leaf=-0.0238233,cover=2585.31
				20:[D_CATEGORY_MACRO_MAX_COEC<0.034999] yes=41,no=42,missing=42,gain=214.85,cover=33387.1
					41:[D_KEYWORD_MEAN_EC<343.32] yes=83,no=84,missing=84,gain=243.715,cover=10183.6
						83:leaf=-0.0615983,cover=963.993
						84:leaf=-0.00877693,cover=9219.63
					42:[D_PUBLISHER_C<5323.86] yes=85,no=86,missing=85,gain=221.894,cover=23203.4
						85:leaf=-0.032153,cover=22989.2
						86:leaf=0.0698721,cover=214.263
			10:[D_CATEGORY_MACRO_MEAN_COEC<0.058999] yes=21,no=22,missing=21,gain=202.559,cover=3725.99
				21:[U_CITY_EC<16351] yes=43,no=44,missing=43,gain=141.099,cover=1715.62
					43:[U_CITY_COEC<0.054999] yes=87,no=88,missing=88,gain=119.497,cover=1523.94
						87:leaf=0.0239758,cover=364.406
						88:leaf=-0.0416165,cover=1159.54
					44:[D_TITLEMD5_C<0.639999] yes=89,no=90,missing=89,gain=179.459,cover=191.677
						89:leaf=0.11547,cover=150.43
						90:leaf=-0.117888,cover=41.2476
				22:[TIME_OF_DAY<15] yes=45,no=46,missing=46,gain=197.43,cover=2010.37
					45:[U_CATEGORY_MAX_C<51.559] yes=91,no=92,missing=91,gain=276.226,cover=1215.57
						91:leaf=0.0705641,cover=1116.44
						92:leaf=-0.102904,cover=99.1374
					46:[D_CATEGORY_MACRO_MAX_COEC<0.072999] yes=93,no=94,missing=94,gain=250.206,cover=794.795
						93:leaf=0.016889,cover=666.951
						94:leaf=-0.135314,cover=127.845
	2:[D_CATEGORY_MACRO_MEAN_COEC<0.047999] yes=5,no=6,missing=5,gain=1217.44,cover=5.80412e+06
		5:[C_D_U_CATEGORY_CATEGORY_MICRO_MEAN_COEC<0.045999] yes=11,no=12,missing=11,gain=890.579,cover=246320
			11:[D_KEYWORD_MICRO_MEAN_COEC<0.054999] yes=23,no=24,missing=23,gain=385.75,cover=136829
				23:[U_CATEGORY_MAX_EC<3728.54] yes=47,no=48,missing=47,gain=190.089,cover=29962.3
					47:[D_CATEGORY_MEAN_EC<20666.3] yes=95,no=96,missing=96,gain=217.269,cover=28346.4
						95:leaf=0.0052851,cover=14497.7
						96:leaf=0.0227996,cover=13848.8
					48:[D_PUBLISHER_COEC<0.062999] yes=97,no=98,missing=97,gain=203.824,cover=1615.87
						97:leaf=-0.0475887,cover=1046.6
						98:leaf=0.0267148,cover=569.274
				24:[CAT_REL<0.006999] yes=49,no=50,missing=50,gain=499.506,cover=106867
					49:[U_CATEGORY_MICRO_MAX_COEC<0.077999] yes=99,no=100,missing=99,gain=250.8,cover=54635.5
						99:leaf=0.0036032,cover=49498.1
						100:leaf=0.0268147,cover=5137.32
					50:[D_CATEGORY_MACRO_MEAN_COEC<0.036999] yes=101,no=102,missing=102,gain=358.798,cover=52231.2
						101:leaf=0.00631427,cover=13265.1
						102:leaf=-0.0127264,cover=38966.2
			12:[D_CATEGORY_MAX_C<712.02] yes=25,no=26,missing=26,gain=383.806,cover=109491
				25:[C_D_U_CATEGORY_CATEGORY_MICRO_MEAN_COEC<0.123999] yes=51,no=52,missing=52,gain=317.939,cover=67074.6
					51:[C_D_U_CATEGORY_CATEGORY_MEAN_EC<81.308] yes=103,no=104,missing=104,gain=283.826,cover=66851
						103:leaf=0.0176109,cover=63447.3
						104:leaf=0.0472497,cover=3403.78
					52:[D_KEYWORD_MICRO_MEAN_COEC<0.083999] yes=105,no=106,missing=106,gain=283.628,cover=223.579
						105:leaf=-0.157215,cover=177.627
						106:leaf=0.11947,cover=45.9518
				26:[D_PUBLISHER_COEC<0.054999] yes=53,no=54,missing=54,gain=561.548,cover=42416.2
					53:[CAT_REL<0.109999] yes=107,no=108,missing=108,gain=304.931,cover=18358.4
						107:leaf=-0.0132045,cover=14542.8
						108:leaf=0.0185546,cover=3815.58
					54:[CAT_REL<0.001999] yes=109,no=110,missing=110,gain=242.295,cover=24057.8
						109:leaf=0.0331357,cover=6486.26
						110:leaf=0.0105208,cover=17571.6
		6:[C_D_U_CATEGORY_CATEGORY_MICRO_MEAN_COEC<0.050999] yes=13,no=14,missing=14,gain=1086.22,cover=5.5578e+06
			13:[DOC_AGE<50] yes=27,no=28,missing=28,gain=454.254,cover=515647
				27:[C_D_U_TITLEMD5_CATEGORY_MICRO_MAX_COEC<0.063999] yes=55,no=56,missing=55,gain=354.287,cover=357133
					55:[D_CATEGORY_MEAN_EC<85765.1] yes=111,no=112,missing=112,gain=364.658,cover=264641
						111:leaf=-0.00523824,cover=251193
						112:leaf=0.0116636,cover=13447.4
					56:[D_TITLEMD5_COEC<0.029999] yes=113,no=114,missing=114,gain=492.501,cover=92492.1
						113:leaf=-0.0788012,cover=1075.9
						114:leaf=-0.010777,cover=91416.2
				28:[TIME_OF_DAY<0.999999] yes=57,no=58,missing=58,gain=213.166,cover=158514
					57:[C_D_U_TITLEMD5_CITY_EC<0.703999] yes=115,no=116,missing=115,gain=165.117,cover=9698.02
						115:leaf=-0.0236377,cover=6354.18
						116:leaf=0.00381327,cover=3343.84
					58:[TIME_OF_DAY<16] yes=117,no=118,missing=118,gain=182.812,cover=148816
						117:leaf=0.00454308,cover=76322
						118:leaf=-0.00246902,cover=72494.1
			14:[C_D_U_CATEGORY_CATEGORY_MACRO_MAX_COEC<0.003999] yes=29,no=30,missing=30,gain=1215.3,cover=5.04215e+06
				29:[CAT_REL<0.023999] yes=59,no=60,missing=60,gain=1030.14,cover=679882
					59:[U_CATEGORY_MACRO_MAX_COEC<0.003999] yes=119,no=120,missing=120,gain=516.616,cover=469460
						119:leaf=0.0120396,cover=45237.2
						120:leaf=0.000797857,cover=424223
					60:[WORD_COUNT<3405] yes=121,no=122,missing=122,gain=400.309,cover=210422
						121:leaf=0.00713527,cover=137813
						122:leaf=0.0163103,cover=72608.9
				30:[CAT_REL<0.048999] yes=61,no=62,missing=62,gain=962.259,cover=4.36227e+06
					61:[D_CATEGORY_MEAN_EC<33606.7] yes=123,no=124,missing=124,gain=1236.51,cover=3.18963e+06
						123:leaf=-0.00384128,cover=1.01475e+06
						124:leaf=0.000386096,cover=2.17488e+06
					62:[U_CATEGORY_MACRO_MAX_COEC<0.014999] yes=125,no=126,missing=126,gain=1064.5,cover=1.17264e+06
						125:leaf=0.00361892,cover=1.00567e+06
						126:leaf=-0.00500295,cover=166975
booster[68]:
0:[U_CATEGORY_MICRO_MAX_COEC<0.054999] yes=1,no=2,missing=2,gain=1189.03,cover=5.89504e+06
	1:[U_CITY_EC<40252.8] yes=3,no=4,missing=3,gain=413.576,cover=308394
		3:[D_PUBLISHER_EC<4115.56] yes=7,no=8,missing=8,gain=347.223,cover=295167
			7:[C_D_U_CATEGORY_CATEGORY_MICRO_MEAN_COEC<0.031999] yes=15,no=16,missing=15,gain=620.517,cover=84084.1
				15:[U_CATEGORY_MAX_EC<1427.66] yes=31,no=32,missing=32,gain=323.213,cover=5715.62
					31:[C_D_U_PUBLISHER_AGE_C<0.327999] yes=63,no=64,missing=64,gain=312.854,cover=3868.52
						63:leaf=0.199258,cover=48.9903
						64:leaf=-0.0526375,cover=3819.53
					32:[C_D_U_CATEGORY_CATEGORY_MACRO_MEAN_COEC<0.016999] yes=65,no=66,missing=66,gain=185.162,cover=1847.1
						65:leaf=-0.00247755,cover=1820.11
						66:leaf=0.25669,cover=26.9908
				16:[D_CATEGORY_MEAN_C<7747.03] yes=33,no=34,missing=34,gain=313.7,cover=78368.5
					33:[C_D_U_TITLEMD5_CATEGORY_MAX_EC<1.135] yes=67,no=68,missing=67,gain=259.366,cover=76228.7
						67:leaf=-0.00326884,cover=57179.7
						68:leaf=0.0102037,cover=19049
					34:[C_D_U_TITLEMD5_CATEGORY_MAX_EC<0.031999] yes=69,no=70,missing=69,gain=213.364,cover=2139.77
						69:leaf=0.0839175,cover=705.054
						70:leaf=0.0167518,cover=1434.72
			8:[D_TITLEMD5_EC<4021.69] yes=17,no=18,missing=18,gain=380.906,cover=211083
				17:[D_CATEGORY_MACRO_MEAN_COEC<0.036999] yes=35,no=36,missing=36,gain=298.056,cover=168185
					35:[CAT_REL<0.058999] yes=71,no=72,missing=72,gain=275.111,cover=2832.51
						71:leaf=-0.00332752,cover=1746.5
						72:leaf=0.0607497,cover=1086.01
					36:[U_CATEGORY_MACRO_MAX_COEC<0.005999] yes=73,no=74,missing=74,gain=267.534,cover=165352
						73:leaf=-0.00654744,cover=66409.9
						74:leaf=-0.0147527,cover=98942.4
				18:[D_CATEGORY_MAX_EC<26246.3] yes=37,no=38,missing=38,gain=288.596,cover=42898.1
					37:[C_D_U_TITLEMD5_GENDER_COEC<0.099999] yes=75,no=76,missing=76,gain=288.559,cover=15933.1
						75:leaf=-0.282351,cover=32.6183
						76:leaf=0.0109383,cover=15900.5
					38:[C_D_U_PUBLISHER_GENDER_EC<112.711] yes=77,no=78,missing=78,gain=164.384,cover=26965
						77:leaf=-0.372499,cover=11.2766
						78:leaf=-0.00648767,cover=26953.7
		4:[U_CATEGORY_MAX_C<45.116] yes=9,no=10,missing=10,gain=287.972,cover=13226.7
			9:[C_D_U_CATEGORY_CATEGORY_MACRO_MAX_COEC<0.008999] yes=19,no=20,missing=20,gain=170.672,cover=2067.58
				19:[C_D_U_TITLEMD5_CITY_EC<4.921] yes=39,no=40,missing=40,gain=122.602,cover=1890.16
					39:[C_D_U_TITLEMD5_CATEGORY_MAX_EC<0.084999] yes=79,no=80,missing=79,gain=100.507,cover=539.766
						79:leaf=0.100389,cover=531.353
						80:leaf=-0.230723,cover=8.4128
					40:[C_D_U_PUBLISHER_AGE_EC<64.51] yes=81,no=82,missing=81,gain=111.079,cover=1350.39
						81:leaf=0.0407224,cover=1342.38
						82:leaf=-0.311657,cover=8.01765
				20:[C_D_U_TITLEMD5_CATEGORY_MACRO_MAX_COEC<0.026999] yes=41,no=42,missing=41,gain=172.776,cover=177.416
					41:[C_D_U_TITLEMD5_CATEGORY_MAX_C<0.015999] yes=83,no=84,missing=83,gain=155.161,cover=166.057
						83:leaf=-0.121265,cover=79.2364
						84:leaf=0.0711306,cover=86.8205
					42:leaf=-0.408578,cover=11.3594
			10:[C_D_U_CATEGORY_AGE_MACRO_MAX_COEC<0.082999] yes=21,no=22,missing=21,gain=167.392,cover=11159.2
				21:[D_KEYWORD_MAX_EC<7767.56] yes=43,no=44,missing=44,gain=145.609,cover=11126.6
					43:[U_CATEGORY_MAX_EC<933.302] yes=85,no=86,missing=86,gain=147.092,cover=10829.1
						85:leaf=-0.248085,cover=21.4374
						86:leaf=0.0082254,cover=10807.7
					44:[D_CATEGORY_MACRO_MAX_COEC<0.036999] yes=87,no=88,missing=88,gain=215.742,cover=297.462
						87:leaf=-0.277738,cover=39.4954
						88:leaf=-0.0293029,cover=257.967
				22:[C_D_U_PUBLISHER_GENDER_EC<1077.94] yes=45,no=46,missing=45,gain=84.6931,cover=32.5496
					45:[C_D_U_TITLEMD5_CATEGORY_MICRO_MAX_COEC<0.057999] yes=89,no=90,missing=89,gain=6.93334,cover=26.22
						89:leaf=-0.21162,cover=13.2534
						90:leaf=-0.359032,cover=12.9666
					46:leaf=0.0982216,cover=6.32963
	2:[TIME_OF_DAY<4] yes=5,no=6,missing=6,gain=1036.56,cover=5.58665e+06
		5:[C_D_U_TITLEMD5_CITY_COEC<0.331999] yes=11,no=12,missing=12,gain=1050.87,cover=1.19819e+06
			11:[D_TITLEMD5_EC<5.585] yes=23,no=24,missing=24,gain=372.884,cover=381355
				23:[U_CITY_EC<3743.18] yes=47,no=48,missing=48,gain=219.341,cover=832.699
					47:[C_D_U_CATEGORY_CATEGORY_MACRO_MAX_COEC<0.009999] yes=91,no=92,missing=92,gain=122.753,cover=286.592
						91:leaf=0.152595,cover=276.255
						92:leaf=-0.185768,cover=10.3372
					48:[C_D_U_CATEGORY_CATEGORY_MICRO_MEAN_COEC<0.054999] yes=93,no=94,missing=94,gain=262.375,cover=546.107
						93:leaf=-0.149672,cover=68.6224
						94:leaf=0.0581392,cover=477.484
				24:[C_D_U_CATEGORY_CATEGORY_MICRO_MAX_COEC<0.112999] yes=49,no=50,missing=49,gain=373.501,cover=380523
					49:[D_PUBLISHER_EC<113698] yes=95,no=96,missing=96,gain=351.521,cover=355779
						95:leaf=0.000621078,cover=339375
						96:leaf=0.015609,cover=16403.7
					50:[D_CATEGORY_MICRO_MAX_COEC<0.086999] yes=97,no=98,missing=98,gain=229.042,cover=24744
						97:leaf=0.0226747,cover=13673.3
						98:leaf=0.00332521,cover=11070.8
			12:[C_D_U_TITLEMD5_CATEGORY_MAX_EC<0.248999] yes=25,no=26,missing=25,gain=719.187,cover=816838
				25:[U_CATEGORY_MACRO_MAX_COEC<0.006999] yes=51,no=52,missing=51,gain=772.452,cover=523878
					51:[U_CATEGORY_MAX_C<10.918] yes=99,no=100,missing=100,gain=528.896,cover=309680
						99:leaf=0.0133607,cover=18364.7
						100:leaf=-0.00413599,cover=291316
					52:[DAY_OF_WEEK<0.999999] yes=101,no=102,missing=102,gain=519.505,cover=214198
						101:leaf=0.00127393,cover=30085.1
						102:leaf=-0.0128998,cover=184112
				26:[U_CITY_COEC<0.100999] yes=53,no=54,missing=54,gain=493.969,cover=292959
					53:[CAT_REL<0.013999] yes=103,no=104,missing=104,gain=277.52,cover=153342
						103:leaf=-0.00875274,cover=68579.6
						104:leaf=-0.000196621,cover=84762.4
					54:[D_CATEGORY_MACRO_MEAN_COEC<0.041999] yes=105,no=106,missing=106,gain=181.744,cover=139617
						105:leaf=0.0380693,cover=1565.42
						106:leaf=0.00381394,cover=138052
		6:[TIME_OF_DAY<16] yes=13,no=14,missing=14,gain=2521.89,cover=4.38845e+06
			13:[U_CATEGORY_MACRO_MAX_COEC<0.015999] yes=27,no=28,missing=27,gain=1206.6,cover=1.80472e+06
				27:[U_CITY_COEC<0.069999] yes=55,no=56,missing=56,gain=934.715,cover=1.6836e+06
					55:[DAY_OF_WEEK<6] yes=107,no=108,missing=108,gain=549.876,cover=643026
						107:leaf=0.000645208,cover=551888
						108:leaf=0.00902954,cover=91138.6
					56:[D_TITLEMD5_EC<5.585] yes=109,no=110,missing=110,gain=962.222,cover=1.04058e+06
						109:leaf=0.0199888,cover=51651.8
						110:leaf=0.00598822,cover=988924
				28:[D_CATEGORY_MACRO_MEAN_COEC<0.050999] yes=57,no=58,missing=58,gain=573.977,cover=121115
					57:[C_D_U_CATEGORY_CATEGORY_MACRO_MAX_COEC<0.003999] yes=111,no=112,missing=112,gain=321.526,cover=8373.04
						111:leaf=-0.129138,cover=141.582
						112:leaf=0.0223328,cover=8231.46
					58:[U_CATEGORY_MACRO_MAX_COEC<0.031999] yes=113,no=114,missing=114,gain=304.464,cover=112742
						113:leaf=-0.0057056,cover=102150
						114:leaf=-0.0235168,cover=10591.7
			14:[D_KEYWORD_MACRO_MEAN_COEC<0.033999] yes=29,no=30,missing=30,gain=872.325,cover=2.58374e+06
				29:[C_D_U_CATEGORY_CATEGORY_MEAN_EC<6.168] yes=59,no=60,missing=60,gain=285.852,cover=29394.9
					59:[C_D_U_TITLEMD5_CATEGORY_MACRO_MAX_COEC<0.007999] yes=115,no=116,missing=115,gain=247.915,cover=9278.7
						115:leaf=-0.0305215,cover=9161.5
						116:leaf=-0.17631,cover=117.197
					60:[D_KEYWORD_MAX_EC<131.433] yes=117,no=118,missing=118,gain=366.703,cover=20116.2
						117:leaf=0.00222447,cover=10142.6
						118:leaf=-0.0247787,cover=9973.59
				30:[C_D_U_TITLEMD5_CATEGORY_MICRO_MAX_COEC<0.059999] yes=61,no=62,missing=62,gain=612.942,cover=2.55434e+06
					61:[D_KEYWORD_MACRO_MEAN_COEC<0.080999] yes=119,no=120,missing=120,gain=640.595,cover=862322
						119:leaf=0.000980948,cover=815690
						120:leaf=0.0130318,cover=46631.9
					62:[C_D_U_TITLEMD5_CATEGORY_MAX_C<0.018999] yes=121,no=122,missing=122,gain=908.554,cover=1.69202e+06
						121:leaf=-0.00685058,cover=279664
						122:leaf=-0.000611974,cover=1.41236e+06
booster[69]:
0:[U_GENDER_COEC<0.080999] yes=1,no=2,missing=1,gain=1100.79,cover=5.88082e+06
	1:[U_CATEGORY_MICRO_MAX_COEC<0.055999] yes=3,no=4,missing=4,gain=1078.87,cover=5.77959e+06
		3:[D_KEYWORD_MEAN_EC<1323.12] yes=7,no=8,missing=8,gain=809.593,cover=435607
			7:[C_D_U_TITLEMD5_CITY_EC<23.77] yes=15,no=16,missing=15,gain=352.02,cover=212860
				15:[D_PUBLISHER_EC<1380.27] yes=31,no=32,missing=32,gain=387.787,cover=203269
					31:[U_CITY_COEC<0.062999] yes=63,no=64,missing=64,gain=227.597,cover=43606.5
						63:leaf=-0.0135274,cover=11961.8
						64:leaf=0.00266436,cover=31644.7
					32:[WORD_COUNT<319] yes=65,no=66,missing=66,gain=439.09,cover=159663
						65:leaf=0.0123681,cover=6840.34
						66:leaf=-0.0135273,cover=152822
				16:[C_D_U_TITLEMD5_AGE_COEC<0.082999] yes=33,no=34,missing=33,gain=150.02,cover=9590.87
					33:[D_PUBLISHER_C<9656.69] yes=67,no=68,missing=68,gain=134.793,cover=9502.81
						67:leaf=0.00652348,cover=8472.79
						68:leaf=0.0448193,cover=1030.02
					34:[C_D_U_TITLEMD5_AGE_COEC<0.118999] yes=69,no=70,missing=70,gain=119.487,cover=88.0665
						69:leaf=-0.284338,cover=28.5146
						70:leaf=-0.0374954,cover=59.5519
			8:[D_PUBLISHER_C<2471.09] yes=17,no=18,missing=18,gain=664.082,cover=222747
				17:[U_CATEGORY_MAX_C<53.277] yes=35,no=36,missing=36,gain=867.374,cover=148352
					35:[DAY_OF_WEEK<5] yes=71,no=72,missing=72,gain=269.298,cover=17528.6
						71:leaf=-0.0259137,cover=12133.9
						72:leaf=0.000939575,cover=5394.7
					36:[D_TITLEMD5_EC<181.279] yes=73,no=74,missing=73,gain=243.859,cover=130823
						73:leaf=0.0139351,cover=30103.9
						74:leaf=0.0036776,cover=100720
				18:[D_KEYWORD_MEAN_EC<9202.3] yes=37,no=38,missing=38,gain=444.256,cover=74395.4
					37:[D_TITLEMD5_C<242.582] yes=75,no=76,missing=76,gain=235.959,cover=68366.8
						75:leaf=-0.0119891,cover=33769.8
						76:leaf=-0.000238633,cover=34597
					38:[D_KEYWORD_MACRO_MEAN_COEC<0.083999] yes=77,no=78,missing=77,gain=409.716,cover=6028.63
						77:leaf=-0.0329724,cover=6012.76
						78:leaf=-0.526638,cover=15.8639
		4:[U_CATEGORY_MACRO_MAX_COEC<0.003999] yes=9,no=10,missing=10,gain=1173.38,cover=5.34399e+06
			9:[U_CITY_C<128.178] yes=19,no=20,missing=19,gain=558.943,cover=84235.3
				19:[DAY_OF_WEEK<5] yes=39,no=40,missing=40,gain=525.844,cover=49050.5
					39:[D_TITLEMD5_EC<181.279] yes=79,no=80,missing=79,gain=382.779,cover=34150.6
						79:leaf=-0.0136488,cover=15012.7
						80:leaf=0.00768089,cover=19137.9
					40:[U_CITY_EC<1723.94] yes=81,no=82,missing=82,gain=315.015,cover=14899.9
						81:leaf=0.0110334,cover=10257
						82:leaf=0.0424272,cover=4642.87
				20:[U_CATEGORY_MAX_C<22.2] yes=41,no=42,missing=42,gain=867.731,cover=35184.8
					41:[U_CITY_EC<1962.37] yes=83,no=84,missing=84,gain=543.139,cover=13083.7
						83:leaf=0.0702972,cover=1046.99
						84:leaf=-0.00476174,cover=12036.7
					42:[U_CATEGORY_MAX_EC<772.98] yes=85,no=86,missing=86,gain=569.624,cover=22101.1
						85:leaf=0.0412904,cover=18100.3
						86:leaf=-0.00040456,cover=4000.77
			10:[CAT_REL<0.047999] yes=21,no=22,missing=22,gain=1313.29,cover=5.25975e+06
				21:[D_KEYWORD_MEAN_C<22.061] yes=43,no=44,missing=44,gain=990.268,cover=3.94253e+06
					43:[D_TITLEMD5_COEC<0.078999] yes=87,no=88,missing=87,gain=536.215,cover=226106
						87:leaf=-0.00424408,cover=165457
						88:leaf=-0.0152359,cover=60648.9
					44:[U_CATEGORY_MICRO_MAX_COEC<0.090999] yes=89,no=90,missing=89,gain=871.925,cover=3.71642e+06
						89:leaf=-0.000697933,cover=3.55944e+06
						90:leaf=0.00691742,cover=156978
				22:[WORD_COUNT<900] yes=45,no=46,missing=46,gain=1278.34,cover=1.31723e+06
					45:[D_KEYWORD_MACRO_MEAN_COEC<0.061999] yes=91,no=92,missing=92,gain=393.914,cover=151321
						91:leaf=-0.0113667,cover=68642.8
						92:leaf=-0.00111832,cover=82678.6
					46:[U_CATEGORY_MACRO_MAX_COEC<0.018999] yes=93,no=94,missing=93,gain=1200.39,cover=1.1659e+06
						93:leaf=0.00486183,cover=1.08783e+06
						94:leaf=-0.00797479,cover=78076.4
	2:[U_CATEGORY_MACRO_MAX_COEC<0.003999] yes=5,no=6,missing=5,gain=541.063,cover=101227
		5:[U_CITY_EC<353.953] yes=11,no=12,missing=11,gain=435.094,cover=2851.41
			11:[D_TITLEMD5_EC<334.141] yes=23,no=24,missing=23,gain=180.696,cover=1363.22
				23:[DAY_OF_WEEK<2] yes=47,no=48,missing=48,gain=167.695,cover=364.483
					47:[D_CATEGORY_MAX_EC<13961.4] yes=95,no=96,missing=96,gain=102.769,cover=144.516
						95:leaf=-0.197924,cover=16.242
						96:leaf=0.0621135,cover=128.274
					48:[C_D_U_TITLEMD5_AGE_COEC<0.285999] yes=97,no=98,missing=97,gain=150.155,cover=219.966
						97:leaf=-0.139245,cover=190.239
						98:leaf=0.0998086,cover=29.7273
				24:[D_KEYWORD_MACRO_MEAN_COEC<0.056999] yes=49,no=50,missing=50,gain=116.268,cover=998.735
					49:[C_D_U_CATEGORY_CATEGORY_MICRO_MAX_COEC<0.038999] yes=99,no=100,missing=99,gain=2.01164,cover=20.7322
						99:leaf=-0.153521,cover=13.9714
						100:leaf=-0.25987,cover=6.76077
					50:[D_TITLEMD5_COEC<0.166999] yes=101,no=102,missing=102,gain=111.796,cover=978.003
						101:leaf=0.0398558,cover=961.865
						102:leaf=-0.217956,cover=16.1383
			12:[D_CATEGORY_MACRO_MEAN_COEC<0.079999] yes=25,no=26,missing=25,gain=298.708,cover=1488.2
				25:[C_D_U_TITLEMD5_CATEGORY_MAX_EC<0.031999] yes=51,no=52,missing=51,gain=238.03,cover=1025.09
					51:[U_CITY_EC<3833.04] yes=103,no=104,missing=104,gain=147.222,cover=677.21
						103:leaf=-0.185419,cover=308.566
						104:leaf=-0.0913673,cover=368.644
					52:[C_D_U_CATEGORY_CATEGORY_MEAN_EC<2.357] yes=105,no=106,missing=106,gain=180.959,cover=347.881
						105:leaf=-0.27563,cover=27.1601
						106:leaf=-0.0111942,cover=320.721
				26:[U_GENDER_COEC<0.088999] yes=53,no=54,missing=54,gain=199.52,cover=463.104
					53:[C_D_U_CATEGORY_GENDER_MEAN_EC<1509.1] yes=107,no=108,missing=108,gain=164.178,cover=445.508
						107:leaf=0.0248195,cover=421.818
						108:leaf=-0.24048,cover=23.6897
					54:leaf=-0.324098,cover=17.5965
		6:[U_CATEGORY_MACRO_MAX_COEC<0.008999] yes=13,no=14,missing=14,gain=303.531,cover=98375.7
			13:[U_AGE_C<14875.5] yes=27,no=28,missing=28,gain=213.222,cover=70248.1
				27:[U_CATEGORY_MAX_C<24.261] yes=55,no=56,missing=56,gain=232.643,cover=65679.8
					55:[U_CITY_EC<433.185] yes=109,no=110,missing=110,gain=250.686,cover=10915.2
						109:leaf=0.00817194,cover=3549.48
						110:leaf=0.0405252,cover=7365.67
					56:[U_CATEGORY_MAX_EC<311.318] yes=111,no=112,missing=112,gain=297.331,cover=54764.7
						111:leaf=-0.046157,cover=808.063
						112:leaf=0.0149197,cover=53956.6
				28:[C_D_U_CATEGORY_GENDER_MICRO_MAX_COEC<0.077999] yes=57,no=58,missing=58,gain=184.651,cover=4568.26
					57:[C_D_U_TITLEMD5_CITY_COEC<0.180999] yes=113,no=114,missing=113,gain=189.188,cover=768.133
						113:leaf=-0.0434832,cover=754.914
						114:leaf=-0.411909,cover=13.219
					58:[C_D_U_CATEGORY_CATEGORY_MAX_EC<186.701] yes=115,no=116,missing=116,gain=126.514,cover=3800.13
						115:leaf=0.00440165,cover=3789.13
						116:leaf=-0.320835,cover=10.9982
			14:[U_AGE_C<10826.7] yes=29,no=30,missing=30,gain=328.397,cover=28127.6
				29:[C_D_U_CATEGORY_CATEGORY_MACRO_MEAN_COEC<0.012999] yes=59,no=60,missing=60,gain=313.926,cover=1725.4
					59:[D_KEYWORD_MICRO_MEAN_COEC<0.092999] yes=117,no=118,missing=118,gain=400.857,cover=948.57
						117:leaf=-0.0678283,cover=927.646
						118:leaf=-0.500772,cover=20.9238
					60:[U_GENDER_COEC<0.081999] yes=119,no=120,missing=120,gain=156.086,cover=776.831
						119:leaf=-0.254864,cover=20.9857
						120:leaf=0.0154304,cover=755.846
				30:[U_AGE_COEC<0.077999] yes=61,no=62,missing=61,gain=261.992,cover=26402.2
					61:[C_D_U_PUBLISHER_AGE_COEC<0.069999] yes=121,no=122,missing=122,gain=169.598,cover=24188
						121:leaf=-0.00636453,cover=5705.36
						122:leaf=0.0133581,cover=18482.7
					62:[U_CITY_COEC<0.071999] yes=123,no=124,missing=123,gain=263.858,cover=2214.15
						123:leaf=-0.0548845,cover=1347.89
						124:leaf=0.015826,cover=866.252
booster[70]:
0:[C_D_U_TITLEMD5_CITY_C<1.842] yes=1,no=2,missing=1,gain=1195.12,cover=5.88234e+06
	1:[U_CITY_COEC<0.104999] yes=3,no=4,missing=3,gain=1289.31,cover=5.52843e+06
		3:[DOC_AGE<0.999999] yes=7,no=8,missing=8,gain=1092.01,cover=5.08907e+06
			7:[DAY_OF_WEEK<0.999999] yes=15,no=16,missing=16,gain=248.995,cover=135718
				15:[D_CATEGORY_MACRO_MAX_COEC<0.034999] yes=31,no=32,missing=32,gain=185.808,cover=12911.1
					31:[C_D_U_CATEGORY_CATEGORY_MACRO_MEAN_COEC<0.017999] yes=61,no=62,missing=61,gain=165.973,cover=2120.37
						61:leaf=0.0512756,cover=2098.66
						62:leaf=-0.22068,cover=21.7157
					32:[C_D_U_CATEGORY_CATEGORY_MICRO_MAX_COEC<0.055999] yes=63,no=64,missing=64,gain=249.396,cover=10790.7
						63:leaf=-0.0201056,cover=1623.55
						64:leaf=0.0224077,cover=9167.14
				16:[D_TITLEMD5_EC<1468.74] yes=33,no=34,missing=33,gain=243.545,cover=122807
					33:[C_D_U_CATEGORY_CATEGORY_MICRO_MAX_COEC<0.094999] yes=65,no=66,missing=65,gain=223.756,cover=121476
						65:leaf=0.00445605,cover=103144
						66:leaf=0.0164456,cover=18331.8
					34:[C_D_U_CATEGORY_CATEGORY_MEAN_EC<56.573] yes=67,no=68,missing=67,gain=126.462,cover=1331.62
						67:leaf=0.066448,cover=1014.97
						68:leaf=-0.00591187,cover=316.649
			8:[DOC_AGE<111] yes=17,no=18,missing=18,gain=1173.23,cover=4.95335e+06
				17:[D_PUBLISHER_COEC<0.021999] yes=35,no=36,missing=36,gain=1113.76,cover=4.5507e+06
					35:[D_PUBLISHER_EC<323.393] yes=69,no=70,missing=70,gain=831.674,cover=109117
						69:leaf=-0.00669746,cover=84498.2
						70:leaf=-0.0275838,cover=24618.7
					36:[D_CATEGORY_MACRO_MEAN_COEC<0.047999] yes=71,no=72,missing=71,gain=1131.81,cover=4.44158e+06
						71:leaf=0.00596632,cover=210878
						72:leaf=-0.00154011,cover=4.2307e+06
				18:[D_CATEGORY_MICRO_MAX_COEC<0.078999] yes=37,no=38,missing=38,gain=402.463,cover=402654
					37:[D_CATEGORY_MICRO_MEAN_COEC<0.057999] yes=73,no=74,missing=74,gain=224.286,cover=215916
						73:leaf=0.0138648,cover=40359.6
						74:leaf=0.00559749,cover=175557
					38:[C_D_U_TITLEMD5_CATEGORY_MAX_EC<0.031999] yes=75,no=76,missing=76,gain=233.442,cover=186738
						75:leaf=-0.00849996,cover=23567.4
						76:leaf=0.0021469,cover=163171
		4:[U_CITY_COEC<0.225999] yes=9,no=10,missing=10,gain=410.931,cover=439360
			9:[U_CITY_C<28.31] yes=19,no=20,missing=20,gain=431.37,cover=392073
				19:[CAT_REL<0.068999] yes=39,no=40,missing=40,gain=346.104,cover=259531
					39:[C_D_U_TITLEMD5_CATEGORY_MAX_C<0.061999] yes=77,no=78,missing=77,gain=270.998,cover=218639
						77:leaf=-0.00231747,cover=156313
						78:leaf=0.00548104,cover=62325.9
					40:[D_CATEGORY_MACRO_MAX_COEC<0.039999] yes=79,no=80,missing=80,gain=265.246,cover=40892.1
						79:leaf=0.028302,cover=6590.12
						80:leaf=0.00639832,cover=34302
				20:[D_KEYWORD_MICRO_MAX_COEC<0.130999] yes=41,no=42,missing=42,gain=212.403,cover=132541
					41:[TIME_OF_DAY<5] yes=81,no=82,missing=82,gain=168.452,cover=114654
						81:leaf=0.000483662,cover=30047.9
						82:leaf=0.00919981,cover=84606.6
					42:[C_D_U_CATEGORY_CATEGORY_MACRO_MAX_COEC<0.060999] yes=83,no=84,missing=83,gain=98.764,cover=17886.8
						83:leaf=0.0187857,cover=17880
						84:leaf=-0.338077,cover=6.76134
			10:[U_CITY_C<6.393] yes=21,no=22,missing=22,gain=282.665,cover=47287.3
				21:[D_PUBLISHER_C<1.399] yes=43,no=44,missing=43,gain=178.735,cover=22214.3
					43:[C_D_U_TITLEMD5_CATEGORY_MAX_EC<0.012999] yes=85,no=86,missing=85,gain=126.186,cover=145.492
						85:leaf=-0.196791,cover=72.7284
						86:leaf=-0.0110052,cover=72.7631
					44:[D_PUBLISHER_COEC<0.107999] yes=87,no=88,missing=88,gain=119.667,cover=22068.8
						87:leaf=0.00263311,cover=17800
						88:leaf=0.0212744,cover=4268.81
				22:[U_CATEGORY_MACRO_MAX_COEC<0.003999] yes=45,no=46,missing=46,gain=199.673,cover=25073
					45:[U_CITY_C<65.841] yes=89,no=90,missing=90,gain=93.8094,cover=823.705
						89:leaf=0.0181113,cover=249.554
						90:leaf=0.0916143,cover=574.151
					46:[U_AGE_C<11785.9] yes=91,no=92,missing=91,gain=142.996,cover=24249.3
						91:leaf=0.0172186,cover=22510.9
						92:leaf=0.046982,cover=1738.37
	2:[U_CITY_COEC<0.047999] yes=5,no=6,missing=6,gain=609.959,cover=353910
		5:[D_PUBLISHER_EC<11935.8] yes=11,no=12,missing=12,gain=270.777,cover=590.576
			11:[D_CATEGORY_MEAN_EC<35363.1] yes=23,no=24,missing=24,gain=200.894,cover=325.927
				23:[C_D_U_TITLEMD5_CATEGORY_MICRO_MAX_COEC<0.112999] yes=47,no=48,missing=47,gain=24.1133,cover=149.212
					47:[U_CITY_C<31.049] yes=93,no=94,missing=94,gain=3.17463,cover=129.439
						93:leaf=-0.110766,cover=5.36043
						94:leaf=-0.226342,cover=124.078
					48:leaf=-0.35166,cover=19.7733
				24:[C_D_U_TITLEMD5_CITY_C<2.104] yes=49,no=50,missing=50,gain=97.484,cover=176.716
					49:[D_CATEGORY_MICRO_MEAN_COEC<0.094999] yes=95,no=96,missing=96,gain=40.4109,cover=47.4405
						95:leaf=-0.0521808,cover=23.9637
						96:leaf=0.128965,cover=23.4768
					50:[D_CATEGORY_MACRO_MAX_COEC<0.045999] yes=97,no=98,missing=98,gain=124.14,cover=129.275
						97:leaf=-0.350336,cover=20.2321
						98:leaf=-0.0844993,cover=109.043
			12:[U_CATEGORY_MICRO_MAX_COEC<0.058999] yes=25,no=26,missing=26,gain=120.315,cover=264.649
				25:leaf=-0.309789,cover=12.6355
				26:[WORD_COUNT<1166] yes=51,no=52,missing=52,gain=105.494,cover=252.013
					51:[C_D_U_CATEGORY_CATEGORY_MICRO_MEAN_COEC<0.094999] yes=99,no=100,missing=100,gain=122.673,cover=116.341
						99:leaf=-0.368451,cover=5.22871
						100:leaf=0.0882711,cover=111.112
					52:[D_CATEGORY_MAX_C<2318.27] yes=101,no=102,missing=102,gain=242.237,cover=135.672
						101:leaf=0.0327776,cover=88.8887
						102:leaf=-0.246105,cover=46.7837
		6:[TIME_OF_DAY<13] yes=13,no=14,missing=14,gain=392.716,cover=353319
			13:[TIME_OF_DAY<6] yes=27,no=28,missing=28,gain=414.803,cover=132635
				27:[D_PUBLISHER_EC<89035.5] yes=53,no=54,missing=54,gain=321.398,cover=97614.4
					53:[U_CITY_COEC<0.076999] yes=103,no=104,missing=104,gain=292.688,cover=89040.9
						103:leaf=0.00291613,cover=78171.5
						104:leaf=0.0204289,cover=10869.4
					54:[D_CATEGORY_MACRO_MEAN_COEC<0.094999] yes=105,no=106,missing=106,gain=206.966,cover=8573.48
						105:leaf=0.0263067,cover=8540.22
						106:leaf=-0.220019,cover=33.2574
				28:[D_KEYWORD_MACRO_MEAN_COEC<0.082999] yes=55,no=56,missing=56,gain=191.564,cover=35020.2
					55:[U_CITY_EC<4787.62] yes=107,no=108,missing=108,gain=235.814,cover=18420.4
						107:leaf=0.0715805,cover=1092.76
						108:leaf=0.0236977,cover=17327.6
					56:[U_CATEGORY_MICRO_MAX_COEC<0.063999] yes=109,no=110,missing=109,gain=108.537,cover=16599.8
						109:leaf=0.00335035,cover=8005.76
						110:leaf=0.0195327,cover=8594.04
			14:[D_CATEGORY_MEAN_C<4454.51] yes=29,no=30,missing=30,gain=216.319,cover=220685
				29:[D_TITLEMD5_COEC<0.029999] yes=57,no=58,missing=58,gain=191.51,cover=132143
					57:[C_D_U_CATEGORY_CATEGORY_MACRO_MEAN_COEC<0.010999] yes=111,no=112,missing=111,gain=86.089,cover=114.439
						111:leaf=-0.184352,cover=79.9706
						112:leaf=0.00422833,cover=34.4686
					58:[D_CATEGORY_MEAN_EC<17678.3] yes=113,no=114,missing=114,gain=169.598,cover=132029
						113:leaf=0.00936512,cover=19866.3
						114:leaf=-0.000659158,cover=112162
				30:[D_CATEGORY_MACRO_MAX_COEC<0.074999] yes=59,no=60,missing=60,gain=265.514,cover=88541.8
					59:[U_CATEGORY_MAX_C<250.995] yes=115,no=116,missing=116,gain=160.568,cover=55350.9
						115:leaf=0.00794973,cover=39481.9
						116:leaf=0.0198601,cover=15869
					60:[U_CATEGORY_MACRO_MAX_COEC<0.039999] yes=117,no=118,missing=117,gain=250.77,cover=33190.9
						117:leaf=0.000331383,cover=33157.7
						118:leaf=-0.270898,cover=33.1232
booster[71]:
0:[D_PUBLISHER_EC<91988.7] yes=1,no=2,missing=2,gain=1008.28,cover=5.88707e+06
	1:[D_PUBLISHER_EC<32893.8] yes=3,no=4,missing=4,gain=1483.43,cover=5.62512e+06
		3:[D_CATEGORY_MEAN_EC<47277.2] yes=7,no=8,missing=8,gain=1339.17,cover=4.51862e+06
			7:[C_D_U_TITLEMD5_CATEGORY_MAX_EC<0.060999] yes=15,no=16,missing=15,gain=2075.35,cover=2.88176e+06
				15:[D_KEYWORD_MAX_EC<3335.3] yes=31,no=32,missing=32,gain=1753.4,cover=1.17631e+06
					31:[D_CATEGORY_MACRO_MAX_COEC<0.058999] yes=63,no=64,missing=64,gain=1460.66,cover=1.11887e+06
						63:leaf=-0.00219374,cover=733380
						64:leaf=-0.00979691,cover=385487
					32:[D_KEYWORD_MACRO_MAX_COEC<0.028999] yes=65,no=66,missing=65,gain=516.854,cover=57438.4
						65:leaf=0.0193796,cover=39941.5
						66:leaf=-0.0012309,cover=17497
				16:[D_CATEGORY_MEAN_C<1090.78] yes=33,no=34,missing=34,gain=1255.8,cover=1.70545e+06
					33:[WORD_COUNT<1371] yes=67,no=68,missing=68,gain=508.574,cover=429635
						67:leaf=0.000919146,cover=128107
						68:leaf=0.00844018,cover=301529
					34:[DOC_AGE<80] yes=69,no=70,missing=70,gain=729.195,cover=1.27582e+06
						69:leaf=-0.00127079,cover=1.01305e+06
						70:leaf=0.0046409,cover=262772
			8:[WORD_COUNT<1203] yes=17,no=18,missing=18,gain=962.203,cover=1.63686e+06
				17:[C_D_U_CATEGORY_CATEGORY_MEAN_EC<422.387] yes=35,no=36,missing=36,gain=926.789,cover=431133
					35:[D_PUBLISHER_EC<14975.4] yes=71,no=72,missing=72,gain=471.786,cover=368345
						71:leaf=-0.00135696,cover=298092
						72:leaf=-0.0104664,cover=70252.7
					36:[C_D_U_PUBLISHER_GENDER_COEC<0.067999] yes=73,no=74,missing=74,gain=341.108,cover=62787.3
						73:leaf=-0.195373,cover=79.733
						74:leaf=0.010314,cover=62707.6
				18:[U_CITY_COEC<0.058999] yes=37,no=38,missing=38,gain=598.788,cover=1.20573e+06
					37:[C_D_U_CATEGORY_AGE_MICRO_MAX_COEC<0.092999] yes=75,no=76,missing=76,gain=343.579,cover=205135
						75:leaf=0.0148534,cover=13447.3
						76:leaf=-0.00168152,cover=191687
					38:[D_PUBLISHER_EC<1701.01] yes=77,no=78,missing=78,gain=553.171,cover=1.00059e+06
						77:leaf=0.00920202,cover=269896
						78:leaf=0.00390426,cover=730698
		4:[U_CATEGORY_MACRO_MAX_COEC<0.010999] yes=9,no=10,missing=10,gain=1760.29,cover=1.1065e+06
			9:[U_CATEGORY_MICRO_MAX_COEC<0.077999] yes=19,no=20,missing=20,gain=838.51,cover=804463
				19:[D_TITLEMD5_EC<8.392] yes=39,no=40,missing=40,gain=758.351,cover=677165
					39:[D_KEYWORD_MEAN_EC<254.897] yes=79,no=80,missing=80,gain=283.268,cover=16153.4
						79:leaf=-0.0143932,cover=2199.54
						80:leaf=0.0242131,cover=13953.9
					40:[D_KEYWORD_MAX_EC<3335.3] yes=81,no=82,missing=81,gain=764.75,cover=661012
						81:leaf=-0.00198541,cover=609522
						82:leaf=-0.0146767,cover=51489.8
				20:[U_CATEGORY_MACRO_MAX_COEC<0.004999] yes=41,no=42,missing=42,gain=279.543,cover=127298
					41:[U_CITY_C<33.883] yes=83,no=84,missing=84,gain=283.506,cover=7468.6
						83:leaf=-0.00844254,cover=1878.46
						84:leaf=0.0364569,cover=5590.14
					42:[CAT_REL<0.026999] yes=85,no=86,missing=86,gain=235.493,cover=119829
						85:leaf=0.00197993,cover=78021.1
						86:leaf=0.011281,cover=41808.1
			10:[D_CATEGORY_MACRO_MAX_COEC<0.035999] yes=21,no=22,missing=22,gain=561.703,cover=302039
				21:[D_TITLEMD5_C<536.223] yes=43,no=44,missing=43,gain=576.288,cover=23809.4
					43:[C_D_U_CATEGORY_CATEGORY_MACRO_MEAN_COEC<0.017999] yes=87,no=88,missing=88,gain=244.532,cover=23567.3
						87:leaf=-0.0144467,cover=13605.1
						88:leaf=-0.0350683,cover=9962.25
					44:[C_D_U_TITLEMD5_CATEGORY_MAX_C<0.354999] yes=89,no=90,missing=89,gain=121.43,cover=242.077
						89:leaf=-0.23958,cover=137.514
						90:leaf=-0.0953715,cover=104.562
				22:[D_CATEGORY_MACRO_MEAN_COEC<0.074999] yes=45,no=46,missing=45,gain=621.376,cover=278229
					45:[C_D_U_TITLEMD5_CITY_C<0.710999] yes=91,no=92,missing=91,gain=459.939,cover=145289
						91:leaf=-0.00688451,cover=118711
						92:leaf=0.00766847,cover=26578.3
					46:[D_KEYWORD_MACRO_MAX_COEC<0.025999] yes=93,no=94,missing=94,gain=788.605,cover=132940
						93:leaf=-0.0186287,cover=94129.8
						94:leaf=-0.00168842,cover=38810.6
	2:[D_TITLEMD5_C<222.471] yes=5,no=6,missing=6,gain=895.802,cover=261947
		5:[CAT_REL<0.001999] yes=11,no=12,missing=12,gain=1265.96,cover=129357
			11:[D_TITLEMD5_COEC<0.060999] yes=23,no=24,missing=24,gain=230.28,cover=61467
				23:[C_D_U_CATEGORY_CATEGORY_MAX_C<5.12] yes=47,no=48,missing=47,gain=220.09,cover=20259.1
					47:[D_PUBLISHER_COEC<0.069999] yes=95,no=96,missing=96,gain=212.65,cover=19908.4
						95:leaf=0.0147704,cover=1848.64
						96:leaf=-0.020833,cover=18059.7
					48:[U_CITY_COEC<0.016999] yes=97,no=98,missing=98,gain=188.075,cover=350.766
						97:leaf=0.143635,cover=28.8665
						98:leaf=-0.119314,cover=321.9
				24:[D_KEYWORD_MACRO_MEAN_COEC<0.075999] yes=49,no=50,missing=50,gain=245.163,cover=41207.9
					49:[D_TITLEMD5_COEC<0.100999] yes=99,no=100,missing=100,gain=282.155,cover=38612.8
						99:leaf=-0.00648138,cover=35367.2
						100:leaf=0.0243218,cover=3245.69
					50:[D_TITLEMD5_COEC<0.089999] yes=101,no=102,missing=102,gain=245.649,cover=2595.03
						101:leaf=-0.168954,cover=130.269
						102:leaf=-0.028527,cover=2464.76
			12:[C_D_U_TITLEMD5_CATEGORY_MACRO_MAX_COEC<0.006999] yes=25,no=26,missing=25,gain=330.312,cover=67890.3
				25:[D_KEYWORD_MEAN_C<31.035] yes=51,no=52,missing=52,gain=252.829,cover=38063.7
					51:[D_KEYWORD_MEAN_C<13.53] yes=103,no=104,missing=104,gain=135.875,cover=3333.51
						103:leaf=-0.185115,cover=25.1486
						104:leaf=0.0438861,cover=3308.36
					52:[D_PUBLISHER_COEC<0.059999] yes=105,no=106,missing=106,gain=196.558,cover=34730.2
						105:leaf=-0.0638791,cover=326.121
						106:leaf=0.0140079,cover=34404.1
				26:[TIME_OF_DAY<11] yes=53,no=54,missing=54,gain=201.768,cover=29826.6
					53:[D_KEYWORD_MACRO_MEAN_COEC<0.045999] yes=107,no=108,missing=108,gain=176.885,cover=9442.51
						107:leaf=-0.22546,cover=29.7947
						108:leaf=0.0146112,cover=9412.71
					54:[U_CATEGORY_MAX_EC<510.78] yes=109,no=110,missing=110,gain=155.321,cover=20384.1
						109:leaf=0.00911986,cover=6353.08
						110:leaf=-0.00972519,cover=14031
		6:[D_CATEGORY_MACRO_MAX_COEC<0.077999] yes=13,no=14,missing=14,gain=411.851,cover=132590
			13:[C_D_U_CATEGORY_GENDER_MICRO_MAX_COEC<0.088999] yes=27,no=28,missing=28,gain=298.998,cover=104474
				27:[C_D_U_TITLEMD5_CATEGORY_MAX_EC<0.649999] yes=55,no=56,missing=55,gain=193.94,cover=676.755
					55:[C_D_U_TITLEMD5_CATEGORY_MAX_C<0.017999] yes=111,no=112,missing=111,gain=139.762,cover=72.4155
						111:leaf=-0.11601,cover=50.8276
						112:leaf=-0.418709,cover=21.588
					56:[C_D_U_CATEGORY_GENDER_MAX_C<22.922] yes=113,no=114,missing=114,gain=138.506,cover=604.34
						113:leaf=0.0322563,cover=189.454
						114:leaf=-0.0707686,cover=414.885
				28:[C_D_U_CATEGORY_CATEGORY_MACRO_MAX_COEC<0.039999] yes=57,no=58,missing=57,gain=249.754,cover=103797
					57:[D_KEYWORD_MEAN_EC<3121.2] yes=115,no=116,missing=115,gain=196.554,cover=103766
						115:leaf=0.00798955,cover=92125.2
						116:leaf=0.0217803,cover=11640.4
					58:[C_D_U_TITLEMD5_CATEGORY_MICRO_MAX_COEC<0.103999] yes=117,no=118,missing=117,gain=4.05367,cover=31.1693
						117:leaf=-0.213404,cover=18.7538
						118:leaf=-0.331163,cover=12.4155
			14:[D_KEYWORD_MACRO_MAX_COEC<0.028999] yes=29,no=30,missing=30,gain=539.013,cover=28116.1
				29:[TIME_OF_DAY<11] yes=59,no=60,missing=60,gain=156.038,cover=22624.5
					59:[U_GENDER_COEC<0.069999] yes=119,no=120,missing=120,gain=114.761,cover=8597.87
						119:leaf=-0.315095,cover=8.83348
						120:leaf=0.0268248,cover=8589.04
					60:[D_KEYWORD_MACRO_MEAN_COEC<0.054999] yes=121,no=122,missing=122,gain=174.367,cover=14026.6
						121:leaf=0.140316,cover=99.8961
						122:leaf=0.00837746,cover=13926.8
				30:[D_CATEGORY_MACRO_MEAN_COEC<0.082999] yes=61,no=62,missing=61,gain=147.743,cover=5491.63
					61:[C_D_U_CATEGORY_CATEGORY_MICRO_MAX_COEC<0.054999] yes=123,no=124,missing=124,gain=96.5244,cover=2418.18
						123:leaf=-0.264128,cover=7.69821
						124:leaf=0.0704221,cover=2410.48
					62:[TIME_OF_DAY<13] yes=125,no=126,missing=126,gain=110.833,cover=3073.45
						125:leaf=0.0515899,cover=1853.11
						126:leaf=0.0127696,cover=1220.34
booster[72]:
0:[U_CITY_COEC<0.025999] yes=1,no=2,missing=2,gain=911.21,cover=5.87653e+06
	1:[U_CITY_EC<96.524] yes=3,no=4,missing=4,gain=930.19,cover=200968
		3:[C_D_U_TITLEMD5_CATEGORY_MICRO_MAX_COEC<0.057999] yes=7,no=8,missing=7,gain=331.639,cover=118291
			7:[C_D_U_CATEGORY_CATEGORY_MACRO_MAX_COEC<0.016999] yes=15,no=16,missing=15,gain=206.25,cover=61967.6
				15:[C_D_U_TITLEMD5_CATEGORY_MAX_EC<0.377999] yes=31,no=32,missing=32,gain=224.367,cover=59349.8
					31:[D_KEYWORD_MAX_EC<148.493] yes=63,no=64,missing=63,gain=306.895,cover=20594.6
						63:leaf=0.0358165,cover=4104.99
						64:leaf=0.00526203,cover=16489.6
					32:[D_TITLEMD5_C<116.727] yes=65,no=66,missing=66,gain=467.918,cover=38755.3
						65:leaf=-0.0119566,cover=20452.9
						66:leaf=0.0100527,cover=18302.3
				16:[C_D_U_PUBLISHER_AGE_EC<63.767] yes=33,no=34,missing=33,gain=215.42,cover=2617.78
					33:[C_D_U_CATEGORY_CATEGORY_MICRO_MEAN_COEC<0.110999] yes=67,no=68,missing=68,gain=181.53,cover=2428.98
						67:leaf=0.0290412,cover=2335.93
						68:leaf=-0.112679,cover=93.0491
					34:[CAT_REL<0.008999] yes=69,no=70,missing=70,gain=109.12,cover=188.792
						69:leaf=0.191949,cover=119.187
						70:leaf=0.034034,cover=69.6051
			8:[C_D_U_PUBLISHER_AGE_COEC<0.100999] yes=17,no=18,missing=17,gain=196.382,cover=56323.2
				17:[U_CATEGORY_MACRO_MAX_COEC<0.021999] yes=35,no=36,missing=36,gain=164.485,cover=54270.7
					35:[D_KEYWORD_MACRO_MAX_COEC<0.012999] yes=71,no=72,missing=71,gain=171.659,cover=52120.2
						71:leaf=-0.017228,cover=11596
						72:leaf=-0.00343008,cover=40524.1
					36:[C_D_U_TITLEMD5_CATEGORY_MAX_C<1.97] yes=73,no=74,missing=74,gain=226.87,cover=2150.49
						73:leaf=-0.0527019,cover=1645.48
						74:leaf=0.0238781,cover=505.011
				18:[U_CITY_EC<18.205] yes=37,no=38,missing=38,gain=112.755,cover=2052.53
					37:[D_CATEGORY_MEAN_C<6424.35] yes=75,no=76,missing=76,gain=88.2028,cover=1376.13
						75:leaf=0.0272358,cover=1088.15
						76:leaf=0.0894382,cover=287.981
					38:[C_D_U_CATEGORY_AGE_MEAN_C<583.266] yes=77,no=78,missing=78,gain=160.276,cover=676.4
						77:leaf=-0.00333684,cover=666.587
						78:leaf=-0.391457,cover=9.81279
		4:[U_CITY_COEC<0.015999] yes=9,no=10,missing=10,gain=584.701,cover=82676.9
			9:[C_D_U_TITLEMD5_CITY_EC<0.931999] yes=19,no=20,missing=20,gain=340.557,cover=26578.6
				19:[D_CATEGORY_MACRO_MEAN_COEC<0.074999] yes=39,no=40,missing=40,gain=137.581,cover=1477.76
					39:[D_KEYWORD_MICRO_MAX_COEC<0.134999] yes=79,no=80,missing=80,gain=203.733,cover=896.225
						79:leaf=0.0498016,cover=884.947
						80:leaf=-0.360561,cover=11.2778
					40:[C_D_U_PUBLISHER_AGE_COEC<0.100999] yes=81,no=82,missing=81,gain=150.961,cover=581.536
						81:leaf=-0.0383039,cover=503.346
						82:leaf=0.110226,cover=78.1902
				20:[U_CATEGORY_MAX_EC<359.629] yes=41,no=42,missing=42,gain=333.443,cover=25100.8
					41:[U_CATEGORY_MAX_C<17.658] yes=83,no=84,missing=84,gain=328.423,cover=3325.32
						83:leaf=-0.0216944,cover=2266.24
						84:leaf=0.0457345,cover=1059.08
					42:[U_CATEGORY_MACRO_MAX_COEC<0.009999] yes=85,no=86,missing=85,gain=340.393,cover=21775.5
						85:leaf=-0.0414193,cover=16341.5
						86:leaf=-0.0125251,cover=5433.96
			10:[U_AGE_COEC<0.074999] yes=21,no=22,missing=22,gain=323.42,cover=56098.3
				21:[C_D_U_CATEGORY_GENDER_MICRO_MAX_COEC<0.032999] yes=43,no=44,missing=44,gain=174.669,cover=240.415
					43:leaf=0.223484,cover=12.7697
					44:[C_D_U_CATEGORY_CATEGORY_MICRO_MEAN_COEC<0.094999] yes=87,no=88,missing=88,gain=67.3184,cover=227.645
						87:leaf=-0.164731,cover=200.605
						88:leaf=0.00318632,cover=27.0394
				22:[D_TITLEMD5_EC<2815.93] yes=45,no=46,missing=46,gain=314.253,cover=55857.9
					45:[U_CATEGORY_MAX_C<10.789] yes=89,no=90,missing=90,gain=245.936,cover=47144.5
						89:leaf=-0.0468422,cover=1907.55
						90:leaf=-0.0101947,cover=45237
					46:[D_KEYWORD_MEAN_C<24.594] yes=91,no=92,missing=92,gain=301.922,cover=8713.42
						91:leaf=0.0626942,cover=933.635
						92:leaf=0.00254027,cover=7779.78
	2:[TIME_OF_DAY<16] yes=5,no=6,missing=6,gain=983.932,cover=5.67557e+06
		5:[TIME_OF_DAY<4] yes=11,no=12,missing=12,gain=2394.35,cover=3.05062e+06
			11:[D_TITLEMD5_EC<5000.58] yes=23,no=24,missing=23,gain=762.744,cover=1.23491e+06
				23:[C_D_U_TITLEMD5_CITY_EC<0.904999] yes=47,no=48,missing=47,gain=549.895,cover=1.13188e+06
					47:[TIME_OF_DAY<0.999999] yes=93,no=94,missing=94,gain=499.694,cover=832636
						93:leaf=-0.00798838,cover=228038
						94:leaf=-0.00249497,cover=604597
					48:[U_CITY_EC<1018.28] yes=95,no=96,missing=96,gain=331.377,cover=299243
						95:leaf=0.0120307,cover=24955.7
						96:leaf=-5.22461e-06,cover=274287
				24:[D_TITLEMD5_C<1546.97] yes=49,no=50,missing=50,gain=284.895,cover=103031
					49:[C_D_U_CATEGORY_AGE_MACRO_MEAN_COEC<0.058999] yes=97,no=98,missing=98,gain=180.742,cover=92205.6
						97:leaf=-0.36676,cover=11.8603
						98:leaf=0.00816302,cover=92193.8
					50:[D_KEYWORD_MACRO_MAX_COEC<0.025999] yes=99,no=100,missing=100,gain=201.153,cover=10825.8
						99:leaf=0.0184269,cover=2139.04
						100:leaf=-0.0158008,cover=8686.78
			12:[D_CATEGORY_MACRO_MAX_COEC<0.056999] yes=25,no=26,missing=26,gain=860.738,cover=1.81571e+06
				25:[WORD_COUNT<3885] yes=51,no=52,missing=52,gain=519.516,cover=886596
					51:[TIME_OF_DAY<12] yes=101,no=102,missing=102,gain=415.629,cover=695362
						101:leaf=0.00697704,cover=378269
						102:leaf=0.00206835,cover=317094
					52:[CAT_REL<0.035999] yes=103,no=104,missing=104,gain=354.096,cover=191234
						103:leaf=0.00745839,cover=124084
						104:leaf=0.0164734,cover=67150.3
				26:[U_CATEGORY_MAX_C<36.449] yes=53,no=54,missing=54,gain=522.449,cover=929110
					53:[U_GENDER_COEC<0.072999] yes=105,no=106,missing=106,gain=663.567,cover=190120
						105:leaf=-0.0351323,cover=3782.59
						106:leaf=0.00716926,cover=186337
					54:[DOC_AGE<4] yes=107,no=108,missing=108,gain=566.772,cover=738990
						107:leaf=0.00996886,cover=57664.4
						108:leaf=-0.000356118,cover=681326
		6:[U_CATEGORY_MICRO_MAX_COEC<0.059999] yes=13,no=14,missing=14,gain=682.472,cover=2.62495e+06
			13:[D_TITLEMD5_EC<8.97] yes=27,no=28,missing=27,gain=491.208,cover=419033
				27:[U_CITY_EC<2324.39] yes=55,no=56,missing=56,gain=485.902,cover=29933.2
					55:[C_D_U_TITLEMD5_CITY_EC<0.834999] yes=109,no=110,missing=110,gain=376.051,cover=13790.5
						109:leaf=0.23215,cover=83.0451
						110:leaf=0.0199619,cover=13707.4
					56:[U_CATEGORY_MAX_C<61.957] yes=111,no=112,missing=112,gain=413.5,cover=16142.8
						111:leaf=-0.0236572,cover=6555.29
						112:leaf=0.00893027,cover=9587.5
				28:[D_TITLEMD5_COEC<0.017999] yes=57,no=58,missing=58,gain=478.447,cover=389100
					57:[WORD_COUNT<830] yes=113,no=114,missing=114,gain=257.892,cover=14070.3
						113:leaf=0.0068327,cover=2283.36
						114:leaf=-0.0298827,cover=11786.9
					58:[D_PUBLISHER_C<3925.89] yes=115,no=116,missing=116,gain=248.109,cover=375029
						115:leaf=-0.00385365,cover=299815
						116:leaf=-0.0102772,cover=75214.6
			14:[D_TITLEMD5_C<2.171] yes=29,no=30,missing=30,gain=829.025,cover=2.20592e+06
				29:[D_TITLEMD5_EC<59.062] yes=59,no=60,missing=60,gain=539.905,cover=320579
					59:[D_TITLEMD5_COEC<0.045999] yes=117,no=118,missing=118,gain=696.48,cover=294357
						117:leaf=-0.000897785,cover=211373
						118:leaf=-0.0117088,cover=82984
					60:[D_PUBLISHER_EC<840.27] yes=119,no=120,missing=120,gain=519.632,cover=26221.8
						119:leaf=0.0052619,cover=6636.74
						120:leaf=-0.0271144,cover=19585.1
				30:[D_TITLEMD5_COEC<0.206999] yes=61,no=62,missing=61,gain=690.503,cover=1.88534e+06
					61:[C_D_U_TITLEMD5_CATEGORY_MICRO_MAX_COEC<0.059999] yes=121,no=122,missing=122,gain=620.071,cover=1.86344e+06
						121:leaf=0.00295967,cover=545074
						122:leaf=-0.00105022,cover=1.31837e+06
					62:[D_KEYWORD_MICRO_MAX_COEC<0.079999] yes=123,no=124,missing=124,gain=134.381,cover=21895.3
						123:leaf=-0.101116,cover=93.3505
						124:leaf=0.0184995,cover=21801.9
booster[73]:
0:[U_CATEGORY_MICRO_MAX_COEC<0.062999] yes=1,no=2,missing=2,gain=982.272,cover=5.87717e+06
	1:[WORD_COUNT<1837] yes=3,no=4,missing=4,gain=514.958,cover=1.63924e+06
		3:[C_D_U_TITLEMD5_CITY_EC<23.619] yes=7,no=8,missing=7,gain=392.43,cover=704251
			7:[D_PUBLISHER_C<3740.26] yes=15,no=16,missing=15,gain=338.774,cover=662839
				15:[D_PUBLISHER_COEC<0.041999] yes=31,no=32,missing=32,gain=437.13,cover=557459
					31:[U_CITY_EC<1928.9] yes=63,no=64,missing=63,gain=440.484,cover=75425.3
						63:leaf=-0.00553878,cover=51325.3
						64:leaf=-0.0219276,cover=24100
					32:[DAY_OF_WEEK<6] yes=65,no=66,missing=66,gain=326.606,cover=482033
						65:leaf=-0.00368468,cover=409459
						66:leaf=0.00359399,cover=72574.1
				16:[D_TITLEMD5_C<117.891] yes=33,no=34,missing=34,gain=388.279,cover=105380
					33:[C_D_U_TITLEMD5_CITY_C<3.219] yes=67,no=68,missing=67,gain=237.297,cover=33309.6
						67:leaf=-0.0185857,cover=33287.7
						68:leaf=-0.340528,cover=21.9139
					34:[U_CATEGORY_MAX_EC<3430.88] yes=69,no=70,missing=70,gain=241.961,cover=72070.4
						69:leaf=-0.00209674,cover=51551.8
						70:leaf=-0.0149363,cover=20518.6
			8:[C_D_U_TITLEMD5_CATEGORY_MACRO_MAX_COEC<0.028999] yes=17,no=18,missing=17,gain=142.819,cover=41412.6
				17:[C_D_U_CATEGORY_GENDER_MAX_C<14.454] yes=35,no=36,missing=36,gain=134.73,cover=38627.3
					35:[C_D_U_TITLEMD5_GENDER_EC<31.586] yes=71,no=72,missing=72,gain=82.1379,cover=20.3888
						71:leaf=0.00169222,cover=8.30863
						72:leaf=-0.400167,cover=12.0802
					36:[D_TITLEMD5_C<24.903] yes=73,no=74,missing=74,gain=121.511,cover=38606.9
						73:leaf=-0.172755,cover=36.5414
						74:leaf=0.00724519,cover=38570.4
				18:[D_CATEGORY_MICRO_MEAN_COEC<0.092999] yes=37,no=38,missing=38,gain=230.71,cover=2785.34
					37:[D_PUBLISHER_COEC<0.062999] yes=75,no=76,missing=76,gain=195.245,cover=2441.47
						75:leaf=-0.263135,cover=28.1083
						76:leaf=-0.00258768,cover=2413.36
					38:[CAT_REL<0.015999] yes=77,no=78,missing=78,gain=175.512,cover=343.87
						77:leaf=-0.0813726,cover=336.228
						78:leaf=-0.538873,cover=7.64262
		4:[CAT_REL<0.060999] yes=9,no=10,missing=10,gain=422.351,cover=934989
			9:[D_KEYWORD_MACRO_MAX_COEC<0.014999] yes=19,no=20,missing=19,gain=591.984,cover=697153
				19:[U_CITY_COEC<0.025999] yes=39,no=40,missing=40,gain=343.632,cover=314072
					39:[U_CITY_C<6.337] yes=79,no=80,missing=80,gain=422.591,cover=11380.5
						79:leaf=-0.0114422,cover=8743.87
						80:leaf=-0.0571113,cover=2636.6
					40:[D_CATEGORY_MEAN_EC<51014.7] yes=81,no=82,missing=81,gain=339.546,cover=302691
						81:leaf=-0.00659998,cover=207252
						82:leaf=0.000608362,cover=95439.2
				20:[U_CATEGORY_MACRO_MAX_COEC<0.017999] yes=41,no=42,missing=42,gain=267.693,cover=383081
					41:[D_KEYWORD_MEAN_EC<305.283] yes=83,no=84,missing=84,gain=224.793,cover=367029
						83:leaf=-0.0121875,cover=11715.4
						84:leaf=0.0018904,cover=355314
					42:[D_PUBLISHER_EC<40632] yes=85,no=86,missing=86,gain=197.678,cover=16051.7
						85:leaf=-0.00659143,cover=13198.9
						86:leaf=-0.0356176,cover=2852.73
			10:[D_KEYWORD_MEAN_C<24.529] yes=21,no=22,missing=22,gain=660.75,cover=237837
				21:[D_CATEGORY_MICRO_MEAN_COEC<0.052999] yes=43,no=44,missing=44,gain=346.906,cover=45692.4
					43:[U_CATEGORY_MAX_EC<3737.33] yes=87,no=88,missing=88,gain=203.226,cover=15326.5
						87:leaf=0.0289738,cover=14487.5
						88:leaf=-0.0216273,cover=839.002
					44:[C_D_U_CATEGORY_CATEGORY_MACRO_MAX_COEC<0.004999] yes=89,no=90,missing=90,gain=181.232,cover=30366
						89:leaf=0.0291884,cover=3488.37
						90:leaf=0.00496387,cover=26877.6
				22:[D_PUBLISHER_EC<58407.8] yes=45,no=46,missing=46,gain=515.949,cover=192144
					45:[U_CITY_EC<757.382] yes=91,no=92,missing=92,gain=284.608,cover=170704
						91:leaf=0.00776568,cover=62542.1
						92:leaf=-0.000708938,cover=108162
					46:[C_D_U_CATEGORY_CATEGORY_MEAN_C<11.416] yes=93,no=94,missing=94,gain=596.756,cover=21440.7
						93:leaf=-0.00359558,cover=15386.3
						94:leaf=-0.0406545,cover=6054.39
	2:[U_CATEGORY_MACRO_MAX_COEC<0.003999] yes=5,no=6,missing=6,gain=801.672,cover=4.23793e+06
		5:[U_CATEGORY_MICRO_MAX_COEC<0.074999] yes=11,no=12,missing=12,gain=693.874,cover=46755.9
			11:[U_CITY_C<113.39] yes=23,no=24,missing=24,gain=519.821,cover=42979.5
				23:[CAT_REL<0.003999] yes=47,no=48,missing=48,gain=243.809,cover=15124
					47:[C_D_U_TITLEMD5_CATEGORY_MAX_EC<0.007999] yes=95,no=96,missing=95,gain=342.888,cover=5053.7
						95:leaf=-0.0780078,cover=744.277
						96:leaf=-0.00454576,cover=4309.42
					48:[U_CATEGORY_MAX_C<38.64] yes=97,no=98,missing=98,gain=164.414,cover=10070.3
						97:leaf=0.0165419,cover=8730.91
						98:leaf=-0.0210743,cover=1339.43
				24:[U_CATEGORY_MAX_EC<311.826] yes=49,no=50,missing=50,gain=591.132,cover=27855.4
					49:[U_CITY_COEC<0.088999] yes=99,no=100,missing=99,gain=468.558,cover=8696.14
						99:leaf=-0.00366292,cover=7852.7
						100:leaf=0.0747295,cover=843.439
					50:[U_AGE_COEC<0.076999] yes=101,no=102,missing=102,gain=415.415,cover=19159.3
						101:leaf=-0.0702488,cover=364.307
						102:leaf=0.0374367,cover=18795
			12:[C_D_U_TITLEMD5_AGE_C<2.709] yes=25,no=26,missing=26,gain=289.216,cover=3776.4
				25:[D_KEYWORD_MACRO_MEAN_COEC<0.053999] yes=51,no=52,missing=52,gain=160.98,cover=163.966
					51:[C_D_U_TITLEMD5_CATEGORY_MICRO_MAX_COEC<0.038999] yes=103,no=104,missing=103,gain=182.394,cover=100.516
						103:leaf=-0.210676,cover=49.8351
						104:leaf=0.0565304,cover=50.6807
					52:[U_CITY_COEC<0.058999] yes=105,no=106,missing=106,gain=64.3154,cover=63.4501
						105:leaf=0.0348673,cover=5.69192
						106:leaf=-0.311449,cover=57.7581
				26:[D_PUBLISHER_EC<64.754] yes=53,no=54,missing=53,gain=169.194,cover=3612.44
					53:[D_KEYWORD_MAX_EC<4863.75] yes=107,no=108,missing=108,gain=43.0054,cover=58.3371
						107:leaf=-0.215436,cover=53.1177
						108:leaf=0.0733181,cover=5.21932
					54:[DOC_AGE<64] yes=109,no=110,missing=110,gain=155.777,cover=3554.1
						109:leaf=-0.0318436,cover=2528.57
						110:leaf=0.0143495,cover=1025.53
		6:[C_D_U_TITLEMD5_CATEGORY_MAX_C<0.351999] yes=13,no=14,missing=13,gain=772.972,cover=4.19117e+06
			13:[C_D_U_TITLEMD5_CATEGORY_MICRO_MAX_COEC<0.061999] yes=27,no=28,missing=28,gain=879.405,cover=3.90935e+06
				27:[D_TITLEMD5_COEC<0.108999] yes=55,no=56,missing=55,gain=762.344,cover=1.32207e+06
					55:[D_KEYWORD_MACRO_MEAN_COEC<0.033999] yes=111,no=112,missing=111,gain=619.736,cover=1.20278e+06
						111:leaf=-0.0129333,cover=28383.5
						112:leaf=0.00202042,cover=1.1744e+06
					56:[D_PUBLISHER_C<147.804] yes=113,no=114,missing=113,gain=661.884,cover=119292
						113:leaf=0.00121355,cover=49563.5
						114:leaf=0.0163286,cover=69728.5
				28:[C_D_U_TITLEMD5_CATEGORY_MAX_C<0.012999] yes=57,no=58,missing=58,gain=995.868,cover=2.58728e+06
					57:[D_KEYWORD_MACRO_MEAN_COEC<0.048999] yes=115,no=116,missing=116,gain=463.792,cover=345802
						115:leaf=-0.0189434,cover=24708
						116:leaf=-0.00472553,cover=321094
					58:[U_CATEGORY_MACRO_MAX_COEC<0.007999] yes=117,no=118,missing=117,gain=1028.32,cover=2.24148e+06
						117:leaf=0.00161759,cover=1.44286e+06
						118:leaf=-0.00285489,cover=798620
			14:[C_D_U_TITLEMD5_CATEGORY_MICRO_MAX_COEC<0.295999] yes=29,no=30,missing=30,gain=281.733,cover=281818
				29:[C_D_U_CATEGORY_CATEGORY_MACRO_MEAN_COEC<0.011999] yes=59,no=60,missing=60,gain=281.191,cover=276114
					59:[C_D_U_TITLEMD5_CATEGORY_MICRO_MAX_COEC<0.059999] yes=119,no=120,missing=120,gain=151.012,cover=99404.9
						119:leaf=-0.0314376,cover=889.952
						120:leaf=0.00991915,cover=98514.9
					60:[U_CATEGORY_MACRO_MAX_COEC<0.080999] yes=121,no=122,missing=122,gain=249.165,cover=176709
						121:leaf=0.00294399,cover=176686
						122:leaf=-0.319376,cover=22.9869
				30:[C_D_U_CATEGORY_GENDER_MACRO_MAX_COEC<0.050999] yes=61,no=62,missing=62,gain=50.3402,cover=5704.09
					61:[U_GENDER_EC<35111.9] yes=123,no=124,missing=124,gain=70.5428,cover=12.5108
						123:leaf=0.0449565,cover=7.13151
						124:leaf=-0.407196,cover=5.37929
					62:[DAY_OF_WEEK<6] yes=125,no=126,missing=126,gain=43.0475,cover=5691.58
						125:leaf=0.0303117,cover=5373.94
						126:leaf=-0.00755268,cover=317.639
booster[74]:
0:[U_CITY_COEC<0.212999] yes=1,no=2,missing=1,gain=993.509,cover=5.87764e+06
	1:[U_CATEGORY_MACRO_MAX_COEC<0.004999] yes=3,no=4,missing=4,gain=906.832,cover=5.82267e+06
		3:[TIME_OF_DAY<19] yes=7,no=8,missing=8,gain=508.745,cover=571377
			7:[U_CITY_C<5844.19] yes=15,no=16,missing=16,gain=585.697,cover=404174
				15:[U_CATEGORY_MICRO_MAX_COEC<0.077999] yes=31,no=32,missing=32,gain=477.833,cover=331915
					31:[D_KEYWORD_MACRO_MEAN_COEC<0.045999] yes=61,no=62,missing=61,gain=427.632,cover=311557
						61:leaf=-0.00825889,cover=30381.2
						62:leaf=0.00422949,cover=281176
					32:[C_D_U_CATEGORY_CATEGORY_MAX_C<0.502999] yes=63,no=64,missing=64,gain=302.647,cover=20358.1
						63:leaf=0.0251677,cover=16021.2
						64:leaf=-0.00460944,cover=4336.9
				16:[U_CATEGORY_MAX_C<31.21] yes=33,no=34,missing=34,gain=385.84,cover=72258.5
					33:[U_CATEGORY_MAX_C<28.766] yes=65,no=66,missing=66,gain=1856.9,cover=39794.8
						65:leaf=0.0117542,cover=34173.4
						66:leaf=0.0737711,cover=5621.45
					34:[U_CATEGORY_MICRO_MAX_COEC<0.068999] yes=67,no=68,missing=68,gain=222.735,cover=32463.7
						67:leaf=0.0103057,cover=25116.4
						68:leaf=-0.00948821,cover=7347.24
			8:[D_PUBLISHER_EC<10967.2] yes=17,no=18,missing=17,gain=297.903,cover=167203
				17:[U_CATEGORY_MICRO_MAX_COEC<0.068999] yes=35,no=36,missing=36,gain=309.745,cover=79887.4
					35:[DAY_OF_WEEK<6] yes=69,no=70,missing=70,gain=261.959,cover=58613.8
						69:leaf=-0.00428002,cover=49771.3
						70:leaf=0.0143975,cover=8842.45
					36:[U_CATEGORY_MAX_EC<557.434] yes=71,no=72,missing=72,gain=276.929,cover=21273.6
						71:leaf=-0.00809826,cover=14914.9
						72:leaf=-0.0330213,cover=6358.72
				18:[D_KEYWORD_MACRO_MEAN_COEC<0.038999] yes=37,no=38,missing=37,gain=266.17,cover=87316
					37:[DAY_OF_WEEK<3] yes=73,no=74,missing=74,gain=255.938,cover=1939.38
						73:leaf=-0.0713195,cover=927.013
						74:leaf=0.00138421,cover=1012.37
					38:[C_D_U_CATEGORY_GENDER_MICRO_MEAN_COEC<0.056999] yes=75,no=76,missing=76,gain=275.967,cover=85376.6
						75:leaf=-0.173396,cover=86.5368
						76:leaf=0.00425112,cover=85290
		4:[U_CITY_C<925.709] yes=9,no=10,missing=9,gain=1004.43,cover=5.25129e+06
			9:[C_D_U_TITLEMD5_CATEGORY_MAX_EC<0.247999] yes=19,no=20,missing=19,gain=849.954,cover=4.49002e+06
				19:[C_D_U_TITLEMD5_CATEGORY_MICRO_MAX_COEC<0.065999] yes=39,no=40,missing=39,gain=1116.88,cover=2.41906e+06
					39:[U_CATEGORY_MAX_EC<159.04] yes=77,no=78,missing=78,gain=787.822,cover=1.81219e+06
						77:leaf=0.0104374,cover=58728.7
						78:leaf=-0.00133703,cover=1.75346e+06
					40:[D_PUBLISHER_COEC<0.101999] yes=79,no=80,missing=80,gain=789.037,cover=606876
						79:leaf=-0.00746333,cover=512083
						80:leaf=0.00246869,cover=94793.9
				20:[WORD_COUNT<3868] yes=41,no=42,missing=42,gain=897.882,cover=2.07096e+06
					41:[C_D_U_TITLEMD5_CATEGORY_MICRO_MAX_COEC<0.194999] yes=81,no=82,missing=82,gain=850.116,cover=1.75004e+06
						81:leaf=-0.000937973,cover=1.62649e+06
						82:leaf=0.00766652,cover=123543
					42:[D_KEYWORD_MEAN_EC<8849.68] yes=83,no=84,missing=84,gain=527.983,cover=320922
						83:leaf=0.00620858,cover=309333
						84:leaf=-0.0155314,cover=11588.9
			10:[U_CITY_COEC<0.076999] yes=21,no=22,missing=22,gain=1274.91,cover=761265
				21:[C_D_U_CATEGORY_CATEGORY_MAX_C<0.679999] yes=43,no=44,missing=44,gain=791.17,cover=647850
					43:[C_D_U_TITLEMD5_CATEGORY_MAX_EC<0.026999] yes=85,no=86,missing=85,gain=393.481,cover=192960
						85:leaf=-0.0114273,cover=52856.9
						86:leaf=-0.00130176,cover=140103
					44:[U_CATEGORY_MACRO_MAX_COEC<0.011999] yes=87,no=88,missing=87,gain=535.12,cover=454890
						87:leaf=0.0052638,cover=365375
						88:leaf=-0.00336319,cover=89515.4
				22:[U_CATEGORY_MICRO_MAX_COEC<0.095999] yes=45,no=46,missing=45,gain=412.185,cover=113415
					45:[U_CITY_EC<18390.3] yes=89,no=90,missing=90,gain=419.316,cover=109886
						89:leaf=0.00800409,cover=80892.3
						90:leaf=0.0220206,cover=28993.3
					46:[C_D_U_CATEGORY_GENDER_MEAN_C<31.629] yes=91,no=92,missing=91,gain=226.836,cover=3529.04
						91:leaf=0.0475769,cover=3522.52
						92:leaf=-0.502494,cover=6.51991
	2:[U_CITY_C<1.662] yes=5,no=6,missing=6,gain=319.218,cover=54970.6
		5:[U_GENDER_COEC<0.084999] yes=11,no=12,missing=11,gain=145.724,cover=7814.24
			11:[C_D_U_TITLEMD5_CATEGORY_MACRO_MAX_COEC<0.030999] yes=23,no=24,missing=23,gain=103.376,cover=7642.44
				23:[D_PUBLISHER_COEC<0.036999] yes=47,no=48,missing=47,gain=97.7718,cover=6940.48
					47:[D_CATEGORY_MACRO_MEAN_COEC<0.069999] yes=93,no=94,missing=94,gain=177.118,cover=232.191
						93:leaf=-0.16127,cover=116.203
						94:leaf=0.0129326,cover=115.989
					48:[C_D_U_CATEGORY_CATEGORY_MICRO_MAX_COEC<0.058999] yes=95,no=96,missing=96,gain=90.1698,cover=6708.29
						95:leaf=0.0146172,cover=1329.45
						96:leaf=-0.0144588,cover=5378.85
				24:[D_CATEGORY_MICRO_MEAN_COEC<0.042999] yes=49,no=50,missing=50,gain=74.2703,cover=701.956
					49:[D_PUBLISHER_COEC<0.021999] yes=97,no=98,missing=98,gain=12.7512,cover=41.4301
						97:leaf=0.2412,cover=12.6741
						98:leaf=0.113916,cover=28.756
					50:[C_D_U_CATEGORY_CATEGORY_MICRO_MEAN_COEC<0.059999] yes=99,no=100,missing=100,gain=120.076,cover=660.525
						99:leaf=-0.161951,cover=33.0332
						100:leaf=0.0309389,cover=627.492
			12:[D_KEYWORD_MICRO_MAX_COEC<0.084999] yes=25,no=26,missing=26,gain=24.9312,cover=171.796
				25:leaf=-0.0688401,cover=9.18539
				26:[C_D_U_PUBLISHER_GENDER_COEC<0.160999] yes=51,no=52,missing=52,gain=14.8871,cover=162.611
					51:[C_D_U_CATEGORY_CATEGORY_MICRO_MEAN_COEC<0.080999] yes=101,no=102,missing=101,gain=8.89421,cover=156.254
						101:leaf=0.114741,cover=117.435
						102:leaf=0.0570877,cover=38.8189
					52:leaf=-0.0489653,cover=6.35711
		6:[U_CATEGORY_MAX_EC<258.024] yes=13,no=14,missing=14,gain=164.996,cover=47156.3
			13:[U_CITY_C<20.756] yes=27,no=28,missing=28,gain=245.547,cover=3267.75
				27:[C_D_U_CATEGORY_CATEGORY_MEAN_EC<9.109] yes=53,no=54,missing=54,gain=133.634,cover=1285.48
					53:[C_D_U_CATEGORY_CATEGORY_MICRO_MEAN_COEC<0.040999] yes=103,no=104,missing=104,gain=110.488,cover=1255.75
						103:leaf=-0.177363,cover=29.9264
						104:leaf=0.0140259,cover=1225.82
					54:[D_CATEGORY_MACRO_MEAN_COEC<0.073999] yes=105,no=106,missing=106,gain=135.595,cover=29.7266
						105:leaf=-0.573127,cover=6.47539
						106:leaf=-0.07896,cover=23.2512
				28:[U_CITY_EC<277.251] yes=55,no=56,missing=56,gain=85.2006,cover=1982.27
					55:[U_CATEGORY_MACRO_MAX_COEC<0.003999] yes=107,no=108,missing=108,gain=98.0234,cover=1185.87
						107:leaf=-0.155171,cover=23.4156
						108:leaf=0.0474834,cover=1162.46
					56:[C_D_U_TITLEMD5_CITY_C<0.984999] yes=109,no=110,missing=109,gain=18.612,cover=796.398
						109:leaf=0.0871338,cover=789.748
						110:leaf=-0.0726556,cover=6.65017
			14:[C_D_U_TITLEMD5_CITY_COEC<0.265999] yes=29,no=30,missing=29,gain=118.213,cover=43888.6
				29:[DAY_OF_WEEK<0.999999] yes=57,no=58,missing=58,gain=121.394,cover=43399.3
					57:[TIME_OF_DAY<23] yes=111,no=112,missing=112,gain=150.986,cover=8272.71
						111:leaf=0.0289894,cover=8001.12
						112:leaf=-0.0467089,cover=271.593
					58:[U_AGE_COEC<0.067999] yes=113,no=114,missing=114,gain=109.995,cover=35126.6
						113:leaf=-0.267764,cover=12.947
						114:leaf=0.0131447,cover=35113.6
				30:[C_D_U_CATEGORY_CATEGORY_MICRO_MAX_COEC<0.054999] yes=59,no=60,missing=60,gain=154.295,cover=489.338
					59:leaf=-0.324018,cover=16.6628
					60:[D_TITLEMD5_EC<336.658] yes=115,no=116,missing=116,gain=142.395,cover=472.675
						115:leaf=-0.451686,cover=6.62111
						116:leaf=-0.0158409,cover=466.054
booster[75]:
0:[DOC_AGE<149] yes=1,no=2,missing=2,gain=916.31,cover=5.88227e+06
	1:[DOC_AGE<4] yes=3,no=4,missing=4,gain=945.508,cover=5.60253e+06
		3:[D_CATEGORY_MEAN_EC<117619] yes=7,no=8,missing=8,gain=368.162,cover=637454
			7:[D_PUBLISHER_EC<37796] yes=15,no=16,missing=16,gain=573.712,cover=612347
				15:[D_TITLEMD5_C<3.995] yes=31,no=32,missing=31,gain=681.556,cover=508613
					31:[DOC_AGE<0.999999] yes=63,no=64,missing=64,gain=491.833,cover=269902
						63:leaf=0.00667646,cover=95942.8
						64:leaf=-0.0022418,cover=173959
					32:[D_TITLEMD5_COEC<0.037999] yes=65,no=66,missing=66,gain=524.392,cover=238711
						65:leaf=-0.00562062,cover=24419.7
						66:leaf=0.00984568,cover=214292
				16:[U_CATEGORY_MAX_C<107.748] yes=33,no=34,missing=34,gain=744.31,cover=103734
					33:[CAT_REL<0.011999] yes=67,no=68,missing=68,gain=485.269,cover=64582.1
						67:leaf=-0.00801988,cover=25228.2
						68:leaf=0.00974667,cover=39353.9
					34:[D_CATEGORY_MICRO_MAX_COEC<0.079999] yes=69,no=70,missing=70,gain=390.154,cover=39151.6
						69:leaf=-0.00837507,cover=28019
						70:leaf=-0.0305042,cover=11132.6
			8:[D_TITLEMD5_COEC<0.051999] yes=17,no=18,missing=17,gain=187.363,cover=25107.6
				17:[D_KEYWORD_MEAN_EC<8868.62] yes=35,no=36,missing=35,gain=170.095,cover=8097.69
					35:[D_KEYWORD_MAX_EC<737.27] yes=71,no=72,missing=72,gain=146.159,cover=8066.21
						71:leaf=0.0216324,cover=6294.85
						72:leaf=0.0541502,cover=1771.36
					36:leaf=-0.200584,cover=31.4779
				18:[D_KEYWORD_MICRO_MEAN_COEC<0.066999] yes=37,no=38,missing=38,gain=111.454,cover=17009.9
					37:[U_CATEGORY_MAX_EC<4138.67] yes=73,no=74,missing=73,gain=256.861,cover=1438.23
						73:leaf=-0.00742845,cover=1365.59
						74:leaf=-0.199169,cover=72.6398
					38:[D_KEYWORD_MACRO_MEAN_COEC<0.053999] yes=75,no=76,missing=76,gain=122.751,cover=15571.7
						75:leaf=0.0706358,cover=346.228
						76:leaf=0.0105009,cover=15225.5
		4:[D_TITLEMD5_COEC<0.149999] yes=9,no=10,missing=9,gain=982.379,cover=4.96507e+06
			9:[C_D_U_TITLEMD5_CATEGORY_MAX_EC<0.554999] yes=19,no=20,missing=19,gain=1019.98,cover=4.62418e+06
				19:[C_D_U_TITLEMD5_CATEGORY_MACRO_MAX_COEC<0.019999] yes=39,no=40,missing=39,gain=1202.93,cover=3.02255e+06
					39:[D_CATEGORY_MEAN_EC<50207.9] yes=77,no=78,missing=78,gain=809.393,cover=2.83518e+06
						77:leaf=-0.00278124,cover=1.86845e+06
						78:leaf=0.00078307,cover=966737
					40:[U_CATEGORY_MICRO_MAX_COEC<0.084999] yes=79,no=80,missing=80,gain=427.041,cover=187370
						79:leaf=-0.0117645,cover=161153
						80:leaf=0.00199729,cover=26216.7
				20:[D_PUBLISHER_C<127.422] yes=41,no=42,missing=42,gain=666.846,cover=1.60162e+06
					41:[CAT_REL<0.002999] yes=81,no=82,missing=82,gain=542.396,cover=130148
						81:leaf=0.0193345,cover=31471.7
						82:leaf=0.00425774,cover=98676.2
					42:[C_D_U_CATEGORY_CATEGORY_MACRO_MEAN_COEC<0.009999] yes=83,no=84,missing=84,gain=648.177,cover=1.47147e+06
						83:leaf=0.00229828,cover=823202
						84:leaf=-0.00192929,cover=648273
			10:[D_PUBLISHER_EC<64.19] yes=21,no=22,missing=21,gain=739.023,cover=340900
				21:[U_CITY_COEC<0.024999] yes=43,no=44,missing=44,gain=247.878,cover=10878.2
					43:[D_TITLEMD5_C<2.88] yes=85,no=86,missing=86,gain=149.224,cover=326.02
						85:leaf=-0.150358,cover=230.071
						86:leaf=-0.00197874,cover=95.9492
					44:[D_CATEGORY_MEAN_EC<33670.6] yes=87,no=88,missing=88,gain=207.377,cover=10552.2
						87:leaf=-0.0315983,cover=5601.2
						88:leaf=-0.00350776,cover=4950.96
				22:[D_TITLEMD5_COEC<0.208999] yes=45,no=46,missing=46,gain=536.365,cover=330021
					45:[D_KEYWORD_MICRO_MEAN_COEC<0.059999] yes=89,no=90,missing=90,gain=387.504,cover=273252
						89:leaf=-0.0329123,cover=2879.37
						90:leaf=0.00396135,cover=270372
					46:[D_TITLEMD5_C<0.994999] yes=91,no=92,missing=92,gain=410.237,cover=56769.7
						91:leaf=-0.00554747,cover=8833.41
						92:leaf=0.0179039,cover=47936.3
	2:[D_CATEGORY_MACRO_MEAN_COEC<0.088999] yes=5,no=6,missing=5,gain=509.725,cover=279740
		5:[D_CATEGORY_MICRO_MEAN_COEC<0.065999] yes=11,no=12,missing=11,gain=223.109,cover=244669
			11:[D_KEYWORD_MEAN_C<325.566] yes=23,no=24,missing=23,gain=237.95,cover=59758.1
				23:[D_CATEGORY_MACRO_MEAN_COEC<0.041999] yes=47,no=48,missing=48,gain=162.149,cover=58619.7
					47:[D_PUBLISHER_C<2279.63] yes=93,no=94,missing=94,gain=148.948,cover=1496.28
						93:leaf=-0.0355351,cover=1226.1
						94:leaf=0.0463695,cover=270.179
					48:[D_PUBLISHER_EC<80365.8] yes=95,no=96,missing=96,gain=142.87,cover=57123.4
						95:leaf=0.012822,cover=57025.1
						96:leaf=-0.107244,cover=98.2897
				24:[D_TITLEMD5_COEC<0.047999] yes=49,no=50,missing=50,gain=184.067,cover=1138.49
					49:[U_CITY_COEC<0.040999] yes=97,no=98,missing=98,gain=79.8672,cover=177.881
						97:leaf=0.318046,cover=24.0995
						98:leaf=0.12303,cover=153.782
					50:[TIME_OF_DAY<23] yes=99,no=100,missing=100,gain=109.588,cover=960.612
						99:leaf=0.0442559,cover=949.643
						100:leaf=-0.26046,cover=10.9689
			12:[D_PUBLISHER_COEC<0.040999] yes=25,no=26,missing=25,gain=240.447,cover=184911
				25:[U_CITY_COEC<0.047999] yes=51,no=52,missing=52,gain=229.931,cover=11723.7
					51:[CAT_REL<0.058999] yes=101,no=102,missing=102,gain=300.714,cover=1039.3
						101:leaf=-0.0863197,cover=752.268
						102:leaf=0.0338721,cover=287.029
					52:[D_PUBLISHER_EC<99.515] yes=103,no=104,missing=104,gain=180.385,cover=10684.4
						103:leaf=0.0167593,cover=3032.85
						104:leaf=-0.0120557,cover=7651.55
				26:[U_CATEGORY_MICRO_MAX_COEC<0.079999] yes=53,no=54,missing=53,gain=170.472,cover=173187
					53:[D_PUBLISHER_C<5872.86] yes=105,no=106,missing=106,gain=145.96,cover=144776
						105:leaf=0.00549682,cover=143184
						106:leaf=-0.0249381,cover=1592.32
					54:[C_D_U_CATEGORY_GENDER_MICRO_MAX_COEC<0.061999] yes=107,no=108,missing=108,gain=186.345,cover=28411
						107:leaf=-0.281666,cover=20.3555
						108:leaf=0.0138557,cover=28390.6
		6:[DOC_AGE<257] yes=13,no=14,missing=14,gain=208.47,cover=35071.4
			13:[U_GENDER_EC<34838.7] yes=27,no=28,missing=28,gain=285.815,cover=20830.6
				27:[C_D_U_CATEGORY_AGE_MACRO_MEAN_COEC<0.087999] yes=55,no=56,missing=56,gain=161.256,cover=40.5487
					55:leaf=0.113827,cover=8.11036
					56:[D_TITLEMD5_COEC<0.047999] yes=109,no=110,missing=110,gain=10.0471,cover=32.4383
						109:leaf=-0.235773,cover=9.4664
						110:leaf=-0.415149,cover=22.9719
				28:[D_TITLEMD5_C<0.994999] yes=57,no=58,missing=58,gain=185.635,cover=20790
					57:[D_KEYWORD_MACRO_MAX_COEC<0.028999] yes=111,no=112,missing=112,gain=177.1,cover=1560.08
						111:leaf=-0.0313556,cover=1353.43
						112:leaf=-0.130589,cover=206.651
					58:[C_D_U_CATEGORY_CATEGORY_MICRO_MAX_COEC<0.131999] yes=113,no=114,missing=113,gain=154.213,cover=19230
						113:leaf=-0.0113374,cover=17714.5
						114:leaf=0.0218897,cover=1515.45
			14:[C_D_U_CATEGORY_CATEGORY_MAX_EC<54.719] yes=29,no=30,missing=30,gain=182.221,cover=14240.8
				29:[C_D_U_CATEGORY_CATEGORY_MICRO_MEAN_COEC<0.063999] yes=59,no=60,missing=60,gain=393.082,cover=10088.1
					59:[D_CATEGORY_MEAN_EC<65121.8] yes=115,no=116,missing=116,gain=186.474,cover=270.324
						115:leaf=-0.156231,cover=231.367
						116:leaf=0.0785692,cover=38.9563
					60:[D_KEYWORD_MICRO_MAX_COEC<0.138999] yes=117,no=118,missing=118,gain=127.825,cover=9817.8
						117:leaf=0.00241457,cover=9324.41
						118:leaf=-0.0497642,cover=493.382
				30:[D_KEYWORD_MACRO_MAX_COEC<0.051999] yes=61,no=62,missing=62,gain=163.233,cover=4152.68
					61:[U_CITY_EC<10400.6] yes=119,no=120,missing=120,gain=119.779,cover=4128.01
						119:leaf=0.0341032,cover=2888.84
						120:leaf=-0.0030574,cover=1239.17
					62:[U_CITY_C<1.709] yes=121,no=122,missing=122,gain=11.2519,cover=24.6671
						121:leaf=-0.0768968,cover=5.05003
						122:leaf=-0.263835,cover=19.6171
booster[76]:
0:[U_CATEGORY_MICRO_MAX_COEC<0.070999] yes=1,no=2,missing=2,gain=885.663,cover=5.87817e+06
	1:[U_CATEGORY_MACRO_MAX_COEC<0.003999] yes=3,no=4,missing=4,gain=846.354,cover=3.18951e+06
		3:[U_CATEGORY_MICRO_MAX_COEC<0.062999] yes=7,no=8,missing=8,gain=482.592,cover=98660.2
			7:[TIME_OF_DAY<17] yes=15,no=16,missing=16,gain=492.531,cover=61133.2
				15:[CAT_REL<0.014999] yes=31,no=32,missing=32,gain=362.181,cover=40100.4
					31:[U_CATEGORY_MICRO_MAX_COEC<0.058999] yes=63,no=64,missing=64,gain=240.519,cover=21593.4
						63:leaf=0.0085042,cover=13510.3
						64:leaf=-0.0133025,cover=8083.07
					32:[D_CATEGORY_MICRO_MAX_COEC<0.062999] yes=65,no=66,missing=66,gain=266.534,cover=18506.9
						65:leaf=0.00270629,cover=6303.62
						66:leaf=0.0280291,cover=12203.3
				16:[U_CITY_EC<11192.8] yes=33,no=34,missing=34,gain=330.457,cover=21032.9
					33:[U_CATEGORY_MAX_C<61.619] yes=67,no=68,missing=68,gain=242.092,cover=14436.3
						67:leaf=-0.00988098,cover=10017.9
						68:leaf=0.0182159,cover=4418.38
					34:[U_CATEGORY_MAX_C<49.71] yes=69,no=70,missing=70,gain=322.164,cover=6596.63
						69:leaf=-0.00810466,cover=3596.09
						70:leaf=-0.0524831,cover=3000.54
			8:[U_AGE_C<13503.9] yes=17,no=18,missing=18,gain=388.342,cover=37527
				17:[C_D_U_PUBLISHER_AGE_EC<43.113] yes=35,no=36,missing=35,gain=425.907,cover=1219.18
					35:[D_PUBLISHER_COEC<0.021999] yes=71,no=72,missing=72,gain=122.888,cover=216.39
						71:leaf=-0.039696,cover=57.8375
						72:leaf=-0.210638,cover=158.552
					36:[WORD_COUNT<1705] yes=73,no=74,missing=74,gain=200.416,cover=1002.79
						73:leaf=-0.0895565,cover=244.058
						74:leaf=0.0144481,cover=758.73
				18:[U_CITY_EC<1062.38] yes=37,no=38,missing=38,gain=369.879,cover=36307.8
					37:[D_PUBLISHER_EC<1459.27] yes=75,no=76,missing=75,gain=166.856,cover=11297.7
						75:leaf=-0.023517,cover=1855.27
						76:leaf=0.00927895,cover=9442.47
					38:[U_CITY_C<2249.49] yes=77,no=78,missing=77,gain=514.409,cover=25010
						77:leaf=0.0300658,cover=22882.7
						78:leaf=-0.0213352,cover=2127.36
		4:[C_D_U_CATEGORY_AGE_MACRO_MEAN_COEC<0.090999] yes=9,no=10,missing=10,gain=926.461,cover=3.09085e+06
			9:[U_CATEGORY_MICRO_MAX_COEC<0.063999] yes=19,no=20,missing=20,gain=491.399,cover=178004
				19:[U_AGE_EC<144125] yes=39,no=40,missing=40,gain=288.973,cover=95698
					39:[WORD_COUNT<655] yes=79,no=80,missing=80,gain=214.682,cover=7215.45
						79:leaf=-0.0955615,cover=342.454
						80:leaf=-0.0145429,cover=6873
					40:[U_AGE_C<12511.2] yes=81,no=82,missing=82,gain=494.242,cover=88482.5
						81:leaf=0.0113514,cover=36393.1
						82:leaf=-0.00383691,cover=52089.4
				20:[U_CATEGORY_MAX_C<39.595] yes=41,no=42,missing=42,gain=286.411,cover=82305.7
					41:[U_CATEGORY_MICRO_MAX_COEC<0.069999] yes=83,no=84,missing=84,gain=263.363,cover=26263.3
						83:leaf=0.0235356,cover=23346.2
						84:leaf=-0.00833098,cover=2917.07
					42:[C_D_U_CATEGORY_GENDER_MICRO_MAX_COEC<0.080999] yes=85,no=86,missing=86,gain=233.643,cover=56042.4
						85:leaf=-0.00459747,cover=12683.3
						86:leaf=0.0108326,cover=43359.1
			10:[C_D_U_TITLEMD5_CATEGORY_MAX_EC<0.137999] yes=21,no=22,missing=22,gain=798.001,cover=2.91285e+06
				21:[D_TITLEMD5_EC<6.376] yes=43,no=44,missing=43,gain=1156.3,cover=837459
					43:[C_D_U_TITLEMD5_CITY_EC<0.466999] yes=87,no=88,missing=87,gain=717.786,cover=69587.5
						87:leaf=0.00671529,cover=68459.5
						88:leaf=0.0871042,cover=1128.04
					44:[D_TITLEMD5_COEC<0.149999] yes=89,no=90,missing=90,gain=811.087,cover=767871
						89:leaf=-0.00623302,cover=724951
						90:leaf=0.00791471,cover=42920.7
				22:[D_PUBLISHER_C<3688.87] yes=45,no=46,missing=46,gain=579.745,cover=2.07539e+06
					45:[WORD_COUNT<655] yes=91,no=92,missing=92,gain=481.681,cover=1.69071e+06
						91:leaf=-0.00579901,cover=126724
						92:leaf=0.000611113,cover=1.56399e+06
					46:[D_TITLEMD5_EC<5467.34] yes=93,no=94,missing=93,gain=596.392,cover=384674
						93:leaf=-0.00621064,cover=303261
						94:leaf=0.00342887,cover=81413.1
	2:[CAT_REL<0.080999] yes=5,no=6,missing=6,gain=744.35,cover=2.68866e+06
		5:[U_CATEGORY_MACRO_MAX_COEC<0.006999] yes=11,no=12,missing=12,gain=921.022,cover=2.46337e+06
			11:[TIME_OF_DAY<19] yes=23,no=24,missing=24,gain=791.055,cover=779833
				23:[U_CITY_C<36.449] yes=47,no=48,missing=48,gain=826.421,cover=551781
					47:[U_AGE_COEC<0.078999] yes=95,no=96,missing=95,gain=307.732,cover=155092
						95:leaf=-0.000553635,cover=154734
						96:leaf=0.0921017,cover=358.285
					48:[U_CITY_EC<11933.2] yes=97,no=98,missing=97,gain=596.837,cover=396688
						97:leaf=0.0102674,cover=313561
						98:leaf=0.000736781,cover=83127.2
				24:[D_PUBLISHER_C<271.31] yes=49,no=50,missing=49,gain=617.895,cover=228052
					49:[C_D_U_TITLEMD5_CATEGORY_MAX_EC<0.022999] yes=99,no=100,missing=99,gain=324.597,cover=79934.1
						99:leaf=-0.0155686,cover=34398.4
						100:leaf=-0.00269818,cover=45535.7
					50:[D_KEYWORD_MEAN_EC<659.3] yes=101,no=102,missing=102,gain=261.839,cover=148118
						101:leaf=-0.00598997,cover=28239.9
						102:leaf=0.00471323,cover=119878
			12:[U_CITY_C<993.657] yes=25,no=26,missing=25,gain=783.238,cover=1.68354e+06
				25:[DAY_OF_WEEK<0.999999] yes=51,no=52,missing=52,gain=548.073,cover=1.45566e+06
					51:[D_KEYWORD_MICRO_MAX_COEC<0.134999] yes=103,no=104,missing=103,gain=442.921,cover=227116
						103:leaf=0.00132875,cover=189214
						104:leaf=0.0131721,cover=37902.4
					52:[D_PUBLISHER_C<9354.68] yes=105,no=106,missing=106,gain=526.242,cover=1.22854e+06
						105:leaf=-0.00243407,cover=1.18597e+06
						106:leaf=0.00888202,cover=42569.5
				26:[U_CATEGORY_MAX_C<65.424] yes=53,no=54,missing=53,gain=488.426,cover=227884
					53:[D_PUBLISHER_C<271.31] yes=107,no=108,missing=107,gain=323.278,cover=143372
						107:leaf=0.0154085,cover=47397.6
						108:leaf=0.00531445,cover=95974.3
					54:[U_CITY_COEC<0.077999] yes=109,no=110,missing=110,gain=252.591,cover=84512.4
						109:leaf=-0.00307494,cover=73264.5
						110:leaf=0.0130193,cover=11247.8
		6:[U_CATEGORY_MACRO_MAX_COEC<0.013999] yes=13,no=14,missing=13,gain=781.253,cover=225284
			13:[D_CATEGORY_MACRO_MAX_COEC<0.038999] yes=27,no=28,missing=27,gain=674.743,cover=160729
				27:[U_CITY_C<2839.19] yes=55,no=56,missing=55,gain=209.655,cover=15513.9
					55:[U_CITY_EC<37105.8] yes=111,no=112,missing=111,gain=197.094,cover=14256.5
						111:leaf=0.0277078,cover=14214.8
						112:leaf=-0.187499,cover=41.6999
					56:[C_D_U_TITLEMD5_CITY_COEC<0.167999] yes=113,no=114,missing=113,gain=225.182,cover=1257.38
						113:leaf=0.0727326,cover=1251.52
						114:leaf=-0.502444,cover=5.85863
				28:[D_PUBLISHER_EC<61.858] yes=57,no=58,missing=58,gain=260.245,cover=145215
					57:[C_D_U_TITLEMD5_CATEGORY_MAX_C<0.074999] yes=115,no=116,missing=115,gain=214.529,cover=9263.14
						115:leaf=-0.0072059,cover=9256.76
						116:leaf=-0.546618,cover=6.37909
					58:[C_D_U_CATEGORY_GENDER_MACRO_MEAN_COEC<0.075999] yes=117,no=118,missing=118,gain=237.702,cover=135952
						117:leaf=-0.0259798,cover=1842.38
						118:leaf=0.0101763,cover=134109
			14:[C_D_U_TITLEMD5_CATEGORY_MACRO_MAX_COEC<0.039999] yes=29,no=30,missing=30,gain=392.654,cover=64555.4
				29:[CAT_REL<0.093999] yes=59,no=60,missing=60,gain=258.572,cover=47136.3
					59:[U_CATEGORY_MAX_C<58.553] yes=119,no=120,missing=120,gain=240.691,cover=4398.44
						119:leaf=-0.189152,cover=82.1966
						120:leaf=-0.0174168,cover=4316.24
					60:[C_D_U_CATEGORY_CATEGORY_MEAN_C<3.218] yes=121,no=122,missing=122,gain=198.057,cover=42737.9
						121:leaf=-0.00837179,cover=9016.92
						122:leaf=0.00831237,cover=33721
				30:[D_TITLEMD5_COEC<0.114999] yes=61,no=62,missing=62,gain=220.039,cover=17419
					61:[D_CATEGORY_MICRO_MEAN_COEC<0.053999] yes=123,no=124,missing=124,gain=251.749,cover=8911.35
						123:leaf=0.0356127,cover=613.952
						124:leaf=-0.0307075,cover=8297.4
					62:[D_CATEGORY_MICRO_MEAN_COEC<0.064999] yes=125,no=126,missing=126,gain=183.897,cover=8507.69
						125:leaf=0.0234013,cover=1939.11
						126:leaf=-0.0116387,cover=6568.58
booster[77]:
0:[DOC_AGE<5] yes=1,no=2,missing=2,gain=836.145,cover=5.87287e+06
	1:[C_D_U_TITLEMD5_CATEGORY_MICRO_MAX_COEC<0.067999] yes=3,no=4,missing=4,gain=546.785,cover=792542
		3:[D_KEYWORD_MACRO_MEAN_COEC<0.067999] yes=7,no=8,missing=8,gain=494.533,cover=339185
			7:[D_CATEGORY_MAX_C<1003.25] yes=15,no=16,missing=16,gain=401.723,cover=255832
				15:[U_CATEGORY_MACRO_MAX_COEC<0.014999] yes=31,no=32,missing=32,gain=246.523,cover=61244.8
					31:[CAT_REL<0.086999] yes=63,no=64,missing=64,gain=276.227,cover=57635
						63:leaf=0.010058,cover=50375.2
						64:leaf=0.0309218,cover=7259.76
					32:[D_KEYWORD_MEAN_C<57.946] yes=65,no=66,missing=66,gain=306.425,cover=3609.79
						65:leaf=0.00507234,cover=2507.47
						66:leaf=-0.0581663,cover=1102.31
				16:[D_CATEGORY_MAX_EC<96049.2] yes=33,no=34,missing=34,gain=395.908,cover=194587
					33:[C_D_U_TITLEMD5_CITY_EC<0.908999] yes=67,no=68,missing=68,gain=333.097,cover=179940
						67:leaf=-0.0927624,cover=380.944
						68:leaf=0.00072374,cover=179559
					34:[D_KEYWORD_MAX_C<15.387] yes=69,no=70,missing=70,gain=480.185,cover=14647.6
						69:leaf=-0.018044,cover=3000.86
						70:leaf=0.0268115,cover=11646.7
			8:[C_D_U_CATEGORY_CATEGORY_MICRO_MAX_COEC<0.065999] yes=17,no=18,missing=18,gain=221.972,cover=83352.9
				17:[D_TITLEMD5_C<14.985] yes=35,no=36,missing=36,gain=214.793,cover=29191.5
					35:[C_D_U_CATEGORY_AGE_MACRO_MEAN_COEC<0.087999] yes=71,no=72,missing=71,gain=174.088,cover=10492.4
						71:leaf=-0.00470187,cover=10445.4
						72:leaf=-0.195483,cover=47.0505
					36:[D_TITLEMD5_C<98.936] yes=73,no=74,missing=73,gain=181.69,cover=18699.1
						73:leaf=0.0183639,cover=13565.4
						74:leaf=-0.00372263,cover=5133.7
				18:[D_CATEGORY_MICRO_MAX_COEC<0.075999] yes=37,no=38,missing=38,gain=289.771,cover=54161.4
					37:[C_D_U_CATEGORY_CATEGORY_MICRO_MEAN_COEC<0.045999] yes=75,no=76,missing=76,gain=143.774,cover=15963.5
						75:leaf=-0.281748,cover=13.9788
						76:leaf=0.0282965,cover=15949.5
					38:[WORD_COUNT<7174] yes=77,no=78,missing=78,gain=123.438,cover=38197.9
						77:leaf=0.0129972,cover=36976.5
						78:leaf=-0.0193027,cover=1221.41
		4:[U_CATEGORY_MACRO_MAX_COEC<0.005999] yes=9,no=10,missing=9,gain=334.891,cover=453357
			9:[U_CITY_C<12.32] yes=19,no=20,missing=19,gain=469.173,cover=180570
				19:[TIME_OF_DAY<17] yes=39,no=40,missing=40,gain=290.864,cover=63335.6
					39:[TIME_OF_DAY<7] yes=79,no=80,missing=80,gain=185.206,cover=36485
						79:leaf=-0.00437537,cover=17304.7
						80:leaf=0.00989267,cover=19180.4
					40:[D_KEYWORD_MICRO_MAX_COEC<0.067999] yes=81,no=82,missing=81,gain=317.153,cover=26850.6
						81:leaf=0.0579549,cover=657.549
						82:leaf=-0.0123102,cover=26193
				20:[CAT_REL<0.025999] yes=41,no=42,missing=42,gain=257.871,cover=117235
					41:[WORD_COUNT<942] yes=83,no=84,missing=84,gain=328.516,cover=86231.9
						83:leaf=0.0161246,cover=20810.6
						84:leaf=0.00169998,cover=65421.3
					42:[C_D_U_CATEGORY_AGE_MICRO_MAX_COEC<0.063999] yes=85,no=86,missing=86,gain=186.013,cover=31002.8
						85:leaf=-0.0565194,cover=350.531
						86:leaf=0.0166442,cover=30652.2
			10:[D_PUBLISHER_COEC<0.063999] yes=21,no=22,missing=21,gain=450.62,cover=272787
				21:[U_GENDER_COEC<0.073999] yes=43,no=44,missing=43,gain=301.691,cover=120712
					43:[C_D_U_PUBLISHER_AGE_EC<3.896] yes=87,no=88,missing=88,gain=254.345,cover=118425
						87:leaf=-0.0765552,cover=515.907
						88:leaf=-0.00625472,cover=117909
					44:[C_D_U_TITLEMD5_CATEGORY_MAX_EC<0.012999] yes=89,no=90,missing=90,gain=142.266,cover=2287.07
						89:leaf=-0.344768,cover=9.08633
						90:leaf=0.0317453,cover=2277.98
				22:[D_TITLEMD5_C<0.649999] yes=45,no=46,missing=45,gain=373.811,cover=152075
					45:[D_PUBLISHER_C<2283.54] yes=91,no=92,missing=92,gain=225.254,cover=23371.3
						91:leaf=0.0093434,cover=19154.8
						92:leaf=0.0348726,cover=4216.48
					46:[U_CATEGORY_MICRO_MAX_COEC<0.056999] yes=93,no=94,missing=94,gain=334.234,cover=128703
						93:leaf=-0.0166386,cover=10793.9
						94:leaf=0.00174534,cover=117910
	2:[DOC_AGE<67] yes=5,no=6,missing=6,gain=1034.32,cover=5.08033e+06
		5:[D_PUBLISHER_COEC<0.075999] yes=11,no=12,missing=12,gain=866.157,cover=3.80941e+06
			11:[D_PUBLISHER_EC<1373.12] yes=23,no=24,missing=24,gain=1247.75,cover=2.15678e+06
				23:[D_TITLEMD5_EC<41.494] yes=47,no=48,missing=47,gain=503.936,cover=555934
					47:[D_TITLEMD5_COEC<0.040999] yes=95,no=96,missing=95,gain=737.332,cover=252918
						95:leaf=0.00206222,cover=171085
						96:leaf=-0.00947893,cover=81832.9
					48:[U_CITY_C<101.334] yes=97,no=98,missing=98,gain=363.731,cover=303016
						97:leaf=0.000198899,cover=123567
						98:leaf=0.00724909,cover=179449
				24:[D_PUBLISHER_COEC<0.039999] yes=49,no=50,missing=50,gain=1107.23,cover=1.60084e+06
					49:[D_TITLEMD5_COEC<0.025999] yes=99,no=100,missing=100,gain=748.494,cover=104355
						99:leaf=-0.0258059,cover=34806.8
						100:leaf=-0.00784306,cover=69548.7
					50:[C_D_U_TITLEMD5_CATEGORY_MAX_EC<0.083999] yes=101,no=102,missing=101,gain=630.79,cover=1.49649e+06
						101:leaf=-0.00630907,cover=450562
						102:leaf=-0.00183347,cover=1.04592e+06
			12:[WORD_COUNT<1631] yes=25,no=26,missing=26,gain=610.663,cover=1.65263e+06
				25:[D_PUBLISHER_EC<89936.8] yes=51,no=52,missing=51,gain=450.148,cover=707659
					51:[D_PUBLISHER_EC<40516] yes=103,no=104,missing=103,gain=384.142,cover=656476
						103:leaf=-0.00112145,cover=523423
						104:leaf=-0.00713895,cover=133053
					52:[D_CATEGORY_MACRO_MAX_COEC<0.069999] yes=105,no=106,missing=106,gain=391.276,cover=51182.9
						105:leaf=-0.00148439,cover=25194.6
						106:leaf=0.0160043,cover=25988.3
				26:[D_CATEGORY_MICRO_MEAN_COEC<0.048999] yes=53,no=54,missing=53,gain=397.206,cover=944973
					53:[D_KEYWORD_MEAN_EC<685.657] yes=107,no=108,missing=107,gain=202.129,cover=19538.8
						107:leaf=0.02321,cover=13438.2
						108:leaf=0.00126138,cover=6100.55
					54:[CAT_REL<0.008999] yes=109,no=110,missing=110,gain=377.729,cover=925434
						109:leaf=0.000115582,cover=507233
						110:leaf=0.00417502,cover=418202
		6:[D_CATEGORY_MICRO_MAX_COEC<0.057999] yes=13,no=14,missing=13,gain=378.486,cover=1.27092e+06
			13:[CAT_REL<0.007999] yes=27,no=28,missing=28,gain=256.652,cover=119089
				27:[C_D_U_CATEGORY_AGE_MICRO_MEAN_COEC<0.072999] yes=55,no=56,missing=55,gain=269.804,cover=51245.1
					55:[D_KEYWORD_MAX_C<38.621] yes=111,no=112,missing=112,gain=265.417,cover=51203.7
						111:leaf=0.00907893,cover=39154
						112:leaf=0.0260511,cover=12049.6
					56:[D_TITLEMD5_COEC<0.056999] yes=113,no=114,missing=113,gain=6.54029,cover=41.4592
						113:leaf=-0.168967,cover=16.3985
						114:leaf=-0.276777,cover=25.0607
				28:[D_KEYWORD_MAX_C<10.537] yes=57,no=58,missing=57,gain=328.506,cover=67844.1
					57:[D_CATEGORY_MEAN_C<4845.04] yes=115,no=116,missing=115,gain=185.905,cover=25465.1
						115:leaf=0.0127431,cover=25439
						116:leaf=-0.249583,cover=26.0461
					58:[C_D_U_CATEGORY_CATEGORY_MICRO_MEAN_COEC<0.040999] yes=117,no=118,missing=117,gain=208.014,cover=42379.1
						117:leaf=-0.0168023,cover=7674.91
						118:leaf=0.00138929,cover=34704.1
			14:[D_TITLEMD5_C<106.93] yes=29,no=30,missing=29,gain=455.735,cover=1.15183e+06
				29:[C_D_U_TITLEMD5_CATEGORY_MAX_EC<0.031999] yes=59,no=60,missing=59,gain=390.161,cover=762112
					59:[D_KEYWORD_MEAN_EC<566.907] yes=119,no=120,missing=119,gain=433.867,cover=241783
						119:leaf=0.00397399,cover=63285.6
						120:leaf=-0.00566254,cover=178497
					60:[D_TITLEMD5_COEC<0.137999] yes=121,no=122,missing=122,gain=381.912,cover=520329
						121:leaf=0.00121125,cover=502514
						122:leaf=0.0161096,cover=17815.2
				30:[D_CATEGORY_MACRO_MAX_COEC<0.035999] yes=61,no=62,missing=62,gain=284.42,cover=389721
					61:[C_D_U_TITLEMD5_CATEGORY_MAX_C<0.011999] yes=123,no=124,missing=124,gain=151.521,cover=33364.4
						123:leaf=0.0281561,cover=1366.19
						124:leaf=-0.00583851,cover=31998.2
					62:[TIME_OF_DAY<16] yes=125,no=126,missing=126,gain=187.921,cover=356357
						125:leaf=0.00746908,cover=181069
						126:leaf=0.00287568,cover=175288
booster[78]:
0:[U_CITY_COEC<0.218999] yes=1,no=2,missing=1,gain=808.883,cover=5.87048e+06
	1:[D_CATEGORY_MACRO_MAX_COEC<0.079999] yes=3,no=4,missing=3,gain=803.921,cover=5.81967e+06
		3:[WORD_COUNT<3920] yes=7,no=8,missing=8,gain=772.902,cover=5.18854e+06
			7:[D_KEYWORD_MACRO_MEAN_COEC<0.047999] yes=15,no=16,missing=16,gain=860.846,cover=4.21794e+06
				15:[C_D_U_TITLEMD5_CATEGORY_MICRO_MAX_COEC<0.071999] yes=29,no=30,missing=29,gain=651.373,cover=383408
					29:[D_KEYWORD_MACRO_MAX_COEC<0.005999] yes=57,no=58,missing=58,gain=508.411,cover=348993
						57:leaf=-0.0135699,cover=44288.5
						58:leaf=-0.0021035,cover=304704
					30:[D_KEYWORD_MACRO_MEAN_COEC<0.033999] yes=59,no=60,missing=60,gain=315.898,cover=34414.9
						59:leaf=-0.0640204,cover=1427.45
						60:leaf=-0.0159842,cover=32987.5
				16:[DOC_AGE<7] yes=31,no=32,missing=32,gain=1032.09,cover=3.83454e+06
					31:[DAY_OF_WEEK<0.999999] yes=61,no=62,missing=62,gain=508.466,cover=680720
						61:leaf=0.0118915,cover=67412.1
						62:leaf=0.00274181,cover=613308
					32:[D_CATEGORY_MACRO_MEAN_COEC<0.053999] yes=63,no=64,missing=63,gain=777.931,cover=3.15382e+06
						63:leaf=0.00474337,cover=246903
						64:leaf=-0.0011033,cover=2.90691e+06
			8:[CAT_REL<0.012999] yes=17,no=18,missing=18,gain=685.062,cover=970596
				17:[C_D_U_TITLEMD5_CATEGORY_MAX_EC<0.075999] yes=33,no=34,missing=34,gain=720.567,cover=432162
					33:[D_CATEGORY_MAX_EC<35716.7] yes=65,no=66,missing=66,gain=615.746,cover=87815.6
						65:leaf=-0.0142334,cover=58175.9
						66:leaf=0.00347476,cover=29639.7
					34:[D_TITLEMD5_C<447.726] yes=67,no=68,missing=68,gain=426.287,cover=344347
						67:leaf=0.000513685,cover=298575
						68:leaf=0.0108775,cover=45771.4
				18:[C_D_U_CATEGORY_CATEGORY_MACRO_MAX_COEC<0.003999] yes=35,no=36,missing=35,gain=489.801,cover=538433
					35:[C_D_U_CATEGORY_CATEGORY_MEAN_C<0.148999] yes=69,no=70,missing=70,gain=235.342,cover=127686
						69:leaf=0.00208288,cover=25946.1
						70:leaf=0.0127523,cover=101740
					36:[CAT_REL<0.142999] yes=71,no=72,missing=72,gain=417.683,cover=410747
						71:leaf=0.00243693,cover=370140
						72:leaf=0.0131207,cover=40607
		4:[D_TITLEMD5_COEC<0.024999] yes=9,no=10,missing=10,gain=620.632,cover=631130
			9:[D_CATEGORY_MEAN_EC<52570.5] yes=19,no=20,missing=20,gain=357.125,cover=38436.4
				19:[D_KEYWORD_MACRO_MEAN_COEC<0.068999] yes=37,no=38,missing=38,gain=427.002,cover=17572.8
					37:[C_D_U_CATEGORY_AGE_MAX_EC<2121.78] yes=73,no=74,missing=73,gain=324.324,cover=14420.5
						73:leaf=-0.0308367,cover=13937.5
						74:leaf=-0.114121,cover=482.979
					38:[TIME_OF_DAY<22] yes=75,no=76,missing=76,gain=230.596,cover=3152.3
						75:leaf=0.0143216,cover=2937.28
						76:leaf=-0.0927294,cover=215.018
				20:[D_PUBLISHER_EC<40922.2] yes=39,no=40,missing=40,gain=359.197,cover=20863.7
					39:[U_CITY_COEC<0.058999] yes=77,no=78,missing=78,gain=246.181,cover=19194.3
						77:leaf=-0.0265533,cover=3634.82
						78:leaf=0.00234842,cover=15559.5
					40:[DOC_AGE<0.999999] yes=79,no=80,missing=80,gain=276.027,cover=1669.32
						79:leaf=0.0178979,cover=426.601
						80:leaf=-0.0752844,cover=1242.72
			10:[D_PUBLISHER_EC<89624.9] yes=21,no=22,missing=21,gain=511.985,cover=592694
				21:[D_TITLEMD5_COEC<0.130999] yes=41,no=42,missing=41,gain=335.807,cover=563167
					41:[D_CATEGORY_MEAN_C<3775.86] yes=81,no=82,missing=82,gain=355.278,cover=416417
						81:leaf=-0.00863263,cover=155729
						82:leaf=-0.00259588,cover=260688
					42:[C_D_U_CATEGORY_CATEGORY_MACRO_MEAN_COEC<0.009999] yes=83,no=84,missing=84,gain=266.642,cover=146750
						83:leaf=0.00582776,cover=60099.6
						84:leaf=-0.00284046,cover=86650
				22:[D_KEYWORD_MACRO_MAX_COEC<0.028999] yes=43,no=44,missing=44,gain=488.473,cover=29526.5
					43:[D_TITLEMD5_COEC<0.051999] yes=85,no=86,missing=86,gain=256.188,cover=23593.3
						85:leaf=-0.0427889,cover=1129.82
						86:leaf=0.00599178,cover=22463.4
					44:[D_CATEGORY_MACRO_MAX_COEC<0.083999] yes=87,no=88,missing=88,gain=247.085,cover=5933.25
						87:leaf=0.0531778,cover=3430.46
						88:leaf=0.0118525,cover=2502.79
	2:[U_CITY_EC<19.104] yes=5,no=6,missing=6,gain=267.201,cover=50813.7
		5:[C_D_U_CATEGORY_AGE_MICRO_MEAN_COEC<0.107999] yes=11,no=12,missing=11,gain=153.689,cover=21583.6
			11:[U_CITY_C<9.97] yes=23,no=24,missing=24,gain=137.964,cover=21578
				23:[U_CATEGORY_MICRO_MAX_COEC<0.062999] yes=45,no=46,missing=45,gain=120.547,cover=21442.4
					45:[CAT_REL<0.178999] yes=89,no=90,missing=90,gain=268.266,cover=8194.46
						89:leaf=-0.00330494,cover=8023.99
						90:leaf=-0.129713,cover=170.476
					46:[C_D_U_TITLEMD5_CITY_C<0.457999] yes=91,no=92,missing=91,gain=116.746,cover=13247.9
						91:leaf=0.00976712,cover=13236.4
						92:leaf=-0.296225,cover=11.4814
				24:[D_TITLEMD5_COEC<0.030999] yes=47,no=48,missing=47,gain=52.5024,cover=135.561
					47:[D_KEYWORD_MACRO_MEAN_COEC<0.047999] yes=93,no=94,missing=94,gain=2.9603,cover=78.5222
						93:leaf=0.168442,cover=62.47
						94:leaf=0.105094,cover=16.0522
					48:[TIME_OF_DAY<3] yes=95,no=96,missing=96,gain=102.387,cover=57.0389
						95:leaf=-0.360465,cover=5.03231
						96:leaf=0.0745271,cover=52.0066
			12:leaf=-0.476033,cover=5.66558
		6:[U_CATEGORY_MAX_EC<225.736] yes=13,no=14,missing=14,gain=142.146,cover=29230.1
			13:[U_CITY_C<58.416] yes=25,no=26,missing=26,gain=167.209,cover=1950.54
				25:[WORD_COUNT<1482] yes=49,no=50,missing=50,gain=85.7593,cover=1272.38
					49:[DOC_AGE<73] yes=97,no=98,missing=98,gain=195.516,cover=237.995
						97:leaf=-0.0110479,cover=228.356
						98:leaf=-0.449678,cover=9.63861
					50:[C_D_U_CATEGORY_AGE_MAX_EC<2019.57] yes=99,no=100,missing=100,gain=77.1691,cover=1034.39
						99:leaf=0.0815882,cover=271.164
						100:leaf=0.0195273,cover=763.225
				26:[C_D_U_TITLEMD5_CITY_C<0.994999] yes=51,no=52,missing=51,gain=16.8993,cover=678.156
					51:[U_CITY_C<86.572] yes=101,no=102,missing=102,gain=6.7537,cover=671.988
						101:leaf=0.0554042,cover=69.3743
						102:leaf=0.0898993,cover=602.614
					52:leaf=-0.0711883,cover=6.16787
			14:[U_CITY_EC<264.225] yes=27,no=28,missing=28,gain=133.506,cover=27279.6
				27:[C_D_U_TITLEMD5_CITY_C<0.233999] yes=53,no=54,missing=53,gain=107.246,cover=25352.8
					53:[C_D_U_CATEGORY_CATEGORY_MICRO_MAX_COEC<0.032999] yes=103,no=104,missing=104,gain=98.7262,cover=25123.5
						103:leaf=-0.0668099,cover=131.105
						104:leaf=0.019883,cover=24992.4
					54:[TIME_OF_DAY<17] yes=105,no=106,missing=106,gain=169.734,cover=229.342
						105:leaf=-0.012258,cover=194.57
						106:leaf=-0.249337,cover=34.7725
				28:[U_CATEGORY_MAX_C<20.027] yes=55,no=56,missing=56,gain=303.042,cover=1926.76
					55:leaf=-0.601547,cover=7.578
					56:[U_CATEGORY_MICRO_MAX_COEC<0.058999] yes=107,no=108,missing=108,gain=223.745,cover=1919.18
						107:leaf=-0.13894,cover=117.508
						108:leaf=0.00291138,cover=1801.67
booster[79]:
0:[U_CATEGORY_MACRO_MAX_COEC<0.005999] yes=1,no=2,missing=2,gain=739.941,cover=5.87468e+06
	1:[CAT_REL<0.045999] yes=3,no=4,missing=4,gain=773.781,cover=1.41069e+06
		3:[D_TITLEMD5_C<18.243] yes=7,no=8,missing=7,gain=729.476,cover=1.19109e+06
			7:[D_CATEGORY_MACRO_MAX_COEC<0.043999] yes=15,no=16,missing=16,gain=808.05,cover=480990
				15:[U_CATEGORY_MAX_EC<2055.17] yes=31,no=32,missing=32,gain=410.385,cover=162359
					31:[D_KEYWORD_MEAN_C<319.568] yes=63,no=64,missing=63,gain=320.477,cover=157201
						63:leaf=0.00357473,cover=149055
						64:leaf=0.023943,cover=8146.08
					32:[D_KEYWORD_MAX_C<35.532] yes=65,no=66,missing=66,gain=189.434,cover=5157.97
						65:leaf=-0.0390053,cover=3202.34
						66:leaf=0.000491629,cover=1955.62
				16:[D_CATEGORY_MEAN_EC<48585.3] yes=33,no=34,missing=34,gain=639.474,cover=318631
					33:[U_CITY_EC<7743.12] yes=67,no=68,missing=67,gain=375.52,cover=195658
						67:leaf=-0.00615807,cover=152183
						68:leaf=-0.0166962,cover=43474.3
					34:[DAY_OF_WEEK<5] yes=69,no=70,missing=70,gain=255.404,cover=122973
						69:leaf=-0.00209656,cover=89286.6
						70:leaf=0.00812204,cover=33686.7
			8:[U_CATEGORY_MICRO_MAX_COEC<0.076999] yes=17,no=18,missing=18,gain=530.698,cover=710104
				17:[D_TITLEMD5_COEC<0.148999] yes=35,no=36,missing=36,gain=327.822,cover=618331
					35:[C_D_U_TITLEMD5_CATEGORY_MAX_EC<1.229] yes=71,no=72,missing=71,gain=366.78,cover=577795
						71:leaf=0.000117869,cover=465066
						72:leaf=0.00647576,cover=112729
					36:[C_D_U_TITLEMD5_CATEGORY_MICRO_MAX_COEC<0.069999] yes=73,no=74,missing=74,gain=141.609,cover=40536.5
						73:leaf=0.0273205,cover=4531.15
						74:leaf=0.00856391,cover=36005.3
				18:[U_CITY_C<33.819] yes=37,no=38,missing=37,gain=215.702,cover=91772.2
					37:[C_D_U_PUBLISHER_GENDER_COEC<0.153999] yes=75,no=76,missing=76,gain=503.832,cover=41209.7
						75:leaf=-0.0464603,cover=1834.84
						76:leaf=0.00713446,cover=39374.8
					38:[U_CITY_C<459.336] yes=77,no=78,missing=78,gain=352.329,cover=50562.6
						77:leaf=0.0216939,cover=28993.4
						78:leaf=0.00481573,cover=21569.2
		4:[D_CATEGORY_MEAN_EC<48585.3] yes=9,no=10,missing=10,gain=421.711,cover=219594
			9:[D_CATEGORY_MACRO_MAX_COEC<0.034999] yes=19,no=20,missing=20,gain=420.23,cover=164737
				19:[D_TITLEMD5_EC<1.541] yes=39,no=40,missing=39,gain=148.322,cover=20234.1
					39:[D_CATEGORY_MAX_C<1512.22] yes=79,no=80,missing=80,gain=199.941,cover=3145.09
						79:leaf=0.0278125,cover=2677.74
						80:leaf=0.0986586,cover=467.348
					40:[D_CATEGORY_MAX_EC<32507.6] yes=81,no=82,missing=82,gain=183.671,cover=17089
						81:leaf=0.015781,cover=16918.5
						82:leaf=-0.0882388,cover=170.491
				20:[U_CATEGORY_MAX_EC<2583.56] yes=41,no=42,missing=42,gain=447.848,cover=144503
					41:[C_D_U_CATEGORY_CATEGORY_MAX_EC<178.057] yes=83,no=84,missing=84,gain=247.231,cover=139269
						83:leaf=0.00466354,cover=136866
						84:leaf=-0.0276854,cover=2403.08
					42:[D_KEYWORD_MACRO_MEAN_COEC<0.041999] yes=85,no=86,missing=86,gain=200.451,cover=5233.89
						85:leaf=-0.146714,cover=132.398
						86:leaf=-0.0225194,cover=5101.49
			10:[D_CATEGORY_MICRO_MEAN_COEC<0.060999] yes=21,no=22,missing=22,gain=439.927,cover=54857.3
				21:[C_D_U_TITLEMD5_CATEGORY_MAX_EC<0.124999] yes=43,no=44,missing=43,gain=398.653,cover=8510.62
					43:[U_AGE_C<12387.8] yes=87,no=88,missing=87,gain=158.345,cover=5058.03
						87:leaf=0.056665,cover=4930.24
						88:leaf=-0.0557598,cover=127.787
					44:[D_KEYWORD_MACRO_MEAN_COEC<0.038999] yes=89,no=90,missing=90,gain=132.191,cover=3452.59
						89:leaf=-0.181945,cover=34.6115
						90:leaf=0.011729,cover=3417.98
				22:[C_D_U_CATEGORY_CATEGORY_MAX_EC<0.855999] yes=45,no=46,missing=45,gain=183.526,cover=46346.7
					45:[U_CITY_C<36.703] yes=91,no=92,missing=91,gain=73.224,cover=74.2339
						91:leaf=-0.0909216,cover=58.8283
						92:leaf=-0.33275,cover=15.4057
					46:[C_D_U_CATEGORY_CATEGORY_MEAN_EC<42.47] yes=93,no=94,missing=94,gain=179.088,cover=46272.5
						93:leaf=0.0172072,cover=24942.5
						94:leaf=0.0047266,cover=21330
	2:[D_PUBLISHER_EC<10981.1] yes=5,no=6,missing=5,gain=1087.37,cover=4.46399e+06
		5:[C_D_U_CATEGORY_CATEGORY_MEAN_EC<49.403] yes=11,no=12,missing=12,gain=774.058,cover=2.42872e+06
			11:[C_D_U_TITLEMD5_CATEGORY_MAX_EC<0.027999] yes=23,no=24,missing=23,gain=971.833,cover=1.59475e+06
				23:[D_CATEGORY_MAX_EC<47758.6] yes=47,no=48,missing=48,gain=740.401,cover=435514
					47:[D_CATEGORY_MACRO_MAX_COEC<0.059999] yes=95,no=96,missing=96,gain=530.329,cover=343176
						95:leaf=-0.00413714,cover=242754
						96:leaf=-0.0127775,cover=100422
					48:[CAT_REL<0.129999] yes=97,no=98,missing=98,gain=407.263,cover=92337.7
						97:leaf=0.00424202,cover=90951.7
						98:leaf=-0.0503586,cover=1385.93
				24:[D_CATEGORY_MACRO_MEAN_COEC<0.050999] yes=49,no=50,missing=50,gain=853.087,cover=1.15924e+06
					49:[C_D_U_CATEGORY_CATEGORY_MICRO_MEAN_COEC<0.045999] yes=99,no=100,missing=100,gain=366.946,cover=91833.6
						99:leaf=0.00334393,cover=41784.1
						100:leaf=0.0160379,cover=50049.5
					50:[C_D_U_CATEGORY_CATEGORY_MICRO_MAX_COEC<0.047999] yes=101,no=102,missing=102,gain=457.724,cover=1.0674e+06
						101:leaf=-0.00893671,cover=51955.2
						102:leaf=0.000686471,cover=1.01545e+06
			12:[U_CITY_COEC<0.049999] yes=25,no=26,missing=25,gain=619.508,cover=833964
				25:[C_D_U_TITLEMD5_CITY_EC<2.827] yes=51,no=52,missing=51,gain=1461.2,cover=294280
					51:[U_AGE_C<13975.9] yes=103,no=104,missing=104,gain=587.86,cover=292651
						103:leaf=0.0225257,cover=11234.7
						104:leaf=-0.000800222,cover=281416
					52:[D_TITLEMD5_EC<3595.04] yes=105,no=106,missing=106,gain=328,cover=1629.02
						105:leaf=-0.141732,cover=778.372
						106:leaf=-0.051832,cover=850.65
				26:[D_PUBLISHER_EC<3024.27] yes=53,no=54,missing=53,gain=464.639,cover=539684
					53:[D_CATEGORY_MEAN_C<3923.84] yes=107,no=108,missing=108,gain=341.649,cover=313900
						107:leaf=0.00502762,cover=186105
						108:leaf=0.0117427,cover=127795
					54:[D_KEYWORD_MICRO_MAX_COEC<0.118999] yes=109,no=110,missing=109,gain=343.713,cover=225784
						109:leaf=-0.000854132,cover=153868
						110:leaf=0.00752027,cover=71916.6
		6:[D_PUBLISHER_COEC<0.065999] yes=13,no=14,missing=14,gain=940.842,cover=2.03527e+06
			13:[D_PUBLISHER_EC<67494.1] yes=27,no=28,missing=28,gain=982.034,cover=617964
				27:[D_TITLEMD5_COEC<0.056999] yes=55,no=56,missing=56,gain=683.939,cover=544528
					55:[D_TITLEMD5_EC<3.318] yes=111,no=112,missing=112,gain=413.263,cover=200758
						111:leaf=0.0102398,cover=10817
						112:leaf=-0.00985446,cover=189941
					56:[D_KEYWORD_MICRO_MEAN_COEC<0.082999] yes=113,no=114,missing=113,gain=437.556,cover=343770
						113:leaf=-0.0028546,cover=296253
						114:leaf=0.0074823,cover=47517.3
				28:[D_KEYWORD_MACRO_MAX_COEC<0.007999] yes=57,no=58,missing=58,gain=878.426,cover=73436
					57:[D_TITLEMD5_COEC<0.047999] yes=115,no=116,missing=116,gain=234.679,cover=12891.9
						115:leaf=-0.0250937,cover=1910.18
						116:leaf=0.0128752,cover=10981.7
					58:[U_CATEGORY_MAX_C<283.169] yes=117,no=118,missing=118,gain=612.21,cover=60544.1
						117:leaf=-0.0176984,cover=52975.4
						118:leaf=-0.0481023,cover=7568.71
			14:[DOC_AGE<38] yes=29,no=30,missing=30,gain=663.715,cover=1.41731e+06
				29:[D_CATEGORY_MICRO_MAX_COEC<0.080999] yes=59,no=60,missing=60,gain=1025.75,cover=840189
					59:[D_TITLEMD5_EC<8.748] yes=119,no=120,missing=119,gain=554.226,cover=534535
						119:leaf=0.0195701,cover=13986
						120:leaf=-0.000601434,cover=520549
					60:[C_D_U_CATEGORY_CATEGORY_MICRO_MAX_COEC<0.094999] yes=121,no=122,missing=121,gain=757.927,cover=305654
						121:leaf=-0.0106398,cover=212250
						122:leaf=0.00017011,cover=93403.5
				30:[D_PUBLISHER_COEC<0.119999] yes=61,no=62,missing=62,gain=501.996,cover=577121
					61:[D_KEYWORD_MEAN_EC<1297.46] yes=123,no=124,missing=123,gain=384.457,cover=551164
						123:leaf=-0.0017876,cover=255962
						124:leaf=0.00350801,cover=295202
					62:[D_CATEGORY_MICRO_MAX_COEC<0.094999] yes=125,no=126,missing=126,gain=154.891,cover=25956.9
						125:leaf=0.0179889,cover=23112.1
						126:leaf=-0.00673757,cover=2844.73
