booster[0]:
0:[C_D_U_TITLEMD5_CATEGORY_MICRO_MAX_COEC<0.125999] yes=1,no=2,missing=1
	1:[D_TITLEMD5_COEC<0.066999] yes=3,no=4,missing=4
		3:[C_D_U_TITLEMD5_CATEGORY_MICRO_MAX_COEC<0.046999] yes=7,no=8,missing=7
			7:[D_TITLEMD5_COEC<0.034999] yes=15,no=16,missing=16
				15:[CAT_REL<0.001999] yes=31,no=32,missing=32
					31:[DOC_AGE<2] yes=63,no=64,missing=64
						63:leaf=-0.0442066
						64:leaf=-0.086984
					32:[DOC_AGE<0.999999] yes=65,no=66,missing=66
						65:leaf=0.0306091
						66:leaf=-0.0296567
				16:[CAT_REL<0.001999] yes=33,no=34,missing=34
					33:[DOC_AGE<2] yes=67,no=68,missing=68
						67:leaf=0.013664
						68:leaf=-0.0159821
					34:[U_KW_LEN<3189] yes=69,no=70,missing=70
						69:leaf=0.035226
						70:leaf=0.0698033
			8:[CAT_REL<0.003999] yes=17,no=18,missing=18
				17:[D_TITLEMD5_C<87.06] yes=35,no=36,missing=36
					35:[U_KW_LEN<3826] yes=71,no=72,missing=72
						71:leaf=-0.00335542
						72:leaf=0.0405558
					36:[U_KW_LEN<4316] yes=73,no=74,missing=74
						73:leaf=0.0351941
						74:leaf=0.0767003
				18:[C_D_U_TITLEMD5_CATEGORY_MICRO_MAX_COEC<0.082999] yes=37,no=38,missing=38
					37:[U_KW_LEN<3417] yes=75,no=76,missing=76
						75:leaf=0.0614986
						76:leaf=0.0897097
					38:[C_D_U_TITLEMD5_CATEGORY_MAX_C<0.137999] yes=77,no=78,missing=78
						77:leaf=0.0753721
						78:leaf=0.110132
		4:[D_TITLEMD5_COEC<0.182999] yes=9,no=10,missing=9
			9:[CAT_REL<0.001999] yes=19,no=20,missing=20
				19:[D_TITLEMD5_COEC<0.123999] yes=39,no=40,missing=39
					39:[C_D_U_TITLEMD5_CATEGORY_MICRO_MAX_COEC<0.082999] yes=79,no=80,missing=79
						79:leaf=0.0490765
						80:leaf=0.0801646
					40:[D_CATEGORY_MICRO_MEAN_COEC<0.123999] yes=81,no=82,missing=82
						81:leaf=0.0846013
						82:leaf=0.112724
				20:[C_D_U_TITLEMD5_CATEGORY_MICRO_MAX_COEC<0.087999] yes=41,no=42,missing=42
					41:[U_KW_LEN<2547] yes=83,no=84,missing=84
						83:leaf=0.0947396
						84:leaf=0.121529
					42:[KW_REL<0.001999] yes=85,no=86,missing=86
						85:leaf=0.117228
						86:leaf=0.136801
			10:[D_TITLEMD5_COEC<0.255999] yes=21,no=22,missing=22
				21:[D_TITLEMD5_COEC<0.201999] yes=43,no=44,missing=44
					43:[D_CATEGORY_MICRO_MEAN_COEC<0.112999] yes=87,no=88,missing=88
						87:leaf=0.1228
						88:leaf=0.143454
					44:[D_CATEGORY_MACRO_MEAN_COEC<0.105999] yes=89,no=90,missing=90
						89:leaf=0.136524
						90:leaf=0.158554
				22:[D_KEYWORD_MICRO_MAX_COEC<0.280999] yes=45,no=46,missing=46
					45:[D_TITLEMD5_C<8] yes=91,no=92,missing=92
						91:leaf=0.126258
						92:leaf=0.169244
					46:[D_TITLEMD5_COEC<0.301999] yes=93,no=94,missing=94
						93:leaf=0.175372
						94:leaf=0.184068
	2:[C_D_U_TITLEMD5_CATEGORY_MICRO_MAX_COEC<0.196999] yes=5,no=6,missing=6
		5:[CAT_REL<0.001999] yes=11,no=12,missing=12
			11:[C_D_U_TITLEMD5_CATEGORY_MICRO_MAX_COEC<0.158999] yes=23,no=24,missing=24
				23:[KW_REL<0.001999] yes=47,no=48,missing=48
					47:[D_TITLEMD5_COEC<0.139999] yes=95,no=96,missing=96
						95:leaf=0.0896908
						96:leaf=0.114501
					48:[D_TITLEMD5_COEC<0.139999] yes=97,no=98,missing=97
						97:leaf=0.119376
						98:leaf=0.134631
				24:[KW_REL<0.001999] yes=49,no=50,missing=50
					49:[D_TITLEMD5_COEC<0.156999] yes=99,no=100,missing=100
						99:leaf=0.11371
						100:leaf=0.135844
					50:[U_KEYWORD_MEAN_C<2279.24] yes=101,no=102,missing=102
						101:leaf=0.134453
						102:leaf=0.149212
			12:[C_D_U_TITLEMD5_CATEGORY_MICRO_MAX_COEC<0.154999] yes=25,no=26,missing=26
				25:[KW_REL<0.001999] yes=51,no=52,missing=52
					51:[D_TITLEMD5_COEC<0.123999] yes=103,no=104,missing=104
						103:leaf=0.127132
						104:leaf=0.144268
					52:[D_TITLEMD5_COEC<0.118999] yes=105,no=106,missing=106
						105:leaf=0.145279
						106:leaf=0.156689
				26:[U_KW_LEN<1548] yes=53,no=54,missing=54
					53:[D_TITLEMD5_COEC<0.139999] yes=107,no=108,missing=107
						107:leaf=0.145681
						108:leaf=0.15802
					54:[D_TITLEMD5_COEC<0.139999] yes=109,no=110,missing=110
						109:leaf=0.159513
						110:leaf=0.168713
		6:[C_D_U_TITLEMD5_CATEGORY_MICRO_MAX_COEC<0.271999] yes=13,no=14,missing=14
			13:[CAT_REL<0.001999] yes=27,no=28,missing=28
				27:[D_TITLEMD5_C<87.06] yes=55,no=56,missing=56
					55:[D_TITLEMD5_COEC<0.080999] yes=111,no=112,missing=112
						111:leaf=0.0446285
						112:leaf=0.120479
					56:[U_KEYWORD_MEAN_C<2412.24] yes=113,no=114,missing=114
						113:leaf=0.151311
						114:leaf=0.162465
				28:[U_KW_LEN<1246] yes=57,no=58,missing=58
					57:[D_TITLEMD5_COEC<0.196999] yes=115,no=116,missing=115
						115:leaf=0.1614
						116:leaf=0.170126
					58:[D_TITLEMD5_COEC<0.071999] yes=117,no=118,missing=118
						117:leaf=0.112758
						118:leaf=0.174518
			14:[D_TITLEMD5_C<40.925] yes=29,no=30,missing=30
				29:[D_TITLEMD5_COEC<0.098999] yes=59,no=60,missing=60
					59:[D_TITLEMD5_COEC<0.058999] yes=119,no=120,missing=120
						119:leaf=0.0495224
						120:leaf=0.106128
					60:[KW_REL<0.001999] yes=121,no=122,missing=122
						121:leaf=0.122839
						122:leaf=0.161847
				30:[C_D_U_TITLEMD5_CATEGORY_MICRO_MAX_COEC<0.339999] yes=61,no=62,missing=62
					61:[CAT_REL<0.001999] yes=123,no=124,missing=124
						123:leaf=0.172235
						124:leaf=0.180856
					62:[CAT_REL<0.001999] yes=125,no=126,missing=126
						125:leaf=0.182152
						126:leaf=0.187191
booster[1]:
0:[D_TITLEMD5_COEC<0.098999] yes=1,no=2,missing=1
	1:[C_D_U_TITLEMD5_CATEGORY_MICRO_MAX_COEC<0.064999] yes=3,no=4,missing=3
		3:[D_TITLEMD5_COEC<0.034999] yes=7,no=8,missing=8
			7:[KW_REL<0.001999] yes=15,no=16,missing=16
				15:[DOC_AGE<2] yes=31,no=32,missing=32
					31:[C_D_U_CATEGORY_CATEGORY_MICRO_MEAN_COEC<0.098999] yes=63,no=64,missing=63
						63:leaf=-0.0528136
						64:leaf=-0.011526
					32:[U_KW_LEN<3260] yes=65,no=66,missing=66
						65:leaf=-0.0861437
						66:leaf=-0.0438232
				16:[DOC_AGE<0.999999] yes=33,no=34,missing=34
					33:[D_KEYWORD_MAX_EC<45669.6] yes=67,no=68,missing=68
						67:leaf=0.0395263
						68:leaf=-0.0127322
					34:[C_D_U_TITLEMD5_CATEGORY_MICRO_MAX_COEC<0.031999] yes=69,no=70,missing=70
						69:leaf=-0.0345996
						70:leaf=0.0114568
			8:[CAT_REL<0.006999] yes=17,no=18,missing=18
				17:[D_TITLEMD5_COEC<0.058999] yes=35,no=36,missing=36
					35:[U_KW_LEN<3437] yes=71,no=72,missing=72
						71:leaf=-0.0105605
						72:leaf=0.0295913
					36:[D_CATEGORY_MACRO_MEAN_COEC<0.132999] yes=73,no=74,missing=74
						73:leaf=0.0193692
						74:leaf=0.0413438
				18:[U_KW_LEN<4527] yes=37,no=38,missing=38
					37:[D_TITLEMD5_COEC<0.058999] yes=75,no=76,missing=76
						75:leaf=0.038723
						76:leaf=0.0711318
					38:[D_TITLEMD5_COEC<0.065999] yes=77,no=78,missing=78
						77:leaf=0.08178
						78:leaf=0.119647
		4:[CAT_REL<0.006999] yes=9,no=10,missing=10
			9:[KW_REL<0.001999] yes=19,no=20,missing=20
				19:[U_KW_LEN<4527] yes=39,no=40,missing=40
					39:[C_D_U_TITLEMD5_CATEGORY_MAX_C<0.441999] yes=79,no=80,missing=80
						79:leaf=0.0198145
						80:leaf=0.050438
					40:[D_CATEGORY_MICRO_MEAN_COEC<0.114999] yes=81,no=82,missing=82
						81:leaf=0.0516095
						82:leaf=0.0909927
				20:[C_D_U_TITLEMD5_CATEGORY_MICRO_MAX_COEC<0.096999] yes=41,no=42,missing=42
					41:[U_KW_LEN<4527] yes=83,no=84,missing=84
						83:leaf=0.0552019
						84:leaf=0.0912713
					42:[D_TITLEMD5_COEC<0.049999] yes=85,no=86,missing=86
						85:leaf=0.0183146
						86:leaf=0.0940467
			10:[C_D_U_TITLEMD5_CATEGORY_MICRO_MAX_COEC<0.107999] yes=21,no=22,missing=22
				21:[U_KW_LEN<3066] yes=43,no=44,missing=44
					43:[KW_REL<0.002999] yes=87,no=88,missing=88
						87:leaf=0.0753227
						88:leaf=0.0968561
					44:[D_TITLEMD5_COEC<0.058999] yes=89,no=90,missing=90
						89:leaf=0.0866646
						90:leaf=0.114492
				22:[C_D_U_TITLEMD5_CATEGORY_MAX_C<0.103999] yes=45,no=46,missing=46
					45:[D_TITLEMD5_COEC<0.049999] yes=91,no=92,missing=92
						91:leaf=0.0444144
						92:leaf=0.103917
					46:[C_D_U_TITLEMD5_CATEGORY_MICRO_MAX_COEC<0.138999] yes=93,no=94,missing=94
						93:leaf=0.118804
						94:leaf=0.137849
	2:[C_D_U_TITLEMD5_CATEGORY_MICRO_MAX_COEC<0.168999] yes=5,no=6,missing=5
		5:[D_TITLEMD5_COEC<0.195999] yes=11,no=12,missing=12
			11:[CAT_REL<0.001999] yes=23,no=24,missing=24
				23:[D_TITLEMD5_COEC<0.139999] yes=47,no=48,missing=48
					47:[KW_REL<0.001999] yes=95,no=96,missing=96
						95:leaf=0.0676309
						96:leaf=0.0969162
					48:[KW_REL<0.002999] yes=97,no=98,missing=98
						97:leaf=0.106818
						98:leaf=0.125152
				24:[C_D_U_TITLEMD5_CATEGORY_MICRO_MAX_COEC<0.115999] yes=49,no=50,missing=49
					49:[KW_REL<0.001999] yes=99,no=100,missing=100
						99:leaf=0.102622
						100:leaf=0.125255
					50:[U_KW_LEN<1978] yes=101,no=102,missing=102
						101:leaf=0.130763
						102:leaf=0.14367
			12:[D_TITLEMD5_COEC<0.264999] yes=25,no=26,missing=26
				25:[U_KEYWORD_MEAN_C<2401.56] yes=51,no=52,missing=52
					51:[CAT_REL<0.003999] yes=103,no=104,missing=104
						103:leaf=0.114491
						104:leaf=0.13822
					52:[D_CATEGORY_MACRO_MEAN_COEC<0.105999] yes=105,no=106,missing=106
						105:leaf=0.129744
						106:leaf=0.144127
				26:[D_TITLEMD5_C<7.91] yes=53,no=54,missing=54
					53:[KW_REL<0.001999] yes=107,no=108,missing=108
						107:leaf=0.0559614
						108:leaf=0.128488
					54:[D_TITLEMD5_COEC<0.330999] yes=109,no=110,missing=110
						109:leaf=0.158401
						110:leaf=0.168257
		6:[C_D_U_TITLEMD5_CATEGORY_MICRO_MAX_COEC<0.245999] yes=13,no=14,missing=14
			13:[CAT_REL<0.001999] yes=27,no=28,missing=28
				27:[D_TITLEMD5_COEC<0.195999] yes=55,no=56,missing=56
					55:[KW_REL<0.001999] yes=111,no=112,missing=112
						111:leaf=0.12068
						112:leaf=0.136187
					56:[U_KEYWORD_MEAN_C<2362.19] yes=113,no=114,missing=114
						113:leaf=0.133551
						114:leaf=0.146599
				28:[U_KW_LEN<1978] yes=57,no=58,missing=58
					57:[D_TITLEMD5_COEC<0.185999] yes=115,no=116,missing=116
						115:leaf=0.14439
						116:leaf=0.152231
					58:[D_TITLEMD5_COEC<0.160999] yes=117,no=118,missing=118
						117:leaf=0.153204
						118:leaf=0.159533
			14:[C_D_U_TITLEMD5_CATEGORY_MICRO_MAX_COEC<0.312999] yes=29,no=30,missing=30
				29:[CAT_REL<0.001999] yes=59,no=60,missing=60
					59:[U_KEYWORD_MEAN_C<2451.48] yes=119,no=120,missing=120
						119:leaf=0.146577
						120:leaf=0.155166
					60:[U_KW_LEN<980] yes=121,no=122,missing=122
						121:leaf=0.156788
						122:leaf=0.163579
				30:[C_D_U_TITLEMD5_CATEGORY_MAX_C<0.103999] yes=61,no=62,missing=62
					61:[D_TITLEMD5_COEC<0.169999] yes=123,no=124,missing=124
						123:leaf=0.122676
						124:leaf=0.151943
					62:[C_D_U_TITLEMD5_CATEGORY_MICRO_MAX_COEC<0.379999] yes=125,no=126,missing=126
						125:leaf=0.164619
						126:leaf=0.169877
booster[2]:
0:[C_D_U_TITLEMD5_CATEGORY_MICRO_MAX_COEC<0.103999] yes=1,no=2,missing=2
	1:[D_TITLEMD5_COEC<0.048999] yes=3,no=4,missing=4
		3:[D_TITLEMD5_COEC<0.033999] yes=7,no=8,missing=8
			7:[KW_REL<0.002999] yes=15,no=16,missing=16
				15:[U_KW_LEN<3410] yes=31,no=32,missing=32
					31:[DOC_AGE<2] yes=63,no=64,missing=64
						63:leaf=-0.0333418
						64:leaf=-0.0704717
					32:[U_KW_LEN<6665] yes=65,no=66,missing=66
						65:leaf=-0.018815
						66:leaf=0.0598535
				16:[D_KEYWORD_MEAN_C<6713.84] yes=33,no=34,missing=34
					33:[DOC_AGE<2] yes=67,no=68,missing=68
						67:leaf=0.0400627
						68:leaf=0.00303905
					34:[KW_REL<0.004999] yes=69,no=70,missing=70
						69:leaf=-0.0341855
						70:leaf=0.00160441
			8:[CAT_REL<0.001999] yes=17,no=18,missing=18
				17:[U_KW_LEN<2999] yes=35,no=36,missing=36
					35:[DOC_AGE<2] yes=71,no=72,missing=72
						71:leaf=-0.00121537
						72:leaf=-0.0303531
					36:[KW_REL<0.003999] yes=73,no=74,missing=74
						73:leaf=0.00825689
						74:leaf=0.0517631
				18:[KW_REL<0.003999] yes=37,no=38,missing=38
					37:[U_KW_LEN<2999] yes=75,no=76,missing=76
						75:leaf=0.0133769
						76:leaf=0.0454815
					38:[C_D_U_TITLEMD5_CATEGORY_MICRO_MAX_COEC<0.056999] yes=77,no=78,missing=78
						77:leaf=0.0475841
						78:leaf=0.0741591
		4:[CAT_REL<0.001999] yes=9,no=10,missing=10
			9:[C_D_U_TITLEMD5_CATEGORY_MICRO_MAX_COEC<0.070999] yes=19,no=20,missing=20
				19:[DOC_AGE<2] yes=39,no=40,missing=40
					39:[D_TITLEMD5_COEC<0.107999] yes=79,no=80,missing=79
						79:leaf=0.0394351
						80:leaf=0.0758816
					40:[KW_REL<0.002999] yes=81,no=82,missing=82
						81:leaf=0.00970868
						82:leaf=0.040308
				20:[KW_REL<0.002999] yes=41,no=42,missing=42
					41:[D_KEYWORD_MAX_EC<23913.4] yes=83,no=84,missing=84
						83:leaf=0.0532212
						84:leaf=0.0252317
					42:[U_KW_LEN<3962] yes=85,no=86,missing=86
						85:leaf=0.0719892
						86:leaf=0.0993454
			10:[D_TITLEMD5_COEC<0.084999] yes=21,no=22,missing=21
				21:[U_KW_LEN<2906] yes=43,no=44,missing=44
					43:[KW_REL<0.002999] yes=87,no=88,missing=88
						87:leaf=0.0472407
						88:leaf=0.0745133
					44:[KW_REL<0.003999] yes=89,no=90,missing=90
						89:leaf=0.0813471
						90:leaf=0.102311
				22:[KW_REL<0.001999] yes=45,no=46,missing=46
					45:[U_KW_LEN<2906] yes=91,no=92,missing=92
						91:leaf=0.0774247
						92:leaf=0.102648
					46:[U_KW_LEN<2104] yes=93,no=94,missing=94
						93:leaf=0.0980827
						94:leaf=0.116518
	2:[C_D_U_TITLEMD5_CATEGORY_MICRO_MAX_COEC<0.164999] yes=5,no=6,missing=5
		5:[D_TITLEMD5_COEC<0.195999] yes=11,no=12,missing=11
			11:[CAT_REL<0.001999] yes=23,no=24,missing=24
				23:[D_TITLEMD5_COEC<0.094999] yes=47,no=48,missing=47
					47:[C_D_U_TITLEMD5_CATEGORY_MAX_C<0.063999] yes=95,no=96,missing=95
						95:leaf=0.0150506
						96:leaf=0.0723967
					48:[D_TITLEMD5_COEC<0.142999] yes=97,no=98,missing=98
						97:leaf=0.0790601
						98:leaf=0.102118
				24:[D_TITLEMD5_COEC<0.084999] yes=49,no=50,missing=49
					49:[D_TITLEMD5_COEC<0.048999] yes=99,no=100,missing=100
						99:leaf=0.0458067
						100:leaf=0.103612
					50:[U_KW_LEN<2464] yes=101,no=102,missing=102
						101:leaf=0.1167
						102:leaf=0.130232
			12:[D_TITLEMD5_COEC<0.272999] yes=25,no=26,missing=26
				25:[U_KEYWORD_MEAN_C<2442.16] yes=51,no=52,missing=52
					51:[CAT_REL<0.003999] yes=103,no=104,missing=104
						103:leaf=0.1043
						104:leaf=0.12617
					52:[D_KEYWORD_MICRO_MEAN_COEC<0.150999] yes=105,no=106,missing=106
						105:leaf=0.124562
						106:leaf=0.134079
				26:[D_TITLEMD5_C<7.995] yes=53,no=54,missing=54
					53:[KW_REL<0.001999] yes=107,no=108,missing=108
						107:leaf=0.0490136
						108:leaf=0.113931
					54:[D_TITLEMD5_COEC<0.328999] yes=109,no=110,missing=110
						109:leaf=0.147078
						110:leaf=0.155138
		6:[C_D_U_TITLEMD5_CATEGORY_MICRO_MAX_COEC<0.230999] yes=13,no=14,missing=14
			13:[CAT_REL<0.001999] yes=27,no=28,missing=28
				27:[D_TITLEMD5_COEC<0.176999] yes=55,no=56,missing=56
					55:[KW_REL<0.002999] yes=111,no=112,missing=112
						111:leaf=0.106172
						112:leaf=0.124306
					56:[U_KEYWORD_MEAN_C<2442.16] yes=113,no=114,missing=114
						113:leaf=0.117652
						114:leaf=0.130779
				28:[KW_REL<0.001999] yes=57,no=58,missing=58
					57:[D_TITLEMD5_COEC<0.136999] yes=115,no=116,missing=116
						115:leaf=0.119335
						116:leaf=0.133068
					58:[U_KW_LEN<1349] yes=117,no=118,missing=118
						117:leaf=0.135124
						118:leaf=0.142069
			14:[C_D_U_TITLEMD5_CATEGORY_MICRO_MAX_COEC<0.298999] yes=29,no=30,missing=30
				29:[CAT_REL<0.001999] yes=59,no=60,missing=60
					59:[D_TITLEMD5_C<128.171] yes=119,no=120,missing=120
						119:leaf=0.0957251
						120:leaf=0.138152
					60:[D_TITLEMD5_C<43.557] yes=121,no=122,missing=122
						121:leaf=0.120513
						122:leaf=0.147209
				30:[D_TITLEMD5_COEC<0.113999] yes=61,no=62,missing=62
					61:[C_D_U_TITLEMD5_CATEGORY_MAX_EC<0.562999] yes=123,no=124,missing=124
						123:leaf=0.0810271
						124:leaf=0.14609
					62:[C_D_U_TITLEMD5_CATEGORY_MAX_C<0.141999] yes=125,no=126,missing=126
						125:leaf=0.133631
						126:leaf=0.153013
booster[3]:
0:[C_D_U_TITLEMD5_CATEGORY_MICRO_MAX_COEC<0.131999] yes=1,no=2,missing=1
	1:[D_TITLEMD5_COEC<0.070999] yes=3,no=4,missing=4
		3:[C_D_U_TITLEMD5_CATEGORY_MICRO_MAX_COEC<0.046999] yes=7,no=8,missing=7
			7:[D_TITLEMD5_COEC<0.033999] yes=15,no=16,missing=16
				15:[CAT_REL<0.004999] yes=31,no=32,missing=32
					31:[U_KW_LEN<2952] yes=63,no=64,missing=64
						63:leaf=-0.0644865
						64:leaf=-0.021667
					32:[DOC_AGE<2] yes=65,no=66,missing=66
						65:leaf=0.0183116
						66:leaf=-0.0267948
				16:[CAT_REL<0.001999] yes=33,no=34,missing=34
					33:[DOC_AGE<2] yes=67,no=68,missing=68
						67:leaf=0.010785
						68:leaf=-0.0135216
					34:[DOC_AGE<2] yes=69,no=70,missing=70
						69:leaf=0.0530791
						70:leaf=0.0233075
			8:[CAT_REL<0.012999] yes=17,no=18,missing=18
				17:[U_KW_LEN<4527] yes=35,no=36,missing=36
					35:[C_D_U_TITLEMD5_CATEGORY_MAX_C<0.179999] yes=71,no=72,missing=72
						71:leaf=0.00111517
						72:leaf=0.0315326
					36:[U_KW_LEN<6601] yes=73,no=74,missing=74
						73:leaf=0.051508
						74:leaf=0.0905281
				18:[C_D_U_TITLEMD5_CATEGORY_MICRO_MAX_COEC<0.076999] yes=37,no=38,missing=38
					37:[U_KW_LEN<2238] yes=75,no=76,missing=76
						75:leaf=0.0401436
						76:leaf=0.0617545
					38:[KW_REL<0.003999] yes=77,no=78,missing=78
						77:leaf=0.0672895
						78:leaf=0.0903584
		4:[D_TITLEMD5_COEC<0.181999] yes=9,no=10,missing=9
			9:[CAT_REL<0.001999] yes=19,no=20,missing=20
				19:[D_TITLEMD5_COEC<0.127999] yes=39,no=40,missing=39
					39:[KW_REL<0.001999] yes=79,no=80,missing=80
						79:leaf=0.0377322
						80:leaf=0.0644728
					40:[D_CATEGORY_MICRO_MEAN_COEC<0.123999] yes=81,no=82,missing=82
						81:leaf=0.0634214
						82:leaf=0.0865982
				20:[C_D_U_TITLEMD5_CATEGORY_MICRO_MAX_COEC<0.091999] yes=41,no=42,missing=41
					41:[KW_REL<0.001999] yes=83,no=84,missing=84
						83:leaf=0.0637249
						84:leaf=0.0896193
					42:[U_KW_LEN<2959] yes=85,no=86,missing=86
						85:leaf=0.0973276
						86:leaf=0.114018
			10:[D_TITLEMD5_COEC<0.254999] yes=21,no=22,missing=22
				21:[D_KEYWORD_MICRO_MAX_COEC<0.207999] yes=43,no=44,missing=44
					43:[D_CATEGORY_MACRO_MEAN_COEC<0.126999] yes=87,no=88,missing=88
						87:leaf=0.0950727
						88:leaf=0.111106
					44:[C_D_U_TITLEMD5_CITY_COEC<0.210999] yes=89,no=90,missing=89
						89:leaf=0.115548
						90:leaf=0.123698
				22:[D_KEYWORD_MICRO_MAX_COEC<0.286999] yes=45,no=46,missing=46
					45:[D_TITLEMD5_C<7.881] yes=91,no=92,missing=92
						91:leaf=0.0944275
						92:leaf=0.130938
					46:[D_KEYWORD_MICRO_MEAN_COEC<0.132999] yes=93,no=94,missing=94
						93:leaf=0.102057
						94:leaf=0.142188
	2:[C_D_U_TITLEMD5_CATEGORY_MICRO_MAX_COEC<0.207999] yes=5,no=6,missing=6
		5:[CAT_REL<0.003999] yes=11,no=12,missing=12
			11:[D_TITLEMD5_COEC<0.158999] yes=23,no=24,missing=24
				23:[KW_REL<0.001999] yes=47,no=48,missing=48
					47:[C_D_U_CATEGORY_CATEGORY_MICRO_MAX_COEC<0.281999] yes=95,no=96,missing=96
						95:leaf=0.0763123
						96:leaf=0.115466
					48:[U_KW_LEN<3695] yes=97,no=98,missing=98
						97:leaf=0.0962003
						98:leaf=0.115387
				24:[U_KEYWORD_MEAN_C<2326.89] yes=49,no=50,missing=50
					49:[U_KEYWORD_MICRO_MAX_COEC<0.146999] yes=99,no=100,missing=100
						99:leaf=0.0909303
						100:leaf=0.107077
					50:[KW_REL<0.001999] yes=101,no=102,missing=102
						101:leaf=0.105493
						102:leaf=0.117952
			12:[D_TITLEMD5_COEC<0.141999] yes=25,no=26,missing=26
				25:[KW_REL<0.001999] yes=51,no=52,missing=52
					51:[U_KW_LEN<2959] yes=103,no=104,missing=104
						103:leaf=0.0981451
						104:leaf=0.115325
					52:[U_KW_LEN<2952] yes=105,no=106,missing=106
						105:leaf=0.115141
						106:leaf=0.126694
				26:[U_KW_LEN<1040] yes=53,no=54,missing=54
					53:[KW_REL<0.001999] yes=107,no=108,missing=108
						107:leaf=0.112804
						108:leaf=0.121569
					54:[CAT_REL<0.029999] yes=109,no=110,missing=110
						109:leaf=0.125094
						110:leaf=0.132039
		6:[C_D_U_TITLEMD5_CATEGORY_MICRO_MAX_COEC<0.287999] yes=13,no=14,missing=14
			13:[CAT_REL<0.001999] yes=27,no=28,missing=28
				27:[D_TITLEMD5_C<45.016] yes=55,no=56,missing=56
					55:[D_TITLEMD5_COEC<0.058999] yes=111,no=112,missing=112
						111:leaf=-0.0183767
						112:leaf=0.0718027
					56:[D_CATEGORY_MACRO_MAX_COEC<0.159999] yes=113,no=114,missing=114
						113:leaf=0.121513
						114:leaf=0.130969
				28:[D_TITLEMD5_C<45.016] yes=57,no=58,missing=58
					57:[D_TITLEMD5_COEC<0.064999] yes=115,no=116,missing=116
						115:leaf=0.0494672
						116:leaf=0.114778
					58:[U_KW_LEN<1040] yes=117,no=118,missing=118
						117:leaf=0.129593
						118:leaf=0.13694
			14:[C_D_U_TITLEMD5_CATEGORY_MAX_C<0.092999] yes=29,no=30,missing=30
				29:[D_TITLEMD5_COEC<0.134999] yes=59,no=60,missing=60
					59:[CAT_REL<0.001999] yes=119,no=120,missing=120
						119:leaf=0.0425916
						120:leaf=0.0917435
					60:[D_KEYWORD_MACRO_MEAN_COEC<0.104999] yes=121,no=122,missing=122
						121:leaf=0.11149
						122:leaf=0.132684
				30:[C_D_U_TITLEMD5_CATEGORY_MICRO_MAX_COEC<0.357999] yes=61,no=62,missing=62
					61:[CAT_REL<0.001999] yes=123,no=124,missing=124
						123:leaf=0.134901
						124:leaf=0.142134
					62:[KW_REL<0.001999] yes=125,no=126,missing=126
						125:leaf=0.14171
						126:leaf=0.146813
booster[4]:
0:[D_TITLEMD5_COEC<0.109999] yes=1,no=2,missing=1
	1:[C_D_U_TITLEMD5_CATEGORY_MICRO_MAX_COEC<0.075999] yes=3,no=4,missing=3
		3:[D_TITLEMD5_COEC<0.048999] yes=7,no=8,missing=8
			7:[KW_REL<0.001999] yes=15,no=16,missing=16
				15:[D_TITLEMD5_COEC<0.033999] yes=31,no=32,missing=32
					31:[DOC_AGE<2] yes=63,no=64,missing=64
						63:leaf=-0.0290759
						64:leaf=-0.0638867
					32:[DOC_AGE<2] yes=65,no=66,missing=66
						65:leaf=0.00457626
						66:leaf=-0.0254931
				16:[C_D_U_TITLEMD5_CATEGORY_MICRO_MAX_COEC<0.030999] yes=33,no=34,missing=34
					33:[U_KW_LEN<3416] yes=67,no=68,missing=68
						67:leaf=-0.018804
						68:leaf=0.0170609
					34:[CAT_REL<0.024999] yes=69,no=70,missing=70
						69:leaf=0.00990841
						70:leaf=0.037123
			8:[CAT_REL<0.012999] yes=17,no=18,missing=18
				17:[U_KW_LEN<4355] yes=35,no=36,missing=36
					35:[U_KEYWORD_MEAN_EC<18100] yes=71,no=72,missing=72
						71:leaf=-0.000797072
						72:leaf=0.0259258
					36:[U_KW_LEN<7058] yes=73,no=74,missing=74
						73:leaf=0.0538557
						74:leaf=0.0990439
				18:[U_KW_LEN<3853] yes=37,no=38,missing=38
					37:[KW_REL<0.003999] yes=75,no=76,missing=76
						75:leaf=0.0442983
						76:leaf=0.0714921
					38:[D_TITLEMD5_COEC<0.074999] yes=77,no=78,missing=78
						77:leaf=0.0730722
						78:leaf=0.093297
		4:[CAT_REL<0.009999] yes=9,no=10,missing=10
			9:[U_KW_LEN<3703] yes=19,no=20,missing=20
				19:[KW_REL<0.002999] yes=39,no=40,missing=40
					39:[C_D_U_TITLEMD5_CATEGORY_MAX_C<0.277999] yes=79,no=80,missing=80
						79:leaf=0.0156084
						80:leaf=0.0429472
					40:[C_D_U_TITLEMD5_CATEGORY_MICRO_MAX_COEC<0.109999] yes=81,no=82,missing=82
						81:leaf=0.0549986
						82:leaf=0.0776647
				20:[D_CATEGORY_MACRO_MEAN_COEC<0.126999] yes=41,no=42,missing=42
					41:[D_TITLEMD5_COEC<0.064999] yes=83,no=84,missing=84
						83:leaf=0.0237828
						84:leaf=0.0640568
					42:[U_KW_LEN<5790] yes=85,no=86,missing=86
						85:leaf=0.0810284
						86:leaf=0.10838
			10:[C_D_U_TITLEMD5_CATEGORY_MICRO_MAX_COEC<0.120999] yes=21,no=22,missing=22
				21:[U_KW_LEN<3269] yes=43,no=44,missing=44
					43:[KW_REL<0.003999] yes=87,no=88,missing=88
						87:leaf=0.0680139
						88:leaf=0.0862783
					44:[D_TITLEMD5_COEC<0.079999] yes=89,no=90,missing=90
						89:leaf=0.0847935
						90:leaf=0.100649
				22:[C_D_U_TITLEMD5_CATEGORY_MAX_C<0.171999] yes=45,no=46,missing=46
					45:[D_TITLEMD5_COEC<0.057999] yes=91,no=92,missing=92
						91:leaf=0.0348769
						92:leaf=0.0862412
					46:[U_KW_LEN<2054] yes=93,no=94,missing=94
						93:leaf=0.0956886
						94:leaf=0.111035
	2:[C_D_U_TITLEMD5_CATEGORY_MICRO_MAX_COEC<0.179999] yes=5,no=6,missing=5
		5:[CAT_REL<0.009999] yes=11,no=12,missing=12
			11:[D_TITLEMD5_COEC<0.174999] yes=23,no=24,missing=24
				23:[C_D_U_TITLEMD5_CATEGORY_MICRO_MAX_COEC<0.123999] yes=47,no=48,missing=47
					47:[D_CATEGORY_MICRO_MEAN_COEC<0.122999] yes=95,no=96,missing=96
						95:leaf=0.0493466
						96:leaf=0.073354
					48:[KW_REL<0.002999] yes=97,no=98,missing=98
						97:leaf=0.0796873
						98:leaf=0.098978
				24:[D_TITLEMD5_COEC<0.252999] yes=49,no=50,missing=50
					49:[U_KEYWORD_MEAN_C<2450.83] yes=99,no=100,missing=100
						99:leaf=0.0855876
						100:leaf=0.104793
					50:[D_KEYWORD_MICRO_MAX_COEC<0.286999] yes=101,no=102,missing=102
						101:leaf=0.120744
						102:leaf=0.132979
			12:[U_KW_LEN<1095] yes=25,no=26,missing=26
				25:[D_TITLEMD5_COEC<0.137999] yes=51,no=52,missing=52
					51:[KW_REL<0.001999] yes=103,no=104,missing=104
						103:leaf=0.0748851
						104:leaf=0.0916283
					52:[KW_REL<0.001999] yes=105,no=106,missing=106
						105:leaf=0.0975996
						106:leaf=0.108308
				26:[D_TITLEMD5_COEC<0.134999] yes=53,no=54,missing=54
					53:[KW_REL<0.001999] yes=107,no=108,missing=108
						107:leaf=0.0939197
						108:leaf=0.109454
					54:[KW_REL<0.001999] yes=109,no=110,missing=110
						109:leaf=0.109612
						110:leaf=0.120011
		6:[C_D_U_TITLEMD5_CATEGORY_MICRO_MAX_COEC<0.255999] yes=13,no=14,missing=14
			13:[CAT_REL<0.001999] yes=27,no=28,missing=28
				27:[KW_REL<0.001999] yes=55,no=56,missing=56
					55:[D_CATEGORY_MACRO_MAX_COEC<0.186999] yes=111,no=112,missing=112
						111:leaf=0.100139
						112:leaf=0.117151
					56:[U_KEYWORD_MEAN_C<2476.13] yes=113,no=114,missing=114
						113:leaf=0.10706
						114:leaf=0.116629
				28:[U_KW_LEN<1477] yes=57,no=58,missing=58
					57:[KW_REL<0.001999] yes=115,no=116,missing=116
						115:leaf=0.112259
						116:leaf=0.1204
					58:[U_KW_LEN<3529] yes=117,no=118,missing=118
						117:leaf=0.123963
						118:leaf=0.130035
			14:[C_D_U_TITLEMD5_CATEGORY_MICRO_MAX_COEC<0.323999] yes=29,no=30,missing=30
				29:[CAT_REL<0.001999] yes=59,no=60,missing=60
					59:[U_KEYWORD_MEAN_C<2281.66] yes=119,no=120,missing=120
						119:leaf=0.115406
						120:leaf=0.124587
					60:[U_KW_LEN<1095] yes=121,no=122,missing=122
						121:leaf=0.126283
						122:leaf=0.132796
				30:[D_TITLEMD5_C<88.665] yes=61,no=62,missing=62
					61:[KW_REL<0.001999] yes=123,no=124,missing=124
						123:leaf=0.0902768
						124:leaf=0.120527
					62:[CAT_REL<0.001999] yes=125,no=126,missing=126
						125:leaf=0.132008
						126:leaf=0.137473
booster[5]:
0:[C_D_U_TITLEMD5_CATEGORY_MICRO_MAX_COEC<0.136999] yes=1,no=2,missing=1
	1:[D_TITLEMD5_COEC<0.079999] yes=3,no=4,missing=4
		3:[C_D_U_TITLEMD5_CATEGORY_MICRO_MAX_COEC<0.045999] yes=7,no=8,missing=7
			7:[D_TITLEMD5_COEC<0.033999] yes=15,no=16,missing=16
				15:[CAT_REL<0.004999] yes=31,no=32,missing=32
					31:[DOC_AGE<2] yes=63,no=64,missing=64
						63:leaf=-0.0299525
						64:leaf=-0.0631004
					32:[DOC_AGE<0.999999] yes=65,no=66,missing=66
						65:leaf=0.0232608
						66:leaf=-0.0198185
				16:[CAT_REL<0.001999] yes=33,no=34,missing=34
					33:[U_KEYWORD_MEAN_EC<17831.1] yes=67,no=68,missing=68
						67:leaf=-0.0228258
						68:leaf=0.00271698
					34:[U_KW_LEN<2588] yes=69,no=70,missing=70
						69:leaf=0.0164394
						70:leaf=0.0437057
			8:[CAT_REL<0.018999] yes=17,no=18,missing=18
				17:[U_KW_LEN<4004] yes=35,no=36,missing=36
					35:[C_D_U_TITLEMD5_CATEGORY_MAX_C<0.264999] yes=71,no=72,missing=72
						71:leaf=0.00480356
						72:leaf=0.0300494
					36:[U_KW_LEN<6902] yes=73,no=74,missing=74
						73:leaf=0.0464995
						74:leaf=0.0902141
				18:[C_D_U_TITLEMD5_CATEGORY_MICRO_MAX_COEC<0.085999] yes=37,no=38,missing=38
					37:[U_KW_LEN<2912] yes=75,no=76,missing=76
						75:leaf=0.040721
						76:leaf=0.0617654
					38:[KW_REL<0.002999] yes=77,no=78,missing=78
						77:leaf=0.0586497
						78:leaf=0.0797163
		4:[D_TITLEMD5_COEC<0.196999] yes=9,no=10,missing=9
			9:[CAT_REL<0.003999] yes=19,no=20,missing=20
				19:[D_TITLEMD5_COEC<0.140999] yes=39,no=40,missing=39
					39:[KW_REL<0.001999] yes=79,no=80,missing=80
						79:leaf=0.0365938
						80:leaf=0.0595739
					40:[D_CATEGORY_MICRO_MEAN_COEC<0.119999] yes=81,no=82,missing=82
						81:leaf=0.06095
						82:leaf=0.0797498
				20:[KW_REL<0.001999] yes=41,no=42,missing=42
					41:[C_D_U_TITLEMD5_CATEGORY_MICRO_MAX_COEC<0.085999] yes=83,no=84,missing=83
						83:leaf=0.053269
						84:leaf=0.0764957
					42:[D_TITLEMD5_COEC<0.117999] yes=85,no=86,missing=85
						85:leaf=0.0825157
						86:leaf=0.0985965
			10:[D_TITLEMD5_COEC<0.260999] yes=21,no=22,missing=22
				21:[D_CATEGORY_MICRO_MEAN_COEC<0.105999] yes=43,no=44,missing=44
					43:[D_KEYWORD_MICRO_MEAN_COEC<0.151999] yes=87,no=88,missing=88
						87:leaf=0.0790963
						88:leaf=0.107428
					44:[DOC_AGE<24] yes=89,no=90,missing=90
						89:leaf=0.107776
						90:leaf=0.0975801
				22:[D_TITLEMD5_C<7.765] yes=45,no=46,missing=46
					45:[KW_REL<0.001999] yes=91,no=92,missing=92
						91:leaf=0.0227965
						92:leaf=0.090876
					46:[D_TITLEMD5_COEC<0.324999] yes=93,no=94,missing=94
						93:leaf=0.117698
						94:leaf=0.128549
	2:[C_D_U_TITLEMD5_CATEGORY_MICRO_MAX_COEC<0.217999] yes=5,no=6,missing=6
		5:[CAT_REL<0.001999] yes=11,no=12,missing=12
			11:[D_TITLEMD5_COEC<0.170999] yes=23,no=24,missing=24
				23:[KW_REL<0.002999] yes=47,no=48,missing=48
					47:[U_KW_LEN<4004] yes=95,no=96,missing=96
						95:leaf=0.0704858
						96:leaf=0.0935798
					48:[U_KW_LEN<3056] yes=97,no=98,missing=98
						97:leaf=0.0888597
						98:leaf=0.104117
				24:[U_KEYWORD_MEAN_C<2235.02] yes=49,no=50,missing=50
					49:[U_KEYWORD_MACRO_MEAN_COEC<0.033999] yes=99,no=100,missing=100
						99:leaf=0.076143
						100:leaf=0.0937905
					50:[KW_REL<0.001999] yes=101,no=102,missing=102
						101:leaf=0.0932682
						102:leaf=0.104503
			12:[KW_REL<0.001999] yes=25,no=26,missing=26
				25:[D_TITLEMD5_COEC<0.154999] yes=51,no=52,missing=52
					51:[D_TITLEMD5_C<38.97] yes=103,no=104,missing=104
						103:leaf=0.0518509
						104:leaf=0.0926594
					52:[U_KW_LEN<767] yes=105,no=106,missing=106
						105:leaf=0.0986323
						106:leaf=0.108906
				26:[D_TITLEMD5_COEC<0.140999] yes=53,no=54,missing=54
					53:[U_KW_LEN<2588] yes=107,no=108,missing=108
						107:leaf=0.0996257
						108:leaf=0.11022
					54:[U_KW_LEN<1757] yes=109,no=110,missing=110
						109:leaf=0.108551
						110:leaf=0.117024
		6:[C_D_U_TITLEMD5_CATEGORY_MICRO_MAX_COEC<0.295999] yes=13,no=14,missing=14
			13:[CAT_REL<0.003999] yes=27,no=28,missing=28
				27:[D_TITLEMD5_C<85.606] yes=55,no=56,missing=56
					55:[C_D_U_CATEGORY_CATEGORY_MICRO_MEAN_COEC<0.110999] yes=111,no=112,missing=112
						111:leaf=0.0344074
						112:leaf=0.0817415
					56:[U_KEYWORD_MEAN_C<2235.02] yes=113,no=114,missing=114
						113:leaf=0.101976
						114:leaf=0.112526
				28:[C_D_U_TITLEMD5_CATEGORY_MAX_C<0.093999] yes=57,no=58,missing=58
					57:[D_TITLEMD5_COEC<0.093999] yes=115,no=116,missing=116
						115:leaf=0.0571945
						116:leaf=0.103488
					58:[U_KW_LEN<1543] yes=117,no=118,missing=118
						117:leaf=0.115891
						118:leaf=0.122826
			14:[D_TITLEMD5_C<38.97] yes=29,no=30,missing=30
				29:[D_TITLEMD5_COEC<0.079999] yes=59,no=60,missing=60
					59:[CAT_REL<0.001999] yes=119,no=120,missing=120
						119:leaf=-0.00251546
						120:leaf=0.0511349
					60:[CAT_REL<0.001999] yes=121,no=122,missing=122
						121:leaf=0.0629423
						122:leaf=0.105652
				30:[CAT_REL<0.001999] yes=61,no=62,missing=62
					61:[D_TITLEMD5_COEC<0.343999] yes=123,no=124,missing=124
						123:leaf=0.118183
						124:leaf=0.125676
					62:[DOC_AGE<24] yes=125,no=126,missing=126
						125:leaf=0.129723
						126:leaf=0.12251
booster[6]:
0:[C_D_U_TITLEMD5_CATEGORY_MICRO_MAX_COEC<0.138999] yes=1,no=2,missing=1
	1:[D_TITLEMD5_COEC<0.089999] yes=3,no=4,missing=4
		3:[C_D_U_TITLEMD5_CATEGORY_MICRO_MAX_COEC<0.054999] yes=7,no=8,missing=7
			7:[D_TITLEMD5_COEC<0.032999] yes=15,no=16,missing=16
				15:[KW_REL<0.003999] yes=31,no=32,missing=32
					31:[U_KW_LEN<2871] yes=63,no=64,missing=64
						63:leaf=-0.0436054
						64:leaf=-0.0064869
					32:[D_KEYWORD_MAX_EC<37755.3] yes=65,no=66,missing=66
						65:leaf=0.0300335
						66:leaf=-0.0125218
				16:[KW_REL<0.002999] yes=33,no=34,missing=34
					33:[U_KW_LEN<4004] yes=67,no=68,missing=68
						67:leaf=0.00273738
						68:leaf=0.0382621
					34:[U_KW_LEN<4004] yes=69,no=70,missing=70
						69:leaf=0.0309876
						70:leaf=0.0596256
			8:[CAT_REL<0.015999] yes=17,no=18,missing=18
				17:[U_KW_LEN<3525] yes=35,no=36,missing=36
					35:[KW_REL<0.002999] yes=71,no=72,missing=72
						71:leaf=0.0131153
						72:leaf=0.0364646
					36:[D_CATEGORY_MACRO_MEAN_COEC<0.121999] yes=73,no=74,missing=74
						73:leaf=0.0313002
						74:leaf=0.0597559
				18:[U_KW_LEN<1987] yes=37,no=38,missing=38
					37:[KW_REL<0.003999] yes=75,no=76,missing=76
						75:leaf=0.0390467
						76:leaf=0.0613039
					38:[D_TITLEMD5_COEC<0.056999] yes=77,no=78,missing=78
						77:leaf=0.0473796
						78:leaf=0.0725557
		4:[D_TITLEMD5_COEC<0.197999] yes=9,no=10,missing=9
			9:[CAT_REL<0.004999] yes=19,no=20,missing=20
				19:[D_KEYWORD_MACRO_MEAN_COEC<0.107999] yes=39,no=40,missing=40
					39:[KW_REL<0.001999] yes=79,no=80,missing=80
						79:leaf=0.028898
						80:leaf=0.0556769
					40:[D_TITLEMD5_COEC<0.153999] yes=81,no=82,missing=82
						81:leaf=0.0567977
						82:leaf=0.0758469
				20:[U_KW_LEN<1566] yes=41,no=42,missing=42
					41:[D_TITLEMD5_COEC<0.124999] yes=83,no=84,missing=83
						83:leaf=0.0609888
						84:leaf=0.0804566
					42:[D_TITLEMD5_COEC<0.120999] yes=85,no=86,missing=85
						85:leaf=0.0812871
						86:leaf=0.0960846
			10:[D_TITLEMD5_COEC<0.268999] yes=21,no=22,missing=22
				21:[D_KEYWORD_MICRO_MEAN_COEC<0.138999] yes=43,no=44,missing=44
					43:[D_CATEGORY_MICRO_MEAN_COEC<0.119999] yes=87,no=88,missing=88
						87:leaf=0.0742285
						88:leaf=0.0929301
					44:[D_CATEGORY_MACRO_MAX_COEC<0.179999] yes=89,no=90,missing=89
						89:leaf=0.0989906
						90:leaf=0.117379
				22:[D_TITLEMD5_C<6.965] yes=45,no=46,missing=46
					45:[CAT_REL<0.001999] yes=91,no=92,missing=92
						91:leaf=0.0156383
						92:leaf=0.0822103
					46:[D_TITLEMD5_COEC<0.320999] yes=93,no=94,missing=94
						93:leaf=0.111959
						94:leaf=0.122045
	2:[C_D_U_TITLEMD5_CATEGORY_MICRO_MAX_COEC<0.216999] yes=5,no=6,missing=6
		5:[CAT_REL<0.003999] yes=11,no=12,missing=12
			11:[C_D_U_TITLEMD5_CATEGORY_MICRO_MAX_COEC<0.174999] yes=23,no=24,missing=24
				23:[KW_REL<0.001999] yes=47,no=48,missing=48
					47:[D_KEYWORD_MACRO_MEAN_COEC<0.103999] yes=95,no=96,missing=96
						95:leaf=0.0461985
						96:leaf=0.0701448
					48:[U_KW_LEN<3696] yes=97,no=98,missing=98
						97:leaf=0.0794858
						98:leaf=0.095384
				24:[KW_REL<0.001999] yes=49,no=50,missing=50
					49:[D_KEYWORD_MACRO_MEAN_COEC<0.104999] yes=99,no=100,missing=100
						99:leaf=0.056229
						100:leaf=0.0847856
					50:[D_CATEGORY_MICRO_MEAN_COEC<0.163999] yes=101,no=102,missing=102
						101:leaf=0.0925245
						102:leaf=0.104316
			12:[KW_REL<0.001999] yes=25,no=26,missing=26
				25:[D_TITLEMD5_COEC<0.145999] yes=51,no=52,missing=52
					51:[U_KW_LEN<3054] yes=103,no=104,missing=104
						103:leaf=0.0793616
						104:leaf=0.0958257
					52:[U_KW_LEN<1680] yes=105,no=106,missing=106
						105:leaf=0.0939516
						106:leaf=0.104294
				26:[C_D_U_TITLEMD5_CATEGORY_MICRO_MAX_COEC<0.174999] yes=53,no=54,missing=54
					53:[U_KW_LEN<2871] yes=107,no=108,missing=108
						107:leaf=0.0955396
						108:leaf=0.10534
					54:[U_KW_LEN<1039] yes=109,no=110,missing=110
						109:leaf=0.100272
						110:leaf=0.108647
		6:[C_D_U_TITLEMD5_CATEGORY_MICRO_MAX_COEC<0.294999] yes=13,no=14,missing=14
			13:[CAT_REL<0.001999] yes=27,no=28,missing=28
				27:[D_TITLEMD5_C<124.485] yes=55,no=56,missing=56
					55:[D_TITLEMD5_COEC<0.069999] yes=111,no=112,missing=112
						111:leaf=-0.00846075
						112:leaf=0.07057
					56:[U_KEYWORD_MEAN_C<2478.26] yes=113,no=114,missing=114
						113:leaf=0.0966052
						114:leaf=0.106099
				28:[D_TITLEMD5_C<39.346] yes=57,no=58,missing=58
					57:[D_TITLEMD5_COEC<0.069999] yes=115,no=116,missing=116
						115:leaf=0.037249
						116:leaf=0.0922322
					58:[U_KW_LEN<817] yes=117,no=118,missing=118
						117:leaf=0.106506
						118:leaf=0.114552
			14:[C_D_U_TITLEMD5_CATEGORY_MAX_C<0.096999] yes=29,no=30,missing=30
				29:[D_TITLEMD5_COEC<0.145999] yes=59,no=60,missing=59
					59:[CAT_REL<0.001999] yes=119,no=120,missing=120
						119:leaf=0.0308992
						120:leaf=0.0721427
					60:[KW_REL<0.001999] yes=121,no=122,missing=122
						121:leaf=0.0841726
						122:leaf=0.108687
				30:[C_D_U_TITLEMD5_CATEGORY_MICRO_MAX_COEC<0.374999] yes=61,no=62,missing=62
					61:[CAT_REL<0.001999] yes=123,no=124,missing=124
						123:leaf=0.11313
						124:leaf=0.120052
					62:[DOC_AGE<24] yes=125,no=126,missing=126
						125:leaf=0.124862
						126:leaf=0.11769
booster[7]:
0:[C_D_U_TITLEMD5_CATEGORY_MICRO_MAX_COEC<0.140999] yes=1,no=2,missing=1
	1:[D_TITLEMD5_COEC<0.073999] yes=3,no=4,missing=4
		3:[C_D_U_TITLEMD5_CATEGORY_MICRO_MAX_COEC<0.044999] yes=7,no=8,missing=7
			7:[D_TITLEMD5_COEC<0.030999] yes=15,no=16,missing=16
				15:[DOC_AGE<0.999999] yes=31,no=32,missing=32
					31:[D_TITLEMD5_EC<102.509] yes=63,no=64,missing=64
						63:leaf=0.0234479
						64:leaf=-0.0196694
					32:[U_KW_LEN<1715] yes=65,no=66,missing=66
						65:leaf=-0.0534095
						66:leaf=-0.01982
				16:[CAT_REL<0.014999] yes=33,no=34,missing=34
					33:[U_KW_LEN<4536] yes=67,no=68,missing=68
						67:leaf=-0.00831899
						68:leaf=0.0355097
					34:[DOC_AGE<2] yes=69,no=70,missing=70
						69:leaf=0.0415907
						70:leaf=0.0147549
			8:[CAT_REL<0.024999] yes=17,no=18,missing=18
				17:[U_KW_LEN<4536] yes=35,no=36,missing=36
					35:[C_D_U_TITLEMD5_CATEGORY_MAX_C<0.208999] yes=71,no=72,missing=72
						71:leaf=-0.00080182
						72:leaf=0.0243617
					36:[U_KW_LEN<6672] yes=73,no=74,missing=74
						73:leaf=0.0396449
						74:leaf=0.0749124
				18:[C_D_U_TITLEMD5_CATEGORY_MICRO_MAX_COEC<0.083999] yes=37,no=38,missing=38
					37:[U_KW_LEN<3953] yes=75,no=76,missing=76
						75:leaf=0.0331044
						76:leaf=0.0569815
					38:[C_D_U_TITLEMD5_CATEGORY_MAX_C<0.092999] yes=77,no=78,missing=78
						77:leaf=0.0319374
						78:leaf=0.0631039
		4:[D_TITLEMD5_COEC<0.191999] yes=9,no=10,missing=9
			9:[CAT_REL<0.001999] yes=19,no=20,missing=20
				19:[D_KEYWORD_MACRO_MEAN_COEC<0.104999] yes=39,no=40,missing=40
					39:[KW_REL<0.002999] yes=79,no=80,missing=80
						79:leaf=0.0230931
						80:leaf=0.0540864
					40:[D_TITLEMD5_COEC<0.132999] yes=81,no=82,missing=82
						81:leaf=0.0445148
						82:leaf=0.0633013
				20:[C_D_U_TITLEMD5_CATEGORY_MICRO_MAX_COEC<0.099999] yes=41,no=42,missing=41
					41:[U_KW_LEN<2311] yes=83,no=84,missing=84
						83:leaf=0.0508778
						84:leaf=0.0714845
					42:[U_KW_LEN<2502] yes=85,no=86,missing=86
						85:leaf=0.0726075
						86:leaf=0.0874143
			10:[D_TITLEMD5_COEC<0.266999] yes=21,no=22,missing=22
				21:[D_KEYWORD_MICRO_MEAN_COEC<0.151999] yes=43,no=44,missing=44
					43:[D_CATEGORY_MICRO_MEAN_COEC<0.119999] yes=87,no=88,missing=88
						87:leaf=0.0680652
						88:leaf=0.0872854
					44:[D_CATEGORY_MEAN_EC<390613] yes=89,no=90,missing=90
						89:leaf=0.107741
						90:leaf=0.0926216
				22:[D_KEYWORD_MICRO_MEAN_COEC<0.132999] yes=45,no=46,missing=46
					45:[D_KEYWORD_MACRO_MEAN_COEC<0.083999] yes=91,no=92,missing=92
						91:leaf=0.0301551
						92:leaf=0.082942
					46:[D_TITLEMD5_COEC<0.317999] yes=93,no=94,missing=94
						93:leaf=0.106061
						94:leaf=0.116373
	2:[C_D_U_TITLEMD5_CATEGORY_MICRO_MAX_COEC<0.224999] yes=5,no=6,missing=6
		5:[CAT_REL<0.001999] yes=11,no=12,missing=12
			11:[D_TITLEMD5_COEC<0.171999] yes=23,no=24,missing=24
				23:[C_D_U_CATEGORY_CATEGORY_MICRO_MAX_COEC<0.276999] yes=47,no=48,missing=48
					47:[KW_REL<0.001999] yes=95,no=96,missing=96
						95:leaf=0.0566339
						96:leaf=0.0741616
					48:[U_KW_LEN<1465] yes=97,no=98,missing=98
						97:leaf=0.0834235
						98:leaf=0.102429
				24:[U_KEYWORD_MEAN_C<2514.72] yes=49,no=50,missing=50
					49:[TIME_OF_DAY<10] yes=99,no=100,missing=100
						99:leaf=0.0817696
						100:leaf=0.0676889
					50:[U_KEYWORD_MAX_EC<2606.85] yes=101,no=102,missing=102
						101:leaf=0.0972118
						102:leaf=0.0852697
			12:[C_D_U_TITLEMD5_CATEGORY_MICRO_MAX_COEC<0.176999] yes=25,no=26,missing=26
				25:[U_KW_LEN<1465] yes=51,no=52,missing=52
					51:[D_TITLEMD5_COEC<0.129999] yes=103,no=104,missing=104
						103:leaf=0.0728091
						104:leaf=0.0870533
					52:[D_TITLEMD5_COEC<0.120999] yes=105,no=106,missing=106
						105:leaf=0.0867373
						106:leaf=0.0973097
				26:[U_KW_LEN<991] yes=53,no=54,missing=54
					53:[D_TITLEMD5_COEC<0.162999] yes=107,no=108,missing=107
						107:leaf=0.0837401
						108:leaf=0.0953053
					54:[D_TITLEMD5_COEC<0.062999] yes=109,no=110,missing=110
						109:leaf=0.0322031
						110:leaf=0.101562
		6:[C_D_U_TITLEMD5_CATEGORY_MICRO_MAX_COEC<0.304999] yes=13,no=14,missing=14
			13:[CAT_REL<0.001999] yes=27,no=28,missing=28
				27:[D_TITLEMD5_C<116.451] yes=55,no=56,missing=56
					55:[C_D_U_CATEGORY_CATEGORY_MICRO_MEAN_COEC<0.110999] yes=111,no=112,missing=112
						111:leaf=0.027319
						112:leaf=0.0730178
					56:[U_KEYWORD_MEAN_C<2238.04] yes=113,no=114,missing=114
						113:leaf=0.0905154
						114:leaf=0.100661
				28:[C_D_U_TITLEMD5_CATEGORY_MAX_C<0.092999] yes=57,no=58,missing=58
					57:[D_TITLEMD5_COEC<0.117999] yes=115,no=116,missing=116
						115:leaf=0.0553218
						116:leaf=0.0949331
					58:[U_KW_LEN<1689] yes=117,no=118,missing=118
						117:leaf=0.104284
						118:leaf=0.111409
			14:[D_TITLEMD5_C<60.771] yes=29,no=30,missing=30
				29:[D_TITLEMD5_COEC<0.135999] yes=59,no=60,missing=60
					59:[C_D_U_CATEGORY_CATEGORY_MICRO_MEAN_COEC<0.110999] yes=119,no=120,missing=120
						119:leaf=0.023561
						120:leaf=0.0675673
					60:[KW_REL<0.001999] yes=121,no=122,missing=122
						121:leaf=0.0712049
						122:leaf=0.101406
				30:[CAT_REL<0.001999] yes=61,no=62,missing=62
					61:[D_CATEGORY_MACRO_MAX_COEC<0.147999] yes=123,no=124,missing=124
						123:leaf=0.105489
						124:leaf=0.113537
					62:[DOC_AGE<25] yes=125,no=126,missing=126
						125:leaf=0.118325
						126:leaf=0.110235
booster[8]:
0:[C_D_U_TITLEMD5_CATEGORY_MICRO_MAX_COEC<0.141999] yes=1,no=2,missing=1
	1:[D_TITLEMD5_COEC<0.091999] yes=3,no=4,missing=4
		3:[C_D_U_TITLEMD5_CATEGORY_MICRO_MAX_COEC<0.060999] yes=7,no=8,missing=7
			7:[D_TITLEMD5_COEC<0.045999] yes=15,no=16,missing=16
				15:[KW_REL<0.002999] yes=31,no=32,missing=32
					31:[DOC_AGE<3] yes=63,no=64,missing=64
						63:leaf=-0.00887266
						64:leaf=-0.0367344
					32:[D_KEYWORD_MAX_EC<21062.2] yes=65,no=66,missing=66
						65:leaf=0.0255985
						66:leaf=-0.00320195
				16:[KW_REL<0.001999] yes=33,no=34,missing=34
					33:[DOC_AGE<2] yes=67,no=68,missing=68
						67:leaf=0.0224897
						68:leaf=-0.000400013
					34:[CAT_REL<0.009999] yes=69,no=70,missing=70
						69:leaf=0.0152536
						70:leaf=0.0396004
			8:[CAT_REL<0.029999] yes=17,no=18,missing=18
				17:[U_KW_LEN<4348] yes=35,no=36,missing=36
					35:[KW_REL<0.002999] yes=71,no=72,missing=72
						71:leaf=0.0138259
						72:leaf=0.0366166
					36:[U_KW_LEN<6575] yes=73,no=74,missing=74
						73:leaf=0.0486002
						74:leaf=0.0801296
				18:[U_KW_LEN<2101] yes=37,no=38,missing=38
					37:[KW_REL<0.004999] yes=75,no=76,missing=76
						75:leaf=0.0378471
						76:leaf=0.061679
					38:[D_TITLEMD5_COEC<0.054999] yes=77,no=78,missing=78
						77:leaf=0.0420501
						78:leaf=0.0656505
		4:[D_TITLEMD5_COEC<0.198999] yes=9,no=10,missing=9
			9:[CAT_REL<0.009999] yes=19,no=20,missing=20
				19:[D_CATEGORY_MICRO_MEAN_COEC<0.118999] yes=39,no=40,missing=40
					39:[D_KEYWORD_MACRO_MEAN_COEC<0.105999] yes=79,no=80,missing=80
						79:leaf=0.0231124
						80:leaf=0.0444645
					40:[U_KEYWORD_MEAN_C<2273.79] yes=81,no=82,missing=82
						81:leaf=0.0338318
						82:leaf=0.0574278
				20:[U_KW_LEN<1080] yes=41,no=42,missing=42
					41:[D_TITLEMD5_COEC<0.125999] yes=83,no=84,missing=83
						83:leaf=0.0482204
						84:leaf=0.0677836
					42:[D_TITLEMD5_COEC<0.119999] yes=85,no=86,missing=85
						85:leaf=0.0691383
						86:leaf=0.0836282
			10:[D_TITLEMD5_COEC<0.276999] yes=21,no=22,missing=22
				21:[D_KEYWORD_MICRO_MEAN_COEC<0.138999] yes=43,no=44,missing=44
					43:[D_TITLEMD5_C<6.926] yes=87,no=88,missing=88
						87:leaf=0.037279
						88:leaf=0.075994
					44:[D_CATEGORY_MICRO_MEAN_COEC<0.177999] yes=89,no=90,missing=89
						89:leaf=0.0875541
						90:leaf=0.106049
				22:[D_TITLEMD5_C<6.926] yes=45,no=46,missing=46
					45:[KW_REL<0.002999] yes=91,no=92,missing=92
						91:leaf=0.0242324
						92:leaf=0.0750084
					46:[D_TITLEMD5_COEC<0.315999] yes=93,no=94,missing=94
						93:leaf=0.101651
						94:leaf=0.111247
	2:[C_D_U_TITLEMD5_CATEGORY_MICRO_MAX_COEC<0.223999] yes=5,no=6,missing=6
		5:[CAT_REL<0.004999] yes=11,no=12,missing=12
			11:[C_D_U_TITLEMD5_CATEGORY_MICRO_MAX_COEC<0.185999] yes=23,no=24,missing=24
				23:[KW_REL<0.002999] yes=47,no=48,missing=48
					47:[D_KEYWORD_MACRO_MEAN_COEC<0.103999] yes=95,no=96,missing=96
						95:leaf=0.0443463
						96:leaf=0.0646544
					48:[U_KW_LEN<2967] yes=97,no=98,missing=98
						97:leaf=0.0734777
						98:leaf=0.0865697
				24:[KW_REL<0.001999] yes=49,no=50,missing=50
					49:[D_TITLEMD5_COEC<0.154999] yes=99,no=100,missing=100
						99:leaf=0.0549308
						100:leaf=0.0766797
					50:[C_D_U_TITLEMD5_CITY_COEC<0.177999] yes=101,no=102,missing=101
						101:leaf=0.0808876
						102:leaf=0.0897921
			12:[KW_REL<0.002999] yes=25,no=26,missing=26
				25:[D_TITLEMD5_COEC<0.125999] yes=51,no=52,missing=52
					51:[D_TITLEMD5_C<37.756] yes=103,no=104,missing=104
						103:leaf=0.0353694
						104:leaf=0.0756905
					52:[U_KW_LEN<2101] yes=105,no=106,missing=106
						105:leaf=0.0838903
						106:leaf=0.0946262
				26:[U_KW_LEN<1924] yes=53,no=54,missing=54
					53:[D_TITLEMD5_COEC<0.161999] yes=107,no=108,missing=107
						107:leaf=0.0849237
						108:leaf=0.0947451
					54:[D_TITLEMD5_COEC<0.129999] yes=109,no=110,missing=110
						109:leaf=0.092338
						110:leaf=0.101083
		6:[D_TITLEMD5_COEC<0.287999] yes=13,no=14,missing=14
			13:[C_D_U_TITLEMD5_CATEGORY_MAX_C<0.125999] yes=27,no=28,missing=28
				27:[D_TITLEMD5_COEC<0.084999] yes=55,no=56,missing=56
					55:[U_KW_LEN<3109] yes=111,no=112,missing=112
						111:leaf=0.00497374
						112:leaf=0.0477326
					56:[KW_REL<0.001999] yes=113,no=114,missing=114
						113:leaf=0.0543005
						114:leaf=0.0854669
				28:[CAT_REL<0.003999] yes=57,no=58,missing=58
					57:[KW_REL<0.001999] yes=115,no=116,missing=116
						115:leaf=0.0867555
						116:leaf=0.0964987
					58:[U_KW_LEN<1521] yes=117,no=118,missing=118
						117:leaf=0.0986066
						118:leaf=0.106871
			14:[U_KEYWORD_MEAN_C<2439.15] yes=29,no=30,missing=30
				29:[C_D_U_TITLEMD5_CATEGORY_MICRO_MAX_COEC<0.350999] yes=59,no=60,missing=60
					59:[CAT_REL<0.001999] yes=119,no=120,missing=120
						119:leaf=0.0936257
						120:leaf=0.103332
					60:[C_D_U_TITLEMD5_CATEGORY_MICRO_MAX_COEC<0.397999] yes=121,no=122,missing=122
						121:leaf=0.103888
						122:leaf=0.110186
				30:[C_D_U_TITLEMD5_CATEGORY_MICRO_MAX_COEC<0.350999] yes=61,no=62,missing=62
					61:[CAT_REL<0.001999] yes=123,no=124,missing=124
						123:leaf=0.104304
						124:leaf=0.111472
					62:[DOC_AGE<24] yes=125,no=126,missing=126
						125:leaf=0.115484
						126:leaf=0.108192
booster[9]:
0:[C_D_U_TITLEMD5_CATEGORY_MICRO_MAX_COEC<0.143999] yes=1,no=2,missing=1
	1:[D_TITLEMD5_COEC<0.086999] yes=3,no=4,missing=4
		3:[C_D_U_TITLEMD5_CATEGORY_MICRO_MAX_COEC<0.059999] yes=7,no=8,missing=7
			7:[D_TITLEMD5_COEC<0.029999] yes=15,no=16,missing=16
				15:[DOC_AGE<0.999999] yes=31,no=32,missing=32
					31:[CAT_REL<0.024999] yes=63,no=64,missing=64
						63:leaf=-0.0160437
						64:leaf=0.0229059
					32:[CAT_REL<0.046999] yes=65,no=66,missing=66
						65:leaf=-0.0443028
						66:leaf=-0.0138074
				16:[CAT_REL<0.001999] yes=33,no=34,missing=34
					33:[U_KEYWORD_MEAN_EC<18004.5] yes=67,no=68,missing=68
						67:leaf=-0.0180907
						68:leaf=0.00471321
					34:[U_KW_LEN<2523] yes=69,no=70,missing=70
						69:leaf=0.0138034
						70:leaf=0.0362666
			8:[KW_REL<0.002999] yes=17,no=18,missing=18
				17:[CAT_REL<0.001999] yes=35,no=36,missing=36
					35:[C_D_U_CATEGORY_CATEGORY_MICRO_MAX_COEC<0.268999] yes=71,no=72,missing=72
						71:leaf=0.00726964
						72:leaf=0.0542549
					36:[U_KEYWORD_MACRO_MAX_COEC<0.001999] yes=73,no=74,missing=74
						73:leaf=0.0494175
						74:leaf=0.0258975
				18:[C_D_U_TITLEMD5_CATEGORY_MICRO_MAX_COEC<0.098999] yes=37,no=38,missing=38
					37:[U_KW_LEN<3325] yes=75,no=76,missing=76
						75:leaf=0.0368456
						76:leaf=0.0555466
					38:[U_KEYWORD_MAX_C<308.643] yes=77,no=78,missing=78
						77:leaf=0.0730798
						78:leaf=0.0559621
		4:[D_TITLEMD5_COEC<0.197999] yes=9,no=10,missing=9
			9:[CAT_REL<0.015999] yes=19,no=20,missing=20
				19:[D_TITLEMD5_COEC<0.136999] yes=39,no=40,missing=39
					39:[U_KW_LEN<3468] yes=79,no=80,missing=80
						79:leaf=0.0285957
						80:leaf=0.0596665
					40:[U_KEYWORD_MEAN_C<2357.14] yes=81,no=82,missing=82
						81:leaf=0.036997
						82:leaf=0.0583324
				20:[U_KW_LEN<780] yes=41,no=42,missing=42
					41:[D_TITLEMD5_COEC<0.123999] yes=83,no=84,missing=83
						83:leaf=0.038593
						84:leaf=0.0594214
					42:[D_TITLEMD5_COEC<0.114999] yes=85,no=86,missing=85
						85:leaf=0.0621295
						86:leaf=0.0770652
			10:[D_TITLEMD5_COEC<0.263999] yes=21,no=22,missing=22
				21:[D_KEYWORD_MICRO_MEAN_COEC<0.150999] yes=43,no=44,missing=44
					43:[D_CATEGORY_MACRO_MEAN_COEC<0.115999] yes=87,no=88,missing=88
						87:leaf=0.0579044
						88:leaf=0.0773247
					44:[DOC_AGE<24] yes=89,no=90,missing=90
						89:leaf=0.086754
						90:leaf=0.0743801
				22:[D_KEYWORD_MICRO_MAX_COEC<0.281999] yes=45,no=46,missing=46
					45:[D_TITLEMD5_C<6.965] yes=91,no=92,missing=92
						91:leaf=0.050256
						92:leaf=0.0905988
					46:[D_KEYWORD_MICRO_MEAN_COEC<0.123999] yes=93,no=94,missing=94
						93:leaf=0.0511393
						94:leaf=0.104135
	2:[C_D_U_TITLEMD5_CATEGORY_MICRO_MAX_COEC<0.226999] yes=5,no=6,missing=6
		5:[CAT_REL<0.006999] yes=11,no=12,missing=12
			11:[D_TITLEMD5_COEC<0.173999] yes=23,no=24,missing=24
				23:[U_KW_LEN<3025] yes=47,no=48,missing=48
					47:[KW_REL<0.003999] yes=95,no=96,missing=96
						95:leaf=0.0520654
						96:leaf=0.0736969
					48:[D_TITLEMD5_C<56.518] yes=97,no=98,missing=98
						97:leaf=0.0289691
						98:leaf=0.0749423
				24:[U_KEYWORD_MEAN_C<2429.07] yes=49,no=50,missing=50
					49:[U_KEYWORD_MICRO_MAX_COEC<0.146999] yes=99,no=100,missing=100
						99:leaf=0.0598118
						100:leaf=0.0746694
					50:[U_KEYWORD_MAX_EC<2541.89] yes=101,no=102,missing=102
						101:leaf=0.0878388
						102:leaf=0.0758448
			12:[D_TITLEMD5_COEC<0.159999] yes=25,no=26,missing=26
				25:[U_KW_LEN<1717] yes=51,no=52,missing=52
					51:[KW_REL<0.002999] yes=103,no=104,missing=104
						103:leaf=0.0662609
						104:leaf=0.0791648
					52:[C_D_U_TITLEMD5_CATEGORY_MAX_C<0.085999] yes=105,no=106,missing=106
						105:leaf=0.0548349
						106:leaf=0.0861515
				26:[U_KW_LEN<869] yes=53,no=54,missing=54
					53:[U_KW_LEN<299] yes=107,no=108,missing=108
						107:leaf=0.0746251
						108:leaf=0.0841823
					54:[U_KW_LEN<2592] yes=109,no=110,missing=110
						109:leaf=0.0907301
						110:leaf=0.0990643
		6:[C_D_U_TITLEMD5_CATEGORY_MICRO_MAX_COEC<0.314999] yes=13,no=14,missing=14
			13:[CAT_REL<0.001999] yes=27,no=28,missing=28
				27:[D_TITLEMD5_C<56.518] yes=55,no=56,missing=56
					55:[C_D_U_CATEGORY_CATEGORY_MICRO_MEAN_COEC<0.123999] yes=111,no=112,missing=112
						111:leaf=0.00773621
						112:leaf=0.0557743
					56:[D_CATEGORY_MACRO_MAX_COEC<0.175999] yes=113,no=114,missing=114
						113:leaf=0.0848835
						114:leaf=0.0953629
				28:[D_TITLEMD5_C<35.697] yes=57,no=58,missing=58
					57:[D_TITLEMD5_COEC<0.102999] yes=115,no=116,missing=116
						115:leaf=0.0441541
						116:leaf=0.0806344
					58:[U_KW_LEN<578] yes=117,no=118,missing=118
						117:leaf=0.0894108
						118:leaf=0.0993186
			14:[C_D_U_TITLEMD5_CATEGORY_MAX_C<0.085999] yes=29,no=30,missing=30
				29:[D_TITLEMD5_COEC<0.169999] yes=59,no=60,missing=59
					59:[CAT_REL<0.001999] yes=119,no=120,missing=120
						119:leaf=0.0194551
						120:leaf=0.0596619
					60:[D_KEYWORD_MACRO_MEAN_COEC<0.098999] yes=121,no=122,missing=122
						121:leaf=0.0705509
						122:leaf=0.095275
				30:[CAT_REL<0.001999] yes=61,no=62,missing=62
					61:[U_KEYWORD_MEAN_C<2357.14] yes=123,no=124,missing=124
						123:leaf=0.095622
						124:leaf=0.104045
					62:[U_KW_LEN<1196] yes=125,no=126,missing=126
						125:leaf=0.104767
						126:leaf=0.110965
booster[10]:
0:[C_D_U_TITLEMD5_CATEGORY_MICRO_MAX_COEC<0.148999] yes=1,no=2,missing=1
	1:[C_D_U_TITLEMD5_CATEGORY_MICRO_MAX_COEC<0.080999] yes=3,no=4,missing=4
		3:[D_TITLEMD5_COEC<0.044999] yes=7,no=8,missing=7
			7:[KW_REL<0.003999] yes=15,no=16,missing=16
				15:[U_KW_LEN<4353] yes=31,no=32,missing=32
					31:[D_TITLEMD5_COEC<0.029999] yes=63,no=64,missing=64
						63:leaf=-0.0363994
						64:leaf=-0.00948123
					32:[U_KW_LEN<6874] yes=65,no=66,missing=66
						65:leaf=0.00709492
						66:leaf=0.0607799
				16:[D_KEYWORD_MEAN_C<7101.42] yes=33,no=34,missing=34
					33:[U_KW_LEN<857] yes=67,no=68,missing=68
						67:leaf=-0.00307008
						68:leaf=0.0343345
					34:[D_TITLEMD5_COEC<0.029999] yes=69,no=70,missing=70
						69:leaf=-0.0131639
						70:leaf=0.0159839
			8:[CAT_REL<0.001999] yes=17,no=18,missing=18
				17:[DOC_AGE<2] yes=35,no=36,missing=36
					35:[KW_REL<0.002999] yes=71,no=72,missing=72
						71:leaf=0.0191764
						72:leaf=0.0445741
					36:[C_D_U_CATEGORY_CATEGORY_MICRO_MAX_COEC<0.186999] yes=73,no=74,missing=74
						73:leaf=-0.00169414
						74:leaf=0.0409289
				18:[DOC_AGE<2] yes=37,no=38,missing=38
					37:[D_TITLEMD5_COEC<0.104999] yes=75,no=76,missing=76
						75:leaf=0.0473305
						76:leaf=0.0692377
					38:[KW_REL<0.001999] yes=77,no=78,missing=78
						77:leaf=0.0139402
						78:leaf=0.035431
		4:[D_TITLEMD5_COEC<0.200999] yes=9,no=10,missing=9
			9:[CAT_REL<0.001999] yes=19,no=20,missing=20
				19:[D_TITLEMD5_COEC<0.122999] yes=39,no=40,missing=39
					39:[KW_REL<0.001999] yes=79,no=80,missing=80
						79:leaf=0.014578
						80:leaf=0.038896
					40:[D_CATEGORY_MICRO_MEAN_COEC<0.126999] yes=81,no=82,missing=82
						81:leaf=0.0360742
						82:leaf=0.0523997
				20:[D_TITLEMD5_COEC<0.107999] yes=41,no=42,missing=41
					41:[U_KW_LEN<3467] yes=83,no=84,missing=84
						83:leaf=0.0449879
						84:leaf=0.0642808
					42:[U_KW_LEN<2166] yes=85,no=86,missing=86
						85:leaf=0.059946
						86:leaf=0.0753889
			10:[D_TITLEMD5_COEC<0.284999] yes=21,no=22,missing=22
				21:[C_D_U_TITLEMD5_CITY_COEC<0.224999] yes=43,no=44,missing=43
					43:[D_CATEGORY_MACRO_MEAN_COEC<0.112999] yes=87,no=88,missing=88
						87:leaf=0.0560211
						88:leaf=0.0738387
					44:[D_CATEGORY_MACRO_MAX_COEC<0.173999] yes=89,no=90,missing=89
						89:leaf=0.0814137
						90:leaf=0.0982546
				22:[D_TITLEMD5_C<6] yes=45,no=46,missing=46
					45:[KW_REL<0.001999] yes=91,no=92,missing=92
						91:leaf=-0.00523227
						92:leaf=0.0562324
					46:[D_TITLEMD5_COEC<0.354999] yes=93,no=94,missing=94
						93:leaf=0.0958944
						94:leaf=0.10448
	2:[C_D_U_TITLEMD5_CATEGORY_MICRO_MAX_COEC<0.240999] yes=5,no=6,missing=6
		5:[CAT_REL<0.001999] yes=11,no=12,missing=12
			11:[D_TITLEMD5_COEC<0.194999] yes=23,no=24,missing=24
				23:[KW_REL<0.001999] yes=47,no=48,missing=48
					47:[D_TITLEMD5_C<138.645] yes=95,no=96,missing=96
						95:leaf=0.010663
						96:leaf=0.0532684
					48:[U_KW_LEN<3313] yes=97,no=98,missing=98
						97:leaf=0.062268
						98:leaf=0.0774943
				24:[U_KEYWORD_MEAN_C<2121.69] yes=49,no=50,missing=50
					49:[U_KEYWORD_MACRO_MEAN_COEC<0.033999] yes=99,no=100,missing=100
						99:leaf=0.0505757
						100:leaf=0.0732001
					50:[TIME_OF_DAY<11] yes=101,no=102,missing=102
						101:leaf=0.0829214
						102:leaf=0.0727878
			12:[C_D_U_TITLEMD5_CATEGORY_MICRO_MAX_COEC<0.187999] yes=25,no=26,missing=26
				25:[KW_REL<0.001999] yes=51,no=52,missing=52
					51:[C_D_U_TITLEMD5_CITY_COEC<0.134999] yes=103,no=104,missing=103
						103:leaf=0.0613388
						104:leaf=0.0736302
					52:[U_KW_LEN<3313] yes=105,no=106,missing=106
						105:leaf=0.0767917
						106:leaf=0.0877871
				26:[KW_REL<0.001999] yes=53,no=54,missing=54
					53:[D_TITLEMD5_C<54.657] yes=107,no=108,missing=108
						107:leaf=0.037683
						108:leaf=0.0791824
					54:[U_KW_LEN<2326] yes=109,no=110,missing=110
						109:leaf=0.0852412
						110:leaf=0.0928892
		6:[D_TITLEMD5_COEC<0.304999] yes=13,no=14,missing=14
			13:[C_D_U_TITLEMD5_CATEGORY_MAX_C<0.151999] yes=27,no=28,missing=28
				27:[D_TITLEMD5_COEC<0.125999] yes=55,no=56,missing=56
					55:[U_KW_LEN<2740] yes=111,no=112,missing=112
						111:leaf=0.014943
						112:leaf=0.0527503
					56:[KW_REL<0.001999] yes=113,no=114,missing=114
						113:leaf=0.0541495
						114:leaf=0.082016
				28:[CAT_REL<0.001999] yes=57,no=58,missing=58
					57:[U_KEYWORD_MEAN_C<2546.89] yes=115,no=116,missing=116
						115:leaf=0.0786222
						116:leaf=0.0884915
					58:[U_KW_LEN<1907] yes=117,no=118,missing=118
						117:leaf=0.0917873
						118:leaf=0.100595
			14:[U_KEYWORD_MEAN_C<2499.35] yes=29,no=30,missing=30
				29:[C_D_U_TITLEMD5_CATEGORY_MICRO_MAX_COEC<0.367999] yes=59,no=60,missing=60
					59:[CAT_REL<0.001999] yes=119,no=120,missing=120
						119:leaf=0.0863051
						120:leaf=0.0957368
					60:[DOC_AGE<24] yes=121,no=122,missing=122
						121:leaf=0.101134
						122:leaf=0.0921626
				30:[C_D_U_TITLEMD5_CATEGORY_MICRO_MAX_COEC<0.367999] yes=61,no=62,missing=62
					61:[CAT_REL<0.001999] yes=123,no=124,missing=124
						123:leaf=0.0969832
						124:leaf=0.103665
					62:[DOC_AGE<24] yes=125,no=126,missing=126
						125:leaf=0.108031
						126:leaf=0.0998168
booster[11]:
0:[C_D_U_TITLEMD5_CATEGORY_MICRO_MAX_COEC<0.150999] yes=1,no=2,missing=1
	1:[D_TITLEMD5_COEC<0.091999] yes=3,no=4,missing=4
		3:[C_D_U_TITLEMD5_CATEGORY_MICRO_MAX_COEC<0.064999] yes=7,no=8,missing=7
			7:[U_KW_LEN<2935] yes=15,no=16,missing=16
				15:[D_TITLEMD5_COEC<0.043999] yes=31,no=32,missing=32
					31:[CAT_REL<0.048999] yes=63,no=64,missing=64
						63:leaf=-0.0290734
						64:leaf=-0.00103965
					32:[KW_REL<0.003999] yes=65,no=66,missing=66
						65:leaf=0.00292074
						66:leaf=0.030411
				16:[U_KW_LEN<5766] yes=33,no=34,missing=34
					33:[CAT_REL<0.041999] yes=67,no=68,missing=68
						67:leaf=0.00971673
						68:leaf=0.0320381
					34:[U_KW_LEN<6601] yes=69,no=70,missing=70
						69:leaf=0.0399276
						70:leaf=0.0647431
			8:[CAT_REL<0.039999] yes=17,no=18,missing=18
				17:[U_KW_LEN<4538] yes=35,no=36,missing=36
					35:[D_TITLEMD5_C<33.771] yes=71,no=72,missing=72
						71:leaf=-0.0142825
						72:leaf=0.0195628
					36:[U_KW_LEN<6601] yes=73,no=74,missing=74
						73:leaf=0.0426784
						74:leaf=0.0698511
				18:[U_KW_LEN<1567] yes=37,no=38,missing=38
					37:[KW_REL<0.004999] yes=75,no=76,missing=76
						75:leaf=0.0263742
						76:leaf=0.0479933
					38:[D_TITLEMD5_COEC<0.060999] yes=77,no=78,missing=78
						77:leaf=0.0342646
						78:leaf=0.0550184
		4:[D_TITLEMD5_COEC<0.206999] yes=9,no=10,missing=9
			9:[CAT_REL<0.017999] yes=19,no=20,missing=20
				19:[D_CATEGORY_MICRO_MEAN_COEC<0.120999] yes=39,no=40,missing=40
					39:[KW_REL<0.001999] yes=79,no=80,missing=80
						79:leaf=0.0163978
						80:leaf=0.038635
					40:[U_KW_LEN<4014] yes=81,no=82,missing=82
						81:leaf=0.0409685
						82:leaf=0.0692087
				20:[U_KW_LEN<1657] yes=41,no=42,missing=41
					41:[D_TITLEMD5_COEC<0.129999] yes=83,no=84,missing=83
						83:leaf=0.0438858
						84:leaf=0.060768
					42:[D_TITLEMD5_COEC<0.125999] yes=85,no=86,missing=85
						85:leaf=0.0611438
						86:leaf=0.0758846
			10:[D_TITLEMD5_COEC<0.269999] yes=21,no=22,missing=22
				21:[D_CATEGORY_MICRO_MEAN_COEC<0.171999] yes=43,no=44,missing=43
					43:[C_D_U_TITLEMD5_CITY_COEC<0.219999] yes=87,no=88,missing=87
						87:leaf=0.0651837
						88:leaf=0.0751206
					44:[DOC_AGE<24] yes=89,no=90,missing=90
						89:leaf=0.0956609
						90:leaf=0.0820671
				22:[D_TITLEMD5_C<6.985] yes=45,no=46,missing=46
					45:[CAT_REL<0.001999] yes=91,no=92,missing=92
						91:leaf=-0.00414249
						92:leaf=0.0584716
					46:[D_TITLEMD5_COEC<0.332999] yes=93,no=94,missing=94
						93:leaf=0.0880591
						94:leaf=0.0989525
	2:[C_D_U_TITLEMD5_CATEGORY_MICRO_MAX_COEC<0.244999] yes=5,no=6,missing=6
		5:[CAT_REL<0.008999] yes=11,no=12,missing=12
			11:[C_D_U_TITLEMD5_CATEGORY_MICRO_MAX_COEC<0.189999] yes=23,no=24,missing=24
				23:[U_KEYWORD_MEAN_C<2116.73] yes=47,no=48,missing=48
					47:[U_KEYWORD_MACRO_MEAN_COEC<0.034999] yes=95,no=96,missing=96
						95:leaf=0.0323292
						96:leaf=0.0532835
					48:[U_KEYWORD_MACRO_MAX_COEC<0.001999] yes=97,no=98,missing=98
						97:leaf=0.0699488
						98:leaf=0.0549466
				24:[KW_REL<0.001999] yes=49,no=50,missing=50
					49:[D_KEYWORD_MACRO_MEAN_COEC<0.104999] yes=99,no=100,missing=100
						99:leaf=0.0340296
						100:leaf=0.0639605
					50:[U_KEYWORD_MEAN_C<2558.99] yes=101,no=102,missing=102
						101:leaf=0.0673788
						102:leaf=0.0772196
			12:[C_D_U_TITLEMD5_CATEGORY_MICRO_MAX_COEC<0.189999] yes=25,no=26,missing=26
				25:[U_KW_LEN<898] yes=51,no=52,missing=52
					51:[D_TITLEMD5_COEC<0.129999] yes=103,no=104,missing=104
						103:leaf=0.0490978
						104:leaf=0.0660028
					52:[D_TITLEMD5_COEC<0.060999] yes=105,no=106,missing=106
						105:leaf=0.00591357
						106:leaf=0.0757931
				26:[U_KW_LEN<664] yes=53,no=54,missing=54
					53:[D_TITLEMD5_COEC<0.187999] yes=107,no=108,missing=107
						107:leaf=0.0628288
						108:leaf=0.0771673
					54:[D_TITLEMD5_C<52.262] yes=109,no=110,missing=110
						109:leaf=0.0576195
						110:leaf=0.0847973
		6:[D_TITLEMD5_C<52.262] yes=13,no=14,missing=14
			13:[D_TITLEMD5_COEC<0.078999] yes=27,no=28,missing=28
				27:[C_D_U_CATEGORY_CATEGORY_MICRO_MEAN_COEC<0.105999] yes=55,no=56,missing=56
					55:[CAT_REL<0.020999] yes=111,no=112,missing=112
						111:leaf=-0.047245
						112:leaf=0.00532177
					56:[D_TITLEMD5_COEC<0.052999] yes=113,no=114,missing=114
						113:leaf=0.00263405
						114:leaf=0.0410266
				28:[KW_REL<0.002999] yes=57,no=58,missing=58
					57:[C_D_U_CATEGORY_CATEGORY_MICRO_MEAN_COEC<0.111999] yes=115,no=116,missing=116
						115:leaf=0.0143132
						116:leaf=0.057122
					58:[D_TITLEMD5_C<6.985] yes=117,no=118,missing=118
						117:leaf=0.06155
						118:leaf=0.0844386
			14:[C_D_U_TITLEMD5_CATEGORY_MICRO_MAX_COEC<0.325999] yes=29,no=30,missing=30
				29:[CAT_REL<0.001999] yes=59,no=60,missing=60
					59:[U_KEYWORD_MEAN_C<2356.83] yes=119,no=120,missing=120
						119:leaf=0.0735948
						120:leaf=0.0840302
					60:[U_KW_LEN<980] yes=121,no=122,missing=122
						121:leaf=0.0850881
						122:leaf=0.093675
				30:[CAT_REL<0.001999] yes=61,no=62,missing=62
					61:[D_CATEGORY_MACRO_MAX_COEC<0.146999] yes=123,no=124,missing=124
						123:leaf=0.0872877
						124:leaf=0.0966606
					62:[DOC_AGE<24] yes=125,no=126,missing=126
						125:leaf=0.102453
						126:leaf=0.0929778
booster[12]:
0:[C_D_U_TITLEMD5_CATEGORY_MICRO_MAX_COEC<0.146999] yes=1,no=2,missing=1
	1:[C_D_U_TITLEMD5_CATEGORY_MICRO_MAX_COEC<0.087999] yes=3,no=4,missing=4
		3:[D_TITLEMD5_COEC<0.051999] yes=7,no=8,missing=7
			7:[KW_REL<0.003999] yes=15,no=16,missing=16
				15:[D_TITLEMD5_COEC<0.029999] yes=31,no=32,missing=32
					31:[DOC_AGE<2] yes=63,no=64,missing=64
						63:leaf=-0.00999876
						64:leaf=-0.0385288
					32:[U_KEYWORD_MACRO_MAX_COEC<0.001999] yes=65,no=66,missing=66
						65:leaf=0.011803
						66:leaf=-0.010143
				16:[D_KEYWORD_MAX_EC<20641.1] yes=33,no=34,missing=34
					33:[KW_REL<0.005999] yes=67,no=68,missing=68
						67:leaf=0.027744
						68:leaf=0.0548996
					34:[D_TITLEMD5_COEC<0.029999] yes=69,no=70,missing=70
						69:leaf=-0.00973238
						70:leaf=0.0178124
			8:[CAT_REL<0.001999] yes=17,no=18,missing=18
				17:[DOC_AGE<2] yes=35,no=36,missing=36
					35:[U_KEYWORD_MACRO_MAX_COEC<0.001999] yes=71,no=72,missing=72
						71:leaf=0.0415462
						72:leaf=0.0175435
					36:[C_D_U_CATEGORY_CATEGORY_MICRO_MAX_COEC<0.327999] yes=73,no=74,missing=74
						73:leaf=-0.000622592
						74:leaf=0.0417509
				18:[U_KW_LEN<3389] yes=37,no=38,missing=38
					37:[KW_REL<0.003999] yes=75,no=76,missing=76
						75:leaf=0.0211955
						76:leaf=0.0431707
					38:[U_KW_LEN<5851] yes=77,no=78,missing=78
						77:leaf=0.0447899
						78:leaf=0.070132
		4:[D_TITLEMD5_COEC<0.185999] yes=9,no=10,missing=9
			9:[KW_REL<0.001999] yes=19,no=20,missing=20
				19:[D_TITLEMD5_COEC<0.059999] yes=39,no=40,missing=39
					39:[D_TITLEMD5_COEC<0.042999] yes=79,no=80,missing=80
						79:leaf=-0.0375241
						80:leaf=-0.00855266
					40:[C_D_U_TITLEMD5_CITY_COEC<0.129999] yes=81,no=82,missing=81
						81:leaf=0.0245412
						82:leaf=0.0416461
				20:[CAT_REL<0.023999] yes=41,no=42,missing=42
					41:[U_KW_LEN<3986] yes=83,no=84,missing=84
						83:leaf=0.0384408
						84:leaf=0.0616243
					42:[D_TITLEMD5_COEC<0.099999] yes=85,no=86,missing=85
						85:leaf=0.0493905
						86:leaf=0.0637833
			10:[D_TITLEMD5_COEC<0.268999] yes=21,no=22,missing=22
				21:[D_TITLEMD5_COEC<0.221999] yes=43,no=44,missing=44
					43:[D_CATEGORY_MACRO_MEAN_COEC<0.105999] yes=87,no=88,missing=88
						87:leaf=0.0463633
						88:leaf=0.0622702
					44:[D_TITLEMD5_C<5.985] yes=89,no=90,missing=90
						89:leaf=0.00974256
						90:leaf=0.0715828
				22:[D_TITLEMD5_C<5.985] yes=45,no=46,missing=46
					45:[KW_REL<0.001999] yes=91,no=92,missing=92
						91:leaf=-0.00840708
						92:leaf=0.0488976
					46:[D_TITLEMD5_COEC<0.328999] yes=93,no=94,missing=94
						93:leaf=0.0830054
						94:leaf=0.0951456
	2:[C_D_U_TITLEMD5_CATEGORY_MICRO_MAX_COEC<0.237999] yes=5,no=6,missing=6
		5:[CAT_REL<0.001999] yes=11,no=12,missing=12
			11:[C_D_U_TITLEMD5_CITY_COEC<0.176999] yes=23,no=24,missing=23
				23:[D_CATEGORY_MICRO_MEAN_COEC<0.172999] yes=47,no=48,missing=48
					47:[KW_REL<0.001999] yes=95,no=96,missing=96
						95:leaf=0.0374843
						96:leaf=0.053313
					48:[U_KW_LEN<1988] yes=97,no=98,missing=98
						97:leaf=0.0637626
						98:leaf=0.0796993
				24:[U_KEYWORD_MEAN_C<2575.57] yes=49,no=50,missing=50
					49:[TIME_OF_DAY<10] yes=99,no=100,missing=100
						99:leaf=0.062074
						100:leaf=0.0472998
					50:[U_KEYWORD_MAX_EC<2651.35] yes=101,no=102,missing=102
						101:leaf=0.0759675
						102:leaf=0.0648967
			12:[KW_REL<0.001999] yes=25,no=26,missing=26
				25:[D_TITLEMD5_COEC<0.153999] yes=51,no=52,missing=52
					51:[D_TITLEMD5_C<32.795] yes=103,no=104,missing=104
						103:leaf=0.0106439
						104:leaf=0.0561819
					52:[D_KEYWORD_MEAN_EC<34033.1] yes=105,no=106,missing=106
						105:leaf=0.0725783
						106:leaf=0.0597062
				26:[D_TITLEMD5_COEC<0.162999] yes=53,no=54,missing=53
					53:[U_KW_LEN<2930] yes=107,no=108,missing=108
						107:leaf=0.0663278
						108:leaf=0.0779756
					54:[U_KW_LEN<2176] yes=109,no=110,missing=110
						109:leaf=0.0762552
						110:leaf=0.0862396
		6:[C_D_U_TITLEMD5_CATEGORY_MICRO_MAX_COEC<0.306999] yes=13,no=14,missing=14
			13:[KW_REL<0.001999] yes=27,no=28,missing=28
				27:[D_TITLEMD5_C<98.89] yes=55,no=56,missing=56
					55:[C_D_U_CATEGORY_CATEGORY_MICRO_MEAN_COEC<0.108999] yes=111,no=112,missing=112
						111:leaf=-0.00251176
						112:leaf=0.0433732
					56:[D_KEYWORD_MEAN_EC<29505.7] yes=113,no=114,missing=114
						113:leaf=0.078778
						114:leaf=0.0662292
				28:[CAT_REL<0.006999] yes=57,no=58,missing=58
					57:[D_CATEGORY_MEAN_C<465804] yes=115,no=116,missing=115
						115:leaf=0.081921
						116:leaf=0.0730658
					58:[D_TITLEMD5_C<17.99] yes=117,no=118,missing=118
						117:leaf=0.0544213
						118:leaf=0.0875255
			14:[D_TITLEMD5_C<69.908] yes=29,no=30,missing=30
				29:[D_TITLEMD5_COEC<0.158999] yes=59,no=60,missing=60
					59:[CAT_REL<0.003999] yes=119,no=120,missing=120
						119:leaf=0.00529808
						120:leaf=0.0482876
					60:[CAT_REL<0.001999] yes=121,no=122,missing=122
						121:leaf=0.0501075
						122:leaf=0.0801347
				30:[C_D_U_TITLEMD5_CATEGORY_MICRO_MAX_COEC<0.390999] yes=61,no=62,missing=62
					61:[CAT_REL<0.001999] yes=123,no=124,missing=124
						123:leaf=0.0855419
						124:leaf=0.0937488
					62:[KW_REL<0.001999] yes=125,no=126,missing=126
						125:leaf=0.0926245
						126:leaf=0.100684
booster[13]:
0:[C_D_U_TITLEMD5_CATEGORY_MICRO_MAX_COEC<0.157999] yes=1,no=2,missing=1
	1:[D_TITLEMD5_COEC<0.104999] yes=3,no=4,missing=3
		3:[C_D_U_TITLEMD5_CATEGORY_MICRO_MAX_COEC<0.068999] yes=7,no=8,missing=7
			7:[U_KW_LEN<4581] yes=15,no=16,missing=16
				15:[CAT_REL<0.041999] yes=31,no=32,missing=32
					31:[D_TITLEMD5_COEC<0.029999] yes=63,no=64,missing=64
						63:leaf=-0.0326302
						64:leaf=0.000397626
					32:[IMAGE_COUNT<0.999999] yes=65,no=66,missing=66
						65:leaf=-0.0169929
						66:leaf=0.0187837
				16:[U_KW_LEN<6746] yes=33,no=34,missing=34
					33:[D_TITLEMD5_COEC<0.058999] yes=67,no=68,missing=67
						67:leaf=0.0194212
						68:leaf=0.0408709
					34:[U_CAT_LEN<42] yes=69,no=70,missing=69
						69:leaf=0.0515898
						70:leaf=0.115281
			8:[CAT_REL<0.029999] yes=17,no=18,missing=18
				17:[U_KW_LEN<4972] yes=35,no=36,missing=36
					35:[KW_REL<0.003999] yes=71,no=72,missing=72
						71:leaf=0.0119706
						72:leaf=0.0358952
					36:[U_KW_LEN<6746] yes=73,no=74,missing=74
						73:leaf=0.0424304
						74:leaf=0.0689119
				18:[U_KEYWORD_MAX_C<348.962] yes=37,no=38,missing=38
					37:[U_KW_LEN<4581] yes=75,no=76,missing=76
						75:leaf=0.0453649
						76:leaf=0.0644352
					38:[KW_REL<0.004999] yes=77,no=78,missing=78
						77:leaf=0.0277961
						78:leaf=0.0484001
		4:[D_TITLEMD5_COEC<0.220999] yes=9,no=10,missing=10
			9:[CAT_REL<0.006999] yes=19,no=20,missing=20
				19:[D_TITLEMD5_COEC<0.155999] yes=39,no=40,missing=40
					39:[KW_REL<0.002999] yes=79,no=80,missing=80
						79:leaf=0.0230414
						80:leaf=0.0454852
					40:[U_KEYWORD_MEAN_C<2537.74] yes=81,no=82,missing=82
						81:leaf=0.0298778
						82:leaf=0.0514539
				20:[U_KW_LEN<2741] yes=41,no=42,missing=42
					41:[KW_REL<0.002999] yes=83,no=84,missing=84
						83:leaf=0.0425171
						84:leaf=0.0578619
					42:[U_KW_LEN<4581] yes=85,no=86,missing=86
						85:leaf=0.0627449
						86:leaf=0.0782753
			10:[D_KEYWORD_MICRO_MAX_COEC<0.285999] yes=21,no=22,missing=22
				21:[D_TITLEMD5_C<6] yes=43,no=44,missing=44
					43:[KW_REL<0.001999] yes=87,no=88,missing=88
						87:leaf=-0.0294671
						88:leaf=0.0426644
					44:[DOC_AGE<24] yes=89,no=90,missing=90
						89:leaf=0.0710452
						90:leaf=0.0575423
				22:[D_TITLEMD5_COEC<0.278999] yes=45,no=46,missing=46
					45:[DOC_AGE<7] yes=91,no=92,missing=92
						91:leaf=0.0803198
						92:leaf=0.0620265
					46:[D_CATEGORY_MICRO_MAX_COEC<0.131999] yes=93,no=94,missing=94
						93:leaf=0.0357858
						94:leaf=0.0891619
	2:[C_D_U_TITLEMD5_CATEGORY_MICRO_MAX_COEC<0.254999] yes=5,no=6,missing=6
		5:[CAT_REL<0.009999] yes=11,no=12,missing=12
			11:[D_TITLEMD5_COEC<0.194999] yes=23,no=24,missing=24
				23:[U_KW_LEN<2860] yes=47,no=48,missing=48
					47:[C_D_U_TITLEMD5_CATEGORY_MAX_C<0.220999] yes=95,no=96,missing=96
						95:leaf=0.00349821
						96:leaf=0.0464145
					48:[D_TITLEMD5_C<31.669] yes=97,no=98,missing=98
						97:leaf=-0.00161936
						98:leaf=0.0621459
				24:[U_KEYWORD_MEAN_C<2537.74] yes=49,no=50,missing=50
					49:[TIME_OF_DAY<12] yes=99,no=100,missing=100
						99:leaf=0.0603529
						100:leaf=0.0438847
					50:[U_KEYWORD_MAX_EC<2723.71] yes=101,no=102,missing=102
						101:leaf=0.0750652
						102:leaf=0.0640149
			12:[U_KW_LEN<776] yes=25,no=26,missing=26
				25:[D_TITLEMD5_COEC<0.188999] yes=51,no=52,missing=51
					51:[U_KW_LEN<310] yes=103,no=104,missing=104
						103:leaf=0.0412324
						104:leaf=0.0575919
					52:[WORD_COUNT<1403] yes=105,no=106,missing=106
						105:leaf=0.0644617
						106:leaf=0.0742828
				26:[D_TITLEMD5_COEC<0.163999] yes=53,no=54,missing=53
					53:[C_D_U_TITLEMD5_CATEGORY_MAX_C<0.103999] yes=107,no=108,missing=108
						107:leaf=0.035698
						108:leaf=0.0694346
					54:[U_KW_LEN<2489] yes=109,no=110,missing=110
						109:leaf=0.0756745
						110:leaf=0.0846415
		6:[C_D_U_TITLEMD5_CATEGORY_MAX_C<0.137999] yes=13,no=14,missing=14
			13:[D_TITLEMD5_COEC<0.167999] yes=27,no=28,missing=27
				27:[U_KW_LEN<2860] yes=55,no=56,missing=56
					55:[CAT_REL<0.009999] yes=111,no=112,missing=112
						111:leaf=-0.0106383
						112:leaf=0.0292367
					56:[D_TITLEMD5_COEC<0.064999] yes=113,no=114,missing=114
						113:leaf=0.013655
						114:leaf=0.0547639
				28:[C_D_U_CATEGORY_CATEGORY_MICRO_MEAN_COEC<0.114999] yes=57,no=58,missing=58
					57:[KW_REL<0.000999] yes=115,no=116,missing=116
						115:leaf=-0.0124688
						116:leaf=0.0581458
					58:[D_TITLEMD5_C<6] yes=117,no=118,missing=118
						117:leaf=0.0510777
						118:leaf=0.0819619
			14:[C_D_U_TITLEMD5_CATEGORY_MICRO_MAX_COEC<0.338999] yes=29,no=30,missing=30
				29:[CAT_REL<0.001999] yes=59,no=60,missing=60
					59:[U_KEYWORD_MEAN_C<2537.74] yes=119,no=120,missing=120
						119:leaf=0.0681026
						120:leaf=0.0782335
					60:[U_KW_LEN<1099] yes=121,no=122,missing=122
						121:leaf=0.0787353
						122:leaf=0.0880146
				30:[KW_REL<0.001999] yes=61,no=62,missing=62
					61:[D_KEYWORD_MEAN_EC<45360.7] yes=123,no=124,missing=124
						123:leaf=0.0886522
						124:leaf=0.0758481
					62:[DOC_AGE<24] yes=125,no=126,missing=126
						125:leaf=0.0958427
						126:leaf=0.0854382
booster[14]:
0:[C_D_U_TITLEMD5_CATEGORY_MICRO_MAX_COEC<0.152999] yes=1,no=2,missing=1
	1:[C_D_U_TITLEMD5_CATEGORY_MICRO_MAX_COEC<0.096999] yes=3,no=4,missing=4
		3:[D_TITLEMD5_COEC<0.058999] yes=7,no=8,missing=7
			7:[C_D_U_TITLEMD5_CATEGORY_MAX_C<0.076999] yes=15,no=16,missing=16
				15:[DOC_AGE<2] yes=31,no=32,missing=32
					31:[C_D_U_CATEGORY_CATEGORY_MICRO_MEAN_COEC<0.103999] yes=63,no=64,missing=64
						63:leaf=-0.0109851
						64:leaf=0.0164465
					32:[U_KW_LEN<4798] yes=65,no=66,missing=66
						65:leaf=-0.0248004
						66:leaf=0.0106892
				16:[U_KW_LEN<1431] yes=33,no=34,missing=34
					33:[C_D_U_TITLEMD5_CATEGORY_MICRO_MAX_COEC<0.026999] yes=67,no=68,missing=68
						67:leaf=-0.0264132
						68:leaf=0.00111098
					34:[KW_REL<0.004999] yes=69,no=70,missing=70
						69:leaf=0.0154094
						70:leaf=0.0379311
			8:[KW_REL<0.002999] yes=17,no=18,missing=18
				17:[D_KEYWORD_MEAN_EC<50258.1] yes=35,no=36,missing=36
					35:[KW_REL<0.000999] yes=71,no=72,missing=72
						71:leaf=-0.00279142
						72:leaf=0.02249
					36:[U_KEYWORD_MICRO_MAX_COEC<0.151999] yes=73,no=74,missing=74
						73:leaf=-0.019688
						74:leaf=0.0231929
				18:[D_KEYWORD_MEAN_EC<59410.3] yes=37,no=38,missing=38
					37:[U_KW_LEN<612] yes=75,no=76,missing=76
						75:leaf=0.0202971
						76:leaf=0.0463466
					38:[KW_REL<0.003999] yes=77,no=78,missing=78
						77:leaf=0.00500649
						78:leaf=0.0359463
		4:[D_TITLEMD5_COEC<0.218999] yes=9,no=10,missing=9
			9:[KW_REL<0.001999] yes=19,no=20,missing=20
				19:[D_KEYWORD_MACRO_MEAN_COEC<0.114999] yes=39,no=40,missing=40
					39:[KW_REL<0.000999] yes=79,no=80,missing=80
						79:leaf=0.00763284
						80:leaf=0.0302841
					40:[C_D_U_TITLEMD5_CITY_COEC<0.160999] yes=81,no=82,missing=81
						81:leaf=0.0337389
						82:leaf=0.0496215
				20:[CAT_REL<0.034999] yes=41,no=42,missing=41
					41:[U_KW_LEN<3110] yes=83,no=84,missing=84
						83:leaf=0.034322
						84:leaf=0.0521101
					42:[D_TITLEMD5_COEC<0.120999] yes=85,no=86,missing=85
						85:leaf=0.0484529
						86:leaf=0.0618237
			10:[D_TITLEMD5_COEC<0.276999] yes=21,no=22,missing=22
				21:[D_CATEGORY_MACRO_MEAN_COEC<0.170999] yes=43,no=44,missing=43
					43:[DOC_AGE<24] yes=87,no=88,missing=88
						87:leaf=0.0638386
						88:leaf=0.0496573
					44:[DOC_AGE<25] yes=89,no=90,missing=90
						89:leaf=0.0847932
						90:leaf=0.0702372
				22:[D_KEYWORD_MICRO_MEAN_COEC<0.132999] yes=45,no=46,missing=46
					45:[D_TITLEMD5_C<5.682] yes=91,no=92,missing=92
						91:leaf=0.0188828
						92:leaf=0.0565852
					46:[D_TITLEMD5_COEC<0.325999] yes=93,no=94,missing=94
						93:leaf=0.0767954
						94:leaf=0.0881603
	2:[C_D_U_TITLEMD5_CATEGORY_MICRO_MAX_COEC<0.251999] yes=5,no=6,missing=6
		5:[CAT_REL<0.011999] yes=11,no=12,missing=12
			11:[C_D_U_TITLEMD5_CATEGORY_MICRO_MAX_COEC<0.188999] yes=23,no=24,missing=24
				23:[U_KEYWORD_MEAN_C<2268.57] yes=47,no=48,missing=48
					47:[U_KEYWORD_MICRO_MAX_COEC<0.146999] yes=95,no=96,missing=96
						95:leaf=0.0251172
						96:leaf=0.0432018
					48:[U_KEYWORD_MAX_EC<2364.97] yes=97,no=98,missing=98
						97:leaf=0.0585924
						98:leaf=0.0437411
				24:[KW_REL<0.001999] yes=49,no=50,missing=50
					49:[D_CATEGORY_MICRO_MEAN_COEC<0.169999] yes=99,no=100,missing=100
						99:leaf=0.0474513
						100:leaf=0.0663473
					50:[U_KW_LEN<3110] yes=101,no=102,missing=102
						101:leaf=0.0599678
						102:leaf=0.0714149
			12:[C_D_U_TITLEMD5_CATEGORY_MICRO_MAX_COEC<0.192999] yes=25,no=26,missing=26
				25:[U_KW_LEN<1084] yes=51,no=52,missing=52
					51:[D_TITLEMD5_COEC<0.129999] yes=103,no=104,missing=104
						103:leaf=0.0391095
						104:leaf=0.0552848
					52:[D_TITLEMD5_COEC<0.133999] yes=105,no=106,missing=105
						105:leaf=0.0582739
						106:leaf=0.0688809
				26:[U_KW_LEN<1276] yes=53,no=54,missing=54
					53:[C_D_U_TITLEMD5_CITY_COEC<0.174999] yes=107,no=108,missing=107
						107:leaf=0.0586934
						108:leaf=0.0694663
					54:[D_TITLEMD5_C<66.719] yes=109,no=110,missing=110
						109:leaf=0.0498927
						110:leaf=0.075539
		6:[C_D_U_TITLEMD5_CATEGORY_MAX_C<0.178999] yes=13,no=14,missing=14
			13:[D_TITLEMD5_COEC<0.158999] yes=27,no=28,missing=27
				27:[CAT_REL<0.001999] yes=55,no=56,missing=56
					55:[C_D_U_CATEGORY_CATEGORY_MICRO_MEAN_COEC<0.130999] yes=111,no=112,missing=112
						111:leaf=-0.0199748
						112:leaf=0.0291968
					56:[D_TITLEMD5_COEC<0.058999] yes=113,no=114,missing=114
						113:leaf=-0.000764508
						114:leaf=0.0457223
				28:[D_TITLEMD5_COEC<0.231999] yes=57,no=58,missing=58
					57:[CAT_REL<0.001999] yes=115,no=116,missing=116
						115:leaf=0.0388457
						116:leaf=0.0659006
					58:[D_TITLEMD5_C<5.682] yes=117,no=118,missing=118
						117:leaf=0.0447013
						118:leaf=0.0828706
			14:[C_D_U_TITLEMD5_CATEGORY_MICRO_MAX_COEC<0.337999] yes=29,no=30,missing=30
				29:[CAT_REL<0.001999] yes=59,no=60,missing=60
					59:[D_CATEGORY_MACRO_MAX_COEC<0.157999] yes=119,no=120,missing=120
						119:leaf=0.0660665
						120:leaf=0.0760411
					60:[U_KW_LEN<1319] yes=121,no=122,missing=122
						121:leaf=0.0753596
						122:leaf=0.0846592
				30:[KW_REL<0.001999] yes=61,no=62,missing=62
					61:[D_KEYWORD_MEAN_EC<44973] yes=123,no=124,missing=124
						123:leaf=0.0851231
						124:leaf=0.0721715
					62:[DOC_AGE<24] yes=125,no=126,missing=126
						125:leaf=0.0925357
						126:leaf=0.0817918
booster[15]:
0:[D_TITLEMD5_COEC<0.133999] yes=1,no=2,missing=1
	1:[C_D_U_TITLEMD5_CATEGORY_MICRO_MAX_COEC<0.099999] yes=3,no=4,missing=3
		3:[CAT_REL<0.034999] yes=7,no=8,missing=8
			7:[D_CATEGORY_MACRO_MEAN_COEC<0.120999] yes=15,no=16,missing=16
				15:[D_TITLEMD5_COEC<0.041999] yes=31,no=32,missing=31
					31:[D_TITLEMD5_C<47.628] yes=63,no=64,missing=63
						63:leaf=-0.0386107
						64:leaf=-0.010468
					32:[U_KEYWORD_MEAN_EC<17944.4] yes=65,no=66,missing=66
						65:leaf=-0.0129266
						66:leaf=0.00395286
				16:[U_KW_LEN<3150] yes=33,no=34,missing=34
					33:[U_KEYWORD_MEAN_C<2560.95] yes=67,no=68,missing=68
						67:leaf=-0.00720824
						68:leaf=0.0138242
					34:[U_KW_LEN<5704] yes=69,no=70,missing=70
						69:leaf=0.026525
						70:leaf=0.0537368
			8:[D_TITLEMD5_COEC<0.063999] yes=17,no=18,missing=18
				17:[U_KW_LEN<1219] yes=35,no=36,missing=36
					35:[D_TITLEMD5_COEC<0.028999] yes=71,no=72,missing=72
						71:leaf=-0.0268018
						72:leaf=-0.00152245
					36:[D_TITLEMD5_C<64.717] yes=73,no=74,missing=74
						73:leaf=0.00765357
						74:leaf=0.0278704
				18:[U_KW_LEN<611] yes=37,no=38,missing=38
					37:[IMAGE_COUNT<0.999999] yes=75,no=76,missing=76
						75:leaf=-0.0409464
						76:leaf=0.010238
					38:[KW_REL<0.003999] yes=77,no=78,missing=78
						77:leaf=0.0299596
						78:leaf=0.0460168
		4:[CAT_REL<0.026999] yes=9,no=10,missing=10
			9:[U_KW_LEN<4228] yes=19,no=20,missing=20
				19:[KW_REL<0.003999] yes=39,no=40,missing=40
					39:[D_KEYWORD_MAX_EC<21606.7] yes=79,no=80,missing=80
						79:leaf=0.023181
						80:leaf=-0.000384839
					40:[D_KEYWORD_MEAN_EC<80323.7] yes=81,no=82,missing=82
						81:leaf=0.049136
						82:leaf=0.0339059
				20:[D_CATEGORY_MACRO_MEAN_COEC<0.116999] yes=41,no=42,missing=42
					41:[D_TITLEMD5_C<64.717] yes=83,no=84,missing=84
						83:leaf=0.000600498
						84:leaf=0.0372716
					42:[U_KW_LEN<6608] yes=85,no=86,missing=86
						85:leaf=0.053594
						86:leaf=0.0797295
			10:[U_KW_LEN<1310] yes=21,no=22,missing=22
				21:[KW_REL<0.003999] yes=43,no=44,missing=44
					43:[U_KW_LEN<316] yes=87,no=88,missing=88
						87:leaf=0.0100286
						88:leaf=0.0327254
					44:[U_KW_LEN<370] yes=89,no=90,missing=90
						89:leaf=0.0259628
						90:leaf=0.0511878
				22:[KW_REL<0.003999] yes=45,no=46,missing=46
					45:[U_KW_LEN<3879] yes=91,no=92,missing=92
						91:leaf=0.0442593
						92:leaf=0.0620089
					46:[C_D_U_TITLEMD5_CATEGORY_MICRO_MAX_COEC<0.167999] yes=93,no=94,missing=94
						93:leaf=0.058614
						94:leaf=0.0714828
	2:[C_D_U_TITLEMD5_CATEGORY_MICRO_MAX_COEC<0.206999] yes=5,no=6,missing=5
		5:[CAT_REL<0.001999] yes=11,no=12,missing=12
			11:[D_TITLEMD5_COEC<0.232999] yes=23,no=24,missing=24
				23:[U_KEYWORD_MEAN_C<2419.81] yes=47,no=48,missing=48
					47:[U_KEYWORD_MACRO_MEAN_COEC<0.034999] yes=95,no=96,missing=96
						95:leaf=0.0183043
						96:leaf=0.0373608
					48:[C_D_U_TITLEMD5_CITY_COEC<0.166999] yes=97,no=98,missing=97
						97:leaf=0.0366256
						98:leaf=0.0495884
				24:[D_TITLEMD5_COEC<0.317999] yes=49,no=50,missing=50
					49:[U_KEYWORD_MEAN_C<2719.22] yes=99,no=100,missing=100
						99:leaf=0.0459712
						100:leaf=0.0640664
					50:[D_TITLEMD5_C<5] yes=101,no=102,missing=102
						101:leaf=-0.0192211
						102:leaf=0.0845017
			12:[U_KW_LEN<1310] yes=25,no=26,missing=26
				25:[U_KW_LEN<370] yes=51,no=52,missing=52
					51:[C_D_U_TITLEMD5_CITY_COEC<0.166999] yes=103,no=104,missing=103
						103:leaf=0.0326263
						104:leaf=0.0475691
					52:[CAT_REL<0.048999] yes=105,no=106,missing=106
						105:leaf=0.0457445
						106:leaf=0.0586231
				26:[CAT_REL<0.039999] yes=53,no=54,missing=54
					53:[U_KW_LEN<3706] yes=107,no=108,missing=108
						107:leaf=0.054665
						108:leaf=0.0708718
					54:[U_KW_LEN<3348] yes=109,no=110,missing=110
						109:leaf=0.0666982
						110:leaf=0.0775625
		6:[C_D_U_TITLEMD5_CATEGORY_MICRO_MAX_COEC<0.286999] yes=13,no=14,missing=14
			13:[CAT_REL<0.003999] yes=27,no=28,missing=28
				27:[U_KEYWORD_MEAN_C<2249.68] yes=55,no=56,missing=56
					55:[U_KEYWORD_MICRO_MAX_COEC<0.146999] yes=111,no=112,missing=112
						111:leaf=0.0417906
						112:leaf=0.0593039
					56:[U_KEYWORD_MAX_EC<2411.61] yes=113,no=114,missing=114
						113:leaf=0.0712009
						114:leaf=0.0589946
				28:[U_KW_LEN<2191] yes=57,no=58,missing=58
					57:[KW_REL<0.001999] yes=115,no=116,missing=116
						115:leaf=0.0598129
						116:leaf=0.0702876
					58:[D_TITLEMD5_COEC<0.238999] yes=117,no=118,missing=118
						117:leaf=0.0765001
						118:leaf=0.0856256
			14:[CAT_REL<0.001999] yes=29,no=30,missing=30
				29:[D_CATEGORY_MACRO_MAX_COEC<0.147999] yes=59,no=60,missing=60
					59:[D_TITLEMD5_C<181.396] yes=119,no=120,missing=120
						119:leaf=0.0252241
						120:leaf=0.0689672
					60:[C_D_U_TITLEMD5_CATEGORY_MICRO_MAX_COEC<0.356999] yes=121,no=122,missing=122
						121:leaf=0.0743371
						122:leaf=0.0845153
				30:[U_KW_LEN<1031] yes=61,no=62,missing=62
					61:[D_TITLEMD5_COEC<0.275999] yes=123,no=124,missing=124
						123:leaf=0.0690372
						124:leaf=0.0822105
					62:[D_TITLEMD5_C<5] yes=125,no=126,missing=126
						125:leaf=0.0414437
						126:leaf=0.0877054
booster[16]:
0:[C_D_U_TITLEMD5_CATEGORY_MICRO_MAX_COEC<0.163999] yes=1,no=2,missing=1
	1:[D_TITLEMD5_COEC<0.093999] yes=3,no=4,missing=3
		3:[KW_REL<0.001999] yes=7,no=8,missing=8
			7:[D_TITLEMD5_COEC<0.049999] yes=15,no=16,missing=15
				15:[C_D_U_TITLEMD5_CITY_C<0.999999] yes=31,no=32,missing=31
					31:[IMAGE_COUNT<0.999999] yes=63,no=64,missing=64
						63:leaf=-0.057032
						64:leaf=-0.0251991
					32:[D_KEYWORD_MAX_EC<18895.1] yes=65,no=66,missing=66
						65:leaf=-0.00208285
						66:leaf=-0.0285316
				16:[U_KEYWORD_MACRO_MAX_COEC<0.001999] yes=33,no=34,missing=34
					33:[D_KEYWORD_MEAN_EC<34880.2] yes=67,no=68,missing=68
						67:leaf=0.0219745
						68:leaf=-0.0175979
					34:[C_D_U_TITLEMD5_CATEGORY_MAX_C<0.288999] yes=69,no=70,missing=70
						69:leaf=-0.0108445
						70:leaf=0.00506906
			8:[D_TITLEMD5_COEC<0.056999] yes=17,no=18,missing=18
				17:[C_D_U_TITLEMD5_CATEGORY_MAX_C<0.164999] yes=35,no=36,missing=36
					35:[D_KEYWORD_MAX_EC<15743.2] yes=71,no=72,missing=72
						71:leaf=0.0100737
						72:leaf=-0.0107881
					36:[U_KW_LEN<1043] yes=73,no=74,missing=74
						73:leaf=-0.000973562
						74:leaf=0.0241116
				18:[U_KW_LEN<3056] yes=37,no=38,missing=38
					37:[CAT_REL<0.058999] yes=75,no=76,missing=76
						75:leaf=0.010344
						76:leaf=0.0306025
					38:[KW_REL<0.003999] yes=77,no=78,missing=77
						77:leaf=0.0324014
						78:leaf=0.048212
		4:[D_TITLEMD5_COEC<0.221999] yes=9,no=10,missing=10
			9:[KW_REL<0.002999] yes=19,no=20,missing=20
				19:[CAT_REL<0.024999] yes=39,no=40,missing=40
					39:[D_KEYWORD_MACRO_MEAN_COEC<0.116999] yes=79,no=80,missing=80
						79:leaf=0.0148251
						80:leaf=0.0326474
					40:[D_KEYWORD_MEAN_EC<41240.3] yes=81,no=82,missing=82
						81:leaf=0.0418275
						82:leaf=0.0189962
				20:[U_KW_LEN<2896] yes=41,no=42,missing=42
					41:[CAT_REL<0.039999] yes=83,no=84,missing=84
						83:leaf=0.0348741
						84:leaf=0.0491594
					42:[D_KEYWORD_MAX_EC<18209.9] yes=85,no=86,missing=86
						85:leaf=0.0655482
						86:leaf=0.0522732
			10:[D_TITLEMD5_COEC<0.284999] yes=21,no=22,missing=22
				21:[DOC_AGE<24] yes=43,no=44,missing=44
					43:[D_CATEGORY_MACRO_MEAN_COEC<0.130999] yes=87,no=88,missing=88
						87:leaf=0.044747
						88:leaf=0.0620045
					44:[D_TITLEMD5_COEC<0.260999] yes=89,no=90,missing=90
						89:leaf=0.0415949
						90:leaf=0.055162
				22:[D_KEYWORD_MACRO_MEAN_COEC<0.124999] yes=45,no=46,missing=46
					45:[D_TITLEMD5_C<5.75] yes=91,no=92,missing=92
						91:leaf=0.0183824
						92:leaf=0.0538977
					46:[D_TITLEMD5_COEC<0.310999] yes=93,no=94,missing=94
						93:leaf=0.069385
						94:leaf=0.0810722
	2:[C_D_U_TITLEMD5_CATEGORY_MICRO_MAX_COEC<0.255999] yes=5,no=6,missing=6
		5:[KW_REL<0.001999] yes=11,no=12,missing=12
			11:[D_KEYWORD_MEAN_EC<40122.9] yes=23,no=24,missing=24
				23:[D_KEYWORD_MACRO_MEAN_COEC<0.104999] yes=47,no=48,missing=48
					47:[C_D_U_TITLEMD5_CATEGORY_MAX_EC<0.625999] yes=95,no=96,missing=96
						95:leaf=-0.00401704
						96:leaf=0.0362908
					48:[CAT_REL<0.001999] yes=97,no=98,missing=98
						97:leaf=0.0455298
						98:leaf=0.0565947
				24:[D_TITLEMD5_COEC<0.175999] yes=49,no=50,missing=50
					49:[D_KEYWORD_MICRO_MAX_COEC<0.152999] yes=99,no=100,missing=100
						99:leaf=-0.0246154
						100:leaf=0.013368
					50:[U_KEYWORD_MICRO_MAX_COEC<0.147999] yes=101,no=102,missing=102
						101:leaf=0.0318734
						102:leaf=0.0472838
			12:[CAT_REL<0.015999] yes=25,no=26,missing=26
				25:[C_D_U_TITLEMD5_CITY_COEC<0.193999] yes=51,no=52,missing=51
					51:[U_KW_LEN<4187] yes=103,no=104,missing=104
						103:leaf=0.0447341
						104:leaf=0.0637589
					52:[U_KEYWORD_MEAN_C<2726.88] yes=105,no=106,missing=106
						105:leaf=0.0523767
						106:leaf=0.0639065
				26:[U_KW_LEN<2387] yes=53,no=54,missing=54
					53:[D_TITLEMD5_COEC<0.187999] yes=107,no=108,missing=107
						107:leaf=0.0553362
						108:leaf=0.0666146
					54:[D_TITLEMD5_C<44.66] yes=109,no=110,missing=110
						109:leaf=0.0412955
						110:leaf=0.0703531
		6:[C_D_U_TITLEMD5_CATEGORY_MAX_C<0.203999] yes=13,no=14,missing=14
			13:[D_TITLEMD5_COEC<0.185999] yes=27,no=28,missing=27
				27:[KW_REL<0.001999] yes=55,no=56,missing=56
					55:[C_D_U_CATEGORY_CATEGORY_MICRO_MEAN_COEC<0.096999] yes=111,no=112,missing=112
						111:leaf=-0.0357846
						112:leaf=0.0145989
					56:[D_TITLEMD5_COEC<0.056999] yes=113,no=114,missing=114
						113:leaf=-0.00677773
						114:leaf=0.0418587
				28:[D_KEYWORD_MACRO_MEAN_COEC<0.124999] yes=57,no=58,missing=58
					57:[KW_REL<0.001999] yes=115,no=116,missing=116
						115:leaf=0.0236637
						116:leaf=0.0644324
					58:[D_TITLEMD5_COEC<0.285999] yes=117,no=118,missing=118
						117:leaf=0.0686426
						118:leaf=0.0851552
			14:[C_D_U_TITLEMD5_CATEGORY_MICRO_MAX_COEC<0.355999] yes=29,no=30,missing=30
				29:[CAT_REL<0.001999] yes=59,no=60,missing=60
					59:[U_KEYWORD_MEAN_C<2384.12] yes=119,no=120,missing=120
						119:leaf=0.0559641
						120:leaf=0.0676243
					60:[U_KW_LEN<713] yes=121,no=122,missing=122
						121:leaf=0.0657932
						122:leaf=0.077227
				30:[KW_REL<0.001999] yes=61,no=62,missing=62
					61:[D_KEYWORD_MEAN_EC<47458] yes=123,no=124,missing=124
						123:leaf=0.0796575
						124:leaf=0.0654238
					62:[DOC_AGE<24] yes=125,no=126,missing=126
						125:leaf=0.0879434
						126:leaf=0.0758705
booster[17]:
0:[D_TITLEMD5_COEC<0.145999] yes=1,no=2,missing=1
	1:[C_D_U_TITLEMD5_CATEGORY_MICRO_MAX_COEC<0.110999] yes=3,no=4,missing=3
		3:[KW_REL<0.003999] yes=7,no=8,missing=8
			7:[D_TITLEMD5_COEC<0.055999] yes=15,no=16,missing=15
				15:[U_KEYWORD_MACRO_MAX_COEC<0.001999] yes=31,no=32,missing=32
					31:[D_KEYWORD_MEAN_EC<55909.9] yes=63,no=64,missing=64
						63:leaf=0.0088475
						64:leaf=-0.0215195
					32:[IMAGE_COUNT<0.999999] yes=65,no=66,missing=66
						65:leaf=-0.0455405
						66:leaf=-0.0125964
				16:[D_KEYWORD_MAX_EC<23626] yes=33,no=34,missing=34
					33:[KW_REL<0.001999] yes=67,no=68,missing=68
						67:leaf=0.00909148
						68:leaf=0.0270379
					34:[U_KEYWORD_MEAN_EC<18190.1] yes=69,no=70,missing=70
						69:leaf=-0.0221118
						70:leaf=0.0025475
			8:[D_TITLEMD5_COEC<0.067999] yes=17,no=18,missing=18
				17:[D_KEYWORD_MEAN_EC<74809.6] yes=35,no=36,missing=36
					35:[U_KW_LEN<456] yes=71,no=72,missing=72
						71:leaf=-0.013344
						72:leaf=0.027916
					36:[D_TITLEMD5_COEC<0.027999] yes=73,no=74,missing=74
						73:leaf=-0.0168405
						74:leaf=0.00957058
				18:[U_KW_LEN<512] yes=37,no=38,missing=38
					37:[U_KW_LEN<258] yes=75,no=76,missing=76
						75:leaf=-0.000191119
						76:leaf=0.0166034
					38:[D_KEYWORD_MEAN_EC<72296.8] yes=77,no=78,missing=78
						77:leaf=0.0446395
						78:leaf=0.0301928
		4:[CAT_REL<0.032999] yes=9,no=10,missing=10
			9:[U_KW_LEN<3469] yes=19,no=20,missing=20
				19:[KW_REL<0.002999] yes=39,no=40,missing=40
					39:[D_KEYWORD_MAX_EC<23626] yes=79,no=80,missing=80
						79:leaf=0.0181254
						80:leaf=-0.01236
					40:[D_KEYWORD_MAX_EC<19582.9] yes=81,no=82,missing=82
						81:leaf=0.0433519
						82:leaf=0.0272197
				20:[D_CATEGORY_MICRO_MEAN_COEC<0.121999] yes=41,no=42,missing=42
					41:[U_KW_LEN<5890] yes=83,no=84,missing=84
						83:leaf=0.0224096
						84:leaf=0.0528087
					42:[U_KW_LEN<5890] yes=85,no=86,missing=86
						85:leaf=0.0459781
						86:leaf=0.070252
			10:[U_KW_LEN<1087] yes=21,no=22,missing=22
				21:[U_KW_LEN<359] yes=43,no=44,missing=44
					43:[C_D_U_TITLEMD5_CATEGORY_MAX_EC<2.088] yes=87,no=88,missing=88
						87:leaf=-0.0289538
						88:leaf=0.0179944
					44:[KW_REL<0.003999] yes=89,no=90,missing=90
						89:leaf=0.0315013
						90:leaf=0.0470673
				22:[KW_REL<0.003999] yes=45,no=46,missing=46
					45:[D_TITLEMD5_C<26.95] yes=91,no=92,missing=92
						91:leaf=0.0103407
						92:leaf=0.0470708
					46:[C_D_U_TITLEMD5_CATEGORY_MICRO_MAX_COEC<0.183999] yes=93,no=94,missing=94
						93:leaf=0.0547922
						94:leaf=0.0679404
	2:[C_D_U_TITLEMD5_CATEGORY_MICRO_MAX_COEC<0.234999] yes=5,no=6,missing=5
		5:[CAT_REL<0.001999] yes=11,no=12,missing=12
			11:[D_TITLEMD5_COEC<0.226999] yes=23,no=24,missing=24
				23:[U_KEYWORD_MEAN_C<2049.01] yes=47,no=48,missing=48
					47:[U_KEYWORD_MACRO_MEAN_COEC<0.033999] yes=95,no=96,missing=96
						95:leaf=0.00594632
						96:leaf=0.0333448
					48:[U_KEYWORD_MACRO_MAX_COEC<0.001999] yes=97,no=98,missing=98
						97:leaf=0.0534711
						98:leaf=0.0362172
				24:[D_TITLEMD5_COEC<0.284999] yes=49,no=50,missing=50
					49:[U_KEYWORD_MEAN_C<2121.67] yes=99,no=100,missing=100
						99:leaf=0.0372493
						100:leaf=0.0537515
					50:[C_D_U_CATEGORY_CATEGORY_MICRO_MEAN_COEC<0.228999] yes=101,no=102,missing=102
						101:leaf=0.0458547
						102:leaf=0.0743587
			12:[U_KW_LEN<1305] yes=25,no=26,missing=26
				25:[C_D_U_TITLEMD5_CITY_COEC<0.177999] yes=51,no=52,missing=51
					51:[U_KW_LEN<359] yes=103,no=104,missing=104
						103:leaf=0.0309699
						104:leaf=0.0458705
					52:[U_KW_LEN<359] yes=105,no=106,missing=106
						105:leaf=0.045096
						106:leaf=0.0567391
				26:[U_KW_LEN<3469] yes=53,no=54,missing=54
					53:[CAT_REL<0.032999] yes=107,no=108,missing=108
						107:leaf=0.0518575
						108:leaf=0.0629551
					54:[U_KW_LEN<4812] yes=109,no=110,missing=110
						109:leaf=0.0668186
						110:leaf=0.0766981
		6:[C_D_U_TITLEMD5_CATEGORY_MICRO_MAX_COEC<0.310999] yes=13,no=14,missing=14
			13:[CAT_REL<0.006999] yes=27,no=28,missing=28
				27:[U_KEYWORD_MEAN_C<2530.09] yes=55,no=56,missing=56
					55:[TIME_OF_DAY<10] yes=111,no=112,missing=112
						111:leaf=0.0545045
						112:leaf=0.0385455
					56:[U_KEYWORD_MAX_EC<2534.21] yes=113,no=114,missing=114
						113:leaf=0.068843
						114:leaf=0.0561526
				28:[U_KW_LEN<987] yes=57,no=58,missing=58
					57:[C_D_U_TITLEMD5_CITY_COEC<0.225999] yes=115,no=116,missing=115
						115:leaf=0.0553338
						116:leaf=0.0655271
					58:[D_TITLEMD5_COEC<0.242999] yes=117,no=118,missing=118
						117:leaf=0.0684541
						118:leaf=0.0768813
			14:[U_KEYWORD_MEAN_C<2455.87] yes=29,no=30,missing=30
				29:[CAT_REL<0.011999] yes=59,no=60,missing=60
					59:[D_CATEGORY_MACRO_MAX_COEC<0.151999] yes=119,no=120,missing=120
						119:leaf=0.0555903
						120:leaf=0.0683113
					60:[DOC_AGE<25] yes=121,no=122,missing=122
						121:leaf=0.0764588
						122:leaf=0.0621785
				30:[D_TITLEMD5_COEC<0.344999] yes=61,no=62,missing=62
					61:[CAT_REL<0.004999] yes=123,no=124,missing=124
						123:leaf=0.0674716
						124:leaf=0.0779645
					62:[DOC_AGE<26] yes=125,no=126,missing=126
						125:leaf=0.0840222
						126:leaf=0.0712964
booster[18]:
0:[C_D_U_TITLEMD5_CATEGORY_MICRO_MAX_COEC<0.171999] yes=1,no=2,missing=1
	1:[D_TITLEMD5_COEC<0.111999] yes=3,no=4,missing=3
		3:[C_D_U_TITLEMD5_CATEGORY_MICRO_MAX_COEC<0.078999] yes=7,no=8,missing=7
			7:[U_KW_LEN<4038] yes=15,no=16,missing=16
				15:[IMAGE_COUNT<0.999999] yes=31,no=32,missing=32
					31:[C_D_U_TITLEMD5_CATEGORY_MICRO_MAX_COEC<0.026999] yes=63,no=64,missing=63
						63:leaf=-0.0428657
						64:leaf=-0.014381
					32:[DOC_AGE<2] yes=65,no=66,missing=66
						65:leaf=0.0156749
						66:leaf=-0.00137952
				16:[U_KW_LEN<6656] yes=33,no=34,missing=33
					33:[CAT_REL<0.026999] yes=67,no=68,missing=68
						67:leaf=0.0104327
						68:leaf=0.0285211
					34:[U_CAT_LEN<46] yes=69,no=70,missing=70
						69:leaf=0.0480476
						70:leaf=0.118088
			8:[CAT_REL<0.046999] yes=17,no=18,missing=18
				17:[U_KW_LEN<4381] yes=35,no=36,missing=36
					35:[D_CATEGORY_MICRO_MEAN_COEC<0.116999] yes=71,no=72,missing=72
						71:leaf=-0.000948321
						72:leaf=0.0153381
					36:[U_KW_LEN<6656] yes=73,no=74,missing=74
						73:leaf=0.0320926
						74:leaf=0.0590729
				18:[U_KW_LEN<1740] yes=37,no=38,missing=38
					37:[U_KW_LEN<555] yes=75,no=76,missing=76
						75:leaf=0.00821971
						76:leaf=0.0257699
					38:[D_TITLEMD5_COEC<0.070999] yes=77,no=78,missing=78
						77:leaf=0.0252549
						78:leaf=0.0416216
		4:[D_TITLEMD5_COEC<0.240999] yes=9,no=10,missing=10
			9:[CAT_REL<0.001999] yes=19,no=20,missing=20
				19:[U_KEYWORD_MEAN_C<2410.23] yes=39,no=40,missing=40
					39:[U_KEYWORD_MACRO_MEAN_COEC<0.034999] yes=79,no=80,missing=80
						79:leaf=0.000879462
						80:leaf=0.0219496
					40:[D_CATEGORY_MICRO_MAX_COEC<0.127999] yes=81,no=82,missing=82
						81:leaf=0.017118
						82:leaf=0.0337779
				20:[U_KW_LEN<2176] yes=41,no=42,missing=42
					41:[C_D_U_TITLEMD5_CITY_COEC<0.130999] yes=83,no=84,missing=83
						83:leaf=0.0278156
						84:leaf=0.0407095
					42:[U_KW_LEN<4381] yes=85,no=86,missing=86
						85:leaf=0.0460818
						86:leaf=0.062757
			10:[D_KEYWORD_MICRO_MAX_COEC<0.286999] yes=21,no=22,missing=22
				21:[D_TITLEMD5_C<5] yes=43,no=44,missing=44
					43:[KW_REL<0.002999] yes=87,no=88,missing=88
						87:leaf=-0.0256663
						88:leaf=0.0269284
					44:[DOC_AGE<24] yes=89,no=90,missing=90
						89:leaf=0.0554314
						90:leaf=0.0428839
				22:[C_D_U_TITLEMD5_CITY_COEC<0.319999] yes=45,no=46,missing=45
					45:[D_CATEGORY_MICRO_MAX_COEC<0.169999] yes=91,no=92,missing=92
						91:leaf=0.0584138
						92:leaf=0.0710726
					46:[DOC_AGE<24] yes=93,no=94,missing=94
						93:leaf=0.0791544
						94:leaf=0.0676506
	2:[C_D_U_TITLEMD5_CATEGORY_MICRO_MAX_COEC<0.267999] yes=5,no=6,missing=6
		5:[KW_REL<0.001999] yes=11,no=12,missing=12
			11:[D_KEYWORD_MEAN_EC<28396.8] yes=23,no=24,missing=24
				23:[D_CATEGORY_MICRO_MAX_COEC<0.112999] yes=47,no=48,missing=48
					47:[KW_REL<0.000999] yes=95,no=96,missing=96
						95:leaf=0.00267029
						96:leaf=0.0351797
					48:[KW_REL<0.000999] yes=97,no=98,missing=98
						97:leaf=0.0400705
						98:leaf=0.0529176
				24:[C_D_U_TITLEMD5_CITY_COEC<0.171999] yes=49,no=50,missing=49
					49:[C_D_U_TITLEMD5_CATEGORY_MAX_C<0.593999] yes=99,no=100,missing=100
						99:leaf=-0.00679862
						100:leaf=0.0252249
					50:[U_KEYWORD_MICRO_MAX_COEC<0.147999] yes=101,no=102,missing=102
						101:leaf=0.0335402
						102:leaf=0.0456386
			12:[CAT_REL<0.015999] yes=25,no=26,missing=26
				25:[C_D_U_TITLEMD5_CITY_COEC<0.201999] yes=51,no=52,missing=51
					51:[U_KW_LEN<4381] yes=103,no=104,missing=104
						103:leaf=0.0407223
						104:leaf=0.0604657
					52:[D_CATEGORY_MEAN_C<460524] yes=105,no=106,missing=105
						105:leaf=0.0594645
						106:leaf=0.0476429
				26:[U_KW_LEN<555] yes=53,no=54,missing=54
					53:[D_TITLEMD5_COEC<0.191999] yes=107,no=108,missing=107
						107:leaf=0.0369183
						108:leaf=0.0530102
					54:[D_TITLEMD5_COEC<0.070999] yes=109,no=110,missing=110
						109:leaf=-0.000584792
						110:leaf=0.0599021
		6:[D_TITLEMD5_C<103.902] yes=13,no=14,missing=14
			13:[C_D_U_CATEGORY_CATEGORY_MICRO_MEAN_COEC<0.117999] yes=27,no=28,missing=28
				27:[KW_REL<0.001999] yes=55,no=56,missing=56
					55:[KW_REL<0.000999] yes=111,no=112,missing=112
						111:leaf=-0.0477686
						112:leaf=-0.00543925
					56:[D_TITLEMD5_C<5] yes=113,no=114,missing=114
						113:leaf=-0.0127976
						114:leaf=0.0323302
				28:[D_TITLEMD5_COEC<0.206999] yes=57,no=58,missing=58
					57:[U_KW_LEN<1673] yes=115,no=116,missing=116
						115:leaf=0.0148006
						116:leaf=0.043076
					58:[D_TITLEMD5_C<5] yes=117,no=118,missing=118
						117:leaf=0.0298793
						118:leaf=0.0687355
			14:[C_D_U_TITLEMD5_CATEGORY_MICRO_MAX_COEC<0.347999] yes=29,no=30,missing=30
				29:[CAT_REL<0.001999] yes=59,no=60,missing=60
					59:[D_CATEGORY_MAX_EC<430915] yes=119,no=120,missing=119
						119:leaf=0.0650846
						120:leaf=0.0538999
					60:[U_KW_LEN<1740] yes=121,no=122,missing=122
						121:leaf=0.0643386
						122:leaf=0.0751278
				30:[CAT_REL<0.001999] yes=61,no=62,missing=62
					61:[D_CATEGORY_MACRO_MAX_COEC<0.145999] yes=123,no=124,missing=124
						123:leaf=0.0625159
						124:leaf=0.0740704
					62:[DOC_AGE<24] yes=125,no=126,missing=126
						125:leaf=0.0823672
						126:leaf=0.0690501
booster[19]:
0:[D_TITLEMD5_COEC<0.151999] yes=1,no=2,missing=1
	1:[C_D_U_TITLEMD5_CATEGORY_MICRO_MAX_COEC<0.111999] yes=3,no=4,missing=3
		3:[KW_REL<0.002999] yes=7,no=8,missing=8
			7:[C_D_U_TITLEMD5_CITY_COEC<0.054999] yes=15,no=16,missing=15
				15:[D_TITLEMD5_COEC<0.026999] yes=31,no=32,missing=31
					31:[D_PUBLISHER_COEC<0.148999] yes=63,no=64,missing=64
						63:leaf=-0.0337623
						64:leaf=0.0110084
					32:[D_KEYWORD_MEAN_EC<38712.1] yes=65,no=66,missing=66
						65:leaf=0.00279178
						66:leaf=-0.0154104
				16:[D_KEYWORD_MEAN_EC<36661.5] yes=33,no=34,missing=34
					33:[KW_REL<0.000999] yes=67,no=68,missing=68
						67:leaf=0.00611642
						68:leaf=0.0218501
					34:[U_KEYWORD_MEAN_EC<20674.4] yes=69,no=70,missing=70
						69:leaf=-0.0157549
						70:leaf=0.00826305
			8:[D_KEYWORD_MAX_EC<21686.3] yes=17,no=18,missing=17
				17:[D_TITLEMD5_COEC<0.080999] yes=35,no=36,missing=35
					35:[KW_REL<0.004999] yes=71,no=72,missing=72
						71:leaf=0.0194597
						72:leaf=0.0340277
					36:[U_KW_LEN<2907] yes=73,no=74,missing=74
						73:leaf=0.0317865
						74:leaf=0.0476653
				18:[KW_REL<0.004999] yes=37,no=38,missing=38
					37:[D_TITLEMD5_COEC<0.026999] yes=75,no=76,missing=75
						75:leaf=-0.0271642
						76:leaf=0.00822438
					38:[D_TITLEMD5_COEC<0.069999] yes=77,no=78,missing=78
						77:leaf=0.0166319
						78:leaf=0.0354396
		4:[KW_REL<0.002999] yes=9,no=10,missing=10
			9:[D_KEYWORD_MEAN_EC<41984.3] yes=19,no=20,missing=20
				19:[KW_REL<0.000999] yes=39,no=40,missing=40
					39:[D_CATEGORY_MICRO_MEAN_COEC<0.120999] yes=79,no=80,missing=80
						79:leaf=-0.00837508
						80:leaf=0.0132656
					40:[U_KEYWORD_MACRO_MAX_COEC<0.001999] yes=81,no=82,missing=82
						81:leaf=0.0436836
						82:leaf=0.0277855
				20:[D_KEYWORD_MAX_EC<24950.6] yes=41,no=42,missing=42
					41:[KW_REL<0.001999] yes=83,no=84,missing=84
						83:leaf=-0.00210656
						84:leaf=0.0176986
					42:[D_KEYWORD_MACRO_MEAN_COEC<0.117999] yes=85,no=86,missing=86
						85:leaf=-0.017104
						86:leaf=0.00758546
			10:[D_KEYWORD_MAX_EC<18971.1] yes=21,no=22,missing=22
				21:[U_KEYWORD_MAX_EC<2561.42] yes=43,no=44,missing=44
					43:[D_TITLEMD5_C<26.37] yes=87,no=88,missing=88
						87:leaf=0.0286644
						88:leaf=0.0566121
					44:[U_KW_LEN<252] yes=89,no=90,missing=90
						89:leaf=0.0156077
						90:leaf=0.0444905
				22:[KW_REL<0.003999] yes=45,no=46,missing=46
					45:[D_KEYWORD_MEAN_EC<72045.2] yes=91,no=92,missing=92
						91:leaf=0.0274816
						92:leaf=0.00792268
					46:[U_KW_LEN<2579] yes=93,no=94,missing=94
						93:leaf=0.0376579
						94:leaf=0.0509187
	2:[C_D_U_TITLEMD5_CATEGORY_MICRO_MAX_COEC<0.250999] yes=5,no=6,missing=5
		5:[U_KEYWORD_MEAN_C<2491.39] yes=11,no=12,missing=12
			11:[CAT_REL<0.023999] yes=23,no=24,missing=24
				23:[U_KEYWORD_MICRO_MAX_COEC<0.146999] yes=47,no=48,missing=48
					47:[U_KEYWORD_MEAN_C<1798.24] yes=95,no=96,missing=96
						95:leaf=0.00738834
						96:leaf=0.0268295
					48:[D_KEYWORD_MICRO_MAX_COEC<0.195999] yes=97,no=98,missing=98
						97:leaf=0.0257149
						98:leaf=0.0416593
				24:[U_CAT_LEN<12] yes=49,no=50,missing=50
					49:[TIME_OF_DAY<11] yes=99,no=100,missing=100
						99:leaf=0.0409295
						100:leaf=0.0288374
					50:[U_KEYWORD_MAX_EC<2273.01] yes=101,no=102,missing=102
						101:leaf=0.0579476
						102:leaf=0.044327
			12:[CAT_REL<0.006999] yes=25,no=26,missing=26
				25:[D_TITLEMD5_COEC<0.223999] yes=51,no=52,missing=52
					51:[U_KW_LEN<2300] yes=103,no=104,missing=104
						103:leaf=0.0325587
						104:leaf=0.0473512
					52:[D_TITLEMD5_COEC<0.301999] yes=105,no=106,missing=106
						105:leaf=0.0496048
						106:leaf=0.0688104
				26:[U_KW_LEN<2034] yes=53,no=54,missing=54
					53:[C_D_U_TITLEMD5_CITY_COEC<0.193999] yes=107,no=108,missing=107
						107:leaf=0.0460796
						108:leaf=0.0565301
					54:[U_KW_LEN<3895] yes=109,no=110,missing=110
						109:leaf=0.0593545
						110:leaf=0.0695815
		6:[C_D_U_TITLEMD5_CATEGORY_MICRO_MAX_COEC<0.346999] yes=13,no=14,missing=14
			13:[CAT_REL<0.004999] yes=27,no=28,missing=28
				27:[U_KEYWORD_MEAN_C<2153.81] yes=55,no=56,missing=56
					55:[U_KEYWORD_MACRO_MEAN_COEC<0.034999] yes=111,no=112,missing=112
						111:leaf=0.032512
						112:leaf=0.0508238
					56:[U_KEYWORD_MACRO_MAX_COEC<0.001999] yes=113,no=114,missing=114
						113:leaf=0.067488
						114:leaf=0.0529297
				28:[U_KW_LEN<1324] yes=57,no=58,missing=58
					57:[D_TITLEMD5_COEC<0.265999] yes=115,no=116,missing=116
						115:leaf=0.0538234
						116:leaf=0.0637351
					58:[D_TITLEMD5_COEC<0.265999] yes=117,no=118,missing=118
						117:leaf=0.0661527
						118:leaf=0.0756385
			14:[KW_REL<0.001999] yes=29,no=30,missing=30
				29:[D_KEYWORD_MACRO_MEAN_COEC<0.124999] yes=59,no=60,missing=60
					59:[CAT_REL<0.001999] yes=119,no=120,missing=120
						119:leaf=-0.00123148
						120:leaf=0.0414566
					60:[D_KEYWORD_MEAN_EC<40860.3] yes=121,no=122,missing=122
						121:leaf=0.0700801
						122:leaf=0.0558258
				30:[DOC_AGE<26] yes=61,no=62,missing=62
					61:[D_TITLEMD5_C<5] yes=123,no=124,missing=124
						123:leaf=0.0235676
						124:leaf=0.0777667
					62:[KW_REL<0.008999] yes=125,no=126,missing=126
						125:leaf=0.063911
						126:leaf=-0.026722
booster[20]:
0:[C_D_U_TITLEMD5_CATEGORY_MICRO_MAX_COEC<0.175999] yes=1,no=2,missing=1
	1:[D_TITLEMD5_COEC<0.120999] yes=3,no=4,missing=3
		3:[CAT_REL<0.039999] yes=7,no=8,missing=8
			7:[U_KW_LEN<4605] yes=15,no=16,missing=16
				15:[D_CATEGORY_MACRO_MEAN_COEC<0.114999] yes=31,no=32,missing=32
					31:[D_TITLEMD5_C<56.935] yes=63,no=64,missing=63
						63:leaf=-0.0270225
						64:leaf=-0.00343552
					32:[U_KEYWORD_MEAN_EC<18161.6] yes=65,no=66,missing=66
						65:leaf=-0.00493924
						66:leaf=0.0119326
				16:[D_CATEGORY_MACRO_MEAN_COEC<0.114999] yes=33,no=34,missing=34
					33:[U_KW_LEN<6912] yes=67,no=68,missing=68
						67:leaf=0.00848094
						68:leaf=0.0405876
					34:[U_KW_LEN<6912] yes=69,no=70,missing=70
						69:leaf=0.0326528
						70:leaf=0.0605468
			8:[D_TITLEMD5_COEC<0.072999] yes=17,no=18,missing=17
				17:[KW_REL<0.005999] yes=35,no=36,missing=36
					35:[U_KEYWORD_MACRO_MAX_COEC<0.001999] yes=71,no=72,missing=71
						71:leaf=0.0199092
						72:leaf=0.00105454
					36:[U_KEYWORD_MAX_C<365.909] yes=73,no=74,missing=74
						73:leaf=0.0432463
						74:leaf=0.0233712
				18:[U_KW_LEN<1308] yes=37,no=38,missing=38
					37:[U_KW_LEN<371] yes=75,no=76,missing=76
						75:leaf=-0.000292732
						76:leaf=0.0190812
					38:[U_KW_LEN<3698] yes=77,no=78,missing=78
						77:leaf=0.0298267
						78:leaf=0.0468053
		4:[U_KEYWORD_MEAN_C<2330.12] yes=9,no=10,missing=10
			9:[CAT_REL<0.036999] yes=19,no=20,missing=20
				19:[U_KEYWORD_MICRO_MAX_COEC<0.150999] yes=39,no=40,missing=40
					39:[U_KW_LEN<4605] yes=79,no=80,missing=80
						79:leaf=0.00350172
						80:leaf=0.0412446
					40:[D_KEYWORD_MICRO_MAX_COEC<0.209999] yes=81,no=82,missing=82
						81:leaf=0.0309325
						82:leaf=0.0450085
				20:[U_CATEGORY_MACRO_MAX_COEC<0.024999] yes=41,no=42,missing=41
					41:[U_KEYWORD_MAX_C<303.611] yes=83,no=84,missing=84
						83:leaf=0.0490109
						84:leaf=0.0323853
					42:[U_KEYWORD_MICRO_MAX_COEC<0.146999] yes=85,no=86,missing=86
						85:leaf=0.0146041
						86:leaf=0.0273757
			10:[D_TITLEMD5_COEC<0.254999] yes=21,no=22,missing=22
				21:[CAT_REL<0.020999] yes=43,no=44,missing=44
					43:[D_CATEGORY_MICRO_MEAN_COEC<0.127999] yes=87,no=88,missing=88
						87:leaf=0.0161491
						88:leaf=0.0312552
					44:[U_KEYWORD_MAX_EC<2924.7] yes=89,no=90,missing=90
						89:leaf=0.0472362
						90:leaf=0.033281
				22:[D_KEYWORD_MICRO_MAX_COEC<0.326999] yes=45,no=46,missing=46
					45:[D_CATEGORY_MACRO_MAX_COEC<0.159999] yes=91,no=92,missing=91
						91:leaf=0.0484447
						92:leaf=0.062788
					46:[DOC_AGE<24] yes=93,no=94,missing=94
						93:leaf=0.072044
						94:leaf=0.0587951
	2:[C_D_U_TITLEMD5_CATEGORY_MICRO_MAX_COEC<0.275999] yes=5,no=6,missing=6
		5:[KW_REL<0.001999] yes=11,no=12,missing=12
			11:[D_KEYWORD_MEAN_EC<29253.7] yes=23,no=24,missing=24
				23:[D_TITLEMD5_C<99.71] yes=47,no=48,missing=48
					47:[C_D_U_CATEGORY_CATEGORY_MICRO_MEAN_COEC<0.122999] yes=95,no=96,missing=96
						95:leaf=-0.0216389
						96:leaf=0.0194427
					48:[C_D_U_TITLEMD5_CITY_COEC<0.164999] yes=97,no=98,missing=97
						97:leaf=0.034557
						98:leaf=0.0471074
				24:[D_KEYWORD_MACRO_MEAN_COEC<0.116999] yes=49,no=50,missing=50
					49:[D_KEYWORD_MEAN_EC<44390.3] yes=99,no=100,missing=100
						99:leaf=0.0176438
						100:leaf=-0.0121417
					50:[U_KEYWORD_MICRO_MAX_COEC<0.147999] yes=101,no=102,missing=102
						101:leaf=0.0255169
						102:leaf=0.0374805
			12:[CAT_REL<0.018999] yes=25,no=26,missing=26
				25:[C_D_U_TITLEMD5_CITY_COEC<0.194999] yes=51,no=52,missing=51
					51:[D_TITLEMD5_C<40.723] yes=103,no=104,missing=104
						103:leaf=-0.0163573
						104:leaf=0.0383008
					52:[D_CATEGORY_MEAN_C<429721] yes=105,no=106,missing=105
						105:leaf=0.0538098
						106:leaf=0.0425879
				26:[U_KW_LEN<2896] yes=53,no=54,missing=54
					53:[C_D_U_TITLEMD5_CITY_COEC<0.198999] yes=107,no=108,missing=107
						107:leaf=0.0465046
						108:leaf=0.0574339
					54:[C_D_U_TITLEMD5_CATEGORY_MAX_C<0.064999] yes=109,no=110,missing=110
						109:leaf=0.0285216
						110:leaf=0.062236
		6:[C_D_U_TITLEMD5_CATEGORY_MAX_C<0.209999] yes=13,no=14,missing=14
			13:[D_TITLEMD5_COEC<0.196999] yes=27,no=28,missing=27
				27:[U_KW_LEN<3412] yes=55,no=56,missing=56
					55:[CAT_REL<0.001999] yes=111,no=112,missing=112
						111:leaf=-0.0240693
						112:leaf=0.0132694
					56:[D_TITLEMD5_COEC<0.079999] yes=113,no=114,missing=114
						113:leaf=0.00803654
						114:leaf=0.0411876
				28:[D_PUBLISHER_COEC<0.117999] yes=57,no=58,missing=57
					57:[CAT_REL<0.001999] yes=115,no=116,missing=116
						115:leaf=0.00211811
						116:leaf=0.0457855
					58:[D_TITLEMD5_COEC<0.297999] yes=117,no=118,missing=118
						117:leaf=0.0514208
						118:leaf=0.071239
			14:[C_D_U_TITLEMD5_CATEGORY_MICRO_MAX_COEC<0.374999] yes=29,no=30,missing=30
				29:[CAT_REL<0.001999] yes=59,no=60,missing=60
					59:[U_KEYWORD_MEAN_C<2524.32] yes=119,no=120,missing=120
						119:leaf=0.0457785
						120:leaf=0.0579284
					60:[U_KW_LEN<1189] yes=121,no=122,missing=122
						121:leaf=0.0576666
						122:leaf=0.0690969
				30:[DOC_AGE<23] yes=61,no=62,missing=62
					61:[KW_REL<0.001999] yes=123,no=124,missing=124
						123:leaf=0.0674871
						124:leaf=0.0785679
					62:[KW_REL<0.010999] yes=125,no=126,missing=126
						125:leaf=0.0625207
						126:leaf=-0.0621567
booster[21]:
0:[C_D_U_TITLEMD5_CATEGORY_MICRO_MAX_COEC<0.177999] yes=1,no=2,missing=1
	1:[C_D_U_TITLEMD5_CITY_COEC<0.103999] yes=3,no=4,missing=3
		3:[KW_REL<0.003999] yes=7,no=8,missing=8
			7:[D_TITLEMD5_COEC<0.059999] yes=15,no=16,missing=15
				15:[D_TITLEMD5_C<76.935] yes=31,no=32,missing=31
					31:[D_KEYWORD_MEAN_EC<57359.6] yes=63,no=64,missing=63
						63:leaf=-0.0127611
						64:leaf=-0.0385941
					32:[D_KEYWORD_MEAN_C<6847.49] yes=65,no=66,missing=66
						65:leaf=0.00943697
						66:leaf=-0.0171358
				16:[U_KEYWORD_MACRO_MAX_COEC<0.001999] yes=33,no=34,missing=34
					33:[U_KW_LEN<5312] yes=67,no=68,missing=68
						67:leaf=0.0184091
						68:leaf=0.0404471
					34:[D_KEYWORD_MICRO_MEAN_COEC<0.126999] yes=69,no=70,missing=70
						69:leaf=-0.00116633
						70:leaf=0.0133801
			8:[D_TITLEMD5_COEC<0.068999] yes=17,no=18,missing=17
				17:[D_KEYWORD_MEAN_EC<77381.7] yes=35,no=36,missing=35
					35:[U_KW_LEN<403] yes=71,no=72,missing=72
						71:leaf=-0.0186039
						72:leaf=0.0216229
					36:[KW_REL<0.004999] yes=73,no=74,missing=74
						73:leaf=-0.0146201
						74:leaf=0.00809169
				18:[U_KW_LEN<1022] yes=37,no=38,missing=38
					37:[U_KW_LEN<262] yes=75,no=76,missing=76
						75:leaf=-0.00251876
						76:leaf=0.0195755
					38:[D_KEYWORD_MEAN_EC<69869.3] yes=77,no=78,missing=78
						77:leaf=0.0399096
						78:leaf=0.0265966
		4:[KW_REL<0.003999] yes=9,no=10,missing=10
			9:[D_TITLEMD5_COEC<0.198999] yes=19,no=20,missing=20
				19:[CAT_REL<0.024999] yes=39,no=40,missing=40
					39:[U_KW_LEN<4355] yes=79,no=80,missing=80
						79:leaf=0.0151274
						80:leaf=0.0396665
					40:[U_CAT_LEN<11] yes=81,no=82,missing=82
						81:leaf=0.0181848
						82:leaf=0.0349129
				20:[D_TITLEMD5_COEC<0.275999] yes=41,no=42,missing=42
					41:[U_KEYWORD_MEAN_C<2772.71] yes=83,no=84,missing=84
						83:leaf=0.0251299
						84:leaf=0.0404059
					42:[D_KEYWORD_MICRO_MAX_COEC<0.318999] yes=85,no=86,missing=86
						85:leaf=0.0538305
						86:leaf=0.0671372
			10:[U_KW_LEN<808] yes=21,no=22,missing=22
				21:[D_KEYWORD_MAX_EC<61338.2] yes=43,no=44,missing=44
					43:[D_TITLEMD5_COEC<0.128999] yes=87,no=88,missing=88
						87:leaf=0.0213821
						88:leaf=0.0360752
					44:[WORD_COUNT<352] yes=89,no=90,missing=90
						89:leaf=-0.0248475
						90:leaf=0.0104182
				22:[D_KEYWORD_MEAN_EC<80141.2] yes=45,no=46,missing=46
					45:[D_TITLEMD5_COEC<0.128999] yes=91,no=92,missing=92
						91:leaf=0.0432037
						92:leaf=0.0542291
					46:[KW_REL<0.004999] yes=93,no=94,missing=94
						93:leaf=0.0264916
						94:leaf=0.0429706
	2:[C_D_U_TITLEMD5_CATEGORY_MICRO_MAX_COEC<0.273999] yes=5,no=6,missing=6
		5:[KW_REL<0.002999] yes=11,no=12,missing=12
			11:[D_TITLEMD5_C<55.731] yes=23,no=24,missing=24
				23:[D_TITLEMD5_COEC<0.068999] yes=47,no=48,missing=48
					47:[D_TITLEMD5_COEC<0.039999] yes=95,no=96,missing=96
						95:leaf=-0.109903
						96:leaf=-0.041232
					48:[C_D_U_CATEGORY_CATEGORY_MICRO_MEAN_COEC<0.104999] yes=97,no=98,missing=98
						97:leaf=-0.0291432
						98:leaf=0.0130599
				24:[D_KEYWORD_MAX_EC<19630.8] yes=49,no=50,missing=50
					49:[U_KEYWORD_MACRO_MAX_COEC<0.001999] yes=99,no=100,missing=100
						99:leaf=0.0499724
						100:leaf=0.03637
					50:[D_TITLEMD5_COEC<0.175999] yes=101,no=102,missing=102
						101:leaf=0.00621784
						102:leaf=0.0286091
			12:[U_KW_LEN<2353] yes=25,no=26,missing=26
				25:[CAT_REL<0.027999] yes=51,no=52,missing=52
					51:[D_TITLEMD5_COEC<0.193999] yes=103,no=104,missing=104
						103:leaf=0.0306902
						104:leaf=0.0436734
					52:[DOC_AGE<24] yes=105,no=106,missing=106
						105:leaf=0.0512536
						106:leaf=0.0364016
				26:[D_TITLEMD5_COEC<0.075999] yes=53,no=54,missing=54
					53:[C_D_U_TITLEMD5_CATEGORY_MAX_C<0.121999] yes=107,no=108,missing=108
						107:leaf=-0.0199043
						108:leaf=0.0479258
					54:[D_KEYWORD_MAX_EC<18150] yes=109,no=110,missing=110
						109:leaf=0.0607733
						110:leaf=0.0509766
		6:[D_TITLEMD5_C<127.687] yes=13,no=14,missing=14
			13:[KW_REL<0.002999] yes=27,no=28,missing=28
				27:[D_TITLEMD5_C<4.995] yes=55,no=56,missing=56
					55:[IMAGE_COUNT<0.999999] yes=111,no=112,missing=112
						111:leaf=-0.0954284
						112:leaf=-0.0296049
					56:[C_D_U_CATEGORY_CATEGORY_MICRO_MAX_COEC<0.102999] yes=113,no=114,missing=114
						113:leaf=-0.0128985
						114:leaf=0.0264714
				28:[D_TITLEMD5_C<4.995] yes=57,no=58,missing=58
					57:[CAT_REL<0.068999] yes=115,no=116,missing=116
						115:leaf=-0.00128938
						116:leaf=0.0293043
					58:[D_TITLEMD5_COEC<0.228999] yes=117,no=118,missing=118
						117:leaf=0.0424595
						118:leaf=0.0686507
			14:[C_D_U_TITLEMD5_CATEGORY_MICRO_MAX_COEC<0.371999] yes=29,no=30,missing=30
				29:[CAT_REL<0.003999] yes=59,no=60,missing=60
					59:[U_KEYWORD_MEAN_C<2522.65] yes=119,no=120,missing=120
						119:leaf=0.0424025
						120:leaf=0.0543084
					60:[U_KW_LEN<1911] yes=121,no=122,missing=122
						121:leaf=0.056588
						122:leaf=0.0685849
				30:[KW_REL<0.001999] yes=61,no=62,missing=62
					61:[D_CATEGORY_MACRO_MAX_COEC<0.137999] yes=123,no=124,missing=124
						123:leaf=0.045503
						124:leaf=0.0646398
					62:[DOC_AGE<22] yes=125,no=126,missing=126
						125:leaf=0.0753435
						126:leaf=0.0623774
booster[22]:
0:[D_TITLEMD5_COEC<0.161999] yes=1,no=2,missing=1
	1:[C_D_U_TITLEMD5_CATEGORY_MICRO_MAX_COEC<0.114999] yes=3,no=4,missing=3
		3:[U_KW_LEN<3109] yes=7,no=8,missing=8
			7:[IMAGE_COUNT<0.999999] yes=15,no=16,missing=16
				15:[D_TITLEMD5_C<4.99] yes=31,no=32,missing=31
					31:[CAT_REL<0.099999] yes=63,no=64,missing=64
						63:leaf=-0.0645067
						64:leaf=-0.0288124
					32:[KW_REL<0.002999] yes=65,no=66,missing=66
						65:leaf=-0.0310421
						66:leaf=-0.00929712
				16:[CAT_REL<0.050999] yes=33,no=34,missing=34
					33:[U_KEYWORD_MEAN_EC<19813.2] yes=67,no=68,missing=68
						67:leaf=-0.0106273
						68:leaf=0.00609214
					34:[U_CAT_LEN<9] yes=69,no=70,missing=70
						69:leaf=-0.000936373
						70:leaf=0.0186449
			8:[D_CATEGORY_MACRO_MEAN_COEC<0.109999] yes=17,no=18,missing=18
				17:[CAT_REL<0.044999] yes=35,no=36,missing=36
					35:[U_KW_LEN<5278] yes=71,no=72,missing=72
						71:leaf=-0.00469384
						72:leaf=0.0180913
					36:[D_TITLEMD5_COEC<0.081999] yes=73,no=74,missing=73
						73:leaf=0.0144672
						74:leaf=0.0323742
				18:[CAT_REL<0.021999] yes=37,no=38,missing=37
					37:[U_KEYWORD_MEAN_EC<13962.4] yes=75,no=76,missing=76
						75:leaf=-0.0137096
						76:leaf=0.0210726
					38:[D_TITLEMD5_COEC<0.081999] yes=77,no=78,missing=77
						77:leaf=0.0270836
						78:leaf=0.0453204
		4:[CAT_REL<0.041999] yes=9,no=10,missing=10
			9:[U_KW_LEN<3913] yes=19,no=20,missing=20
				19:[KW_REL<0.001999] yes=39,no=40,missing=40
					39:[D_KEYWORD_MEAN_EC<37507.3] yes=79,no=80,missing=80
						79:leaf=0.00930964
						80:leaf=-0.0124574
					40:[D_CATEGORY_MEAN_EC<76584.7] yes=81,no=82,missing=81
						81:leaf=0.0435563
						82:leaf=0.018751
				20:[U_KW_LEN<5762] yes=41,no=42,missing=42
					41:[C_D_U_TITLEMD5_CATEGORY_MAX_C<0.061999] yes=83,no=84,missing=84
						83:leaf=-0.00301695
						84:leaf=0.0334153
					42:[D_TITLEMD5_COEC<0.075999] yes=85,no=86,missing=86
						85:leaf=0.0193432
						86:leaf=0.0542142
			10:[U_KW_LEN<743] yes=21,no=22,missing=22
				21:[U_KW_LEN<213] yes=43,no=44,missing=44
					43:[D_KEYWORD_MACRO_MEAN_COEC<0.111999] yes=87,no=88,missing=88
						87:leaf=-0.00828687
						88:leaf=0.00980957
					44:[C_D_U_TITLEMD5_CATEGORY_MAX_EC<0.914999] yes=89,no=90,missing=90
						89:leaf=-0.0225284
						90:leaf=0.023724
				22:[D_TITLEMD5_COEC<0.119999] yes=45,no=46,missing=46
					45:[C_D_U_TITLEMD5_CATEGORY_MAX_EC<0.914999] yes=91,no=92,missing=92
						91:leaf=0.00635082
						92:leaf=0.0342784
					46:[U_KW_LEN<3337] yes=93,no=94,missing=94
						93:leaf=0.0410579
						94:leaf=0.0566181
	2:[D_TITLEMD5_COEC<0.274999] yes=5,no=6,missing=6
		5:[CAT_REL<0.001999] yes=11,no=12,missing=12
			11:[D_CATEGORY_MICRO_MEAN_COEC<0.162999] yes=23,no=24,missing=24
				23:[C_D_U_TITLEMD5_CITY_COEC<0.202999] yes=47,no=48,missing=47
					47:[U_KEYWORD_MEAN_C<2735.28] yes=95,no=96,missing=96
						95:leaf=0.0132391
						96:leaf=0.0268858
					48:[U_KEYWORD_MEAN_C<2715.71] yes=97,no=98,missing=98
						97:leaf=0.0273895
						98:leaf=0.0383078
				24:[U_KEYWORD_MEAN_C<2797.86] yes=49,no=50,missing=49
					49:[WORD_COUNT<1395] yes=99,no=100,missing=100
						99:leaf=0.0325419
						100:leaf=0.0457816
					50:[U_CAT_LEN<14] yes=101,no=102,missing=102
						101:leaf=0.0415383
						102:leaf=0.0556231
			12:[U_KW_LEN<1519] yes=25,no=26,missing=26
				25:[U_KW_LEN<457] yes=51,no=52,missing=52
					51:[C_D_U_TITLEMD5_CITY_COEC<0.202999] yes=103,no=104,missing=103
						103:leaf=0.024962
						104:leaf=0.0370098
					52:[CAT_REL<0.039999] yes=105,no=106,missing=106
						105:leaf=0.0349804
						106:leaf=0.0471781
				26:[U_KW_LEN<3206] yes=53,no=54,missing=54
					53:[CAT_REL<0.029999] yes=107,no=108,missing=108
						107:leaf=0.0421102
						108:leaf=0.0536478
					54:[C_D_U_TITLEMD5_CATEGORY_MICRO_MAX_COEC<0.226999] yes=109,no=110,missing=109
						109:leaf=0.0560818
						110:leaf=0.0658194
		6:[U_KEYWORD_MEAN_C<2438.44] yes=13,no=14,missing=14
			13:[TIME_OF_DAY<10] yes=27,no=28,missing=28
				27:[C_D_U_CATEGORY_CATEGORY_MICRO_MAX_COEC<0.161999] yes=55,no=56,missing=55
					55:[U_KEYWORD_MICRO_MAX_COEC<0.145999] yes=111,no=112,missing=112
						111:leaf=0.0402649
						112:leaf=0.0541784
					56:[C_D_U_TITLEMD5_CATEGORY_MICRO_MAX_COEC<0.412999] yes=113,no=114,missing=113
						113:leaf=0.0546749
						114:leaf=0.0686406
				28:[D_KEYWORD_MICRO_MAX_COEC<0.303999] yes=57,no=58,missing=58
					57:[U_KEYWORD_MICRO_MAX_COEC<0.147999] yes=115,no=116,missing=116
						115:leaf=0.0156177
						116:leaf=0.0406399
					58:[C_D_U_TITLEMD5_CATEGORY_MICRO_MAX_COEC<0.412999] yes=117,no=118,missing=117
						117:leaf=0.0387233
						118:leaf=0.0565405
			14:[D_TITLEMD5_COEC<0.356999] yes=29,no=30,missing=30
				29:[CAT_REL<0.001999] yes=59,no=60,missing=60
					59:[TIME_OF_DAY<11] yes=119,no=120,missing=120
						119:leaf=0.0567377
						120:leaf=0.0445001
					60:[U_KW_LEN<1971] yes=121,no=122,missing=122
						121:leaf=0.0602972
						122:leaf=0.0714486
				30:[DOC_AGE<24] yes=61,no=62,missing=62
					61:[D_TITLEMD5_C<4.99] yes=123,no=124,missing=124
						123:leaf=0.00283313
						124:leaf=0.0712513
					62:[DOC_AGE<49] yes=125,no=126,missing=126
						125:leaf=0.0577025
						126:leaf=0.0409444
booster[23]:
0:[D_TITLEMD5_COEC<0.156999] yes=1,no=2,missing=1
	1:[C_D_U_TITLEMD5_CATEGORY_MICRO_MAX_COEC<0.107999] yes=3,no=4,missing=3
		3:[DOC_AGE<3] yes=7,no=8,missing=7
			7:[C_D_U_TITLEMD5_CITY_C<4.96] yes=15,no=16,missing=15
				15:[D_CATEGORY_MACRO_MAX_COEC<0.105999] yes=31,no=32,missing=32
					31:[KW_REL<0.004999] yes=63,no=64,missing=64
						63:leaf=-0.00105403
						64:leaf=0.0279304
					32:[U_KW_LEN<1919] yes=65,no=66,missing=66
						65:leaf=0.00842249
						66:leaf=0.0244318
				16:[TIME_OF_DAY<5] yes=33,no=34,missing=34
					33:[U_KEYWORD_MEAN_C<2199.73] yes=67,no=68,missing=67
						67:leaf=0.0299246
						68:leaf=0.049709
					34:[CAT_REL<0.018999] yes=69,no=70,missing=70
						69:leaf=0.0172485
						70:leaf=0.0306461
			8:[D_TITLEMD5_COEC<0.025999] yes=17,no=18,missing=18
				17:[CAT_REL<0.101999] yes=35,no=36,missing=36
					35:[D_TITLEMD5_C<13.766] yes=71,no=72,missing=72
						71:leaf=-0.0500402
						72:leaf=-0.0239199
					36:[U_KW_LEN<2570] yes=73,no=74,missing=74
						73:leaf=-0.0236049
						74:leaf=0.0082763
				18:[CAT_REL<0.050999] yes=37,no=38,missing=38
					37:[D_CATEGORY_MACRO_MEAN_COEC<0.127999] yes=75,no=76,missing=76
						75:leaf=-0.00837101
						76:leaf=0.00528873
					38:[U_KW_LEN<1056] yes=77,no=78,missing=78
						77:leaf=0.000665297
						78:leaf=0.0171937
		4:[CAT_REL<0.048999] yes=9,no=10,missing=10
			9:[U_KW_LEN<3150] yes=19,no=20,missing=20
				19:[KW_REL<0.002999] yes=39,no=40,missing=40
					39:[D_KEYWORD_MEAN_EC<46714.5] yes=79,no=80,missing=80
						79:leaf=0.00949693
						80:leaf=-0.0113363
					40:[D_KEYWORD_MAX_EC<19677] yes=81,no=82,missing=82
						81:leaf=0.0290086
						82:leaf=0.0156323
				20:[D_CATEGORY_MICRO_MEAN_COEC<0.119999] yes=41,no=42,missing=42
					41:[U_KW_LEN<4949] yes=83,no=84,missing=84
						83:leaf=0.00986999
						84:leaf=0.0322208
					42:[U_KW_LEN<5772] yes=85,no=86,missing=86
						85:leaf=0.0315746
						86:leaf=0.0532455
			10:[U_KW_LEN<651] yes=21,no=22,missing=22
				21:[U_KW_LEN<259] yes=43,no=44,missing=44
					43:[D_KEYWORD_MACRO_MEAN_COEC<0.104999] yes=87,no=88,missing=88
						87:leaf=-0.00876613
						88:leaf=0.00778403
					44:[C_D_U_TITLEMD5_CITY_COEC<0.099999] yes=89,no=90,missing=89
						89:leaf=0.011129
						90:leaf=0.0248103
				22:[U_KEYWORD_MAX_EC<2410.39] yes=45,no=46,missing=46
					45:[D_TITLEMD5_COEC<0.116999] yes=91,no=92,missing=92
						91:leaf=0.037235
						92:leaf=0.0489992
					46:[D_TITLEMD5_COEC<0.117999] yes=93,no=94,missing=94
						93:leaf=0.0234864
						94:leaf=0.0364743
	2:[D_TITLEMD5_COEC<0.259999] yes=5,no=6,missing=6
		5:[CAT_REL<0.001999] yes=11,no=12,missing=12
			11:[C_D_U_TITLEMD5_CITY_COEC<0.194999] yes=23,no=24,missing=23
				23:[U_KEYWORD_MEAN_C<2678.48] yes=47,no=48,missing=48
					47:[D_CATEGORY_MEAN_EC<3.71692e+06] yes=95,no=96,missing=95
						95:leaf=0.016823
						96:leaf=-0.00483295
					48:[U_KEYWORD_MAX_EC<2575.48] yes=97,no=98,missing=98
						97:leaf=0.0387232
						98:leaf=0.0220033
				24:[D_CATEGORY_MEAN_EC<389131] yes=49,no=50,missing=49
					49:[TIME_OF_DAY<10] yes=99,no=100,missing=100
						99:leaf=0.0505115
						100:leaf=0.0380043
					50:[U_KW_LEN<3426] yes=101,no=102,missing=102
						101:leaf=0.0282364
						102:leaf=0.0464498
			12:[U_KW_LEN<1626] yes=25,no=26,missing=26
				25:[KW_REL<0.001999] yes=51,no=52,missing=52
					51:[D_KEYWORD_MICRO_MEAN_COEC<0.118999] yes=103,no=104,missing=104
						103:leaf=0.00899464
						104:leaf=0.0288335
					52:[WORD_COUNT<1065] yes=105,no=106,missing=106
						105:leaf=0.0298795
						106:leaf=0.0431401
				26:[U_KW_LEN<3700] yes=53,no=54,missing=54
					53:[CAT_REL<0.040999] yes=107,no=108,missing=108
						107:leaf=0.0405514
						108:leaf=0.0517425
					54:[DOC_AGE<24] yes=109,no=110,missing=110
						109:leaf=0.0594975
						110:leaf=0.0392884
		6:[U_KEYWORD_MEAN_C<2584.29] yes=13,no=14,missing=14
			13:[TIME_OF_DAY<10] yes=27,no=28,missing=28
				27:[C_D_U_TITLEMD5_CATEGORY_MICRO_MAX_COEC<0.367999] yes=55,no=56,missing=55
					55:[U_KEYWORD_MEAN_C<1918.14] yes=111,no=112,missing=112
						111:leaf=0.0369235
						112:leaf=0.0496806
					56:[D_CATEGORY_MEAN_C<144760] yes=113,no=114,missing=114
						113:leaf=0.0647706
						114:leaf=0.0543158
				28:[C_D_U_CATEGORY_CATEGORY_MICRO_MEAN_COEC<0.204999] yes=57,no=58,missing=57
					57:[U_KEYWORD_MICRO_MAX_COEC<0.146999] yes=115,no=116,missing=116
						115:leaf=0.0205388
						116:leaf=0.0396639
					58:[CAT_REL<0.001999] yes=117,no=118,missing=118
						117:leaf=0.0418972
						118:leaf=0.0554659
			14:[D_TITLEMD5_COEC<0.354999] yes=29,no=30,missing=30
				29:[CAT_REL<0.001999] yes=59,no=60,missing=60
					59:[TIME_OF_DAY<12] yes=119,no=120,missing=120
						119:leaf=0.0516367
						120:leaf=0.0405774
					60:[U_KW_LEN<2271] yes=121,no=122,missing=122
						121:leaf=0.0565837
						122:leaf=0.069059
				30:[DOC_AGE<26] yes=61,no=62,missing=62
					61:[D_TITLEMD5_C<4.582] yes=123,no=124,missing=124
						123:leaf=0.00156877
						124:leaf=0.0684694
					62:[WORD_COUNT<1419] yes=125,no=126,missing=126
						125:leaf=0.0439921
						126:leaf=0.0580817
booster[24]:
0:[C_D_U_TITLEMD5_CATEGORY_MICRO_MAX_COEC<0.186999] yes=1,no=2,missing=1
	1:[C_D_U_TITLEMD5_CITY_COEC<0.117999] yes=3,no=4,missing=3
		3:[KW_REL<0.002999] yes=7,no=8,missing=8
			7:[D_CATEGORY_MACRO_MEAN_COEC<0.116999] yes=15,no=16,missing=16
				15:[IMAGE_COUNT<0.999999] yes=31,no=32,missing=32
					31:[U_KEYWORD_MACRO_MAX_COEC<0.001999] yes=63,no=64,missing=64
						63:leaf=-0.0226475
						64:leaf=-0.0471484
					32:[CAT_REL<0.062999] yes=65,no=66,missing=66
						65:leaf=-0.00723641
						66:leaf=0.0100119
				16:[D_KEYWORD_MAX_EC<16848.7] yes=33,no=34,missing=33
					33:[U_KEYWORD_MACRO_MAX_COEC<0.001999] yes=67,no=68,missing=68
						67:leaf=0.0266475
						68:leaf=0.0101408
					34:[U_KEYWORD_MICRO_MAX_COEC<0.151999] yes=69,no=70,missing=70
						69:leaf=-0.0125458
						70:leaf=0.013431
			8:[D_KEYWORD_MAX_EC<17503.3] yes=17,no=18,missing=18
				17:[D_KEYWORD_MICRO_MEAN_COEC<0.114999] yes=35,no=36,missing=36
					35:[D_TITLEMD5_C<69.246] yes=71,no=72,missing=71
						71:leaf=0.00671669
						72:leaf=0.023443
					36:[D_KEYWORD_MEAN_EC<29805.8] yes=73,no=74,missing=74
						73:leaf=0.0404306
						74:leaf=0.0257602
				18:[KW_REL<0.004999] yes=37,no=38,missing=38
					37:[D_KEYWORD_MEAN_EC<80078.9] yes=75,no=76,missing=75
						75:leaf=0.00970659
						76:leaf=-0.00959971
					38:[D_TITLEMD5_COEC<0.080999] yes=77,no=78,missing=77
						77:leaf=0.0144432
						78:leaf=0.0305002
		4:[KW_REL<0.003999] yes=9,no=10,missing=10
			9:[D_TITLEMD5_COEC<0.257999] yes=19,no=20,missing=20
				19:[D_KEYWORD_MAX_EC<17503.3] yes=39,no=40,missing=40
					39:[KW_REL<0.001999] yes=79,no=80,missing=80
						79:leaf=0.0179039
						80:leaf=0.0335089
					40:[U_KEYWORD_MEAN_C<2765.97] yes=81,no=82,missing=82
						81:leaf=0.000625777
						82:leaf=0.0172716
				20:[D_TITLEMD5_COEC<0.317999] yes=41,no=42,missing=42
					41:[D_CATEGORY_MACRO_MEAN_COEC<0.167999] yes=83,no=84,missing=83
						83:leaf=0.0372883
						84:leaf=0.0540661
					42:[DOC_AGE<24] yes=85,no=86,missing=86
						85:leaf=0.0617148
						86:leaf=0.048121
			10:[D_KEYWORD_MAX_C<6507.85] yes=21,no=22,missing=22
				21:[U_KW_LEN<554] yes=43,no=44,missing=44
					43:[U_KW_LEN<159] yes=87,no=88,missing=88
						87:leaf=0.0119339
						88:leaf=0.0277771
					44:[D_TITLEMD5_COEC<0.129999] yes=89,no=90,missing=90
						89:leaf=0.0358986
						90:leaf=0.0457645
				22:[WORD_COUNT<352] yes=45,no=46,missing=46
					45:[DOC_AGE<12] yes=91,no=92,missing=92
						91:leaf=-0.00250695
						92:leaf=-0.0814841
					46:[U_KW_LEN<1918] yes=93,no=94,missing=94
						93:leaf=0.0202126
						94:leaf=0.0352563
	2:[C_D_U_TITLEMD5_CATEGORY_MICRO_MAX_COEC<0.279999] yes=5,no=6,missing=6
		5:[KW_REL<0.002999] yes=11,no=12,missing=12
			11:[D_KEYWORD_MEAN_EC<51061.6] yes=23,no=24,missing=24
				23:[C_D_U_TITLEMD5_CATEGORY_MAX_C<0.209999] yes=47,no=48,missing=48
					47:[D_TITLEMD5_COEC<0.099999] yes=95,no=96,missing=96
						95:leaf=-0.028347
						96:leaf=0.0134965
					48:[U_KEYWORD_MACRO_MAX_COEC<0.001999] yes=97,no=98,missing=98
						97:leaf=0.0444132
						98:leaf=0.0303762
				24:[D_KEYWORD_MACRO_MAX_COEC<0.039999] yes=49,no=50,missing=50
					49:[D_TITLEMD5_COEC<0.172999] yes=99,no=100,missing=100
						99:leaf=-0.012403
						100:leaf=0.011908
					50:[D_CATEGORY_MEAN_C<443591] yes=101,no=102,missing=101
						101:leaf=0.0318098
						102:leaf=0.0148573
			12:[U_KW_LEN<2847] yes=25,no=26,missing=26
				25:[D_KEYWORD_MEAN_EC<69683.4] yes=51,no=52,missing=52
					51:[DOC_AGE<24] yes=103,no=104,missing=104
						103:leaf=0.043666
						104:leaf=0.0303438
					52:[KW_REL<0.004999] yes=105,no=106,missing=106
						105:leaf=0.025416
						106:leaf=0.0418438
				26:[C_D_U_TITLEMD5_CATEGORY_MAX_C<0.063999] yes=53,no=54,missing=54
					53:[D_TITLEMD5_COEC<0.096999] yes=107,no=108,missing=107
						107:leaf=-0.0105377
						108:leaf=0.0358116
					54:[U_KW_LEN<4596] yes=109,no=110,missing=110
						109:leaf=0.0477115
						110:leaf=0.059643
		6:[C_D_U_TITLEMD5_CATEGORY_MAX_C<0.246999] yes=13,no=14,missing=14
			13:[D_TITLEMD5_COEC<0.206999] yes=27,no=28,missing=27
				27:[U_KW_LEN<3966] yes=55,no=56,missing=56
					55:[D_KEYWORD_MACRO_MEAN_COEC<0.091999] yes=111,no=112,missing=112
						111:leaf=-0.02413
						112:leaf=0.00952469
					56:[CAT_REL<0.003999] yes=113,no=114,missing=114
						113:leaf=0.0114784
						114:leaf=0.0386309
				28:[D_CATEGORY_MACRO_MEAN_COEC<0.135999] yes=57,no=58,missing=58
					57:[KW_REL<0.001999] yes=115,no=116,missing=116
						115:leaf=-0.00666531
						116:leaf=0.0396792
					58:[U_KEYWORD_MEAN_C<2518.2] yes=117,no=118,missing=118
						117:leaf=0.0330488
						118:leaf=0.058202
			14:[C_D_U_TITLEMD5_CATEGORY_MICRO_MAX_COEC<0.365999] yes=29,no=30,missing=30
				29:[U_KW_LEN<2485] yes=59,no=60,missing=60
					59:[CAT_REL<0.014999] yes=119,no=120,missing=120
						119:leaf=0.0385371
						120:leaf=0.0502398
					60:[CAT_REL<0.007999] yes=121,no=122,missing=122
						121:leaf=0.0523117
						122:leaf=0.0635203
				30:[U_KW_LEN<1801] yes=61,no=62,missing=62
					61:[CAT_REL<0.010999] yes=123,no=124,missing=124
						123:leaf=0.0504122
						124:leaf=0.0615242
					62:[CAT_REL<0.003999] yes=125,no=126,missing=126
						125:leaf=0.0613995
						126:leaf=0.0743374
booster[25]:
0:[D_TITLEMD5_COEC<0.141999] yes=1,no=2,missing=1
	1:[C_D_U_TITLEMD5_CATEGORY_MICRO_MAX_COEC<0.094999] yes=3,no=4,missing=3
		3:[DOC_AGE<2] yes=7,no=8,missing=7
			7:[D_TITLEMD5_C<177.198] yes=15,no=16,missing=15
				15:[D_PUBLISHER_COEC<0.121999] yes=31,no=32,missing=32
					31:[C_D_U_CATEGORY_CATEGORY_MICRO_MEAN_COEC<0.119999] yes=63,no=64,missing=63
						63:leaf=-0.00682725
						64:leaf=0.0109082
					32:[DOC_AGE<0.999999] yes=65,no=66,missing=66
						65:leaf=0.0250319
						66:leaf=0.0084962
				16:[CAT_REL<0.001999] yes=33,no=34,missing=34
					33:[C_D_U_TITLEMD5_CATEGORY_MICRO_MAX_COEC<0.035999] yes=67,no=68,missing=68
						67:leaf=-0.006205
						68:leaf=0.0209459
					34:[U_KW_LEN<599] yes=69,no=70,missing=70
						69:leaf=0.0144489
						70:leaf=0.037309
			8:[C_D_U_TITLEMD5_CITY_C<6.808] yes=17,no=18,missing=17
				17:[D_TITLEMD5_COEC<0.025999] yes=35,no=36,missing=36
					35:[CAT_REL<0.095999] yes=71,no=72,missing=72
						71:leaf=-0.0379957
						72:leaf=-0.0129006
					36:[U_KW_LEN<2885] yes=73,no=74,missing=74
						73:leaf=-0.0090061
						74:leaf=0.00412022
				18:[CAT_REL<0.037999] yes=37,no=38,missing=38
					37:[D_CATEGORY_MACRO_MEAN_COEC<0.159999] yes=75,no=76,missing=76
						75:leaf=-0.000249154
						76:leaf=0.0220975
					38:[U_CATEGORY_MACRO_MAX_COEC<0.024999] yes=77,no=78,missing=77
						77:leaf=0.0196462
						78:leaf=0.00305448
		4:[KW_REL<0.003999] yes=9,no=10,missing=10
			9:[D_KEYWORD_MEAN_EC<44139.2] yes=19,no=20,missing=20
				19:[KW_REL<0.000999] yes=39,no=40,missing=40
					39:[C_D_U_TITLEMD5_CATEGORY_MAX_EC<1.003] yes=79,no=80,missing=80
						79:leaf=-0.0358511
						80:leaf=-0.0039566
					40:[U_KW_LEN<3478] yes=81,no=82,missing=82
						81:leaf=0.0162954
						82:leaf=0.0311653
				20:[KW_REL<0.002999] yes=41,no=42,missing=42
					41:[D_KEYWORD_MAX_EC<25095.5] yes=83,no=84,missing=84
						83:leaf=-0.00304574
						84:leaf=-0.021303
					42:[D_KEYWORD_MEAN_EC<80132.8] yes=85,no=86,missing=86
						85:leaf=0.00983614
						86:leaf=-0.012302
			10:[U_KEYWORD_MAX_EC<2367.13] yes=21,no=22,missing=22
				21:[U_KW_LEN<5293] yes=43,no=44,missing=44
					43:[D_KEYWORD_MAX_EC<13254.8] yes=87,no=88,missing=88
						87:leaf=0.046196
						88:leaf=0.0329267
					44:[U_KW_LEN<6827] yes=89,no=90,missing=90
						89:leaf=0.0501473
						90:leaf=0.0655475
				22:[KW_REL<0.005999] yes=45,no=46,missing=46
					45:[D_KEYWORD_MAX_EC<20609.5] yes=91,no=92,missing=92
						91:leaf=0.0299392
						92:leaf=0.0147437
					46:[D_KEYWORD_MACRO_MAX_COEC<0.080999] yes=93,no=94,missing=94
						93:leaf=0.0356394
						94:leaf=-0.0346084
	2:[C_D_U_TITLEMD5_CATEGORY_MICRO_MAX_COEC<0.222999] yes=5,no=6,missing=5
		5:[U_KEYWORD_MEAN_C<2544.28] yes=11,no=12,missing=12
			11:[TIME_OF_DAY<9] yes=23,no=24,missing=24
				23:[KW_REL<0.001999] yes=47,no=48,missing=48
					47:[U_KEYWORD_MICRO_MAX_COEC<0.141999] yes=95,no=96,missing=96
						95:leaf=0.00322002
						96:leaf=0.0205316
					48:[D_KEYWORD_MEAN_C<8173.63] yes=97,no=98,missing=98
						97:leaf=0.0327617
						98:leaf=0.0192788
				24:[D_CATEGORY_MEAN_EC<1.97967e+06] yes=49,no=50,missing=49
					49:[KW_REL<0.001999] yes=99,no=100,missing=100
						99:leaf=0.00832845
						100:leaf=0.022409
					50:[U_KEYWORD_MICRO_MAX_COEC<0.150999] yes=101,no=102,missing=102
						101:leaf=-0.00628409
						102:leaf=0.0272974
			12:[CAT_REL<0.014999] yes=25,no=26,missing=26
				25:[D_KEYWORD_MICRO_MAX_COEC<0.209999] yes=51,no=52,missing=52
					51:[KW_REL<0.001999] yes=103,no=104,missing=104
						103:leaf=0.0107362
						104:leaf=0.0272425
					52:[D_TITLEMD5_COEC<0.317999] yes=105,no=106,missing=106
						105:leaf=0.0298173
						106:leaf=0.0548158
				26:[U_KEYWORD_MAX_EC<2838.09] yes=53,no=54,missing=54
					53:[U_KW_LEN<4218] yes=107,no=108,missing=108
						107:leaf=0.0405813
						108:leaf=0.0544214
					54:[U_KW_LEN<458] yes=109,no=110,missing=110
						109:leaf=0.0172473
						110:leaf=0.0324761
		6:[C_D_U_TITLEMD5_CATEGORY_MICRO_MAX_COEC<0.311999] yes=13,no=14,missing=14
			13:[KW_REL<0.001999] yes=27,no=28,missing=28
				27:[D_KEYWORD_MEAN_EC<28839.7] yes=55,no=56,missing=56
					55:[C_D_U_TITLEMD5_CITY_COEC<0.223999] yes=111,no=112,missing=111
						111:leaf=0.0292602
						112:leaf=0.0426549
					56:[U_KEYWORD_MICRO_MAX_COEC<0.150999] yes=113,no=114,missing=114
						113:leaf=0.0183132
						114:leaf=0.0386524
				28:[DOC_AGE<24] yes=57,no=58,missing=58
					57:[CAT_REL<0.014999] yes=115,no=116,missing=116
						115:leaf=0.0382405
						116:leaf=0.0492437
					58:[TIME_OF_DAY<9] yes=117,no=118,missing=118
						117:leaf=0.0372136
						118:leaf=0.0257982
			14:[KW_REL<0.001999] yes=29,no=30,missing=30
				29:[D_CATEGORY_MACRO_MAX_COEC<0.137999] yes=59,no=60,missing=60
					59:[D_KEYWORD_MICRO_MAX_COEC<0.216999] yes=119,no=120,missing=120
						119:leaf=-0.000762663
						120:leaf=0.030445
					60:[D_KEYWORD_MAX_EC<6473.05] yes=121,no=122,missing=122
						121:leaf=0.056093
						122:leaf=0.0420184
				30:[DOC_AGE<26] yes=61,no=62,missing=62
					61:[D_TITLEMD5_COEC<0.351999] yes=123,no=124,missing=124
						123:leaf=0.0528065
						124:leaf=0.0636012
					62:[KW_REL<0.007999] yes=125,no=126,missing=126
						125:leaf=0.0416429
						126:leaf=-0.0418609
booster[26]:
0:[D_TITLEMD5_COEC<0.168999] yes=1,no=2,missing=1
	1:[C_D_U_TITLEMD5_CATEGORY_MICRO_MAX_COEC<0.117999] yes=3,no=4,missing=3
		3:[U_KW_LEN<4177] yes=7,no=8,missing=8
			7:[U_KEYWORD_MEAN_EC<18322.9] yes=15,no=16,missing=16
				15:[CAT_REL<0.064999] yes=31,no=32,missing=32
					31:[U_KEYWORD_MICRO_MAX_COEC<0.151999] yes=63,no=64,missing=64
						63:leaf=-0.0149023
						64:leaf=0.0222926
					32:[KW_REL<0.005999] yes=65,no=66,missing=66
						65:leaf=0.00258366
						66:leaf=0.0267916
				16:[IMAGE_COUNT<0.999999] yes=33,no=34,missing=34
					33:[D_TITLEMD5_C<4] yes=67,no=68,missing=67
						67:leaf=-0.0509743
						68:leaf=-0.0170777
					34:[DOC_AGE<2] yes=69,no=70,missing=70
						69:leaf=0.0178871
						70:leaf=0.00452522
			8:[U_KW_LEN<6700] yes=17,no=18,missing=17
				17:[D_TITLEMD5_COEC<0.080999] yes=35,no=36,missing=35
					35:[CAT_REL<0.024999] yes=71,no=72,missing=72
						71:leaf=-0.000250296
						72:leaf=0.015905
					36:[CAT_REL<0.014999] yes=73,no=74,missing=74
						73:leaf=0.0163681
						74:leaf=0.0342527
				18:[U_CAT_LEN<42] yes=37,no=38,missing=38
					37:[D_TITLEMD5_COEC<0.080999] yes=75,no=76,missing=75
						75:leaf=0.0333828
						76:leaf=0.051411
					38:[U_CATEGORY_MAX_EC<4372.41] yes=77,no=78,missing=78
						77:leaf=0.106616
						78:leaf=0.0252877
		4:[CAT_REL<0.024999] yes=9,no=10,missing=10
			9:[C_D_U_CATEGORY_CATEGORY_MICRO_MAX_COEC<0.293999] yes=19,no=20,missing=20
				19:[U_KW_LEN<4615] yes=39,no=40,missing=40
					39:[D_TITLEMD5_C<46.53] yes=79,no=80,missing=80
						79:leaf=-0.0324006
						80:leaf=0.00838453
					40:[U_KW_LEN<6700] yes=81,no=82,missing=82
						81:leaf=0.0255293
						82:leaf=0.0497842
				20:[U_KW_LEN<1675] yes=41,no=42,missing=42
					41:[D_KEYWORD_MEAN_EC<27095.4] yes=83,no=84,missing=84
						83:leaf=0.04037
						84:leaf=0.0235139
					42:[D_KEYWORD_MAX_EC<43720.9] yes=85,no=86,missing=86
						85:leaf=0.0530522
						86:leaf=0.0371834
			10:[U_KW_LEN<3190] yes=21,no=22,missing=22
				21:[C_D_U_TITLEMD5_CATEGORY_MAX_EC<1.298] yes=43,no=44,missing=44
					43:[D_TITLEMD5_COEC<0.080999] yes=87,no=88,missing=88
						87:leaf=-0.0388018
						88:leaf=0.00800044
					44:[U_KW_LEN<583] yes=89,no=90,missing=90
						89:leaf=0.0107461
						90:leaf=0.025869
				22:[D_TITLEMD5_C<66.865] yes=45,no=46,missing=46
					45:[D_TITLEMD5_COEC<0.045999] yes=91,no=92,missing=92
						91:leaf=-0.0329014
						92:leaf=0.0212702
					46:[U_KW_LEN<4847] yes=93,no=94,missing=94
						93:leaf=0.0364445
						94:leaf=0.0514851
	2:[D_TITLEMD5_COEC<0.265999] yes=5,no=6,missing=6
		5:[CAT_REL<0.004999] yes=11,no=12,missing=12
			11:[D_CATEGORY_MICRO_MEAN_COEC<0.162999] yes=23,no=24,missing=24
				23:[U_KEYWORD_MEAN_C<1917.39] yes=47,no=48,missing=48
					47:[U_KW_LEN<694] yes=95,no=96,missing=96
						95:leaf=0.0169618
						96:leaf=-0.0189619
					48:[U_KW_LEN<3400] yes=97,no=98,missing=98
						97:leaf=0.0197366
						98:leaf=0.0383815
				24:[U_KEYWORD_MEAN_EC<20611.3] yes=49,no=50,missing=49
					49:[WORD_COUNT<1394] yes=99,no=100,missing=100
						99:leaf=0.0231924
						100:leaf=0.0377021
					50:[TIME_OF_DAY<11] yes=101,no=102,missing=102
						101:leaf=0.0479987
						102:leaf=0.0339589
			12:[U_KW_LEN<1000] yes=25,no=26,missing=26
				25:[WORD_COUNT<928] yes=51,no=52,missing=52
					51:[TIME_OF_DAY<11] yes=103,no=104,missing=104
						103:leaf=0.0232342
						104:leaf=0.0104902
					52:[U_KW_LEN<266] yes=105,no=106,missing=106
						105:leaf=0.0195299
						106:leaf=0.0327037
				26:[U_KW_LEN<2959] yes=53,no=54,missing=54
					53:[CAT_REL<0.039999] yes=107,no=108,missing=108
						107:leaf=0.0318502
						108:leaf=0.0429682
					54:[DOC_AGE<25] yes=109,no=110,missing=110
						109:leaf=0.0514064
						110:leaf=0.0313062
		6:[U_KEYWORD_MEAN_C<2358.82] yes=13,no=14,missing=14
			13:[U_KEYWORD_MICRO_MAX_COEC<0.145999] yes=27,no=28,missing=28
				27:[D_CATEGORY_MEAN_EC<386540] yes=55,no=56,missing=56
					55:[KW_REL<0.001999] yes=111,no=112,missing=112
						111:leaf=0.0363261
						112:leaf=0.0516581
					56:[CAT_REL<0.001999] yes=113,no=114,missing=114
						113:leaf=0.0133205
						114:leaf=0.0346379
				28:[TIME_OF_DAY<9] yes=57,no=58,missing=58
					57:[C_D_U_TITLEMD5_CITY_COEC<0.267999] yes=115,no=116,missing=115
						115:leaf=0.0378852
						116:leaf=0.050431
					58:[U_KEYWORD_MICRO_MAX_COEC<0.150999] yes=117,no=118,missing=118
						117:leaf=0.0278113
						118:leaf=0.045757
			14:[D_TITLEMD5_COEC<0.348999] yes=29,no=30,missing=30
				29:[CAT_REL<0.001999] yes=59,no=60,missing=60
					59:[TIME_OF_DAY<10] yes=119,no=120,missing=120
						119:leaf=0.0445137
						120:leaf=0.0327216
					60:[U_KW_LEN<1928] yes=121,no=122,missing=122
						121:leaf=0.0474957
						122:leaf=0.0600975
				30:[DOC_AGE<24] yes=61,no=62,missing=62
					61:[D_TITLEMD5_C<4] yes=123,no=124,missing=124
						123:leaf=-0.00531316
						124:leaf=0.058829
					62:[WORD_COUNT<1418] yes=125,no=126,missing=126
						125:leaf=0.0365594
						126:leaf=0.0490698
booster[27]:
0:[C_D_U_TITLEMD5_CATEGORY_MICRO_MAX_COEC<0.195999] yes=1,no=2,missing=1
	1:[C_D_U_TITLEMD5_CITY_COEC<0.088999] yes=3,no=4,missing=3
		3:[KW_REL<0.003999] yes=7,no=8,missing=8
			7:[D_KEYWORD_MICRO_MEAN_COEC<0.122999] yes=15,no=16,missing=16
				15:[D_TITLEMD5_C<35.965] yes=31,no=32,missing=31
					31:[IMAGE_COUNT<0.999999] yes=63,no=64,missing=64
						63:leaf=-0.0432414
						64:leaf=-0.01756
					32:[DOC_AGE<3] yes=65,no=66,missing=66
						65:leaf=0.00786482
						66:leaf=-0.0075524
				16:[D_KEYWORD_MAX_EC<17439] yes=33,no=34,missing=33
					33:[KW_REL<0.001999] yes=67,no=68,missing=68
						67:leaf=0.00473684
						68:leaf=0.0190346
					34:[U_KEYWORD_MEAN_EC<20623.1] yes=69,no=70,missing=70
						69:leaf=-0.0148925
						70:leaf=0.00429662
			8:[D_KEYWORD_MEAN_EC<77325.2] yes=17,no=18,missing=17
				17:[U_KW_LEN<1243] yes=35,no=36,missing=35
					35:[U_KW_LEN<256] yes=71,no=72,missing=72
						71:leaf=-0.0138765
						72:leaf=0.0113402
					36:[KW_REL<0.005999] yes=73,no=74,missing=74
						73:leaf=0.0205427
						74:leaf=0.0401292
				18:[D_TITLEMD5_COEC<0.024999] yes=37,no=38,missing=37
					37:[IMAGE_COUNT<0.999999] yes=75,no=76,missing=76
						75:leaf=-0.0547997
						76:leaf=-0.0134036
					38:[KW_REL<0.004999] yes=77,no=78,missing=78
						77:leaf=-0.00142309
						78:leaf=0.0141852
		4:[KW_REL<0.002999] yes=9,no=10,missing=10
			9:[D_KEYWORD_MICRO_MEAN_COEC<0.125999] yes=19,no=20,missing=20
				19:[D_KEYWORD_MEAN_EC<48194.7] yes=39,no=40,missing=40
					39:[KW_REL<0.000999] yes=79,no=80,missing=80
						79:leaf=-0.00522028
						80:leaf=0.0136864
					40:[U_KEYWORD_MACRO_MEAN_COEC<0.035999] yes=81,no=82,missing=82
						81:leaf=-0.0222254
						82:leaf=-0.000904324
				20:[U_KEYWORD_MACRO_MAX_COEC<0.001999] yes=41,no=42,missing=41
					41:[D_TITLEMD5_COEC<0.280999] yes=83,no=84,missing=84
						83:leaf=0.0229467
						84:leaf=0.0454438
					42:[D_KEYWORD_MEAN_EC<33305.2] yes=85,no=86,missing=86
						85:leaf=0.0196862
						86:leaf=0.00469766
			10:[D_KEYWORD_MEAN_EC<69565.9] yes=21,no=22,missing=22
				21:[U_KW_LEN<2256] yes=43,no=44,missing=44
					43:[D_TITLEMD5_COEC<0.127999] yes=87,no=88,missing=88
						87:leaf=0.0178211
						88:leaf=0.0287211
					44:[U_KW_LEN<4972] yes=89,no=90,missing=90
						89:leaf=0.0326528
						90:leaf=0.0474615
				22:[KW_REL<0.003999] yes=45,no=46,missing=46
					45:[D_KEYWORD_MEAN_EC<104622] yes=91,no=92,missing=92
						91:leaf=0.00411426
						92:leaf=-0.031881
					46:[D_KEYWORD_MAX_EC<67989.1] yes=93,no=94,missing=94
						93:leaf=0.0257847
						94:leaf=0.010928
	2:[D_TITLEMD5_COEC<0.307999] yes=5,no=6,missing=6
		5:[KW_REL<0.001999] yes=11,no=12,missing=12
			11:[D_CATEGORY_MACRO_MAX_COEC<0.115999] yes=23,no=24,missing=24
				23:[C_D_U_TITLEMD5_CATEGORY_MAX_EC<1.471] yes=47,no=48,missing=48
					47:[CAT_REL<0.020999] yes=95,no=96,missing=96
						95:leaf=-0.037763
						96:leaf=-0.0043495
					48:[KW_REL<0.000999] yes=97,no=98,missing=98
						97:leaf=-0.00147137
						98:leaf=0.0156106
				24:[D_KEYWORD_MEAN_EC<24619.1] yes=49,no=50,missing=50
					49:[D_TITLEMD5_COEC<0.226999] yes=99,no=100,missing=100
						99:leaf=0.0267842
						100:leaf=0.041072
					50:[U_KEYWORD_MEAN_C<2875.28] yes=101,no=102,missing=102
						101:leaf=0.0129917
						102:leaf=0.0244376
			12:[U_KW_LEN<2885] yes=25,no=26,missing=26
				25:[CAT_REL<0.027999] yes=51,no=52,missing=52
					51:[C_D_U_TITLEMD5_CITY_COEC<0.208999] yes=103,no=104,missing=103
						103:leaf=0.0199994
						104:leaf=0.0314667
					52:[U_KW_LEN<341] yes=105,no=106,missing=106
						105:leaf=0.0208621
						106:leaf=0.0382187
				26:[C_D_U_TITLEMD5_CATEGORY_MAX_C<0.135999] yes=53,no=54,missing=54
					53:[D_TITLEMD5_COEC<0.091999] yes=107,no=108,missing=108
						107:leaf=-0.00195935
						108:leaf=0.028516
					54:[U_KW_LEN<4972] yes=109,no=110,missing=110
						109:leaf=0.0420474
						110:leaf=0.0567495
		6:[U_KEYWORD_MEAN_C<2673.61] yes=13,no=14,missing=14
			13:[TIME_OF_DAY<11] yes=27,no=28,missing=28
				27:[U_KEYWORD_MEAN_C<1989.17] yes=55,no=56,missing=56
					55:[U_KW_LEN<796] yes=111,no=112,missing=112
						111:leaf=0.0403196
						112:leaf=0.0190317
					56:[C_D_U_TITLEMD5_CATEGORY_MICRO_MAX_COEC<0.404999] yes=113,no=114,missing=114
						113:leaf=0.044336
						114:leaf=0.0568747
				28:[CAT_REL<0.021999] yes=57,no=58,missing=58
					57:[U_KW_LEN<656] yes=115,no=116,missing=116
						115:leaf=0.0299285
						116:leaf=0.0126137
					58:[DOC_AGE<25] yes=117,no=118,missing=118
						117:leaf=0.0431867
						118:leaf=0.0223099
			14:[DOC_AGE<26] yes=29,no=30,missing=30
				29:[CAT_REL<0.001999] yes=59,no=60,missing=60
					59:[U_KEYWORD_MACRO_MAX_COEC<0.001999] yes=119,no=120,missing=120
						119:leaf=0.0625147
						120:leaf=0.0447296
					60:[C_D_U_TITLEMD5_CATEGORY_MICRO_MAX_COEC<0.404999] yes=121,no=122,missing=122
						121:leaf=0.0567626
						122:leaf=0.0674182
				30:[DOC_AGE<55] yes=61,no=62,missing=62
					61:[DAY_OF_WEEK<4] yes=123,no=124,missing=124
						123:leaf=0.0470319
						124:leaf=0.0350071
					62:[KW_REL<0.013999] yes=125,no=126,missing=126
						125:leaf=0.0188312
						126:leaf=-0.210794
booster[28]:
0:[D_TITLEMD5_COEC<0.174999] yes=1,no=2,missing=1
	1:[C_D_U_TITLEMD5_CATEGORY_MICRO_MAX_COEC<0.119999] yes=3,no=4,missing=3
		3:[U_KW_LEN<5282] yes=7,no=8,missing=7
			7:[CAT_REL<0.057999] yes=15,no=16,missing=16
				15:[U_KEYWORD_MEAN_EC<16166.6] yes=31,no=32,missing=32
					31:[U_KEYWORD_MACRO_MEAN_COEC<0.033999] yes=63,no=64,missing=64
						63:leaf=-0.0222247
						64:leaf=0.00133018
					32:[D_CATEGORY_MACRO_MEAN_COEC<0.136999] yes=65,no=66,missing=66
						65:leaf=-0.00259407
						66:leaf=0.00908825
				16:[U_KW_LEN<534] yes=33,no=34,missing=34
					33:[U_KEYWORD_MICRO_MAX_COEC<0.150999] yes=67,no=68,missing=68
						67:leaf=-0.00861695
						68:leaf=0.0176647
					34:[D_TITLEMD5_COEC<0.079999] yes=69,no=70,missing=69
						69:leaf=0.00681057
						70:leaf=0.0208102
			8:[U_KW_LEN<6827] yes=17,no=18,missing=18
				17:[D_TITLEMD5_COEC<0.090999] yes=35,no=36,missing=35
					35:[CAT_REL<0.017999] yes=71,no=72,missing=72
						71:leaf=0.00519287
						72:leaf=0.0227882
					36:[CAT_REL<0.024999] yes=73,no=74,missing=74
						73:leaf=0.0253139
						74:leaf=0.0429728
				18:[U_CAT_LEN<42] yes=37,no=38,missing=38
					37:[CAT_REL<0.044999] yes=75,no=76,missing=76
						75:leaf=0.0338689
						76:leaf=0.056017
					38:[U_CATEGORY_MAX_EC<4884.74] yes=77,no=78,missing=78
						77:leaf=0.101113
						78:leaf=0.028726
		4:[KW_REL<0.000999] yes=9,no=10,missing=10
			9:[D_CATEGORY_MICRO_MEAN_COEC<0.120999] yes=19,no=20,missing=20
				19:[IMAGE_COUNT<0.999999] yes=39,no=40,missing=40
					39:[WORD_COUNT<2119] yes=79,no=80,missing=80
						79:leaf=-0.0723607
						80:leaf=-0.156875
					40:[D_KEYWORD_MACRO_MAX_COEC<0.066999] yes=81,no=82,missing=82
						81:leaf=-0.0142909
						82:leaf=-0.110541
				20:[D_CATEGORY_MEAN_EC<1.29277e+06] yes=41,no=42,missing=41
					41:[D_CATEGORY_MICRO_MAX_COEC<0.130999] yes=83,no=84,missing=84
						83:leaf=-0.00236748
						84:leaf=0.0158033
					42:[D_KEYWORD_MEAN_C<2129.58] yes=85,no=86,missing=86
						85:leaf=0.00462524
						86:leaf=-0.0204926
			10:[CAT_REL<0.053999] yes=21,no=22,missing=22
				21:[U_KW_LEN<4361] yes=43,no=44,missing=44
					43:[C_D_U_TITLEMD5_CATEGORY_MAX_EC<0.732999] yes=87,no=88,missing=88
						87:leaf=-0.0163126
						88:leaf=0.0121934
					44:[D_TITLEMD5_COEC<0.066999] yes=89,no=90,missing=90
						89:leaf=-0.0121027
						90:leaf=0.0325196
				22:[U_KW_LEN<1683] yes=45,no=46,missing=46
					45:[U_KW_LEN<345] yes=91,no=92,missing=92
						91:leaf=0.00563128
						92:leaf=0.0221242
					46:[D_KEYWORD_MICRO_MEAN_COEC<0.109999] yes=93,no=94,missing=94
						93:leaf=0.0210424
						94:leaf=0.0353866
	2:[C_D_U_TITLEMD5_CITY_COEC<0.247999] yes=5,no=6,missing=5
		5:[CAT_REL<0.006999] yes=11,no=12,missing=12
			11:[U_KEYWORD_MEAN_C<2815.51] yes=23,no=24,missing=24
				23:[TIME_OF_DAY<9] yes=47,no=48,missing=48
					47:[U_KEYWORD_MEAN_C<1842.94] yes=95,no=96,missing=96
						95:leaf=0.0101493
						96:leaf=0.0245331
					48:[U_KEYWORD_MACRO_MEAN_COEC<0.035999] yes=97,no=98,missing=98
						97:leaf=-0.00586406
						98:leaf=0.0145147
				24:[U_KEYWORD_MAX_EC<2595.03] yes=49,no=50,missing=50
					49:[U_KW_LEN<4672] yes=99,no=100,missing=100
						99:leaf=0.0327573
						100:leaf=0.0503674
					50:[D_CATEGORY_MACRO_MAX_COEC<0.177999] yes=101,no=102,missing=102
						101:leaf=0.0184579
						102:leaf=0.0334884
			12:[U_KW_LEN<1472] yes=25,no=26,missing=26
				25:[WORD_COUNT<1111] yes=51,no=52,missing=52
					51:[U_KEYWORD_MACRO_MAX_COEC<0.002999] yes=103,no=104,missing=104
						103:leaf=0.022726
						104:leaf=0.0106351
					52:[KW_REL<0.001999] yes=105,no=106,missing=106
						105:leaf=0.0219072
						106:leaf=0.0332262
				26:[DOC_AGE<22] yes=53,no=54,missing=54
					53:[D_TITLEMD5_C<4] yes=107,no=108,missing=108
						107:leaf=-0.00939497
						108:leaf=0.0418346
					54:[DOC_AGE<55] yes=109,no=110,missing=110
						109:leaf=0.0282938
						110:leaf=0.00237917
		6:[U_KEYWORD_MEAN_C<2763.28] yes=13,no=14,missing=13
			13:[TIME_OF_DAY<9] yes=27,no=28,missing=28
				27:[U_KEYWORD_MEAN_C<1897.29] yes=55,no=56,missing=56
					55:[U_KEYWORD_MACRO_MEAN_COEC<0.033999] yes=111,no=112,missing=112
						111:leaf=0.0141926
						112:leaf=0.0373064
					56:[D_TITLEMD5_COEC<0.345999] yes=113,no=114,missing=114
						113:leaf=0.0380053
						114:leaf=0.0504313
				28:[C_D_U_TITLEMD5_CATEGORY_MICRO_MAX_COEC<0.325999] yes=57,no=58,missing=58
					57:[U_KEYWORD_MICRO_MAX_COEC<0.147999] yes=115,no=116,missing=116
						115:leaf=0.0108472
						116:leaf=0.0269799
					58:[D_CATEGORY_MACRO_MAX_COEC<0.177999] yes=117,no=118,missing=117
						117:leaf=0.028469
						118:leaf=0.0445524
			14:[C_D_U_TITLEMD5_CATEGORY_MICRO_MAX_COEC<0.325999] yes=29,no=30,missing=29
				29:[U_KEYWORD_MAX_EC<2622.57] yes=59,no=60,missing=60
					59:[DOC_AGE<23] yes=119,no=120,missing=120
						119:leaf=0.0502784
						120:leaf=0.0380632
					60:[CAT_REL<0.017999] yes=121,no=122,missing=122
						121:leaf=0.0308102
						122:leaf=0.0443611
				30:[U_KW_LEN<2268] yes=61,no=62,missing=62
					61:[CAT_REL<0.014999] yes=123,no=124,missing=124
						123:leaf=0.0432202
						124:leaf=0.0541627
					62:[C_D_U_TITLEMD5_CATEGORY_MICRO_MAX_COEC<0.402999] yes=125,no=126,missing=126
						125:leaf=0.0574698
						126:leaf=0.0686489
booster[29]:
0:[D_TITLEMD5_COEC<0.126999] yes=1,no=2,missing=1
	1:[U_KW_LEN<2507] yes=3,no=4,missing=4
		3:[CAT_REL<0.075999] yes=7,no=8,missing=8
			7:[C_D_U_TITLEMD5_CITY_C<3.985] yes=15,no=16,missing=15
				15:[IMAGE_COUNT<0.999999] yes=31,no=32,missing=32
					31:[D_TITLEMD5_C<3.995] yes=63,no=64,missing=63
						63:leaf=-0.0616397
						64:leaf=-0.0351458
					32:[D_TITLEMD5_COEC<0.061999] yes=65,no=66,missing=66
						65:leaf=-0.0181563
						66:leaf=-0.00537094
				16:[DOC_AGE<3] yes=33,no=34,missing=34
					33:[TIME_OF_DAY<5] yes=67,no=68,missing=68
						67:leaf=0.0313695
						68:leaf=0.00896957
					34:[D_CATEGORY_MICRO_MEAN_COEC<0.173999] yes=69,no=70,missing=70
						69:leaf=-0.00237329
						70:leaf=0.0251123
			8:[U_KW_LEN<445] yes=17,no=18,missing=18
				17:[U_KEYWORD_MICRO_MAX_COEC<0.150999] yes=35,no=36,missing=36
					35:[U_KW_LEN<156] yes=71,no=72,missing=72
						71:leaf=-0.0239437
						72:leaf=-0.00493346
					36:[U_KW_LEN<112] yes=73,no=74,missing=74
						73:leaf=-0.00654281
						74:leaf=0.0180188
				18:[KW_REL<0.006999] yes=37,no=38,missing=38
					37:[IMAGE_COUNT<0.999999] yes=75,no=76,missing=76
						75:leaf=-0.0167195
						76:leaf=0.0126496
					38:[DOC_AGE<12] yes=77,no=78,missing=78
						77:leaf=0.0447588
						78:leaf=0.0190032
		4:[C_D_U_TITLEMD5_CATEGORY_MAX_C<0.326999] yes=9,no=10,missing=9
			9:[U_KW_LEN<5767] yes=19,no=20,missing=19
				19:[D_CATEGORY_MACRO_MEAN_COEC<0.112999] yes=39,no=40,missing=40
					39:[CAT_REL<0.057999] yes=79,no=80,missing=80
						79:leaf=-0.0114705
						80:leaf=0.00747796
					40:[CAT_REL<0.020999] yes=81,no=82,missing=81
						81:leaf=0.00205134
						82:leaf=0.0179683
				20:[U_CAT_LEN<46] yes=41,no=42,missing=42
					41:[CAT_REL<0.015999] yes=83,no=84,missing=84
						83:leaf=0.0138561
						84:leaf=0.030958
					42:[U_CATEGORY_MAX_EC<4630.65] yes=85,no=86,missing=85
						85:leaf=0.101981
						86:leaf=0.00303516
			10:[CAT_REL<0.069999] yes=21,no=22,missing=22
				21:[D_CATEGORY_MICRO_MEAN_COEC<0.117999] yes=43,no=44,missing=44
					43:[U_KW_LEN<4851] yes=87,no=88,missing=88
						87:leaf=0.000602135
						88:leaf=0.0219372
					44:[D_KEYWORD_MAX_C<1801.03] yes=89,no=90,missing=90
						89:leaf=0.0270592
						90:leaf=0.0145089
				22:[D_KEYWORD_MICRO_MEAN_COEC<0.114999] yes=45,no=46,missing=46
					45:[KW_REL<0.005999] yes=91,no=92,missing=92
						91:leaf=0.0175376
						92:leaf=0.0426238
					46:[U_KEYWORD_MACRO_MEAN_COEC<0.025999] yes=93,no=94,missing=94
						93:leaf=0.0453849
						94:leaf=0.0302355
	2:[C_D_U_TITLEMD5_CATEGORY_MICRO_MAX_COEC<0.218999] yes=5,no=6,missing=5
		5:[U_KEYWORD_MEAN_C<2314.8] yes=11,no=12,missing=12
			11:[U_KEYWORD_MICRO_MAX_COEC<0.150999] yes=23,no=24,missing=24
				23:[D_CATEGORY_MEAN_EC<3.76926e+06] yes=47,no=48,missing=47
					47:[KW_REL<0.001999] yes=95,no=96,missing=96
						95:leaf=-0.000547321
						96:leaf=0.0152014
					48:[U_KW_LEN<790] yes=97,no=98,missing=98
						97:leaf=-0.00363753
						98:leaf=-0.0278192
				24:[D_KEYWORD_MICRO_MAX_COEC<0.191999] yes=49,no=50,missing=50
					49:[U_KW_LEN<215] yes=99,no=100,missing=100
						99:leaf=0.0149864
						100:leaf=0.0260678
					50:[U_CITY_COEC<0.130999] yes=101,no=102,missing=101
						101:leaf=0.0281152
						102:leaf=0.0375108
			12:[U_KEYWORD_MAX_EC<2447.33] yes=25,no=26,missing=26
				25:[U_KW_LEN<5285] yes=51,no=52,missing=52
					51:[CAT_REL<0.015999] yes=103,no=104,missing=104
						103:leaf=0.0221436
						104:leaf=0.0341386
					52:[U_KW_LEN<6633] yes=105,no=106,missing=106
						105:leaf=0.0412329
						106:leaf=0.0577333
				26:[D_KEYWORD_MICRO_MAX_COEC<0.210999] yes=53,no=54,missing=54
					53:[CAT_REL<0.023999] yes=107,no=108,missing=108
						107:leaf=0.00724752
						108:leaf=0.0212001
					54:[U_KEYWORD_MEAN_C<3086.6] yes=109,no=110,missing=110
						109:leaf=0.0135452
						110:leaf=0.0258789
		6:[KW_REL<0.001999] yes=13,no=14,missing=14
			13:[D_KEYWORD_MAX_EC<8843.83] yes=27,no=28,missing=28
				27:[D_TITLEMD5_COEC<0.233999] yes=55,no=56,missing=56
					55:[D_CATEGORY_MICRO_MAX_COEC<0.108999] yes=111,no=112,missing=112
						111:leaf=-0.0043916
						112:leaf=0.022541
					56:[KW_REL<0.000999] yes=113,no=114,missing=114
						113:leaf=0.0238062
						114:leaf=0.0392765
				28:[D_KEYWORD_MACRO_MEAN_COEC<0.142999] yes=57,no=58,missing=58
					57:[D_KEYWORD_MAX_EC<17436.9] yes=115,no=116,missing=116
						115:leaf=0.0120774
						116:leaf=-0.0096104
					58:[U_KEYWORD_MEAN_C<2947.71] yes=117,no=118,missing=118
						117:leaf=0.0154639
						118:leaf=0.0269169
			14:[C_D_U_TITLEMD5_CATEGORY_MICRO_MAX_COEC<0.324999] yes=29,no=30,missing=30
				29:[U_KW_LEN<2656] yes=59,no=60,missing=60
					59:[CAT_REL<0.026999] yes=119,no=120,missing=120
						119:leaf=0.0244567
						120:leaf=0.0343389
					60:[U_KW_LEN<5285] yes=121,no=122,missing=122
						121:leaf=0.0388377
						122:leaf=0.0556995
				30:[DOC_AGE<24] yes=61,no=62,missing=62
					61:[D_TITLEMD5_C<87.1] yes=123,no=124,missing=124
						123:leaf=0.0226883
						124:leaf=0.0497743
					62:[KW_REL<0.008999] yes=125,no=126,missing=126
						125:leaf=0.033175
						126:leaf=-0.0637962
booster[30]:
0:[D_TITLEMD5_COEC<0.129999] yes=1,no=2,missing=1
	1:[KW_REL<0.001999] yes=3,no=4,missing=4
		3:[C_D_U_TITLEMD5_CITY_C<0.984999] yes=7,no=8,missing=7
			7:[IMAGE_COUNT<0.999999] yes=15,no=16,missing=16
				15:[D_CATEGORY_MACRO_MAX_COEC<0.104999] yes=31,no=32,missing=31
					31:[D_TITLEMD5_EC<181.046] yes=63,no=64,missing=63
						63:leaf=-0.0649982
						64:leaf=-0.0393438
					32:[DOC_AGE<4] yes=65,no=66,missing=66
						65:leaf=-0.0116974
						66:leaf=-0.034839
				16:[D_TITLEMD5_COEC<0.072999] yes=33,no=34,missing=33
					33:[D_CATEGORY_MICRO_MAX_COEC<0.160999] yes=67,no=68,missing=68
						67:leaf=-0.018701
						68:leaf=0.0119723
					34:[D_KEYWORD_MEAN_EC<35131.5] yes=69,no=70,missing=70
						69:leaf=-0.000969297
						70:leaf=-0.0151378
			8:[D_KEYWORD_MEAN_EC<34138.2] yes=17,no=18,missing=18
				17:[D_CATEGORY_MICRO_MEAN_COEC<0.120999] yes=35,no=36,missing=36
					35:[IMAGE_COUNT<0.999999] yes=71,no=72,missing=72
						71:leaf=-0.0325983
						72:leaf=-0.000139356
					36:[DOC_AGE<3] yes=73,no=74,missing=74
						73:leaf=0.0205031
						74:leaf=0.00737906
				18:[U_KEYWORD_MACRO_MEAN_COEC<0.035999] yes=37,no=38,missing=38
					37:[U_KEYWORD_MEAN_EC<21733.6] yes=75,no=76,missing=76
						75:leaf=-0.0322459
						76:leaf=-0.00892736
					38:[DAY_OF_WEEK<6] yes=77,no=78,missing=78
						77:leaf=-0.0020713
						78:leaf=0.0156832
		4:[D_KEYWORD_MEAN_EC<36222.7] yes=9,no=10,missing=10
			9:[D_KEYWORD_MICRO_MEAN_COEC<0.109999] yes=19,no=20,missing=20
				19:[KW_REL<0.004999] yes=39,no=40,missing=40
					39:[D_KEYWORD_MAX_EC<6707.93] yes=79,no=80,missing=80
						79:leaf=0.0168887
						80:leaf=-0.00172396
					40:[U_KW_LEN<206] yes=81,no=82,missing=82
						81:leaf=-0.0244893
						82:leaf=0.0302341
				20:[U_KEYWORD_MACRO_MAX_COEC<0.001999] yes=41,no=42,missing=42
					41:[D_KEYWORD_MEAN_EC<20585.4] yes=83,no=84,missing=84
						83:leaf=0.0394061
						84:leaf=0.0254375
					42:[D_KEYWORD_MAX_EC<6133.88] yes=85,no=86,missing=86
						85:leaf=0.0279118
						86:leaf=0.0145225
			10:[KW_REL<0.003999] yes=21,no=22,missing=22
				21:[D_KEYWORD_MEAN_EC<57068.5] yes=43,no=44,missing=43
					43:[U_KEYWORD_MEAN_C<2433.7] yes=87,no=88,missing=88
						87:leaf=-0.0110909
						88:leaf=0.00569141
					44:[D_KEYWORD_MEAN_EC<80232.3] yes=89,no=90,missing=90
						89:leaf=-0.0102483
						90:leaf=-0.0268971
				22:[D_TITLEMD5_COEC<0.084999] yes=45,no=46,missing=45
					45:[WORD_COUNT<805] yes=91,no=92,missing=92
						91:leaf=-0.0106489
						92:leaf=0.00725463
					46:[U_KW_LEN<2815] yes=93,no=94,missing=94
						93:leaf=0.0142187
						94:leaf=0.0287254
	2:[D_TITLEMD5_COEC<0.233999] yes=5,no=6,missing=6
		5:[CAT_REL<0.014999] yes=11,no=12,missing=12
			11:[D_CATEGORY_MACRO_MEAN_COEC<0.179999] yes=23,no=24,missing=24
				23:[KW_REL<0.002999] yes=47,no=48,missing=48
					47:[U_KEYWORD_MACRO_MAX_COEC<0.001999] yes=95,no=96,missing=95
						95:leaf=0.0124614
						96:leaf=0.00132707
					48:[D_KEYWORD_MAX_C<5845.11] yes=97,no=98,missing=98
						97:leaf=0.0235451
						98:leaf=0.00550386
				24:[U_CAT_LEN<15] yes=49,no=50,missing=50
					49:[D_KEYWORD_MICRO_MAX_COEC<0.208999] yes=99,no=100,missing=100
						99:leaf=0.0142207
						100:leaf=0.0292429
					50:[D_CATEGORY_MEAN_C<62271.1] yes=101,no=102,missing=102
						101:leaf=-0.0155986
						102:leaf=0.0378853
			12:[U_KW_LEN<1896] yes=25,no=26,missing=26
				25:[U_KW_LEN<535] yes=51,no=52,missing=52
					51:[U_KEYWORD_MICRO_MAX_COEC<0.150999] yes=103,no=104,missing=104
						103:leaf=0.00756986
						104:leaf=0.0253936
					52:[CAT_REL<0.066999] yes=105,no=106,missing=106
						105:leaf=0.0160728
						106:leaf=0.0281054
				26:[WORD_COUNT<1086] yes=53,no=54,missing=54
					53:[D_KEYWORD_MICRO_MEAN_COEC<0.125999] yes=107,no=108,missing=108
						107:leaf=0.0166883
						108:leaf=0.0281209
					54:[CAT_REL<0.062999] yes=109,no=110,missing=110
						109:leaf=0.031084
						110:leaf=0.0423402
		6:[U_KEYWORD_MEAN_C<2639.42] yes=13,no=14,missing=14
			13:[TIME_OF_DAY<11] yes=27,no=28,missing=28
				27:[C_D_U_TITLEMD5_CITY_COEC<0.275999] yes=55,no=56,missing=55
					55:[U_KEYWORD_MICRO_MEAN_COEC<0.139999] yes=111,no=112,missing=112
						111:leaf=0.0187394
						112:leaf=0.0342685
					56:[C_D_U_TITLEMD5_CATEGORY_MICRO_MAX_COEC<0.400999] yes=113,no=114,missing=113
						113:leaf=0.031044
						114:leaf=0.0473027
				28:[U_KW_LEN<647] yes=57,no=58,missing=58
					57:[D_CATEGORY_MAX_EC<373467] yes=115,no=116,missing=116
						115:leaf=0.0351854
						116:leaf=0.0152832
					58:[U_KEYWORD_MEAN_C<1779.81] yes=117,no=118,missing=118
						117:leaf=-0.0303778
						118:leaf=0.0058248
			14:[U_KW_LEN<2165] yes=29,no=30,missing=30
				29:[D_TITLEMD5_COEC<0.301999] yes=59,no=60,missing=60
					59:[CAT_REL<0.014999] yes=119,no=120,missing=120
						119:leaf=0.0233295
						120:leaf=0.0356885
					60:[DOC_AGE<24] yes=121,no=122,missing=122
						121:leaf=0.0427
						122:leaf=0.0285918
				30:[C_D_U_TITLEMD5_CATEGORY_MICRO_MAX_COEC<0.353999] yes=61,no=62,missing=61
					61:[CAT_REL<0.009999] yes=123,no=124,missing=124
						123:leaf=0.0383237
						124:leaf=0.0495115
					62:[C_D_U_TITLEMD5_CATEGORY_MICRO_MAX_COEC<0.400999] yes=125,no=126,missing=126
						125:leaf=0.051873
						126:leaf=0.0618686
booster[31]:
0:[D_TITLEMD5_COEC<0.172999] yes=1,no=2,missing=1
	1:[KW_REL<0.001999] yes=3,no=4,missing=4
		3:[D_CATEGORY_MACRO_MAX_COEC<0.118999] yes=7,no=8,missing=8
			7:[IMAGE_COUNT<0.999999] yes=15,no=16,missing=16
				15:[WORD_COUNT<1111] yes=31,no=32,missing=32
					31:[D_KEYWORD_MICRO_MAX_COEC<0.157999] yes=63,no=64,missing=64
						63:leaf=-0.0654611
						64:leaf=-0.0352023
					32:[D_PUBLISHER_COEC<0.118999] yes=65,no=66,missing=65
						65:leaf=-0.022661
						66:leaf=-0.0772623
				16:[D_KEYWORD_MICRO_MEAN_COEC<0.132999] yes=33,no=34,missing=34
					33:[D_KEYWORD_MAX_C<2824.43] yes=67,no=68,missing=68
						67:leaf=-0.00536873
						68:leaf=-0.0249068
					34:[D_TITLEMD5_COEC<0.044999] yes=69,no=70,missing=70
						69:leaf=-0.0190242
						70:leaf=0.00697626
			8:[D_CATEGORY_MEAN_EC<2.91858e+06] yes=17,no=18,missing=17
				17:[KW_REL<0.000999] yes=35,no=36,missing=36
					35:[D_KEYWORD_MICRO_MEAN_COEC<0.148999] yes=71,no=72,missing=72
						71:leaf=0.000328547
						72:leaf=0.0179967
					36:[D_KEYWORD_MEAN_C<4776.05] yes=73,no=74,missing=73
						73:leaf=0.0186444
						74:leaf=-0.00389459
				18:[U_KEYWORD_MEAN_C<2178.76] yes=37,no=38,missing=38
					37:[U_KW_LEN<731] yes=75,no=76,missing=76
						75:leaf=-0.00750835
						76:leaf=-0.0458302
					38:[DOC_AGE<3] yes=77,no=78,missing=78
						77:leaf=0.0124432
						78:leaf=-0.00280515
		4:[D_KEYWORD_MAX_EC<14493.9] yes=9,no=10,missing=10
			9:[D_TITLEMD5_C<131.252] yes=19,no=20,missing=19
				19:[D_KEYWORD_MEAN_EC<13729.3] yes=39,no=40,missing=40
					39:[U_KEYWORD_MACRO_MEAN_COEC<0.027999] yes=79,no=80,missing=80
						79:leaf=0.0348174
						80:leaf=0.0150705
					40:[DOC_AGE<2] yes=81,no=82,missing=82
						81:leaf=0.0125478
						82:leaf=-0.00232976
				20:[U_KEYWORD_MACRO_MAX_COEC<0.001999] yes=41,no=42,missing=42
					41:[D_CATEGORY_MACRO_MEAN_COEC<0.106999] yes=83,no=84,missing=84
						83:leaf=0.0236529
						84:leaf=0.0346711
					42:[CAT_REL<0.073999] yes=85,no=86,missing=86
						85:leaf=0.0140882
						86:leaf=0.0244135
			10:[KW_REL<0.003999] yes=21,no=22,missing=22
				21:[D_KEYWORD_MEAN_EC<71982.9] yes=43,no=44,missing=43
					43:[IMAGE_COUNT<0.999999] yes=87,no=88,missing=88
						87:leaf=-0.0230701
						88:leaf=0.00280523
					44:[D_KEYWORD_MEAN_EC<104607] yes=89,no=90,missing=90
						89:leaf=-0.0138475
						90:leaf=-0.0399502
				22:[D_TITLEMD5_COEC<0.083999] yes=45,no=46,missing=45
					45:[U_KW_LEN<1890] yes=91,no=92,missing=92
						91:leaf=-0.00543097
						92:leaf=0.00850885
					46:[U_KW_LEN<1976] yes=93,no=94,missing=94
						93:leaf=0.0138196
						94:leaf=0.0255954
	2:[C_D_U_TITLEMD5_CITY_COEC<0.252999] yes=5,no=6,missing=5
		5:[CAT_REL<0.001999] yes=11,no=12,missing=12
			11:[TIME_OF_DAY<10] yes=23,no=24,missing=24
				23:[U_KEYWORD_MEAN_C<1844.09] yes=47,no=48,missing=48
					47:[U_KW_LEN<698] yes=95,no=96,missing=96
						95:leaf=0.0171992
						96:leaf=-0.0174861
					48:[D_KEYWORD_MICRO_MAX_COEC<0.197999] yes=97,no=98,missing=98
						97:leaf=0.0133774
						98:leaf=0.0250168
				24:[U_KEYWORD_MEAN_C<3118.6] yes=49,no=50,missing=50
					49:[U_KW_LEN<4612] yes=99,no=100,missing=100
						99:leaf=-0.00270396
						100:leaf=0.0316523
					50:[U_KW_LEN<2406] yes=101,no=102,missing=102
						101:leaf=0.0139108
						102:leaf=0.0294462
			12:[U_KW_LEN<2406] yes=25,no=26,missing=26
				25:[WORD_COUNT<1111] yes=51,no=52,missing=52
					51:[U_KEYWORD_MEAN_C<2636.89] yes=103,no=104,missing=104
						103:leaf=0.00763306
						104:leaf=0.019294
					52:[KW_REL<0.002999] yes=105,no=106,missing=106
						105:leaf=0.021064
						106:leaf=0.0309624
				26:[DOC_AGE<23] yes=53,no=54,missing=54
					53:[D_KEYWORD_MACRO_MEAN_COEC<0.085999] yes=107,no=108,missing=108
						107:leaf=-0.0100193
						108:leaf=0.0385133
					54:[DOC_AGE<55] yes=109,no=110,missing=110
						109:leaf=0.0221958
						110:leaf=-0.00616418
		6:[U_KEYWORD_MEAN_C<2755.11] yes=13,no=14,missing=13
			13:[D_CATEGORY_MAX_EC<432817] yes=27,no=28,missing=28
				27:[C_D_U_TITLEMD5_CATEGORY_MICRO_MAX_COEC<0.398999] yes=55,no=56,missing=56
					55:[DOC_AGE<49] yes=111,no=112,missing=112
						111:leaf=0.0324094
						112:leaf=0.00525708
					56:[WORD_COUNT<1345] yes=113,no=114,missing=114
						113:leaf=0.0210737
						114:leaf=0.0478514
				28:[TIME_OF_DAY<12] yes=57,no=58,missing=58
					57:[U_KEYWORD_MEAN_C<1989.07] yes=115,no=116,missing=116
						115:leaf=0.0175687
						116:leaf=0.0306716
					58:[U_KEYWORD_MICRO_MAX_COEC<0.148999] yes=117,no=118,missing=118
						117:leaf=0.00395001
						118:leaf=0.0222806
			14:[C_D_U_TITLEMD5_CATEGORY_MICRO_MAX_COEC<0.398999] yes=29,no=30,missing=29
				29:[TIME_OF_DAY<10] yes=59,no=60,missing=60
					59:[U_CAT_LEN<11] yes=119,no=120,missing=120
						119:leaf=0.0321824
						120:leaf=0.045173
					60:[DOC_AGE<12] yes=121,no=122,missing=122
						121:leaf=0.0351973
						122:leaf=0.0206505
				30:[DOC_AGE<23] yes=61,no=62,missing=62
					61:[CAT_REL<0.001999] yes=123,no=124,missing=124
						123:leaf=0.0491138
						124:leaf=0.0597285
					62:[DOC_AGE<55] yes=125,no=126,missing=126
						125:leaf=0.0398467
						126:leaf=0.0122151
booster[32]:
0:[C_D_U_TITLEMD5_CITY_COEC<0.136999] yes=1,no=2,missing=1
	1:[KW_REL<0.002999] yes=3,no=4,missing=3
		3:[D_KEYWORD_MAX_EC<20649] yes=7,no=8,missing=7
			7:[D_CATEGORY_MICRO_MEAN_COEC<0.115999] yes=15,no=16,missing=16
				15:[IMAGE_COUNT<0.999999] yes=31,no=32,missing=32
					31:[C_D_U_TITLEMD5_CATEGORY_MACRO_MAX_COEC<0.011999] yes=63,no=64,missing=64
						63:leaf=-0.0193593
						64:leaf=-0.0395006
					32:[CAT_REL<0.074999] yes=65,no=66,missing=66
						65:leaf=-0.00499206
						66:leaf=0.0083642
				16:[U_KEYWORD_MACRO_MAX_COEC<0.001999] yes=33,no=34,missing=34
					33:[CAT_REL<0.020999] yes=67,no=68,missing=68
						67:leaf=0.0128205
						68:leaf=0.0266633
					34:[D_CATEGORY_MEAN_EC<1.36722e+06] yes=69,no=70,missing=69
						69:leaf=0.0111612
						70:leaf=0.000339429
			8:[D_KEYWORD_MACRO_MEAN_COEC<0.117999] yes=17,no=18,missing=18
				17:[U_KEYWORD_MACRO_MEAN_COEC<0.035999] yes=35,no=36,missing=36
					35:[D_KEYWORD_MEAN_C<6870.98] yes=71,no=72,missing=72
						71:leaf=-0.0148148
						72:leaf=-0.0353383
					36:[DAY_OF_WEEK<6] yes=73,no=74,missing=74
						73:leaf=-0.011059
						74:leaf=0.00752703
				18:[U_KEYWORD_MICRO_MAX_COEC<0.150999] yes=37,no=38,missing=38
					37:[WORD_COUNT<488] yes=75,no=76,missing=76
						75:leaf=-0.0315845
						76:leaf=-0.00254954
					38:[WORD_COUNT<1366] yes=77,no=78,missing=78
						77:leaf=0.00697353
						78:leaf=0.0280653
		4:[D_KEYWORD_MAX_EC<17499.3] yes=9,no=10,missing=9
			9:[D_KEYWORD_MICRO_MEAN_COEC<0.113999] yes=19,no=20,missing=20
				19:[KW_REL<0.004999] yes=39,no=40,missing=40
					39:[D_TITLEMD5_C<84.967] yes=79,no=80,missing=79
						79:leaf=-0.00406735
						80:leaf=0.0112417
					40:[U_KW_LEN<243] yes=81,no=82,missing=82
						81:leaf=-0.0207215
						82:leaf=0.0250327
				20:[U_KW_LEN<1476] yes=41,no=42,missing=42
					41:[U_KW_LEN<243] yes=83,no=84,missing=84
						83:leaf=-0.00511429
						84:leaf=0.0164546
					42:[D_KEYWORD_MEAN_EC<24568.7] yes=85,no=86,missing=85
						85:leaf=0.040424
						86:leaf=0.0233804
			10:[KW_REL<0.004999] yes=21,no=22,missing=22
				21:[D_KEYWORD_MEAN_EC<88172.2] yes=43,no=44,missing=44
					43:[D_TITLEMD5_COEC<0.087999] yes=87,no=88,missing=87
						87:leaf=-0.00335932
						88:leaf=0.00989829
					44:[D_KEYWORD_MEAN_EC<114164] yes=89,no=90,missing=90
						89:leaf=-0.00953185
						90:leaf=-0.0335765
				22:[U_KW_LEN<500] yes=45,no=46,missing=46
					45:[D_TITLEMD5_COEC<0.072999] yes=91,no=92,missing=92
						91:leaf=-0.023847
						92:leaf=0.000420189
					46:[D_TITLEMD5_COEC<0.099999] yes=93,no=94,missing=93
						93:leaf=0.0126085
						94:leaf=0.0259624
	2:[C_D_U_TITLEMD5_CATEGORY_MICRO_MAX_COEC<0.248999] yes=5,no=6,missing=5
		5:[U_KEYWORD_MEAN_C<2664.85] yes=11,no=12,missing=12
			11:[TIME_OF_DAY<10] yes=23,no=24,missing=24
				23:[U_KEYWORD_MEAN_C<1778.92] yes=47,no=48,missing=48
					47:[U_KEYWORD_MACRO_MEAN_COEC<0.033999] yes=95,no=96,missing=96
						95:leaf=-0.00446671
						96:leaf=0.0167769
					48:[U_KEYWORD_MAX_EC<1981.89] yes=97,no=98,missing=98
						97:leaf=0.0309099
						98:leaf=0.0153649
				24:[D_CATEGORY_MEAN_EC<1.94218e+06] yes=49,no=50,missing=49
					49:[CAT_REL<0.051999] yes=99,no=100,missing=100
						99:leaf=0.00359355
						100:leaf=0.0175194
					50:[U_KEYWORD_MICRO_MAX_COEC<0.150999] yes=101,no=102,missing=102
						101:leaf=-0.00966192
						102:leaf=0.0194197
			12:[U_KEYWORD_MAX_EC<2643.02] yes=25,no=26,missing=26
				25:[TIME_OF_DAY<9] yes=51,no=52,missing=52
					51:[D_KEYWORD_MACRO_MEAN_COEC<0.104999] yes=103,no=104,missing=104
						103:leaf=0.0207987
						104:leaf=0.0329049
					52:[U_KW_LEN<4667] yes=105,no=106,missing=106
						105:leaf=0.0191217
						106:leaf=0.0351388
				26:[D_KEYWORD_MICRO_MAX_COEC<0.188999] yes=53,no=54,missing=54
					53:[KW_REL<0.000999] yes=107,no=108,missing=108
						107:leaf=0.000640735
						108:leaf=0.0132992
					54:[WORD_COUNT<1395] yes=109,no=110,missing=110
						109:leaf=0.0146337
						110:leaf=0.0241801
		6:[CAT_REL<0.009999] yes=13,no=14,missing=14
			13:[U_KW_LEN<3191] yes=27,no=28,missing=28
				27:[D_CATEGORY_MEAN_EC<386016] yes=55,no=56,missing=55
					55:[D_PUBLISHER_COEC<0.119999] yes=111,no=112,missing=112
						111:leaf=-0.00240937
						112:leaf=0.0320886
					56:[TIME_OF_DAY<11] yes=113,no=114,missing=114
						113:leaf=0.0230148
						114:leaf=0.0118845
				28:[U_KEYWORD_MEAN_C<1778.92] yes=57,no=58,missing=58
					57:[U_KEYWORD_MAX_C<271.052] yes=115,no=116,missing=116
						115:leaf=0.0120693
						116:leaf=-0.0159251
					58:[D_KEYWORD_MACRO_MAX_COEC<0.032999] yes=117,no=118,missing=118
						117:leaf=0.0268609
						118:leaf=0.0437805
			14:[DOC_AGE<23] yes=29,no=30,missing=30
				29:[C_D_U_TITLEMD5_CATEGORY_MICRO_MAX_COEC<0.351999] yes=59,no=60,missing=60
					59:[U_KW_LEN<540] yes=119,no=120,missing=120
						119:leaf=0.0229906
						120:leaf=0.0384162
					60:[U_KW_LEN<1293] yes=121,no=122,missing=122
						121:leaf=0.0422137
						122:leaf=0.054962
				30:[KW_REL<0.009999] yes=61,no=62,missing=62
					61:[DOC_AGE<55] yes=123,no=124,missing=124
						123:leaf=0.0252341
						124:leaf=-0.00215753
					62:[D_KEYWORD_MACRO_MAX_COEC<0.039999] yes=125,no=126,missing=126
						125:leaf=-0.0320995
						126:leaf=-0.190283
booster[33]:
0:[C_D_U_TITLEMD5_CATEGORY_MICRO_MAX_COEC<0.199999] yes=1,no=2,missing=1
	1:[C_D_U_TITLEMD5_CITY_COEC<0.080999] yes=3,no=4,missing=3
		3:[DOC_AGE<2] yes=7,no=8,missing=7
			7:[D_TITLEMD5_C<160.374] yes=15,no=16,missing=15
				15:[D_PUBLISHER_COEC<0.121999] yes=31,no=32,missing=32
					31:[KW_REL<0.004999] yes=63,no=64,missing=64
						63:leaf=-0.00725667
						64:leaf=0.0158512
					32:[D_KEYWORD_MICRO_MEAN_COEC<0.134999] yes=65,no=66,missing=65
						65:leaf=0.00667863
						66:leaf=0.0236972
				16:[U_KEYWORD_MEAN_C<2083.22] yes=33,no=34,missing=34
					33:[D_KEYWORD_MEAN_EC<19466.2] yes=67,no=68,missing=68
						67:leaf=0.0199258
						68:leaf=0.00165031
					34:[U_KEYWORD_MAX_C<304.215] yes=69,no=70,missing=70
						69:leaf=0.0333893
						70:leaf=0.0183779
			8:[D_TITLEMD5_C<45.592] yes=17,no=18,missing=18
				17:[D_TITLEMD5_COEC<0.024999] yes=35,no=36,missing=36
					35:[C_D_U_TITLEMD5_CATEGORY_MICRO_MAX_COEC<0.067999] yes=71,no=72,missing=71
						71:leaf=-0.0317496
						72:leaf=-0.0965765
					36:[DOC_AGE<84] yes=73,no=74,missing=74
						73:leaf=-0.014641
						74:leaf=0.0074989
				18:[U_KW_LEN<4526] yes=37,no=38,missing=38
					37:[CAT_REL<0.063999] yes=75,no=76,missing=76
						75:leaf=-0.00462837
						76:leaf=0.00572011
					38:[U_KW_LEN<6812] yes=77,no=78,missing=78
						77:leaf=0.0119061
						78:leaf=0.0362061
		4:[DOC_AGE<3] yes=9,no=10,missing=10
			9:[D_TITLEMD5_C<222.377] yes=19,no=20,missing=20
				19:[D_CATEGORY_MICRO_MEAN_COEC<0.119999] yes=39,no=40,missing=40
					39:[KW_REL<0.001999] yes=79,no=80,missing=80
						79:leaf=-0.00865033
						80:leaf=0.0098323
					40:[D_TITLEMD5_COEC<0.109999] yes=81,no=82,missing=82
						81:leaf=0.0100929
						82:leaf=0.0251368
				20:[U_KEYWORD_MEAN_C<2599.98] yes=41,no=42,missing=42
					41:[CAT_REL<0.020999] yes=83,no=84,missing=84
						83:leaf=0.00835397
						84:leaf=0.0220944
					42:[DOC_AGE<2] yes=85,no=86,missing=86
						85:leaf=0.0286354
						86:leaf=0.0188974
			10:[U_KW_LEN<3555] yes=21,no=22,missing=22
				21:[D_CATEGORY_MACRO_MEAN_COEC<0.174999] yes=43,no=44,missing=44
					43:[CAT_REL<0.049999] yes=87,no=88,missing=88
						87:leaf=0.00192786
						88:leaf=0.0122294
					44:[D_TITLEMD5_COEC<0.272999] yes=89,no=90,missing=90
						89:leaf=0.0211097
						90:leaf=0.038864
				22:[U_KW_LEN<5777] yes=45,no=46,missing=46
					45:[CAT_REL<0.021999] yes=91,no=92,missing=92
						91:leaf=0.00979466
						92:leaf=0.0231301
					46:[U_KW_LEN<6812] yes=93,no=94,missing=94
						93:leaf=0.0284825
						94:leaf=0.0416506
	2:[KW_REL<0.001999] yes=5,no=6,missing=6
		5:[D_KEYWORD_MEAN_EC<26799.9] yes=11,no=12,missing=12
			11:[KW_REL<0.000999] yes=23,no=24,missing=24
				23:[D_KEYWORD_MACRO_MEAN_COEC<0.111999] yes=47,no=48,missing=48
					47:[CAT_REL<0.021999] yes=95,no=96,missing=96
						95:leaf=-0.0338247
						96:leaf=-0.0028792
					48:[TIME_OF_DAY<9] yes=97,no=98,missing=98
						97:leaf=0.0194631
						98:leaf=0.00758436
				24:[D_TITLEMD5_COEC<0.258999] yes=49,no=50,missing=50
					49:[C_D_U_TITLEMD5_CATEGORY_MAX_C<0.543999] yes=99,no=100,missing=100
						99:leaf=0.00302414
						100:leaf=0.0225623
					50:[D_KEYWORD_MEAN_EC<17654.3] yes=101,no=102,missing=102
						101:leaf=0.0456744
						102:leaf=0.0318001
			12:[D_KEYWORD_MACRO_MEAN_COEC<0.110999] yes=25,no=26,missing=26
				25:[C_D_U_TITLEMD5_CATEGORY_MAX_EC<3.174] yes=51,no=52,missing=52
					51:[KW_REL<0.000999] yes=103,no=104,missing=104
						103:leaf=-0.0799838
						104:leaf=-0.0305015
					52:[KW_REL<0.000999] yes=105,no=106,missing=106
						105:leaf=-0.0353356
						106:leaf=-0.0012379
				26:[U_KEYWORD_MICRO_MAX_COEC<0.150999] yes=53,no=54,missing=54
					53:[D_KEYWORD_MEAN_EC<45298.2] yes=107,no=108,missing=108
						107:leaf=0.0122083
						108:leaf=-0.00055824
					54:[C_D_U_TITLEMD5_CITY_COEC<0.260999] yes=109,no=110,missing=109
						109:leaf=0.0220981
						110:leaf=0.0358193
		6:[C_D_U_TITLEMD5_CATEGORY_MICRO_MAX_COEC<0.296999] yes=13,no=14,missing=14
			13:[DOC_AGE<23] yes=27,no=28,missing=28
				27:[KW_REL<0.003999] yes=55,no=56,missing=56
					55:[D_KEYWORD_MEAN_EC<65579.9] yes=111,no=112,missing=112
						111:leaf=0.024056
						112:leaf=0.00486052
					56:[D_KEYWORD_MEAN_EC<87999.2] yes=113,no=114,missing=114
						113:leaf=0.0337414
						114:leaf=0.0217226
				28:[DOC_AGE<65] yes=57,no=58,missing=58
					57:[TIME_OF_DAY<12] yes=115,no=116,missing=116
						115:leaf=0.0187481
						116:leaf=0.00681874
					58:[KW_REL<0.005999] yes=117,no=118,missing=118
						117:leaf=-0.00715334
						118:leaf=-0.0512027
			14:[D_TITLEMD5_C<11.99] yes=29,no=30,missing=30
				29:[IMAGE_COUNT<0.999999] yes=59,no=60,missing=60
					59:[U_KW_LEN<1464] yes=119,no=120,missing=120
						119:leaf=-0.105783
						120:leaf=-0.0346829
					60:[U_KW_LEN<1583] yes=121,no=122,missing=122
						121:leaf=-0.0225148
						122:leaf=0.00853344
				30:[C_D_U_TITLEMD5_CATEGORY_MICRO_MAX_COEC<0.396999] yes=61,no=62,missing=62
					61:[DOC_AGE<12] yes=123,no=124,missing=124
						123:leaf=0.0360523
						124:leaf=0.0244883
					62:[DOC_AGE<22] yes=125,no=126,missing=126
						125:leaf=0.0485636
						126:leaf=0.0318181
booster[34]:
0:[D_TITLEMD5_COEC<0.190999] yes=1,no=2,missing=1
	1:[C_D_U_TITLEMD5_CITY_C<12.901] yes=3,no=4,missing=3
		3:[D_TITLEMD5_COEC<0.078999] yes=7,no=8,missing=7
			7:[DOC_AGE<2] yes=15,no=16,missing=15
				15:[TIME_OF_DAY<6] yes=31,no=32,missing=32
					31:[D_PUBLISHER_C<237927] yes=63,no=64,missing=64
						63:leaf=0.0092116
						64:leaf=0.0374524
					32:[D_PUBLISHER_COEC<0.122999] yes=65,no=66,missing=66
						65:leaf=-0.00712524
						66:leaf=0.00655114
				16:[D_TITLEMD5_COEC<0.024999] yes=33,no=34,missing=34
					33:[C_D_U_TITLEMD5_CATEGORY_MICRO_MAX_COEC<0.091999] yes=67,no=68,missing=67
						67:leaf=-0.0279873
						68:leaf=-0.112554
					34:[KW_REL<0.001999] yes=69,no=70,missing=70
						69:leaf=-0.0151809
						70:leaf=-0.00382286
			8:[U_KW_LEN<2564] yes=17,no=18,missing=18
				17:[CAT_REL<0.060999] yes=35,no=36,missing=36
					35:[U_KEYWORD_MEAN_C<2944.87] yes=71,no=72,missing=72
						71:leaf=-0.0087129
						72:leaf=0.00170049
					36:[U_KW_LEN<400] yes=73,no=74,missing=74
						73:leaf=-0.00624472
						74:leaf=0.0113023
				18:[KW_REL<0.000999] yes=37,no=38,missing=38
					37:[D_KEYWORD_MEAN_EC<23828.1] yes=75,no=76,missing=76
						75:leaf=-0.0111824
						76:leaf=-0.0624522
					38:[U_KW_LEN<5797] yes=77,no=78,missing=78
						77:leaf=0.0117313
						78:leaf=0.0340544
		4:[U_KW_LEN<2991] yes=9,no=10,missing=10
			9:[CAT_REL<0.060999] yes=19,no=20,missing=20
				19:[DOC_AGE<2] yes=39,no=40,missing=40
					39:[U_KEYWORD_MEAN_EC<21380] yes=79,no=80,missing=80
						79:leaf=0.0118689
						80:leaf=0.0235205
					40:[TIME_OF_DAY<9] yes=81,no=82,missing=82
						81:leaf=0.00748
						82:leaf=-0.000966208
				20:[U_KW_LEN<587] yes=41,no=42,missing=42
					41:[U_KW_LEN<204] yes=83,no=84,missing=84
						83:leaf=-0.00606522
						84:leaf=0.00890587
					42:[C_D_U_TITLEMD5_CITY_COEC<0.128999] yes=85,no=86,missing=86
						85:leaf=0.0141853
						86:leaf=0.0243511
			10:[CAT_REL<0.018999] yes=21,no=22,missing=22
				21:[U_KEYWORD_MEAN_EC<13226.9] yes=43,no=44,missing=44
					43:[KW_REL<0.001999] yes=87,no=88,missing=88
						87:leaf=-0.0321779
						88:leaf=-0.0104743
					44:[D_CATEGORY_MACRO_MEAN_COEC<0.158999] yes=89,no=90,missing=90
						89:leaf=0.0126622
						90:leaf=0.0328271
				22:[U_KW_LEN<4649] yes=45,no=46,missing=46
					45:[D_CATEGORY_MICRO_MEAN_COEC<0.113999] yes=91,no=92,missing=91
						91:leaf=0.0152826
						92:leaf=0.0280931
					46:[U_KW_LEN<6586] yes=93,no=94,missing=94
						93:leaf=0.0339034
						94:leaf=0.0506835
	2:[D_TITLEMD5_COEC<0.294999] yes=5,no=6,missing=6
		5:[U_KEYWORD_MEAN_C<2780.22] yes=11,no=12,missing=11
			11:[TIME_OF_DAY<9] yes=23,no=24,missing=24
				23:[U_KEYWORD_MICRO_MAX_COEC<0.141999] yes=47,no=48,missing=48
					47:[U_KEYWORD_MEAN_C<1713.48] yes=95,no=96,missing=96
						95:leaf=-0.00882472
						96:leaf=0.0151283
					48:[U_KEYWORD_MICRO_MEAN_COEC<0.140999] yes=97,no=98,missing=97
						97:leaf=0.0192874
						98:leaf=0.030892
				24:[U_KEYWORD_MACRO_MEAN_COEC<0.033999] yes=49,no=50,missing=50
					49:[U_KEYWORD_MEAN_C<1713.48] yes=99,no=100,missing=100
						99:leaf=-0.0300014
						100:leaf=-0.00141299
					50:[DOC_AGE<4] yes=101,no=102,missing=102
						101:leaf=0.0222688
						102:leaf=0.00805078
			12:[TIME_OF_DAY<12] yes=25,no=26,missing=26
				25:[U_KEYWORD_MACRO_MAX_COEC<0.002999] yes=51,no=52,missing=52
					51:[KW_REL<0.001999] yes=103,no=104,missing=104
						103:leaf=0.0231384
						104:leaf=0.0325342
					52:[WORD_COUNT<923] yes=105,no=106,missing=106
						105:leaf=0.0030871
						106:leaf=0.0171834
				26:[U_KEYWORD_MEAN_C<3394.04] yes=53,no=54,missing=54
					53:[U_KW_LEN<3687] yes=107,no=108,missing=108
						107:leaf=0.00459482
						108:leaf=0.0317409
					54:[U_KEYWORD_MACRO_MAX_COEC<0.002999] yes=109,no=110,missing=110
						109:leaf=0.0249902
						110:leaf=0.00336869
		6:[U_KEYWORD_MEAN_C<2304.04] yes=13,no=14,missing=14
			13:[U_KEYWORD_MACRO_MEAN_COEC<0.035999] yes=27,no=28,missing=28
				27:[CAT_REL<0.001999] yes=55,no=56,missing=56
					55:[U_KEYWORD_MEAN_C<1607.32] yes=111,no=112,missing=112
						111:leaf=-0.0207684
						112:leaf=0.0101806
					56:[DOC_AGE<25] yes=113,no=114,missing=114
						113:leaf=0.0296862
						114:leaf=0.00626258
				28:[KW_REL<0.007999] yes=57,no=58,missing=58
					57:[U_KEYWORD_MICRO_MAX_COEC<0.150999] yes=115,no=116,missing=116
						115:leaf=0.0228371
						116:leaf=0.0393846
					58:[DOC_AGE<16] yes=117,no=118,missing=118
						117:leaf=0.0142276
						118:leaf=-0.130384
			14:[DOC_AGE<24] yes=29,no=30,missing=30
				29:[D_TITLEMD5_C<4.361] yes=59,no=60,missing=60
					59:[CAT_REL<0.015999] yes=119,no=120,missing=120
						119:leaf=-0.0578883
						120:leaf=-0.0104739
					60:[CAT_REL<0.007999] yes=121,no=122,missing=122
						121:leaf=0.0318468
						122:leaf=0.0435645
				30:[D_KEYWORD_MEAN_EC<53817.2] yes=61,no=62,missing=62
					61:[KW_REL<0.004999] yes=123,no=124,missing=124
						123:leaf=0.0270503
						124:leaf=-0.0672299
					62:[DAY_OF_WEEK<4] yes=125,no=126,missing=126
						125:leaf=0.0223533
						126:leaf=0.00492917
booster[35]:
0:[C_D_U_TITLEMD5_CITY_COEC<0.144999] yes=1,no=2,missing=1
	1:[KW_REL<0.003999] yes=3,no=4,missing=3
		3:[D_KEYWORD_MAX_EC<19710.1] yes=7,no=8,missing=7
			7:[KW_REL<0.001999] yes=15,no=16,missing=15
				15:[D_CATEGORY_MACRO_MAX_COEC<0.116999] yes=31,no=32,missing=32
					31:[D_KEYWORD_MICRO_MEAN_COEC<0.118999] yes=63,no=64,missing=64
						63:leaf=-0.0113608
						64:leaf=-0.000707283
					32:[D_CATEGORY_MEAN_EC<3.02881e+06] yes=65,no=66,missing=65
						65:leaf=0.0081479
						66:leaf=-0.00222483
				16:[D_KEYWORD_MEAN_EC<24554.6] yes=33,no=34,missing=33
					33:[D_KEYWORD_MICRO_MEAN_COEC<0.111999] yes=67,no=68,missing=68
						67:leaf=0.00376213
						68:leaf=0.0223881
					34:[U_KEYWORD_MEAN_C<2341.62] yes=69,no=70,missing=70
						69:leaf=-0.00493715
						70:leaf=0.00906204
			8:[D_PUBLISHER_COEC<0.127999] yes=17,no=18,missing=18
				17:[C_D_U_CATEGORY_CATEGORY_MICRO_MEAN_COEC<0.155999] yes=35,no=36,missing=36
					35:[KW_REL<0.002999] yes=71,no=72,missing=72
						71:leaf=-0.0222947
						72:leaf=-0.0105237
					36:[D_CATEGORY_MACRO_MEAN_COEC<0.158999] yes=73,no=74,missing=74
						73:leaf=-0.00711999
						74:leaf=0.0107493
				18:[U_KEYWORD_MEAN_EC<22101.7] yes=37,no=38,missing=38
					37:[U_KEYWORD_MICRO_MAX_COEC<0.150999] yes=75,no=76,missing=76
						75:leaf=-0.0079909
						76:leaf=0.0189908
					38:[DOC_AGE<3] yes=77,no=78,missing=78
						77:leaf=0.0174348
						78:leaf=0.00324337
		4:[D_KEYWORD_MEAN_EC<80153.5] yes=9,no=10,missing=9
			9:[U_KW_LEN<844] yes=19,no=20,missing=20
				19:[U_KW_LEN<251] yes=39,no=40,missing=40
					39:[D_KEYWORD_MACRO_MEAN_COEC<0.103999] yes=79,no=80,missing=80
						79:leaf=-0.0219463
						80:leaf=-0.00340019
					40:[IMAGE_COUNT<0.999999] yes=81,no=82,missing=82
						81:leaf=-0.0271029
						82:leaf=0.00861526
				20:[KW_REL<0.005999] yes=41,no=42,missing=42
					41:[D_TITLEMD5_COEC<0.109999] yes=83,no=84,missing=83
						83:leaf=0.0108735
						84:leaf=0.023022
					42:[DOC_AGE<12] yes=85,no=86,missing=86
						85:leaf=0.0386596
						86:leaf=0.018314
			10:[KW_REL<0.005999] yes=21,no=22,missing=22
				21:[D_KEYWORD_MEAN_EC<114089] yes=43,no=44,missing=44
					43:[D_TITLEMD5_COEC<0.105999] yes=87,no=88,missing=87
						87:leaf=-0.00482095
						88:leaf=0.00996607
					44:[D_KEYWORD_MACRO_MAX_COEC<0.026999] yes=89,no=90,missing=90
						89:leaf=-0.00349011
						90:leaf=-0.0263237
				22:[WORD_COUNT<588] yes=45,no=46,missing=46
					45:[D_KEYWORD_MACRO_MAX_COEC<0.048999] yes=91,no=92,missing=92
						91:leaf=-0.00459176
						92:leaf=-0.0486704
					46:[U_KW_LEN<538] yes=93,no=94,missing=94
						93:leaf=-0.00377906
						94:leaf=0.0218425
	2:[C_D_U_TITLEMD5_CATEGORY_MICRO_MAX_COEC<0.265999] yes=5,no=6,missing=5
		5:[KW_REL<0.002999] yes=11,no=12,missing=12
			11:[D_KEYWORD_MEAN_EC<50596.5] yes=23,no=24,missing=24
				23:[D_KEYWORD_MACRO_MEAN_COEC<0.100999] yes=47,no=48,missing=48
					47:[IMAGE_COUNT<0.999999] yes=95,no=96,missing=96
						95:leaf=-0.0315224
						96:leaf=0.00204899
					48:[D_CATEGORY_MACRO_MEAN_COEC<0.173999] yes=97,no=98,missing=98
						97:leaf=0.0127686
						98:leaf=0.0262434
				24:[U_KEYWORD_MICRO_MAX_COEC<0.150999] yes=49,no=50,missing=50
					49:[D_KEYWORD_MACRO_MAX_COEC<0.042999] yes=99,no=100,missing=100
						99:leaf=-0.0124362
						100:leaf=0.00552531
					50:[D_CATEGORY_MICRO_MEAN_COEC<0.123999] yes=101,no=102,missing=102
						101:leaf=-0.00641967
						102:leaf=0.0180466
			12:[D_KEYWORD_MEAN_C<9050.69] yes=25,no=26,missing=26
				25:[DOC_AGE<46] yes=51,no=52,missing=52
					51:[U_KW_LEN<209] yes=103,no=104,missing=104
						103:leaf=0.00568681
						104:leaf=0.0256571
					52:[KW_REL<0.005999] yes=105,no=106,missing=106
						105:leaf=0.000294246
						106:leaf=-0.0464357
				26:[KW_REL<0.004999] yes=53,no=54,missing=54
					53:[D_KEYWORD_MEAN_EC<97757.4] yes=107,no=108,missing=108
						107:leaf=0.0118158
						108:leaf=-0.00838383
					54:[WORD_COUNT<539] yes=109,no=110,missing=110
						109:leaf=-0.0131997
						110:leaf=0.0248943
		6:[U_KW_LEN<2866] yes=13,no=14,missing=14
			13:[CAT_REL<0.015999] yes=27,no=28,missing=28
				27:[D_CATEGORY_MEAN_EC<3.02683e+06] yes=55,no=56,missing=55
					55:[KW_REL<0.000999] yes=111,no=112,missing=112
						111:leaf=0.00827725
						112:leaf=0.0240316
					56:[TIME_OF_DAY<13] yes=113,no=114,missing=114
						113:leaf=0.0146866
						114:leaf=0.000491976
				28:[DOC_AGE<25] yes=57,no=58,missing=58
					57:[C_D_U_TITLEMD5_CATEGORY_MICRO_MAX_COEC<0.393999] yes=115,no=116,missing=116
						115:leaf=0.0295365
						116:leaf=0.0439685
					58:[KW_REL<0.007999] yes=117,no=118,missing=118
						117:leaf=0.01778
						118:leaf=-0.0626604
			14:[CAT_REL<0.010999] yes=29,no=30,missing=30
				29:[U_KEYWORD_MACRO_MAX_COEC<0.001999] yes=59,no=60,missing=60
					59:[D_CATEGORY_MACRO_MAX_COEC<0.145999] yes=119,no=120,missing=120
						119:leaf=0.0285356
						120:leaf=0.0444364
					60:[U_KEYWORD_MEAN_C<2078.15] yes=121,no=122,missing=122
						121:leaf=-0.0118688
						122:leaf=0.0238969
				30:[WORD_COUNT<1175] yes=61,no=62,missing=62
					61:[DOC_AGE<21] yes=123,no=124,missing=124
						123:leaf=0.0402761
						124:leaf=0.0204665
					62:[C_D_U_TITLEMD5_CATEGORY_MICRO_MAX_COEC<0.393999] yes=125,no=126,missing=126
						125:leaf=0.0469002
						126:leaf=0.0615436
booster[36]:
0:[D_TITLEMD5_COEC<0.120999] yes=1,no=2,missing=1
	1:[U_KEYWORD_MAX_C<310.702] yes=3,no=4,missing=4
		3:[U_KEYWORD_MEAN_EC<17085.1] yes=7,no=8,missing=8
			7:[CAT_REL<0.027999] yes=15,no=16,missing=16
				15:[U_KEYWORD_MEAN_EC<13472.6] yes=31,no=32,missing=32
					31:[U_KEYWORD_MICRO_MAX_COEC<0.150999] yes=63,no=64,missing=64
						63:leaf=-0.025277
						64:leaf=0.0199421
					32:[U_KEYWORD_MAX_C<241.964] yes=65,no=66,missing=66
						65:leaf=0.0151118
						66:leaf=-0.00841516
				16:[D_KEYWORD_MEAN_EC<14650.1] yes=33,no=34,missing=34
					33:[KW_REL<0.000999] yes=67,no=68,missing=68
						67:leaf=-0.00606379
						68:leaf=0.0255437
					34:[KW_REL<0.004999] yes=69,no=70,missing=70
						69:leaf=-0.000671806
						70:leaf=0.022013
			8:[IMAGE_COUNT<0.999999] yes=17,no=18,missing=18
				17:[D_TITLEMD5_C<4] yes=35,no=36,missing=35
					35:[CAT_REL<0.091999] yes=71,no=72,missing=72
						71:leaf=-0.0481031
						72:leaf=-0.00911387
					36:[U_KEYWORD_MACRO_MEAN_COEC<0.024999] yes=73,no=74,missing=74
						73:leaf=0.0129832
						74:leaf=-0.00971775
				18:[U_KEYWORD_MAX_C<259.744] yes=37,no=38,missing=38
					37:[U_CAT_LEN<41] yes=75,no=76,missing=76
						75:leaf=0.0242374
						76:leaf=0.0887854
					38:[U_KEYWORD_MEAN_EC<20534.7] yes=77,no=78,missing=78
						77:leaf=0.00743708
						78:leaf=0.0173513
		4:[IMAGE_COUNT<0.999999] yes=9,no=10,missing=10
			9:[KW_REL<0.004999] yes=19,no=20,missing=20
				19:[D_TITLEMD5_C<2299.87] yes=39,no=40,missing=40
					39:[D_KEYWORD_MEAN_EC<92197.7] yes=79,no=80,missing=80
						79:leaf=-0.0231005
						80:leaf=-0.0619272
					40:[D_KEYWORD_MACRO_MEAN_COEC<0.127999] yes=81,no=82,missing=82
						81:leaf=-0.0864903
						82:leaf=-0.00406967
				20:[D_KEYWORD_MEAN_EC<77316.9] yes=41,no=42,missing=41
					41:[U_KW_LEN<1071] yes=83,no=84,missing=84
						83:leaf=-0.0198972
						84:leaf=0.0127034
					42:[WORD_COUNT<590] yes=85,no=86,missing=86
						85:leaf=-0.0687977
						86:leaf=-0.015656
			10:[U_KEYWORD_MEAN_EC<22348.2] yes=21,no=22,missing=22
				21:[CAT_REL<0.089999] yes=43,no=44,missing=44
					43:[TIME_OF_DAY<7] yes=87,no=88,missing=88
						87:leaf=0.000101333
						88:leaf=-0.0138412
					44:[KW_REL<0.006999] yes=89,no=90,missing=90
						89:leaf=0.00238367
						90:leaf=0.0241183
				22:[U_KEYWORD_MAX_C<387.5] yes=45,no=46,missing=46
					45:[TIME_OF_DAY<6] yes=91,no=92,missing=92
						91:leaf=0.0248128
						92:leaf=0.00701996
					46:[D_KEYWORD_MICRO_MEAN_COEC<0.131999] yes=93,no=94,missing=94
						93:leaf=-0.00373896
						94:leaf=0.00469447
	2:[KW_REL<0.001999] yes=5,no=6,missing=6
		5:[D_CATEGORY_MICRO_MEAN_COEC<0.118999] yes=11,no=12,missing=12
			11:[D_KEYWORD_MICRO_MEAN_COEC<0.109999] yes=23,no=24,missing=24
				23:[KW_REL<0.000999] yes=47,no=48,missing=48
					47:[D_TITLEMD5_COEC<0.205999] yes=95,no=96,missing=96
						95:leaf=-0.0302451
						96:leaf=-0.10935
					48:[D_KEYWORD_MEAN_EC<29536.1] yes=97,no=98,missing=98
						97:leaf=-0.00624515
						98:leaf=-0.025543
				24:[D_KEYWORD_MAX_EC<19004] yes=49,no=50,missing=50
					49:[IMAGE_COUNT<0.999999] yes=99,no=100,missing=100
						99:leaf=-0.0353697
						100:leaf=0.00269963
					50:[U_KW_LEN<958] yes=101,no=102,missing=102
						101:leaf=-0.0125142
						102:leaf=-0.0444612
			12:[D_CATEGORY_MEAN_EC<2.43998e+06] yes=25,no=26,missing=25
				25:[D_PUBLISHER_COEC<0.124999] yes=51,no=52,missing=51
					51:[CAT_REL<0.034999] yes=103,no=104,missing=104
						103:leaf=0.00305886
						104:leaf=0.0167436
					52:[WORD_COUNT<1392] yes=105,no=106,missing=106
						105:leaf=0.0118392
						106:leaf=0.0222184
				26:[U_KEYWORD_MEAN_C<2715.16] yes=53,no=54,missing=54
					53:[U_KEYWORD_MACRO_MEAN_COEC<0.035999] yes=107,no=108,missing=108
						107:leaf=-0.0119063
						108:leaf=0.00560835
					54:[DOC_AGE<3] yes=109,no=110,missing=110
						109:leaf=0.0201181
						110:leaf=0.00588782
		6:[D_KEYWORD_MAX_EC<17434.8] yes=13,no=14,missing=14
			13:[U_KEYWORD_MACRO_MAX_COEC<0.001999] yes=27,no=28,missing=28
				27:[D_KEYWORD_MICRO_MEAN_COEC<0.106999] yes=55,no=56,missing=56
					55:[D_KEYWORD_MACRO_MEAN_COEC<0.088999] yes=111,no=112,missing=112
						111:leaf=0.000352606
						112:leaf=0.0185603
					56:[U_KW_LEN<4862] yes=113,no=114,missing=114
						113:leaf=0.0284022
						114:leaf=0.0423473
				28:[TIME_OF_DAY<9] yes=57,no=58,missing=58
					57:[U_KEYWORD_MEAN_C<2837.72] yes=115,no=116,missing=116
						115:leaf=0.0190932
						116:leaf=0.0294878
					58:[U_KEYWORD_MEAN_C<3354.67] yes=117,no=118,missing=118
						117:leaf=0.00942333
						118:leaf=0.0212827
			14:[KW_REL<0.003999] yes=29,no=30,missing=30
				29:[D_KEYWORD_MEAN_EC<92197.7] yes=59,no=60,missing=60
					59:[D_TITLEMD5_COEC<0.178999] yes=119,no=120,missing=120
						119:leaf=0.00133598
						120:leaf=0.0133276
					60:[D_KEYWORD_MACRO_MAX_COEC<0.045999] yes=121,no=122,missing=122
						121:leaf=-0.0206389
						122:leaf=0.00621767
				30:[D_KEYWORD_MAX_C<7433.91] yes=61,no=62,missing=62
					61:[DOC_AGE<12] yes=123,no=124,missing=124
						123:leaf=0.0263826
						124:leaf=0.0142348
					62:[WORD_COUNT<352] yes=125,no=126,missing=126
						125:leaf=-0.0337175
						126:leaf=0.0106273
booster[37]:
0:[D_KEYWORD_MACRO_MEAN_COEC<0.104999] yes=1,no=2,missing=1
	1:[KW_REL<0.004999] yes=3,no=4,missing=3
		3:[U_KEYWORD_MACRO_MAX_COEC<0.001999] yes=7,no=8,missing=8
			7:[D_CATEGORY_MACRO_MEAN_COEC<0.115999] yes=15,no=16,missing=16
				15:[CAT_REL<0.059999] yes=31,no=32,missing=32
					31:[U_KW_LEN<5256] yes=63,no=64,missing=64
						63:leaf=-0.00785091
						64:leaf=0.00878493
					32:[D_CATEGORY_MAX_EC<106510] yes=65,no=66,missing=66
						65:leaf=0.0269365
						66:leaf=0.00805989
				16:[WORD_COUNT<1190] yes=33,no=34,missing=34
					33:[D_TITLEMD5_COEC<0.068999] yes=67,no=68,missing=67
						67:leaf=-0.00414311
						68:leaf=0.0107232
					34:[CAT_REL<0.030999] yes=69,no=70,missing=70
						69:leaf=0.0147306
						70:leaf=0.0283578
			8:[IMAGE_COUNT<0.999999] yes=17,no=18,missing=18
				17:[D_TITLEMD5_C<1231.57] yes=35,no=36,missing=36
					35:[D_TITLEMD5_C<3.965] yes=71,no=72,missing=72
						71:leaf=-0.049139
						72:leaf=-0.0230178
					36:[D_KEYWORD_MAX_EC<3240.78] yes=73,no=74,missing=74
						73:leaf=-0.109671
						74:leaf=-0.0463538
				18:[D_KEYWORD_MAX_EC<22832.9] yes=37,no=38,missing=37
					37:[C_D_U_TITLEMD5_CATEGORY_MAX_C<0.301999] yes=75,no=76,missing=75
						75:leaf=-0.00619624
						76:leaf=0.00268289
					38:[D_KEYWORD_MACRO_MAX_COEC<0.028999] yes=77,no=78,missing=78
						77:leaf=-0.00711184
						78:leaf=-0.0188131
		4:[U_KEYWORD_MAX_C<331.043] yes=9,no=10,missing=9
			9:[DOC_AGE<12] yes=19,no=20,missing=20
				19:[KW_REL<0.006999] yes=39,no=40,missing=40
					39:[D_TITLEMD5_COEC<0.089999] yes=79,no=80,missing=79
						79:leaf=0.0187988
						80:leaf=0.0325458
					40:[U_KW_LEN<733] yes=81,no=82,missing=82
						81:leaf=0.0162044
						82:leaf=0.0475256
				20:[D_KEYWORD_MEAN_EC<32950.3] yes=41,no=42,missing=41
					41:[U_KW_LEN<1058] yes=83,no=84,missing=84
						83:leaf=0.00298002
						84:leaf=0.0250908
					42:[D_CATEGORY_MACRO_MEAN_COEC<0.143999] yes=85,no=86,missing=86
						85:leaf=0.00451439
						86:leaf=0.0298306
			10:[U_KW_LEN<536] yes=21,no=22,missing=22
				21:[U_KW_LEN<157] yes=43,no=44,missing=44
					43:[D_TITLEMD5_C<58.715] yes=87,no=88,missing=87
						87:leaf=-0.0505487
						88:leaf=-0.0195453
					44:[D_KEYWORD_MAX_C<7436.63] yes=89,no=90,missing=90
						89:leaf=0.00115212
						90:leaf=-0.0282682
				22:[KW_REL<0.006999] yes=45,no=46,missing=46
					45:[D_KEYWORD_MACRO_MAX_COEC<0.025999] yes=91,no=92,missing=92
						91:leaf=0.0157767
						92:leaf=0.000990639
					46:[DOC_AGE<12] yes=93,no=94,missing=94
						93:leaf=0.033945
						94:leaf=0.0124255
	2:[D_TITLEMD5_COEC<0.216999] yes=5,no=6,missing=6
		5:[CAT_REL<0.027999] yes=11,no=12,missing=12
			11:[D_CATEGORY_MAX_EC<106510] yes=23,no=24,missing=23
				23:[KW_REL<0.000999] yes=47,no=48,missing=48
					47:[D_PUBLISHER_C<39624.4] yes=95,no=96,missing=96
						95:leaf=-0.0133909
						96:leaf=0.00948167
					48:[D_KEYWORD_MEAN_C<4700.76] yes=97,no=98,missing=98
						97:leaf=0.0300498
						98:leaf=0.0172725
				24:[WORD_COUNT<1395] yes=49,no=50,missing=50
					49:[U_KEYWORD_MEAN_C<2864.47] yes=99,no=100,missing=100
						99:leaf=-0.00657895
						100:leaf=0.00243708
					50:[U_KEYWORD_MACRO_MAX_COEC<0.001999] yes=101,no=102,missing=101
						101:leaf=0.0146258
						102:leaf=0.00384906
			12:[U_CAT_LEN<12] yes=25,no=26,missing=26
				25:[U_KW_LEN<216] yes=51,no=52,missing=52
					51:[U_KEYWORD_MICRO_MAX_COEC<0.150999] yes=103,no=104,missing=104
						103:leaf=-0.00870177
						104:leaf=0.0066345
					52:[CAT_REL<0.104999] yes=105,no=106,missing=106
						105:leaf=0.00232418
						106:leaf=0.0143627
				26:[WORD_COUNT<1084] yes=53,no=54,missing=54
					53:[D_KEYWORD_MEAN_EC<36957.1] yes=107,no=108,missing=108
						107:leaf=0.0161893
						108:leaf=0.00585534
					54:[U_KEYWORD_MACRO_MAX_COEC<0.001999] yes=109,no=110,missing=110
						109:leaf=0.031502
						110:leaf=0.0193399
		6:[DOC_AGE<4] yes=13,no=14,missing=14
			13:[CAT_REL<0.001999] yes=27,no=28,missing=28
				27:[U_KEYWORD_MEAN_EC<21929.8] yes=55,no=56,missing=56
					55:[U_KW_LEN<4303] yes=111,no=112,missing=112
						111:leaf=0.0133069
						112:leaf=0.0394453
					56:[D_KEYWORD_MACRO_MEAN_COEC<0.169999] yes=113,no=114,missing=114
						113:leaf=0.023309
						114:leaf=0.0379508
				28:[U_KW_LEN<2676] yes=57,no=58,missing=58
					57:[D_KEYWORD_MICRO_MAX_COEC<0.345999] yes=115,no=116,missing=116
						115:leaf=0.0293094
						116:leaf=0.0445229
					58:[D_PUBLISHER_COEC<0.117999] yes=117,no=118,missing=118
						117:leaf=0.0305586
						118:leaf=0.0484337
			14:[TIME_OF_DAY<6] yes=29,no=30,missing=30
				29:[U_KEYWORD_MEAN_C<2380.27] yes=59,no=60,missing=59
					59:[D_CATEGORY_MICRO_MEAN_COEC<0.170999] yes=119,no=120,missing=119
						119:leaf=0.0142321
						120:leaf=0.0314186
					60:[D_TITLEMD5_COEC<0.334999] yes=121,no=122,missing=122
						121:leaf=0.027743
						122:leaf=0.0399028
				30:[U_KEYWORD_MEAN_C<3024.26] yes=61,no=62,missing=62
					61:[U_KEYWORD_MICRO_MAX_COEC<0.150999] yes=123,no=124,missing=124
						123:leaf=0.00216391
						124:leaf=0.0228651
					62:[U_KW_LEN<1708] yes=125,no=126,missing=126
						125:leaf=0.0145021
						126:leaf=0.0261625
booster[38]:
0:[C_D_U_TITLEMD5_CITY_COEC<0.127999] yes=1,no=2,missing=1
	1:[U_KW_LEN<4906] yes=3,no=4,missing=3
		3:[IMAGE_COUNT<0.999999] yes=7,no=8,missing=8
			7:[D_TITLEMD5_C<3.995] yes=15,no=16,missing=15
				15:[D_TITLEMD5_COEC<0.090999] yes=31,no=32,missing=32
					31:[C_D_U_TITLEMD5_CATEGORY_MICRO_MAX_COEC<0.096999] yes=63,no=64,missing=63
						63:leaf=-0.0259871
						64:leaf=-0.0844034
					32:[D_TITLEMD5_COEC<0.130999] yes=65,no=66,missing=65
						65:leaf=-0.0675774
						66:leaf=-0.121493
				16:[U_KW_LEN<1717] yes=33,no=34,missing=34
					33:[U_KEYWORD_MICRO_MEAN_COEC<0.133999] yes=67,no=68,missing=67
						67:leaf=-0.0173047
						68:leaf=-0.0285982
					34:[KW_REL<0.004999] yes=69,no=70,missing=70
						69:leaf=-0.011203
						70:leaf=0.0104082
			8:[CAT_REL<0.073999] yes=17,no=18,missing=17
				17:[U_KEYWORD_MEAN_C<2594.8] yes=35,no=36,missing=36
					35:[U_KEYWORD_MICRO_MAX_COEC<0.150999] yes=71,no=72,missing=72
						71:leaf=-0.00889509
						72:leaf=0.0189006
					36:[TIME_OF_DAY<7] yes=73,no=74,missing=74
						73:leaf=0.0105787
						74:leaf=4.59388e-05
				18:[U_KEYWORD_MAX_C<423.615] yes=37,no=38,missing=37
					37:[D_KEYWORD_MICRO_MEAN_COEC<0.107999] yes=75,no=76,missing=76
						75:leaf=0.00243447
						76:leaf=0.0144754
					38:[D_TITLEMD5_COEC<0.080999] yes=77,no=78,missing=77
						77:leaf=-0.0101533
						78:leaf=0.00272963
		4:[U_KW_LEN<6681] yes=9,no=10,missing=10
			9:[C_D_U_TITLEMD5_CATEGORY_MAX_C<0.354999] yes=19,no=20,missing=19
				19:[CAT_REL<0.021999] yes=39,no=40,missing=40
					39:[D_CATEGORY_MACRO_MEAN_COEC<0.135999] yes=79,no=80,missing=80
						79:leaf=-0.00900524
						80:leaf=0.00928024
					40:[D_KEYWORD_MICRO_MEAN_COEC<0.113999] yes=81,no=82,missing=82
						81:leaf=0.00438745
						82:leaf=0.021455
				20:[CAT_REL<0.020999] yes=41,no=42,missing=42
					41:[D_CATEGORY_MACRO_MEAN_COEC<0.127999] yes=83,no=84,missing=84
						83:leaf=0.00218207
						84:leaf=0.0207862
					42:[D_CATEGORY_MACRO_MEAN_COEC<0.110999] yes=85,no=86,missing=85
						85:leaf=0.0208709
						86:leaf=0.0353565
			10:[U_KEYWORD_MAX_C<242.325] yes=21,no=22,missing=22
				21:[U_CAT_LEN<41] yes=43,no=44,missing=44
					43:[U_CITY_COEC<0.139999] yes=87,no=88,missing=87
						87:leaf=0.0362794
						88:leaf=0.0802378
					44:[U_KEYWORD_MEAN_C<1903.64] yes=89,no=90,missing=90
						89:leaf=-0.0128934
						90:leaf=0.0944458
				22:[D_TITLEMD5_COEC<0.090999] yes=45,no=46,missing=45
					45:[CAT_REL<0.045999] yes=91,no=92,missing=92
						91:leaf=0.00902717
						92:leaf=0.0375579
					46:[C_D_U_CATEGORY_CATEGORY_MEAN_C<74.763] yes=93,no=94,missing=94
						93:leaf=0.0298858
						94:leaf=0.0437574
	2:[KW_REL<0.002999] yes=5,no=6,missing=6
		5:[D_CATEGORY_MACRO_MEAN_COEC<0.170999] yes=11,no=12,missing=12
			11:[D_KEYWORD_MEAN_EC<39128.4] yes=23,no=24,missing=24
				23:[KW_REL<0.000999] yes=47,no=48,missing=48
					47:[D_KEYWORD_MICRO_MEAN_COEC<0.118999] yes=95,no=96,missing=96
						95:leaf=-0.0123631
						96:leaf=0.00474082
					48:[D_KEYWORD_MACRO_MEAN_COEC<0.100999] yes=97,no=98,missing=98
						97:leaf=0.00299353
						98:leaf=0.0152653
				24:[U_KEYWORD_MICRO_MAX_COEC<0.150999] yes=49,no=50,missing=50
					49:[D_KEYWORD_MACRO_MAX_COEC<0.039999] yes=99,no=100,missing=100
						99:leaf=-0.00855148
						100:leaf=0.0039093
					50:[D_KEYWORD_MICRO_MEAN_COEC<0.152999] yes=101,no=102,missing=102
						101:leaf=0.0053437
						102:leaf=0.0185859
			12:[WORD_COUNT<1084] yes=25,no=26,missing=26
				25:[U_KEYWORD_MICRO_MEAN_COEC<0.139999] yes=51,no=52,missing=51
					51:[CAT_REL<0.020999] yes=103,no=104,missing=104
						103:leaf=0.00370263
						104:leaf=0.0255214
					52:[D_PUBLISHER_EC<1.76746e+06] yes=105,no=106,missing=105
						105:leaf=0.0208784
						106:leaf=-0.00289405
				26:[U_KEYWORD_MACRO_MAX_COEC<0.001999] yes=53,no=54,missing=54
					53:[C_D_U_CATEGORY_CATEGORY_MICRO_MAX_COEC<0.196999] yes=107,no=108,missing=108
						107:leaf=0.013263
						108:leaf=0.0400562
					54:[C_D_U_TITLEMD5_CATEGORY_MICRO_MAX_COEC<0.391999] yes=109,no=110,missing=110
						109:leaf=0.0194882
						110:leaf=0.0283445
		6:[D_KEYWORD_MEAN_EC<92283.6] yes=13,no=14,missing=14
			13:[C_D_U_TITLEMD5_CATEGORY_MICRO_MAX_COEC<0.244999] yes=27,no=28,missing=28
				27:[TIME_OF_DAY<9] yes=55,no=56,missing=56
					55:[DOC_AGE<12] yes=111,no=112,missing=112
						111:leaf=0.0259198
						112:leaf=0.0161474
					56:[DOC_AGE<12] yes=113,no=114,missing=114
						113:leaf=0.0154621
						114:leaf=0.00398944
				28:[DOC_AGE<26] yes=57,no=58,missing=58
					57:[U_KW_LEN<2325] yes=115,no=116,missing=116
						115:leaf=0.0269864
						116:leaf=0.0377245
					58:[KW_REL<0.006999] yes=117,no=118,missing=118
						117:leaf=0.0137681
						118:leaf=-0.0429188
			14:[KW_REL<0.004999] yes=29,no=30,missing=30
				29:[U_KEYWORD_MEAN_C<3101.51] yes=59,no=60,missing=60
					59:[WORD_COUNT<994] yes=119,no=120,missing=120
						119:leaf=-0.0285986
						120:leaf=-0.00676949
					60:[D_KEYWORD_MICRO_MAX_COEC<0.160999] yes=121,no=122,missing=122
						121:leaf=-0.0122922
						122:leaf=0.00774256
				30:[WORD_COUNT<994] yes=61,no=62,missing=62
					61:[D_PUBLISHER_C<23161.3] yes=123,no=124,missing=124
						123:leaf=-0.0238714
						124:leaf=0.00932239
					62:[U_KW_LEN<643] yes=125,no=126,missing=126
						125:leaf=0.00755682
						126:leaf=0.0252275
booster[39]:
0:[D_TITLEMD5_COEC<0.183999] yes=1,no=2,missing=1
	1:[U_KW_LEN<3948] yes=3,no=4,missing=3
		3:[CAT_REL<0.084999] yes=7,no=8,missing=7
			7:[U_KEYWORD_MEAN_EC<20098.1] yes=15,no=16,missing=16
				15:[U_KEYWORD_MICRO_MAX_COEC<0.151999] yes=31,no=32,missing=32
					31:[TIME_OF_DAY<10] yes=63,no=64,missing=64
						63:leaf=-0.00302577
						64:leaf=-0.0148775
					32:[U_CITY_C<143554] yes=65,no=66,missing=65
						65:leaf=0.0147528
						66:leaf=0.0253775
				16:[U_KEYWORD_MAX_C<355.666] yes=33,no=34,missing=34
					33:[TIME_OF_DAY<7] yes=67,no=68,missing=68
						67:leaf=0.0163305
						68:leaf=0.00433468
					34:[D_PUBLISHER_COEC<0.118999] yes=69,no=70,missing=70
						69:leaf=-0.00451849
						70:leaf=0.00341612
			8:[U_CAT_LEN<9] yes=17,no=18,missing=18
				17:[KW_REL<0.005999] yes=35,no=36,missing=36
					35:[U_KEYWORD_MICRO_MAX_COEC<0.150999] yes=71,no=72,missing=72
						71:leaf=-0.00664694
						72:leaf=0.010604
					36:[U_KW_LEN<249] yes=73,no=74,missing=74
						73:leaf=-0.0105618
						74:leaf=0.0213341
				18:[D_KEYWORD_MACRO_MEAN_COEC<0.097999] yes=37,no=38,missing=38
					37:[D_KEYWORD_MEAN_EC<12491.8] yes=75,no=76,missing=76
						75:leaf=0.0174533
						76:leaf=0.00356513
					38:[WORD_COUNT<1111] yes=77,no=78,missing=78
						77:leaf=0.0100435
						78:leaf=0.0214363
		4:[D_TITLEMD5_COEC<0.093999] yes=9,no=10,missing=9
			9:[CAT_REL<0.015999] yes=19,no=20,missing=20
				19:[D_CATEGORY_MACRO_MEAN_COEC<0.158999] yes=39,no=40,missing=40
					39:[KW_REL<0.002999] yes=79,no=80,missing=80
						79:leaf=-0.0111475
						80:leaf=0.0049226
					40:[D_CATEGORY_MAX_C<87411.8] yes=81,no=82,missing=82
						81:leaf=-0.0158383
						82:leaf=0.0254533
				20:[D_KEYWORD_MICRO_MEAN_COEC<0.125999] yes=41,no=42,missing=41
					41:[U_KW_LEN<6827] yes=83,no=84,missing=84
						83:leaf=0.00335326
						84:leaf=0.0270856
					42:[WORD_COUNT<1126] yes=85,no=86,missing=86
						85:leaf=0.0130877
						86:leaf=0.0256234
			10:[U_KW_LEN<6827] yes=21,no=22,missing=22
				21:[CAT_REL<0.024999] yes=43,no=44,missing=44
					43:[D_CATEGORY_MICRO_MAX_COEC<0.130999] yes=87,no=88,missing=88
						87:leaf=0.000974506
						88:leaf=0.0163619
					44:[D_CATEGORY_MACRO_MEAN_COEC<0.108999] yes=89,no=90,missing=89
						89:leaf=0.0183648
						90:leaf=0.0322872
				22:[U_CAT_LEN<41] yes=45,no=46,missing=46
					45:[CAT_REL<0.019999] yes=91,no=92,missing=92
						91:leaf=0.0344516
						92:leaf=0.0481131
					46:[U_CATEGORY_MAX_EC<2411.03] yes=93,no=94,missing=94
						93:leaf=0.0939052
						94:leaf=0.052474
	2:[D_TITLEMD5_COEC<0.332999] yes=5,no=6,missing=6
		5:[CAT_REL<0.019999] yes=11,no=12,missing=12
			11:[TIME_OF_DAY<12] yes=23,no=24,missing=24
				23:[U_KEYWORD_MEAN_C<1959.38] yes=47,no=48,missing=48
					47:[U_KW_LEN<732] yes=95,no=96,missing=96
						95:leaf=0.0120213
						96:leaf=-0.018019
					48:[U_KEYWORD_MACRO_MAX_COEC<0.001999] yes=97,no=98,missing=98
						97:leaf=0.0250013
						98:leaf=0.0122211
				24:[U_KEYWORD_MEAN_C<3161.61] yes=49,no=50,missing=50
					49:[U_KEYWORD_MACRO_MEAN_COEC<0.035999] yes=99,no=100,missing=100
						99:leaf=-0.0116744
						100:leaf=0.00494824
					50:[DOC_AGE<12] yes=101,no=102,missing=102
						101:leaf=0.0137703
						102:leaf=-1.20544e-05
			12:[U_CAT_LEN<10] yes=25,no=26,missing=26
				25:[WORD_COUNT<1389] yes=51,no=52,missing=52
					51:[DOC_AGE<12] yes=103,no=104,missing=104
						103:leaf=0.00745771
						104:leaf=-0.00391874
					52:[KW_REL<0.010999] yes=105,no=106,missing=106
						105:leaf=0.0151777
						106:leaf=-0.0395343
				26:[DOC_AGE<22] yes=53,no=54,missing=54
					53:[WORD_COUNT<1111] yes=107,no=108,missing=108
						107:leaf=0.017746
						108:leaf=0.0279618
					54:[DOC_AGE<56] yes=109,no=110,missing=110
						109:leaf=0.0114397
						110:leaf=-0.0106731
		6:[U_KEYWORD_MEAN_C<2832.67] yes=13,no=14,missing=14
			13:[C_D_U_TITLEMD5_CATEGORY_MICRO_MAX_COEC<0.391999] yes=27,no=28,missing=27
				27:[TIME_OF_DAY<9] yes=55,no=56,missing=56
					55:[U_KEYWORD_MEAN_C<2017.81] yes=111,no=112,missing=112
						111:leaf=0.00932367
						112:leaf=0.0240802
					56:[DOC_AGE<12] yes=113,no=114,missing=114
						113:leaf=0.010522
						114:leaf=-0.00515276
				28:[DOC_AGE<21] yes=57,no=58,missing=58
					57:[D_TITLEMD5_C<4] yes=115,no=116,missing=116
						115:leaf=-0.0309438
						116:leaf=0.0308999
					58:[KW_REL<0.006999] yes=117,no=118,missing=118
						117:leaf=0.0157531
						118:leaf=-0.130275
			14:[D_TITLEMD5_EC<105462] yes=29,no=30,missing=30
				29:[D_TITLEMD5_C<4] yes=59,no=60,missing=60
					59:[U_KEYWORD_MAX_C<430.524] yes=119,no=120,missing=120
						119:leaf=-0.0190702
						120:leaf=-0.0768255
					60:[WORD_COUNT<1148] yes=121,no=122,missing=122
						121:leaf=0.0258499
						122:leaf=0.0415631
				30:[D_KEYWORD_MICRO_MAX_COEC<0.391999] yes=61,no=62,missing=62
					61:[D_PUBLISHER_C<93901.3] yes=123,no=124,missing=123
						123:leaf=0.0320173
						124:leaf=0.0170052
					62:[U_KEYWORD_MACRO_MAX_COEC<0.002999] yes=125,no=126,missing=125
						125:leaf=0.0338063
						126:leaf=0.0133618
booster[40]:
0:[C_D_U_TITLEMD5_CITY_C<35.875] yes=1,no=2,missing=1
	1:[DOC_AGE<3] yes=3,no=4,missing=4
		3:[D_TITLEMD5_C<152.278] yes=7,no=8,missing=7
			7:[C_D_U_CATEGORY_CATEGORY_MICRO_MEAN_COEC<0.119999] yes=15,no=16,missing=16
				15:[C_D_U_TITLEMD5_CATEGORY_MICRO_MAX_COEC<0.145999] yes=31,no=32,missing=32
					31:[KW_REL<0.000999] yes=63,no=64,missing=64
						63:leaf=-0.0196747
						64:leaf=-0.00120895
					32:[D_PUBLISHER_COEC<0.124999] yes=65,no=66,missing=65
						65:leaf=-0.0297088
						66:leaf=-0.00844138
				16:[U_KEYWORD_MAX_C<376.838] yes=33,no=34,missing=34
					33:[D_KEYWORD_MEAN_EC<12492.1] yes=67,no=68,missing=68
						67:leaf=0.028253
						68:leaf=0.0074812
					34:[D_KEYWORD_MACRO_MEAN_COEC<0.102999] yes=69,no=70,missing=69
						69:leaf=-0.00779164
						70:leaf=0.00566552
			8:[CAT_REL<0.001999] yes=17,no=18,missing=18
				17:[D_CATEGORY_MICRO_MEAN_COEC<0.164999] yes=35,no=36,missing=36
					35:[U_KEYWORD_MEAN_EC<21925.2] yes=71,no=72,missing=72
						71:leaf=9.83788e-06
						72:leaf=0.0108194
					36:[DOC_AGE<0.999999] yes=73,no=74,missing=74
						73:leaf=0.0348628
						74:leaf=0.0211919
				18:[U_KW_LEN<3548] yes=37,no=38,missing=38
					37:[DOC_AGE<2] yes=75,no=76,missing=76
						75:leaf=0.0180054
						76:leaf=0.00843188
					38:[U_KW_LEN<5734] yes=77,no=78,missing=78
						77:leaf=0.0244505
						78:leaf=0.039627
		4:[C_D_U_TITLEMD5_CATEGORY_MAX_C<0.629999] yes=9,no=10,missing=10
			9:[D_TITLEMD5_C<11.965] yes=19,no=20,missing=19
				19:[DOC_AGE<96] yes=39,no=40,missing=40
					39:[C_D_U_TITLEMD5_CATEGORY_MICRO_MAX_COEC<0.098999] yes=79,no=80,missing=80
						79:leaf=-0.0251063
						80:leaf=-0.0589267
					40:[C_D_U_TITLEMD5_CATEGORY_MICRO_MAX_COEC<0.095999] yes=81,no=82,missing=82
						81:leaf=0.0134646
						82:leaf=-0.028172
				20:[U_KW_LEN<5158] yes=41,no=42,missing=42
					41:[KW_REL<0.000999] yes=83,no=84,missing=84
						83:leaf=-0.0228851
						84:leaf=-0.00696082
					42:[CAT_REL<0.007999] yes=85,no=86,missing=86
						85:leaf=-0.000888837
						86:leaf=0.0149973
			10:[U_KW_LEN<2615] yes=21,no=22,missing=21
				21:[D_KEYWORD_MICRO_MAX_COEC<0.184999] yes=43,no=44,missing=44
					43:[CAT_REL<0.091999] yes=87,no=88,missing=88
						87:leaf=-0.0076764
						88:leaf=0.00162358
					44:[TIME_OF_DAY<4] yes=89,no=90,missing=90
						89:leaf=0.0119237
						90:leaf=0.000998254
				22:[C_D_U_CATEGORY_CATEGORY_MICRO_MAX_COEC<0.195999] yes=45,no=46,missing=46
					45:[CAT_REL<0.003999] yes=91,no=92,missing=92
						91:leaf=0.00131034
						92:leaf=0.0109458
					46:[KW_REL<0.000999] yes=93,no=94,missing=94
						93:leaf=0.00375629
						94:leaf=0.0299757
	2:[DOC_AGE<3] yes=5,no=6,missing=6
		5:[KW_REL<0.003999] yes=11,no=12,missing=12
			11:[D_KEYWORD_MEAN_EC<23613.8] yes=23,no=24,missing=24
				23:[KW_REL<0.000999] yes=47,no=48,missing=48
					47:[D_TITLEMD5_COEC<0.103999] yes=95,no=96,missing=95
						95:leaf=0.0345783
						96:leaf=0.0138712
					48:[D_KEYWORD_MEAN_EC<14698.4] yes=97,no=98,missing=98
						97:leaf=0.0366884
						98:leaf=0.0255212
				24:[U_KEYWORD_MEAN_C<2941.23] yes=49,no=50,missing=50
					49:[U_KW_LEN<854] yes=99,no=100,missing=100
						99:leaf=0.0160246
						100:leaf=0.00339596
					50:[D_KEYWORD_MACRO_MEAN_COEC<0.147999] yes=101,no=102,missing=102
						101:leaf=0.0188147
						102:leaf=0.0305458
			12:[D_KEYWORD_MEAN_EC<104935] yes=25,no=26,missing=26
				25:[U_KW_LEN<3733] yes=51,no=52,missing=52
					51:[D_TITLEMD5_COEC<0.215999] yes=103,no=104,missing=104
						103:leaf=0.0261421
						104:leaf=0.0379993
					52:[C_D_U_TITLEMD5_CATEGORY_MICRO_MAX_COEC<0.390999] yes=105,no=106,missing=106
						105:leaf=0.0426501
						106:leaf=0.0714146
				26:[KW_REL<0.004999] yes=53,no=54,missing=54
					53:[D_CATEGORY_MAX_C<649846] yes=107,no=108,missing=108
						107:leaf=-0.00219269
						108:leaf=-0.099396
					54:[IMAGE_COUNT<0.999999] yes=109,no=110,missing=110
						109:leaf=-0.0412037
						110:leaf=0.0202157
		6:[TIME_OF_DAY<6] yes=13,no=14,missing=14
			13:[U_KEYWORD_MEAN_C<2172.78] yes=27,no=28,missing=27
				27:[U_KEYWORD_MICRO_MEAN_COEC<0.138999] yes=55,no=56,missing=55
					55:[C_D_U_TITLEMD5_CITY_COEC<0.194999] yes=111,no=112,missing=112
						111:leaf=0.000952811
						112:leaf=0.0118918
					56:[U_KEYWORD_MICRO_MAX_COEC<0.150999] yes=113,no=114,missing=114
						113:leaf=0.0166667
						114:leaf=0.0320264
				28:[D_KEYWORD_MICRO_MAX_COEC<0.187999] yes=57,no=58,missing=58
					57:[KW_REL<0.000999] yes=115,no=116,missing=116
						115:leaf=-0.00473862
						116:leaf=0.0150757
					58:[DOC_AGE<12] yes=117,no=118,missing=118
						117:leaf=0.0307436
						118:leaf=0.0205753
			14:[U_KEYWORD_MEAN_C<3023.71] yes=29,no=30,missing=30
				29:[D_CATEGORY_MEAN_C<486050] yes=59,no=60,missing=59
					59:[D_KEYWORD_MEAN_EC<29446.3] yes=119,no=120,missing=120
						119:leaf=0.00856097
						120:leaf=-0.000385888
					60:[CAT_REL<0.001999] yes=121,no=122,missing=122
						121:leaf=-0.014004
						122:leaf=-0.000704863
				30:[C_D_U_TITLEMD5_CITY_COEC<0.224999] yes=61,no=62,missing=62
					61:[U_KEYWORD_MAX_C<429.023] yes=123,no=124,missing=124
						123:leaf=0.010522
						124:leaf=0.00164721
					62:[DOC_AGE<12] yes=125,no=126,missing=126
						125:leaf=0.0220086
						126:leaf=0.0112107
booster[41]:
0:[D_KEYWORD_MACRO_MEAN_COEC<0.099999] yes=1,no=2,missing=1
	1:[D_TITLEMD5_C<20.821] yes=3,no=4,missing=3
		3:[KW_REL<0.004999] yes=7,no=8,missing=8
			7:[D_KEYWORD_MEAN_EC<38218.1] yes=15,no=16,missing=15
				15:[KW_REL<0.000999] yes=31,no=32,missing=32
					31:[D_CATEGORY_MACRO_MAX_COEC<0.066999] yes=63,no=64,missing=64
						63:leaf=-0.052009
						64:leaf=-0.0220074
					32:[D_KEYWORD_MAX_EC<2640.33] yes=65,no=66,missing=65
						65:leaf=0.0209354
						66:leaf=-0.0112117
				16:[C_D_U_TITLEMD5_CATEGORY_MICRO_MAX_COEC<0.098999] yes=33,no=34,missing=33
					33:[D_TITLEMD5_COEC<0.023999] yes=67,no=68,missing=67
						67:leaf=-0.0345085
						68:leaf=-0.0162313
					34:[D_TITLEMD5_COEC<0.043999] yes=69,no=70,missing=70
						69:leaf=-0.0915198
						70:leaf=-0.0353457
			8:[KW_REL<0.005999] yes=17,no=18,missing=17
				17:[D_KEYWORD_MEAN_EC<31178.8] yes=35,no=36,missing=36
					35:[U_KW_LEN<1944] yes=71,no=72,missing=72
						71:leaf=-0.00168654
						72:leaf=0.0295643
					36:[WORD_COUNT<745] yes=73,no=74,missing=74
						73:leaf=-0.0360133
						74:leaf=-0.00196132
				18:[U_KW_LEN<398] yes=37,no=38,missing=38
					37:[C_D_U_CATEGORY_CATEGORY_MAX_EC<27526.4] yes=75,no=76,missing=76
						75:leaf=-0.0348167
						76:leaf=0.0153822
					38:[D_TITLEMD5_EC<177.88] yes=77,no=78,missing=77
						77:leaf=0.0305232
						78:leaf=0.0068711
		4:[DOC_AGE<3] yes=9,no=10,missing=10
			9:[D_TITLEMD5_EC<2551.91] yes=19,no=20,missing=20
				19:[U_KEYWORD_MAX_C<291.624] yes=39,no=40,missing=40
					39:[D_KEYWORD_MEAN_EC<12474.7] yes=79,no=80,missing=80
						79:leaf=0.0285816
						80:leaf=0.00918351
					40:[CAT_REL<0.087999] yes=81,no=82,missing=82
						81:leaf=-0.00450696
						82:leaf=0.00904673
				20:[TIME_OF_DAY<4] yes=41,no=42,missing=42
					41:[C_D_U_TITLEMD5_CATEGORY_MICRO_MAX_COEC<0.047999] yes=83,no=84,missing=83
						83:leaf=0.0173792
						84:leaf=0.0378725
					42:[DOC_AGE<2] yes=85,no=86,missing=86
						85:leaf=0.0162258
						86:leaf=0.00511826
			10:[U_KW_LEN<2970] yes=21,no=22,missing=22
				21:[CAT_REL<0.107999] yes=43,no=44,missing=44
					43:[DOC_AGE<24] yes=87,no=88,missing=88
						87:leaf=-0.01081
						88:leaf=0.00453989
					44:[U_KW_LEN<848] yes=89,no=90,missing=90
						89:leaf=-0.00685365
						90:leaf=0.00687114
				22:[D_CATEGORY_MACRO_MAX_COEC<0.131999] yes=45,no=46,missing=46
					45:[CAT_REL<0.034999] yes=91,no=92,missing=92
						91:leaf=-0.0101358
						92:leaf=0.00690202
					46:[KW_REL<0.003999] yes=93,no=94,missing=94
						93:leaf=0.0113347
						94:leaf=0.028474
	2:[WORD_COUNT<1111] yes=5,no=6,missing=6
		5:[D_CATEGORY_MICRO_MEAN_COEC<0.169999] yes=11,no=12,missing=12
			11:[TIME_OF_DAY<10] yes=23,no=24,missing=24
				23:[U_KEYWORD_MEAN_C<2504.17] yes=47,no=48,missing=47
					47:[U_KEYWORD_MICRO_MAX_COEC<0.140999] yes=95,no=96,missing=96
						95:leaf=-0.00939221
						96:leaf=0.00185943
					48:[WORD_COUNT<352] yes=97,no=98,missing=98
						97:leaf=-0.00999071
						98:leaf=0.010839
				24:[U_KEYWORD_MEAN_EC<23185.3] yes=49,no=50,missing=50
					49:[U_KW_LEN<5309] yes=99,no=100,missing=100
						99:leaf=-0.0100582
						100:leaf=0.0153738
					50:[U_KW_LEN<1841] yes=101,no=102,missing=102
						101:leaf=-0.00210431
						102:leaf=0.00821315
			12:[D_TITLEMD5_EC<51668.6] yes=25,no=26,missing=25
				25:[D_PUBLISHER_EC<53611.8] yes=51,no=52,missing=52
					51:[D_KEYWORD_MAX_EC<53845] yes=103,no=104,missing=104
						103:leaf=0.00173586
						104:leaf=-0.0379563
					52:[DOC_AGE<65] yes=105,no=106,missing=106
						105:leaf=0.0208342
						106:leaf=-0.0118308
				26:[U_KEYWORD_MICRO_MEAN_COEC<0.140999] yes=53,no=54,missing=53
					53:[U_KEYWORD_MEAN_C<3437.01] yes=107,no=108,missing=107
						107:leaf=0.000996204
						108:leaf=0.0208544
					54:[U_KEYWORD_MAX_EC<3491.2] yes=109,no=110,missing=110
						109:leaf=0.0214338
						110:leaf=0.00314807
		6:[CAT_REL<0.021999] yes=13,no=14,missing=14
			13:[D_CATEGORY_MEAN_EC<460158] yes=27,no=28,missing=27
				27:[D_PUBLISHER_COEC<0.120999] yes=55,no=56,missing=56
					55:[WORD_COUNT<1940] yes=111,no=112,missing=112
						111:leaf=0.00242919
						112:leaf=0.0148401
					56:[D_KEYWORD_MICRO_MAX_COEC<0.139999] yes=113,no=114,missing=114
						113:leaf=-0.0342413
						114:leaf=0.0186977
				28:[U_KEYWORD_MACRO_MAX_COEC<0.001999] yes=57,no=58,missing=57
					57:[U_KEYWORD_MEAN_C<1587.64] yes=115,no=116,missing=116
						115:leaf=-0.0340006
						116:leaf=0.0099922
					58:[U_KEYWORD_MACRO_MEAN_COEC<0.028999] yes=117,no=118,missing=118
						117:leaf=-0.0105556
						118:leaf=0.00301555
			14:[U_KW_LEN<1520] yes=29,no=30,missing=30
				29:[D_TITLEMD5_COEC<0.197999] yes=59,no=60,missing=60
					59:[U_CATEGORY_MACRO_MAX_COEC<0.036999] yes=119,no=120,missing=119
						119:leaf=0.0089389
						120:leaf=-0.00233648
					60:[DOC_AGE<25] yes=121,no=122,missing=122
						121:leaf=0.0214456
						122:leaf=0.0075635
				30:[C_D_U_TITLEMD5_CATEGORY_MICRO_MAX_COEC<0.211999] yes=61,no=62,missing=62
					61:[D_KEYWORD_MEAN_EC<32075.7] yes=123,no=124,missing=124
						123:leaf=0.0234525
						124:leaf=0.0132934
					62:[C_D_U_TITLEMD5_CATEGORY_MICRO_MAX_COEC<0.342999] yes=125,no=126,missing=126
						125:leaf=0.0274456
						126:leaf=0.042518
booster[42]:
0:[C_D_U_TITLEMD5_CITY_COEC<0.157999] yes=1,no=2,missing=1
	1:[KW_REL<0.002999] yes=3,no=4,missing=3
		3:[D_KEYWORD_MEAN_EC<36716.5] yes=7,no=8,missing=7
			7:[KW_REL<0.000999] yes=15,no=16,missing=15
				15:[U_KEYWORD_MACRO_MEAN_COEC<0.036999] yes=31,no=32,missing=32
					31:[D_KEYWORD_MEAN_EC<15804.9] yes=63,no=64,missing=64
						63:leaf=-0.0083663
						64:leaf=-0.0264068
					32:[DAY_OF_WEEK<6] yes=65,no=66,missing=65
						65:leaf=-0.0036545
						66:leaf=0.011038
				16:[D_KEYWORD_MEAN_EC<14714] yes=33,no=34,missing=33
					33:[D_CATEGORY_MACRO_MEAN_COEC<0.120999] yes=67,no=68,missing=68
						67:leaf=0.00976283
						68:leaf=0.0203074
					34:[D_KEYWORD_MACRO_MEAN_COEC<0.099999] yes=69,no=70,missing=70
						69:leaf=-0.00387246
						70:leaf=0.0064587
			8:[U_KEYWORD_MACRO_MEAN_COEC<0.032999] yes=17,no=18,missing=18
				17:[U_KEYWORD_MEAN_EC<15405.7] yes=35,no=36,missing=36
					35:[U_KEYWORD_MEAN_C<1598.03] yes=71,no=72,missing=72
						71:leaf=-0.0529816
						72:leaf=-0.0306508
					36:[D_KEYWORD_MEAN_EC<55351.9] yes=73,no=74,missing=74
						73:leaf=-0.00605727
						74:leaf=-0.0205423
				18:[D_KEYWORD_MICRO_MEAN_COEC<0.150999] yes=37,no=38,missing=38
					37:[DAY_OF_WEEK<2] yes=75,no=76,missing=76
						75:leaf=-0.0123349
						76:leaf=-0.000367213
					38:[U_KEYWORD_MICRO_MAX_COEC<0.150999] yes=77,no=78,missing=78
						77:leaf=0.00117073
						78:leaf=0.0156468
		4:[D_KEYWORD_MAX_EC<14523.3] yes=9,no=10,missing=9
			9:[D_CATEGORY_MICRO_MAX_COEC<0.104999] yes=19,no=20,missing=20
				19:[D_KEYWORD_MICRO_MEAN_COEC<0.109999] yes=39,no=40,missing=40
					39:[D_KEYWORD_MEAN_EC<13636.5] yes=79,no=80,missing=80
						79:leaf=0.0213056
						80:leaf=-0.00210042
					40:[D_KEYWORD_MEAN_EC<26198.2] yes=81,no=82,missing=82
						81:leaf=0.0186506
						82:leaf=0.0084918
				20:[U_KW_LEN<1458] yes=41,no=42,missing=42
					41:[U_KW_LEN<248] yes=83,no=84,missing=84
						83:leaf=-0.00721198
						84:leaf=0.0124293
					42:[D_KEYWORD_MEAN_EC<31183.5] yes=85,no=86,missing=85
						85:leaf=0.0306872
						86:leaf=0.0173134
			10:[KW_REL<0.004999] yes=21,no=22,missing=22
				21:[D_KEYWORD_MEAN_EC<83536.7] yes=43,no=44,missing=44
					43:[D_PUBLISHER_COEC<0.131999] yes=87,no=88,missing=88
						87:leaf=-0.00148813
						88:leaf=0.00817535
					44:[D_KEYWORD_MEAN_EC<105213] yes=89,no=90,missing=90
						89:leaf=-0.00663008
						90:leaf=-0.0223872
				22:[WORD_COUNT<536] yes=45,no=46,missing=46
					45:[D_KEYWORD_MAX_EC<62164.8] yes=91,no=92,missing=92
						91:leaf=-0.00286562
						92:leaf=-0.0310939
					46:[U_KW_LEN<1002] yes=93,no=94,missing=94
						93:leaf=0.00200648
						94:leaf=0.0147118
	2:[U_KW_LEN<3882] yes=5,no=6,missing=6
		5:[TIME_OF_DAY<11] yes=11,no=12,missing=12
			11:[U_KEYWORD_MEAN_C<2888.38] yes=23,no=24,missing=23
				23:[U_KEYWORD_MICRO_MAX_COEC<0.140999] yes=47,no=48,missing=48
					47:[U_KEYWORD_MEAN_C<1598.03] yes=95,no=96,missing=96
						95:leaf=-0.013791
						96:leaf=0.00553901
					48:[D_KEYWORD_MICRO_MAX_COEC<0.198999] yes=97,no=98,missing=98
						97:leaf=0.00542121
						98:leaf=0.0144469
				24:[U_CAT_LEN<10] yes=49,no=50,missing=50
					49:[D_CATEGORY_MACRO_MEAN_COEC<0.145999] yes=99,no=100,missing=99
						99:leaf=0.00226079
						100:leaf=0.0125077
					50:[D_TITLEMD5_COEC<0.224999] yes=101,no=102,missing=102
						101:leaf=0.0171672
						102:leaf=0.0272177
			12:[U_KEYWORD_MEAN_C<3333.12] yes=25,no=26,missing=26
				25:[U_KEYWORD_MICRO_MAX_COEC<0.150999] yes=51,no=52,missing=52
					51:[CAT_REL<0.042999] yes=103,no=104,missing=104
						103:leaf=-0.00639925
						104:leaf=0.00694801
					52:[DOC_AGE<3] yes=105,no=106,missing=106
						105:leaf=0.0263499
						106:leaf=0.0158576
				26:[DOC_AGE<12] yes=53,no=54,missing=54
					53:[U_KEYWORD_MACRO_MAX_COEC<0.002999] yes=107,no=108,missing=107
						107:leaf=0.014857
						108:leaf=-0.00292194
					54:[U_CATEGORY_MACRO_MAX_COEC<0.030999] yes=109,no=110,missing=110
						109:leaf=0.00806178
						110:leaf=-0.00361899
		6:[U_KW_LEN<5709] yes=13,no=14,missing=14
			13:[C_D_U_TITLEMD5_CATEGORY_MICRO_MAX_COEC<0.235999] yes=27,no=28,missing=27
				27:[C_D_U_TITLEMD5_CITY_C<4.44] yes=55,no=56,missing=56
					55:[D_TITLEMD5_COEC<0.071999] yes=111,no=112,missing=111
						111:leaf=-0.00984032
						112:leaf=0.00831451
					56:[U_KEYWORD_MEAN_C<1752.63] yes=113,no=114,missing=114
						113:leaf=-0.00332468
						114:leaf=0.0191049
				28:[U_KEYWORD_MEAN_C<2209.74] yes=57,no=58,missing=58
					57:[CAT_REL<0.027999] yes=115,no=116,missing=116
						115:leaf=0.00704571
						116:leaf=0.0367454
					58:[DOC_AGE<24] yes=117,no=118,missing=118
						117:leaf=0.0329796
						118:leaf=0.0131733
			14:[D_TITLEMD5_COEC<0.110999] yes=29,no=30,missing=30
				29:[CAT_REL<0.019999] yes=59,no=60,missing=60
					59:[D_CATEGORY_MACRO_MEAN_COEC<0.110999] yes=119,no=120,missing=120
						119:leaf=-0.0209137
						120:leaf=0.0102926
					60:[D_TITLEMD5_C<11.763] yes=121,no=122,missing=122
						121:leaf=-0.000528705
						122:leaf=0.0274771
				30:[U_KW_LEN<6652] yes=61,no=62,missing=62
					61:[D_TITLEMD5_COEC<0.224999] yes=123,no=124,missing=124
						123:leaf=0.0296335
						124:leaf=0.0442577
					62:[DOC_AGE<24] yes=125,no=126,missing=126
						125:leaf=0.0482446
						126:leaf=0.0194851
booster[43]:
0:[D_KEYWORD_MICRO_MAX_COEC<0.184999] yes=1,no=2,missing=1
	1:[KW_REL<0.003999] yes=3,no=4,missing=3
		3:[D_KEYWORD_MEAN_EC<52316.1] yes=7,no=8,missing=7
			7:[KW_REL<0.000999] yes=15,no=16,missing=16
				15:[U_KEYWORD_MACRO_MEAN_COEC<0.035999] yes=31,no=32,missing=32
					31:[D_KEYWORD_MEAN_EC<18700.3] yes=63,no=64,missing=64
						63:leaf=-0.00895528
						64:leaf=-0.0292356
					32:[DAY_OF_WEEK<6] yes=65,no=66,missing=66
						65:leaf=-0.00657916
						66:leaf=0.00876668
				16:[D_KEYWORD_MEAN_EC<16679.4] yes=33,no=34,missing=34
					33:[IMAGE_COUNT<0.999999] yes=67,no=68,missing=68
						67:leaf=-0.00737656
						68:leaf=0.0137344
					34:[U_KEYWORD_MEAN_EC<16449.7] yes=69,no=70,missing=70
						69:leaf=-0.00932129
						70:leaf=0.00209777
			8:[U_KEYWORD_MEAN_EC<23179.6] yes=17,no=18,missing=18
				17:[U_KEYWORD_MACRO_MEAN_COEC<0.031999] yes=35,no=36,missing=36
					35:[KW_REL<0.001999] yes=71,no=72,missing=72
						71:leaf=-0.0472501
						72:leaf=-0.0170325
					36:[U_KEYWORD_MICRO_MAX_COEC<0.150999] yes=73,no=74,missing=74
						73:leaf=-0.00917352
						74:leaf=0.0102744
				18:[DOC_AGE<2] yes=37,no=38,missing=38
					37:[D_PUBLISHER_EC<1.24277e+06] yes=75,no=76,missing=76
						75:leaf=-0.00126496
						76:leaf=0.020821
					38:[U_KEYWORD_MAX_C<394.313] yes=77,no=78,missing=77
						77:leaf=-0.00452028
						78:leaf=-0.014428
		4:[D_KEYWORD_MAX_EC<61838.2] yes=9,no=10,missing=9
			9:[D_TITLEMD5_COEC<0.100999] yes=19,no=20,missing=19
				19:[WORD_COUNT<1310] yes=39,no=40,missing=40
					39:[KW_REL<0.005999] yes=79,no=80,missing=80
						79:leaf=-0.00575525
						80:leaf=0.00961755
					40:[U_KEYWORD_MAX_C<276.213] yes=81,no=82,missing=81
						81:leaf=0.0217758
						82:leaf=0.00712305
				20:[DOC_AGE<12] yes=41,no=42,missing=42
					41:[KW_REL<0.005999] yes=83,no=84,missing=84
						83:leaf=0.0155721
						84:leaf=0.0311195
					42:[DOC_AGE<49] yes=85,no=86,missing=86
						85:leaf=0.00816636
						86:leaf=-0.0190705
			10:[D_KEYWORD_MACRO_MAX_COEC<0.045999] yes=21,no=22,missing=22
				21:[KW_REL<0.006999] yes=43,no=44,missing=44
					43:[IMAGE_COUNT<0.999999] yes=87,no=88,missing=88
						87:leaf=-0.0358931
						88:leaf=-0.00344441
					44:[U_KEYWORD_MAX_C<420.659] yes=89,no=90,missing=90
						89:leaf=0.0274225
						90:leaf=0.00461802
				22:[DOC_AGE<12] yes=45,no=46,missing=46
					45:[KW_REL<0.009999] yes=91,no=92,missing=92
						91:leaf=-0.0342715
						92:leaf=0.0107159
					46:[D_KEYWORD_MACRO_MAX_COEC<0.064999] yes=93,no=94,missing=94
						93:leaf=-0.0248462
						94:leaf=-0.095263
	2:[TIME_OF_DAY<10] yes=5,no=6,missing=6
		5:[U_KEYWORD_MEAN_C<2411.06] yes=11,no=12,missing=11
			11:[D_CATEGORY_MACRO_MEAN_COEC<0.169999] yes=23,no=24,missing=24
				23:[U_KEYWORD_MICRO_MAX_COEC<0.150999] yes=47,no=48,missing=47
					47:[U_KEYWORD_MEAN_C<1585.33] yes=95,no=96,missing=96
						95:leaf=-0.00780494
						96:leaf=0.00509036
					48:[U_CITY_COEC<0.120999] yes=97,no=98,missing=97
						97:leaf=0.0119805
						98:leaf=0.0234601
				24:[DOC_AGE<12] yes=49,no=50,missing=50
					49:[U_KW_LEN<728] yes=99,no=100,missing=100
						99:leaf=0.0314895
						100:leaf=0.0156044
					50:[KW_REL<0.006999] yes=101,no=102,missing=102
						101:leaf=0.0135961
						102:leaf=-0.0752458
			12:[U_KEYWORD_MACRO_MAX_COEC<0.001999] yes=25,no=26,missing=26
				25:[D_TITLEMD5_COEC<0.215999] yes=51,no=52,missing=51
					51:[U_KW_LEN<5133] yes=103,no=104,missing=104
						103:leaf=0.0179382
						104:leaf=0.0290652
					52:[DOC_AGE<21] yes=105,no=106,missing=106
						105:leaf=0.0358436
						106:leaf=0.0191113
				26:[D_CATEGORY_MICRO_MAX_COEC<0.145999] yes=53,no=54,missing=54
					53:[C_D_U_TITLEMD5_CITY_C<80.143] yes=107,no=108,missing=107
						107:leaf=0.00594979
						108:leaf=0.014217
					54:[U_KEYWORD_MEAN_C<2997.25] yes=109,no=110,missing=110
						109:leaf=0.0132445
						110:leaf=0.0208363
		6:[U_KEYWORD_MEAN_EC<23773.9] yes=13,no=14,missing=14
			13:[U_KW_LEN<4798] yes=27,no=28,missing=28
				27:[U_KEYWORD_MICRO_MAX_COEC<0.150999] yes=55,no=56,missing=56
					55:[CAT_REL<0.040999] yes=111,no=112,missing=112
						111:leaf=-0.00771003
						112:leaf=0.00342856
					56:[U_KEYWORD_MICRO_MAX_COEC<0.151999] yes=113,no=114,missing=114
						113:leaf=0.0079172
						114:leaf=0.0183417
				28:[U_KW_LEN<6877] yes=57,no=58,missing=58
					57:[D_TITLEMD5_COEC<0.174999] yes=115,no=116,missing=115
						115:leaf=0.00965297
						116:leaf=0.0249447
					58:[D_TITLEMD5_COEC<0.102999] yes=117,no=118,missing=117
						117:leaf=0.0225952
						118:leaf=0.0444605
			14:[D_TITLEMD5_COEC<0.329999] yes=29,no=30,missing=29
				29:[U_KW_LEN<2357] yes=59,no=60,missing=60
					59:[WORD_COUNT<916] yes=119,no=120,missing=120
						119:leaf=-0.00149518
						120:leaf=0.00730506
					60:[D_TITLEMD5_COEC<0.107999] yes=121,no=122,missing=122
						121:leaf=0.00780793
						122:leaf=0.017924
				30:[DOC_AGE<5] yes=61,no=62,missing=62
					61:[D_KEYWORD_MICRO_MAX_COEC<0.390999] yes=123,no=124,missing=124
						123:leaf=0.0311703
						124:leaf=0.049563
					62:[U_KEYWORD_MACRO_MAX_COEC<0.002999] yes=125,no=126,missing=125
						125:leaf=0.0213414
						126:leaf=0.00216571
booster[44]:
0:[C_D_U_TITLEMD5_CITY_C<24.888] yes=1,no=2,missing=1
	1:[D_PUBLISHER_COEC<0.121999] yes=3,no=4,missing=4
		3:[D_TITLEMD5_C<11.96] yes=7,no=8,missing=7
			7:[KW_REL<0.004999] yes=15,no=16,missing=16
				15:[C_D_U_TITLEMD5_CATEGORY_MICRO_MAX_COEC<0.066999] yes=31,no=32,missing=32
					31:[C_D_U_CATEGORY_CATEGORY_MICRO_MEAN_COEC<0.057999] yes=63,no=64,missing=64
						63:leaf=-0.0420273
						64:leaf=-0.0105959
					32:[IMAGE_COUNT<0.999999] yes=65,no=66,missing=66
						65:leaf=-0.0488363
						66:leaf=-0.0244029
				16:[D_TITLEMD5_EC<177.498] yes=33,no=34,missing=34
					33:[KW_REL<0.006999] yes=67,no=68,missing=68
						67:leaf=0.00636117
						68:leaf=0.0320429
					34:[D_KEYWORD_MEAN_EC<84146.2] yes=69,no=70,missing=70
						69:leaf=-0.000805282
						70:leaf=-0.0310122
			8:[U_KW_LEN<4500] yes=17,no=18,missing=18
				17:[CAT_REL<0.088999] yes=35,no=36,missing=36
					35:[D_CATEGORY_MACRO_MEAN_COEC<0.132999] yes=71,no=72,missing=72
						71:leaf=-0.00857907
						72:leaf=-0.00106737
					36:[U_KW_LEN<735] yes=73,no=74,missing=74
						73:leaf=-0.00504328
						74:leaf=0.0075471
				18:[U_KW_LEN<7027] yes=37,no=38,missing=38
					37:[CAT_REL<0.030999] yes=75,no=76,missing=76
						75:leaf=0.00146697
						76:leaf=0.0152828
					38:[U_KEYWORD_MAX_C<253.187] yes=77,no=78,missing=78
						77:leaf=0.0400791
						78:leaf=0.0198049
		4:[DOC_AGE<2] yes=9,no=10,missing=10
			9:[U_KEYWORD_MEAN_EC<15246.3] yes=19,no=20,missing=20
				19:[C_D_U_TITLEMD5_CATEGORY_MAX_C<0.981999] yes=39,no=40,missing=40
					39:[D_KEYWORD_MEAN_EC<23635.2] yes=79,no=80,missing=80
						79:leaf=0.0076198
						80:leaf=-0.00976867
					40:[KW_REL<0.004999] yes=81,no=82,missing=82
						81:leaf=0.00744002
						82:leaf=0.0271776
				20:[D_PUBLISHER_EC<1.16358e+06] yes=41,no=42,missing=41
					41:[D_KEYWORD_MACRO_MEAN_COEC<0.116999] yes=83,no=84,missing=83
						83:leaf=0.00641356
						84:leaf=0.0178926
					42:[DOC_AGE<0.999999] yes=85,no=86,missing=86
						85:leaf=0.0246878
						86:leaf=0.0130461
			10:[D_TITLEMD5_COEC<0.064999] yes=21,no=22,missing=22
				21:[DOC_AGE<95] yes=43,no=44,missing=44
					43:[D_TITLEMD5_COEC<0.023999] yes=87,no=88,missing=88
						87:leaf=-0.0292399
						88:leaf=-0.00859065
					44:[D_CATEGORY_MEAN_EC<1.4483e+06] yes=89,no=90,missing=90
						89:leaf=0.0123216
						90:leaf=0.036356
				22:[WORD_COUNT<992] yes=45,no=46,missing=45
					45:[D_KEYWORD_MICRO_MAX_COEC<0.136999] yes=91,no=92,missing=92
						91:leaf=-0.0183966
						92:leaf=-0.00230536
					46:[D_CATEGORY_MICRO_MEAN_COEC<0.158999] yes=93,no=94,missing=94
						93:leaf=0.00287426
						94:leaf=0.0142681
	2:[DOC_AGE<3] yes=5,no=6,missing=6
		5:[DOC_AGE<2] yes=11,no=12,missing=12
			11:[U_KW_LEN<3650] yes=23,no=24,missing=24
				23:[C_D_U_TITLEMD5_CATEGORY_MAX_EC<9.713] yes=47,no=48,missing=48
					47:[CAT_REL<0.006999] yes=95,no=96,missing=96
						95:leaf=0.00601989
						96:leaf=0.0187361
					48:[TIME_OF_DAY<6] yes=97,no=98,missing=98
						97:leaf=0.0282404
						98:leaf=0.0186861
				24:[CAT_REL<0.001999] yes=49,no=50,missing=50
					49:[U_KEYWORD_MEAN_EC<15246.3] yes=99,no=100,missing=100
						99:leaf=-0.000143415
						100:leaf=0.0262836
					50:[U_KW_LEN<5772] yes=101,no=102,missing=102
						101:leaf=0.0324664
						102:leaf=0.0451707
			12:[C_D_U_TITLEMD5_CITY_COEC<0.222999] yes=25,no=26,missing=26
				25:[CAT_REL<0.032999] yes=51,no=52,missing=52
					51:[U_KW_LEN<5105] yes=103,no=104,missing=104
						103:leaf=0.00489619
						104:leaf=0.0259891
					52:[U_KEYWORD_MAX_EC<2675.2] yes=105,no=106,missing=106
						105:leaf=0.0215988
						106:leaf=0.0105186
				26:[U_KEYWORD_MEAN_C<2831.73] yes=53,no=54,missing=54
					53:[U_KEYWORD_MICRO_MAX_COEC<0.145999] yes=107,no=108,missing=108
						107:leaf=0.00853171
						108:leaf=0.021641
					54:[D_TITLEMD5_C<19764.3] yes=109,no=110,missing=110
						109:leaf=0.0228787
						110:leaf=0.0432308
		6:[TIME_OF_DAY<5] yes=13,no=14,missing=14
			13:[U_KEYWORD_MEAN_C<2161.94] yes=27,no=28,missing=27
				27:[U_KEYWORD_MICRO_MEAN_COEC<0.138999] yes=55,no=56,missing=55
					55:[WORD_COUNT<1345] yes=111,no=112,missing=112
						111:leaf=-0.000704072
						112:leaf=0.00854731
					56:[D_KEYWORD_MICRO_MEAN_COEC<0.129999] yes=113,no=114,missing=114
						113:leaf=0.0081022
						114:leaf=0.0195744
				28:[D_CATEGORY_MICRO_MEAN_COEC<0.148999] yes=57,no=58,missing=58
					57:[KW_REL<0.001999] yes=115,no=116,missing=116
						115:leaf=0.00785258
						116:leaf=0.0164526
					58:[U_KEYWORD_MACRO_MAX_COEC<0.001999] yes=117,no=118,missing=118
						117:leaf=0.0321999
						118:leaf=0.0210849
			14:[WORD_COUNT<992] yes=29,no=30,missing=30
				29:[U_KEYWORD_MEAN_EC<22099.4] yes=59,no=60,missing=59
					59:[D_CATEGORY_MEAN_C<508706] yes=119,no=120,missing=119
						119:leaf=-0.00312383
						120:leaf=-0.0132285
					60:[U_KEYWORD_MACRO_MAX_COEC<0.002999] yes=121,no=122,missing=122
						121:leaf=0.00346829
						122:leaf=-0.0101587
				30:[U_KW_LEN<3650] yes=61,no=62,missing=62
					61:[C_D_U_TITLEMD5_CITY_COEC<0.198999] yes=123,no=124,missing=124
						123:leaf=0.00173658
						124:leaf=0.00913437
					62:[U_KW_LEN<5772] yes=125,no=126,missing=126
						125:leaf=0.0120685
						126:leaf=0.0268672
booster[45]:
0:[C_D_U_TITLEMD5_CATEGORY_MICRO_MAX_COEC<0.204999] yes=1,no=2,missing=1
	1:[DOC_AGE<2] yes=3,no=4,missing=4
		3:[D_TITLEMD5_C<122.626] yes=7,no=8,missing=7
			7:[C_D_U_CATEGORY_CATEGORY_MICRO_MEAN_COEC<0.136999] yes=15,no=16,missing=15
				15:[C_D_U_TITLEMD5_CATEGORY_MICRO_MAX_COEC<0.136999] yes=31,no=32,missing=32
					31:[WORD_COUNT<1148] yes=63,no=64,missing=64
						63:leaf=-0.00621612
						64:leaf=0.00409574
					32:[D_KEYWORD_MACRO_MEAN_COEC<0.091999] yes=65,no=66,missing=65
						65:leaf=-0.0212072
						66:leaf=-0.00308814
				16:[D_PUBLISHER_COEC<0.140999] yes=33,no=34,missing=34
					33:[WORD_COUNT<1671] yes=67,no=68,missing=68
						67:leaf=0.00122749
						68:leaf=0.0168728
					34:[DOC_AGE<0.999999] yes=69,no=70,missing=70
						69:leaf=0.0248987
						70:leaf=0.0014467
			8:[TIME_OF_DAY<6] yes=17,no=18,missing=18
				17:[U_KEYWORD_MEAN_C<1895.96] yes=35,no=36,missing=35
					35:[D_TITLEMD5_EC<8705.1] yes=71,no=72,missing=72
						71:leaf=0.0057148
						72:leaf=0.0196674
					36:[D_CATEGORY_MAX_C<66366.9] yes=73,no=74,missing=74
						73:leaf=0.0115621
						74:leaf=0.026396
				18:[U_KEYWORD_MEAN_EC<22101.4] yes=37,no=38,missing=38
					37:[CAT_REL<0.045999] yes=75,no=76,missing=76
						75:leaf=0.00272753
						76:leaf=0.0133015
					38:[DOC_AGE<0.999999] yes=77,no=78,missing=78
						77:leaf=0.0226931
						78:leaf=0.0125548
		4:[D_TITLEMD5_C<223.426] yes=9,no=10,missing=10
			9:[DOC_AGE<92] yes=19,no=20,missing=20
				19:[D_TITLEMD5_COEC<0.023999] yes=39,no=40,missing=40
					39:[D_TITLEMD5_EC<60.97] yes=79,no=80,missing=80
						79:leaf=-0.00153414
						80:leaf=-0.0295232
					40:[D_CATEGORY_MEAN_EC<41042.3] yes=81,no=82,missing=81
						81:leaf=0.00829758
						82:leaf=-0.00872079
				20:[U_KEYWORD_MEAN_EC<19844] yes=41,no=42,missing=42
					41:[U_CAT_LEN<35] yes=83,no=84,missing=84
						83:leaf=0.00335489
						84:leaf=-0.0879285
					42:[C_D_U_TITLEMD5_CATEGORY_MICRO_MAX_COEC<0.139999] yes=85,no=86,missing=85
						85:leaf=0.0246329
						86:leaf=-0.00615442
			10:[WORD_COUNT<1027] yes=21,no=22,missing=21
				21:[D_KEYWORD_MICRO_MAX_COEC<0.146999] yes=43,no=44,missing=44
					43:[D_KEYWORD_MACRO_MAX_COEC<0.044999] yes=87,no=88,missing=88
						87:leaf=-0.00980589
						88:leaf=-0.0460353
					44:[TIME_OF_DAY<9] yes=89,no=90,missing=90
						89:leaf=0.00224583
						90:leaf=-0.00498468
				22:[U_KEYWORD_MACRO_MAX_COEC<0.001999] yes=45,no=46,missing=46
					45:[U_KEYWORD_MEAN_C<1661.35] yes=91,no=92,missing=92
						91:leaf=-0.0101813
						92:leaf=0.0104712
					46:[IMAGE_COUNT<0.999999] yes=93,no=94,missing=94
						93:leaf=-0.0164558
						94:leaf=0.00206576
	2:[U_KW_LEN<3149] yes=5,no=6,missing=6
		5:[C_D_U_TITLEMD5_CATEGORY_MAX_C<0.560999] yes=11,no=12,missing=12
			11:[D_KEYWORD_MACRO_MEAN_COEC<0.123999] yes=23,no=24,missing=24
				23:[KW_REL<0.003999] yes=47,no=48,missing=48
					47:[IMAGE_COUNT<0.999999] yes=95,no=96,missing=96
						95:leaf=-0.0586093
						96:leaf=-0.0212267
					48:[U_KW_LEN<671] yes=97,no=98,missing=98
						97:leaf=-0.0285377
						98:leaf=0.00155341
				24:[D_TITLEMD5_COEC<0.265999] yes=49,no=50,missing=50
					49:[U_KEYWORD_MEAN_C<2865.44] yes=99,no=100,missing=100
						99:leaf=-0.0164544
						100:leaf=0.00358707
					50:[D_CATEGORY_MICRO_MEAN_COEC<0.137999] yes=101,no=102,missing=102
						101:leaf=-0.00212179
						102:leaf=0.0242773
			12:[CAT_REL<0.027999] yes=25,no=26,missing=26
				25:[D_CATEGORY_MEAN_EC<3.01635e+06] yes=51,no=52,missing=51
					51:[KW_REL<0.001999] yes=103,no=104,missing=104
						103:leaf=0.00341449
						104:leaf=0.0127909
					52:[WORD_COUNT<991] yes=105,no=106,missing=106
						105:leaf=-0.00797553
						106:leaf=0.00286619
				26:[U_KW_LEN<253] yes=53,no=54,missing=54
					53:[KW_REL<0.011999] yes=107,no=108,missing=108
						107:leaf=-0.000422433
						108:leaf=-0.0494831
					54:[DOC_AGE<12] yes=109,no=110,missing=110
						109:leaf=0.0199956
						110:leaf=0.00960151
		6:[C_D_U_TITLEMD5_CATEGORY_MAX_C<0.330999] yes=13,no=14,missing=14
			13:[U_KW_LEN<5612] yes=27,no=28,missing=28
				27:[CAT_REL<0.004999] yes=55,no=56,missing=56
					55:[D_CATEGORY_MACRO_MEAN_COEC<0.130999] yes=111,no=112,missing=112
						111:leaf=-0.0289179
						112:leaf=-0.00188063
					56:[D_KEYWORD_MICRO_MEAN_COEC<0.107999] yes=113,no=114,missing=114
						113:leaf=-0.0145133
						114:leaf=0.0112915
				28:[U_CAT_LEN<45] yes=57,no=58,missing=58
					57:[C_D_U_TITLEMD5_CATEGORY_MAX_C<0.024999] yes=115,no=116,missing=116
						115:leaf=0.000917479
						116:leaf=0.0259987
					58:[U_KEYWORD_MAX_EC<2030.74] yes=117,no=118,missing=118
						117:leaf=0.0976957
						118:leaf=-0.0588357
			14:[U_KW_LEN<5216] yes=29,no=30,missing=30
				29:[CAT_REL<0.042999] yes=59,no=60,missing=60
					59:[C_D_U_TITLEMD5_CATEGORY_MICRO_MAX_COEC<0.310999] yes=119,no=120,missing=120
						119:leaf=0.0135846
						120:leaf=0.0271353
					60:[DOC_AGE<12] yes=121,no=122,missing=122
						121:leaf=0.0329642
						122:leaf=0.0172095
				30:[DOC_AGE<22] yes=61,no=62,missing=62
					61:[U_KW_LEN<6802] yes=123,no=124,missing=124
						123:leaf=0.0337714
						124:leaf=0.0496292
					62:[DAY_OF_WEEK<5] yes=125,no=126,missing=126
						125:leaf=0.0211513
						126:leaf=-0.00642295
booster[46]:
0:[C_D_U_TITLEMD5_CITY_C<48.805] yes=1,no=2,missing=1
	1:[DOC_AGE<3] yes=3,no=4,missing=4
		3:[D_TITLEMD5_C<79.457] yes=7,no=8,missing=7
			7:[C_D_U_CATEGORY_CATEGORY_MICRO_MEAN_COEC<0.097999] yes=15,no=16,missing=16
				15:[C_D_U_TITLEMD5_CATEGORY_MICRO_MAX_COEC<0.111999] yes=31,no=32,missing=32
					31:[KW_REL<0.000999] yes=63,no=64,missing=64
						63:leaf=-0.0203769
						64:leaf=-0.0041258
					32:[D_TITLEMD5_COEC<0.023999] yes=65,no=66,missing=66
						65:leaf=0.00108117
						66:leaf=-0.0266491
				16:[D_PUBLISHER_COEC<0.147999] yes=33,no=34,missing=33
					33:[WORD_COUNT<1111] yes=67,no=68,missing=68
						67:leaf=-0.00823222
						68:leaf=0.00366716
					34:[DOC_AGE<0.999999] yes=69,no=70,missing=70
						69:leaf=0.0187142
						70:leaf=-0.00170073
			8:[CAT_REL<0.012999] yes=17,no=18,missing=18
				17:[D_CATEGORY_MICRO_MEAN_COEC<0.164999] yes=35,no=36,missing=36
					35:[C_D_U_TITLEMD5_CATEGORY_MAX_EC<8.973] yes=71,no=72,missing=72
						71:leaf=-0.00111254
						72:leaf=0.00674465
					36:[DOC_AGE<0.999999] yes=73,no=74,missing=74
						73:leaf=0.0276983
						74:leaf=0.0155412
				18:[U_KW_LEN<3495] yes=37,no=38,missing=38
					37:[DOC_AGE<0.999999] yes=75,no=76,missing=76
						75:leaf=0.0173402
						76:leaf=0.00809139
					38:[U_KW_LEN<5130] yes=77,no=78,missing=78
						77:leaf=0.0187543
						78:leaf=0.0306746
		4:[D_KEYWORD_MICRO_MEAN_COEC<0.117999] yes=9,no=10,missing=10
			9:[KW_REL<0.005999] yes=19,no=20,missing=20
				19:[D_CATEGORY_MACRO_MAX_COEC<0.132999] yes=39,no=40,missing=40
					39:[D_KEYWORD_MEAN_EC<12507] yes=79,no=80,missing=80
						79:leaf=-0.00106459
						80:leaf=-0.0121116
					40:[U_KW_LEN<1966] yes=81,no=82,missing=82
						81:leaf=-0.00648411
						82:leaf=0.00737414
				20:[DOC_AGE<12] yes=41,no=42,missing=42
					41:[KW_REL<0.007999] yes=83,no=84,missing=84
						83:leaf=0.0151033
						84:leaf=0.0320261
					42:[D_KEYWORD_MACRO_MAX_COEC<0.070999] yes=85,no=86,missing=86
						85:leaf=0.00616887
						86:leaf=-0.0998564
			10:[D_CATEGORY_MAX_EC<472933] yes=21,no=22,missing=21
				21:[WORD_COUNT<1126] yes=43,no=44,missing=43
					43:[D_CATEGORY_MICRO_MEAN_COEC<0.164999] yes=87,no=88,missing=88
						87:leaf=-0.00404579
						88:leaf=0.00652612
					44:[CAT_REL<0.077999] yes=89,no=90,missing=90
						89:leaf=0.0074317
						90:leaf=0.0160132
				22:[CAT_REL<0.001999] yes=45,no=46,missing=46
					45:[C_D_U_TITLEMD5_CATEGORY_MAX_C<6.683] yes=91,no=92,missing=92
						91:leaf=-0.011626
						92:leaf=-0.0020283
					46:[U_KW_LEN<2019] yes=93,no=94,missing=94
						93:leaf=-0.00258975
						94:leaf=0.00686992
	2:[DOC_AGE<3] yes=5,no=6,missing=6
		5:[U_KEYWORD_MEAN_C<2937.45] yes=11,no=12,missing=12
			11:[TIME_OF_DAY<7] yes=23,no=24,missing=24
				23:[D_KEYWORD_MAX_C<934.974] yes=47,no=48,missing=48
					47:[D_KEYWORD_MACRO_MEAN_COEC<0.095999] yes=95,no=96,missing=96
						95:leaf=0.0421427
						96:leaf=0.0234453
					48:[KW_REL<0.001999] yes=97,no=98,missing=98
						97:leaf=0.00454176
						98:leaf=0.0204616
				24:[U_KW_LEN<4554] yes=49,no=50,missing=50
					49:[U_KW_LEN<830] yes=99,no=100,missing=100
						99:leaf=0.0122173
						100:leaf=0.00105468
					50:[U_KW_LEN<6711] yes=101,no=102,missing=102
						101:leaf=0.0205869
						102:leaf=0.0401973
			12:[U_KEYWORD_MAX_C<383.98] yes=25,no=26,missing=25
				25:[DOC_AGE<0.999999] yes=51,no=52,missing=52
					51:[D_TITLEMD5_EC<3359.96] yes=103,no=104,missing=104
						103:leaf=0.0207424
						104:leaf=0.033877
					52:[C_D_U_TITLEMD5_CITY_C<188.52] yes=105,no=106,missing=106
						105:leaf=0.0169294
						106:leaf=0.024775
				26:[CAT_REL<0.029999] yes=53,no=54,missing=54
					53:[U_KEYWORD_MEAN_EC<26121.9] yes=107,no=108,missing=108
						107:leaf=0.00593728
						108:leaf=0.014584
					54:[C_D_U_TITLEMD5_CITY_COEC<0.221999] yes=109,no=110,missing=110
						109:leaf=0.0163235
						110:leaf=0.0288321
		6:[TIME_OF_DAY<7] yes=13,no=14,missing=14
			13:[U_KEYWORD_MEAN_C<2489.61] yes=27,no=28,missing=27
				27:[U_KEYWORD_MICRO_MAX_COEC<0.150999] yes=55,no=56,missing=55
					55:[U_KEYWORD_MEAN_C<1484.75] yes=111,no=112,missing=112
						111:leaf=-0.00546066
						112:leaf=0.00632815
					56:[D_CATEGORY_MAX_EC<509424] yes=113,no=114,missing=113
						113:leaf=0.0297854
						114:leaf=0.0185308
				28:[D_CATEGORY_MICRO_MEAN_COEC<0.146999] yes=57,no=58,missing=58
					57:[IMAGE_COUNT<0.999999] yes=115,no=116,missing=116
						115:leaf=-0.0130039
						116:leaf=0.0127573
					58:[U_CATEGORY_MACRO_MAX_COEC<0.029999] yes=117,no=118,missing=117
						117:leaf=0.0216403
						118:leaf=0.0108656
			14:[U_KEYWORD_MEAN_EC<22505.5] yes=29,no=30,missing=30
				29:[D_KEYWORD_MEAN_EC<32148] yes=59,no=60,missing=60
					59:[KW_REL<0.001999] yes=119,no=120,missing=120
						119:leaf=-0.000158699
						120:leaf=0.0129652
					60:[U_KEYWORD_MACRO_MEAN_COEC<0.031999] yes=121,no=122,missing=122
						121:leaf=-0.00958924
						122:leaf=0.000981664
				30:[U_KW_LEN<2062] yes=61,no=62,missing=62
					61:[C_D_U_TITLEMD5_CITY_COEC<0.299999] yes=123,no=124,missing=124
						123:leaf=0.00234681
						124:leaf=0.0151133
					62:[C_D_U_TITLEMD5_CATEGORY_MAX_C<4.642] yes=125,no=126,missing=126
						125:leaf=0.00719463
						126:leaf=0.0152194
booster[47]:
0:[IMAGE_COUNT<0.999999] yes=1,no=2,missing=2
	1:[U_KW_LEN<2031] yes=3,no=4,missing=4
		3:[D_TITLEMD5_EC<77149.8] yes=7,no=8,missing=7
			7:[D_KEYWORD_MAX_EC<22808.4] yes=15,no=16,missing=15
				15:[D_KEYWORD_MACRO_MEAN_COEC<0.126999] yes=31,no=32,missing=31
					31:[KW_REL<0.003999] yes=63,no=64,missing=64
						63:leaf=-0.0216006
						64:leaf=-0.00345708
					32:[WORD_COUNT<991] yes=65,no=66,missing=66
						65:leaf=-0.0171108
						66:leaf=0.00633639
				16:[D_TITLEMD5_C<3.911] yes=33,no=34,missing=33
					33:[D_TITLEMD5_COEC<0.139999] yes=67,no=68,missing=67
						67:leaf=-0.0555891
						68:leaf=-0.169622
					34:[C_D_U_TITLEMD5_CATEGORY_MICRO_MAX_COEC<0.052999] yes=69,no=70,missing=69
						69:leaf=-0.0141162
						70:leaf=-0.0333513
			8:[U_KW_LEN<534] yes=17,no=18,missing=18
				17:[C_D_U_KEYWORD_AGE_MICRO_MAX_COEC<0.231999] yes=35,no=36,missing=36
					35:[U_CAT_LEN<7] yes=71,no=72,missing=72
						71:leaf=0.0402778
						72:leaf=-0.256598
					36:[D_TITLEMD5_C<22320.4] yes=73,no=74,missing=74
						73:leaf=-0.299625
						74:leaf=-0.171094
				18:[KW_REL<0.005999] yes=37,no=38,missing=38
					37:[D_CATEGORY_MAX_C<487154] yes=75,no=76,missing=76
						75:leaf=-0.0764425
						76:leaf=-0.150102
					38:[U_CITY_EC<676061] yes=77,no=78,missing=78
						77:leaf=-0.0958204
						78:leaf=-0.0493656
		4:[D_CATEGORY_MACRO_MEAN_COEC<0.141999] yes=9,no=10,missing=10
			9:[U_KEYWORD_MACRO_MEAN_COEC<0.024999] yes=19,no=20,missing=20
				19:[CAT_REL<0.043999] yes=39,no=40,missing=40
					39:[D_TITLEMD5_C<3.911] yes=79,no=80,missing=79
						79:leaf=-0.0450244
						80:leaf=-0.00311035
					40:[KW_REL<0.004999] yes=81,no=82,missing=82
						81:leaf=0.0158047
						82:leaf=0.0416983
				20:[KW_REL<0.004999] yes=41,no=42,missing=42
					41:[D_KEYWORD_MICRO_MEAN_COEC<0.121999] yes=83,no=84,missing=84
						83:leaf=-0.0235085
						84:leaf=-0.00601675
					42:[D_KEYWORD_MEAN_EC<97949] yes=85,no=86,missing=86
						85:leaf=0.0107189
						86:leaf=-0.0232588
			10:[D_KEYWORD_MAX_EC<11750.2] yes=21,no=22,missing=22
				21:[D_TITLEMD5_COEC<0.160999] yes=43,no=44,missing=43
					43:[D_KEYWORD_MAX_C<336.184] yes=87,no=88,missing=88
						87:leaf=0.0444957
						88:leaf=0.00602602
					44:[DAY_OF_WEEK<5] yes=89,no=90,missing=90
						89:leaf=0.0156487
						90:leaf=0.0373241
				22:[KW_REL<0.003999] yes=45,no=46,missing=46
					45:[CAT_REL<0.003999] yes=91,no=92,missing=92
						91:leaf=-0.0230179
						92:leaf=-0.00267717
					46:[D_TITLEMD5_COEC<0.023999] yes=93,no=94,missing=93
						93:leaf=-0.0229318
						94:leaf=0.0151276
	2:[KW_REL<0.002999] yes=5,no=6,missing=5
		5:[D_KEYWORD_MEAN_EC<26154.6] yes=11,no=12,missing=12
			11:[KW_REL<0.000999] yes=23,no=24,missing=24
				23:[C_D_U_TITLEMD5_CATEGORY_MAX_C<1.913] yes=47,no=48,missing=48
					47:[D_KEYWORD_MEAN_EC<12359] yes=95,no=96,missing=96
						95:leaf=-0.00474898
						96:leaf=-0.0173443
					48:[U_KEYWORD_MICRO_MAX_COEC<0.150999] yes=97,no=98,missing=97
						97:leaf=-0.00100625
						98:leaf=0.016505
				24:[D_KEYWORD_MACRO_MEAN_COEC<0.099999] yes=49,no=50,missing=50
					49:[D_KEYWORD_MEAN_EC<12359] yes=99,no=100,missing=100
						99:leaf=0.0136475
						100:leaf=-9.43871e-06
					50:[D_KEYWORD_MEAN_EC<13577.1] yes=101,no=102,missing=102
						101:leaf=0.0211908
						102:leaf=0.0108291
			12:[C_D_U_TITLEMD5_CATEGORY_MAX_C<9.747] yes=25,no=26,missing=26
				25:[U_KEYWORD_MEAN_EC<22079.6] yes=51,no=52,missing=52
					51:[U_KEYWORD_MACRO_MEAN_COEC<0.031999] yes=103,no=104,missing=104
						103:leaf=-0.0162466
						104:leaf=-0.00196913
					52:[D_KEYWORD_MEAN_EC<50752.4] yes=105,no=106,missing=106
						105:leaf=0.00258418
						106:leaf=-0.0103899
				26:[D_KEYWORD_MICRO_MAX_COEC<0.207999] yes=53,no=54,missing=53
					53:[D_KEYWORD_MAX_EC<31387.1] yes=107,no=108,missing=107
						107:leaf=8.52771e-05
						108:leaf=-0.00800538
					54:[WORD_COUNT<1335] yes=109,no=110,missing=110
						109:leaf=0.00044102
						110:leaf=0.00989994
		6:[D_KEYWORD_MEAN_EC<63800] yes=13,no=14,missing=13
			13:[D_TITLEMD5_COEC<0.125999] yes=27,no=28,missing=28
				27:[D_KEYWORD_MEAN_EC<28582.6] yes=55,no=56,missing=56
					55:[D_CATEGORY_MACRO_MEAN_COEC<0.112999] yes=111,no=112,missing=112
						111:leaf=0.0102273
						112:leaf=0.024008
					56:[D_CATEGORY_MICRO_MAX_COEC<0.127999] yes=113,no=114,missing=114
						113:leaf=0.000591028
						114:leaf=0.00804028
				28:[DOC_AGE<46] yes=57,no=58,missing=58
					57:[U_KW_LEN<2612] yes=115,no=116,missing=116
						115:leaf=0.0131247
						116:leaf=0.0222712
					58:[KW_REL<0.005999] yes=117,no=118,missing=118
						117:leaf=-0.00897915
						118:leaf=-0.06908
			14:[KW_REL<0.004999] yes=29,no=30,missing=30
				29:[D_KEYWORD_MEAN_EC<105060] yes=59,no=60,missing=60
					59:[D_TITLEMD5_COEC<0.209999] yes=119,no=120,missing=119
						119:leaf=-0.00245155
						120:leaf=0.00954695
					60:[D_KEYWORD_MACRO_MAX_COEC<0.026999] yes=121,no=122,missing=122
						121:leaf=-0.00463758
						122:leaf=-0.021119
				30:[WORD_COUNT<534] yes=61,no=62,missing=62
					61:[D_KEYWORD_MACRO_MAX_COEC<0.044999] yes=123,no=124,missing=124
						123:leaf=-0.00432303
						124:leaf=-0.0262624
					62:[D_TITLEMD5_COEC<0.108999] yes=125,no=126,missing=125
						125:leaf=0.00427654
						126:leaf=0.0157587
booster[48]:
0:[WORD_COUNT<922] yes=1,no=2,missing=1
	1:[D_KEYWORD_MICRO_MAX_COEC<0.158999] yes=3,no=4,missing=4
		3:[D_KEYWORD_MACRO_MAX_COEC<0.044999] yes=7,no=8,missing=8
			7:[D_TITLEMD5_C<31.961] yes=15,no=16,missing=15
				15:[C_D_U_TITLEMD5_CATEGORY_MICRO_MAX_COEC<0.086999] yes=31,no=32,missing=32
					31:[D_KEYWORD_MAX_EC<5410.22] yes=63,no=64,missing=64
						63:leaf=-0.00104098
						64:leaf=-0.0168935
					32:[C_D_U_TITLEMD5_CATEGORY_MAX_C<0.036999] yes=65,no=66,missing=66
						65:leaf=-0.049423
						66:leaf=-0.0240212
				16:[WORD_COUNT<709] yes=33,no=34,missing=34
					33:[D_CATEGORY_MICRO_MEAN_COEC<0.139999] yes=67,no=68,missing=68
						67:leaf=-0.0129372
						68:leaf=-0.00041656
					34:[IMAGE_COUNT<0.999999] yes=69,no=70,missing=70
						69:leaf=-0.0243734
						70:leaf=-0.000833956
			8:[KW_REL<0.005999] yes=17,no=18,missing=18
				17:[D_KEYWORD_MACRO_MAX_COEC<0.078999] yes=35,no=36,missing=36
					35:[D_PUBLISHER_COEC<0.079999] yes=71,no=72,missing=71
						71:leaf=-0.0486125
						72:leaf=-0.0259212
					36:[U_KW_LEN<979] yes=73,no=74,missing=74
						73:leaf=-0.047561
						74:leaf=-0.147904
				18:[DOC_AGE<12] yes=37,no=38,missing=38
					37:[KW_REL<0.010999] yes=75,no=76,missing=76
						75:leaf=-0.0107805
						76:leaf=0.0183214
					38:[D_KEYWORD_MACRO_MEAN_COEC<0.125999] yes=77,no=78,missing=78
						77:leaf=-0.0325331
						78:leaf=-0.108747
		4:[TIME_OF_DAY<10] yes=9,no=10,missing=10
			9:[U_KEYWORD_MEAN_C<2484.22] yes=19,no=20,missing=19
				19:[U_KEYWORD_MICRO_MEAN_COEC<0.138999] yes=39,no=40,missing=40
					39:[D_KEYWORD_MEAN_EC<29320.1] yes=79,no=80,missing=80
						79:leaf=0.000456698
						80:leaf=-0.0115136
					40:[DAY_OF_WEEK<5] yes=81,no=82,missing=82
						81:leaf=-0.00601049
						82:leaf=0.00833432
				20:[U_CAT_LEN<11] yes=41,no=42,missing=42
					41:[U_KW_LEN<156] yes=83,no=84,missing=84
						83:leaf=-0.0114529
						84:leaf=0.000310027
					42:[C_D_U_CATEGORY_CATEGORY_MACRO_MAX_COEC<0.056999] yes=85,no=86,missing=86
						85:leaf=0.00725822
						86:leaf=0.0226387
			10:[U_KEYWORD_MEAN_EC<24698] yes=21,no=22,missing=22
				21:[U_KW_LEN<3913] yes=43,no=44,missing=44
					43:[U_KEYWORD_MICRO_MAX_COEC<0.150999] yes=87,no=88,missing=88
						87:leaf=-0.0112042
						88:leaf=0.00886586
					44:[D_TITLEMD5_COEC<0.101999] yes=89,no=90,missing=89
						89:leaf=-0.00524169
						90:leaf=0.00987763
				22:[U_KW_LEN<1531] yes=45,no=46,missing=45
					45:[U_KEYWORD_MACRO_MAX_COEC<0.002999] yes=91,no=92,missing=91
						91:leaf=-0.00154963
						92:leaf=-0.0135576
					46:[D_TITLEMD5_COEC<0.104999] yes=93,no=94,missing=93
						93:leaf=-0.0011232
						94:leaf=0.0090442
	2:[KW_REL<0.001999] yes=5,no=6,missing=6
		5:[D_KEYWORD_MICRO_MEAN_COEC<0.137999] yes=11,no=12,missing=12
			11:[D_KEYWORD_MEAN_EC<18518.9] yes=23,no=24,missing=24
				23:[KW_REL<0.000999] yes=47,no=48,missing=48
					47:[D_TITLEMD5_C<11.853] yes=95,no=96,missing=95
						95:leaf=-0.0272941
						96:leaf=-0.00348278
					48:[D_CATEGORY_MACRO_MEAN_COEC<0.120999] yes=97,no=98,missing=98
						97:leaf=0.00235126
						98:leaf=0.0127732
				24:[U_KEYWORD_MACRO_MEAN_COEC<0.029999] yes=49,no=50,missing=50
					49:[U_KEYWORD_MEAN_EC<15739.3] yes=99,no=100,missing=100
						99:leaf=-0.0344929
						100:leaf=-0.00727441
					50:[U_KEYWORD_MICRO_MAX_COEC<0.151999] yes=101,no=102,missing=101
						101:leaf=-0.004258
						102:leaf=0.0136469
			12:[U_KEYWORD_MICRO_MAX_COEC<0.150999] yes=25,no=26,missing=26
				25:[D_KEYWORD_MEAN_EC<22031.8] yes=51,no=52,missing=52
					51:[KW_REL<0.000999] yes=103,no=104,missing=104
						103:leaf=-0.00121849
						104:leaf=0.0136093
					52:[U_KEYWORD_MACRO_MEAN_COEC<0.037999] yes=105,no=106,missing=106
						105:leaf=-0.00572554
						106:leaf=0.00482138
				26:[D_CATEGORY_MAX_EC<640156] yes=53,no=54,missing=54
					53:[D_CATEGORY_MICRO_MEAN_COEC<0.123999] yes=107,no=108,missing=108
						107:leaf=0.00763423
						108:leaf=0.0231499
					54:[D_CATEGORY_MACRO_MEAN_COEC<0.144999] yes=109,no=110,missing=109
						109:leaf=0.00237751
						110:leaf=0.0129937
		6:[D_KEYWORD_MEAN_EC<30307.5] yes=13,no=14,missing=13
			13:[D_KEYWORD_MICRO_MEAN_COEC<0.108999] yes=27,no=28,missing=28
				27:[KW_REL<0.004999] yes=55,no=56,missing=56
					55:[DAY_OF_WEEK<5] yes=111,no=112,missing=112
						111:leaf=0.00375551
						112:leaf=-0.0130622
					56:[U_KW_LEN<3060] yes=113,no=114,missing=114
						113:leaf=0.0166704
						114:leaf=0.036186
				28:[U_KEYWORD_MACRO_MAX_COEC<0.002999] yes=57,no=58,missing=57
					57:[D_KEYWORD_MEAN_EC<16661.8] yes=115,no=116,missing=115
						115:leaf=0.0253187
						116:leaf=0.01539
					58:[U_KW_LEN<156] yes=117,no=118,missing=118
						117:leaf=-0.0103013
						118:leaf=0.00482005
			14:[D_TITLEMD5_COEC<0.174999] yes=29,no=30,missing=29
				29:[KW_REL<0.004999] yes=59,no=60,missing=60
					59:[U_KEYWORD_MEAN_C<2110.98] yes=119,no=120,missing=120
						119:leaf=-0.0112395
						120:leaf=0.00110554
					60:[U_KW_LEN<536] yes=121,no=122,missing=122
						121:leaf=-0.0036284
						122:leaf=0.0122356
				30:[D_KEYWORD_MAX_C<5574.55] yes=61,no=62,missing=62
					61:[C_D_U_TITLEMD5_CATEGORY_MICRO_MAX_COEC<0.386999] yes=123,no=124,missing=123
						123:leaf=0.0121658
						124:leaf=0.0267708
					62:[KW_REL<0.003999] yes=125,no=126,missing=126
						125:leaf=-0.00460676
						126:leaf=0.00989339
booster[49]:
0:[U_KW_LEN<4911] yes=1,no=2,missing=1
	1:[C_D_U_TITLEMD5_CATEGORY_MAX_C<0.877999] yes=3,no=4,missing=4
		3:[DOC_AGE<0.999999] yes=7,no=8,missing=8
			7:[C_D_U_TITLEMD5_CATEGORY_MICRO_MAX_COEC<0.144999] yes=15,no=16,missing=16
				15:[U_KEYWORD_MEAN_EC<19778.4] yes=31,no=32,missing=32
					31:[KW_REL<0.005999] yes=63,no=64,missing=64
						63:leaf=0.00126114
						64:leaf=0.024821
					32:[D_PUBLISHER_C<83333] yes=65,no=66,missing=65
						65:leaf=0.00833526
						66:leaf=0.0195889
				16:[D_KEYWORD_MACRO_MEAN_COEC<0.114999] yes=33,no=34,missing=34
					33:[KW_REL<0.003999] yes=67,no=68,missing=68
						67:leaf=-0.0150323
						68:leaf=0.00352758
					34:[D_TITLEMD5_COEC<0.198999] yes=69,no=70,missing=70
						69:leaf=0.000704315
						70:leaf=0.0158649
			8:[D_TITLEMD5_C<32.202] yes=17,no=18,missing=17
				17:[DOC_AGE<98] yes=35,no=36,missing=36
					35:[D_TITLEMD5_COEC<0.023999] yes=71,no=72,missing=72
						71:leaf=-0.0275897
						72:leaf=-0.0131133
					36:[C_D_U_TITLEMD5_CATEGORY_MICRO_MAX_COEC<0.103999] yes=73,no=74,missing=74
						73:leaf=0.0159432
						74:leaf=-0.0134017
				18:[CAT_REL<0.045999] yes=37,no=38,missing=38
					37:[D_CATEGORY_MEAN_C<3275.36] yes=75,no=76,missing=75
						75:leaf=0.0118135
						76:leaf=-0.00806755
					38:[U_CATEGORY_MACRO_MAX_COEC<0.019999] yes=77,no=78,missing=77
						77:leaf=0.00668068
						78:leaf=-0.00473463
		4:[DOC_AGE<3] yes=9,no=10,missing=10
			9:[D_TITLEMD5_C<78.335] yes=19,no=20,missing=19
				19:[D_KEYWORD_MACRO_MEAN_COEC<0.090999] yes=39,no=40,missing=39
					39:[D_TITLEMD5_COEC<0.123999] yes=79,no=80,missing=80
						79:leaf=-0.00337172
						80:leaf=-0.0393888
					40:[D_PUBLISHER_COEC<0.138999] yes=81,no=82,missing=82
						81:leaf=-0.00243393
						82:leaf=0.0221876
				20:[KW_REL<0.003999] yes=41,no=42,missing=42
					41:[DOC_AGE<2] yes=83,no=84,missing=84
						83:leaf=0.0115935
						84:leaf=0.00535962
					42:[C_D_U_TITLEMD5_CATEGORY_MICRO_MAX_COEC<0.233999] yes=85,no=86,missing=86
						85:leaf=0.0153731
						86:leaf=0.0269974
			10:[TIME_OF_DAY<4] yes=21,no=22,missing=22
				21:[U_KEYWORD_MEAN_C<1827.54] yes=43,no=44,missing=43
					43:[U_KEYWORD_MACRO_MEAN_COEC<0.035999] yes=87,no=88,missing=87
						87:leaf=-0.00186448
						88:leaf=0.0102318
					44:[D_CATEGORY_MICRO_MEAN_COEC<0.148999] yes=89,no=90,missing=90
						89:leaf=0.00998667
						90:leaf=0.0179776
				22:[U_KEYWORD_MEAN_C<3077.56] yes=45,no=46,missing=45
					45:[D_CATEGORY_MEAN_EC<3.01984e+06] yes=91,no=92,missing=91
						91:leaf=0.000410157
						92:leaf=-0.00677165
					46:[U_KEYWORD_MACRO_MAX_COEC<0.002999] yes=93,no=94,missing=94
						93:leaf=0.00577889
						94:leaf=-0.00715323
	2:[D_TITLEMD5_COEC<0.104999] yes=5,no=6,missing=5
		5:[CAT_REL<0.027999] yes=11,no=12,missing=12
			11:[D_CATEGORY_MEAN_EC<762239] yes=23,no=24,missing=24
				23:[WORD_COUNT<661] yes=47,no=48,missing=48
					47:[U_CAT_LEN<41] yes=95,no=96,missing=96
						95:leaf=-0.0419819
						96:leaf=0.0212885
					48:[D_KEYWORD_MICRO_MEAN_COEC<0.131999] yes=97,no=98,missing=98
						97:leaf=-0.0148893
						98:leaf=0.00419178
				24:[U_CAT_LEN<42] yes=49,no=50,missing=50
					49:[D_CATEGORY_MICRO_MEAN_COEC<0.158999] yes=99,no=100,missing=100
						99:leaf=0.00295957
						100:leaf=0.0244245
					50:[U_CATEGORY_MAX_EC<4430.02] yes=101,no=102,missing=102
						101:leaf=0.0806796
						102:leaf=-0.00476392
			12:[U_KW_LEN<6575] yes=25,no=26,missing=26
				25:[D_KEYWORD_MICRO_MEAN_COEC<0.127999] yes=51,no=52,missing=51
					51:[CAT_REL<0.095999] yes=103,no=104,missing=104
						103:leaf=0.00433775
						104:leaf=0.0207762
					52:[DOC_AGE<28] yes=105,no=106,missing=106
						105:leaf=0.0243058
						106:leaf=-0.00688644
				26:[CAT_REL<0.055999] yes=53,no=54,missing=54
					53:[U_KEYWORD_MAX_C<242.507] yes=107,no=108,missing=108
						107:leaf=0.0347496
						108:leaf=0.0147976
					54:[U_KEYWORD_MACRO_MEAN_COEC<0.023999] yes=109,no=110,missing=110
						109:leaf=0.0476693
						110:leaf=0.0296746
		6:[U_KW_LEN<6575] yes=13,no=14,missing=14
			13:[DOC_AGE<12] yes=27,no=28,missing=28
				27:[CAT_REL<0.025999] yes=55,no=56,missing=56
					55:[D_CATEGORY_MACRO_MEAN_COEC<0.130999] yes=111,no=112,missing=112
						111:leaf=0.00642289
						112:leaf=0.0218154
					56:[D_KEYWORD_MICRO_MEAN_COEC<0.110999] yes=113,no=114,missing=114
						113:leaf=0.0164098
						114:leaf=0.0328071
				28:[DOC_AGE<57] yes=57,no=58,missing=58
					57:[TIME_OF_DAY<9] yes=115,no=116,missing=116
						115:leaf=0.014921
						116:leaf=1.08556e-06
					58:[U_CATEGORY_MICRO_MAX_COEC<0.130999] yes=117,no=118,missing=117
						117:leaf=-0.0866763
						118:leaf=-0.00564015
			14:[U_CAT_LEN<39] yes=29,no=30,missing=30
				29:[C_D_U_CATEGORY_CATEGORY_MAX_C<29.564] yes=59,no=60,missing=60
					59:[CAT_REL<0.019999] yes=119,no=120,missing=120
						119:leaf=0.0144079
						120:leaf=0.0386698
					60:[DOC_AGE<12] yes=121,no=122,missing=122
						121:leaf=0.0396287
						122:leaf=0.0255425
				30:[U_CITY_COEC<0.137999] yes=61,no=62,missing=62
					61:[U_CATEGORY_MAX_C<285.865] yes=123,no=124,missing=124
						123:leaf=0.077417
						124:leaf=0.029542
					62:[U_KEYWORD_MAX_EC<1901.53] yes=125,no=126,missing=126
						125:leaf=0.0887116
						126:leaf=0.049614
booster[50]:
0:[D_PUBLISHER_COEC<0.120999] yes=1,no=2,missing=2
	1:[U_KW_LEN<3640] yes=3,no=4,missing=4
		3:[IMAGE_COUNT<0.999999] yes=7,no=8,missing=8
			7:[D_TITLEMD5_C<12819.2] yes=15,no=16,missing=16
				15:[U_KW_LEN<1629] yes=31,no=32,missing=32
					31:[D_PUBLISHER_C<44404.3] yes=63,no=64,missing=64
						63:leaf=-0.0162115
						64:leaf=-0.0326909
					32:[D_KEYWORD_MAX_EC<11748.8] yes=65,no=66,missing=66
						65:leaf=-0.00264725
						66:leaf=-0.0145103
				16:[D_KEYWORD_MEAN_C<5355.73] yes=33,no=34,missing=34
					33:[D_KEYWORD_MACRO_MAX_COEC<0.018999] yes=67,no=68,missing=68
						67:leaf=-0.0800568
						68:leaf=-0.0203346
					34:[WORD_COUNT<620] yes=69,no=70,missing=70
						69:leaf=-0.169554
						70:leaf=-0.0800797
			8:[CAT_REL<0.099999] yes=17,no=18,missing=18
				17:[U_KEYWORD_MEAN_EC<21967.8] yes=35,no=36,missing=35
					35:[U_KEYWORD_MICRO_MAX_COEC<0.151999] yes=71,no=72,missing=71
						71:leaf=-0.00673318
						72:leaf=0.014
					36:[TIME_OF_DAY<9] yes=73,no=74,missing=74
						73:leaf=0.00892122
						74:leaf=-0.00202023
				18:[U_KW_LEN<248] yes=37,no=38,missing=38
					37:[U_KW_LEN<106] yes=75,no=76,missing=76
						75:leaf=-0.0221788
						76:leaf=-0.00726591
					38:[DOC_AGE<12] yes=77,no=78,missing=78
						77:leaf=0.0107163
						78:leaf=0.00117524
		4:[U_KW_LEN<7181] yes=9,no=10,missing=10
			9:[WORD_COUNT<1590] yes=19,no=20,missing=20
				19:[CAT_REL<0.082999] yes=39,no=40,missing=40
					39:[D_TITLEMD5_COEC<0.107999] yes=79,no=80,missing=79
						79:leaf=-0.00685406
						80:leaf=0.00454277
					40:[D_KEYWORD_MICRO_MEAN_COEC<0.108999] yes=81,no=82,missing=82
						81:leaf=0.00343791
						82:leaf=0.0194897
				20:[KW_REL<0.003999] yes=41,no=42,missing=42
					41:[D_KEYWORD_MAX_EC<22839.2] yes=83,no=84,missing=84
						83:leaf=0.00969091
						84:leaf=-0.00564317
					42:[D_CATEGORY_MICRO_MEAN_COEC<0.107999] yes=85,no=86,missing=86
						85:leaf=0.0147671
						86:leaf=0.0292517
			10:[U_CITY_COEC<0.138999] yes=21,no=22,missing=22
				21:[U_AGE_C<756260] yes=43,no=44,missing=44
					43:[U_CATEGORY_MACRO_MAX_COEC<0.011999] yes=87,no=88,missing=88
						87:leaf=0.105776
						88:leaf=0.0257704
					44:[U_CATEGORY_MAX_EC<8622.67] yes=89,no=90,missing=90
						89:leaf=0.00841358
						90:leaf=0.0295607
				22:[U_CAT_LEN<39] yes=45,no=46,missing=46
					45:[U_KEYWORD_MAX_C<271.129] yes=91,no=92,missing=92
						91:leaf=0.0450647
						92:leaf=0.0183068
					46:[U_GENDER_C<1.36231e+06] yes=93,no=94,missing=93
						93:leaf=0.0995881
						94:leaf=0.0224517
	2:[U_KEYWORD_MACRO_MAX_COEC<0.001999] yes=5,no=6,missing=6
		5:[U_KEYWORD_MEAN_EC<13142.3] yes=11,no=12,missing=12
			11:[CAT_REL<0.015999] yes=23,no=24,missing=24
				23:[U_KEYWORD_MEAN_C<1199.01] yes=47,no=48,missing=48
					47:[D_CATEGORY_MEAN_C<508489] yes=95,no=96,missing=95
						95:leaf=-0.0423188
						96:leaf=-0.0788346
					48:[U_KEYWORD_MAX_C<266.947] yes=97,no=98,missing=98
						97:leaf=-0.00569938
						98:leaf=-0.0240916
				24:[C_D_U_CATEGORY_CATEGORY_MEAN_EC<1294.75] yes=49,no=50,missing=49
					49:[C_D_U_CATEGORY_CATEGORY_MICRO_MAX_COEC<0.115999] yes=99,no=100,missing=100
						99:leaf=0.00137809
						100:leaf=0.0224966
					50:[C_D_U_CATEGORY_CATEGORY_MICRO_MEAN_COEC<0.099999] yes=101,no=102,missing=102
						101:leaf=-0.05879
						102:leaf=-0.00283626
			12:[C_D_U_CATEGORY_CATEGORY_MICRO_MAX_COEC<0.193999] yes=25,no=26,missing=26
				25:[U_KW_LEN<7181] yes=51,no=52,missing=52
					51:[DOC_AGE<2] yes=103,no=104,missing=104
						103:leaf=0.0163687
						104:leaf=0.00795374
					52:[U_CAT_LEN<41] yes=105,no=106,missing=106
						105:leaf=0.0319702
						106:leaf=0.0680204
				26:[D_KEYWORD_MEAN_EC<58497.4] yes=53,no=54,missing=54
					53:[WORD_COUNT<1697] yes=107,no=108,missing=108
						107:leaf=0.0261492
						108:leaf=0.0380901
					54:[D_KEYWORD_MICRO_MEAN_COEC<0.104999] yes=109,no=110,missing=110
						109:leaf=-0.0278189
						110:leaf=0.0143234
		6:[U_KEYWORD_MICRO_MAX_COEC<0.150999] yes=13,no=14,missing=13
			13:[U_KEYWORD_MEAN_C<2910.95] yes=27,no=28,missing=28
				27:[D_CATEGORY_MEAN_C<436152] yes=55,no=56,missing=55
					55:[D_CATEGORY_MACRO_MAX_COEC<0.120999] yes=111,no=112,missing=112
						111:leaf=-0.00222105
						112:leaf=0.00598913
					56:[U_KW_LEN<898] yes=113,no=114,missing=114
						113:leaf=-0.00248553
						114:leaf=-0.014382
				28:[U_KEYWORD_MACRO_MAX_COEC<0.002999] yes=57,no=58,missing=57
					57:[D_TITLEMD5_COEC<0.283999] yes=115,no=116,missing=115
						115:leaf=0.00464456
						116:leaf=0.0166744
					58:[U_KEYWORD_MACRO_MAX_COEC<0.005999] yes=117,no=118,missing=118
						117:leaf=-0.00372695
						118:leaf=-0.0126449
			14:[D_CATEGORY_MEAN_EC<875054] yes=29,no=30,missing=29
				29:[CAT_REL<0.004999] yes=59,no=60,missing=60
					59:[WORD_COUNT<912] yes=119,no=120,missing=120
						119:leaf=0.0164867
						120:leaf=0.0242643
					60:[D_CATEGORY_MICRO_MEAN_COEC<0.116999] yes=121,no=122,missing=122
						121:leaf=0.00515866
						122:leaf=0.0175552
				30:[WORD_COUNT<1793] yes=61,no=62,missing=62
					61:[U_KW_LEN<151] yes=123,no=124,missing=124
						123:leaf=0.00523665
						124:leaf=0.0130192
					62:[D_KEYWORD_MACRO_MAX_COEC<0.038999] yes=125,no=126,missing=126
						125:leaf=0.016348
						126:leaf=0.0267816
booster[51]:
0:[U_CITY_COEC<0.119999] yes=1,no=2,missing=1
	1:[D_CATEGORY_MACRO_MEAN_COEC<0.169999] yes=3,no=4,missing=4
		3:[U_KEYWORD_MEAN_EC<22508.7] yes=7,no=8,missing=7
			7:[U_KEYWORD_MAX_C<301.961] yes=15,no=16,missing=15
				15:[U_KW_LEN<6601] yes=31,no=32,missing=32
					31:[CAT_REL<0.062999] yes=63,no=64,missing=64
						63:leaf=-0.00381439
						64:leaf=0.00778149
					32:[U_CAT_LEN<51] yes=65,no=66,missing=66
						65:leaf=0.0225832
						66:leaf=0.0938254
				16:[C_D_U_TITLEMD5_CATEGORY_MAX_C<2.27] yes=33,no=34,missing=33
					33:[CAT_REL<0.057999] yes=67,no=68,missing=68
						67:leaf=-0.016786
						68:leaf=-0.00678661
					34:[TIME_OF_DAY<5] yes=69,no=70,missing=70
						69:leaf=0.00362037
						70:leaf=-0.00658331
			8:[U_KEYWORD_MAX_C<431.707] yes=17,no=18,missing=18
				17:[TIME_OF_DAY<8] yes=35,no=36,missing=36
					35:[D_CATEGORY_MEAN_EC<723468] yes=71,no=72,missing=72
						71:leaf=0.00289218
						72:leaf=0.0127554
					36:[U_KEYWORD_MEAN_EC<26814] yes=73,no=74,missing=74
						73:leaf=-0.00142105
						74:leaf=0.00927576
				18:[D_KEYWORD_MACRO_MEAN_COEC<0.119999] yes=37,no=38,missing=38
					37:[DOC_AGE<24] yes=75,no=76,missing=76
						75:leaf=-0.0121331
						76:leaf=0.00334625
					38:[CAT_REL<0.001999] yes=77,no=78,missing=78
						77:leaf=-0.00914144
						78:leaf=0.00260548
		4:[U_CAT_LEN<15] yes=9,no=10,missing=9
			9:[U_KW_LEN<990] yes=19,no=20,missing=20
				19:[D_CATEGORY_MEAN_C<117774] yes=39,no=40,missing=40
					39:[C_D_U_TITLEMD5_CATEGORY_MICRO_MAX_COEC<0.386999] yes=79,no=80,missing=80
						79:leaf=0.00771183
						80:leaf=0.0213786
					40:[D_TITLEMD5_COEC<0.023999] yes=81,no=82,missing=81
						81:leaf=0.0447681
						82:leaf=0.00222992
				20:[KW_REL<0.000999] yes=41,no=42,missing=42
					41:[U_KEYWORD_MEAN_EC<22508.7] yes=83,no=84,missing=84
						83:leaf=-0.0467306
						84:leaf=-0.0114303
					42:[U_KEYWORD_MEAN_EC<24269.5] yes=85,no=86,missing=85
						85:leaf=-0.00359654
						86:leaf=0.00962868
			10:[C_D_U_CATEGORY_CATEGORY_MICRO_MAX_COEC<0.192999] yes=21,no=22,missing=22
				21:[CAT_REL<0.040999] yes=43,no=44,missing=44
					43:[U_KEYWORD_MICRO_MEAN_COEC<0.134999] yes=87,no=88,missing=88
						87:leaf=-0.0111091
						88:leaf=0.00748727
					44:[D_KEYWORD_MEAN_EC<37236.5] yes=89,no=90,missing=90
						89:leaf=0.0298243
						90:leaf=0.000894918
				22:[D_KEYWORD_MEAN_EC<42761] yes=45,no=46,missing=45
					45:[KW_REL<0.001999] yes=91,no=92,missing=92
						91:leaf=0.0133458
						92:leaf=0.0280988
					46:[U_KEYWORD_MEAN_C<1886.14] yes=93,no=94,missing=94
						93:leaf=-0.0278624
						94:leaf=0.0114659
	2:[TIME_OF_DAY<9] yes=5,no=6,missing=6
		5:[U_KEYWORD_MEAN_C<1755.3] yes=11,no=12,missing=11
			11:[U_KEYWORD_MACRO_MEAN_COEC<0.031999] yes=23,no=24,missing=24
				23:[CAT_REL<0.019999] yes=47,no=48,missing=48
					47:[U_KEYWORD_MEAN_C<1364.61] yes=95,no=96,missing=96
						95:leaf=-0.0341716
						96:leaf=-0.0137324
					48:[D_CATEGORY_MACRO_MEAN_COEC<0.108999] yes=97,no=98,missing=97
						97:leaf=-0.00581546
						98:leaf=0.0118438
				24:[D_KEYWORD_MICRO_MEAN_COEC<0.150999] yes=49,no=50,missing=50
					49:[DAY_OF_WEEK<6] yes=99,no=100,missing=100
						99:leaf=-0.00532445
						100:leaf=0.0131279
					50:[DOC_AGE<12] yes=101,no=102,missing=102
						101:leaf=0.0223376
						102:leaf=0.0066108
			12:[IMAGE_COUNT<0.999999] yes=25,no=26,missing=26
				25:[D_TITLEMD5_C<4] yes=51,no=52,missing=51
					51:[WORD_COUNT<1235] yes=103,no=104,missing=104
						103:leaf=-0.0454967
						104:leaf=-0.0153533
					52:[D_CATEGORY_MACRO_MEAN_COEC<0.134999] yes=105,no=106,missing=105
						105:leaf=-0.0125895
						106:leaf=0.00205134
				26:[D_CATEGORY_MACRO_MEAN_COEC<0.136999] yes=53,no=54,missing=54
					53:[DOC_AGE<3] yes=107,no=108,missing=108
						107:leaf=0.0117682
						108:leaf=0.00417543
					54:[U_KW_LEN<2457] yes=109,no=110,missing=110
						109:leaf=0.00997668
						110:leaf=0.0179328
		6:[U_KEYWORD_MEAN_EC<24444.3] yes=13,no=14,missing=14
			13:[U_KW_LEN<4348] yes=27,no=28,missing=28
				27:[U_KEYWORD_MICRO_MAX_COEC<0.151999] yes=55,no=56,missing=56
					55:[CAT_REL<0.063999] yes=111,no=112,missing=112
						111:leaf=-0.00680152
						112:leaf=0.00213665
					56:[U_KEYWORD_MICRO_MAX_COEC<0.222999] yes=113,no=114,missing=114
						113:leaf=0.013488
						114:leaf=0.0246545
				28:[D_TITLEMD5_COEC<0.107999] yes=57,no=58,missing=57
					57:[CAT_REL<0.021999] yes=115,no=116,missing=116
						115:leaf=-0.00452096
						116:leaf=0.00988416
					58:[DOC_AGE<12] yes=117,no=118,missing=118
						117:leaf=0.0158867
						118:leaf=-0.0019887
			14:[U_KEYWORD_MAX_C<431.707] yes=29,no=30,missing=30
				29:[DOC_AGE<3] yes=59,no=60,missing=60
					59:[D_PUBLISHER_COEC<0.128999] yes=119,no=120,missing=120
						119:leaf=0.00992925
						120:leaf=0.0190822
					60:[D_TITLEMD5_COEC<0.106999] yes=121,no=122,missing=122
						121:leaf=0.000969521
						122:leaf=0.00924471
				30:[D_KEYWORD_MICRO_MEAN_COEC<0.150999] yes=61,no=62,missing=62
					61:[DOC_AGE<29] yes=123,no=124,missing=124
						123:leaf=-0.000550967
						124:leaf=0.0101391
					62:[WORD_COUNT<1186] yes=125,no=126,missing=126
						125:leaf=0.00156993
						126:leaf=0.0111165
booster[52]:
0:[WORD_COUNT<1123] yes=1,no=2,missing=1
	1:[D_TITLEMD5_COEC<0.110999] yes=3,no=4,missing=3
		3:[C_D_U_TITLEMD5_CITY_C<3.829] yes=7,no=8,missing=7
			7:[D_CATEGORY_MACRO_MAX_COEC<0.159999] yes=15,no=16,missing=16
				15:[CAT_REL<0.107999] yes=31,no=32,missing=32
					31:[U_CITY_COEC<0.147999] yes=63,no=64,missing=63
						63:leaf=-0.0120327
						64:leaf=0.0198854
					32:[U_KEYWORD_MACRO_MEAN_COEC<0.027999] yes=65,no=66,missing=66
						65:leaf=0.0117362
						66:leaf=-0.00582006
				16:[D_TITLEMD5_EC<60.81] yes=33,no=34,missing=34
					33:[D_PUBLISHER_COEC<0.143999] yes=67,no=68,missing=67
						67:leaf=0.0260331
						68:leaf=0.0897004
					34:[DAY_OF_WEEK<6] yes=69,no=70,missing=70
						69:leaf=0.00872537
						70:leaf=-0.0043609
			8:[DOC_AGE<2] yes=17,no=18,missing=18
				17:[D_TITLEMD5_EC<4120.46] yes=35,no=36,missing=36
					35:[TIME_OF_DAY<5] yes=71,no=72,missing=72
						71:leaf=0.0183968
						72:leaf=-0.000705249
					36:[D_KEYWORD_MAX_C<1562.75] yes=73,no=74,missing=74
						73:leaf=0.0259882
						74:leaf=0.00984343
				18:[D_CATEGORY_MAX_EC<37913.6] yes=37,no=38,missing=37
					37:[IMAGE_COUNT<2] yes=75,no=76,missing=76
						75:leaf=0.0135348
						76:leaf=0.0414438
					38:[WORD_COUNT<393] yes=77,no=78,missing=78
						77:leaf=-0.0192354
						78:leaf=-0.00386698
		4:[U_KEYWORD_MEAN_C<2048.93] yes=9,no=10,missing=10
			9:[U_KW_LEN<765] yes=19,no=20,missing=20
				19:[U_KEYWORD_MICRO_MAX_COEC<0.145999] yes=39,no=40,missing=40
					39:[D_CATEGORY_MEAN_C<433315] yes=79,no=80,missing=79
						79:leaf=-0.00156658
						80:leaf=-0.0112938
					40:[U_KEYWORD_MACRO_MEAN_COEC<0.036999] yes=81,no=82,missing=82
						81:leaf=-0.00104579
						82:leaf=0.00772589
				20:[KW_REL<0.003999] yes=41,no=42,missing=42
					41:[D_KEYWORD_MEAN_EC<37094.7] yes=83,no=84,missing=84
						83:leaf=-0.0123238
						84:leaf=-0.0351502
					42:[D_KEYWORD_MEAN_EC<39298.9] yes=85,no=86,missing=86
						85:leaf=0.0216108
						86:leaf=-0.00149223
			10:[U_KEYWORD_MAX_EC<2397.07] yes=21,no=22,missing=22
				21:[U_KW_LEN<5681] yes=43,no=44,missing=44
					43:[D_KEYWORD_MICRO_MAX_COEC<0.148999] yes=87,no=88,missing=88
						87:leaf=-0.00448154
						88:leaf=0.0076785
					44:[D_CATEGORY_MACRO_MEAN_COEC<0.130999] yes=89,no=90,missing=90
						89:leaf=0.0121416
						90:leaf=0.027083
				22:[U_KEYWORD_MEAN_EC<25159.6] yes=45,no=46,missing=45
					45:[TIME_OF_DAY<11] yes=91,no=92,missing=92
						91:leaf=0.00139909
						92:leaf=-0.00487962
					46:[U_KEYWORD_MACRO_MAX_COEC<0.002999] yes=93,no=94,missing=94
						93:leaf=0.00640795
						94:leaf=-0.0088163
	2:[D_CATEGORY_MICRO_MEAN_COEC<0.116999] yes=5,no=6,missing=6
		5:[KW_REL<0.002999] yes=11,no=12,missing=12
			11:[D_KEYWORD_MEAN_EC<80157.7] yes=23,no=24,missing=24
				23:[D_CATEGORY_MEAN_EC<104107] yes=47,no=48,missing=48
					47:[C_D_U_TITLEMD5_CATEGORY_MICRO_MAX_COEC<0.022999] yes=95,no=96,missing=95
						95:leaf=-0.0103314
						96:leaf=0.0108401
					48:[U_KEYWORD_MEAN_EC<19375] yes=97,no=98,missing=98
						97:leaf=-0.00911474
						98:leaf=-0.00120627
				24:[U_KW_LEN<1131] yes=49,no=50,missing=50
					49:[D_TITLEMD5_C<9263.79] yes=99,no=100,missing=100
						99:leaf=-0.00953812
						100:leaf=-0.0322226
					50:[D_KEYWORD_MACRO_MEAN_COEC<0.131999] yes=101,no=102,missing=102
						101:leaf=-0.0495764
						102:leaf=-0.0163574
			12:[D_KEYWORD_MACRO_MEAN_COEC<0.108999] yes=25,no=26,missing=26
				25:[D_KEYWORD_MEAN_EC<17714.7] yes=51,no=52,missing=52
					51:[U_KEYWORD_MACRO_MEAN_COEC<0.026999] yes=103,no=104,missing=104
						103:leaf=0.0302415
						104:leaf=0.0141193
					52:[KW_REL<0.005999] yes=105,no=106,missing=106
						105:leaf=-0.000383921
						106:leaf=0.0129043
				26:[D_TITLEMD5_COEC<0.208999] yes=53,no=54,missing=53
					53:[D_KEYWORD_MAX_EC<12509.7] yes=107,no=108,missing=108
						107:leaf=0.0247929
						108:leaf=0.00922068
					54:[KW_REL<0.003999] yes=109,no=110,missing=110
						109:leaf=0.0246381
						110:leaf=0.046193
		6:[CAT_REL<0.029999] yes=13,no=14,missing=14
			13:[U_KEYWORD_MAX_EC<2278.43] yes=27,no=28,missing=27
				27:[U_KEYWORD_MEAN_EC<17316.5] yes=55,no=56,missing=55
					55:[D_KEYWORD_MICRO_MEAN_COEC<0.178999] yes=111,no=112,missing=112
						111:leaf=0.00256362
						112:leaf=0.0162581
					56:[D_CATEGORY_MEAN_C<241348] yes=113,no=114,missing=114
						113:leaf=0.00573295
						114:leaf=0.0164909
				28:[D_CATEGORY_MEAN_EC<3.66953e+06] yes=57,no=58,missing=57
					57:[D_CATEGORY_MEAN_C<46036.7] yes=115,no=116,missing=115
						115:leaf=0.011786
						116:leaf=0.0017133
					58:[U_KEYWORD_MEAN_C<3169.76] yes=117,no=118,missing=118
						117:leaf=-0.0105973
						118:leaf=0.00219755
			14:[U_CATEGORY_MACRO_MAX_COEC<0.024999] yes=29,no=30,missing=29
				29:[U_KEYWORD_MAX_EC<2397.07] yes=59,no=60,missing=59
					59:[DOC_AGE<29] yes=119,no=120,missing=120
						119:leaf=0.0220255
						120:leaf=0.00422159
					60:[D_TITLEMD5_COEC<0.124999] yes=121,no=122,missing=122
						121:leaf=0.00695996
						122:leaf=0.0147922
				30:[C_D_U_TITLEMD5_CATEGORY_MICRO_MAX_COEC<0.129999] yes=61,no=62,missing=62
					61:[U_CATEGORY_MACRO_MAX_COEC<0.039999] yes=123,no=124,missing=124
						123:leaf=0.000882191
						124:leaf=-0.012494
					62:[U_KW_LEN<149] yes=125,no=126,missing=126
						125:leaf=-0.00682388
						126:leaf=0.00906455
booster[53]:
0:[KW_REL<0.003999] yes=1,no=2,missing=1
	1:[D_KEYWORD_MEAN_EC<52223] yes=3,no=4,missing=3
		3:[KW_REL<0.001999] yes=7,no=8,missing=7
			7:[D_CATEGORY_MACRO_MAX_COEC<0.119999] yes=15,no=16,missing=16
				15:[DOC_AGE<24] yes=31,no=32,missing=32
					31:[DAY_OF_WEEK<0.999999] yes=63,no=64,missing=64
						63:leaf=-0.0155279
						64:leaf=-0.00421025
					32:[U_KEYWORD_MACRO_MEAN_COEC<0.028999] yes=65,no=66,missing=66
						65:leaf=-0.00578236
						66:leaf=0.00847684
				16:[D_KEYWORD_MEAN_EC<12479.8] yes=33,no=34,missing=34
					33:[KW_REL<0.000999] yes=67,no=68,missing=68
						67:leaf=0.00440148
						68:leaf=0.0164605
					34:[U_KEYWORD_MICRO_MAX_COEC<0.147999] yes=69,no=70,missing=70
						69:leaf=-0.00309116
						70:leaf=0.00397229
			8:[D_TITLEMD5_COEC<0.139999] yes=17,no=18,missing=17
				17:[D_KEYWORD_MAX_EC<6462.19] yes=35,no=36,missing=35
					35:[D_KEYWORD_MEAN_EC<11362.9] yes=71,no=72,missing=71
						71:leaf=0.0201969
						72:leaf=0.00927535
					36:[D_CATEGORY_MEAN_EC<72208.6] yes=73,no=74,missing=73
						73:leaf=0.0149395
						74:leaf=0.000193001
				18:[D_TITLEMD5_C<3.995] yes=37,no=38,missing=38
					37:[D_KEYWORD_MACRO_MEAN_COEC<0.090999] yes=75,no=76,missing=76
						75:leaf=-0.0780187
						76:leaf=-0.0353236
					38:[D_KEYWORD_MEAN_EC<25478.6] yes=77,no=78,missing=78
						77:leaf=0.0171048
						78:leaf=0.00849833
		4:[U_KEYWORD_MACRO_MEAN_COEC<0.035999] yes=9,no=10,missing=10
			9:[U_KEYWORD_MEAN_C<1672.83] yes=19,no=20,missing=20
				19:[U_KW_LEN<880] yes=39,no=40,missing=40
					39:[U_KEYWORD_MACRO_MAX_COEC<0.002999] yes=79,no=80,missing=80
						79:leaf=-0.0108093
						80:leaf=-0.0325591
					40:[U_KEYWORD_MAX_EC<1629.62] yes=81,no=82,missing=82
						81:leaf=0.0104145
						82:leaf=-0.0488018
				20:[KW_REL<0.001999] yes=41,no=42,missing=42
					41:[KW_REL<0.000999] yes=83,no=84,missing=84
						83:leaf=-0.0536938
						84:leaf=-0.0192692
					42:[D_KEYWORD_MEAN_EC<98102.6] yes=85,no=86,missing=86
						85:leaf=-0.00491731
						86:leaf=-0.0232153
			10:[D_KEYWORD_MACRO_MEAN_COEC<0.120999] yes=21,no=22,missing=22
				21:[DAY_OF_WEEK<0.999999] yes=43,no=44,missing=44
					43:[U_KEYWORD_MICRO_MAX_COEC<0.147999] yes=87,no=88,missing=87
						87:leaf=-0.0225138
						88:leaf=-0.00319763
					44:[U_KEYWORD_MICRO_MAX_COEC<0.150999] yes=89,no=90,missing=89
						89:leaf=-0.00268261
						90:leaf=0.0144708
				22:[WORD_COUNT<1383] yes=45,no=46,missing=46
					45:[DOC_AGE<12] yes=91,no=92,missing=92
						91:leaf=0.00645495
						92:leaf=-0.00357971
					46:[D_KEYWORD_MAX_C<2925.51] yes=93,no=94,missing=94
						93:leaf=-0.0134219
						94:leaf=0.0148784
	2:[D_KEYWORD_MEAN_EC<92863] yes=5,no=6,missing=5
		5:[DOC_AGE<12] yes=11,no=12,missing=12
			11:[D_TITLEMD5_COEC<0.129999] yes=23,no=24,missing=23
				23:[KW_REL<0.005999] yes=47,no=48,missing=48
					47:[U_KEYWORD_MAX_C<353.813] yes=95,no=96,missing=95
						95:leaf=0.0105866
						96:leaf=-0.000284056
					48:[U_KW_LEN<385] yes=97,no=98,missing=98
						97:leaf=-0.0034803
						98:leaf=0.0224691
				24:[U_KW_LEN<202] yes=49,no=50,missing=50
					49:[D_KEYWORD_MACRO_MEAN_COEC<0.129999] yes=99,no=100,missing=100
						99:leaf=-0.0120662
						100:leaf=0.00367949
					50:[KW_REL<0.004999] yes=101,no=102,missing=102
						101:leaf=0.0143604
						102:leaf=0.0239462
			12:[DOC_AGE<50] yes=25,no=26,missing=26
				25:[U_KW_LEN<616] yes=51,no=52,missing=52
					51:[KW_REL<0.008999] yes=103,no=104,missing=104
						103:leaf=-0.00226764
						104:leaf=-0.022407
					52:[D_KEYWORD_MICRO_MEAN_COEC<0.129999] yes=105,no=106,missing=105
						105:leaf=0.0011865
						106:leaf=0.00923626
				26:[C_D_U_TITLEMD5_CATEGORY_MICRO_MAX_COEC<0.086999] yes=53,no=54,missing=54
					53:[U_KEYWORD_MEAN_EC<23298.4] yes=107,no=108,missing=108
						107:leaf=-0.00654866
						108:leaf=0.0178278
					54:[CAT_REL<0.015999] yes=109,no=110,missing=110
						109:leaf=-0.00762978
						110:leaf=-0.0268294
		6:[KW_REL<0.005999] yes=13,no=14,missing=14
			13:[D_KEYWORD_MEAN_EC<114702] yes=27,no=28,missing=28
				27:[D_TITLEMD5_COEC<0.106999] yes=55,no=56,missing=55
					55:[U_KW_LEN<4124] yes=111,no=112,missing=112
						111:leaf=-0.0126335
						112:leaf=0.00461858
					56:[WORD_COUNT<988] yes=113,no=114,missing=114
						113:leaf=-0.00734368
						114:leaf=0.00444331
				28:[D_TITLEMD5_COEC<0.153999] yes=57,no=58,missing=57
					57:[D_KEYWORD_MACRO_MAX_COEC<0.026999] yes=115,no=116,missing=116
						115:leaf=-0.00698153
						116:leaf=-0.0301665
					58:[D_KEYWORD_MACRO_MAX_COEC<0.046999] yes=117,no=118,missing=118
						117:leaf=-0.0121568
						118:leaf=0.0126589
			14:[D_KEYWORD_MACRO_MAX_COEC<0.043999] yes=29,no=30,missing=30
				29:[U_KW_LEN<248] yes=59,no=60,missing=60
					59:[C_D_U_TITLEMD5_GENDER_COEC<0.067999] yes=119,no=120,missing=120
						119:leaf=-0.0948368
						120:leaf=-0.0133084
					60:[KW_REL<0.007999] yes=121,no=122,missing=122
						121:leaf=0.00834804
						122:leaf=0.0297478
				30:[D_CATEGORY_MEAN_C<61865.3] yes=61,no=62,missing=61
					61:[D_KEYWORD_MICRO_MAX_COEC<0.125999] yes=123,no=124,missing=124
						123:leaf=0.0344101
						124:leaf=0.00588628
					62:[U_KW_LEN<1564] yes=125,no=126,missing=126
						125:leaf=-0.0246587
						126:leaf=-0.00214923
booster[54]:
0:[U_CITY_COEC<0.119999] yes=1,no=2,missing=1
	1:[D_TITLEMD5_COEC<0.194999] yes=3,no=4,missing=3
		3:[U_KEYWORD_MACRO_MAX_COEC<0.001999] yes=7,no=8,missing=8
			7:[U_KW_LEN<6536] yes=15,no=16,missing=16
				15:[CAT_REL<0.064999] yes=31,no=32,missing=32
					31:[U_KEYWORD_MEAN_EC<22482.6] yes=63,no=64,missing=64
						63:leaf=-0.00494623
						64:leaf=0.00396028
					32:[D_KEYWORD_MICRO_MEAN_COEC<0.102999] yes=65,no=66,missing=66
						65:leaf=-0.00333534
						66:leaf=0.0126414
				16:[U_CAT_LEN<39] yes=33,no=34,missing=34
					33:[CAT_REL<0.042999] yes=67,no=68,missing=68
						67:leaf=0.0113955
						68:leaf=0.0353786
					34:[U_KEYWORD_MAX_EC<1814.93] yes=69,no=70,missing=70
						69:leaf=0.0769738
						70:leaf=0.0180125
			8:[CAT_REL<0.092999] yes=17,no=18,missing=17
				17:[U_KEYWORD_MEAN_EC<22482.6] yes=35,no=36,missing=36
					35:[U_KW_LEN<858] yes=71,no=72,missing=72
						71:leaf=-0.00485798
						72:leaf=-0.0129636
					36:[U_KEYWORD_MAX_C<360.738] yes=73,no=74,missing=74
						73:leaf=0.00268953
						74:leaf=-0.00530955
				18:[U_KW_LEN<197] yes=37,no=38,missing=38
					37:[U_KEYWORD_MAX_C<984.469] yes=75,no=76,missing=75
						75:leaf=-0.0137254
						76:leaf=-0.0298387
					38:[KW_REL<0.006999] yes=77,no=78,missing=78
						77:leaf=0.00058701
						78:leaf=0.0161783
		4:[D_KEYWORD_MICRO_MAX_COEC<0.341999] yes=9,no=10,missing=10
			9:[U_KEYWORD_MEAN_C<2207.35] yes=19,no=20,missing=20
				19:[U_KW_LEN<849] yes=39,no=40,missing=40
					39:[U_KEYWORD_MACRO_MEAN_COEC<0.039999] yes=79,no=80,missing=80
						79:leaf=-0.0051335
						80:leaf=0.00453946
					40:[U_KEYWORD_MAX_EC<2029] yes=81,no=82,missing=82
						81:leaf=0.00385536
						82:leaf=-0.0230082
				20:[U_KW_LEN<2957] yes=41,no=42,missing=42
					41:[D_PUBLISHER_COEC<0.076999] yes=83,no=84,missing=84
						83:leaf=-0.0521619
						84:leaf=0.00184403
					42:[U_KEYWORD_MACRO_MAX_COEC<0.001999] yes=85,no=86,missing=86
						85:leaf=0.0168599
						86:leaf=0.0050545
			10:[C_D_U_TITLEMD5_CATEGORY_MICRO_MAX_COEC<0.385999] yes=21,no=22,missing=22
				21:[KW_REL<0.000999] yes=43,no=44,missing=44
					43:[U_KW_LEN<422] yes=87,no=88,missing=88
						87:leaf=0.00423414
						88:leaf=-0.0173927
					44:[C_D_U_CATEGORY_CATEGORY_MACRO_MAX_COEC<0.048999] yes=89,no=90,missing=89
						89:leaf=0.0136803
						90:leaf=0.000252113
				22:[DOC_AGE<22] yes=45,no=46,missing=46
					45:[D_TITLEMD5_C<4] yes=91,no=92,missing=92
						91:leaf=-0.0545169
						92:leaf=0.0248246
					46:[D_CATEGORY_MACRO_MEAN_COEC<0.132999] yes=93,no=94,missing=94
						93:leaf=-0.013797
						94:leaf=0.00941267
	2:[TIME_OF_DAY<10] yes=5,no=6,missing=6
		5:[U_KEYWORD_MEAN_EC<18877] yes=11,no=12,missing=11
			11:[U_KEYWORD_MICRO_MAX_COEC<0.150999] yes=23,no=24,missing=23
				23:[U_KEYWORD_MAX_C<253.613] yes=47,no=48,missing=48
					47:[U_KEYWORD_MEAN_EC<11862.5] yes=95,no=96,missing=96
						95:leaf=-0.00203667
						96:leaf=0.0141773
					48:[C_D_U_TITLEMD5_CATEGORY_MAX_C<3.5] yes=97,no=98,missing=98
						97:leaf=-0.00375444
						98:leaf=0.00295943
				24:[U_KW_LEN<387] yes=49,no=50,missing=50
					49:[DAY_OF_WEEK<2] yes=99,no=100,missing=100
						99:leaf=0.00816153
						100:leaf=0.0189063
					50:[U_CATEGORY_MACRO_MAX_COEC<0.008999] yes=101,no=102,missing=102
						101:leaf=0.12161
						102:leaf=0.023722
			12:[IMAGE_COUNT<0.999999] yes=25,no=26,missing=26
				25:[D_KEYWORD_MICRO_MEAN_COEC<0.130999] yes=51,no=52,missing=52
					51:[U_KEYWORD_MICRO_MAX_COEC<0.141999] yes=103,no=104,missing=104
						103:leaf=-0.00416383
						104:leaf=-0.0251305
					52:[D_PUBLISHER_COEC<0.071999] yes=105,no=106,missing=106
						105:leaf=-0.0263393
						106:leaf=0.00530903
				26:[U_KEYWORD_MAX_C<280.629] yes=53,no=54,missing=54
					53:[D_CATEGORY_MAX_C<287434] yes=107,no=108,missing=108
						107:leaf=0.014281
						108:leaf=0.02307
					54:[D_CATEGORY_MICRO_MEAN_COEC<0.145999] yes=109,no=110,missing=110
						109:leaf=0.00582167
						110:leaf=0.0125562
		6:[U_KEYWORD_MEAN_EC<24965.3] yes=13,no=14,missing=14
			13:[U_KW_LEN<3630] yes=27,no=28,missing=28
				27:[U_CATEGORY_MAX_C<5500.55] yes=55,no=56,missing=56
					55:[CAT_REL<0.045999] yes=111,no=112,missing=112
						111:leaf=-0.0120297
						112:leaf=1.7694e-05
					56:[U_KEYWORD_MICRO_MAX_COEC<0.150999] yes=113,no=114,missing=114
						113:leaf=-0.00152105
						114:leaf=0.0128085
				28:[CAT_REL<0.037999] yes=57,no=58,missing=58
					57:[D_CATEGORY_MICRO_MEAN_COEC<0.127999] yes=115,no=116,missing=116
						115:leaf=-0.00556322
						116:leaf=0.0064535
					58:[D_KEYWORD_MICRO_MEAN_COEC<0.104999] yes=117,no=118,missing=118
						117:leaf=-0.00166841
						118:leaf=0.0148111
			14:[U_KEYWORD_MAX_C<483.649] yes=29,no=30,missing=29
				29:[U_CATEGORY_MAX_EC<28707.8] yes=59,no=60,missing=59
					59:[DOC_AGE<4] yes=119,no=120,missing=120
						119:leaf=0.00803997
						120:leaf=0.00174959
					60:[U_KEYWORD_MEAN_EC<27620.7] yes=121,no=122,missing=122
						121:leaf=0.00666013
						122:leaf=0.0133734
				30:[DAY_OF_WEEK<3] yes=61,no=62,missing=62
					61:[U_CATEGORY_MACRO_MAX_COEC<0.039999] yes=123,no=124,missing=123
						123:leaf=0.00408452
						124:leaf=-0.00686784
					62:[U_KEYWORD_MICRO_MAX_COEC<0.150999] yes=125,no=126,missing=126
						125:leaf=-0.0078682
						126:leaf=0.0109721
booster[55]:
0:[WORD_COUNT<912] yes=1,no=2,missing=1
	1:[D_KEYWORD_MICRO_MAX_COEC<0.161999] yes=3,no=4,missing=4
		3:[D_KEYWORD_MACRO_MAX_COEC<0.043999] yes=7,no=8,missing=8
			7:[D_TITLEMD5_C<19.86] yes=15,no=16,missing=15
				15:[C_D_U_TITLEMD5_CATEGORY_MICRO_MAX_COEC<0.079999] yes=31,no=32,missing=32
					31:[CAT_REL<0.079999] yes=63,no=64,missing=64
						63:leaf=-0.0183524
						64:leaf=-0.00425477
					32:[C_D_U_TITLEMD5_CATEGORY_MAX_C<0.039999] yes=65,no=66,missing=66
						65:leaf=-0.0435475
						66:leaf=-0.0236047
				16:[D_KEYWORD_MICRO_MEAN_COEC<0.115999] yes=33,no=34,missing=34
					33:[D_CATEGORY_MICRO_MEAN_COEC<0.138999] yes=67,no=68,missing=68
						67:leaf=-0.0107667
						68:leaf=0.000704208
					34:[WORD_COUNT<709] yes=69,no=70,missing=70
						69:leaf=-0.00597865
						70:leaf=0.00188989
			8:[KW_REL<0.000999] yes=17,no=18,missing=18
				17:[C_D_U_CATEGORY_CATEGORY_MAX_EC<1225.56] yes=35,no=36,missing=36
					35:[D_KEYWORD_MACRO_MAX_COEC<0.079999] yes=71,no=72,missing=72
						71:leaf=-0.0435288
						72:leaf=-0.119977
					36:[WORD_COUNT<836] yes=73,no=74,missing=74
						73:leaf=-0.032731
						74:leaf=-0.0813546
				18:[KW_REL<0.010999] yes=37,no=38,missing=38
					37:[D_KEYWORD_MACRO_MAX_COEC<0.078999] yes=75,no=76,missing=76
						75:leaf=-0.0180719
						76:leaf=-0.0520856
					38:[DOC_AGE<25] yes=77,no=78,missing=78
						77:leaf=0.00818452
						78:leaf=-0.0874825
		4:[D_KEYWORD_MEAN_EC<27168.3] yes=9,no=10,missing=10
			9:[KW_REL<0.000999] yes=19,no=20,missing=20
				19:[D_TITLEMD5_C<207.905] yes=39,no=40,missing=40
					39:[D_CATEGORY_MICRO_MEAN_COEC<0.139999] yes=79,no=80,missing=80
						79:leaf=-0.0195849
						80:leaf=-0.00288921
					40:[DOC_AGE<3] yes=81,no=82,missing=82
						81:leaf=0.0105734
						82:leaf=-0.00411134
				20:[D_TITLEMD5_COEC<0.282999] yes=41,no=42,missing=41
					41:[C_D_U_CATEGORY_CATEGORY_MICRO_MAX_COEC<0.264999] yes=83,no=84,missing=84
						83:leaf=0.00438302
						84:leaf=0.0223403
					42:[DOC_AGE<35] yes=85,no=86,missing=86
						85:leaf=0.0234702
						86:leaf=-0.0156604
			10:[U_KEYWORD_MEAN_C<2874.17] yes=21,no=22,missing=22
				21:[U_KW_LEN<807] yes=43,no=44,missing=44
					43:[U_KEYWORD_MICRO_MAX_COEC<0.150999] yes=87,no=88,missing=88
						87:leaf=-0.00381164
						88:leaf=0.00803401
					44:[KW_REL<0.002999] yes=89,no=90,missing=90
						89:leaf=-0.019744
						90:leaf=-0.00377013
				22:[DOC_AGE<4] yes=45,no=46,missing=46
					45:[D_TITLEMD5_COEC<0.106999] yes=91,no=92,missing=91
						91:leaf=-0.00303918
						92:leaf=0.00858078
					46:[D_CATEGORY_MEAN_EC<72546.1] yes=93,no=94,missing=93
						93:leaf=0.00464544
						94:leaf=-0.00450138
	2:[KW_REL<0.001999] yes=5,no=6,missing=6
		5:[D_KEYWORD_MICRO_MEAN_COEC<0.138999] yes=11,no=12,missing=12
			11:[DAY_OF_WEEK<0.999999] yes=23,no=24,missing=24
				23:[D_KEYWORD_MEAN_EC<40308.7] yes=47,no=48,missing=48
					47:[D_CATEGORY_MICRO_MAX_COEC<0.127999] yes=95,no=96,missing=96
						95:leaf=-0.0147596
						96:leaf=0.00011948
					48:[U_KW_LEN<1149] yes=97,no=98,missing=98
						97:leaf=-0.0187532
						98:leaf=-0.0446339
				24:[D_KEYWORD_MEAN_EC<12445.9] yes=49,no=50,missing=50
					49:[KW_REL<0.000999] yes=99,no=100,missing=100
						99:leaf=-0.000648244
						100:leaf=0.0122561
					50:[DOC_AGE<24] yes=101,no=102,missing=102
						101:leaf=-0.00437423
						102:leaf=0.00652812
			12:[U_KEYWORD_MACRO_MEAN_COEC<0.037999] yes=25,no=26,missing=26
				25:[D_KEYWORD_MEAN_EC<22998.7] yes=51,no=52,missing=52
					51:[KW_REL<0.000999] yes=103,no=104,missing=104
						103:leaf=-0.00270792
						104:leaf=0.010843
					52:[U_KEYWORD_MEAN_C<1746.59] yes=105,no=106,missing=106
						105:leaf=-0.0231065
						106:leaf=-0.00322286
				26:[D_CATEGORY_MAX_EC<686651] yes=53,no=54,missing=54
					53:[D_KEYWORD_MICRO_MAX_COEC<0.182999] yes=107,no=108,missing=108
						107:leaf=0.0019089
						108:leaf=0.0169328
					54:[D_KEYWORD_MICRO_MAX_COEC<0.279999] yes=109,no=110,missing=110
						109:leaf=0.00217273
						110:leaf=0.01114
		6:[D_KEYWORD_MEAN_EC<39259.5] yes=13,no=14,missing=13
			13:[D_KEYWORD_MACRO_MEAN_COEC<0.100999] yes=27,no=28,missing=28
				27:[D_CATEGORY_MACRO_MEAN_COEC<0.117999] yes=55,no=56,missing=56
					55:[D_KEYWORD_MEAN_EC<14605.4] yes=111,no=112,missing=112
						111:leaf=0.0137882
						112:leaf=-0.000236032
					56:[U_KW_LEN<789] yes=113,no=114,missing=114
						113:leaf=-0.00649492
						114:leaf=0.0130976
				28:[U_CATEGORY_MACRO_MAX_COEC<0.025999] yes=57,no=58,missing=57
					57:[D_KEYWORD_MEAN_EC<23616.9] yes=115,no=116,missing=115
						115:leaf=0.0201156
						116:leaf=0.0119653
					58:[U_KW_LEN<148] yes=117,no=118,missing=118
						117:leaf=-0.0066111
						118:leaf=0.00739817
			14:[KW_REL<0.003999] yes=29,no=30,missing=30
				29:[D_KEYWORD_MACRO_MAX_COEC<0.041999] yes=59,no=60,missing=60
					59:[D_KEYWORD_MEAN_EC<80248.9] yes=119,no=120,missing=120
						119:leaf=-0.00184669
						120:leaf=-0.0142777
					60:[D_CATEGORY_MAX_EC<4.43732e+06] yes=121,no=122,missing=121
						121:leaf=0.00797163
						122:leaf=-0.0133524
				30:[D_TITLEMD5_COEC<0.127999] yes=61,no=62,missing=62
					61:[U_KW_LEN<2165] yes=123,no=124,missing=124
						123:leaf=-0.00211568
						124:leaf=0.00670852
					62:[DOC_AGE<12] yes=125,no=126,missing=126
						125:leaf=0.0134074
						126:leaf=0.00440762
booster[56]:
0:[IMAGE_COUNT<0.999999] yes=1,no=2,missing=1
	1:[U_KW_LEN<1698] yes=3,no=4,missing=4
		3:[D_TITLEMD5_EC<76687.8] yes=7,no=8,missing=8
			7:[D_PUBLISHER_C<44521.2] yes=15,no=16,missing=15
				15:[D_KEYWORD_MICRO_MEAN_COEC<0.120999] yes=31,no=32,missing=32
					31:[D_TITLEMD5_COEC<0.077999] yes=63,no=64,missing=64
						63:leaf=-0.00937421
						64:leaf=-0.0304826
					32:[D_KEYWORD_MEAN_EC<55477.4] yes=65,no=66,missing=66
						65:leaf=-0.00511924
						66:leaf=-0.0219858
				16:[D_TITLEMD5_C<6735.77] yes=33,no=34,missing=34
					33:[D_KEYWORD_MAX_C<896.494] yes=67,no=68,missing=68
						67:leaf=-0.0140672
						68:leaf=-0.0293541
					34:[U_KEYWORD_MACRO_MEAN_COEC<0.028999] yes=69,no=70,missing=70
						69:leaf=-0.18023
						70:leaf=-0.063753
			8:[D_KEYWORD_MEAN_C<6234.81] yes=17,no=18,missing=17
				17:[D_CATEGORY_MAX_C<464202] yes=35,no=36,missing=35
					35:[U_GENDER_COEC<0.128999] yes=71,no=72,missing=72
						71:leaf=0.0444407
						72:leaf=-0.0346263
					36:[C_D_U_CATEGORY_CATEGORY_MACRO_MEAN_COEC<0.047999] yes=73,no=74,missing=73
						73:leaf=-0.0855922
						74:leaf=-0.21484
				18:[U_KW_LEN<573] yes=37,no=38,missing=38
					37:[D_CATEGORY_MACRO_MEAN_COEC<0.144999] yes=75,no=76,missing=75
						75:leaf=-0.129051
						76:leaf=-0.0228676
					38:[D_KEYWORD_MAX_C<9105.66] yes=77,no=78,missing=78
						77:leaf=-0.0712001
						78:leaf=-0.175802
		4:[D_CATEGORY_MACRO_MEAN_COEC<0.146999] yes=9,no=10,missing=9
			9:[U_KEYWORD_MICRO_MEAN_COEC<0.137999] yes=19,no=20,missing=19
				19:[CAT_REL<0.068999] yes=39,no=40,missing=39
					39:[D_CATEGORY_MAX_EC<556040] yes=79,no=80,missing=80
						79:leaf=-0.0188058
						80:leaf=-0.00527992
					40:[U_KEYWORD_MACRO_MEAN_COEC<0.024999] yes=81,no=82,missing=82
						81:leaf=0.0228146
						82:leaf=0.00159232
				20:[D_KEYWORD_MICRO_MEAN_COEC<0.125999] yes=41,no=42,missing=42
					41:[KW_REL<0.003999] yes=83,no=84,missing=84
						83:leaf=-0.0342679
						84:leaf=-0.00952096
					42:[D_TITLEMD5_COEC<0.213999] yes=85,no=86,missing=86
						85:leaf=-0.00312196
						86:leaf=-0.0746899
			10:[D_KEYWORD_MAX_C<571.458] yes=21,no=22,missing=22
				21:[CAT_REL<0.009999] yes=43,no=44,missing=44
					43:[D_CATEGORY_MAX_EC<3.73648e+06] yes=87,no=88,missing=88
						87:leaf=0.0435377
						88:leaf=-0.0200832
					44:[D_KEYWORD_MACRO_MAX_COEC<0.050999] yes=89,no=90,missing=90
						89:leaf=0.0128944
						90:leaf=-0.152501
				22:[D_KEYWORD_MACRO_MEAN_COEC<0.141999] yes=45,no=46,missing=46
					45:[D_TITLEMD5_COEC<0.023999] yes=91,no=92,missing=91
						91:leaf=-0.0303445
						92:leaf=0.00137206
					46:[U_KEYWORD_MACRO_MAX_COEC<0.001999] yes=93,no=94,missing=94
						93:leaf=0.0450055
						94:leaf=0.0241213
	2:[DOC_AGE<3] yes=5,no=6,missing=6
		5:[D_TITLEMD5_EC<3758.45] yes=11,no=12,missing=11
			11:[D_CATEGORY_MICRO_MAX_COEC<0.159999] yes=23,no=24,missing=24
				23:[KW_REL<0.004999] yes=47,no=48,missing=48
					47:[D_KEYWORD_MEAN_EC<23732.4] yes=95,no=96,missing=96
						95:leaf=0.00445434
						96:leaf=-0.00383416
					48:[D_KEYWORD_MEAN_C<12736.6] yes=97,no=98,missing=98
						97:leaf=0.0137341
						98:leaf=-0.00388831
				24:[D_KEYWORD_MEAN_C<8059.03] yes=49,no=50,missing=50
					49:[TIME_OF_DAY<4] yes=99,no=100,missing=100
						99:leaf=0.0347825
						100:leaf=0.016428
					50:[D_TITLEMD5_COEC<0.147999] yes=101,no=102,missing=101
						101:leaf=-0.00314031
						102:leaf=0.0148027
			12:[DOC_AGE<0.999999] yes=25,no=26,missing=26
				25:[D_TITLEMD5_COEC<0.023999] yes=51,no=52,missing=52
					51:[D_KEYWORD_MACRO_MAX_COEC<0.023999] yes=103,no=104,missing=104
						103:leaf=-0.0277064
						104:leaf=0.0266834
					52:[D_CATEGORY_MEAN_EC<988725] yes=105,no=106,missing=105
						105:leaf=0.026176
						106:leaf=0.0162474
				26:[TIME_OF_DAY<6] yes=53,no=54,missing=54
					53:[D_PUBLISHER_COEC<0.079999] yes=107,no=108,missing=108
						107:leaf=0.0334471
						108:leaf=0.0132615
					54:[U_KEYWORD_MEAN_EC<22496] yes=109,no=110,missing=110
						109:leaf=0.00284679
						110:leaf=0.00966623
		6:[C_D_U_TITLEMD5_CITY_C<140.568] yes=13,no=14,missing=13
			13:[D_CATEGORY_MEAN_EC<41514.3] yes=27,no=28,missing=27
				27:[U_CATEGORY_MACRO_MAX_COEC<0.024999] yes=55,no=56,missing=56
					55:[D_KEYWORD_MEAN_C<4563.88] yes=111,no=112,missing=112
						111:leaf=0.0197974
						112:leaf=0.00967901
					56:[DAY_OF_WEEK<2] yes=113,no=114,missing=114
						113:leaf=-0.00988523
						114:leaf=0.0027202
				28:[D_TITLEMD5_COEC<0.077999] yes=57,no=58,missing=58
					57:[U_KEYWORD_MICRO_MEAN_COEC<0.130999] yes=115,no=116,missing=116
						115:leaf=0.000964365
						116:leaf=-0.00968076
					58:[CAT_REL<0.053999] yes=117,no=118,missing=118
						117:leaf=-0.00271897
						118:leaf=0.00325818
			14:[TIME_OF_DAY<8] yes=29,no=30,missing=30
				29:[U_KEYWORD_MICRO_MEAN_COEC<0.140999] yes=59,no=60,missing=59
					59:[DOC_AGE<12] yes=119,no=120,missing=120
						119:leaf=0.0123317
						120:leaf=0.00399104
					60:[U_KEYWORD_MAX_EC<2260.43] yes=121,no=122,missing=122
						121:leaf=0.0196925
						122:leaf=0.0118153
				30:[D_CATEGORY_MEAN_C<466492] yes=61,no=62,missing=61
					61:[DOC_AGE<12] yes=123,no=124,missing=124
						123:leaf=0.00596281
						124:leaf=0.000362342
					62:[U_KEYWORD_MEAN_C<3158.5] yes=125,no=126,missing=126
						125:leaf=-0.00589583
						126:leaf=0.00137539
booster[57]:
0:[U_KW_LEN<4517] yes=1,no=2,missing=1
	1:[U_KEYWORD_MICRO_MAX_COEC<0.151999] yes=3,no=4,missing=3
		3:[U_KEYWORD_MEAN_C<1957.81] yes=7,no=8,missing=8
			7:[D_CATEGORY_MEAN_EC<1.36421e+06] yes=15,no=16,missing=15
				15:[C_D_U_CATEGORY_CATEGORY_MICRO_MEAN_COEC<0.126999] yes=31,no=32,missing=32
					31:[U_KEYWORD_MACRO_MEAN_COEC<0.037999] yes=63,no=64,missing=64
						63:leaf=-0.00989409
						64:leaf=0.00358688
					32:[CAT_REL<0.063999] yes=65,no=66,missing=66
						65:leaf=0.000110439
						66:leaf=0.00878337
				16:[U_KW_LEN<836] yes=33,no=34,missing=34
					33:[C_D_U_TITLEMD5_CITY_COEC<0.203999] yes=67,no=68,missing=67
						67:leaf=-0.00863854
						68:leaf=0.00155195
					34:[KW_REL<0.003999] yes=69,no=70,missing=70
						69:leaf=-0.0291445
						70:leaf=-0.000128149
			8:[TIME_OF_DAY<5] yes=17,no=18,missing=18
				17:[U_CAT_LEN<10] yes=35,no=36,missing=36
					35:[D_KEYWORD_MICRO_MEAN_COEC<0.150999] yes=71,no=72,missing=72
						71:leaf=-0.00441495
						72:leaf=0.00670072
					36:[U_KEYWORD_MEAN_C<2883.57] yes=73,no=74,missing=74
						73:leaf=0.00547844
						74:leaf=0.0138849
				18:[U_KEYWORD_MEAN_EC<23075.1] yes=37,no=38,missing=38
					37:[CAT_REL<0.057999] yes=75,no=76,missing=76
						75:leaf=-0.00502077
						76:leaf=0.00170652
					38:[U_KEYWORD_MACRO_MAX_COEC<0.002999] yes=77,no=78,missing=77
						77:leaf=0.00286332
						78:leaf=-0.00852583
		4:[U_KW_LEN<200] yes=9,no=10,missing=10
			9:[U_KEYWORD_MICRO_MAX_COEC<0.215999] yes=19,no=20,missing=20
				19:[CAT_REL<0.004999] yes=39,no=40,missing=40
					39:[C_D_U_KEYWORD_GENDER_MICRO_MEAN_COEC<0.141999] yes=79,no=80,missing=79
						79:leaf=0.00477897
						80:leaf=0.0157693
					40:[U_KW_LEN<97] yes=81,no=82,missing=82
						81:leaf=-0.0113275
						82:leaf=0.000843168
				20:[U_KEYWORD_MACRO_MEAN_COEC<0.116999] yes=41,no=42,missing=42
					41:[U_CATEGORY_MACRO_MAX_COEC<0.018999] yes=83,no=84,missing=83
						83:leaf=-0.066576
						84:leaf=0.0140398
					42:[C_D_U_TITLEMD5_CATEGORY_MACRO_MAX_COEC<0.074999] yes=85,no=86,missing=86
						85:leaf=0.0462041
						86:leaf=0.0265464
			10:[U_CATEGORY_MICRO_MAX_COEC<0.126999] yes=21,no=22,missing=22
				21:[U_KEYWORD_MICRO_MAX_COEC<0.211999] yes=43,no=44,missing=44
					43:[U_CATEGORY_MACRO_MAX_COEC<0.020999] yes=87,no=88,missing=88
						87:leaf=0.0144403
						88:leaf=0.00338018
					44:[C_D_U_CATEGORY_CATEGORY_MACRO_MEAN_COEC<0.009999] yes=89,no=90,missing=90
						89:leaf=0.0781929
						90:leaf=0.0194413
				22:[D_CATEGORY_MAX_C<47513.4] yes=45,no=46,missing=45
					45:[U_KW_LEN<3903] yes=91,no=92,missing=92
						91:leaf=0.02513
						92:leaf=0.129492
					46:[U_CATEGORY_MAX_EC<33980.4] yes=93,no=94,missing=94
						93:leaf=0.00863978
						94:leaf=0.0177773
	2:[D_TITLEMD5_COEC<0.102999] yes=5,no=6,missing=5
		5:[CAT_REL<0.010999] yes=11,no=12,missing=12
			11:[U_AGE_COEC<0.133999] yes=23,no=24,missing=24
				23:[U_AGE_C<73536.5] yes=47,no=48,missing=48
					47:[U_CAT_LEN<37] yes=95,no=96,missing=96
						95:leaf=0.0268432
						96:leaf=0.118504
					48:[DOC_AGE<0.999999] yes=97,no=98,missing=98
						97:leaf=0.03173
						98:leaf=0.00831373
				24:[D_CATEGORY_MACRO_MEAN_COEC<0.135999] yes=49,no=50,missing=50
					49:[U_KEYWORD_MEAN_EC<21232.7] yes=99,no=100,missing=100
						99:leaf=-0.016947
						100:leaf=-0.00186429
					50:[WORD_COUNT<1914] yes=101,no=102,missing=102
						101:leaf=-0.00358427
						102:leaf=0.0121681
			12:[D_KEYWORD_MICRO_MEAN_COEC<0.127999] yes=25,no=26,missing=25
				25:[U_KEYWORD_MACRO_MEAN_COEC<0.024999] yes=51,no=52,missing=52
					51:[U_KEYWORD_MAX_C<266.236] yes=103,no=104,missing=104
						103:leaf=0.0160006
						104:leaf=0.00405191
					52:[WORD_COUNT<1507] yes=105,no=106,missing=106
						105:leaf=-0.00739201
						106:leaf=0.00570204
				26:[U_KEYWORD_MACRO_MEAN_COEC<0.023999] yes=53,no=54,missing=54
					53:[U_KEYWORD_MAX_C<266.236] yes=107,no=108,missing=108
						107:leaf=0.035065
						108:leaf=0.0189795
					54:[CAT_REL<0.081999] yes=109,no=110,missing=110
						109:leaf=0.0115503
						110:leaf=0.0268866
		6:[U_KW_LEN<6589] yes=13,no=14,missing=14
			13:[CAT_REL<0.035999] yes=27,no=28,missing=28
				27:[D_CATEGORY_MICRO_MAX_COEC<0.130999] yes=55,no=56,missing=56
					55:[D_KEYWORD_MICRO_MAX_COEC<0.156999] yes=111,no=112,missing=112
						111:leaf=-0.00945114
						112:leaf=0.00676661
					56:[U_KEYWORD_MEAN_C<2006.61] yes=113,no=114,missing=114
						113:leaf=-0.00155845
						114:leaf=0.0152494
				28:[D_KEYWORD_MICRO_MEAN_COEC<0.107999] yes=57,no=58,missing=58
					57:[D_KEYWORD_MICRO_MEAN_COEC<0.092999] yes=115,no=116,missing=116
						115:leaf=-0.0147868
						116:leaf=0.0111073
					58:[DOC_AGE<23] yes=117,no=118,missing=118
						117:leaf=0.0254192
						118:leaf=0.00139627
			14:[D_CATEGORY_MACRO_MEAN_COEC<0.135999] yes=29,no=30,missing=30
				29:[CAT_REL<0.018999] yes=59,no=60,missing=60
					59:[D_KEYWORD_MICRO_MAX_COEC<0.156999] yes=119,no=120,missing=120
						119:leaf=-0.000693483
						120:leaf=0.0205612
					60:[D_KEYWORD_MICRO_MEAN_COEC<0.098999] yes=121,no=122,missing=122
						121:leaf=0.0139518
						122:leaf=0.0361817
				30:[U_CAT_LEN<41] yes=61,no=62,missing=62
					61:[U_CATEGORY_MAX_C<629.46] yes=123,no=124,missing=124
						123:leaf=0.0206142
						124:leaf=0.0353598
					62:[U_CITY_COEC<0.122999] yes=125,no=126,missing=126
						125:leaf=-0.012315
						126:leaf=0.0671492
booster[58]:
0:[U_KEYWORD_MACRO_MAX_COEC<0.001999] yes=1,no=2,missing=2
	1:[D_KEYWORD_MICRO_MEAN_COEC<0.125999] yes=3,no=4,missing=4
		3:[D_CATEGORY_MACRO_MEAN_COEC<0.144999] yes=7,no=8,missing=8
			7:[CAT_REL<0.079999] yes=15,no=16,missing=16
				15:[D_CATEGORY_MEAN_EC<679410] yes=31,no=32,missing=32
					31:[WORD_COUNT<1045] yes=63,no=64,missing=64
						63:leaf=-0.0189149
						64:leaf=-0.00518875
					32:[D_KEYWORD_MEAN_EC<18658.6] yes=65,no=66,missing=66
						65:leaf=0.00979937
						66:leaf=-0.000999726
				16:[D_KEYWORD_MICRO_MEAN_COEC<0.096999] yes=33,no=34,missing=34
					33:[D_KEYWORD_MEAN_C<720.678] yes=67,no=68,missing=68
						67:leaf=0.0197131
						68:leaf=-0.010505
					34:[D_KEYWORD_MAX_EC<3261.76] yes=69,no=70,missing=70
						69:leaf=0.0272045
						70:leaf=0.00944427
			8:[D_TITLEMD5_COEC<0.123999] yes=17,no=18,missing=17
				17:[WORD_COUNT<1696] yes=35,no=36,missing=36
					35:[D_KEYWORD_MEAN_C<2461.78] yes=71,no=72,missing=72
						71:leaf=0.0169607
						72:leaf=-0.00187064
					36:[D_TITLEMD5_COEC<0.042999] yes=73,no=74,missing=73
						73:leaf=-0.00979611
						74:leaf=0.0182047
				18:[WORD_COUNT<1298] yes=37,no=38,missing=38
					37:[D_CATEGORY_MACRO_MEAN_COEC<0.149999] yes=75,no=76,missing=76
						75:leaf=0.00325257
						76:leaf=0.0190576
					38:[D_KEYWORD_MAX_EC<5747.83] yes=77,no=78,missing=78
						77:leaf=0.0444246
						78:leaf=0.0254656
		4:[CAT_REL<0.037999] yes=9,no=10,missing=10
			9:[U_KEYWORD_MEAN_C<1526.82] yes=19,no=20,missing=20
				19:[D_CATEGORY_MEAN_C<496449] yes=39,no=40,missing=39
					39:[KW_REL<0.001999] yes=79,no=80,missing=80
						79:leaf=-0.0232099
						80:leaf=-0.00235473
					40:[U_KEYWORD_MICRO_MAX_COEC<0.137999] yes=81,no=82,missing=82
						81:leaf=-0.0594097
						82:leaf=-0.0321543
				20:[U_KW_LEN<5637] yes=41,no=42,missing=42
					41:[D_KEYWORD_MACRO_MEAN_COEC<0.174999] yes=83,no=84,missing=84
						83:leaf=0.00408688
						84:leaf=0.018613
					42:[D_TITLEMD5_COEC<0.156999] yes=85,no=86,missing=85
						85:leaf=0.0138706
						86:leaf=0.0274656
			10:[CAT_REL<0.079999] yes=21,no=22,missing=22
				21:[U_CATEGORY_MACRO_MAX_COEC<0.014999] yes=43,no=44,missing=44
					43:[U_KEYWORD_MACRO_MEAN_COEC<0.023999] yes=87,no=88,missing=88
						87:leaf=0.0315212
						88:leaf=0.0184059
					44:[D_CATEGORY_MACRO_MEAN_COEC<0.130999] yes=89,no=90,missing=89
						89:leaf=0.0035975
						90:leaf=0.0153847
				22:[U_KEYWORD_MACRO_MEAN_COEC<0.024999] yes=45,no=46,missing=46
					45:[C_D_U_CATEGORY_CATEGORY_MAX_EC<1158.42] yes=91,no=92,missing=92
						91:leaf=0.0400602
						92:leaf=0.0232523
					46:[D_TITLEMD5_COEC<0.086999] yes=93,no=94,missing=94
						93:leaf=0.0161201
						94:leaf=0.0259422
	2:[U_KEYWORD_MACRO_MEAN_COEC<0.029999] yes=5,no=6,missing=6
		5:[CAT_REL<0.070999] yes=11,no=12,missing=12
			11:[U_KEYWORD_MEAN_C<1566.02] yes=23,no=24,missing=24
				23:[U_CATEGORY_MACRO_MAX_COEC<0.016999] yes=47,no=48,missing=47
					47:[CAT_REL<0.004999] yes=95,no=96,missing=96
						95:leaf=-0.0274573
						96:leaf=-0.0048027
					48:[U_KW_LEN<879] yes=97,no=98,missing=98
						97:leaf=-0.0225701
						98:leaf=-0.0397778
				24:[U_KEYWORD_MEAN_EC<24493.2] yes=49,no=50,missing=50
					49:[TIME_OF_DAY<6] yes=99,no=100,missing=100
						99:leaf=-0.000237223
						100:leaf=-0.00974405
					50:[D_CATEGORY_MAX_EC<37992.5] yes=101,no=102,missing=101
						101:leaf=0.0203149
						102:leaf=0.00111096
			12:[DOC_AGE<12] yes=25,no=26,missing=26
				25:[D_CATEGORY_MICRO_MAX_COEC<0.105999] yes=51,no=52,missing=52
					51:[D_CATEGORY_MAX_EC<1.40912e+06] yes=103,no=104,missing=104
						103:leaf=0.00419418
						104:leaf=-0.0188649
					52:[D_KEYWORD_MEAN_EC<40507.4] yes=105,no=106,missing=106
						105:leaf=0.0185817
						106:leaf=0.00701551
				26:[D_KEYWORD_MEAN_EC<33129.2] yes=53,no=54,missing=54
					53:[D_KEYWORD_MICRO_MEAN_COEC<0.114999] yes=107,no=108,missing=108
						107:leaf=-0.00450083
						108:leaf=0.00865835
					54:[DOC_AGE<35] yes=109,no=110,missing=110
						109:leaf=-0.00694863
						110:leaf=-0.0222304
		6:[IMAGE_COUNT<0.999999] yes=13,no=14,missing=14
			13:[D_TITLEMD5_EC<76259] yes=27,no=28,missing=28
				27:[D_CATEGORY_MACRO_MAX_COEC<0.118999] yes=55,no=56,missing=55
					55:[D_TITLEMD5_COEC<0.090999] yes=111,no=112,missing=112
						111:leaf=-0.0111167
						112:leaf=-0.0250354
					56:[C_D_U_TITLEMD5_GENDER_COEC<0.165999] yes=113,no=114,missing=113
						113:leaf=-0.00901827
						114:leaf=0.00891212
				28:[D_PUBLISHER_COEC<0.092999] yes=57,no=58,missing=58
					57:[C_D_U_TITLEMD5_GENDER_COEC<0.165999] yes=115,no=116,missing=116
						115:leaf=0.107203
						116:leaf=-0.0732848
					58:[D_PUBLISHER_C<35308.3] yes=117,no=118,missing=117
						117:leaf=-0.00923887
						118:leaf=-0.0711412
			14:[U_KEYWORD_MAX_C<388.278] yes=29,no=30,missing=30
				29:[DOC_AGE<3] yes=59,no=60,missing=60
					59:[C_D_U_TITLEMD5_CATEGORY_MAX_EC<2.707] yes=119,no=120,missing=119
						119:leaf=0.00354261
						120:leaf=0.0117837
					60:[D_TITLEMD5_EC<7582.46] yes=121,no=122,missing=122
						121:leaf=-0.00215778
						122:leaf=0.0049758
				30:[D_KEYWORD_MICRO_MEAN_COEC<0.150999] yes=61,no=62,missing=61
					61:[U_KEYWORD_MICRO_MAX_COEC<0.150999] yes=123,no=124,missing=123
						123:leaf=-0.00265226
						124:leaf=0.00955663
					62:[WORD_COUNT<1182] yes=125,no=126,missing=126
						125:leaf=0.000120621
						126:leaf=0.0066256
booster[59]:
0:[U_CITY_EC<1.33199e+06] yes=1,no=2,missing=1
	1:[U_CITY_COEC<0.147999] yes=3,no=4,missing=3
		3:[D_TITLEMD5_C<46.072] yes=7,no=8,missing=7
			7:[D_PUBLISHER_COEC<0.140999] yes=15,no=16,missing=16
				15:[KW_REL<0.006999] yes=31,no=32,missing=32
					31:[C_D_U_TITLEMD5_CATEGORY_MICRO_MAX_COEC<0.100999] yes=63,no=64,missing=64
						63:leaf=-0.00788901
						64:leaf=-0.0169686
					32:[U_KEYWORD_MAX_C<469.827] yes=65,no=66,missing=66
						65:leaf=0.0226833
						66:leaf=-0.0155253
				16:[DOC_AGE<0.999999] yes=33,no=34,missing=34
					33:[TIME_OF_DAY<4] yes=67,no=68,missing=68
						67:leaf=0.0303558
						68:leaf=0.00573416
					34:[D_TITLEMD5_COEC<0.059999] yes=69,no=70,missing=70
						69:leaf=-0.015468
						70:leaf=0.00182886
			8:[DOC_AGE<2] yes=17,no=18,missing=18
				17:[D_TITLEMD5_EC<3689.05] yes=35,no=36,missing=36
					35:[DOC_AGE<0.999999] yes=71,no=72,missing=72
						71:leaf=0.00513018
						72:leaf=-0.00130892
					36:[DOC_AGE<0.999999] yes=73,no=74,missing=74
						73:leaf=0.0156205
						74:leaf=0.00753138
				18:[TIME_OF_DAY<3] yes=37,no=38,missing=38
					37:[U_KEYWORD_MEAN_C<1759.64] yes=75,no=76,missing=75
						75:leaf=-0.00226818
						76:leaf=0.00800966
					38:[C_D_U_TITLEMD5_CATEGORY_MICRO_MAX_COEC<0.126999] yes=77,no=78,missing=78
						77:leaf=-0.00462988
						78:leaf=-0.000559911
		4:[C_D_U_TITLEMD5_CITY_COEC<0.027999] yes=9,no=10,missing=9
			9:[U_CITY_COEC<0.166999] yes=19,no=20,missing=20
				19:[U_CAT_LEN<35] yes=39,no=40,missing=40
					39:[D_KEYWORD_MEAN_EC<114780] yes=79,no=80,missing=80
						79:leaf=0.0152351
						80:leaf=-0.0225929
					40:[U_CATEGORY_MACRO_MAX_COEC<0.009999] yes=81,no=82,missing=81
						81:leaf=0.079691
						82:leaf=0.0154061
				20:[U_KW_LEN<2558] yes=41,no=42,missing=42
					41:[U_AGE_EC<572500] yes=83,no=84,missing=83
						83:leaf=0.0192178
						84:leaf=0.0349106
					42:[U_KW_LEN<5643] yes=85,no=86,missing=86
						85:leaf=0.0372898
						86:leaf=0.0612009
			10:[U_KEYWORD_MAX_C<255.1] yes=21,no=22,missing=22
				21:[U_KEYWORD_MEAN_C<2204.69] yes=43,no=44,missing=44
					43:[U_KEYWORD_MEAN_C<1194.47] yes=87,no=88,missing=88
						87:leaf=0.0374482
						88:leaf=0.0069614
					44:[DOC_AGE<26] yes=89,no=90,missing=90
						89:leaf=0.0551672
						90:leaf=-0.0249088
				22:[TIME_OF_DAY<3] yes=45,no=46,missing=46
					45:[U_CATEGORY_MACRO_MAX_COEC<0.015999] yes=91,no=92,missing=91
						91:leaf=0.0349695
						92:leaf=0.0106706
					46:[U_CATEGORY_MACRO_MAX_COEC<0.046999] yes=93,no=94,missing=94
						93:leaf=0.00626483
						94:leaf=-0.00553308
	2:[TIME_OF_DAY<12] yes=5,no=6,missing=6
		5:[D_CATEGORY_MICRO_MEAN_COEC<0.144999] yes=11,no=12,missing=12
			11:[KW_REL<0.000999] yes=23,no=24,missing=24
				23:[U_KW_LEN<1046] yes=47,no=48,missing=48
					47:[DAY_OF_WEEK<6] yes=95,no=96,missing=96
						95:leaf=-0.00147677
						96:leaf=0.0112951
					48:[D_KEYWORD_MEAN_EC<37037.2] yes=97,no=98,missing=98
						97:leaf=-0.00745805
						98:leaf=-0.0619386
				24:[D_PUBLISHER_COEC<0.102999] yes=49,no=50,missing=50
					49:[D_KEYWORD_MAX_EC<4861.24] yes=99,no=100,missing=100
						99:leaf=0.0111102
						100:leaf=0.000301418
					50:[D_KEYWORD_MEAN_EC<20336.3] yes=101,no=102,missing=102
						101:leaf=0.012808
						102:leaf=0.00597247
			12:[U_CITY_COEC<0.134999] yes=25,no=26,missing=26
				25:[U_KEYWORD_MEAN_EC<19803.1] yes=51,no=52,missing=51
					51:[D_CATEGORY_MAX_EC<1.58432e+06] yes=103,no=104,missing=103
						103:leaf=0.00967338
						104:leaf=0.00176031
					52:[U_KEYWORD_MAX_C<284.851] yes=105,no=106,missing=106
						105:leaf=0.0231521
						106:leaf=0.010659
				26:[U_KEYWORD_MICRO_MEAN_COEC<0.140999] yes=53,no=54,missing=54
					53:[U_KEYWORD_MICRO_MAX_COEC<0.150999] yes=107,no=108,missing=108
						107:leaf=0.00853549
						108:leaf=0.0249052
					54:[DOC_AGE<3] yes=109,no=110,missing=110
						109:leaf=0.0238317
						110:leaf=0.0168503
		6:[U_KEYWORD_MEAN_EC<26128.3] yes=13,no=14,missing=14
			13:[U_KW_LEN<3645] yes=27,no=28,missing=28
				27:[U_CATEGORY_MAX_C<5893.98] yes=55,no=56,missing=56
					55:[CAT_REL<0.068999] yes=111,no=112,missing=112
						111:leaf=-0.00828918
						112:leaf=0.00294185
					56:[U_KEYWORD_MICRO_MAX_COEC<0.150999] yes=113,no=114,missing=114
						113:leaf=0.00025389
						114:leaf=0.0120142
				28:[U_CATEGORY_MAX_C<1688.37] yes=57,no=58,missing=58
					57:[CAT_REL<0.012999] yes=115,no=116,missing=116
						115:leaf=-0.00858541
						116:leaf=0.00559053
					58:[C_D_U_TITLEMD5_CATEGORY_MICRO_MAX_COEC<0.126999] yes=117,no=118,missing=117
						117:leaf=0.00405696
						118:leaf=0.0135018
			14:[U_KEYWORD_MAX_C<509.441] yes=29,no=30,missing=29
				29:[U_KEYWORD_MEAN_EC<29589.1] yes=59,no=60,missing=59
					59:[U_CATEGORY_MAX_EC<15282.8] yes=119,no=120,missing=120
						119:leaf=-0.00317057
						120:leaf=0.00647677
					60:[U_CATEGORY_MAX_C<5893.98] yes=121,no=122,missing=121
						121:leaf=0.0109714
						122:leaf=0.0191682
				30:[DAY_OF_WEEK<3] yes=61,no=62,missing=62
					61:[U_CATEGORY_MACRO_MAX_COEC<0.042999] yes=123,no=124,missing=123
						123:leaf=0.00621388
						124:leaf=-0.00816155
					62:[C_D_U_TITLEMD5_CATEGORY_MAX_C<10.52] yes=125,no=126,missing=126
						125:leaf=-0.0129985
						126:leaf=-0.00118649
booster[60]:
0:[WORD_COUNT<942] yes=1,no=2,missing=1
	1:[D_KEYWORD_MICRO_MAX_COEC<0.161999] yes=3,no=4,missing=4
		3:[D_KEYWORD_MACRO_MAX_COEC<0.043999] yes=7,no=8,missing=8
			7:[KW_REL<0.006999] yes=15,no=16,missing=16
				15:[D_TITLEMD5_C<11.348] yes=31,no=32,missing=31
					31:[D_TITLEMD5_COEC<0.111999] yes=63,no=64,missing=64
						63:leaf=-0.0142575
						64:leaf=-0.0373678
					32:[D_CATEGORY_MAX_EC<68275.3] yes=65,no=66,missing=65
						65:leaf=0.00377288
						66:leaf=-0.00614271
				16:[U_KW_LEN<391] yes=33,no=34,missing=34
					33:[C_D_U_TITLEMD5_CATEGORY_MAX_EC<1.103] yes=67,no=68,missing=68
						67:leaf=-0.0593986
						68:leaf=-0.00406758
					34:[KW_REL<0.007999] yes=69,no=70,missing=70
						69:leaf=0.0112443
						70:leaf=0.0313347
			8:[KW_REL<0.004999] yes=17,no=18,missing=18
				17:[D_KEYWORD_MACRO_MAX_COEC<0.078999] yes=35,no=36,missing=36
					35:[D_PUBLISHER_EC<457172] yes=71,no=72,missing=72
						71:leaf=-0.0321728
						72:leaf=-0.0130309
					36:[U_KW_LEN<729] yes=73,no=74,missing=74
						73:leaf=-0.0329551
						74:leaf=-0.122471
				18:[D_TITLEMD5_EC<11380.5] yes=37,no=38,missing=37
					37:[KW_REL<0.007999] yes=75,no=76,missing=76
						75:leaf=-0.00452034
						76:leaf=0.0188508
					38:[DOC_AGE<12] yes=77,no=78,missing=78
						77:leaf=-0.0132994
						78:leaf=-0.0476017
		4:[D_KEYWORD_MEAN_EC<25359.4] yes=9,no=10,missing=10
			9:[KW_REL<0.000999] yes=19,no=20,missing=20
				19:[WORD_COUNT<661] yes=39,no=40,missing=40
					39:[D_PUBLISHER_EC<2.38911e+06] yes=79,no=80,missing=79
						79:leaf=-0.00529213
						80:leaf=-0.0265564
					40:[D_TITLEMD5_C<840.69] yes=81,no=82,missing=82
						81:leaf=-0.00757152
						82:leaf=0.00682094
				20:[D_CATEGORY_MEAN_EC<390394] yes=41,no=42,missing=42
					41:[D_PUBLISHER_COEC<0.124999] yes=83,no=84,missing=84
						83:leaf=-0.0103725
						84:leaf=0.00740272
					42:[U_CAT_LEN<12] yes=85,no=86,missing=86
						85:leaf=0.000325345
						86:leaf=0.00984127
			10:[KW_REL<0.003999] yes=21,no=22,missing=21
				21:[D_KEYWORD_MACRO_MAX_COEC<0.064999] yes=43,no=44,missing=43
					43:[C_D_U_CATEGORY_CATEGORY_MACRO_MAX_COEC<0.105999] yes=87,no=88,missing=88
						87:leaf=-0.00757498
						88:leaf=-0.000176466
					44:[D_KEYWORD_MAX_EC<54252] yes=89,no=90,missing=90
						89:leaf=0.0118488
						90:leaf=-0.0255936
				22:[D_KEYWORD_MEAN_EC<72206.8] yes=45,no=46,missing=45
					45:[U_KW_LEN<1266] yes=91,no=92,missing=92
						91:leaf=-0.000684181
						92:leaf=0.0108218
					46:[KW_REL<0.005999] yes=93,no=94,missing=94
						93:leaf=-0.00624633
						94:leaf=0.00633871
	2:[KW_REL<0.002999] yes=5,no=6,missing=6
		5:[D_KEYWORD_MEAN_EC<39193] yes=11,no=12,missing=11
			11:[KW_REL<0.000999] yes=23,no=24,missing=24
				23:[U_KW_LEN<729] yes=47,no=48,missing=48
					47:[DAY_OF_WEEK<6] yes=95,no=96,missing=96
						95:leaf=-0.00109395
						96:leaf=0.00857336
					48:[D_KEYWORD_MEAN_EC<14823.9] yes=97,no=98,missing=97
						97:leaf=-0.00279637
						98:leaf=-0.0206419
				24:[D_KEYWORD_MEAN_EC<17575.7] yes=49,no=50,missing=49
					49:[U_CATEGORY_MACRO_MAX_COEC<0.019999] yes=99,no=100,missing=99
						99:leaf=0.0126501
						100:leaf=0.00376123
					50:[D_KEYWORD_MACRO_MEAN_COEC<0.100999] yes=101,no=102,missing=102
						101:leaf=-0.0024362
						102:leaf=0.00432193
			12:[U_KW_LEN<826] yes=25,no=26,missing=26
				25:[D_CATEGORY_MEAN_EC<762466] yes=51,no=52,missing=52
					51:[D_CATEGORY_MICRO_MAX_COEC<0.123999] yes=103,no=104,missing=104
						103:leaf=0.00265457
						104:leaf=0.0158783
					52:[D_KEYWORD_MACRO_MEAN_COEC<0.138999] yes=105,no=106,missing=106
						105:leaf=-0.00365347
						106:leaf=0.00419665
				26:[U_KEYWORD_MEAN_EC<20047.3] yes=53,no=54,missing=54
					53:[U_KEYWORD_MEAN_C<1658.83] yes=107,no=108,missing=108
						107:leaf=-0.0371853
						108:leaf=-0.015902
					54:[D_KEYWORD_MACRO_MAX_COEC<0.057999] yes=109,no=110,missing=110
						109:leaf=-0.00546319
						110:leaf=0.0122315
		6:[D_KEYWORD_MEAN_EC<33972.9] yes=13,no=14,missing=13
			13:[U_KW_LEN<482] yes=27,no=28,missing=28
				27:[U_KW_LEN<103] yes=55,no=56,missing=56
					55:[D_KEYWORD_MACRO_MEAN_COEC<0.110999] yes=111,no=112,missing=112
						111:leaf=-0.0311704
						112:leaf=-0.00858714
					56:[DOC_AGE<30] yes=113,no=114,missing=114
						113:leaf=0.000637551
						114:leaf=-0.0138538
				28:[D_KEYWORD_MICRO_MEAN_COEC<0.104999] yes=57,no=58,missing=58
					57:[KW_REL<0.005999] yes=115,no=116,missing=116
						115:leaf=0.000146051
						116:leaf=0.0258174
					58:[DOC_AGE<34] yes=117,no=118,missing=118
						117:leaf=0.0176933
						118:leaf=-0.00205676
			14:[D_TITLEMD5_COEC<0.192999] yes=29,no=30,missing=30
				29:[KW_REL<0.004999] yes=59,no=60,missing=60
					59:[D_KEYWORD_MEAN_EC<104874] yes=119,no=120,missing=120
						119:leaf=0.000366209
						120:leaf=-0.0166613
					60:[D_CATEGORY_MAX_EC<690420] yes=121,no=122,missing=122
						121:leaf=-0.00172526
						122:leaf=0.00942882
				30:[D_KEYWORD_MAX_C<5583.71] yes=61,no=62,missing=62
					61:[DOC_AGE<12] yes=123,no=124,missing=124
						123:leaf=0.0168619
						124:leaf=0.00691605
					62:[D_PUBLISHER_COEC<0.100999] yes=125,no=126,missing=126
						125:leaf=-0.0287628
						126:leaf=0.00430747
booster[61]:
0:[U_CITY_COEC<0.119999] yes=1,no=2,missing=1
	1:[D_PUBLISHER_COEC<0.127999] yes=3,no=4,missing=4
		3:[D_TITLEMD5_C<11.975] yes=7,no=8,missing=7
			7:[C_D_U_TITLEMD5_CATEGORY_MICRO_MAX_COEC<0.091999] yes=15,no=16,missing=15
				15:[D_TITLEMD5_COEC<0.110999] yes=31,no=32,missing=32
					31:[D_TITLEMD5_EC<433.077] yes=63,no=64,missing=64
						63:leaf=-0.00844741
						64:leaf=-0.0383675
					32:[D_TITLEMD5_C<4] yes=65,no=66,missing=66
						65:leaf=-0.0653145
						66:leaf=-0.0222646
				16:[D_TITLEMD5_COEC<0.037999] yes=33,no=34,missing=34
					33:[D_CATEGORY_MEAN_EC<469714] yes=67,no=68,missing=68
						67:leaf=-0.0244304
						68:leaf=-0.0852609
					34:[C_D_U_TITLEMD5_CATEGORY_MAX_C<0.211999] yes=69,no=70,missing=70
						69:leaf=-0.0274114
						70:leaf=0.00525495
			8:[D_KEYWORD_MEAN_EC<32155.9] yes=17,no=18,missing=18
				17:[KW_REL<0.000999] yes=35,no=36,missing=36
					35:[D_CATEGORY_MACRO_MEAN_COEC<0.149999] yes=71,no=72,missing=72
						71:leaf=-0.0105681
						72:leaf=0.000953011
					36:[KW_REL<0.002999] yes=73,no=74,missing=74
						73:leaf=0.000146049
						74:leaf=0.00792005
				18:[KW_REL<0.004999] yes=37,no=38,missing=38
					37:[U_KEYWORD_MEAN_EC<23571.3] yes=75,no=76,missing=76
						75:leaf=-0.010708
						76:leaf=-0.00358673
					38:[D_CATEGORY_MEAN_EC<874643] yes=77,no=78,missing=78
						77:leaf=-0.00912337
						78:leaf=0.00475836
		4:[D_TITLEMD5_COEC<0.373999] yes=9,no=10,missing=9
			9:[U_KEYWORD_MACRO_MAX_COEC<0.001999] yes=19,no=20,missing=20
				19:[U_KEYWORD_MEAN_EC<21060.8] yes=39,no=40,missing=40
					39:[U_KEYWORD_MAX_C<280.269] yes=79,no=80,missing=80
						79:leaf=0.00552839
						80:leaf=-0.00571383
					40:[D_CATEGORY_MAX_EC<38561.9] yes=81,no=82,missing=81
						81:leaf=0.0255066
						82:leaf=0.00768491
				20:[DAY_OF_WEEK<4] yes=41,no=42,missing=42
					41:[D_CATEGORY_MEAN_C<54758.4] yes=83,no=84,missing=83
						83:leaf=0.00581046
						84:leaf=-0.00111016
					42:[U_KEYWORD_MAX_EC<2629.8] yes=85,no=86,missing=85
						85:leaf=-0.00048698
						86:leaf=-0.00832751
			10:[DOC_AGE<22] yes=21,no=22,missing=22
				21:[U_KEYWORD_MACRO_MAX_COEC<0.001999] yes=43,no=44,missing=43
					43:[D_KEYWORD_MEAN_EC<29529] yes=87,no=88,missing=88
						87:leaf=0.0233244
						88:leaf=0.0356284
					44:[KW_REL<0.000999] yes=89,no=90,missing=90
						89:leaf=-0.00121713
						90:leaf=0.0172073
				22:[DOC_AGE<50] yes=45,no=46,missing=46
					45:[KW_REL<0.006999] yes=91,no=92,missing=92
						91:leaf=0.005494
						92:leaf=-0.0562734
					46:[KW_REL<0.004999] yes=93,no=94,missing=94
						93:leaf=-0.0169317
						94:leaf=-0.0963757
	2:[DOC_AGE<3] yes=5,no=6,missing=6
		5:[D_TITLEMD5_EC<3737.9] yes=11,no=12,missing=11
			11:[C_D_U_CATEGORY_CATEGORY_MICRO_MEAN_COEC<0.139999] yes=23,no=24,missing=24
				23:[C_D_U_TITLEMD5_CATEGORY_MICRO_MAX_COEC<0.143999] yes=47,no=48,missing=48
					47:[DOC_AGE<0.999999] yes=95,no=96,missing=96
						95:leaf=0.00621781
						96:leaf=-0.00279876
					48:[D_PUBLISHER_COEC<0.063999] yes=97,no=98,missing=98
						97:leaf=-0.0307062
						98:leaf=-0.00557158
				24:[DOC_AGE<0.999999] yes=49,no=50,missing=50
					49:[C_D_U_TITLEMD5_CATEGORY_MICRO_MAX_COEC<0.135999] yes=99,no=100,missing=100
						99:leaf=0.0149841
						100:leaf=0.00613812
					50:[D_TITLEMD5_COEC<0.079999] yes=101,no=102,missing=102
						101:leaf=-0.00358776
						102:leaf=0.00574922
			12:[TIME_OF_DAY<6] yes=25,no=26,missing=26
				25:[D_KEYWORD_MICRO_MEAN_COEC<0.123999] yes=51,no=52,missing=52
					51:[D_KEYWORD_MAX_EC<6753.82] yes=103,no=104,missing=104
						103:leaf=0.0338516
						104:leaf=0.0183649
					52:[D_CATEGORY_MEAN_C<71848.4] yes=105,no=106,missing=106
						105:leaf=-0.000534197
						106:leaf=0.0124179
				26:[DOC_AGE<0.999999] yes=53,no=54,missing=54
					53:[C_D_U_TITLEMD5_CATEGORY_MICRO_MAX_COEC<0.022999] yes=107,no=108,missing=108
						107:leaf=-0.0115271
						108:leaf=0.0175335
					54:[C_D_U_TITLEMD5_CITY_C<156.759] yes=109,no=110,missing=110
						109:leaf=0.00420054
						110:leaf=0.0102625
		6:[C_D_U_TITLEMD5_CITY_COEC<0.198999] yes=13,no=14,missing=14
			13:[D_CATEGORY_MEAN_EC<72645.8] yes=27,no=28,missing=27
				27:[C_D_U_TITLEMD5_CATEGORY_MICRO_MAX_COEC<0.033999] yes=55,no=56,missing=55
					55:[DOC_AGE<65] yes=111,no=112,missing=112
						111:leaf=-0.00731855
						112:leaf=0.0242989
					56:[D_TITLEMD5_COEC<0.179999] yes=113,no=114,missing=114
						113:leaf=0.0127497
						114:leaf=-0.00150047
				28:[KW_REL<0.004999] yes=57,no=58,missing=58
					57:[D_KEYWORD_MEAN_EC<55435.9] yes=115,no=116,missing=116
						115:leaf=-0.00051498
						116:leaf=-0.00698309
					58:[D_KEYWORD_MAX_C<7466.12] yes=117,no=118,missing=118
						117:leaf=0.00795418
						118:leaf=-0.00305158
			14:[DOC_AGE<24] yes=29,no=30,missing=30
				29:[D_TITLEMD5_COEC<0.373999] yes=59,no=60,missing=60
					59:[CAT_REL<0.030999] yes=119,no=120,missing=120
						119:leaf=0.00364754
						120:leaf=0.00961058
					60:[D_PUBLISHER_C<1047.66] yes=121,no=122,missing=122
						121:leaf=-0.128477
						122:leaf=0.0164905
				30:[KW_REL<0.007999] yes=61,no=62,missing=62
					61:[C_D_U_TITLEMD5_CATEGORY_MAX_EC<26.111] yes=123,no=124,missing=123
						123:leaf=-0.00684344
						124:leaf=0.0022107
					62:[D_KEYWORD_MAX_EC<19949.4] yes=125,no=126,missing=126
						125:leaf=-0.0909807
						126:leaf=-0.028807
booster[62]:
0:[U_KW_LEN<2956] yes=1,no=2,missing=1
	1:[U_CATEGORY_MAX_C<4323.67] yes=3,no=4,missing=4
		3:[CAT_REL<0.045999] yes=7,no=8,missing=8
			7:[U_KEYWORD_MACRO_MEAN_COEC<0.027999] yes=15,no=16,missing=16
				15:[U_KEYWORD_MEAN_C<1669.45] yes=31,no=32,missing=32
					31:[KW_REL<0.001999] yes=63,no=64,missing=64
						63:leaf=-0.0403629
						64:leaf=-0.0200552
					32:[D_KEYWORD_MEAN_EC<32341.6] yes=65,no=66,missing=66
						65:leaf=-0.00463494
						66:leaf=-0.0146957
				16:[D_CATEGORY_MEAN_EC<41209.6] yes=33,no=34,missing=33
					33:[C_D_U_TITLEMD5_CATEGORY_MACRO_MAX_COEC<0.022999] yes=67,no=68,missing=68
						67:leaf=0.0142266
						68:leaf=0.00403075
					34:[TIME_OF_DAY<9] yes=69,no=70,missing=70
						69:leaf=-0.00135097
						70:leaf=-0.00768816
			8:[D_KEYWORD_MICRO_MEAN_COEC<0.125999] yes=17,no=18,missing=18
				17:[C_D_U_CATEGORY_CATEGORY_MAX_EC<1545.47] yes=35,no=36,missing=35
					35:[D_CATEGORY_MEAN_C<74905.9] yes=71,no=72,missing=71
						71:leaf=-0.00544467
						72:leaf=0.00466488
					36:[D_CATEGORY_MICRO_MAX_COEC<0.105999] yes=73,no=74,missing=73
						73:leaf=-0.0197671
						74:leaf=-0.00511969
				18:[U_CATEGORY_MACRO_MAX_COEC<0.019999] yes=37,no=38,missing=38
					37:[D_KEYWORD_MEAN_EC<33126.2] yes=75,no=76,missing=76
						75:leaf=0.0134907
						76:leaf=0.00496761
					38:[CAT_REL<0.106999] yes=77,no=78,missing=78
						77:leaf=-0.00200323
						78:leaf=0.00657145
		4:[U_CATEGORY_MICRO_MAX_COEC<0.125999] yes=9,no=10,missing=10
			9:[C_D_U_TITLEMD5_CATEGORY_MAX_C<0.619999] yes=19,no=20,missing=19
				19:[U_KEYWORD_MICRO_MEAN_COEC<0.128999] yes=39,no=40,missing=40
					39:[U_CATEGORY_MICRO_MAX_COEC<0.119999] yes=79,no=80,missing=80
						79:leaf=-0.00965377
						80:leaf=0.00659942
					40:[U_KW_LEN<2204] yes=81,no=82,missing=82
						81:leaf=-0.0149581
						82:leaf=-0.00363349
				20:[U_CATEGORY_MACRO_MAX_COEC<0.024999] yes=41,no=42,missing=42
					41:[KW_REL<0.000999] yes=83,no=84,missing=84
						83:leaf=-0.0100562
						84:leaf=0.00190094
					42:[U_KEYWORD_MACRO_MEAN_COEC<0.038999] yes=85,no=86,missing=86
						85:leaf=-0.00783208
						86:leaf=0.000239419
			10:[U_CATEGORY_MACRO_MAX_COEC<0.026999] yes=21,no=22,missing=22
				21:[TIME_OF_DAY<11] yes=43,no=44,missing=44
					43:[U_KEYWORD_MEAN_C<2852.52] yes=87,no=88,missing=88
						87:leaf=0.00641797
						88:leaf=0.0132346
					44:[U_KEYWORD_MEAN_EC<26358.7] yes=89,no=90,missing=90
						89:leaf=-6.53541e-05
						90:leaf=0.00924794
				22:[U_KEYWORD_MICRO_MAX_COEC<0.150999] yes=45,no=46,missing=45
					45:[U_CATEGORY_MAX_C<6686.61] yes=91,no=92,missing=92
						91:leaf=-0.0077179
						92:leaf=0.00063667
					46:[U_KW_LEN<151] yes=93,no=94,missing=94
						93:leaf=0.00333061
						94:leaf=0.0129325
	2:[KW_REL<0.003999] yes=5,no=6,missing=6
		5:[D_KEYWORD_MEAN_EC<50956.5] yes=11,no=12,missing=11
			11:[D_CATEGORY_MACRO_MEAN_COEC<0.112999] yes=23,no=24,missing=24
				23:[D_KEYWORD_MICRO_MEAN_COEC<0.108999] yes=47,no=48,missing=48
					47:[U_KEYWORD_MICRO_MAX_COEC<0.141999] yes=95,no=96,missing=96
						95:leaf=-0.000592747
						96:leaf=-0.0173568
					48:[CAT_REL<0.061999] yes=97,no=98,missing=98
						97:leaf=-0.000225393
						98:leaf=0.0103508
				24:[D_TITLEMD5_COEC<0.079999] yes=49,no=50,missing=49
					49:[U_KEYWORD_MICRO_MAX_COEC<0.139999] yes=99,no=100,missing=99
						99:leaf=0.00960339
						100:leaf=-0.00344103
					50:[CAT_REL<0.012999] yes=101,no=102,missing=102
						101:leaf=0.00635286
						102:leaf=0.0147042
			12:[KW_REL<0.001999] yes=25,no=26,missing=26
				25:[D_KEYWORD_MACRO_MAX_COEC<0.040999] yes=51,no=52,missing=52
					51:[D_KEYWORD_MAX_EC<26743.5] yes=103,no=104,missing=104
						103:leaf=-0.0285254
						104:leaf=-0.0641404
					52:[WORD_COUNT<487] yes=105,no=106,missing=106
						105:leaf=-0.126796
						106:leaf=-0.00103256
				26:[D_KEYWORD_MEAN_EC<97971.9] yes=53,no=54,missing=54
					53:[U_KW_LEN<6615] yes=107,no=108,missing=108
						107:leaf=-0.00305883
						108:leaf=0.0172035
					54:[U_KEYWORD_MEAN_C<2725.06] yes=109,no=110,missing=110
						109:leaf=-0.0371149
						110:leaf=-0.0132476
		6:[KW_REL<0.005999] yes=13,no=14,missing=14
			13:[WORD_COUNT<2788] yes=27,no=28,missing=28
				27:[D_KEYWORD_MEAN_EC<25453.5] yes=55,no=56,missing=56
					55:[D_CATEGORY_MACRO_MAX_COEC<0.107999] yes=111,no=112,missing=111
						111:leaf=0.0189658
						112:leaf=0.0439703
					56:[D_TITLEMD5_COEC<0.148999] yes=113,no=114,missing=113
						113:leaf=0.0032819
						114:leaf=0.0146226
				28:[D_CATEGORY_MICRO_MAX_COEC<0.130999] yes=57,no=58,missing=58
					57:[D_TITLEMD5_COEC<0.079999] yes=115,no=116,missing=116
						115:leaf=0.00672192
						116:leaf=0.0246751
					58:[D_KEYWORD_MEAN_C<11151.8] yes=117,no=118,missing=118
						117:leaf=0.0386255
						118:leaf=0.018873
			14:[KW_REL<0.006999] yes=29,no=30,missing=30
				29:[D_TITLEMD5_COEC<0.119999] yes=59,no=60,missing=59
					59:[D_KEYWORD_MEAN_EC<31359.6] yes=119,no=120,missing=120
						119:leaf=0.0401311
						120:leaf=0.0132623
					60:[D_KEYWORD_MACRO_MAX_COEC<0.051999] yes=121,no=122,missing=122
						121:leaf=0.0315612
						122:leaf=-0.0142662
				30:[DOC_AGE<12] yes=61,no=62,missing=62
					61:[KW_REL<0.007999] yes=123,no=124,missing=124
						123:leaf=0.0351545
						124:leaf=0.0518093
					62:[D_KEYWORD_MACRO_MAX_COEC<0.078999] yes=125,no=126,missing=126
						125:leaf=0.0267388
						126:leaf=-0.0300741
booster[63]:
0:[U_KW_LEN<5680] yes=1,no=2,missing=1
	1:[IMAGE_COUNT<0.999999] yes=3,no=4,missing=3
		3:[D_KEYWORD_MEAN_EC<80486.5] yes=7,no=8,missing=7
			7:[KW_REL<0.004999] yes=15,no=16,missing=15
				15:[D_KEYWORD_MICRO_MEAN_COEC<0.119999] yes=31,no=32,missing=32
					31:[D_TITLEMD5_COEC<0.048999] yes=63,no=64,missing=64
						63:leaf=0.00227812
						64:leaf=-0.0186062
					32:[D_PUBLISHER_C<41424.7] yes=65,no=66,missing=65
						65:leaf=-0.00261792
						66:leaf=-0.0159137
				16:[U_KEYWORD_MACRO_MEAN_COEC<0.028999] yes=33,no=34,missing=34
					33:[D_KEYWORD_MEAN_EC<21255.5] yes=67,no=68,missing=68
						67:leaf=0.0414626
						68:leaf=0.014219
					34:[U_KW_LEN<458] yes=69,no=70,missing=70
						69:leaf=-0.0312551
						70:leaf=0.00126957
			8:[KW_REL<0.003999] yes=17,no=18,missing=18
				17:[WORD_COUNT<1550] yes=35,no=36,missing=36
					35:[D_TITLEMD5_COEC<0.138999] yes=71,no=72,missing=71
						71:leaf=-0.0296843
						72:leaf=-0.094027
					36:[D_TITLEMD5_COEC<0.090999] yes=73,no=74,missing=74
						73:leaf=-0.0569772
						74:leaf=-0.111228
				18:[D_KEYWORD_MACRO_MAX_COEC<0.026999] yes=37,no=38,missing=38
					37:[D_TITLEMD5_C<78.791] yes=75,no=76,missing=75
						75:leaf=-0.0197762
						76:leaf=0.00917455
					38:[KW_REL<0.007999] yes=77,no=78,missing=78
						77:leaf=-0.0314432
						78:leaf=0.0116947
		4:[U_KEYWORD_MEAN_C<1944.55] yes=9,no=10,missing=10
			9:[U_KEYWORD_MACRO_MEAN_COEC<0.038999] yes=19,no=20,missing=20
				19:[KW_REL<0.002999] yes=39,no=40,missing=40
					39:[U_KW_LEN<847] yes=79,no=80,missing=80
						79:leaf=-0.00430189
						80:leaf=-0.0170217
					40:[D_KEYWORD_MEAN_EC<32204.5] yes=81,no=82,missing=82
						81:leaf=0.011069
						82:leaf=-0.00623485
				20:[CAT_REL<0.004999] yes=41,no=42,missing=42
					41:[U_KEYWORD_MACRO_MEAN_COEC<0.118999] yes=83,no=84,missing=84
						83:leaf=0.00688944
						84:leaf=0.0233234
					42:[U_KW_LEN<153] yes=85,no=86,missing=86
						85:leaf=-0.0102992
						86:leaf=0.000414259
			10:[U_KEYWORD_MAX_C<332.635] yes=21,no=22,missing=22
				21:[CAT_REL<0.079999] yes=43,no=44,missing=44
					43:[U_KEYWORD_MEAN_EC<20651] yes=87,no=88,missing=88
						87:leaf=0.000574626
						88:leaf=0.00702001
					44:[DOC_AGE<12] yes=89,no=90,missing=90
						89:leaf=0.014904
						90:leaf=0.00571696
				22:[U_KEYWORD_MEAN_EC<26061.1] yes=45,no=46,missing=45
					45:[U_CATEGORY_MAX_C<4750.76] yes=91,no=92,missing=92
						91:leaf=-0.00490526
						92:leaf=0.000830042
					46:[U_KEYWORD_MAX_C<483.024] yes=93,no=94,missing=94
						93:leaf=0.00696668
						94:leaf=-0.00307494
	2:[U_CAT_LEN<46] yes=5,no=6,missing=6
		5:[C_D_U_TITLEMD5_CATEGORY_MAX_C<0.320999] yes=11,no=12,missing=11
			11:[U_KEYWORD_MAX_C<242.894] yes=23,no=24,missing=24
				23:[DOC_AGE<12] yes=47,no=48,missing=48
					47:[U_CITY_COEC<0.139999] yes=95,no=96,missing=95
						95:leaf=0.0185907
						96:leaf=0.0608023
					48:[U_CITY_COEC<0.119999] yes=97,no=98,missing=98
						97:leaf=-0.0448219
						98:leaf=0.00281764
				24:[U_KEYWORD_MICRO_MAX_COEC<0.142999] yes=49,no=50,missing=50
					49:[CAT_REL<0.067999] yes=99,no=100,missing=100
						99:leaf=0.00847604
						100:leaf=0.0271815
					50:[D_TITLEMD5_COEC<0.063999] yes=101,no=102,missing=101
						101:leaf=-0.0113691
						102:leaf=0.00418255
			12:[DOC_AGE<12] yes=25,no=26,missing=26
				25:[U_KW_LEN<6575] yes=51,no=52,missing=52
					51:[C_D_U_TITLEMD5_CATEGORY_MICRO_MAX_COEC<0.225999] yes=103,no=104,missing=104
						103:leaf=0.0147331
						104:leaf=0.0286598
					52:[CAT_REL<0.040999] yes=105,no=106,missing=106
						105:leaf=0.0253466
						106:leaf=0.0388337
				26:[TIME_OF_DAY<8] yes=53,no=54,missing=54
					53:[U_KW_LEN<6575] yes=107,no=108,missing=108
						107:leaf=0.0088774
						108:leaf=0.0220773
					54:[U_KEYWORD_MICRO_MAX_COEC<0.148999] yes=109,no=110,missing=110
						109:leaf=0.00423971
						110:leaf=-0.0133265
		6:[U_CATEGORY_MAX_EC<2627.06] yes=13,no=14,missing=13
			13:[U_CITY_COEC<0.125999] yes=27,no=28,missing=28
				27:[U_CATEGORY_MICRO_MAX_COEC<0.123999] yes=55,no=56,missing=56
					55:[U_CITY_COEC<0.113999] yes=111,no=112,missing=112
						111:leaf=-0.000196682
						112:leaf=0.110964
					56:[U_KEYWORD_MEAN_C<2578.6] yes=113,no=114,missing=114
						113:leaf=-0.0393547
						114:leaf=0.0650331
				28:[U_AGE_C<1.03863e+06] yes=57,no=58,missing=57
					57:[D_TITLEMD5_COEC<0.035999] yes=115,no=116,missing=116
						115:leaf=0.138904
						116:leaf=0.106896
					58:[U_AGE_EC<7.39413e+06] yes=117,no=118,missing=118
						117:leaf=-0.556888
						118:leaf=0.00585232
			14:[U_CITY_C<26674] yes=29,no=30,missing=30
				29:[C_D_U_KEYWORD_AGE_MEAN_EC<8148.88] yes=59,no=60,missing=60
					59:[CAT_REL<0.032999] yes=119,no=120,missing=120
						119:leaf=-0.477517
						120:leaf=-0.0463447
					60:[U_CATEGORY_MAX_C<2507.3] yes=121,no=122,missing=122
						121:leaf=-0.0719316
						122:leaf=0.0271968
				30:[U_KEYWORD_MEAN_EC<20020.2] yes=61,no=62,missing=62
					61:[U_CAT_LEN<48] yes=123,no=124,missing=124
						123:leaf=-0.087791
						124:leaf=0.0325658
					62:[IMAGE_COUNT<0.999999] yes=125,no=126,missing=126
						125:leaf=-0.0340322
						126:leaf=0.0810774
booster[64]:
0:[U_KEYWORD_MAX_C<280.964] yes=1,no=2,missing=2
	1:[U_KEYWORD_MEAN_EC<13067.7] yes=3,no=4,missing=4
		3:[KW_REL<0.003999] yes=7,no=8,missing=8
			7:[U_KEYWORD_MICRO_MAX_COEC<0.154999] yes=15,no=16,missing=16
				15:[D_KEYWORD_MEAN_EC<15736.3] yes=31,no=32,missing=32
					31:[KW_REL<0.001999] yes=63,no=64,missing=64
						63:leaf=-0.00288265
						64:leaf=0.0171492
					32:[U_CATEGORY_MAX_C<13160.2] yes=65,no=66,missing=66
						65:leaf=-0.0125429
						66:leaf=0.00373067
				16:[U_CATEGORY_MACRO_MAX_COEC<0.018999] yes=33,no=34,missing=34
					33:[U_GENDER_COEC<0.130999] yes=67,no=68,missing=68
						67:leaf=0.0613892
						68:leaf=0.0291925
					34:[U_KEYWORD_MACRO_MEAN_COEC<0.118999] yes=69,no=70,missing=70
						69:leaf=0.00248231
						70:leaf=0.0210421
			8:[D_KEYWORD_MEAN_EC<22969.5] yes=17,no=18,missing=18
				17:[U_KEYWORD_MACRO_MEAN_COEC<0.025999] yes=35,no=36,missing=36
					35:[D_CATEGORY_MICRO_MAX_COEC<0.105999] yes=71,no=72,missing=71
						71:leaf=0.0295496
						72:leaf=0.0544474
					36:[C_D_U_TITLEMD5_CATEGORY_MICRO_MAX_COEC<0.091999] yes=73,no=74,missing=74
						73:leaf=0.00106902
						74:leaf=0.0209648
				18:[KW_REL<0.006999] yes=37,no=38,missing=38
					37:[U_CATEGORY_MACRO_MAX_COEC<0.016999] yes=75,no=76,missing=76
						75:leaf=0.0119912
						76:leaf=-0.00345299
					38:[U_KW_LEN<1051] yes=77,no=78,missing=78
						77:leaf=-0.000838567
						78:leaf=0.0391521
		4:[U_KW_LEN<6575] yes=9,no=10,missing=10
			9:[WORD_COUNT<2250] yes=19,no=20,missing=20
				19:[U_CATEGORY_MAX_C<1026.1] yes=39,no=40,missing=40
					39:[DOC_AGE<12] yes=79,no=80,missing=80
						79:leaf=0.00144884
						80:leaf=-0.00941535
					40:[D_CATEGORY_MACRO_MAX_COEC<0.156999] yes=81,no=82,missing=82
						81:leaf=0.00561116
						82:leaf=0.0155653
				20:[D_CATEGORY_MACRO_MAX_COEC<0.125999] yes=41,no=42,missing=42
					41:[CAT_REL<0.025999] yes=83,no=84,missing=84
						83:leaf=0.0023872
						84:leaf=0.0148721
					42:[KW_REL<0.003999] yes=85,no=86,missing=86
						85:leaf=0.0186823
						86:leaf=0.0316679
			10:[U_CAT_LEN<46] yes=21,no=22,missing=22
				21:[U_AGE_C<83441.9] yes=43,no=44,missing=44
					43:[U_CAT_LEN<28] yes=87,no=88,missing=88
						87:leaf=0.00897231
						88:leaf=0.0936852
					44:[C_D_U_TITLEMD5_AGE_COEC<0.098999] yes=89,no=90,missing=90
						89:leaf=0.00249191
						90:leaf=0.0201085
				22:[U_CATEGORY_MAX_C<614.361] yes=45,no=46,missing=45
					45:[U_CITY_COEC<0.125999] yes=91,no=92,missing=92
						91:leaf=0.0292666
						92:leaf=0.0979146
					46:[U_KEYWORD_MICRO_MEAN_COEC<0.130999] yes=93,no=94,missing=94
						93:leaf=-0.198011
						94:leaf=-0.0203929
	2:[U_KEYWORD_MEAN_EC<21884] yes=5,no=6,missing=6
		5:[U_KEYWORD_MACRO_MEAN_COEC<0.031999] yes=11,no=12,missing=12
			11:[CAT_REL<0.045999] yes=23,no=24,missing=24
				23:[U_KEYWORD_MEAN_C<1477.15] yes=47,no=48,missing=48
					47:[U_KEYWORD_MEAN_C<1170.69] yes=95,no=96,missing=96
						95:leaf=-0.0437325
						96:leaf=-0.0241563
					48:[KW_REL<0.000999] yes=97,no=98,missing=98
						97:leaf=-0.0184881
						98:leaf=-0.00598071
				24:[D_KEYWORD_MEAN_EC<28710.3] yes=49,no=50,missing=50
					49:[D_CATEGORY_MACRO_MEAN_COEC<0.113999] yes=99,no=100,missing=99
						99:leaf=0.000476024
						100:leaf=0.0118593
					50:[KW_REL<0.006999] yes=101,no=102,missing=102
						101:leaf=-0.00542915
						102:leaf=0.0152673
			12:[U_KEYWORD_MICRO_MAX_COEC<0.150999] yes=25,no=26,missing=26
				25:[U_KEYWORD_MACRO_MAX_COEC<0.002999] yes=51,no=52,missing=52
					51:[IMAGE_COUNT<0.999999] yes=103,no=104,missing=104
						103:leaf=-0.0135073
						104:leaf=0.00369755
					52:[U_KEYWORD_MACRO_MEAN_COEC<0.037999] yes=105,no=106,missing=106
						105:leaf=-0.011119
						106:leaf=0.000177106
				26:[U_CAT_LEN<10] yes=53,no=54,missing=54
					53:[DAY_OF_WEEK<2] yes=107,no=108,missing=108
						107:leaf=0.00143829
						108:leaf=0.010745
					54:[TIME_OF_DAY<12] yes=109,no=110,missing=110
						109:leaf=0.0190304
						110:leaf=0.00865198
		6:[U_KEYWORD_MAX_C<363.411] yes=13,no=14,missing=14
			13:[D_CATEGORY_MEAN_EC<766414] yes=27,no=28,missing=28
				27:[CAT_REL<0.108999] yes=55,no=56,missing=56
					55:[WORD_COUNT<488] yes=111,no=112,missing=112
						111:leaf=-0.0244945
						112:leaf=-0.000534029
					56:[C_D_U_CATEGORY_CATEGORY_MEAN_C<136.251] yes=113,no=114,missing=113
						113:leaf=0.015096
						114:leaf=0.00585374
				28:[U_CATEGORY_MAX_EC<21454.4] yes=57,no=58,missing=58
					57:[C_D_U_CATEGORY_CATEGORY_MEAN_EC<23.882] yes=115,no=116,missing=115
						115:leaf=0.0189598
						116:leaf=0.00268231
					58:[TIME_OF_DAY<9] yes=117,no=118,missing=118
						117:leaf=0.0141546
						118:leaf=0.00803796
			14:[D_KEYWORD_MACRO_MEAN_COEC<0.117999] yes=29,no=30,missing=29
				29:[DOC_AGE<24] yes=59,no=60,missing=59
					59:[DOC_AGE<4] yes=119,no=120,missing=120
						119:leaf=8.26012e-05
						120:leaf=-0.00548556
					60:[D_CATEGORY_MACRO_MEAN_COEC<0.107999] yes=121,no=122,missing=121
						121:leaf=0.0141264
						122:leaf=0.00485002
				30:[DOC_AGE<12] yes=61,no=62,missing=62
					61:[U_KEYWORD_MEAN_EC<26787.8] yes=123,no=124,missing=124
						123:leaf=0.00089626
						124:leaf=0.00805209
					62:[WORD_COUNT<1332] yes=125,no=126,missing=126
						125:leaf=-0.00415176
						126:leaf=0.00204122
booster[65]:
0:[WORD_COUNT<776] yes=1,no=2,missing=1
	1:[D_KEYWORD_MICRO_MAX_COEC<0.156999] yes=3,no=4,missing=4
		3:[D_KEYWORD_MACRO_MAX_COEC<0.050999] yes=7,no=8,missing=8
			7:[D_CATEGORY_MACRO_MEAN_COEC<0.140999] yes=15,no=16,missing=16
				15:[KW_REL<0.003999] yes=31,no=32,missing=32
					31:[D_KEYWORD_MEAN_C<5884.52] yes=63,no=64,missing=64
						63:leaf=-0.0108713
						64:leaf=-0.0239553
					32:[D_TITLEMD5_COEC<0.135999] yes=65,no=66,missing=65
						65:leaf=-0.00613232
						66:leaf=0.0104732
				16:[D_KEYWORD_MACRO_MAX_COEC<0.024999] yes=33,no=34,missing=34
					33:[U_KEYWORD_MAX_C<405.983] yes=67,no=68,missing=68
						67:leaf=0.0121914
						68:leaf=-0.00344582
					34:[U_KEYWORD_MICRO_MEAN_COEC<0.140999] yes=69,no=70,missing=70
						69:leaf=-0.00144805
						70:leaf=-0.0189218
			8:[KW_REL<0.008999] yes=17,no=18,missing=18
				17:[D_CATEGORY_MAX_C<131196] yes=35,no=36,missing=36
					35:[D_TITLEMD5_EC<9200.94] yes=71,no=72,missing=71
						71:leaf=-0.0348217
						72:leaf=-0.0604211
					36:[U_KEYWORD_MAX_C<484.792] yes=73,no=74,missing=74
						73:leaf=-0.0113354
						74:leaf=-0.0436434
				18:[DOC_AGE<25] yes=37,no=38,missing=38
					37:[U_KEYWORD_MACRO_MEAN_COEC<0.027999] yes=75,no=76,missing=76
						75:leaf=0.0369958
						76:leaf=-0.00533449
					38:[DAY_OF_WEEK<6] yes=77,no=78,missing=78
						77:leaf=-0.0862723
						78:leaf=8.74444e-05
		4:[D_CATEGORY_MEAN_C<508706] yes=9,no=10,missing=9
			9:[D_TITLEMD5_COEC<0.240999] yes=19,no=20,missing=19
				19:[D_PUBLISHER_COEC<0.085999] yes=39,no=40,missing=40
					39:[D_TITLEMD5_C<11.743] yes=79,no=80,missing=79
						79:leaf=-0.0294844
						80:leaf=-0.0085235
					40:[DOC_AGE<4] yes=81,no=82,missing=82
						81:leaf=0.00286491
						82:leaf=-0.00274929
				20:[D_PUBLISHER_COEC<0.132999] yes=41,no=42,missing=42
					41:[D_KEYWORD_MAX_EC<50546] yes=83,no=84,missing=84
						83:leaf=-0.0109828
						84:leaf=-0.0861607
					42:[D_KEYWORD_MAX_EC<69236] yes=85,no=86,missing=86
						85:leaf=0.0106007
						86:leaf=-0.0196652
			10:[CAT_REL<0.010999] yes=21,no=22,missing=22
				21:[C_D_U_TITLEMD5_CATEGORY_MAX_C<12.725] yes=43,no=44,missing=44
					43:[IMAGE_COUNT<2] yes=87,no=88,missing=88
						87:leaf=-0.0189737
						88:leaf=0.00811129
					44:[D_PUBLISHER_C<79571.2] yes=89,no=90,missing=90
						89:leaf=0.00204728
						90:leaf=-0.010868
				22:[D_TITLEMD5_COEC<0.063999] yes=45,no=46,missing=45
					45:[D_KEYWORD_MICRO_MEAN_COEC<0.137999] yes=91,no=92,missing=92
						91:leaf=-0.0209502
						92:leaf=-0.00642139
					46:[C_D_U_CATEGORY_CATEGORY_MAX_EC<27673.2] yes=93,no=94,missing=94
						93:leaf=0.00190877
						94:leaf=-0.0180484
	2:[TIME_OF_DAY<4] yes=5,no=6,missing=6
		5:[U_KEYWORD_MEAN_C<1673.55] yes=11,no=12,missing=11
			11:[DAY_OF_WEEK<6] yes=23,no=24,missing=24
				23:[D_KEYWORD_MACRO_MEAN_COEC<0.131999] yes=47,no=48,missing=48
					47:[C_D_U_TITLEMD5_CATEGORY_MICRO_MAX_COEC<0.065999] yes=95,no=96,missing=95
						95:leaf=-0.0118981
						96:leaf=-0.00034745
					48:[DOC_AGE<12] yes=97,no=98,missing=98
						97:leaf=0.0181102
						98:leaf=0.000443346
				24:[U_KEYWORD_MICRO_MEAN_COEC<0.140999] yes=49,no=50,missing=50
					49:[U_KEYWORD_MACRO_MEAN_COEC<0.042999] yes=99,no=100,missing=100
						99:leaf=-0.00516519
						100:leaf=0.0120649
					50:[D_CATEGORY_MICRO_MAX_COEC<0.095999] yes=101,no=102,missing=101
						101:leaf=-0.00245185
						102:leaf=0.018894
			12:[DOC_AGE<3] yes=25,no=26,missing=26
				25:[D_TITLEMD5_COEC<0.116999] yes=51,no=52,missing=52
					51:[D_TITLEMD5_C<788.116] yes=103,no=104,missing=104
						103:leaf=0.0164456
						104:leaf=0.0375793
					52:[D_CATEGORY_MACRO_MAX_COEC<0.122999] yes=105,no=106,missing=105
						105:leaf=-0.0055413
						106:leaf=0.0123093
				26:[D_KEYWORD_MACRO_MEAN_COEC<0.112999] yes=53,no=54,missing=54
					53:[U_KEYWORD_MICRO_MEAN_COEC<0.129999] yes=107,no=108,missing=108
						107:leaf=0.0101791
						108:leaf=0.000679027
					54:[DOC_AGE<12] yes=109,no=110,missing=110
						109:leaf=0.0163598
						110:leaf=0.00819047
		6:[U_KEYWORD_MEAN_EC<23076.1] yes=13,no=14,missing=14
			13:[D_KEYWORD_MEAN_EC<20414.7] yes=27,no=28,missing=28
				27:[KW_REL<0.001999] yes=55,no=56,missing=56
					55:[D_TITLEMD5_C<11.743] yes=111,no=112,missing=111
						111:leaf=-0.0175791
						112:leaf=0.00200921
					56:[U_KEYWORD_MACRO_MEAN_COEC<0.027999] yes=113,no=114,missing=114
						113:leaf=0.0162103
						114:leaf=0.00508989
				28:[KW_REL<0.002999] yes=57,no=58,missing=58
					57:[U_KW_LEN<931] yes=115,no=116,missing=116
						115:leaf=0.000514785
						116:leaf=-0.0098169
					58:[D_KEYWORD_MEAN_EC<77719.9] yes=117,no=118,missing=118
						117:leaf=0.00232555
						118:leaf=-0.00466131
			14:[U_KEYWORD_MAX_C<425.418] yes=29,no=30,missing=30
				29:[U_CATEGORY_MAX_C<3286.39] yes=59,no=60,missing=60
					59:[U_KEYWORD_MAX_C<324.796] yes=119,no=120,missing=120
						119:leaf=0.00764015
						120:leaf=-1.12097e-05
					60:[U_KEYWORD_MEAN_EC<27199.4] yes=121,no=122,missing=122
						121:leaf=0.00627321
						122:leaf=0.0124693
				30:[D_KEYWORD_MICRO_MEAN_COEC<0.151999] yes=61,no=62,missing=62
					61:[D_CATEGORY_MACRO_MEAN_COEC<0.089999] yes=123,no=124,missing=124
						123:leaf=-0.0101773
						124:leaf=-0.00101069
					62:[DOC_AGE<5] yes=125,no=126,missing=126
						125:leaf=0.0108099
						126:leaf=0.00204619
booster[66]:
0:[U_CITY_EC<1.32263e+06] yes=1,no=2,missing=1
	1:[U_CITY_COEC<0.139999] yes=3,no=4,missing=3
		3:[D_KEYWORD_MEAN_EC<69991.9] yes=7,no=8,missing=7
			7:[KW_REL<0.001999] yes=15,no=16,missing=15
				15:[U_CATEGORY_MICRO_MAX_COEC<0.125999] yes=31,no=32,missing=32
					31:[D_KEYWORD_MEAN_EC<27035.5] yes=63,no=64,missing=64
						63:leaf=-0.00344903
						64:leaf=-0.0108674
					32:[DAY_OF_WEEK<0.999999] yes=65,no=66,missing=65
						65:leaf=-0.00673594
						66:leaf=-0.000339511
				16:[D_KEYWORD_MEAN_EC<22998.7] yes=33,no=34,missing=33
					33:[U_KEYWORD_MACRO_MEAN_COEC<0.024999] yes=67,no=68,missing=67
						67:leaf=0.0179402
						68:leaf=0.00574173
					34:[D_TITLEMD5_COEC<0.121999] yes=69,no=70,missing=69
						69:leaf=-0.00213741
						70:leaf=0.00310194
			8:[KW_REL<0.004999] yes=17,no=18,missing=18
				17:[U_KEYWORD_MEAN_EC<24872.2] yes=35,no=36,missing=36
					35:[U_KW_LEN<788] yes=71,no=72,missing=72
						71:leaf=-0.00461112
						72:leaf=-0.0129679
					36:[D_PUBLISHER_COEC<0.171999] yes=73,no=74,missing=74
						73:leaf=-0.00457176
						74:leaf=0.004451
				18:[D_TITLEMD5_COEC<0.102999] yes=37,no=38,missing=37
					37:[KW_REL<0.006999] yes=75,no=76,missing=76
						75:leaf=-0.00740738
						76:leaf=0.00710422
					38:[DOC_AGE<12] yes=77,no=78,missing=78
						77:leaf=0.00927193
						78:leaf=-0.00178229
		4:[U_CITY_COEC<0.162999] yes=9,no=10,missing=10
			9:[U_CAT_LEN<39] yes=19,no=20,missing=20
				19:[U_CITY_C<2035.82] yes=39,no=40,missing=40
					39:[C_D_U_TITLEMD5_CITY_COEC<0.106999] yes=79,no=80,missing=79
						79:leaf=0.0133431
						80:leaf=0.00576823
					40:[TIME_OF_DAY<9] yes=81,no=82,missing=82
						81:leaf=0.00778375
						82:leaf=0.00055228
				20:[U_KW_LEN<5076] yes=41,no=42,missing=42
					41:[U_KEYWORD_MICRO_MAX_COEC<0.148999] yes=83,no=84,missing=84
						83:leaf=-0.023651
						84:leaf=0.0433468
					42:[U_GENDER_EC<8.59451e+06] yes=85,no=86,missing=86
						85:leaf=0.000446176
						86:leaf=0.108641
			10:[C_D_U_TITLEMD5_CITY_COEC<0.169999] yes=21,no=22,missing=21
				21:[U_KW_LEN<1918] yes=43,no=44,missing=44
					43:[U_AGE_EC<7.05382e+06] yes=87,no=88,missing=87
						87:leaf=0.0168637
						88:leaf=0.0356512
					44:[U_KW_LEN<5604] yes=89,no=90,missing=90
						89:leaf=0.0298843
						90:leaf=0.0513701
				22:[U_KW_LEN<5604] yes=45,no=46,missing=46
					45:[D_TITLEMD5_C<1198.1] yes=91,no=92,missing=91
						91:leaf=0.0246231
						92:leaf=0.00258907
					46:[U_CITY_C<497.098] yes=93,no=94,missing=94
						93:leaf=0.017609
						94:leaf=0.0866034
	2:[TIME_OF_DAY<12] yes=5,no=6,missing=6
		5:[D_KEYWORD_MICRO_MAX_COEC<0.164999] yes=11,no=12,missing=12
			11:[C_D_U_TITLEMD5_CATEGORY_MAX_EC<3.423] yes=23,no=24,missing=23
				23:[DOC_AGE<96] yes=47,no=48,missing=48
					47:[DOC_AGE<2] yes=95,no=96,missing=96
						95:leaf=0.00205636
						96:leaf=-0.00663804
					48:[C_D_U_TITLEMD5_CATEGORY_MICRO_MAX_COEC<0.082999] yes=97,no=98,missing=98
						97:leaf=0.0427415
						98:leaf=0.00299337
				24:[DOC_AGE<2] yes=49,no=50,missing=50
					49:[U_CITY_C<433814] yes=99,no=100,missing=100
						99:leaf=0.0198768
						100:leaf=0.00798117
					50:[D_CATEGORY_MACRO_MAX_COEC<0.131999] yes=101,no=102,missing=102
						101:leaf=-0.000116606
						102:leaf=0.00845853
			12:[U_CITY_COEC<0.134999] yes=25,no=26,missing=26
				25:[U_KEYWORD_MEAN_EC<19808.9] yes=51,no=52,missing=51
					51:[D_CATEGORY_MEAN_EC<468104] yes=103,no=104,missing=103
						103:leaf=0.00747389
						104:leaf=0.00162092
					52:[U_KEYWORD_MICRO_MEAN_COEC<0.137999] yes=105,no=106,missing=106
						105:leaf=0.00939011
						106:leaf=0.00322727
				26:[U_KEYWORD_MICRO_MEAN_COEC<0.140999] yes=53,no=54,missing=53
					53:[D_TITLEMD5_COEC<0.082999] yes=107,no=108,missing=107
						107:leaf=-0.000355622
						108:leaf=0.0094213
					54:[D_KEYWORD_MICRO_MEAN_COEC<0.133999] yes=109,no=110,missing=110
						109:leaf=0.00862207
						110:leaf=0.0165082
		6:[U_KEYWORD_MEAN_EC<27573.7] yes=13,no=14,missing=14
			13:[U_KW_LEN<2938] yes=27,no=28,missing=28
				27:[U_CATEGORY_MAX_C<5073.05] yes=55,no=56,missing=56
					55:[D_KEYWORD_MEAN_EC<43838.9] yes=111,no=112,missing=112
						111:leaf=-0.00262205
						112:leaf=-0.00999248
					56:[C_D_U_TITLEMD5_CATEGORY_MICRO_MAX_COEC<0.051999] yes=113,no=114,missing=114
						113:leaf=-0.00784712
						114:leaf=0.00143972
				28:[D_KEYWORD_MICRO_MEAN_COEC<0.098999] yes=57,no=58,missing=58
					57:[D_KEYWORD_MAX_EC<7071.57] yes=115,no=116,missing=116
						115:leaf=0.00504105
						116:leaf=-0.0164926
					58:[CAT_REL<0.091999] yes=117,no=118,missing=118
						117:leaf=0.00344899
						118:leaf=0.016384
			14:[U_CATEGORY_MACRO_MAX_COEC<0.042999] yes=29,no=30,missing=29
				29:[U_KEYWORD_MEAN_EC<29707] yes=59,no=60,missing=59
					59:[U_CATEGORY_MAX_EC<22401.7] yes=119,no=120,missing=120
						119:leaf=-0.00256741
						120:leaf=0.00533753
					60:[U_KEYWORD_MAX_C<526.036] yes=121,no=122,missing=122
						121:leaf=0.0121315
						122:leaf=0.00226208
				30:[U_KEYWORD_MICRO_MAX_COEC<0.152999] yes=61,no=62,missing=62
					61:[U_KEYWORD_MICRO_MEAN_COEC<0.131999] yes=123,no=124,missing=124
						123:leaf=0.00135118
						124:leaf=-0.0174511
					62:[U_CATEGORY_MICRO_MAX_COEC<0.115999] yes=125,no=126,missing=126
						125:leaf=-0.152504
						126:leaf=0.0205577
booster[67]:
0:[D_PUBLISHER_COEC<0.120999] yes=1,no=2,missing=2
	1:[D_TITLEMD5_C<11.68] yes=3,no=4,missing=3
		3:[C_D_U_TITLEMD5_CATEGORY_MICRO_MAX_COEC<0.085999] yes=7,no=8,missing=7
			7:[D_TITLEMD5_COEC<0.109999] yes=15,no=16,missing=16
				15:[D_TITLEMD5_EC<168.915] yes=31,no=32,missing=32
					31:[C_D_U_CATEGORY_CATEGORY_MICRO_MEAN_COEC<0.057999] yes=63,no=64,missing=64
						63:leaf=-0.0302654
						64:leaf=0.00235128
					32:[D_TITLEMD5_COEC<0.023999] yes=65,no=66,missing=66
						65:leaf=-0.0262729
						66:leaf=-0.00198983
				16:[D_TITLEMD5_C<3.995] yes=33,no=34,missing=34
					33:[D_KEYWORD_MACRO_MEAN_COEC<0.074999] yes=67,no=68,missing=68
						67:leaf=-0.104377
						68:leaf=-0.047486
					34:[D_KEYWORD_MACRO_MEAN_COEC<0.090999] yes=69,no=70,missing=70
						69:leaf=-0.0339069
						70:leaf=-0.00436339
			8:[D_TITLEMD5_COEC<0.035999] yes=17,no=18,missing=18
				17:[D_CATEGORY_MEAN_C<349461] yes=35,no=36,missing=35
					35:[CAT_REL<0.090999] yes=71,no=72,missing=72
						71:leaf=-0.0614543
						72:leaf=-0.0253676
					36:[D_KEYWORD_MEAN_EC<52451.8] yes=73,no=74,missing=74
						73:leaf=-0.0742736
						74:leaf=-0.110021
				18:[C_D_U_TITLEMD5_CATEGORY_MAX_C<0.037999] yes=37,no=38,missing=38
					37:[D_KEYWORD_MACRO_MEAN_COEC<0.087999] yes=75,no=76,missing=76
						75:leaf=-0.0341317
						76:leaf=-0.0184155
					38:[U_KW_LEN<343] yes=77,no=78,missing=78
						77:leaf=-0.0433043
						78:leaf=-0.00887364
		4:[U_KEYWORD_MAX_C<302.381] yes=9,no=10,missing=10
			9:[U_KEYWORD_MEAN_EC<13556.6] yes=19,no=20,missing=20
				19:[CAT_REL<0.035999] yes=39,no=40,missing=40
					39:[U_KEYWORD_MICRO_MAX_COEC<0.145999] yes=79,no=80,missing=80
						79:leaf=-0.0139376
						80:leaf=0.000120633
					40:[U_CATEGORY_MACRO_MAX_COEC<0.014999] yes=81,no=82,missing=81
						81:leaf=0.0163427
						82:leaf=-0.0011855
				20:[DOC_AGE<12] yes=41,no=42,missing=42
					41:[D_CATEGORY_MEAN_EC<607627] yes=83,no=84,missing=84
						83:leaf=0.00127606
						84:leaf=0.00912997
					42:[D_CATEGORY_MICRO_MAX_COEC<0.130999] yes=85,no=86,missing=86
						85:leaf=-0.00344769
						86:leaf=0.0039487
			10:[D_KEYWORD_MAX_EC<23893.6] yes=21,no=22,missing=22
				21:[C_D_U_TITLEMD5_CATEGORY_MAX_C<2.677] yes=43,no=44,missing=43
					43:[U_KEYWORD_MEAN_EC<22635.9] yes=87,no=88,missing=87
						87:leaf=-0.00421811
						88:leaf=0.000605274
					44:[C_D_U_TITLEMD5_CITY_COEC<0.167999] yes=89,no=90,missing=89
						89:leaf=0.000956816
						90:leaf=0.00665265
				22:[D_CATEGORY_MACRO_MEAN_COEC<0.132999] yes=45,no=46,missing=46
					45:[D_KEYWORD_MACRO_MAX_COEC<0.030999] yes=91,no=92,missing=92
						91:leaf=-0.00457604
						92:leaf=-0.0148212
					46:[KW_REL<0.004999] yes=93,no=94,missing=94
						93:leaf=-0.00403768
						94:leaf=0.00563019
	2:[DOC_AGE<2] yes=5,no=6,missing=6
		5:[D_PUBLISHER_C<163741] yes=11,no=12,missing=12
			11:[D_TITLEMD5_COEC<0.150999] yes=23,no=24,missing=23
				23:[WORD_COUNT<859] yes=47,no=48,missing=48
					47:[U_KEYWORD_MAX_EC<2654.33] yes=95,no=96,missing=96
						95:leaf=-0.00194363
						96:leaf=-0.0110508
					48:[D_KEYWORD_MEAN_EC<22942] yes=97,no=98,missing=98
						97:leaf=0.00884666
						98:leaf=0.000451553
				24:[D_KEYWORD_MICRO_MAX_COEC<0.320999] yes=49,no=50,missing=50
					49:[KW_REL<0.004999] yes=99,no=100,missing=100
						99:leaf=0.00613979
						100:leaf=0.0209874
					50:[U_KEYWORD_MICRO_MAX_COEC<0.142999] yes=101,no=102,missing=102
						101:leaf=0.0118608
						102:leaf=0.0264865
			12:[D_PUBLISHER_C<285229] yes=25,no=26,missing=26
				25:[D_PUBLISHER_COEC<0.137999] yes=51,no=52,missing=52
					51:[DAY_OF_WEEK<4] yes=103,no=104,missing=104
						103:leaf=0.0266369
						104:leaf=0.00451211
					52:[TIME_OF_DAY<8] yes=105,no=106,missing=106
						105:leaf=0.018774
						106:leaf=0.00515989
				26:[D_PUBLISHER_COEC<0.191999] yes=53,no=54,missing=53
					53:[WORD_COUNT<859] yes=107,no=108,missing=108
						107:leaf=-0.00378283
						108:leaf=0.0100851
					54:[CAT_REL<0.002999] yes=109,no=110,missing=110
						109:leaf=-0.0142033
						110:leaf=0.00251876
		6:[WORD_COUNT<2250] yes=13,no=14,missing=13
			13:[D_CATEGORY_MAX_C<463430] yes=27,no=28,missing=27
				27:[D_CATEGORY_MACRO_MAX_COEC<0.116999] yes=55,no=56,missing=56
					55:[KW_REL<0.002999] yes=111,no=112,missing=112
						111:leaf=-0.00335366
						112:leaf=0.00321952
					56:[WORD_COUNT<964] yes=113,no=114,missing=113
						113:leaf=-3.1351e-05
						114:leaf=0.00536733
				28:[CAT_REL<0.002999] yes=57,no=58,missing=58
					57:[C_D_U_TITLEMD5_CATEGORY_MAX_C<16.276] yes=115,no=116,missing=116
						115:leaf=-0.0114306
						116:leaf=-0.00191902
					58:[D_TITLEMD5_COEC<0.240999] yes=117,no=118,missing=118
						117:leaf=-0.00122837
						118:leaf=0.00865755
			14:[D_KEYWORD_MACRO_MAX_COEC<0.041999] yes=29,no=30,missing=29
				29:[D_PUBLISHER_COEC<0.159999] yes=59,no=60,missing=59
					59:[D_KEYWORD_MICRO_MAX_COEC<0.209999] yes=119,no=120,missing=119
						119:leaf=0.00411159
						120:leaf=0.0149903
					60:[D_KEYWORD_MICRO_MEAN_COEC<0.129999] yes=121,no=122,missing=122
						121:leaf=0.00750112
						122:leaf=-0.00460775
				30:[D_PUBLISHER_C<59698.2] yes=61,no=62,missing=62
					61:[D_KEYWORD_MEAN_C<6658.95] yes=123,no=124,missing=124
						123:leaf=0.00650965
						124:leaf=-0.0220628
					62:[D_CATEGORY_MACRO_MEAN_COEC<0.305999] yes=125,no=126,missing=125
						125:leaf=0.0166146
						126:leaf=-0.0810369
booster[68]:
0:[KW_REL<0.003999] yes=1,no=2,missing=1
	1:[D_KEYWORD_MEAN_EC<52349.4] yes=3,no=4,missing=4
		3:[D_KEYWORD_MICRO_MEAN_COEC<0.117999] yes=7,no=8,missing=8
			7:[U_KEYWORD_MICRO_MEAN_COEC<0.136999] yes=15,no=16,missing=16
				15:[U_KEYWORD_MEAN_EC<13599.4] yes=31,no=32,missing=32
					31:[D_KEYWORD_MEAN_EC<11198.3] yes=63,no=64,missing=64
						63:leaf=-0.00123167
						64:leaf=-0.0143816
					32:[DOC_AGE<3] yes=65,no=66,missing=66
						65:leaf=0.00670197
						66:leaf=-0.00106243
				16:[D_CATEGORY_MEAN_C<41067.5] yes=33,no=34,missing=34
					33:[D_CATEGORY_MEAN_EC<257827] yes=67,no=68,missing=68
						67:leaf=-0.00878151
						68:leaf=-0.0322283
					34:[D_CATEGORY_MICRO_MAX_COEC<0.157999] yes=69,no=70,missing=70
						69:leaf=-0.0068051
						70:leaf=0.00785773
			8:[KW_REL<0.001999] yes=17,no=18,missing=18
				17:[U_CITY_COEC<0.135999] yes=35,no=36,missing=35
					35:[D_KEYWORD_MEAN_EC<13543.6] yes=71,no=72,missing=72
						71:leaf=0.00383195
						72:leaf=-0.00179235
					36:[U_CATEGORY_MICRO_MAX_COEC<0.126999] yes=73,no=74,missing=74
						73:leaf=0.000519543
						74:leaf=0.00627303
				18:[D_KEYWORD_MEAN_EC<23902.2] yes=37,no=38,missing=38
					37:[C_D_U_CATEGORY_CATEGORY_MACRO_MAX_COEC<0.017999] yes=75,no=76,missing=75
						75:leaf=0.0148067
						76:leaf=0.0062706
					38:[D_KEYWORD_MACRO_MEAN_COEC<0.184999] yes=77,no=78,missing=78
						77:leaf=0.00225999
						78:leaf=0.0140622
		4:[U_KW_LEN<776] yes=9,no=10,missing=10
			9:[D_PUBLISHER_COEC<0.241999] yes=19,no=20,missing=20
				19:[D_CATEGORY_MEAN_EC<803694] yes=39,no=40,missing=40
					39:[D_KEYWORD_MAX_C<9141.89] yes=79,no=80,missing=80
						79:leaf=0.00848887
						80:leaf=-0.0113667
					40:[D_CATEGORY_MICRO_MEAN_COEC<0.112999] yes=81,no=82,missing=82
						81:leaf=-0.00984159
						82:leaf=0.000154389
				20:[D_KEYWORD_MACRO_MAX_COEC<0.032999] yes=41,no=42,missing=41
					41:[C_D_U_TITLEMD5_CATEGORY_MACRO_MAX_COEC<0.026999] yes=83,no=84,missing=83
						83:leaf=0.0398947
						84:leaf=0.0232918
					42:[D_TITLEMD5_COEC<0.069999] yes=85,no=86,missing=85
						85:leaf=0.0646414
						86:leaf=0.0120309
			10:[KW_REL<0.001999] yes=21,no=22,missing=22
				21:[D_KEYWORD_MACRO_MAX_COEC<0.041999] yes=43,no=44,missing=44
					43:[U_KW_LEN<1278] yes=87,no=88,missing=88
						87:leaf=-0.0200072
						88:leaf=-0.0383
					44:[KW_REL<0.000999] yes=89,no=90,missing=90
						89:leaf=-0.0415386
						90:leaf=-0.00402244
				22:[D_KEYWORD_MACRO_MAX_COEC<0.054999] yes=45,no=46,missing=45
					45:[U_KEYWORD_MEAN_EC<20593] yes=91,no=92,missing=92
						91:leaf=-0.0130116
						92:leaf=-0.00415061
					46:[WORD_COUNT<352] yes=93,no=94,missing=94
						93:leaf=-0.0582133
						94:leaf=0.0108102
	2:[U_KW_LEN<385] yes=5,no=6,missing=6
		5:[D_KEYWORD_MAX_EC<57553.6] yes=11,no=12,missing=11
			11:[U_KW_LEN<105] yes=23,no=24,missing=24
				23:[D_KEYWORD_MICRO_MEAN_COEC<0.150999] yes=47,no=48,missing=48
					47:[C_D_U_CATEGORY_CATEGORY_MAX_EC<2688.72] yes=95,no=96,missing=96
						95:leaf=-0.0092472
						96:leaf=-0.0244756
					48:[KW_REL<0.015999] yes=97,no=98,missing=98
						97:leaf=-0.00441197
						98:leaf=-0.0453497
				24:[IMAGE_COUNT<0.999999] yes=49,no=50,missing=50
					49:[CAT_REL<0.168999] yes=99,no=100,missing=100
						99:leaf=-0.0428756
						100:leaf=-0.0140631
					50:[DOC_AGE<28] yes=101,no=102,missing=102
						101:leaf=-0.000317867
						102:leaf=-0.0127437
			12:[D_TITLEMD5_COEC<0.207999] yes=25,no=26,missing=25
				25:[U_KEYWORD_MICRO_MAX_COEC<0.150999] yes=51,no=52,missing=52
					51:[U_KEYWORD_MAX_EC<3908.2] yes=103,no=104,missing=104
						103:leaf=-0.0187938
						104:leaf=-0.0341348
					52:[D_TITLEMD5_EC<753.41] yes=105,no=106,missing=106
						105:leaf=-0.0520445
						106:leaf=-0.00495852
				26:[KW_REL<0.008999] yes=53,no=54,missing=54
					53:[U_KEYWORD_MACRO_MEAN_COEC<0.037999] yes=107,no=108,missing=108
						107:leaf=-0.0317032
						108:leaf=-0.00121291
					54:[DOC_AGE<46] yes=109,no=110,missing=110
						109:leaf=-0.0246142
						110:leaf=-0.113606
		6:[D_KEYWORD_MEAN_EC<92723.5] yes=13,no=14,missing=13
			13:[DOC_AGE<12] yes=27,no=28,missing=28
				27:[KW_REL<0.005999] yes=55,no=56,missing=56
					55:[D_KEYWORD_MAX_EC<17070.8] yes=111,no=112,missing=111
						111:leaf=0.0131024
						112:leaf=0.00485383
					56:[D_CATEGORY_MEAN_EC<690779] yes=113,no=114,missing=114
						113:leaf=0.00939607
						114:leaf=0.0235614
				28:[DOC_AGE<46] yes=57,no=58,missing=58
					57:[CAT_REL<0.001999] yes=115,no=116,missing=116
						115:leaf=0.0100616
						116:leaf=0.00103135
					58:[D_KEYWORD_MICRO_MEAN_COEC<0.232999] yes=117,no=118,missing=117
						117:leaf=-0.0108845
						118:leaf=-0.784959
			14:[KW_REL<0.006999] yes=29,no=30,missing=30
				29:[D_KEYWORD_MEAN_EC<114951] yes=59,no=60,missing=60
					59:[WORD_COUNT<2162] yes=119,no=120,missing=120
						119:leaf=-0.00335476
						120:leaf=0.00909364
					60:[D_CATEGORY_MAX_EC<4.43248e+06] yes=121,no=122,missing=122
						121:leaf=-0.00974545
						122:leaf=-0.0373015
				30:[D_KEYWORD_MACRO_MAX_COEC<0.041999] yes=61,no=62,missing=62
					61:[KW_REL<0.008999] yes=123,no=124,missing=124
						123:leaf=0.0142672
						124:leaf=0.036235
					62:[U_KEYWORD_MAX_C<280.292] yes=125,no=126,missing=126
						125:leaf=0.0287529
						126:leaf=-0.00948442
booster[69]:
0:[U_CITY_COEC<0.119999] yes=1,no=2,missing=1
	1:[DAY_OF_WEEK<4] yes=3,no=4,missing=4
		3:[DAY_OF_WEEK<2] yes=7,no=8,missing=8
			7:[D_TITLEMD5_COEC<0.082999] yes=15,no=16,missing=15
				15:[DOC_AGE<97] yes=31,no=32,missing=32
					31:[D_KEYWORD_MICRO_MEAN_COEC<0.108999] yes=63,no=64,missing=64
						63:leaf=-0.0264261
						64:leaf=-0.0129231
					32:[U_CATEGORY_MICRO_MAX_COEC<0.128999] yes=65,no=66,missing=65
						65:leaf=0.00115743
						66:leaf=0.0401152
				16:[U_KEYWORD_MICRO_MEAN_COEC<0.133999] yes=33,no=34,missing=33
					33:[D_KEYWORD_MICRO_MEAN_COEC<0.178999] yes=67,no=68,missing=68
						67:leaf=-0.00885969
						68:leaf=0.00946906
					34:[KW_REL<0.000999] yes=69,no=70,missing=70
						69:leaf=-0.0113621
						70:leaf=0.00147792
			8:[D_PUBLISHER_COEC<0.103999] yes=17,no=18,missing=18
				17:[D_TITLEMD5_COEC<0.023999] yes=35,no=36,missing=35
					35:[D_TITLEMD5_EC<67.759] yes=71,no=72,missing=72
						71:leaf=0.00270497
						72:leaf=-0.0223891
					36:[U_CITY_COEC<0.077999] yes=73,no=74,missing=74
						73:leaf=-0.0426188
						74:leaf=-0.00167492
				18:[D_CATEGORY_MEAN_EC<291573] yes=37,no=38,missing=37
					37:[DOC_AGE<0.999999] yes=75,no=76,missing=76
						75:leaf=0.023285
						76:leaf=0.00809867
					38:[WORD_COUNT<582] yes=77,no=78,missing=78
						77:leaf=-0.0104309
						78:leaf=0.00241294
		4:[U_KEYWORD_MAX_EC<3149.99] yes=9,no=10,missing=9
			9:[D_TITLEMD5_COEC<0.152999] yes=19,no=20,missing=19
				19:[D_CATEGORY_MICRO_MAX_COEC<0.159999] yes=39,no=40,missing=40
					39:[U_KEYWORD_MACRO_MEAN_COEC<0.032999] yes=79,no=80,missing=80
						79:leaf=-0.00893461
						80:leaf=-0.0023128
					40:[DOC_AGE<19] yes=81,no=82,missing=81
						81:leaf=-0.00117025
						82:leaf=0.0149869
				20:[U_KEYWORD_MICRO_MEAN_COEC<0.141999] yes=41,no=42,missing=41
					41:[U_KEYWORD_MAX_C<318.411] yes=83,no=84,missing=83
						83:leaf=0.0026187
						84:leaf=-0.00391843
					42:[TIME_OF_DAY<9] yes=85,no=86,missing=86
						85:leaf=0.0153406
						86:leaf=0.00745991
			10:[U_KEYWORD_MICRO_MAX_COEC<0.150999] yes=21,no=22,missing=22
				21:[U_KEYWORD_MEAN_C<3644.07] yes=43,no=44,missing=44
					43:[U_KEYWORD_MACRO_MEAN_COEC<0.034999] yes=87,no=88,missing=88
						87:leaf=-0.022075
						88:leaf=-0.011368
					44:[U_CAT_LEN<9] yes=89,no=90,missing=90
						89:leaf=-0.0201787
						90:leaf=-0.00404351
				22:[U_CITY_COEC<0.099999] yes=45,no=46,missing=46
					45:[U_CATEGORY_MAX_C<6323.77] yes=91,no=92,missing=92
						91:leaf=-0.124641
						92:leaf=-0.0136772
					46:[U_KEYWORD_MICRO_MEAN_COEC<0.145999] yes=93,no=94,missing=94
						93:leaf=0.00734081
						94:leaf=-0.0845749
	2:[WORD_COUNT<1332] yes=5,no=6,missing=6
		5:[D_KEYWORD_MEAN_EC<67780.6] yes=11,no=12,missing=12
			11:[KW_REL<0.003999] yes=23,no=24,missing=24
				23:[U_CATEGORY_MAX_C<3988.76] yes=47,no=48,missing=48
					47:[D_KEYWORD_MEAN_EC<19451.9] yes=95,no=96,missing=96
						95:leaf=0.00214969
						96:leaf=-0.00488695
					48:[U_CATEGORY_MICRO_MAX_COEC<0.125999] yes=97,no=98,missing=98
						97:leaf=-0.00265884
						98:leaf=0.00260895
				24:[U_KW_LEN<343] yes=49,no=50,missing=50
					49:[U_KW_LEN<156] yes=99,no=100,missing=100
						99:leaf=-0.0126434
						100:leaf=-0.00238437
					50:[KW_REL<0.006999] yes=101,no=102,missing=102
						101:leaf=0.0064485
						102:leaf=0.0247369
			12:[KW_REL<0.004999] yes=25,no=26,missing=26
				25:[U_CATEGORY_MAX_C<6073.83] yes=51,no=52,missing=52
					51:[KW_REL<0.002999] yes=103,no=104,missing=104
						103:leaf=-0.0192854
						104:leaf=-0.00663046
					52:[D_KEYWORD_MAX_EC<69348.3] yes=105,no=106,missing=106
						105:leaf=-0.00120764
						106:leaf=-0.00946215
				26:[U_KW_LEN<1416] yes=53,no=54,missing=54
					53:[D_TITLEMD5_COEC<0.067999] yes=107,no=108,missing=108
						107:leaf=-0.0159801
						108:leaf=-0.0011881
					54:[D_TITLEMD5_COEC<0.152999] yes=109,no=110,missing=109
						109:leaf=0.00238314
						110:leaf=0.0167753
		6:[D_CATEGORY_MICRO_MEAN_COEC<0.120999] yes=13,no=14,missing=14
			13:[D_CATEGORY_MEAN_EC<72808.7] yes=27,no=28,missing=28
				27:[C_D_U_CATEGORY_CATEGORY_MICRO_MEAN_COEC<0.065999] yes=55,no=56,missing=55
					55:[D_TITLEMD5_C<11.699] yes=111,no=112,missing=111
						111:leaf=-0.0169055
						112:leaf=0.00566152
					56:[D_CATEGORY_MAX_C<2788.6] yes=113,no=114,missing=114
						113:leaf=0.0219163
						114:leaf=0.0111187
				28:[KW_REL<0.002999] yes=57,no=58,missing=58
					57:[U_GENDER_COEC<0.127999] yes=115,no=116,missing=116
						115:leaf=0.00826369
						116:leaf=-0.00431529
					58:[D_CATEGORY_MEAN_EC<654639] yes=117,no=118,missing=118
						117:leaf=-0.00324505
						118:leaf=0.00625863
			14:[U_KW_LEN<2324] yes=29,no=30,missing=30
				29:[D_CATEGORY_MAX_EC<605305] yes=59,no=60,missing=60
					59:[U_KW_LEN<674] yes=119,no=120,missing=120
						119:leaf=0.0132744
						120:leaf=0.003195
					60:[D_TITLEMD5_COEC<0.082999] yes=121,no=122,missing=122
						121:leaf=-0.00520865
						122:leaf=0.00271021
				30:[CAT_REL<0.010999] yes=61,no=62,missing=62
					61:[D_KEYWORD_MICRO_MEAN_COEC<0.134999] yes=123,no=124,missing=124
						123:leaf=0.0106437
						124:leaf=0.000384358
					62:[D_TITLEMD5_COEC<0.058999] yes=125,no=126,missing=126
						125:leaf=0.00361291
						126:leaf=0.0144758
booster[70]:
0:[U_KW_LEN<5205] yes=1,no=2,missing=1
	1:[IMAGE_COUNT<0.999999] yes=3,no=4,missing=3
		3:[D_KEYWORD_MEAN_EC<80637.6] yes=7,no=8,missing=7
			7:[KW_REL<0.004999] yes=15,no=16,missing=15
				15:[U_CATEGORY_MACRO_MAX_COEC<0.019999] yes=31,no=32,missing=31
					31:[D_KEYWORD_MAX_C<238.187] yes=63,no=64,missing=64
						63:leaf=0.016637
						64:leaf=-0.00568468
					32:[D_KEYWORD_MICRO_MEAN_COEC<0.121999] yes=65,no=66,missing=66
						65:leaf=-0.0184214
						66:leaf=-0.00892934
				16:[U_KW_LEN<520] yes=33,no=34,missing=34
					33:[C_D_U_TITLEMD5_CATEGORY_MAX_EC<1.388] yes=67,no=68,missing=67
						67:leaf=-0.0661085
						68:leaf=-0.0183865
					34:[KW_REL<0.006999] yes=69,no=70,missing=70
						69:leaf=0.00377195
						70:leaf=0.0264126
			8:[KW_REL<0.004999] yes=17,no=18,missing=18
				17:[D_TITLEMD5_COEC<0.140999] yes=35,no=36,missing=36
					35:[D_KEYWORD_MEAN_EC<114768] yes=71,no=72,missing=72
						71:leaf=-0.0222153
						72:leaf=-0.0514706
					36:[DOC_AGE<29] yes=73,no=74,missing=74
						73:leaf=-0.0870025
						74:leaf=0.000181076
				18:[D_KEYWORD_MACRO_MAX_COEC<0.026999] yes=37,no=38,missing=38
					37:[D_TITLEMD5_C<76.715] yes=75,no=76,missing=75
						75:leaf=-0.00862585
						76:leaf=0.0207354
					38:[KW_REL<0.008999] yes=77,no=78,missing=78
						77:leaf=-0.0254651
						78:leaf=0.0246
		4:[U_KEYWORD_MICRO_MAX_COEC<0.151999] yes=9,no=10,missing=9
			9:[U_KEYWORD_MEAN_EC<14099.4] yes=19,no=20,missing=20
				19:[U_KEYWORD_MACRO_MEAN_COEC<0.037999] yes=39,no=40,missing=40
					39:[D_CATEGORY_MAX_EC<1.50324e+06] yes=79,no=80,missing=79
						79:leaf=-0.00415753
						80:leaf=-0.0152483
					40:[CAT_REL<0.001999] yes=81,no=82,missing=82
						81:leaf=0.00618832
						82:leaf=-0.00369426
				20:[U_KEYWORD_MAX_C<388.134] yes=41,no=42,missing=41
					41:[CAT_REL<0.098999] yes=83,no=84,missing=84
						83:leaf=0.00127745
						84:leaf=0.00902953
					42:[DAY_OF_WEEK<4] yes=85,no=86,missing=86
						85:leaf=0.000702465
						86:leaf=-0.00552559
			10:[U_KW_LEN<432] yes=21,no=22,missing=22
				21:[U_KEYWORD_MICRO_MAX_COEC<0.221999] yes=43,no=44,missing=44
					43:[U_KW_LEN<147] yes=87,no=88,missing=88
						87:leaf=0.000196513
						88:leaf=0.00863547
					44:[C_D_U_TITLEMD5_CATEGORY_MICRO_MAX_COEC<0.134999] yes=89,no=90,missing=90
						89:leaf=0.0235021
						90:leaf=0.0109564
				22:[U_KEYWORD_MAX_EC<1992.64] yes=45,no=46,missing=46
					45:[U_CATEGORY_MACRO_MAX_COEC<0.009999] yes=91,no=92,missing=92
						91:leaf=0.109841
						92:leaf=0.027055
					46:[C_D_U_CATEGORY_CATEGORY_MACRO_MEAN_COEC<0.015999] yes=93,no=94,missing=93
						93:leaf=0.0209927
						94:leaf=0.012702
	2:[D_TITLEMD5_COEC<0.104999] yes=5,no=6,missing=5
		5:[U_CAT_LEN<42] yes=11,no=12,missing=12
			11:[CAT_REL<0.028999] yes=23,no=24,missing=24
				23:[D_CATEGORY_MAX_C<50852.9] yes=47,no=48,missing=48
					47:[D_CATEGORY_MAX_EC<106670] yes=95,no=96,missing=96
						95:leaf=-0.0062393
						96:leaf=-0.0223468
					48:[U_KEYWORD_MICRO_MAX_COEC<0.145999] yes=97,no=98,missing=97
						97:leaf=0.00552033
						98:leaf=-0.00552353
				24:[U_KEYWORD_MACRO_MEAN_COEC<0.023999] yes=49,no=50,missing=50
					49:[D_CATEGORY_MACRO_MEAN_COEC<0.104999] yes=99,no=100,missing=99
						99:leaf=0.0129754
						100:leaf=0.0318183
					50:[D_KEYWORD_MICRO_MEAN_COEC<0.114999] yes=101,no=102,missing=101
						101:leaf=-0.000831245
						102:leaf=0.0115944
			12:[U_CATEGORY_MAX_C<294.24] yes=25,no=26,missing=26
				25:[U_AGE_EC<6.04485e+06] yes=51,no=52,missing=51
					51:[U_KEYWORD_MICRO_MAX_COEC<0.139999] yes=103,no=104,missing=104
						103:leaf=0.131999
						104:leaf=0.0959922
					52:[U_CITY_COEC<0.123999] yes=105,no=106,missing=106
						105:leaf=-0.00618308
						106:leaf=0.085305
				26:[U_GENDER_COEC<0.131999] yes=53,no=54,missing=54
					53:[U_CATEGORY_MICRO_MAX_COEC<0.116999] yes=107,no=108,missing=108
						107:leaf=-0.083352
						108:leaf=0.00333282
					54:[U_KEYWORD_MACRO_MEAN_COEC<0.021999] yes=109,no=110,missing=109
						109:leaf=0.0949215
						110:leaf=0.0213762
		6:[DOC_AGE<57] yes=13,no=14,missing=14
			13:[U_KW_LEN<6691] yes=27,no=28,missing=28
				27:[U_CATEGORY_MAX_EC<13268.3] yes=55,no=56,missing=56
					55:[CAT_REL<0.022999] yes=111,no=112,missing=112
						111:leaf=0.000857374
						112:leaf=0.015816
					56:[U_KEYWORD_MACRO_MAX_COEC<0.001999] yes=113,no=114,missing=114
						113:leaf=0.0158636
						114:leaf=-0.00323288
				28:[U_CATEGORY_MACRO_MAX_COEC<0.009999] yes=57,no=58,missing=57
					57:[U_KEYWORD_MAX_EC<1816.83] yes=115,no=116,missing=116
						115:leaf=0.0441323
						116:leaf=0.0235893
					58:[U_CATEGORY_MAX_C<537.016] yes=117,no=118,missing=118
						117:leaf=-0.000159723
						118:leaf=0.0208656
			14:[U_CITY_EC<45308.9] yes=29,no=30,missing=30
				29:[C_D_U_KEYWORD_GENDER_MAX_C<1492.72] yes=59,no=60,missing=60
					59:[U_CATEGORY_MACRO_MAX_COEC<0.013999] yes=119,no=120,missing=120
						119:leaf=0.0261979
						120:leaf=-0.195184
					60:[D_TITLEMD5_COEC<0.120999] yes=121,no=122,missing=122
						121:leaf=-0.131234
						122:leaf=-0.417351
				30:[U_CATEGORY_MICRO_MAX_COEC<0.118999] yes=61,no=62,missing=61
					61:[U_CITY_COEC<0.135999] yes=123,no=124,missing=123
						123:leaf=-0.0736861
						124:leaf=-0.394633
					62:[TIME_OF_DAY<6] yes=125,no=126,missing=126
						125:leaf=-0.0753757
						126:leaf=-0.0103747
booster[71]:
0:[D_TITLEMD5_C<42.741] yes=1,no=2,missing=1
	1:[DOC_AGE<0.999999] yes=3,no=4,missing=4
		3:[C_D_U_TITLEMD5_CATEGORY_MICRO_MAX_COEC<0.100999] yes=7,no=8,missing=8
			7:[D_PUBLISHER_C<79636] yes=15,no=16,missing=15
				15:[D_TITLEMD5_C<3.98] yes=31,no=32,missing=31
					31:[D_TITLEMD5_COEC<0.089999] yes=63,no=64,missing=63
						63:leaf=-0.00355253
						64:leaf=-0.0330126
					32:[D_KEYWORD_MACRO_MEAN_COEC<0.074999] yes=65,no=66,missing=66
						65:leaf=0.0192805
						66:leaf=0.00290697
				16:[TIME_OF_DAY<4] yes=33,no=34,missing=34
					33:[D_CATEGORY_MICRO_MAX_COEC<0.159999] yes=67,no=68,missing=67
						67:leaf=0.0235662
						68:leaf=0.0758886
					34:[D_TITLEMD5_EC<1413.9] yes=69,no=70,missing=69
						69:leaf=0.00932674
						70:leaf=-0.0473081
			8:[D_TITLEMD5_COEC<0.023999] yes=17,no=18,missing=18
				17:[C_D_U_TITLEMD5_CATEGORY_MICRO_MAX_COEC<0.383999] yes=35,no=36,missing=36
					35:[CAT_REL<0.124999] yes=71,no=72,missing=72
						71:leaf=-0.100103
						72:leaf=-0.0141636
					36:[D_KEYWORD_MACRO_MEAN_COEC<0.090999] yes=73,no=74,missing=74
						73:leaf=0.00461681
						74:leaf=0.0329141
				18:[D_KEYWORD_MACRO_MEAN_COEC<0.089999] yes=37,no=38,missing=37
					37:[D_TITLEMD5_C<3.98] yes=75,no=76,missing=75
						75:leaf=-0.0330369
						76:leaf=-0.00778111
					38:[D_PUBLISHER_COEC<0.139999] yes=77,no=78,missing=78
						77:leaf=-0.00703744
						78:leaf=0.00662965
		4:[D_TITLEMD5_COEC<0.054999] yes=9,no=10,missing=10
			9:[C_D_U_TITLEMD5_CATEGORY_MICRO_MAX_COEC<0.097999] yes=19,no=20,missing=19
				19:[DOC_AGE<95] yes=39,no=40,missing=40
					39:[D_KEYWORD_MEAN_C<2940.88] yes=79,no=80,missing=80
						79:leaf=-0.00506979
						80:leaf=-0.015264
					40:[C_D_U_CATEGORY_CATEGORY_MEAN_C<485.854] yes=81,no=82,missing=81
						81:leaf=0.0153487
						82:leaf=0.0461615
				20:[C_D_U_TITLEMD5_CATEGORY_MAX_EC<0.469999] yes=41,no=42,missing=42
					41:[D_TITLEMD5_COEC<0.035999] yes=83,no=84,missing=84
						83:leaf=-0.0709858
						84:leaf=-0.0406742
					42:[U_KEYWORD_MACRO_MEAN_COEC<0.028999] yes=85,no=86,missing=86
						85:leaf=-0.00298814
						86:leaf=-0.0331659
			10:[D_KEYWORD_MICRO_MEAN_COEC<0.104999] yes=21,no=22,missing=22
				21:[D_TITLEMD5_C<3.98] yes=43,no=44,missing=43
					43:[D_TITLEMD5_COEC<0.097999] yes=87,no=88,missing=88
						87:leaf=-0.0182249
						88:leaf=-0.0717742
					44:[D_KEYWORD_MAX_EC<2634.03] yes=89,no=90,missing=90
						89:leaf=0.0134816
						90:leaf=-0.0159467
				22:[D_TITLEMD5_C<3.98] yes=45,no=46,missing=46
					45:[D_TITLEMD5_COEC<0.128999] yes=91,no=92,missing=92
						91:leaf=-0.0184468
						92:leaf=-0.0625092
					46:[C_D_U_TITLEMD5_CITY_C<14.935] yes=93,no=94,missing=93
						93:leaf=0.00159346
						94:leaf=0.0472502
	2:[DOC_AGE<2] yes=5,no=6,missing=6
		5:[D_TITLEMD5_EC<3671.15] yes=11,no=12,missing=12
			11:[D_CATEGORY_MICRO_MAX_COEC<0.159999] yes=23,no=24,missing=24
				23:[C_D_U_TITLEMD5_CATEGORY_MICRO_MAX_COEC<0.140999] yes=47,no=48,missing=48
					47:[DOC_AGE<0.999999] yes=95,no=96,missing=96
						95:leaf=0.0089758
						96:leaf=0.000225014
					48:[KW_REL<0.004999] yes=97,no=98,missing=98
						97:leaf=-0.00356794
						98:leaf=0.01161
				24:[D_KEYWORD_MEAN_C<8283.83] yes=49,no=50,missing=50
					49:[D_TITLEMD5_COEC<0.114999] yes=99,no=100,missing=100
						99:leaf=0.00886193
						100:leaf=0.0203601
					50:[D_KEYWORD_MAX_C<5324.23] yes=101,no=102,missing=102
						101:leaf=-0.0154308
						102:leaf=0.0071822
			12:[D_KEYWORD_MACRO_MEAN_COEC<0.093999] yes=25,no=26,missing=26
				25:[C_D_U_TITLEMD5_CATEGORY_MICRO_MAX_COEC<0.033999] yes=51,no=52,missing=51
					51:[D_CATEGORY_MEAN_EC<1.14284e+06] yes=103,no=104,missing=103
						103:leaf=0.00991322
						104:leaf=-0.00498026
					52:[D_TITLEMD5_COEC<0.119999] yes=105,no=106,missing=106
						105:leaf=0.0220032
						106:leaf=0.00350183
				26:[DOC_AGE<0.999999] yes=53,no=54,missing=54
					53:[C_D_U_CATEGORY_CATEGORY_MICRO_MAX_COEC<0.097999] yes=107,no=108,missing=107
						107:leaf=0.0204825
						108:leaf=0.00997111
					54:[D_TITLEMD5_EC<9880.57] yes=109,no=110,missing=110
						109:leaf=0.00134787
						110:leaf=0.00880483
		6:[TIME_OF_DAY<3] yes=13,no=14,missing=14
			13:[U_KEYWORD_MEAN_EC<18091.1] yes=27,no=28,missing=27
				27:[DAY_OF_WEEK<3] yes=55,no=56,missing=56
					55:[U_KEYWORD_MICRO_MEAN_COEC<0.132999] yes=111,no=112,missing=111
						111:leaf=-0.0105614
						112:leaf=0.00169026
					56:[U_KEYWORD_MICRO_MEAN_COEC<0.123999] yes=113,no=114,missing=114
						113:leaf=-0.0203776
						114:leaf=0.00560786
				28:[U_CATEGORY_MACRO_MAX_COEC<0.030999] yes=57,no=58,missing=58
					57:[U_CATEGORY_MAX_C<3587.58] yes=115,no=116,missing=116
						115:leaf=0.00685596
						116:leaf=0.013555
					58:[U_KEYWORD_MICRO_MAX_COEC<0.165999] yes=117,no=118,missing=118
						117:leaf=-0.000387864
						118:leaf=0.0183595
			14:[C_D_U_TITLEMD5_CATEGORY_MAX_C<1.724] yes=29,no=30,missing=30
				29:[D_CATEGORY_MAX_EC<67338.7] yes=59,no=60,missing=59
					59:[U_CATEGORY_MACRO_MAX_COEC<0.018999] yes=119,no=120,missing=120
						119:leaf=0.0111267
						120:leaf=-0.000545
					60:[CAT_REL<0.018999] yes=121,no=122,missing=122
						121:leaf=-0.00713361
						122:leaf=-0.0014383
				30:[U_KW_LEN<2621] yes=61,no=62,missing=62
					61:[D_CATEGORY_MAX_EC<1.50054e+06] yes=123,no=124,missing=123
						123:leaf=0.00128164
						124:leaf=-0.002373
					62:[DOC_AGE<12] yes=125,no=126,missing=126
						125:leaf=0.00760075
						126:leaf=0.000877418
booster[72]:
0:[U_CITY_COEC<0.135999] yes=1,no=2,missing=1
	1:[U_KEYWORD_MACRO_MAX_COEC<0.001999] yes=3,no=4,missing=4
		3:[KW_REL<0.000999] yes=7,no=8,missing=8
			7:[D_KEYWORD_MEAN_EC<21213.1] yes=15,no=16,missing=16
				15:[D_CATEGORY_MEAN_EC<800306] yes=31,no=32,missing=32
					31:[CAT_REL<0.032999] yes=63,no=64,missing=64
						63:leaf=-0.0201685
						64:leaf=-0.00265916
					32:[D_KEYWORD_MEAN_EC<12500.2] yes=65,no=66,missing=66
						65:leaf=0.00947425
						66:leaf=-0.0089988
				16:[U_KEYWORD_MEAN_EC<20009.1] yes=33,no=34,missing=34
					33:[C_D_U_TITLEMD5_CATEGORY_MAX_C<8.576] yes=67,no=68,missing=68
						67:leaf=-0.0511084
						68:leaf=-0.0171973
					34:[D_PUBLISHER_COEC<0.184999] yes=69,no=70,missing=69
						69:leaf=-0.0194203
						70:leaf=0.0140369
			8:[D_KEYWORD_MEAN_EC<15795.6] yes=17,no=18,missing=18
				17:[D_CATEGORY_MAX_EC<700665] yes=35,no=36,missing=36
					35:[CAT_REL<0.070999] yes=71,no=72,missing=72
						71:leaf=-0.00048326
						72:leaf=0.0146045
					36:[DOC_AGE<12] yes=73,no=74,missing=74
						73:leaf=0.0193074
						74:leaf=0.00920298
				18:[C_D_U_TITLEMD5_AGE_COEC<0.165999] yes=37,no=38,missing=37
					37:[C_D_U_TITLEMD5_CITY_C<1.936] yes=75,no=76,missing=75
						75:leaf=-0.00209806
						76:leaf=0.00341261
					38:[U_KW_LEN<4938] yes=77,no=78,missing=78
						77:leaf=0.0098612
						78:leaf=0.0213138
		4:[U_CATEGORY_MAX_C<3835.67] yes=9,no=10,missing=10
			9:[CAT_REL<0.063999] yes=19,no=20,missing=20
				19:[D_CATEGORY_MEAN_EC<41204.9] yes=39,no=40,missing=39
					39:[D_KEYWORD_MEAN_C<4568.6] yes=79,no=80,missing=80
						79:leaf=0.011367
						80:leaf=0.00170282
					40:[U_KEYWORD_MACRO_MEAN_COEC<0.028999] yes=81,no=82,missing=82
						81:leaf=-0.0097485
						82:leaf=-0.00398131
				20:[U_CATEGORY_MACRO_MAX_COEC<0.018999] yes=41,no=42,missing=42
					41:[D_CATEGORY_MACRO_MEAN_COEC<0.115999] yes=83,no=84,missing=83
						83:leaf=0.00103893
						84:leaf=0.0107876
					42:[CAT_REL<0.112999] yes=85,no=86,missing=86
						85:leaf=-0.00657942
						86:leaf=0.0033043
			10:[U_CATEGORY_MACRO_MAX_COEC<0.026999] yes=21,no=22,missing=22
				21:[U_CATEGORY_MICRO_MAX_COEC<0.123999] yes=43,no=44,missing=44
					43:[DAY_OF_WEEK<4] yes=87,no=88,missing=88
						87:leaf=-0.000201232
						88:leaf=-0.00607962
					44:[TIME_OF_DAY<7] yes=89,no=90,missing=90
						89:leaf=0.00756384
						90:leaf=0.00204751
				22:[U_CATEGORY_MAX_C<6878.87] yes=45,no=46,missing=46
					45:[CAT_REL<0.145999] yes=91,no=92,missing=92
						91:leaf=-0.00939418
						92:leaf=0.00534655
					46:[U_CATEGORY_MICRO_MAX_COEC<0.125999] yes=93,no=94,missing=94
						93:leaf=-0.0056535
						94:leaf=-0.000250396
	2:[U_CITY_COEC<0.162999] yes=5,no=6,missing=6
		5:[D_KEYWORD_MICRO_MAX_COEC<0.148999] yes=11,no=12,missing=12
			11:[D_CATEGORY_MACRO_MAX_COEC<0.131999] yes=23,no=24,missing=24
				23:[KW_REL<0.005999] yes=47,no=48,missing=48
					47:[D_KEYWORD_MEAN_C<12715.7] yes=95,no=96,missing=96
						95:leaf=-0.00492792
						96:leaf=-0.0281775
					48:[D_TITLEMD5_EC<21532.4] yes=97,no=98,missing=97
						97:leaf=0.0137904
						98:leaf=-0.00593833
				24:[D_TITLEMD5_COEC<0.081999] yes=49,no=50,missing=49
					49:[DOC_AGE<22] yes=99,no=100,missing=100
						99:leaf=-0.0107859
						100:leaf=0.0148874
					50:[WORD_COUNT<1991] yes=101,no=102,missing=102
						101:leaf=0.00772044
						102:leaf=0.0210423
			12:[U_CITY_C<195489] yes=25,no=26,missing=26
				25:[U_CITY_EC<22669.7] yes=51,no=52,missing=52
					51:[C_D_U_TITLEMD5_CITY_COEC<0.100999] yes=103,no=104,missing=103
						103:leaf=0.0109598
						104:leaf=0.00422477
					52:[U_CAT_LEN<40] yes=105,no=106,missing=106
						105:leaf=0.00123659
						106:leaf=0.0616829
				26:[U_KEYWORD_MICRO_MEAN_COEC<0.138999] yes=53,no=54,missing=54
					53:[U_KEYWORD_MICRO_MAX_COEC<0.149999] yes=107,no=108,missing=108
						107:leaf=0.00112686
						108:leaf=0.0149408
					54:[D_TITLEMD5_COEC<0.082999] yes=109,no=110,missing=109
						109:leaf=0.00179726
						110:leaf=0.00952951
		6:[D_TITLEMD5_C<1650.71] yes=13,no=14,missing=13
			13:[U_KW_LEN<5633] yes=27,no=28,missing=28
				27:[TIME_OF_DAY<15] yes=55,no=56,missing=56
					55:[C_D_U_TITLEMD5_CATEGORY_MACRO_MAX_COEC<0.014999] yes=111,no=112,missing=112
						111:leaf=0.0284643
						112:leaf=0.0159896
					56:[U_KEYWORD_MICRO_MAX_COEC<0.134999] yes=113,no=114,missing=113
						113:leaf=0.067211
						114:leaf=0.0303641
				28:[U_CITY_C<485.966] yes=57,no=58,missing=58
					57:[U_CITY_EC<894.208] yes=115,no=116,missing=116
						115:leaf=0.0261387
						116:leaf=0.0540992
					58:[U_GENDER_EC<8.83708e+06] yes=117,no=118,missing=118
						117:leaf=-0.161871
						118:leaf=0.109601
			14:[C_D_U_TITLEMD5_CITY_COEC<0.173999] yes=29,no=30,missing=29
				29:[U_KW_LEN<2072] yes=59,no=60,missing=60
					59:[U_KEYWORD_MEAN_EC<5982.81] yes=119,no=120,missing=120
						119:leaf=0.043893
						120:leaf=0.0122937
					60:[C_D_U_CATEGORY_CATEGORY_MICRO_MEAN_COEC<0.094999] yes=121,no=122,missing=121
						121:leaf=0.0393997
						122:leaf=0.0215231
				30:[U_CATEGORY_MACRO_MAX_COEC<0.031999] yes=61,no=62,missing=62
					61:[U_KW_LEN<5633] yes=123,no=124,missing=124
						123:leaf=0.00691363
						124:leaf=0.0482224
					62:[U_GENDER_C<1.12953e+06] yes=125,no=126,missing=126
						125:leaf=-0.0491439
						126:leaf=-0.00377457
booster[73]:
0:[U_KEYWORD_MAX_C<277.085] yes=1,no=2,missing=2
	1:[U_KEYWORD_MEAN_EC<18065.3] yes=3,no=4,missing=4
		3:[KW_REL<0.002999] yes=7,no=8,missing=8
			7:[D_KEYWORD_MEAN_EC<14783] yes=15,no=16,missing=16
				15:[D_CATEGORY_MACRO_MAX_COEC<0.113999] yes=31,no=32,missing=32
					31:[KW_REL<0.000999] yes=63,no=64,missing=64
						63:leaf=-0.0122254
						64:leaf=0.00445521
					32:[KW_REL<0.000999] yes=65,no=66,missing=66
						65:leaf=0.00394285
						66:leaf=0.0179068
				16:[U_KEYWORD_MACRO_MEAN_COEC<0.098999] yes=33,no=34,missing=34
					33:[C_D_U_TITLEMD5_CATEGORY_MAX_C<0.858999] yes=67,no=68,missing=67
						67:leaf=-0.00870238
						68:leaf=-0.00109601
					34:[D_KEYWORD_MICRO_MAX_COEC<0.239999] yes=69,no=70,missing=70
						69:leaf=0.00825272
						70:leaf=0.0242368
			8:[D_KEYWORD_MEAN_EC<16811.7] yes=17,no=18,missing=18
				17:[D_CATEGORY_MICRO_MAX_COEC<0.105999] yes=35,no=36,missing=36
					35:[D_KEYWORD_MAX_EC<3284.37] yes=71,no=72,missing=72
						71:leaf=0.0301368
						72:leaf=0.00974225
					36:[DOC_AGE<28] yes=73,no=74,missing=74
						73:leaf=0.0364986
						74:leaf=-0.00144898
				18:[WORD_COUNT<2788] yes=37,no=38,missing=38
					37:[KW_REL<0.004999] yes=75,no=76,missing=76
						75:leaf=0.00203227
						76:leaf=0.0125472
					38:[D_CATEGORY_MACRO_MEAN_COEC<0.104999] yes=77,no=78,missing=78
						77:leaf=0.0115242
						78:leaf=0.0256225
		4:[U_CAT_LEN<41] yes=9,no=10,missing=10
			9:[IMAGE_COUNT<0.999999] yes=19,no=20,missing=20
				19:[D_CATEGORY_MEAN_EC<627427] yes=39,no=40,missing=40
					39:[KW_REL<0.000999] yes=79,no=80,missing=80
						79:leaf=-0.0798299
						80:leaf=-0.0129477
					40:[D_TITLEMD5_C<4] yes=81,no=82,missing=81
						81:leaf=-0.0270427
						82:leaf=0.00429817
				20:[DOC_AGE<12] yes=41,no=42,missing=42
					41:[U_KEYWORD_MACRO_MEAN_COEC<0.023999] yes=83,no=84,missing=84
						83:leaf=0.0213179
						84:leaf=0.011299
					42:[D_TITLEMD5_EC<6701.04] yes=85,no=86,missing=86
						85:leaf=-0.00134554
						86:leaf=0.0077145
			10:[U_AGE_EC<5.76684e+06] yes=21,no=22,missing=22
				21:[D_TITLEMD5_COEC<0.035999] yes=43,no=44,missing=44
					43:[DAY_OF_WEEK<5] yes=87,no=88,missing=88
						87:leaf=0.134915
						88:leaf=0.208753
					44:[DAY_OF_WEEK<6] yes=89,no=90,missing=90
						89:leaf=0.102677
						90:leaf=0.123968
				22:[U_KEYWORD_MAX_C<242.996] yes=45,no=46,missing=46
					45:[TIME_OF_DAY<2] yes=91,no=92,missing=92
						91:leaf=-0.0675476
						92:leaf=0.0781082
					46:[U_CITY_C<33204.1] yes=93,no=94,missing=93
						93:leaf=0.005023
						94:leaf=0.0449969
	2:[U_KEYWORD_MEAN_EC<22467.2] yes=5,no=6,missing=6
		5:[C_D_U_TITLEMD5_CATEGORY_MAX_C<3.807] yes=11,no=12,missing=11
			11:[D_KEYWORD_MEAN_EC<36005.9] yes=23,no=24,missing=24
				23:[KW_REL<0.001999] yes=47,no=48,missing=48
					47:[U_KW_LEN<881] yes=95,no=96,missing=96
						95:leaf=0.000552711
						96:leaf=-0.00767976
					48:[D_KEYWORD_MICRO_MEAN_COEC<0.102999] yes=97,no=98,missing=98
						97:leaf=-0.00744359
						98:leaf=0.00335461
				24:[KW_REL<0.004999] yes=49,no=50,missing=50
					49:[U_KW_LEN<937] yes=99,no=100,missing=100
						99:leaf=-0.002386
						100:leaf=-0.0118305
					50:[KW_REL<0.007999] yes=101,no=102,missing=102
						101:leaf=-0.000630704
						102:leaf=0.0162712
			12:[TIME_OF_DAY<7] yes=25,no=26,missing=26
				25:[DOC_AGE<12] yes=51,no=52,missing=52
					51:[WORD_COUNT<352] yes=103,no=104,missing=104
						103:leaf=-0.0150286
						104:leaf=0.00926633
					52:[U_KEYWORD_MICRO_MEAN_COEC<0.140999] yes=105,no=106,missing=106
						105:leaf=0.000444946
						106:leaf=0.00802882
				26:[D_KEYWORD_MEAN_EC<33259.8] yes=53,no=54,missing=54
					53:[KW_REL<0.000999] yes=107,no=108,missing=108
						107:leaf=-0.00322451
						108:leaf=0.00373836
					54:[U_CATEGORY_MAX_C<6093.41] yes=109,no=110,missing=110
						109:leaf=-0.00707718
						110:leaf=-9.07399e-05
		6:[U_KEYWORD_MAX_C<404.283] yes=13,no=14,missing=14
			13:[U_CATEGORY_MAX_C<3295.25] yes=27,no=28,missing=28
				27:[D_CATEGORY_MEAN_EC<765421] yes=55,no=56,missing=56
					55:[D_KEYWORD_MICRO_MEAN_COEC<0.129999] yes=111,no=112,missing=112
						111:leaf=-0.00722625
						112:leaf=0.000817665
					56:[C_D_U_CATEGORY_CATEGORY_MICRO_MAX_COEC<0.075999] yes=113,no=114,missing=113
						113:leaf=0.0141327
						114:leaf=0.0016703
				28:[TIME_OF_DAY<9] yes=57,no=58,missing=58
					57:[D_CATEGORY_MEAN_EC<685107] yes=115,no=116,missing=116
						115:leaf=0.00513985
						116:leaf=0.0122021
					58:[U_KEYWORD_MEAN_EC<26002] yes=117,no=118,missing=118
						117:leaf=0.00232365
						118:leaf=0.00842805
			14:[D_KEYWORD_MICRO_MEAN_COEC<0.169999] yes=29,no=30,missing=29
				29:[U_CITY_COEC<0.123999] yes=59,no=60,missing=59
					59:[U_KEYWORD_MEAN_EC<27580.2] yes=119,no=120,missing=119
						119:leaf=-0.00489422
						120:leaf=0.000533922
					60:[U_KEYWORD_MICRO_MEAN_COEC<0.137999] yes=121,no=122,missing=121
						121:leaf=0.00130955
						122:leaf=-0.00280532
				30:[DOC_AGE<12] yes=61,no=62,missing=62
					61:[C_D_U_TITLEMD5_CATEGORY_MICRO_MAX_COEC<0.232999] yes=123,no=124,missing=124
						123:leaf=-0.00160459
						124:leaf=0.0132774
					62:[DAY_OF_WEEK<3] yes=125,no=126,missing=126
						125:leaf=0.00512817
						126:leaf=-0.00249278
booster[74]:
0:[WORD_COUNT<705] yes=1,no=2,missing=1
	1:[D_CATEGORY_MAX_EC<785995] yes=3,no=4,missing=4
		3:[D_KEYWORD_MICRO_MAX_COEC<0.175999] yes=7,no=8,missing=8
			7:[WORD_COUNT<352] yes=15,no=16,missing=16
				15:[D_CATEGORY_MICRO_MAX_COEC<0.121999] yes=31,no=32,missing=32
					31:[CAT_REL<0.066999] yes=63,no=64,missing=64
						63:leaf=-0.0279405
						64:leaf=-0.00796129
					32:[CAT_REL<0.033999] yes=65,no=66,missing=66
						65:leaf=-0.101625
						66:leaf=-0.0318113
				16:[D_PUBLISHER_COEC<0.099999] yes=33,no=34,missing=34
					33:[DOC_AGE<23] yes=67,no=68,missing=68
						67:leaf=-0.0185805
						68:leaf=0.00494045
					34:[KW_REL<0.002999] yes=69,no=70,missing=70
						69:leaf=-0.00923446
						70:leaf=0.000692818
			8:[D_TITLEMD5_C<14193] yes=17,no=18,missing=18
				17:[D_PUBLISHER_COEC<0.099999] yes=35,no=36,missing=36
					35:[WORD_COUNT<530] yes=71,no=72,missing=72
						71:leaf=-0.021865
						72:leaf=-0.00388181
					36:[D_CATEGORY_MACRO_MEAN_COEC<0.101999] yes=73,no=74,missing=74
						73:leaf=0.00536688
						74:leaf=-0.00387398
				18:[U_KEYWORD_MICRO_MEAN_COEC<0.138999] yes=37,no=38,missing=37
					37:[D_TITLEMD5_COEC<0.240999] yes=75,no=76,missing=76
						75:leaf=-0.0424947
						76:leaf=-0.00326091
					38:[DOC_AGE<22] yes=77,no=78,missing=78
						77:leaf=-0.0232435
						78:leaf=0.00522714
		4:[D_PUBLISHER_C<302717] yes=9,no=10,missing=9
			9:[D_CATEGORY_MAX_EC<3.62619e+06] yes=19,no=20,missing=19
				19:[D_PUBLISHER_COEC<0.143999] yes=39,no=40,missing=39
					39:[D_KEYWORD_MAX_C<695.292] yes=79,no=80,missing=80
						79:leaf=0.00825431
						80:leaf=-0.00342797
					40:[D_KEYWORD_MAX_EC<69174.5] yes=81,no=82,missing=82
						81:leaf=0.00528564
						82:leaf=-0.0193802
				20:[D_TITLEMD5_COEC<0.076999] yes=41,no=42,missing=41
					41:[DOC_AGE<19] yes=83,no=84,missing=84
						83:leaf=-0.0185857
						84:leaf=0.00358164
					42:[CAT_REL<0.001999] yes=85,no=86,missing=86
						85:leaf=-0.00845259
						86:leaf=-0.000274608
			10:[D_CATEGORY_MICRO_MEAN_COEC<0.146999] yes=21,no=22,missing=22
				21:[D_KEYWORD_MEAN_EC<105237] yes=43,no=44,missing=44
					43:[DOC_AGE<25] yes=87,no=88,missing=88
						87:leaf=-0.0084281
						88:leaf=0.00889085
					44:[D_TITLEMD5_EC<3124.5] yes=89,no=90,missing=90
						89:leaf=-0.050515
						90:leaf=-0.201188
				22:[U_KEYWORD_MICRO_MEAN_COEC<0.134999] yes=45,no=46,missing=46
					45:[U_KW_LEN<2765] yes=91,no=92,missing=92
						91:leaf=-0.0626879
						92:leaf=-0.0239973
					46:[CAT_REL<0.001999] yes=93,no=94,missing=94
						93:leaf=-0.0317895
						94:leaf=-0.012147
	2:[D_PUBLISHER_COEC<0.071999] yes=5,no=6,missing=6
		5:[D_PUBLISHER_C<7248.35] yes=11,no=12,missing=12
			11:[D_TITLEMD5_C<11] yes=23,no=24,missing=23
				23:[D_TITLEMD5_COEC<0.104999] yes=47,no=48,missing=48
					47:[D_PUBLISHER_EC<139810] yes=95,no=96,missing=96
						95:leaf=-0.0113051
						96:leaf=0.0494498
					48:[D_KEYWORD_MACRO_MEAN_COEC<0.068999] yes=97,no=98,missing=98
						97:leaf=-0.0857488
						98:leaf=-0.0274882
				24:[D_CATEGORY_MACRO_MEAN_COEC<0.149999] yes=49,no=50,missing=50
					49:[D_KEYWORD_MICRO_MAX_COEC<0.119999] yes=99,no=100,missing=100
						99:leaf=0.0130274
						100:leaf=-0.00379737
					50:[D_KEYWORD_MAX_EC<6472.68] yes=101,no=102,missing=102
						101:leaf=0.0343242
						102:leaf=0.00474049
			12:[D_TITLEMD5_C<4589.51] yes=25,no=26,missing=26
				25:[D_KEYWORD_MACRO_MAX_COEC<0.032999] yes=51,no=52,missing=52
					51:[KW_REL<0.005999] yes=103,no=104,missing=104
						103:leaf=-0.0109113
						104:leaf=0.0134519
					52:[WORD_COUNT<2464] yes=105,no=106,missing=106
						105:leaf=-0.0174467
						106:leaf=-0.0418547
				26:[D_PUBLISHER_C<28810.7] yes=53,no=54,missing=54
					53:[KW_REL<0.004999] yes=107,no=108,missing=108
						107:leaf=-0.0771538
						108:leaf=-0.0331259
					54:[TIME_OF_DAY<13] yes=109,no=110,missing=110
						109:leaf=0.0191855
						110:leaf=-0.0295015
		6:[DOC_AGE<2] yes=13,no=14,missing=14
			13:[D_TITLEMD5_EC<3257.61] yes=27,no=28,missing=27
				27:[KW_REL<0.005999] yes=55,no=56,missing=56
					55:[D_KEYWORD_MICRO_MEAN_COEC<0.131999] yes=111,no=112,missing=111
						111:leaf=-0.00104529
						112:leaf=0.00553782
					56:[U_KW_LEN<393] yes=113,no=114,missing=114
						113:leaf=-0.00460054
						114:leaf=0.0189214
				28:[D_KEYWORD_MACRO_MEAN_COEC<0.093999] yes=57,no=58,missing=58
					57:[U_CAT_LEN<8] yes=115,no=116,missing=116
						115:leaf=0.00209535
						116:leaf=0.0176157
					58:[C_D_U_CATEGORY_CATEGORY_MACRO_MAX_COEC<0.012999] yes=117,no=118,missing=117
						117:leaf=0.010728
						118:leaf=0.00471087
			14:[D_TITLEMD5_COEC<0.076999] yes=29,no=30,missing=30
				29:[U_KEYWORD_MICRO_MEAN_COEC<0.132999] yes=59,no=60,missing=60
					59:[D_TITLEMD5_EC<4539.97] yes=119,no=120,missing=120
						119:leaf=-0.00105545
						120:leaf=0.00786801
					60:[DOC_AGE<22] yes=121,no=122,missing=122
						121:leaf=-0.00985649
						122:leaf=0.00326725
				30:[U_KW_LEN<3169] yes=61,no=62,missing=62
					61:[C_D_U_TITLEMD5_CATEGORY_MAX_C<10.438] yes=123,no=124,missing=124
						123:leaf=-0.00134032
						124:leaf=0.00189338
					62:[WORD_COUNT<2159] yes=125,no=126,missing=126
						125:leaf=0.00311388
						126:leaf=0.0102767
booster[75]:
0:[U_CITY_EC<1.30772e+06] yes=1,no=2,missing=1
	1:[U_CITY_COEC<0.139999] yes=3,no=4,missing=3
		3:[KW_REL<0.002999] yes=7,no=8,missing=7
			7:[D_KEYWORD_MEAN_EC<38036.6] yes=15,no=16,missing=16
				15:[KW_REL<0.000999] yes=31,no=32,missing=32
					31:[U_KW_LEN<949] yes=63,no=64,missing=64
						63:leaf=-0.00255063
						64:leaf=-0.0103812
					32:[D_KEYWORD_MEAN_EC<12478.1] yes=65,no=66,missing=66
						65:leaf=0.0077312
						66:leaf=-0.000219211
				16:[U_KW_LEN<779] yes=33,no=34,missing=33
					33:[D_CATEGORY_MEAN_EC<766402] yes=67,no=68,missing=68
						67:leaf=0.00483083
						68:leaf=-0.00217911
					34:[KW_REL<0.000999] yes=69,no=70,missing=70
						69:leaf=-0.0427382
						70:leaf=-0.00871542
			8:[D_KEYWORD_MEAN_EC<60329.1] yes=17,no=18,missing=17
				17:[U_KW_LEN<333] yes=35,no=36,missing=36
					35:[U_KW_LEN<98] yes=71,no=72,missing=72
						71:leaf=-0.0170757
						72:leaf=-0.00505915
					36:[DOC_AGE<43] yes=73,no=74,missing=74
						73:leaf=0.004605
						74:leaf=-0.00978816
				18:[D_TITLEMD5_COEC<0.104999] yes=37,no=38,missing=37
					37:[KW_REL<0.007999] yes=75,no=76,missing=76
						75:leaf=-0.00644247
						76:leaf=0.013339
					38:[KW_REL<0.004999] yes=77,no=78,missing=78
						77:leaf=-0.00195269
						78:leaf=0.00468132
		4:[U_CITY_COEC<0.159999] yes=9,no=10,missing=10
			9:[U_CAT_LEN<39] yes=19,no=20,missing=20
				19:[TIME_OF_DAY<9] yes=39,no=40,missing=40
					39:[U_KEYWORD_MICRO_MEAN_COEC<0.139999] yes=79,no=80,missing=79
						79:leaf=0.0049127
						80:leaf=0.0108632
					40:[U_CITY_EC<15500.7] yes=81,no=82,missing=82
						81:leaf=0.00718318
						82:leaf=0.000119697
				20:[U_KW_LEN<5223] yes=41,no=42,missing=42
					41:[U_CITY_C<99787.1] yes=83,no=84,missing=84
						83:leaf=0.0248396
						84:leaf=-0.158351
					42:[U_GENDER_EC<8.59451e+06] yes=85,no=86,missing=86
						85:leaf=0.00159599
						86:leaf=0.106759
			10:[C_D_U_TITLEMD5_CITY_COEC<0.160999] yes=21,no=22,missing=21
				21:[D_TITLEMD5_COEC<0.085999] yes=43,no=44,missing=44
					43:[U_KEYWORD_MICRO_MAX_COEC<0.142999] yes=87,no=88,missing=87
						87:leaf=0.0401965
						88:leaf=0.0218069
					44:[U_CITY_COEC<0.499999] yes=89,no=90,missing=90
						89:leaf=0.0170752
						90:leaf=0.0535839
				22:[U_KW_LEN<4554] yes=45,no=46,missing=46
					45:[U_AGE_C<72884.5] yes=91,no=92,missing=92
						91:leaf=-0.110083
						92:leaf=0.00161841
					46:[DOC_AGE<23] yes=93,no=94,missing=94
						93:leaf=0.0361245
						94:leaf=-0.0304617
	2:[TIME_OF_DAY<12] yes=5,no=6,missing=6
		5:[C_D_U_TITLEMD5_CATEGORY_MAX_C<2.246] yes=11,no=12,missing=11
			11:[DOC_AGE<0.999999] yes=23,no=24,missing=24
				23:[C_D_U_TITLEMD5_CATEGORY_MICRO_MAX_COEC<0.132999] yes=47,no=48,missing=47
					47:[D_TITLEMD5_EC<2484.19] yes=95,no=96,missing=95
						95:leaf=0.00819806
						96:leaf=0.0211238
					48:[C_D_U_TITLEMD5_CATEGORY_MAX_EC<1.709] yes=97,no=98,missing=98
						97:leaf=-0.00265169
						98:leaf=0.00668879
				24:[D_CATEGORY_MICRO_MEAN_COEC<0.144999] yes=49,no=50,missing=50
					49:[C_D_U_CATEGORY_CATEGORY_MACRO_MEAN_COEC<0.014999] yes=99,no=100,missing=100
						99:leaf=0.00270501
						100:leaf=-0.00251641
					50:[D_CATEGORY_MEAN_C<497057] yes=101,no=102,missing=101
						101:leaf=0.00701548
						102:leaf=0.00140697
			12:[U_CITY_COEC<0.134999] yes=25,no=26,missing=26
				25:[C_D_U_TITLEMD5_CATEGORY_MICRO_MAX_COEC<0.382999] yes=51,no=52,missing=52
					51:[DAY_OF_WEEK<5] yes=103,no=104,missing=104
						103:leaf=0.00552161
						104:leaf=0.000102847
					52:[U_CAT_LEN<11] yes=105,no=106,missing=106
						105:leaf=0.0103054
						106:leaf=0.0214912
				26:[U_CITY_C<436225] yes=53,no=54,missing=54
					53:[U_KW_LEN<40] yes=107,no=108,missing=108
						107:leaf=-0.0143503
						108:leaf=0.0148895
					54:[U_KEYWORD_MICRO_MEAN_COEC<0.138999] yes=109,no=110,missing=110
						109:leaf=0.00303129
						110:leaf=0.00993248
		6:[U_KEYWORD_MEAN_EC<26404.3] yes=13,no=14,missing=14
			13:[CAT_REL<0.107999] yes=27,no=28,missing=28
				27:[U_KEYWORD_MAX_C<318.684] yes=55,no=56,missing=56
					55:[U_KEYWORD_MEAN_EC<20855.4] yes=111,no=112,missing=112
						111:leaf=-1.7138e-05
						112:leaf=0.00863762
					56:[U_KEYWORD_MACRO_MEAN_COEC<0.034999] yes=113,no=114,missing=114
						113:leaf=-0.00396056
						114:leaf=0.00262359
				28:[DOC_AGE<12] yes=57,no=58,missing=58
					57:[U_KW_LEN<427] yes=115,no=116,missing=116
						115:leaf=-0.000992386
						116:leaf=0.0104425
					58:[C_D_U_CATEGORY_CATEGORY_MEAN_EC<202.804] yes=117,no=118,missing=117
						117:leaf=0.0207992
						118:leaf=-0.00325887
			14:[U_KEYWORD_MAX_C<510.626] yes=29,no=30,missing=29
				29:[U_KEYWORD_MEAN_EC<29562.2] yes=59,no=60,missing=59
					59:[U_CATEGORY_MAX_C<5229.44] yes=119,no=120,missing=120
						119:leaf=0.00102389
						120:leaf=0.00528495
					60:[DAY_OF_WEEK<3] yes=121,no=122,missing=122
						121:leaf=0.0150389
						122:leaf=0.00807742
				30:[DAY_OF_WEEK<3] yes=61,no=62,missing=62
					61:[U_KEYWORD_MACRO_MEAN_COEC<0.030999] yes=123,no=124,missing=124
						123:leaf=-0.0175325
						124:leaf=0.0037135
					62:[U_KEYWORD_MICRO_MAX_COEC<0.174999] yes=125,no=126,missing=126
						125:leaf=-0.00794791
						126:leaf=0.0328639
booster[76]:
0:[D_KEYWORD_MICRO_MAX_COEC<0.154999] yes=1,no=2,missing=1
	1:[DAY_OF_WEEK<4] yes=3,no=4,missing=4
		3:[DAY_OF_WEEK<2] yes=7,no=8,missing=8
			7:[D_KEYWORD_MICRO_MEAN_COEC<0.110999] yes=15,no=16,missing=16
				15:[D_KEYWORD_MAX_EC<5399.79] yes=31,no=32,missing=32
					31:[D_KEYWORD_MICRO_MEAN_COEC<0.102999] yes=63,no=64,missing=64
						63:leaf=-0.0106269
						64:leaf=0.00602693
					32:[KW_REL<0.003999] yes=65,no=66,missing=66
						65:leaf=-0.0213741
						66:leaf=-0.00488971
				16:[KW_REL<0.001999] yes=33,no=34,missing=34
					33:[D_KEYWORD_MEAN_EC<40295.2] yes=67,no=68,missing=67
						67:leaf=-0.000731776
						68:leaf=-0.0233455
					34:[WORD_COUNT<2940] yes=69,no=70,missing=70
						69:leaf=0.000430015
						70:leaf=0.0188907
			8:[WORD_COUNT<584] yes=17,no=18,missing=18
				17:[D_KEYWORD_MACRO_MAX_COEC<0.040999] yes=35,no=36,missing=35
					35:[D_CATEGORY_MACRO_MAX_COEC<0.137999] yes=71,no=72,missing=71
						71:leaf=-0.0118121
						72:leaf=0.00721856
					36:[KW_REL<0.005999] yes=73,no=74,missing=74
						73:leaf=-0.0523325
						74:leaf=-0.00999056
				18:[D_PUBLISHER_COEC<0.103999] yes=37,no=38,missing=37
					37:[D_CATEGORY_MACRO_MAX_COEC<0.140999] yes=75,no=76,missing=75
						75:leaf=-3.61806e-06
						76:leaf=0.0104455
					38:[D_CATEGORY_MEAN_C<3188.85] yes=77,no=78,missing=77
						77:leaf=0.025232
						78:leaf=0.00645302
		4:[D_CATEGORY_MACRO_MAX_COEC<0.127999] yes=9,no=10,missing=10
			9:[KW_REL<0.005999] yes=19,no=20,missing=20
				19:[C_D_U_CATEGORY_CATEGORY_MICRO_MEAN_COEC<0.115999] yes=39,no=40,missing=39
					39:[U_KEYWORD_MACRO_MEAN_COEC<0.029999] yes=79,no=80,missing=80
						79:leaf=-0.0102248
						80:leaf=-0.00257163
					40:[D_KEYWORD_MEAN_C<6851.12] yes=81,no=82,missing=82
						81:leaf=-0.0116143
						82:leaf=-0.0253951
				20:[DOC_AGE<11] yes=41,no=42,missing=42
					41:[KW_REL<0.007999] yes=83,no=84,missing=84
						83:leaf=0.00667794
						84:leaf=0.0223431
					42:[D_CATEGORY_MACRO_MAX_COEC<0.113999] yes=85,no=86,missing=86
						85:leaf=0.00414848
						86:leaf=-0.0119086
			10:[D_CATEGORY_MEAN_C<374506] yes=21,no=22,missing=22
				21:[WORD_COUNT<2115] yes=43,no=44,missing=44
					43:[D_TITLEMD5_C<31.876] yes=87,no=88,missing=87
						87:leaf=-0.0140544
						88:leaf=0.00621329
					44:[D_KEYWORD_MACRO_MAX_COEC<0.029999] yes=89,no=90,missing=90
						89:leaf=0.0102725
						90:leaf=0.0298312
				22:[D_TITLEMD5_COEC<0.130999] yes=45,no=46,missing=45
					45:[DOC_AGE<18] yes=91,no=92,missing=91
						91:leaf=-0.00862467
						92:leaf=0.00743596
					46:[D_TITLEMD5_C<3.995] yes=93,no=94,missing=94
						93:leaf=-0.0685134
						94:leaf=0.00975849
	2:[D_CATEGORY_MAX_EC<3.10337e+06] yes=5,no=6,missing=5
		5:[KW_REL<0.000999] yes=11,no=12,missing=12
			11:[U_KEYWORD_MACRO_MEAN_COEC<0.039999] yes=23,no=24,missing=24
				23:[D_KEYWORD_MEAN_C<3757.57] yes=47,no=48,missing=48
					47:[D_KEYWORD_MEAN_EC<13731.5] yes=95,no=96,missing=96
						95:leaf=8.12485e-05
						96:leaf=-0.00868787
					48:[D_KEYWORD_MACRO_MAX_COEC<0.034999] yes=97,no=98,missing=98
						97:leaf=-0.0340515
						98:leaf=-0.0182068
				24:[D_CATEGORY_MACRO_MEAN_COEC<0.091999] yes=49,no=50,missing=50
					49:[D_CATEGORY_MACRO_MAX_COEC<0.050999] yes=99,no=100,missing=100
						99:leaf=-0.0255089
						100:leaf=-0.00772101
					50:[D_CATEGORY_MEAN_EC<1.37183e+06] yes=101,no=102,missing=102
						101:leaf=0.00538201
						102:leaf=-0.00226641
			12:[D_KEYWORD_MEAN_EC<31465.8] yes=25,no=26,missing=26
				25:[U_CATEGORY_MACRO_MAX_COEC<0.020999] yes=51,no=52,missing=51
					51:[D_CATEGORY_MAX_C<264115] yes=103,no=104,missing=104
						103:leaf=0.00590109
						104:leaf=0.015159
					52:[CAT_REL<0.130999] yes=105,no=106,missing=106
						105:leaf=0.000379701
						106:leaf=0.00850999
				26:[D_PUBLISHER_C<82614] yes=53,no=54,missing=54
					53:[KW_REL<0.002999] yes=107,no=108,missing=108
						107:leaf=-0.00439435
						108:leaf=0.00105951
					54:[KW_REL<0.002999] yes=109,no=110,missing=110
						109:leaf=0.00115555
						110:leaf=0.00623861
		6:[CAT_REL<0.006999] yes=13,no=14,missing=14
			13:[D_KEYWORD_MICRO_MEAN_COEC<0.138999] yes=27,no=28,missing=28
				27:[WORD_COUNT<2250] yes=55,no=56,missing=56
					55:[D_PUBLISHER_EC<363735] yes=111,no=112,missing=111
						111:leaf=0.00463732
						112:leaf=-0.0056203
					56:[DAY_OF_WEEK<4] yes=113,no=114,missing=114
						113:leaf=0.0159934
						114:leaf=0.000632434
				28:[C_D_U_TITLEMD5_CATEGORY_MAX_C<14.164] yes=57,no=58,missing=58
					57:[D_CATEGORY_MAX_EC<4.44913e+06] yes=115,no=116,missing=116
						115:leaf=-0.0119267
						116:leaf=-0.0256945
					58:[DOC_AGE<4] yes=117,no=118,missing=118
						117:leaf=0.00550837
						118:leaf=-0.00315826
			14:[U_CATEGORY_MACRO_MAX_COEC<0.042999] yes=29,no=30,missing=29
				29:[D_TITLEMD5_COEC<0.240999] yes=59,no=60,missing=59
					59:[D_KEYWORD_MEAN_EC<69951] yes=119,no=120,missing=120
						119:leaf=0.0032137
						120:leaf=-0.0039896
					60:[DOC_AGE<10] yes=121,no=122,missing=122
						121:leaf=0.016788
						122:leaf=0.00564853
				30:[U_CATEGORY_MICRO_MAX_COEC<0.127999] yes=61,no=62,missing=62
					61:[U_CATEGORY_MAX_C<22657.7] yes=123,no=124,missing=124
						123:leaf=-0.0103528
						124:leaf=-0.0254674
					62:[U_KW_LEN<152] yes=125,no=126,missing=126
						125:leaf=-0.0130752
						126:leaf=-0.00133629
booster[77]:
0:[KW_REL<0.003999] yes=1,no=2,missing=1
	1:[D_KEYWORD_MEAN_EC<57162.5] yes=3,no=4,missing=4
		3:[KW_REL<0.000999] yes=7,no=8,missing=8
			7:[U_KW_LEN<879] yes=15,no=16,missing=16
				15:[DAY_OF_WEEK<6] yes=31,no=32,missing=32
					31:[D_CATEGORY_MAX_EC<610969] yes=63,no=64,missing=64
						63:leaf=0.00306829
						64:leaf=-0.00415256
					32:[U_KEYWORD_MACRO_MEAN_COEC<0.117999] yes=65,no=66,missing=66
						65:leaf=-0.0029226
						66:leaf=0.00955452
				16:[D_KEYWORD_MEAN_EC<14733.4] yes=33,no=34,missing=34
					33:[D_CATEGORY_MAX_C<72477.8] yes=67,no=68,missing=68
						67:leaf=-0.0101415
						68:leaf=0.00193113
					34:[U_KEYWORD_MEAN_EC<18343.2] yes=69,no=70,missing=70
						69:leaf=-0.0305289
						70:leaf=-0.0127662
			8:[D_KEYWORD_MEAN_EC<12501.6] yes=17,no=18,missing=18
				17:[DOC_AGE<12] yes=35,no=36,missing=36
					35:[U_CATEGORY_MACRO_MAX_COEC<0.016999] yes=71,no=72,missing=72
						71:leaf=0.0164146
						72:leaf=0.00775449
					36:[D_KEYWORD_MACRO_MEAN_COEC<0.097999] yes=73,no=74,missing=74
						73:leaf=-0.00147259
						74:leaf=0.00688678
				18:[D_KEYWORD_MACRO_MEAN_COEC<0.099999] yes=37,no=38,missing=38
					37:[U_KEYWORD_MEAN_EC<20200.8] yes=75,no=76,missing=76
						75:leaf=-0.0057077
						76:leaf=0.000321371
					38:[D_KEYWORD_MACRO_MAX_COEC<0.064999] yes=77,no=78,missing=78
						77:leaf=0.00160636
						78:leaf=0.0121143
		4:[U_KW_LEN<879] yes=9,no=10,missing=10
			9:[WORD_COUNT<3766] yes=19,no=20,missing=20
				19:[WORD_COUNT<2292] yes=39,no=40,missing=40
					39:[D_CATEGORY_MAX_C<61955.5] yes=79,no=80,missing=80
						79:leaf=0.00933855
						80:leaf=-0.00133636
					40:[WORD_COUNT<2464] yes=81,no=82,missing=82
						81:leaf=0.0236675
						82:leaf=0.00102147
				20:[D_CATEGORY_MAX_EC<3.3168e+06] yes=41,no=42,missing=42
					41:[D_PUBLISHER_C<5938.88] yes=83,no=84,missing=83
						83:leaf=-0.00668918
						84:leaf=-0.0413477
					42:[D_KEYWORD_MAX_EC<50504.5] yes=85,no=86,missing=85
						85:leaf=-0.00970601
						86:leaf=0.0263135
			10:[KW_REL<0.001999] yes=21,no=22,missing=22
				21:[D_KEYWORD_MACRO_MAX_COEC<0.041999] yes=43,no=44,missing=44
					43:[D_CATEGORY_MEAN_C<65488.3] yes=87,no=88,missing=87
						87:leaf=-0.00803252
						88:leaf=-0.0343471
					44:[D_CATEGORY_MICRO_MEAN_COEC<0.096999] yes=89,no=90,missing=90
						89:leaf=0.0317088
						90:leaf=-0.012683
				22:[D_KEYWORD_MACRO_MAX_COEC<0.054999] yes=45,no=46,missing=45
					45:[D_CATEGORY_MAX_EC<3.53012e+06] yes=91,no=92,missing=91
						91:leaf=-0.00494013
						92:leaf=-0.0141793
					46:[WORD_COUNT<352] yes=93,no=94,missing=94
						93:leaf=-0.0480105
						94:leaf=0.0107918
	2:[U_KW_LEN<1556] yes=5,no=6,missing=6
		5:[D_KEYWORD_MAX_C<7464] yes=11,no=12,missing=11
			11:[DOC_AGE<46] yes=23,no=24,missing=24
				23:[U_KW_LEN<155] yes=47,no=48,missing=48
					47:[D_KEYWORD_MICRO_MEAN_COEC<0.150999] yes=95,no=96,missing=96
						95:leaf=-0.014085
						96:leaf=-0.00376508
					48:[D_TITLEMD5_COEC<0.140999] yes=97,no=98,missing=98
						97:leaf=-8.82248e-05
						98:leaf=0.00641516
				24:[C_D_U_TITLEMD5_CATEGORY_MACRO_MAX_COEC<0.035999] yes=49,no=50,missing=49
					49:[CAT_REL<0.013999] yes=99,no=100,missing=100
						99:leaf=0.00902395
						100:leaf=-0.0121349
					50:[KW_REL<0.005999] yes=101,no=102,missing=102
						101:leaf=-0.0162457
						102:leaf=-0.0439722
			12:[D_KEYWORD_MICRO_MAX_COEC<0.177999] yes=25,no=26,missing=26
				25:[CAT_REL<0.113999] yes=51,no=52,missing=52
					51:[D_KEYWORD_MACRO_MAX_COEC<0.044999] yes=103,no=104,missing=104
						103:leaf=-0.0162406
						104:leaf=-0.0311528
					52:[DOC_AGE<11] yes=105,no=106,missing=106
						105:leaf=0.0022846
						106:leaf=-0.0173796
				26:[D_KEYWORD_MEAN_EC<105426] yes=53,no=54,missing=54
					53:[D_PUBLISHER_COEC<0.167999] yes=107,no=108,missing=108
						107:leaf=-0.00571833
						108:leaf=0.00567413
					54:[D_CATEGORY_MAX_C<265287] yes=109,no=110,missing=110
						109:leaf=-0.00345986
						110:leaf=-0.0178675
		6:[KW_REL<0.006999] yes=13,no=14,missing=14
			13:[D_KEYWORD_MEAN_EC<98208.3] yes=27,no=28,missing=27
				27:[CAT_REL<0.001999] yes=55,no=56,missing=56
					55:[D_KEYWORD_MEAN_C<8515.84] yes=111,no=112,missing=111
						111:leaf=0.0206702
						112:leaf=0.00798637
					56:[D_KEYWORD_MICRO_MEAN_COEC<0.129999] yes=113,no=114,missing=114
						113:leaf=0.00142642
						114:leaf=0.00973729
				28:[WORD_COUNT<3243] yes=57,no=58,missing=58
					57:[D_KEYWORD_MAX_C<11285.8] yes=115,no=116,missing=116
						115:leaf=-0.00616969
						116:leaf=0.00527824
					58:[D_CATEGORY_MAX_C<87535.3] yes=117,no=118,missing=117
						117:leaf=-0.0048815
						118:leaf=0.0252659
			14:[D_KEYWORD_MACRO_MAX_COEC<0.078999] yes=29,no=30,missing=30
				29:[KW_REL<0.007999] yes=59,no=60,missing=60
					59:[U_KW_LEN<3354] yes=119,no=120,missing=120
						119:leaf=0.0147292
						120:leaf=0.0307916
					60:[KW_REL<0.008999] yes=121,no=122,missing=122
						121:leaf=0.0284308
						122:leaf=0.0432952
				30:[DOC_AGE<14] yes=61,no=62,missing=62
					61:[U_KEYWORD_MAX_EC<2032.43] yes=123,no=124,missing=124
						123:leaf=0.0376204
						124:leaf=-0.00183978
					62:[DAY_OF_WEEK<5] yes=125,no=126,missing=126
						125:leaf=-0.074752
						126:leaf=-0.01822
booster[78]:
0:[U_KW_LEN<6942] yes=1,no=2,missing=1
	1:[U_KEYWORD_MICRO_MAX_COEC<0.151999] yes=3,no=4,missing=3
		3:[U_KEYWORD_MEAN_C<1562.03] yes=7,no=8,missing=8
			7:[D_CATEGORY_MEAN_EC<1.21138e+06] yes=15,no=16,missing=15
				15:[C_D_U_CATEGORY_CATEGORY_MICRO_MEAN_COEC<0.132999] yes=31,no=32,missing=31
					31:[U_KEYWORD_MACRO_MEAN_COEC<0.039999] yes=63,no=64,missing=64
						63:leaf=-0.00782411
						64:leaf=0.00474117
					32:[CAT_REL<0.084999] yes=65,no=66,missing=66
						65:leaf=0.00109696
						66:leaf=0.0101669
				16:[U_KEYWORD_MACRO_MEAN_COEC<0.041999] yes=33,no=34,missing=34
					33:[U_KEYWORD_MEAN_C<1196.49] yes=67,no=68,missing=68
						67:leaf=-0.026388
						68:leaf=-0.0132468
					34:[D_TITLEMD5_COEC<0.187999] yes=69,no=70,missing=69
						69:leaf=-0.0052694
						70:leaf=0.00597876
			8:[U_KEYWORD_MAX_C<312.163] yes=17,no=18,missing=18
				17:[WORD_COUNT<2250] yes=35,no=36,missing=36
					35:[U_CATEGORY_MAX_EC<11705.1] yes=71,no=72,missing=72
						71:leaf=-0.0035479
						72:leaf=0.00310585
					36:[D_CATEGORY_MACRO_MAX_COEC<0.126999] yes=73,no=74,missing=74
						73:leaf=0.00501851
						74:leaf=0.0134969
				18:[U_KEYWORD_MEAN_EC<24220.1] yes=37,no=38,missing=38
					37:[U_CATEGORY_MAX_EC<34078.5] yes=75,no=76,missing=76
						75:leaf=-0.00494975
						76:leaf=-0.000503323
					38:[U_KEYWORD_MAX_C<446.065] yes=77,no=78,missing=78
						77:leaf=0.00383709
						78:leaf=-0.000837276
		4:[U_KW_LEN<478] yes=9,no=10,missing=10
			9:[CAT_REL<0.004999] yes=19,no=20,missing=20
				19:[U_KEYWORD_MICRO_MAX_COEC<0.222999] yes=39,no=40,missing=40
					39:[U_KW_LEN<153] yes=79,no=80,missing=80
						79:leaf=0.00351074
						80:leaf=0.0111558
					40:[D_TITLEMD5_COEC<0.125999] yes=81,no=82,missing=82
						81:leaf=0.0277254
						82:leaf=0.0129184
				20:[U_KW_LEN<153] yes=41,no=42,missing=42
					41:[U_KEYWORD_MACRO_MEAN_COEC<0.051999] yes=83,no=84,missing=84
						83:leaf=-0.0410226
						84:leaf=-0.00500729
					42:[CAT_REL<0.066999] yes=85,no=86,missing=86
						85:leaf=-0.00129389
						86:leaf=0.0082171
			10:[U_KEYWORD_MEAN_C<814.699] yes=21,no=22,missing=22
				21:[U_AGE_C<78367.5] yes=43,no=44,missing=44
					43:[C_D_U_TITLEMD5_CITY_COEC<0.130999] yes=87,no=88,missing=87
						87:leaf=-0.31081
						88:leaf=-0.540252
					44:[D_TITLEMD5_C<91132.2] yes=89,no=90,missing=90
						89:leaf=0.0337518
						90:leaf=-0.168654
				22:[U_CATEGORY_MACRO_MAX_COEC<0.008999] yes=45,no=46,missing=46
					45:[D_KEYWORD_MICRO_MEAN_COEC<0.092999] yes=91,no=92,missing=92
						91:leaf=-0.251306
						92:leaf=0.119617
					46:[U_KW_LEN<4774] yes=93,no=94,missing=94
						93:leaf=0.0132718
						94:leaf=-0.0871925
	2:[U_CAT_LEN<43] yes=5,no=6,missing=6
		5:[CAT_REL<0.040999] yes=11,no=12,missing=12
			11:[D_CATEGORY_MACRO_MEAN_COEC<0.135999] yes=23,no=24,missing=24
				23:[U_AGE_EC<5.40423e+06] yes=47,no=48,missing=48
					47:[U_CATEGORY_MACRO_MAX_COEC<0.012999] yes=95,no=96,missing=96
						95:leaf=0.10026
						96:leaf=0.0116916
					48:[U_CITY_COEC<0.139999] yes=97,no=98,missing=98
						97:leaf=-0.000337138
						98:leaf=0.0200494
				24:[U_CATEGORY_MAX_C<601.092] yes=49,no=50,missing=50
					49:[U_CITY_EC<3.26575e+06] yes=99,no=100,missing=100
						99:leaf=-0.00551555
						100:leaf=0.0292034
					50:[U_CITY_C<108.873] yes=101,no=102,missing=102
						101:leaf=-0.0448279
						102:leaf=0.0247095
			12:[D_CATEGORY_MICRO_MAX_COEC<0.104999] yes=25,no=26,missing=25
				25:[U_KEYWORD_MEAN_C<814.699] yes=51,no=52,missing=52
					51:[D_KEYWORD_MEAN_EC<41709.7] yes=103,no=104,missing=104
						103:leaf=-0.580071
						104:leaf=-0.178912
					52:[C_D_U_CATEGORY_CATEGORY_MICRO_MAX_COEC<0.071999] yes=105,no=106,missing=105
						105:leaf=-0.00245117
						106:leaf=0.0253689
				26:[C_D_U_CATEGORY_CATEGORY_MAX_C<698.799] yes=53,no=54,missing=53
					53:[U_CATEGORY_MICRO_MAX_COEC<0.124999] yes=107,no=108,missing=107
						107:leaf=0.049857
						108:leaf=0.0349901
					54:[U_KEYWORD_MEAN_EC<16757.9] yes=109,no=110,missing=110
						109:leaf=0.101703
						110:leaf=0.0543131
		6:[U_CATEGORY_MAX_EC<2634.17] yes=13,no=14,missing=14
			13:[U_AGE_C<997692] yes=27,no=28,missing=27
				27:[U_CITY_COEC<0.123999] yes=55,no=56,missing=56
					55:[U_CATEGORY_MICRO_MAX_COEC<0.123999] yes=111,no=112,missing=112
						111:leaf=0.0905817
						112:leaf=-0.043381
					56:[U_CAT_LEN<45] yes=113,no=114,missing=114
						113:leaf=0.0530239
						114:leaf=0.106847
				28:[U_KEYWORD_MEAN_C<2578.92] yes=57,no=58,missing=58
					57:[C_D_U_KEYWORD_GENDER_MICRO_MEAN_COEC<0.105999] yes=115,no=116,missing=116
						115:leaf=-0.385515
						116:leaf=-0.036925
					58:[C_D_U_TITLEMD5_CITY_EC<7.96] yes=117,no=118,missing=117
						117:leaf=-0.00973383
						118:leaf=0.0801868
			14:[U_CITY_C<27347.1] yes=29,no=30,missing=30
				29:[TIME_OF_DAY<8] yes=59,no=60,missing=60
					59:[D_PUBLISHER_COEC<0.122999] yes=119,no=120,missing=120
						119:leaf=-0.0883972
						120:leaf=-0.262828
					60:[U_KEYWORD_MAX_EC<2330.06] yes=121,no=122,missing=122
						121:leaf=0.0168153
						122:leaf=-0.114817
				30:[U_KEYWORD_MEAN_EC<16757.9] yes=61,no=62,missing=62
					61:[U_AGE_C<962070] yes=123,no=124,missing=123
						123:leaf=-0.0094835
						124:leaf=-0.276617
					62:[U_AGE_C<939001] yes=125,no=126,missing=125
						125:leaf=0.0732658
						126:leaf=0.00210645
booster[79]:
0:[U_CITY_COEC<0.135999] yes=1,no=2,missing=1
	1:[DAY_OF_WEEK<4] yes=3,no=4,missing=4
		3:[DAY_OF_WEEK<2] yes=7,no=8,missing=8
			7:[D_TITLEMD5_COEC<0.079999] yes=15,no=16,missing=15
				15:[DOC_AGE<114] yes=31,no=32,missing=32
					31:[D_KEYWORD_MICRO_MEAN_COEC<0.126999] yes=63,no=64,missing=64
						63:leaf=-0.0133465
						64:leaf=-0.00539447
					32:[D_TITLEMD5_COEC<0.035999] yes=65,no=66,missing=66
						65:leaf=0.0458092
						66:leaf=0.0210542
				16:[U_KEYWORD_MICRO_MEAN_COEC<0.133999] yes=33,no=34,missing=33
					33:[U_KEYWORD_MICRO_MAX_COEC<0.137999] yes=67,no=68,missing=68
						67:leaf=-0.0188998
						68:leaf=-0.00437995
					34:[DAY_OF_WEEK<0.999999] yes=69,no=70,missing=70
						69:leaf=-0.00166655
						70:leaf=0.00343797
			8:[DOC_AGE<12] yes=17,no=18,missing=18
				17:[D_PUBLISHER_COEC<0.103999] yes=35,no=36,missing=36
					35:[CAT_REL<0.104999] yes=71,no=72,missing=72
						71:leaf=3.25587e-05
						72:leaf=0.00836367
					36:[WORD_COUNT<1142] yes=73,no=74,missing=74
						73:leaf=0.00275587
						74:leaf=0.00863093
				18:[DOC_AGE<18] yes=37,no=38,missing=38
					37:[D_CATEGORY_MEAN_EC<73303.6] yes=75,no=76,missing=75
						75:leaf=0.00516873
						76:leaf=-0.00848603
					38:[U_KEYWORD_MICRO_MEAN_COEC<0.122999] yes=77,no=78,missing=77
						77:leaf=-0.00842535
						78:leaf=0.00366265
		4:[U_KEYWORD_MAX_EC<2573.53] yes=9,no=10,missing=9
			9:[D_KEYWORD_MICRO_MAX_COEC<0.156999] yes=19,no=20,missing=19
				19:[D_CATEGORY_MICRO_MEAN_COEC<0.126999] yes=39,no=40,missing=40
					39:[CAT_REL<0.111999] yes=79,no=80,missing=80
						79:leaf=-0.00813394
						80:leaf=0.00277147
					40:[WORD_COUNT<2115] yes=81,no=82,missing=81
						81:leaf=-0.00124598
						82:leaf=0.0113898
				20:[U_KEYWORD_MICRO_MEAN_COEC<0.141999] yes=41,no=42,missing=41
					41:[WORD_COUNT<2292] yes=83,no=84,missing=84
						83:leaf=-0.000435899
						84:leaf=0.0056674
					42:[TIME_OF_DAY<8] yes=85,no=86,missing=86
						85:leaf=0.0141979
						86:leaf=0.00443439
			10:[U_KEYWORD_MICRO_MAX_COEC<0.150999] yes=21,no=22,missing=22
				21:[U_KEYWORD_MEAN_EC<26687] yes=43,no=44,missing=44
					43:[U_KEYWORD_MACRO_MEAN_COEC<0.032999] yes=87,no=88,missing=88
						87:leaf=-0.0101873
						88:leaf=-0.00413487
					44:[U_KEYWORD_MAX_EC<3910.07] yes=89,no=90,missing=90
						89:leaf=0.00242489
						90:leaf=-0.0145073
				22:[U_CITY_C<538925] yes=45,no=46,missing=45
					45:[U_GENDER_COEC<0.132999] yes=91,no=92,missing=92
						91:leaf=0.0181352
						92:leaf=0.00591959
					46:[U_KEYWORD_MACRO_MEAN_COEC<0.033999] yes=93,no=94,missing=94
						93:leaf=-0.0202928
						94:leaf=0.000294883
	2:[U_CITY_COEC<0.159999] yes=5,no=6,missing=6
		5:[D_CATEGORY_MICRO_MEAN_COEC<0.120999] yes=11,no=12,missing=12
			11:[C_D_U_CATEGORY_CATEGORY_MICRO_MEAN_COEC<0.114999] yes=23,no=24,missing=23
				23:[DOC_AGE<23] yes=47,no=48,missing=48
					47:[KW_REL<0.001999] yes=95,no=96,missing=96
						95:leaf=-0.00313441
						96:leaf=0.00421332
					48:[CAT_REL<0.004999] yes=97,no=98,missing=98
						97:leaf=0.0164302
						98:leaf=0.00315006
				24:[D_CATEGORY_MEAN_EC<206296] yes=49,no=50,missing=50
					49:[CAT_REL<0.117999] yes=99,no=100,missing=100
						99:leaf=0.0024042
						100:leaf=0.0160207
					50:[KW_REL<0.004999] yes=101,no=102,missing=102
						101:leaf=-0.00874105
						102:leaf=0.00262235
			12:[WORD_COUNT<1507] yes=25,no=26,missing=26
				25:[D_TITLEMD5_COEC<0.082999] yes=51,no=52,missing=51
					51:[DOC_AGE<22] yes=103,no=104,missing=104
						103:leaf=-0.00544022
						104:leaf=0.00817934
					52:[U_KEYWORD_MICRO_MEAN_COEC<0.142999] yes=105,no=106,missing=105
						105:leaf=0.00225587
						106:leaf=0.00949019
				26:[U_KEYWORD_MAX_EC<2573.53] yes=53,no=54,missing=53
					53:[CAT_REL<0.022999] yes=107,no=108,missing=108
						107:leaf=0.00834585
						108:leaf=0.0142685
					54:[D_CATEGORY_MAX_EC<4.43503e+06] yes=109,no=110,missing=109
						109:leaf=0.00575681
						110:leaf=-0.00209745
		6:[C_D_U_TITLEMD5_CITY_COEC<0.070999] yes=13,no=14,missing=13
			13:[U_KW_LEN<3016] yes=27,no=28,missing=28
				27:[U_KEYWORD_MICRO_MAX_COEC<0.157999] yes=55,no=56,missing=55
					55:[U_AGE_COEC<0.132999] yes=111,no=112,missing=112
						111:leaf=0.0319804
						112:leaf=0.0134663
					56:[U_AGE_EC<6.92482e+06] yes=113,no=114,missing=113
						113:leaf=0.0276811
						114:leaf=0.0778989
				28:[U_CITY_COEC<0.624999] yes=57,no=58,missing=58
					57:[U_CATEGORY_MACRO_MAX_COEC<0.025999] yes=115,no=116,missing=115
						115:leaf=0.027644
						116:leaf=-0.00452138
					58:[U_GENDER_COEC<0.141999] yes=117,no=118,missing=118
						117:leaf=-0.0473336
						118:leaf=0.104023
			14:[U_KEYWORD_MAX_EC<1819.23] yes=29,no=30,missing=30
				29:[C_D_U_CATEGORY_CATEGORY_MEAN_EC<28506.3] yes=59,no=60,missing=59
					59:[U_CATEGORY_MAX_EC<11872.9] yes=119,no=120,missing=119
						119:leaf=0.0642659
						120:leaf=0.0253282
					60:[C_D_U_CATEGORY_AGE_MACRO_MAX_COEC<0.144999] yes=121,no=122,missing=121
						121:leaf=0.000218096
						122:leaf=-0.633335
				30:[U_AGE_EC<528009] yes=61,no=62,missing=62
					61:[U_CATEGORY_MAX_EC<31100.6] yes=123,no=124,missing=123
						123:leaf=-0.132725
						124:leaf=-0.651042
					62:[U_CATEGORY_MACRO_MAX_COEC<0.038999] yes=125,no=126,missing=126
						125:leaf=0.00525418
						126:leaf=-0.00891849
booster[80]:
0:[IMAGE_COUNT<0.999999] yes=1,no=2,missing=1
	1:[U_KEYWORD_MACRO_MEAN_COEC<0.025999] yes=3,no=4,missing=4
		3:[CAT_REL<0.043999] yes=7,no=8,missing=8
			7:[D_TITLEMD5_C<3.99] yes=15,no=16,missing=15
				15:[U_CATEGORY_MICRO_MAX_COEC<0.128999] yes=31,no=32,missing=32
					31:[KW_REL<0.003999] yes=63,no=64,missing=64
						63:leaf=-0.0434535
						64:leaf=-0.00926401
					32:[U_KW_LEN<6465] yes=65,no=66,missing=66
						65:leaf=-0.0203094
						66:leaf=0.0309305
				16:[D_CATEGORY_MACRO_MEAN_COEC<0.149999] yes=33,no=34,missing=33
					33:[D_KEYWORD_MACRO_MAX_COEC<0.014999] yes=67,no=68,missing=68
						67:leaf=0.0189164
						68:leaf=-0.00445457
					34:[D_PUBLISHER_EC<155095] yes=69,no=70,missing=69
						69:leaf=0.0342228
						70:leaf=0.00590423
			8:[D_CATEGORY_MEAN_EC<1.27522e+06] yes=17,no=18,missing=18
				17:[C_D_U_CATEGORY_CATEGORY_MICRO_MEAN_COEC<0.056999] yes=35,no=36,missing=36
					35:[C_D_U_TITLEMD5_GENDER_EC<39.807] yes=71,no=72,missing=72
						71:leaf=-0.0708619
						72:leaf=-0.00802832
					36:[D_CATEGORY_MAX_C<2656.61] yes=73,no=74,missing=74
						73:leaf=0.0378572
						74:leaf=0.0127034
				18:[D_TITLEMD5_C<3.99] yes=37,no=38,missing=37
					37:[C_D_U_CATEGORY_CATEGORY_MACRO_MEAN_COEC<0.023999] yes=75,no=76,missing=75
						75:leaf=-0.0484206
						76:leaf=0.00160031
					38:[D_CATEGORY_MICRO_MAX_COEC<0.133999] yes=77,no=78,missing=77
						77:leaf=-0.0104246
						78:leaf=0.0150265
		4:[D_CATEGORY_MACRO_MAX_COEC<0.140999] yes=9,no=10,missing=10
			9:[D_TITLEMD5_COEC<0.047999] yes=19,no=20,missing=20
				19:[D_TITLEMD5_C<30.938] yes=39,no=40,missing=40
					39:[C_D_U_TITLEMD5_CATEGORY_MICRO_MAX_COEC<0.079999] yes=79,no=80,missing=79
						79:leaf=-0.0044929
						80:leaf=-0.0436682
					40:[WORD_COUNT<657] yes=81,no=82,missing=82
						81:leaf=0.063326
						82:leaf=0.0137534
				20:[D_KEYWORD_MICRO_MEAN_COEC<0.121999] yes=41,no=42,missing=42
					41:[KW_REL<0.006999] yes=83,no=84,missing=84
						83:leaf=-0.0194234
						84:leaf=0.0114386
					42:[D_TITLEMD5_C<22031.2] yes=85,no=86,missing=86
						85:leaf=-0.00562179
						86:leaf=-0.0457879
			10:[U_KW_LEN<2054] yes=21,no=22,missing=21
				21:[U_KEYWORD_MEAN_C<2900.43] yes=43,no=44,missing=44
					43:[D_KEYWORD_MAX_C<340.161] yes=87,no=88,missing=88
						87:leaf=0.0293017
						88:leaf=-0.0155611
					44:[CAT_REL<0.045999] yes=89,no=90,missing=89
						89:leaf=-0.00610639
						90:leaf=0.00440203
				22:[D_KEYWORD_MICRO_MEAN_COEC<0.183999] yes=45,no=46,missing=45
					45:[KW_REL<0.004999] yes=91,no=92,missing=92
						91:leaf=-0.00069216
						92:leaf=0.0229864
					46:[D_PUBLISHER_C<18576.2] yes=93,no=94,missing=94
						93:leaf=0.0380679
						94:leaf=0.0115305
	2:[D_CATEGORY_MEAN_EC<42452.4] yes=5,no=6,missing=5
		5:[U_CAT_LEN<13] yes=11,no=12,missing=12
			11:[DAY_OF_WEEK<2] yes=23,no=24,missing=24
				23:[U_CATEGORY_MACRO_MAX_COEC<0.036999] yes=47,no=48,missing=48
					47:[DOC_AGE<16] yes=95,no=96,missing=96
						95:leaf=-0.00864081
						96:leaf=0.00494554
					48:[D_CATEGORY_MACRO_MAX_COEC<0.050999] yes=97,no=98,missing=98
						97:leaf=-0.049605
						98:leaf=-0.0125416
				24:[D_PUBLISHER_EC<1.58394e+06] yes=49,no=50,missing=49
					49:[DAY_OF_WEEK<5] yes=99,no=100,missing=100
						99:leaf=0.00842009
						100:leaf=-0.000969372
					50:[D_PUBLISHER_COEC<0.158999] yes=101,no=102,missing=102
						101:leaf=-0.0128222
						102:leaf=0.00731738
			12:[D_TITLEMD5_COEC<0.177999] yes=25,no=26,missing=25
				25:[C_D_U_CATEGORY_CATEGORY_MICRO_MEAN_COEC<0.056999] yes=51,no=52,missing=52
					51:[D_TITLEMD5_C<11.867] yes=103,no=104,missing=103
						103:leaf=-0.0185967
						104:leaf=0.00897577
					52:[C_D_U_CATEGORY_CATEGORY_MAX_EC<266.548] yes=105,no=106,missing=105
						105:leaf=0.0165368
						106:leaf=-0.00681008
				26:[U_KEYWORD_MEAN_C<2632.4] yes=53,no=54,missing=54
					53:[U_KEYWORD_MICRO_MEAN_COEC<0.137999] yes=107,no=108,missing=108
						107:leaf=-0.0135179
						108:leaf=0.00263857
					54:[U_KEYWORD_MICRO_MEAN_COEC<0.142999] yes=109,no=110,missing=110
						109:leaf=0.00730757
						110:leaf=0.021506
		6:[WORD_COUNT<657] yes=13,no=14,missing=14
			13:[D_CATEGORY_MEAN_EC<802989] yes=27,no=28,missing=28
				27:[CAT_REL<0.098999] yes=55,no=56,missing=56
					55:[U_KEYWORD_MACRO_MEAN_COEC<0.030999] yes=111,no=112,missing=112
						111:leaf=-0.0159939
						112:leaf=-0.0052457
					56:[U_KEYWORD_MAX_EC<2863.27] yes=113,no=114,missing=114
						113:leaf=0.00305956
						114:leaf=-0.00932908
				28:[D_KEYWORD_MACRO_MAX_COEC<0.064999] yes=57,no=58,missing=58
					57:[D_KEYWORD_MEAN_C<1553.11] yes=115,no=116,missing=116
						115:leaf=0.00673698
						116:leaf=-0.00437754
					58:[D_CATEGORY_MACRO_MAX_COEC<0.138999] yes=117,no=118,missing=118
						117:leaf=-0.00828856
						118:leaf=0.0118074
			14:[TIME_OF_DAY<4] yes=29,no=30,missing=30
				29:[DOC_AGE<12] yes=59,no=60,missing=60
					59:[D_TITLEMD5_EC<9406.22] yes=119,no=120,missing=120
						119:leaf=0.00513509
						120:leaf=0.0116698
					60:[DAY_OF_WEEK<3] yes=121,no=122,missing=122
						121:leaf=-0.00263853
						122:leaf=0.00420951
				30:[U_KEYWORD_MEAN_EC<24217.2] yes=61,no=62,missing=62
					61:[D_CATEGORY_MAX_EC<4.43503e+06] yes=123,no=124,missing=124
						123:leaf=-0.000808331
						124:leaf=-0.0103814
					62:[U_KEYWORD_MAX_C<432.045] yes=125,no=126,missing=126
						125:leaf=0.00429976
						126:leaf=0.000319169
booster[81]:
0:[DOC_AGE<3] yes=1,no=2,missing=2
	1:[D_TITLEMD5_EC<2515.86] yes=3,no=4,missing=3
		3:[D_KEYWORD_MICRO_MEAN_COEC<0.129999] yes=7,no=8,missing=7
			7:[C_D_U_TITLEMD5_CATEGORY_MICRO_MAX_COEC<0.135999] yes=15,no=16,missing=16
				15:[TIME_OF_DAY<5] yes=31,no=32,missing=32
					31:[D_KEYWORD_MAX_EC<4905.83] yes=63,no=64,missing=64
						63:leaf=0.0223177
						64:leaf=0.00674329
					32:[DOC_AGE<0.999999] yes=65,no=66,missing=66
						65:leaf=0.00158547
						66:leaf=-0.00434608
				16:[KW_REL<0.004999] yes=33,no=34,missing=34
					33:[C_D_U_TITLEMD5_CATEGORY_MAX_C<0.055999] yes=67,no=68,missing=68
						67:leaf=-0.0211973
						68:leaf=-0.00762382
					34:[KW_REL<0.006999] yes=69,no=70,missing=70
						69:leaf=0.00298133
						70:leaf=0.0214595
			8:[CAT_REL<0.019999] yes=17,no=18,missing=18
				17:[D_CATEGORY_MICRO_MAX_COEC<0.159999] yes=35,no=36,missing=36
					35:[D_TITLEMD5_COEC<0.099999] yes=71,no=72,missing=72
						71:leaf=-0.00616126
						72:leaf=0.0025043
					36:[D_PUBLISHER_COEC<0.120999] yes=73,no=74,missing=74
						73:leaf=0.0044347
						74:leaf=0.0175831
				18:[U_KW_LEN<2053] yes=37,no=38,missing=38
					37:[U_KEYWORD_MACRO_MAX_COEC<0.002999] yes=75,no=76,missing=76
						75:leaf=0.00547999
						76:leaf=-0.00523203
					38:[D_KEYWORD_MICRO_MEAN_COEC<0.155999] yes=77,no=78,missing=78
						77:leaf=0.0108984
						78:leaf=0.0222967
		4:[DOC_AGE<0.999999] yes=9,no=10,missing=10
			9:[D_CATEGORY_MEAN_C<238660] yes=19,no=20,missing=19
				19:[D_TITLEMD5_COEC<0.023999] yes=39,no=40,missing=40
					39:[C_D_U_CATEGORY_CATEGORY_MICRO_MAX_COEC<0.087999] yes=79,no=80,missing=79
						79:leaf=-0.0252389
						80:leaf=0.0158934
					40:[D_TITLEMD5_COEC<0.104999] yes=81,no=82,missing=82
						81:leaf=0.0244708
						82:leaf=0.0115002
				20:[U_KEYWORD_MEAN_C<3012.4] yes=41,no=42,missing=42
					41:[D_KEYWORD_MACRO_MEAN_COEC<0.106999] yes=83,no=84,missing=84
						83:leaf=0.0108876
						84:leaf=-0.00036083
					42:[D_KEYWORD_MEAN_C<1843.68] yes=85,no=86,missing=86
						85:leaf=-0.0120566
						86:leaf=0.0116973
			10:[D_TITLEMD5_EC<11385.2] yes=21,no=22,missing=22
				21:[D_KEYWORD_MEAN_C<5030.46] yes=43,no=44,missing=44
					43:[KW_REL<0.001999] yes=87,no=88,missing=88
						87:leaf=0.00118107
						88:leaf=0.00838542
					44:[D_KEYWORD_MACRO_MEAN_COEC<0.088999] yes=89,no=90,missing=90
						89:leaf=0.00898606
						90:leaf=-0.00336034
				22:[D_TITLEMD5_COEC<0.108999] yes=45,no=46,missing=46
					45:[D_TITLEMD5_COEC<0.067999] yes=91,no=92,missing=92
						91:leaf=0.00712623
						92:leaf=0.0202254
					46:[C_D_U_TITLEMD5_CATEGORY_MICRO_MAX_COEC<0.334999] yes=93,no=94,missing=94
						93:leaf=0.00338507
						94:leaf=0.011353
	2:[D_KEYWORD_MICRO_MEAN_COEC<0.102999] yes=5,no=6,missing=6
		5:[D_CATEGORY_MAX_C<248021] yes=11,no=12,missing=11
			11:[U_KEYWORD_MICRO_MEAN_COEC<0.131999] yes=23,no=24,missing=23
				23:[C_D_U_CATEGORY_CATEGORY_MICRO_MAX_COEC<0.110999] yes=47,no=48,missing=48
					47:[U_KEYWORD_MEAN_EC<10256] yes=95,no=96,missing=96
						95:leaf=-0.0255307
						96:leaf=-0.000998486
					48:[CAT_REL<0.168999] yes=97,no=98,missing=98
						97:leaf=-0.0115709
						98:leaf=0.00525325
				24:[DOC_AGE<21] yes=49,no=50,missing=50
					49:[D_KEYWORD_MEAN_EC<8405.7] yes=99,no=100,missing=100
						99:leaf=-0.00109567
						100:leaf=-0.018631
					50:[CAT_REL<0.006999] yes=101,no=102,missing=102
						101:leaf=0.010919
						102:leaf=-0.00892439
			12:[D_TITLEMD5_COEC<0.102999] yes=25,no=26,missing=25
				25:[DOC_AGE<24] yes=51,no=52,missing=52
					51:[KW_REL<0.002999] yes=103,no=104,missing=104
						103:leaf=-0.0102684
						104:leaf=0.00722611
					52:[U_KEYWORD_MICRO_MAX_COEC<0.132999] yes=105,no=106,missing=105
						105:leaf=-0.000806355
						106:leaf=0.0340575
				26:[D_TITLEMD5_C<1822.65] yes=53,no=54,missing=54
					53:[D_TITLEMD5_EC<65] yes=107,no=108,missing=108
						107:leaf=-0.0946905
						108:leaf=0.0208567
					54:[U_KEYWORD_MAX_C<530.896] yes=109,no=110,missing=110
						109:leaf=0.00719958
						110:leaf=-0.0292845
		6:[D_TITLEMD5_COEC<0.063999] yes=13,no=14,missing=14
			13:[DOC_AGE<113] yes=27,no=28,missing=28
				27:[U_KEYWORD_MICRO_MEAN_COEC<0.129999] yes=55,no=56,missing=56
					55:[KW_REL<0.001999] yes=111,no=112,missing=112
						111:leaf=-0.00788638
						112:leaf=0.00492105
					56:[DOC_AGE<22] yes=113,no=114,missing=114
						113:leaf=-0.0104975
						114:leaf=-0.00080728
				28:[C_D_U_CATEGORY_AGE_MEAN_EC<88719.1] yes=57,no=58,missing=57
					57:[C_D_U_TITLEMD5_CATEGORY_MICRO_MAX_COEC<0.129999] yes=115,no=116,missing=115
						115:leaf=0.0215698
						116:leaf=-0.0340563
					58:[U_CAT_LEN<8] yes=117,no=118,missing=118
						117:leaf=-0.00181454
						118:leaf=0.0477943
			14:[U_KEYWORD_MAX_EC<2240.58] yes=29,no=30,missing=30
				29:[KW_REL<0.001999] yes=59,no=60,missing=60
					59:[D_CATEGORY_MACRO_MAX_COEC<0.127999] yes=119,no=120,missing=120
						119:leaf=-0.00407568
						120:leaf=0.00329496
					60:[WORD_COUNT<2788] yes=121,no=122,missing=122
						121:leaf=0.00432513
						122:leaf=0.014807
				30:[U_CATEGORY_MAX_EC<25563.9] yes=61,no=62,missing=62
					61:[CAT_REL<0.035999] yes=123,no=124,missing=124
						123:leaf=-0.00565062
						124:leaf=0.000624905
					62:[U_CATEGORY_MACRO_MAX_COEC<0.024999] yes=125,no=126,missing=126
						125:leaf=0.00251112
						126:leaf=-0.00118055
booster[82]:
0:[U_CITY_COEC<0.120999] yes=1,no=2,missing=1
	1:[U_CITY_COEC<0.082999] yes=3,no=4,missing=4
		3:[C_D_U_TITLEMD5_CITY_COEC<0.357999] yes=7,no=8,missing=8
			7:[TIME_OF_DAY<23] yes=15,no=16,missing=16
				15:[C_D_U_TITLEMD5_CATEGORY_MAX_EC<0.856999] yes=31,no=32,missing=32
					31:[TIME_OF_DAY<12] yes=63,no=64,missing=64
						63:leaf=-0.0457238
						64:leaf=-0.176934
					32:[U_KEYWORD_MACRO_MEAN_COEC<0.025999] yes=65,no=66,missing=65
						65:leaf=-0.0245323
						66:leaf=-0.00578652
				16:[D_TITLEMD5_C<838.963] yes=33,no=34,missing=33
					33:[D_KEYWORD_MACRO_MEAN_COEC<0.068999] yes=67,no=68,missing=68
						67:leaf=0.288478
						68:leaf=0.190474
					34:[U_CATEGORY_MAX_C<3960.84] yes=69,no=70,missing=70
						69:leaf=0.0063555
						70:leaf=-0.470389
			8:[U_GENDER_C<1.14135e+06] yes=17,no=18,missing=17
				17:[DOC_AGE<2] yes=35,no=36,missing=36
					35:[U_KEYWORD_MACRO_MEAN_COEC<0.024999] yes=71,no=72,missing=72
						71:leaf=-0.0406971
						72:leaf=-0.00857007
					36:[D_TITLEMD5_COEC<0.134999] yes=73,no=74,missing=73
						73:leaf=-0.0379869
						74:leaf=-0.0173909
				18:[U_KEYWORD_MEAN_EC<22243.2] yes=37,no=38,missing=38
					37:[U_KEYWORD_MEAN_C<1492.77] yes=75,no=76,missing=76
						75:leaf=-0.00123979
						76:leaf=-0.0834176
					38:[DOC_AGE<6] yes=77,no=78,missing=78
						77:leaf=0.00392226
						78:leaf=-0.0488537
		4:[DAY_OF_WEEK<4] yes=9,no=10,missing=10
			9:[D_KEYWORD_MEAN_EC<77742.9] yes=19,no=20,missing=19
				19:[KW_REL<0.002999] yes=39,no=40,missing=40
					39:[D_TITLEMD5_C<11.646] yes=79,no=80,missing=80
						79:leaf=-0.0133751
						80:leaf=-0.000832392
					40:[DOC_AGE<12] yes=81,no=82,missing=82
						81:leaf=0.00477258
						82:leaf=-0.00134789
				20:[WORD_COUNT<2115] yes=41,no=42,missing=42
					41:[KW_REL<0.005999] yes=83,no=84,missing=84
						83:leaf=-0.00899805
						84:leaf=0.00201054
					42:[D_CATEGORY_MACRO_MEAN_COEC<0.157999] yes=85,no=86,missing=85
						85:leaf=0.00426568
						86:leaf=-0.0309693
			10:[U_CATEGORY_MACRO_MAX_COEC<0.021999] yes=21,no=22,missing=21
				21:[D_TITLEMD5_COEC<0.155999] yes=43,no=44,missing=43
					43:[WORD_COUNT<2292] yes=87,no=88,missing=87
						87:leaf=-0.00494124
						88:leaf=0.00149726
					44:[D_TITLEMD5_C<4] yes=89,no=90,missing=90
						89:leaf=-0.0592436
						90:leaf=0.00200869
				22:[U_KEYWORD_MICRO_MAX_COEC<0.150999] yes=45,no=46,missing=46
					45:[U_CATEGORY_MICRO_MAX_COEC<0.128999] yes=91,no=92,missing=92
						91:leaf=-0.0128687
						92:leaf=-0.00586268
					46:[U_KEYWORD_MACRO_MEAN_COEC<0.032999] yes=93,no=94,missing=94
						93:leaf=-0.0139141
						94:leaf=0.00610277
	2:[KW_REL<0.004999] yes=5,no=6,missing=6
		5:[D_KEYWORD_MEAN_EC<39371] yes=11,no=12,missing=12
			11:[D_KEYWORD_MICRO_MEAN_COEC<0.110999] yes=23,no=24,missing=24
				23:[D_CATEGORY_MEAN_C<54388.9] yes=47,no=48,missing=48
					47:[U_KEYWORD_MICRO_MEAN_COEC<0.137999] yes=95,no=96,missing=95
						95:leaf=-0.00624867
						96:leaf=-0.0204351
					48:[D_CATEGORY_MICRO_MAX_COEC<0.104999] yes=97,no=98,missing=98
						97:leaf=-0.00357636
						98:leaf=0.00508323
				24:[KW_REL<0.002999] yes=49,no=50,missing=50
					49:[KW_REL<0.000999] yes=99,no=100,missing=100
						99:leaf=-0.000761841
						100:leaf=0.00290593
					50:[U_KEYWORD_MACRO_MEAN_COEC<0.025999] yes=101,no=102,missing=102
						101:leaf=0.0182758
						102:leaf=0.00742531
			12:[U_KEYWORD_MACRO_MEAN_COEC<0.032999] yes=25,no=26,missing=26
				25:[KW_REL<0.001999] yes=51,no=52,missing=52
					51:[KW_REL<0.000999] yes=103,no=104,missing=104
						103:leaf=-0.0290955
						104:leaf=-0.0108555
					52:[U_KEYWORD_MEAN_EC<16350.3] yes=105,no=106,missing=106
						105:leaf=-0.00808715
						106:leaf=-0.000311425
				26:[DAY_OF_WEEK<0.999999] yes=53,no=54,missing=54
					53:[D_KEYWORD_MACRO_MEAN_COEC<0.138999] yes=107,no=108,missing=108
						107:leaf=-0.00763361
						108:leaf=0.00409022
					54:[DAY_OF_WEEK<4] yes=109,no=110,missing=110
						109:leaf=0.00547627
						110:leaf=0.00126997
		6:[U_KW_LEN<743] yes=13,no=14,missing=14
			13:[DOC_AGE<26] yes=27,no=28,missing=28
				27:[U_KW_LEN<196] yes=55,no=56,missing=56
					55:[D_KEYWORD_MAX_EC<54403.3] yes=111,no=112,missing=112
						111:leaf=-0.00649574
						112:leaf=-0.0210717
					56:[D_KEYWORD_MICRO_MEAN_COEC<0.232999] yes=113,no=114,missing=114
						113:leaf=0.0021492
						114:leaf=-0.374396
				28:[D_KEYWORD_MAX_EC<9923.1] yes=57,no=58,missing=58
					57:[D_TITLEMD5_COEC<0.169999] yes=115,no=116,missing=116
						115:leaf=-0.0198461
						116:leaf=-0.101113
					58:[D_KEYWORD_MACRO_MAX_COEC<0.052999] yes=117,no=118,missing=118
						117:leaf=-0.00904047
						118:leaf=-0.0396668
			14:[DOC_AGE<12] yes=29,no=30,missing=30
				29:[D_KEYWORD_MEAN_EC<115029] yes=59,no=60,missing=60
					59:[KW_REL<0.006999] yes=119,no=120,missing=120
						119:leaf=0.0105723
						120:leaf=0.0229757
					60:[KW_REL<0.006999] yes=121,no=122,missing=122
						121:leaf=-0.00738559
						122:leaf=0.0139367
				30:[CAT_REL<0.004999] yes=61,no=62,missing=62
					61:[D_KEYWORD_MEAN_EC<60438.9] yes=123,no=124,missing=124
						123:leaf=0.0250357
						124:leaf=0.00890058
					62:[D_KEYWORD_MEAN_EC<32475.1] yes=125,no=126,missing=126
						125:leaf=0.0124119
						126:leaf=-0.000778172
booster[83]:
0:[U_KW_LEN<5681] yes=1,no=2,missing=1
	1:[CAT_REL<0.107999] yes=3,no=4,missing=3
		3:[D_PUBLISHER_COEC<0.137999] yes=7,no=8,missing=8
			7:[D_TITLEMD5_C<11] yes=15,no=16,missing=15
				15:[C_D_U_TITLEMD5_CATEGORY_MICRO_MAX_COEC<0.065999] yes=31,no=32,missing=31
					31:[D_TITLEMD5_COEC<0.123999] yes=63,no=64,missing=63
						63:leaf=-0.00652452
						64:leaf=-0.0379257
					32:[D_TITLEMD5_COEC<0.035999] yes=65,no=66,missing=66
						65:leaf=-0.0466641
						66:leaf=-0.0163272
				16:[DOC_AGE<24] yes=33,no=34,missing=34
					33:[DOC_AGE<2] yes=67,no=68,missing=68
						67:leaf=0.00163107
						68:leaf=-0.00317645
					34:[U_KEYWORD_MACRO_MEAN_COEC<0.029999] yes=69,no=70,missing=69
						69:leaf=-0.000326845
						70:leaf=0.00753301
			8:[C_D_U_TITLEMD5_CATEGORY_MICRO_MAX_COEC<0.382999] yes=17,no=18,missing=17
				17:[TIME_OF_DAY<9] yes=35,no=36,missing=36
					35:[U_KEYWORD_MICRO_MEAN_COEC<0.140999] yes=71,no=72,missing=71
						71:leaf=0.00176447
						72:leaf=0.00825972
					36:[U_KEYWORD_MEAN_C<3427.44] yes=73,no=74,missing=74
						73:leaf=-0.0022344
						74:leaf=0.00238034
				18:[CAT_REL<0.001999] yes=37,no=38,missing=38
					37:[D_KEYWORD_MAX_EC<9888.72] yes=75,no=76,missing=76
						75:leaf=0.0147906
						76:leaf=0.00236849
					38:[U_KW_LEN<1323] yes=77,no=78,missing=78
						77:leaf=0.0113489
						78:leaf=0.021958
		4:[U_CAT_LEN<9] yes=9,no=10,missing=10
			9:[U_KW_LEN<109] yes=19,no=20,missing=20
				19:[D_KEYWORD_MACRO_MEAN_COEC<0.098999] yes=39,no=40,missing=40
					39:[D_TITLEMD5_C<20] yes=79,no=80,missing=79
						79:leaf=-0.0460722
						80:leaf=-0.0203501
					40:[KW_REL<0.016999] yes=81,no=82,missing=82
						81:leaf=-0.00984987
						82:leaf=-0.0438219
				20:[CAT_REL<0.182999] yes=41,no=42,missing=42
					41:[C_D_U_CATEGORY_CATEGORY_MAX_EC<29102.5] yes=83,no=84,missing=83
						83:leaf=-0.00353654
						84:leaf=-0.0242406
					42:[DOC_AGE<23] yes=85,no=86,missing=86
						85:leaf=0.00534723
						86:leaf=-0.00740625
			10:[DOC_AGE<12] yes=21,no=22,missing=22
				21:[D_KEYWORD_MICRO_MEAN_COEC<0.104999] yes=43,no=44,missing=44
					43:[KW_REL<0.006999] yes=87,no=88,missing=88
						87:leaf=-0.00128869
						88:leaf=0.0189985
					44:[U_KEYWORD_MACRO_MEAN_COEC<0.026999] yes=89,no=90,missing=89
						89:leaf=0.0211325
						90:leaf=0.00989549
				22:[C_D_U_CATEGORY_CATEGORY_MAX_C<925.858] yes=45,no=46,missing=45
					45:[CAT_REL<0.157999] yes=91,no=92,missing=92
						91:leaf=0.00145513
						92:leaf=0.00829822
					46:[D_CATEGORY_MEAN_C<571643] yes=93,no=94,missing=93
						93:leaf=-0.0111914
						94:leaf=0.0143917
	2:[U_KEYWORD_MAX_C<222.697] yes=5,no=6,missing=6
		5:[U_CAT_LEN<40] yes=11,no=12,missing=12
			11:[U_KEYWORD_MEAN_EC<6241.39] yes=23,no=24,missing=24
				23:[C_D_U_TITLEMD5_CATEGORY_MACRO_MAX_COEC<0.016999] yes=47,no=48,missing=48
					47:[D_CATEGORY_MACRO_MAX_COEC<0.114999] yes=95,no=96,missing=95
						95:leaf=-0.133708
						96:leaf=-0.00209702
					48:[C_D_U_TITLEMD5_GENDER_C<78.994] yes=97,no=98,missing=97
						97:leaf=-0.338594
						98:leaf=-0.14946
				24:[U_CITY_COEC<0.135999] yes=49,no=50,missing=49
					49:[U_KEYWORD_MICRO_MAX_COEC<0.138999] yes=99,no=100,missing=100
						99:leaf=0.0265626
						100:leaf=0.00760746
					50:[U_AGE_COEC<0.136999] yes=101,no=102,missing=102
						101:leaf=0.064698
						102:leaf=0.0297
			12:[U_KEYWORD_MEAN_C<1568.51] yes=25,no=26,missing=26
				25:[U_AGE_EC<6.03307e+06] yes=51,no=52,missing=52
					51:[U_GENDER_EC<8.28698e+06] yes=103,no=104,missing=103
						103:leaf=0.011335
						104:leaf=-0.230986
					52:[C_D_U_CATEGORY_CATEGORY_MEAN_EC<763.156] yes=105,no=106,missing=106
						105:leaf=0.0437105
						106:leaf=-0.0646397
				26:[U_CATEGORY_MACRO_MAX_COEC<0.010999] yes=53,no=54,missing=53
					53:[U_CITY_COEC<0.123999] yes=107,no=108,missing=108
						107:leaf=0.0329667
						108:leaf=0.0856806
					54:[C_D_U_KEYWORD_AGE_MEAN_EC<13964.4] yes=109,no=110,missing=109
						109:leaf=-0.0137443
						110:leaf=-0.283533
		6:[DOC_AGE<12] yes=13,no=14,missing=14
			13:[C_D_U_TITLEMD5_CATEGORY_MAX_C<0.497999] yes=27,no=28,missing=27
				27:[CAT_REL<0.028999] yes=55,no=56,missing=56
					55:[D_CATEGORY_MAX_EC<631853] yes=111,no=112,missing=112
						111:leaf=-0.0103455
						112:leaf=0.0054735
					56:[D_KEYWORD_MICRO_MEAN_COEC<0.104999] yes=113,no=114,missing=113
						113:leaf=0.00212155
						114:leaf=0.0160899
				28:[U_KW_LEN<6726] yes=57,no=58,missing=58
					57:[C_D_U_TITLEMD5_CATEGORY_MICRO_MAX_COEC<0.225999] yes=115,no=116,missing=116
						115:leaf=0.0108078
						116:leaf=0.0228625
					58:[U_CATEGORY_MAX_EC<19538.5] yes=117,no=118,missing=118
						117:leaf=0.0186496
						118:leaf=0.029553
			14:[U_CATEGORY_MAX_C<1059.49] yes=29,no=30,missing=29
				29:[U_CITY_COEC<0.119999] yes=59,no=60,missing=60
					59:[TIME_OF_DAY<2] yes=119,no=120,missing=120
						119:leaf=-0.194118
						120:leaf=-0.0337232
					60:[CAT_REL<0.019999] yes=121,no=122,missing=122
						121:leaf=-0.015373
						122:leaf=0.00132228
				30:[DOC_AGE<115] yes=61,no=62,missing=62
					61:[U_KEYWORD_MAX_C<272.154] yes=123,no=124,missing=124
						123:leaf=0.00616577
						124:leaf=-0.00550746
					62:[U_KEYWORD_MEAN_EC<24946.3] yes=125,no=126,missing=126
						125:leaf=0.0356057
						126:leaf=0.149743
booster[84]:
0:[U_KEYWORD_MICRO_MAX_COEC<0.150999] yes=1,no=2,missing=1
	1:[U_KEYWORD_MACRO_MAX_COEC<0.002999] yes=3,no=4,missing=3
		3:[CAT_REL<0.111999] yes=7,no=8,missing=7
			7:[U_KEYWORD_MEAN_EC<10081.6] yes=15,no=16,missing=16
				15:[C_D_U_CATEGORY_CATEGORY_MAX_EC<1009.14] yes=31,no=32,missing=31
					31:[U_CATEGORY_MACRO_MAX_COEC<0.015999] yes=63,no=64,missing=63
						63:leaf=0.00370405
						64:leaf=-0.0133393
					32:[U_KEYWORD_MACRO_MEAN_COEC<0.030999] yes=65,no=66,missing=66
						65:leaf=-0.0260028
						66:leaf=-0.00723667
				16:[U_KEYWORD_MEAN_EC<27687.8] yes=33,no=34,missing=33
					33:[U_KEYWORD_MAX_C<342.175] yes=67,no=68,missing=67
						67:leaf=0.00118114
						68:leaf=-0.00230605
					34:[U_CAT_LEN<13] yes=69,no=70,missing=70
						69:leaf=-0.000665081
						70:leaf=0.00686067
			8:[DOC_AGE<12] yes=17,no=18,missing=18
				17:[D_KEYWORD_MICRO_MEAN_COEC<0.102999] yes=35,no=36,missing=36
					35:[D_KEYWORD_MEAN_EC<6230.47] yes=71,no=72,missing=72
						71:leaf=0.0191814
						72:leaf=-0.00187133
					36:[U_KEYWORD_MACRO_MEAN_COEC<0.026999] yes=73,no=74,missing=73
						73:leaf=0.0198427
						74:leaf=0.0085806
				18:[C_D_U_CATEGORY_CATEGORY_MEAN_C<262.912] yes=37,no=38,missing=37
					37:[U_CAT_LEN<13] yes=75,no=76,missing=76
						75:leaf=-0.000405995
						76:leaf=0.0099943
					38:[D_CATEGORY_MICRO_MEAN_COEC<0.145999] yes=77,no=78,missing=77
						77:leaf=-0.00492307
						78:leaf=0.00760818
		4:[U_KEYWORD_MACRO_MEAN_COEC<0.037999] yes=9,no=10,missing=10
			9:[KW_REL<0.005999] yes=19,no=20,missing=20
				19:[U_CATEGORY_MACRO_MAX_COEC<0.032999] yes=39,no=40,missing=39
					39:[U_KW_LEN<926] yes=79,no=80,missing=80
						79:leaf=-0.00763615
						80:leaf=-0.0181456
					40:[U_KW_LEN<1160] yes=81,no=82,missing=82
						81:leaf=-0.0197267
						82:leaf=-0.0558484
				20:[DOC_AGE<25] yes=41,no=42,missing=42
					41:[KW_REL<0.008999] yes=83,no=84,missing=84
						83:leaf=0.00378924
						84:leaf=0.0245351
					42:[C_D_U_CATEGORY_CATEGORY_MICRO_MAX_COEC<0.180999] yes=85,no=86,missing=85
						85:leaf=-0.00467085
						86:leaf=-0.0563251
			10:[CAT_REL<0.006999] yes=21,no=22,missing=22
				21:[U_KEYWORD_MEAN_C<2614.28] yes=43,no=44,missing=44
					43:[DAY_OF_WEEK<0.999999] yes=87,no=88,missing=88
						87:leaf=-0.00334341
						88:leaf=0.0063457
					44:[D_CATEGORY_MEAN_EC<1.09535e+06] yes=89,no=90,missing=90
						89:leaf=0.00029799
						90:leaf=-0.00835982
				22:[U_KW_LEN<149] yes=45,no=46,missing=46
					45:[D_TITLEMD5_C<11.841] yes=91,no=92,missing=91
						91:leaf=-0.0408226
						92:leaf=-0.0122617
					46:[D_KEYWORD_MACRO_MEAN_COEC<0.104999] yes=93,no=94,missing=94
						93:leaf=-0.00933285
						94:leaf=-0.000435212
	2:[U_KEYWORD_MICRO_MAX_COEC<0.221999] yes=5,no=6,missing=6
		5:[U_KW_LEN<149] yes=11,no=12,missing=12
			11:[U_KEYWORD_MACRO_MEAN_COEC<0.056999] yes=23,no=24,missing=24
				23:[U_KEYWORD_MACRO_MEAN_COEC<0.049999] yes=47,no=48,missing=48
					47:[U_CITY_C<537355] yes=95,no=96,missing=95
						95:leaf=-0.0442895
						96:leaf=-0.162858
					48:[U_KEYWORD_MACRO_MAX_COEC<0.009999] yes=97,no=98,missing=98
						97:leaf=-0.0123395
						98:leaf=-0.174248
				24:[DAY_OF_WEEK<0.999999] yes=49,no=50,missing=50
					49:[U_CATEGORY_MICRO_MAX_COEC<0.134999] yes=99,no=100,missing=100
						99:leaf=-0.000723818
						100:leaf=-0.0161589
					50:[C_D_U_TITLEMD5_CATEGORY_MICRO_MAX_COEC<0.137999] yes=101,no=102,missing=102
						101:leaf=0.00820273
						102:leaf=-0.00110698
			12:[U_CATEGORY_MICRO_MAX_COEC<0.131999] yes=25,no=26,missing=26
				25:[DAY_OF_WEEK<5] yes=51,no=52,missing=52
					51:[U_CAT_LEN<16] yes=103,no=104,missing=104
						103:leaf=0.00484127
						104:leaf=0.0228039
					52:[U_CITY_COEC<0.136999] yes=105,no=106,missing=105
						105:leaf=-0.00516358
						106:leaf=0.0060074
				26:[U_CATEGORY_MAX_EC<37533.4] yes=53,no=54,missing=54
					53:[U_CATEGORY_MACRO_MAX_COEC<0.008999] yes=107,no=108,missing=108
						107:leaf=0.113989
						108:leaf=0.00231856
					54:[C_D_U_CATEGORY_CATEGORY_MACRO_MEAN_COEC<0.022999] yes=109,no=110,missing=109
						109:leaf=0.0173
						110:leaf=0.00981102
		6:[C_D_U_TITLEMD5_CATEGORY_MICRO_MAX_COEC<0.076999] yes=13,no=14,missing=14
			13:[U_CATEGORY_MAX_EC<1756.11] yes=27,no=28,missing=28
				27:[D_CATEGORY_MACRO_MEAN_COEC<0.091999] yes=55,no=56,missing=56
					55:[U_KEYWORD_MICRO_MEAN_COEC<0.121999] yes=111,no=112,missing=112
						111:leaf=-0.232845
						112:leaf=0.13842
					56:[C_D_U_KEYWORD_AGE_MICRO_MAX_COEC<0.150999] yes=113,no=114,missing=113
						113:leaf=-0.00881163
						114:leaf=0.073162
				28:[U_CITY_C<100472] yes=57,no=58,missing=58
					57:[D_CATEGORY_MICRO_MEAN_COEC<0.094999] yes=115,no=116,missing=116
						115:leaf=-0.010795
						116:leaf=0.0193273
					58:[U_AGE_C<66064.8] yes=117,no=118,missing=118
						117:leaf=-0.147116
						118:leaf=0.0335484
			14:[C_D_U_CATEGORY_GENDER_MACRO_MEAN_COEC<0.135999] yes=29,no=30,missing=29
				29:[D_TITLEMD5_COEC<0.133999] yes=59,no=60,missing=60
					59:[C_D_U_CATEGORY_GENDER_MEAN_EC<986986] yes=119,no=120,missing=119
						119:leaf=0.015599
						120:leaf=-0.0482005
					60:[U_CAT_LEN<17] yes=121,no=122,missing=122
						121:leaf=0.00365348
						122:leaf=0.0331765
				30:[U_CATEGORY_MICRO_MAX_COEC<0.145999] yes=61,no=62,missing=62
					61:[U_GENDER_EC<7.77273e+06] yes=123,no=124,missing=123
						123:leaf=0.0323371
						124:leaf=0.0172143
					62:[U_CITY_COEC<0.119999] yes=125,no=126,missing=126
						125:leaf=-0.26159
						126:leaf=-0.00508292
booster[85]:
0:[U_CITY_EC<1.32271e+06] yes=1,no=2,missing=1
	1:[U_CITY_COEC<0.139999] yes=3,no=4,missing=3
		3:[D_PUBLISHER_COEC<0.071999] yes=7,no=8,missing=8
			7:[D_TITLEMD5_C<3.965] yes=15,no=16,missing=15
				15:[D_TITLEMD5_COEC<0.070999] yes=31,no=32,missing=32
					31:[D_TITLEMD5_EC<66] yes=63,no=64,missing=64
						63:leaf=-0.00555131
						64:leaf=-0.0267927
					32:[D_KEYWORD_MACRO_MEAN_COEC<0.068999] yes=65,no=66,missing=66
						65:leaf=-0.07545
						66:leaf=-0.0377507
				16:[D_PUBLISHER_C<7206.43] yes=33,no=34,missing=34
					33:[D_CATEGORY_MACRO_MEAN_COEC<0.149999] yes=67,no=68,missing=67
						67:leaf=-0.00408615
						68:leaf=0.00923924
					34:[D_KEYWORD_MACRO_MAX_COEC<0.032999] yes=69,no=70,missing=70
						69:leaf=-0.00879576
						70:leaf=-0.0192532
			8:[C_D_U_CATEGORY_CATEGORY_MACRO_MEAN_COEC<0.015999] yes=17,no=18,missing=17
				17:[CAT_REL<0.052999] yes=35,no=36,missing=35
					35:[U_KEYWORD_MEAN_EC<23664.5] yes=71,no=72,missing=71
						71:leaf=-0.00130709
						72:leaf=0.00485965
					36:[D_CATEGORY_MICRO_MAX_COEC<0.112999] yes=73,no=74,missing=73
						73:leaf=0.00476821
						74:leaf=0.0144973
				18:[C_D_U_TITLEMD5_CATEGORY_MAX_C<8.613] yes=37,no=38,missing=38
					37:[CAT_REL<0.137999] yes=75,no=76,missing=76
						75:leaf=-0.00389519
						76:leaf=0.00382115
					38:[C_D_U_TITLEMD5_CATEGORY_MICRO_MAX_COEC<0.382999] yes=77,no=78,missing=77
						77:leaf=3.49576e-05
						78:leaf=0.0107542
		4:[U_CITY_C<1227.73] yes=9,no=10,missing=10
			9:[C_D_U_TITLEMD5_CITY_COEC<0.081999] yes=19,no=20,missing=19
				19:[U_KEYWORD_MAX_C<373.543] yes=39,no=40,missing=40
					39:[U_CITY_COEC<0.162999] yes=79,no=80,missing=80
						79:leaf=0.0127696
						80:leaf=0.0215632
					40:[U_KEYWORD_MAX_EC<7754.37] yes=81,no=82,missing=81
						81:leaf=0.00946119
						82:leaf=-0.0260819
				20:[U_KEYWORD_MAX_C<309.405] yes=41,no=42,missing=42
					41:[U_CITY_COEC<0.141999] yes=83,no=84,missing=84
						83:leaf=-0.00881113
						84:leaf=0.0122775
					42:[C_D_U_KEYWORD_AGE_MACRO_MAX_COEC<0.022999] yes=85,no=86,missing=85
						85:leaf=-0.00113975
						86:leaf=0.00696982
			10:[U_CAT_LEN<39] yes=21,no=22,missing=22
				21:[TIME_OF_DAY<11] yes=43,no=44,missing=44
					43:[DOC_AGE<63] yes=87,no=88,missing=88
						87:leaf=0.00484246
						88:leaf=-0.0216795
					44:[D_TITLEMD5_COEC<0.063999] yes=89,no=90,missing=89
						89:leaf=-0.0109458
						90:leaf=0.000499948
				22:[U_KEYWORD_MAX_EC<1880.47] yes=45,no=46,missing=46
					45:[U_GENDER_EC<8.32377e+06] yes=91,no=92,missing=92
						91:leaf=-0.0576163
						92:leaf=0.102562
					46:[U_KEYWORD_MACRO_MAX_COEC<0.001999] yes=93,no=94,missing=94
						93:leaf=0.0315168
						94:leaf=-0.0712325
	2:[C_D_U_TITLEMD5_CITY_COEC<0.167999] yes=5,no=6,missing=6
		5:[D_CATEGORY_MAX_EC<37769.9] yes=11,no=12,missing=11
			11:[U_CATEGORY_MACRO_MAX_COEC<0.048999] yes=23,no=24,missing=24
				23:[DOC_AGE<24] yes=47,no=48,missing=48
					47:[U_CAT_LEN<18] yes=95,no=96,missing=96
						95:leaf=0.00686114
						96:leaf=0.0157018
					48:[CAT_REL<0.002999] yes=97,no=98,missing=98
						97:leaf=0.032505
						98:leaf=0.0044029
				24:[D_KEYWORD_MEAN_EC<115096] yes=49,no=50,missing=50
					49:[DAY_OF_WEEK<0.999999] yes=99,no=100,missing=100
						99:leaf=-0.0299041
						100:leaf=-0.00206048
					50:[U_AGE_C<994561] yes=101,no=102,missing=101
						101:leaf=-0.164071
						102:leaf=0.0404262
			12:[DOC_AGE<24] yes=25,no=26,missing=26
				25:[DOC_AGE<2] yes=51,no=52,missing=52
					51:[TIME_OF_DAY<5] yes=103,no=104,missing=104
						103:leaf=0.0124494
						104:leaf=0.00258991
					52:[CAT_REL<0.097999] yes=105,no=106,missing=106
						105:leaf=-0.00204224
						106:leaf=0.00392112
				26:[CAT_REL<0.027999] yes=53,no=54,missing=54
					53:[U_CATEGORY_MAX_C<4235.25] yes=107,no=108,missing=107
						107:leaf=0.00471211
						108:leaf=0.015946
					54:[U_KEYWORD_MEAN_C<2949.09] yes=109,no=110,missing=110
						109:leaf=-0.00326793
						110:leaf=0.00788013
		6:[D_TITLEMD5_COEC<0.023999] yes=13,no=14,missing=14
			13:[D_PUBLISHER_COEC<0.071999] yes=27,no=28,missing=27
				27:[D_CATEGORY_MACRO_MAX_COEC<0.122999] yes=55,no=56,missing=55
					55:[C_D_U_CATEGORY_CATEGORY_MACRO_MEAN_COEC<0.013999] yes=111,no=112,missing=111
						111:leaf=-0.0188843
						112:leaf=0.0335699
					56:[D_KEYWORD_MACRO_MEAN_COEC<0.086999] yes=113,no=114,missing=114
						113:leaf=-0.074011
						114:leaf=-0.0122452
				28:[D_KEYWORD_MACRO_MEAN_COEC<0.089999] yes=57,no=58,missing=58
					57:[C_D_U_PUBLISHER_GENDER_C<115771] yes=115,no=116,missing=115
						115:leaf=0.0221797
						116:leaf=0.104683
					58:[D_KEYWORD_MACRO_MEAN_COEC<0.138999] yes=117,no=118,missing=118
						117:leaf=0.0477316
						118:leaf=0.124173
			14:[D_TITLEMD5_C<3.965] yes=29,no=30,missing=30
				29:[D_TITLEMD5_COEC<0.115999] yes=59,no=60,missing=60
					59:[D_KEYWORD_MACRO_MEAN_COEC<0.105999] yes=119,no=120,missing=120
						119:leaf=-0.019306
						120:leaf=0.0197757
					60:[KW_REL<0.002999] yes=121,no=122,missing=122
						121:leaf=-0.0605362
						122:leaf=-0.0256143
				30:[U_CITY_EC<3.87038e+06] yes=61,no=62,missing=62
					61:[DOC_AGE<57] yes=123,no=124,missing=124
						123:leaf=0.00552777
						124:leaf=-0.00931247
					62:[DOC_AGE<12] yes=125,no=126,missing=126
						125:leaf=0.00312829
						126:leaf=-0.00354991
booster[86]:
0:[C_D_U_TITLEMD5_AGE_COEC<0.169999] yes=1,no=2,missing=1
	1:[KW_REL<0.005999] yes=3,no=4,missing=3
		3:[D_KEYWORD_MEAN_EC<77470.2] yes=7,no=8,missing=8
			7:[D_CATEGORY_MEAN_EC<41308.7] yes=15,no=16,missing=15
				15:[U_CATEGORY_MACRO_MAX_COEC<0.030999] yes=31,no=32,missing=32
					31:[D_KEYWORD_MACRO_MEAN_COEC<0.132999] yes=63,no=64,missing=64
						63:leaf=0.0116963
						64:leaf=0.00388589
					32:[D_KEYWORD_MICRO_MAX_COEC<0.197999] yes=65,no=66,missing=66
						65:leaf=-0.00833998
						66:leaf=0.00115585
				16:[WORD_COUNT<1160] yes=33,no=34,missing=34
					33:[U_CATEGORY_MAX_EC<21197.8] yes=67,no=68,missing=68
						67:leaf=-0.00514538
						68:leaf=-0.00119577
					34:[D_CATEGORY_MICRO_MEAN_COEC<0.117999] yes=69,no=70,missing=70
						69:leaf=-0.00130264
						70:leaf=0.00188783
			8:[WORD_COUNT<2156] yes=17,no=18,missing=17
				17:[U_KEYWORD_MACRO_MEAN_COEC<0.029999] yes=35,no=36,missing=36
					35:[KW_REL<0.002999] yes=71,no=72,missing=72
						71:leaf=-0.0243494
						72:leaf=-0.00777495
					36:[IMAGE_COUNT<0.999999] yes=73,no=74,missing=74
						73:leaf=-0.0202911
						74:leaf=-0.00311978
				18:[D_KEYWORD_MICRO_MAX_COEC<0.138999] yes=37,no=38,missing=38
					37:[D_CATEGORY_MEAN_C<106549] yes=75,no=76,missing=75
						75:leaf=-0.0338359
						76:leaf=-0.0048193
					38:[D_KEYWORD_MACRO_MEAN_COEC<0.166999] yes=77,no=78,missing=77
						77:leaf=0.0050685
						78:leaf=-0.0292751
		4:[DOC_AGE<25] yes=9,no=10,missing=10
			9:[U_KW_LEN<286] yes=19,no=20,missing=20
				19:[D_KEYWORD_MAX_EC<57605.7] yes=39,no=40,missing=39
					39:[U_KW_LEN<94] yes=79,no=80,missing=80
						79:leaf=-0.0116733
						80:leaf=0.00032764
					40:[D_PUBLISHER_COEC<0.167999] yes=81,no=82,missing=81
						81:leaf=-0.0232491
						82:leaf=0.00984741
				20:[KW_REL<0.007999] yes=41,no=42,missing=42
					41:[U_KW_LEN<2776] yes=83,no=84,missing=84
						83:leaf=0.00579612
						84:leaf=0.01621
					42:[D_KEYWORD_MACRO_MAX_COEC<0.042999] yes=85,no=86,missing=86
						85:leaf=0.0258746
						86:leaf=0.00388449
			10:[C_D_U_CATEGORY_CATEGORY_MICRO_MAX_COEC<0.180999] yes=21,no=22,missing=22
				21:[D_KEYWORD_MACRO_MAX_COEC<0.052999] yes=43,no=44,missing=44
					43:[U_KW_LEN<530] yes=87,no=88,missing=88
						87:leaf=-0.014713
						88:leaf=-2.13769e-05
					44:[D_TITLEMD5_COEC<0.213999] yes=89,no=90,missing=89
						89:leaf=-0.0235905
						90:leaf=-0.0962326
				22:[D_KEYWORD_MEAN_EC<58983] yes=45,no=46,missing=46
					45:[U_KW_LEN<150] yes=91,no=92,missing=92
						91:leaf=-0.0210405
						92:leaf=-0.0880266
					46:[D_KEYWORD_MACRO_MAX_COEC<0.078999] yes=93,no=94,missing=93
						93:leaf=-0.0118156
						94:leaf=-0.0829681
	2:[U_KW_LEN<3272] yes=5,no=6,missing=6
		5:[U_KEYWORD_MICRO_MEAN_COEC<0.140999] yes=11,no=12,missing=11
			11:[CAT_REL<0.033999] yes=23,no=24,missing=24
				23:[WORD_COUNT<352] yes=47,no=48,missing=48
					47:[D_PUBLISHER_C<14776] yes=95,no=96,missing=95
						95:leaf=-0.0600339
						96:leaf=-0.0131355
					48:[D_KEYWORD_MEAN_C<13400.8] yes=97,no=98,missing=98
						97:leaf=0.00153323
						98:leaf=-0.00629166
				24:[U_CAT_LEN<11] yes=49,no=50,missing=50
					49:[U_CATEGORY_MACRO_MAX_COEC<0.035999] yes=99,no=100,missing=99
						99:leaf=0.00275022
						100:leaf=-0.00592826
					50:[C_D_U_KEYWORD_AGE_MACRO_MEAN_COEC<0.090999] yes=101,no=102,missing=102
						101:leaf=-0.0206251
						102:leaf=0.00993317
			12:[C_D_U_TITLEMD5_GENDER_COEC<0.249999] yes=25,no=26,missing=25
				25:[WORD_COUNT<1142] yes=51,no=52,missing=52
					51:[U_KEYWORD_MAX_EC<3002.01] yes=103,no=104,missing=104
						103:leaf=0.00400055
						104:leaf=-0.00428519
					52:[D_TITLEMD5_EC<89849.9] yes=105,no=106,missing=105
						105:leaf=0.0107992
						106:leaf=0.00113674
				26:[D_CATEGORY_MICRO_MAX_COEC<0.166999] yes=53,no=54,missing=53
					53:[C_D_U_KEYWORD_AGE_MACRO_MEAN_COEC<0.124999] yes=107,no=108,missing=108
						107:leaf=-0.0172138
						108:leaf=0.0153973
					54:[DOC_AGE<24] yes=109,no=110,missing=110
						109:leaf=0.00898504
						110:leaf=-0.0131089
		6:[U_KW_LEN<4500] yes=13,no=14,missing=14
			13:[C_D_U_TITLEMD5_GENDER_COEC<0.240999] yes=27,no=28,missing=28
				27:[U_CATEGORY_MAX_EC<22835.3] yes=55,no=56,missing=56
					55:[CAT_REL<0.032999] yes=111,no=112,missing=112
						111:leaf=-0.00175252
						112:leaf=0.0136065
					56:[U_CATEGORY_MACRO_MAX_COEC<0.022999] yes=113,no=114,missing=113
						113:leaf=0.0133005
						114:leaf=-0.000415782
				28:[DOC_AGE<12] yes=57,no=58,missing=58
					57:[C_D_U_CATEGORY_AGE_MEAN_C<18240.4] yes=115,no=116,missing=116
						115:leaf=0.00653067
						116:leaf=0.0189563
					58:[C_D_U_PUBLISHER_GENDER_COEC<0.122999] yes=117,no=118,missing=118
						117:leaf=-0.038546
						118:leaf=0.00881146
			14:[DOC_AGE<21] yes=29,no=30,missing=30
				29:[C_D_U_KEYWORD_AGE_MACRO_MEAN_COEC<0.095999] yes=59,no=60,missing=60
					59:[U_CAT_LEN<14] yes=119,no=120,missing=120
						119:leaf=-0.102232
						120:leaf=-0.00181625
					60:[C_D_U_TITLEMD5_AGE_COEC<0.241999] yes=121,no=122,missing=122
						121:leaf=0.0161252
						122:leaf=0.0245848
				30:[DAY_OF_WEEK<5] yes=61,no=62,missing=62
					61:[D_CATEGORY_MEAN_EC<3.02605e+06] yes=123,no=124,missing=124
						123:leaf=0.0163996
						124:leaf=0.00256102
					62:[U_AGE_C<842451] yes=125,no=126,missing=126
						125:leaf=0.0150553
						126:leaf=-0.0228128
booster[87]:
0:[DOC_AGE<4] yes=1,no=2,missing=2
	1:[D_TITLEMD5_C<172.445] yes=3,no=4,missing=3
		3:[C_D_U_TITLEMD5_CATEGORY_MICRO_MAX_COEC<0.094999] yes=7,no=8,missing=8
			7:[DOC_AGE<0.999999] yes=15,no=16,missing=16
				15:[D_PUBLISHER_C<161722] yes=31,no=32,missing=31
					31:[D_TITLEMD5_C<10.967] yes=63,no=64,missing=63
						63:leaf=-0.00105335
						64:leaf=0.00749776
					32:[TIME_OF_DAY<4] yes=65,no=66,missing=66
						65:leaf=0.0308628
						66:leaf=0.0100557
				16:[TIME_OF_DAY<6] yes=33,no=34,missing=34
					33:[D_CATEGORY_MAX_EC<321677] yes=67,no=68,missing=67
						67:leaf=-0.00584816
						68:leaf=0.00936675
					34:[D_TITLEMD5_COEC<0.076999] yes=69,no=70,missing=69
						69:leaf=-0.00585921
						70:leaf=0.00408348
			8:[C_D_U_TITLEMD5_CATEGORY_MAX_C<0.038999] yes=17,no=18,missing=18
				17:[D_TITLEMD5_COEC<0.035999] yes=35,no=36,missing=36
					35:[C_D_U_TITLEMD5_CATEGORY_MICRO_MAX_COEC<0.247999] yes=71,no=72,missing=72
						71:leaf=-0.056251
						72:leaf=-0.0238369
					36:[D_KEYWORD_MICRO_MEAN_COEC<0.108999] yes=73,no=74,missing=74
						73:leaf=-0.0218885
						74:leaf=-0.00766208
				18:[D_TITLEMD5_COEC<0.023999] yes=37,no=38,missing=38
					37:[D_TITLEMD5_EC<65.815] yes=75,no=76,missing=76
						75:leaf=0.017427
						76:leaf=-0.0305102
					38:[C_D_U_CATEGORY_CATEGORY_MICRO_MAX_COEC<0.147999] yes=77,no=78,missing=78
						77:leaf=-0.00679606
						78:leaf=-0.000140117
		4:[DOC_AGE<0.999999] yes=9,no=10,missing=10
			9:[C_D_U_TITLEMD5_CATEGORY_MICRO_MAX_COEC<0.126999] yes=19,no=20,missing=19
				19:[D_KEYWORD_MAX_C<2248.37] yes=39,no=40,missing=40
					39:[D_CATEGORY_MAX_C<91457.6] yes=79,no=80,missing=80
						79:leaf=0.0224537
						80:leaf=0.0117624
					40:[D_KEYWORD_MICRO_MAX_COEC<0.218999] yes=81,no=82,missing=82
						81:leaf=0.00631327
						82:leaf=0.0173498
				20:[D_KEYWORD_MACRO_MAX_COEC<0.060999] yes=41,no=42,missing=42
					41:[C_D_U_TITLEMD5_CATEGORY_MAX_EC<4.376] yes=83,no=84,missing=84
						83:leaf=0.00042472
						84:leaf=0.00726359
					42:[D_KEYWORD_MICRO_MEAN_COEC<0.136999] yes=85,no=86,missing=86
						85:leaf=0.0290019
						86:leaf=0.0130987
			10:[CAT_REL<0.049999] yes=21,no=22,missing=22
				21:[C_D_U_TITLEMD5_CATEGORY_MAX_EC<15.405] yes=43,no=44,missing=44
					43:[U_KW_LEN<3197] yes=87,no=88,missing=88
						87:leaf=-0.00350652
						88:leaf=0.00334327
					44:[C_D_U_CATEGORY_CATEGORY_MACRO_MEAN_COEC<0.018999] yes=89,no=90,missing=90
						89:leaf=0.00779787
						90:leaf=0.00252308
				22:[U_CAT_LEN<12] yes=45,no=46,missing=46
					45:[KW_REL<0.005999] yes=91,no=92,missing=92
						91:leaf=0.000408222
						92:leaf=0.0118517
					46:[D_TITLEMD5_EC<6776.44] yes=93,no=94,missing=94
						93:leaf=0.00568711
						94:leaf=0.0121179
	2:[D_TITLEMD5_COEC<0.023999] yes=5,no=6,missing=6
		5:[DOC_AGE<115] yes=11,no=12,missing=12
			11:[C_D_U_TITLEMD5_CATEGORY_MAX_C<0.038999] yes=23,no=24,missing=23
				23:[D_TITLEMD5_EC<65.815] yes=47,no=48,missing=48
					47:[CAT_REL<0.084999] yes=95,no=96,missing=96
						95:leaf=-0.0169978
						96:leaf=0.0170945
					48:[C_D_U_TITLEMD5_CATEGORY_MACRO_MAX_COEC<0.007999] yes=97,no=98,missing=98
						97:leaf=-0.0219085
						98:leaf=-0.045811
				24:[U_CAT_LEN<11] yes=49,no=50,missing=50
					49:[CAT_REL<0.167999] yes=99,no=100,missing=100
						99:leaf=-0.029978
						100:leaf=-0.00848732
					50:[D_KEYWORD_MEAN_EC<27087.9] yes=101,no=102,missing=102
						101:leaf=0.0187476
						102:leaf=-0.00508705
			12:[D_PUBLISHER_COEC<0.063999] yes=25,no=26,missing=25
				25:[DOC_AGE<189] yes=51,no=52,missing=52
					51:[D_KEYWORD_MICRO_MEAN_COEC<0.141999] yes=103,no=104,missing=104
						103:leaf=-0.0328693
						104:leaf=0.0693395
					52:[C_D_U_KEYWORD_GENDER_MICRO_MEAN_COEC<0.105999] yes=105,no=106,missing=106
						105:leaf=0.213185
						106:leaf=0.00971243
				26:[C_D_U_TITLEMD5_GENDER_EC<14.89] yes=53,no=54,missing=54
					53:[D_CATEGORY_MEAN_C<217648] yes=107,no=108,missing=108
						107:leaf=0.0537286
						108:leaf=0.128866
					54:[U_KEYWORD_MAX_C<254.007] yes=109,no=110,missing=109
						109:leaf=-0.0294745
						110:leaf=0.0254763
		6:[TIME_OF_DAY<2] yes=13,no=14,missing=14
			13:[U_KEYWORD_MEAN_EC<18075.7] yes=27,no=28,missing=27
				27:[DAY_OF_WEEK<3] yes=55,no=56,missing=56
					55:[D_TITLEMD5_COEC<0.135999] yes=111,no=112,missing=112
						111:leaf=-0.00621195
						112:leaf=0.00391495
					56:[D_KEYWORD_MICRO_MEAN_COEC<0.117999] yes=113,no=114,missing=114
						113:leaf=-0.000488106
						114:leaf=0.00750865
				28:[U_KEYWORD_MICRO_MEAN_COEC<0.129999] yes=57,no=58,missing=58
					57:[C_D_U_TITLEMD5_CATEGORY_MICRO_MAX_COEC<0.096999] yes=115,no=116,missing=115
						115:leaf=0.0240541
						116:leaf=0.00905307
					58:[D_KEYWORD_MACRO_MEAN_COEC<0.113999] yes=117,no=118,missing=118
						117:leaf=0.00381277
						118:leaf=0.010106
			14:[D_KEYWORD_MICRO_MEAN_COEC<0.102999] yes=29,no=30,missing=30
				29:[D_CATEGORY_MEAN_C<57633.2] yes=59,no=60,missing=59
					59:[D_CATEGORY_MEAN_EC<208205] yes=119,no=120,missing=119
						119:leaf=-0.00441417
						120:leaf=-0.0169271
					60:[D_CATEGORY_MACRO_MAX_COEC<0.113999] yes=121,no=122,missing=122
						121:leaf=-0.00566089
						122:leaf=0.00697003
				30:[WORD_COUNT<1000] yes=61,no=62,missing=61
					61:[D_KEYWORD_MEAN_EC<36134.4] yes=123,no=124,missing=124
						123:leaf=-0.000608103
						124:leaf=-0.00459256
					62:[D_CATEGORY_MAX_EC<441430] yes=125,no=126,missing=125
						125:leaf=0.0030245
						126:leaf=-0.000528492
booster[88]:
0:[U_KEYWORD_MACRO_MAX_COEC<0.001999] yes=1,no=2,missing=2
	1:[D_KEYWORD_MICRO_MEAN_COEC<0.126999] yes=3,no=4,missing=4
		3:[D_CATEGORY_MICRO_MAX_COEC<0.140999] yes=7,no=8,missing=8
			7:[U_KEYWORD_MICRO_MAX_COEC<0.143999] yes=15,no=16,missing=16
				15:[D_KEYWORD_MEAN_EC<12426.2] yes=31,no=32,missing=32
					31:[D_CATEGORY_MAX_EC<747818] yes=63,no=64,missing=64
						63:leaf=0.00135473
						64:leaf=0.0163441
					32:[KW_REL<0.000999] yes=65,no=66,missing=66
						65:leaf=-0.0180076
						66:leaf=0.000495087
				16:[D_TITLEMD5_COEC<0.084999] yes=33,no=34,missing=33
					33:[U_CITY_COEC<0.136999] yes=67,no=68,missing=67
						67:leaf=-0.0127672
						68:leaf=-0.00163666
					34:[D_CATEGORY_MAX_EC<649022] yes=69,no=70,missing=70
						69:leaf=-0.00824148
						70:leaf=0.000565794
			8:[D_TITLEMD5_COEC<0.103999] yes=17,no=18,missing=17
				17:[KW_REL<0.003999] yes=35,no=36,missing=36
					35:[D_KEYWORD_MEAN_C<4274.46] yes=71,no=72,missing=72
						71:leaf=0.00299871
						72:leaf=-0.00932415
					36:[WORD_COUNT<1278] yes=73,no=74,missing=74
						73:leaf=0.000510941
						74:leaf=0.0222489
				18:[DAY_OF_WEEK<4] yes=37,no=38,missing=38
					37:[D_KEYWORD_MEAN_C<13410.2] yes=75,no=76,missing=76
						75:leaf=0.0159269
						76:leaf=-0.0202464
					38:[D_CATEGORY_MACRO_MEAN_COEC<0.148999] yes=77,no=78,missing=77
						77:leaf=-0.00146928
						78:leaf=0.0180633
		4:[CAT_REL<0.049999] yes=9,no=10,missing=10
			9:[U_CATEGORY_MAX_C<3615.15] yes=19,no=20,missing=20
				19:[D_CATEGORY_MAX_EC<3.43901e+06] yes=39,no=40,missing=39
					39:[IMAGE_COUNT<2] yes=79,no=80,missing=80
						79:leaf=0.0031214
						80:leaf=0.0201279
					40:[U_KEYWORD_MEAN_C<2615.5] yes=81,no=82,missing=82
						81:leaf=-0.0112798
						82:leaf=0.000521195
				20:[U_KW_LEN<2418] yes=41,no=42,missing=42
					41:[U_KEYWORD_MACRO_MEAN_COEC<0.027999] yes=83,no=84,missing=84
						83:leaf=-0.007454
						84:leaf=0.00499705
					42:[U_KEYWORD_MEAN_EC<8934.62] yes=85,no=86,missing=86
						85:leaf=-0.0259544
						86:leaf=0.0099606
			10:[DOC_AGE<30] yes=21,no=22,missing=22
				21:[U_KEYWORD_MACRO_MEAN_COEC<0.024999] yes=43,no=44,missing=44
					43:[C_D_U_CATEGORY_CATEGORY_MAX_EC<1067.51] yes=87,no=88,missing=88
						87:leaf=0.0253982
						88:leaf=0.0124149
					44:[D_CATEGORY_MICRO_MAX_COEC<0.150999] yes=89,no=90,missing=89
						89:leaf=0.0108862
						90:leaf=0.0215449
				22:[U_CITY_COEC<0.114999] yes=45,no=46,missing=46
					45:[C_D_U_CATEGORY_AGE_MEAN_C<1008.26] yes=91,no=92,missing=92
						91:leaf=-0.245421
						92:leaf=-0.0291579
					46:[D_TITLEMD5_COEC<0.059999] yes=93,no=94,missing=94
						93:leaf=0.0113383
						94:leaf=-0.00195645
	2:[U_KEYWORD_MACRO_MEAN_COEC<0.029999] yes=5,no=6,missing=6
		5:[D_KEYWORD_MEAN_EC<20521.5] yes=11,no=12,missing=12
			11:[KW_REL<0.000999] yes=23,no=24,missing=24
				23:[D_KEYWORD_MEAN_EC<9933.28] yes=47,no=48,missing=48
					47:[D_CATEGORY_MEAN_C<74438] yes=95,no=96,missing=96
						95:leaf=-0.0065379
						96:leaf=0.00486208
					48:[U_KEYWORD_MEAN_EC<19792.5] yes=97,no=98,missing=98
						97:leaf=-0.0160105
						98:leaf=-0.00499448
				24:[D_KEYWORD_MEAN_EC<11317.2] yes=49,no=50,missing=50
					49:[DOC_AGE<12] yes=99,no=100,missing=100
						99:leaf=0.0133702
						100:leaf=0.00509103
					50:[D_KEYWORD_MICRO_MEAN_COEC<0.117999] yes=101,no=102,missing=102
						101:leaf=-0.00328036
						102:leaf=0.00546451
			12:[KW_REL<0.001999] yes=25,no=26,missing=26
				25:[U_KEYWORD_MEAN_EC<19991] yes=51,no=52,missing=52
					51:[U_KW_LEN<1210] yes=103,no=104,missing=104
						103:leaf=-0.00775136
						104:leaf=-0.0187173
					52:[D_KEYWORD_MEAN_EC<37202.1] yes=105,no=106,missing=106
						105:leaf=-0.00269757
						106:leaf=-0.0115274
				26:[D_KEYWORD_MEAN_EC<44113.7] yes=53,no=54,missing=54
					53:[D_CATEGORY_MICRO_MAX_COEC<0.104999] yes=107,no=108,missing=108
						107:leaf=-0.00385201
						108:leaf=0.00337956
					54:[KW_REL<0.004999] yes=109,no=110,missing=110
						109:leaf=-0.00691932
						110:leaf=0.00177462
		6:[IMAGE_COUNT<0.999999] yes=13,no=14,missing=13
			13:[D_CATEGORY_MACRO_MAX_COEC<0.127999] yes=27,no=28,missing=28
				27:[D_TITLEMD5_COEC<0.054999] yes=55,no=56,missing=56
					55:[C_D_U_TITLEMD5_CATEGORY_MICRO_MAX_COEC<0.118999] yes=111,no=112,missing=111
						111:leaf=0.00389084
						112:leaf=-0.0703531
					56:[D_PUBLISHER_COEC<0.113999] yes=113,no=114,missing=114
						113:leaf=-0.0125861
						114:leaf=-0.0316719
				28:[D_TITLEMD5_C<19636.7] yes=57,no=58,missing=57
					57:[DOC_AGE<34] yes=115,no=116,missing=115
						115:leaf=-0.00450012
						116:leaf=0.013524
					58:[U_KEYWORD_MICRO_MEAN_COEC<0.138999] yes=117,no=118,missing=118
						117:leaf=-0.0357046
						118:leaf=-0.0719284
			14:[U_KEYWORD_MAX_C<421.292] yes=29,no=30,missing=30
				29:[C_D_U_CATEGORY_CATEGORY_MACRO_MEAN_COEC<0.014999] yes=59,no=60,missing=59
					59:[C_D_U_TITLEMD5_CATEGORY_MAX_EC<1.826] yes=119,no=120,missing=120
						119:leaf=5.23973e-05
						120:leaf=0.00757779
					60:[U_KEYWORD_MACRO_MEAN_COEC<0.032999] yes=121,no=122,missing=122
						121:leaf=0.000318179
						122:leaf=0.00383279
				30:[D_CATEGORY_MAX_EC<609243] yes=61,no=62,missing=61
					61:[CAT_REL<0.007999] yes=123,no=124,missing=124
						123:leaf=0.00349326
						124:leaf=-0.00268671
					62:[D_TITLEMD5_COEC<0.165999] yes=125,no=126,missing=125
						125:leaf=-0.00329278
						126:leaf=0.000680684
booster[89]:
0:[KW_REL<0.002999] yes=1,no=2,missing=1
	1:[U_CATEGORY_MAX_C<4649.23] yes=3,no=4,missing=4
		3:[D_KEYWORD_MEAN_EC<28091.3] yes=7,no=8,missing=8
			7:[U_CATEGORY_MACRO_MAX_COEC<0.020999] yes=15,no=16,missing=16
				15:[D_CATEGORY_MACRO_MEAN_COEC<0.132999] yes=31,no=32,missing=32
					31:[CAT_REL<0.045999] yes=63,no=64,missing=64
						63:leaf=-0.00306482
						64:leaf=0.00392
					32:[CAT_REL<0.043999] yes=65,no=66,missing=66
						65:leaf=0.00389144
						66:leaf=0.0125463
				16:[CAT_REL<0.123999] yes=33,no=34,missing=34
					33:[D_CATEGORY_MEAN_EC<1.70461e+06] yes=67,no=68,missing=68
						67:leaf=-0.0109418
						68:leaf=-0.00428442
					34:[U_CAT_LEN<13] yes=69,no=70,missing=70
						69:leaf=-0.00414393
						70:leaf=0.0100507
			8:[D_KEYWORD_MEAN_EC<69842.9] yes=17,no=18,missing=18
				17:[KW_REL<0.000999] yes=35,no=36,missing=36
					35:[D_KEYWORD_MICRO_MEAN_COEC<0.102999] yes=71,no=72,missing=72
						71:leaf=0.00764274
						72:leaf=-0.0244086
					36:[U_KEYWORD_MEAN_EC<20428.2] yes=73,no=74,missing=74
						73:leaf=-0.00770184
						74:leaf=-0.00183231
				18:[D_KEYWORD_MACRO_MAX_COEC<0.042999] yes=37,no=38,missing=38
					37:[U_KW_LEN<1154] yes=75,no=76,missing=76
						75:leaf=-0.00771186
						76:leaf=-0.0269778
					38:[WORD_COUNT<352] yes=77,no=78,missing=78
						77:leaf=-0.0617952
						78:leaf=-0.0017733
		4:[U_CATEGORY_MICRO_MAX_COEC<0.123999] yes=9,no=10,missing=10
			9:[U_KEYWORD_MACRO_MEAN_COEC<0.045999] yes=19,no=20,missing=20
				19:[U_CATEGORY_MACRO_MAX_COEC<0.032999] yes=39,no=40,missing=40
					39:[U_CATEGORY_MACRO_MAX_COEC<0.021999] yes=79,no=80,missing=80
						79:leaf=0.00031068
						80:leaf=-0.00678162
					40:[U_KEYWORD_MACRO_MAX_COEC<0.003999] yes=81,no=82,missing=82
						81:leaf=-0.015277
						82:leaf=-0.0368365
				20:[CAT_REL<0.006999] yes=41,no=42,missing=42
					41:[U_KEYWORD_MACRO_MEAN_COEC<0.113999] yes=83,no=84,missing=84
						83:leaf=0.00504762
						84:leaf=0.0193678
					42:[DAY_OF_WEEK<0.999999] yes=85,no=86,missing=86
						85:leaf=-0.0190796
						86:leaf=-0.00397324
			10:[U_CATEGORY_MACRO_MAX_COEC<0.027999] yes=21,no=22,missing=22
				21:[D_KEYWORD_MEAN_C<6081.36] yes=43,no=44,missing=44
					43:[DOC_AGE<24] yes=87,no=88,missing=88
						87:leaf=0.00526847
						88:leaf=0.013123
					44:[D_KEYWORD_MACRO_MAX_COEC<0.041999] yes=89,no=90,missing=90
						89:leaf=-0.00323897
						90:leaf=0.00492372
				22:[DAY_OF_WEEK<0.999999] yes=45,no=46,missing=45
					45:[D_KEYWORD_MACRO_MEAN_COEC<0.138999] yes=91,no=92,missing=91
						91:leaf=-0.0078447
						92:leaf=0.00216853
					46:[U_CATEGORY_MAX_EC<51151.1] yes=93,no=94,missing=94
						93:leaf=-0.00642845
						94:leaf=0.00112705
	2:[D_KEYWORD_MEAN_EC<41669.4] yes=5,no=6,missing=5
		5:[U_KW_LEN<668] yes=11,no=12,missing=12
			11:[U_KEYWORD_MAX_C<732.616] yes=23,no=24,missing=23
				23:[D_KEYWORD_MAX_EC<25515.3] yes=47,no=48,missing=47
					47:[DOC_AGE<14] yes=95,no=96,missing=96
						95:leaf=0.00109633
						96:leaf=-0.00566645
					48:[WORD_COUNT<1991] yes=97,no=98,missing=98
						97:leaf=-0.0141923
						98:leaf=-0.046065
				24:[D_KEYWORD_MICRO_MEAN_COEC<0.142999] yes=49,no=50,missing=50
					49:[C_D_U_TITLEMD5_CATEGORY_MICRO_MAX_COEC<0.022999] yes=99,no=100,missing=99
						99:leaf=-0.0498862
						100:leaf=-0.0179664
					50:[WORD_COUNT<1158] yes=101,no=102,missing=102
						101:leaf=-0.016918
						102:leaf=-0.00175509
			12:[D_CATEGORY_MICRO_MEAN_COEC<0.112999] yes=25,no=26,missing=26
				25:[C_D_U_CATEGORY_CATEGORY_MICRO_MEAN_COEC<0.116999] yes=51,no=52,missing=51
					51:[KW_REL<0.004999] yes=103,no=104,missing=104
						103:leaf=0.00550538
						104:leaf=0.0192745
					52:[C_D_U_TITLEMD5_CATEGORY_MACRO_MAX_COEC<0.038999] yes=105,no=106,missing=106
						105:leaf=-0.00467794
						106:leaf=0.0107951
				26:[DOC_AGE<43] yes=53,no=54,missing=54
					53:[KW_REL<0.003999] yes=107,no=108,missing=108
						107:leaf=0.0098184
						108:leaf=0.0197703
					54:[D_KEYWORD_MACRO_MEAN_COEC<0.229999] yes=109,no=110,missing=109
						109:leaf=-0.00958081
						110:leaf=-0.398386
		6:[D_PUBLISHER_COEC<0.137999] yes=13,no=14,missing=14
			13:[D_KEYWORD_MACRO_MAX_COEC<0.026999] yes=27,no=28,missing=28
				27:[D_TITLEMD5_C<43.419] yes=55,no=56,missing=55
					55:[D_TITLEMD5_COEC<0.023999] yes=111,no=112,missing=111
						111:leaf=-0.0124473
						112:leaf=-0.00238849
					56:[KW_REL<0.004999] yes=113,no=114,missing=114
						113:leaf=0.00198736
						114:leaf=0.00936724
				28:[D_CATEGORY_MAX_EC<693330] yes=57,no=58,missing=58
					57:[D_CATEGORY_MAX_EC<557356] yes=115,no=116,missing=116
						115:leaf=-0.00420762
						116:leaf=-0.0246308
					58:[WORD_COUNT<2159] yes=117,no=118,missing=118
						117:leaf=-0.00340025
						118:leaf=0.00915113
			14:[C_D_U_CATEGORY_CATEGORY_MICRO_MEAN_COEC<0.098999] yes=29,no=30,missing=29
				29:[D_CATEGORY_MAX_EC<779621] yes=59,no=60,missing=59
					59:[D_TITLEMD5_COEC<0.023999] yes=119,no=120,missing=120
						119:leaf=-0.0288026
						120:leaf=0.00653353
					60:[D_TITLEMD5_COEC<0.120999] yes=121,no=122,missing=122
						121:leaf=0.00454075
						122:leaf=0.0217653
				30:[D_TITLEMD5_COEC<0.214999] yes=61,no=62,missing=62
					61:[DAY_OF_WEEK<3] yes=123,no=124,missing=124
						123:leaf=0.00222175
						124:leaf=-0.0028982
					62:[DOC_AGE<12] yes=125,no=126,missing=126
						125:leaf=0.0106573
						126:leaf=0.00210464
