booster[0]:
0:[D_PUBLISHER_COEC<0.0577036] yes=1,no=2,missing=2,gain=6780.21,cover=1.76566e+06
	1:[U_KW_LEN<0.5] yes=3,no=4,missing=3,gain=4265.5,cover=1.44067e+06
		3:[D_CONID_COEC<0.0545695] yes=7,no=8,missing=7,gain=624.253,cover=316893
			7:[D_CONID_COEC<0.0403594] yes=15,no=16,missing=16,gain=404.085,cover=277294
				15:leaf=-0.0117066,cover=45690.4
				16:leaf=-0.00656141,cover=231604
			8:[D_CONID_C<34.575] yes=17,no=18,missing=18,gain=153.335,cover=39598.3
				17:leaf=-0.00336294,cover=22841.3
				18:leaf=0.00293442,cover=16757
		4:[D_CONID_COEC<0.0390234] yes=9,no=10,missing=10,gain=2873.71,cover=1.12378e+06
			9:[D_CAT_LEN<0.5] yes=19,no=20,missing=19,gain=350.632,cover=139225
				19:leaf=-0.00349205,cover=52316.2
				20:leaf=-0.00867303,cover=86909.1
			10:[D_CONID_COEC<0.0731634] yes=21,no=22,missing=21,gain=1731.56,cover=984554
				21:leaf=0.00027326,cover=892099
				22:leaf=0.0074617,cover=92455.2
	2:[D_CONID_COEC<0.0487515] yes=5,no=6,missing=6,gain=1294.47,cover=324984
		5:[U_KW_LEN<0.5] yes=11,no=12,missing=11,gain=71.4921,cover=25684.1
			11:[TIME_OF_DAY<18.5] yes=23,no=24,missing=23,gain=68.691,cover=5755.24
				23:leaf=-0.0112888,cover=4979.19
				24:leaf=0.00469889,cover=776.051
			12:[C_D_U_CATEGORY_GENDER_MAX_EC<2556.93] yes=25,no=26,missing=25,gain=75.3799,cover=19928.9
				25:leaf=-0.00184958,cover=18171.5
				26:leaf=-0.0126916,cover=1757.35
		6:[WORD_COUNT<3262] yes=13,no=14,missing=13,gain=955.072,cover=299300
			13:[DOC_AGE<4.5] yes=27,no=28,missing=27,gain=519.507,cover=257411
				27:leaf=0.00355922,cover=101953
				28:leaf=0.00815202,cover=155458
			14:[C_D_U_CATEGORY_CITY_MACRO_MAX_COEC<0.0591319] yes=29,no=30,missing=29,gain=581.249,cover=41888.3
				29:leaf=0.00630438,cover=14327.2
				30:leaf=0.0187205,cover=27561.1
booster[1]:
0:[D_PUBLISHER_COEC<0.0577036] yes=1,no=2,missing=1,gain=6449.86,cover=1.76443e+06
	1:[U_KW_LEN<0.5] yes=3,no=4,missing=3,gain=4098.47,cover=1.44422e+06
		3:[D_CONID_COEC<0.0628003] yes=7,no=8,missing=7,gain=576.648,cover=316179
			7:[D_CONID_COEC<0.033413] yes=15,no=16,missing=16,gain=369.189,cover=282703
				15:leaf=-0.0120119,cover=34874.6
				16:leaf=-0.00651735,cover=247829
			8:[D_CONID_C<24.6153] yes=17,no=18,missing=18,gain=127.918,cover=33476
				17:leaf=-0.00367292,cover=15060
				18:leaf=0.00253976,cover=18416
		4:[D_CONID_COEC<0.0400167] yes=9,no=10,missing=10,gain=2608.61,cover=1.12804e+06
			9:[WORD_COUNT<1898.5] yes=19,no=20,missing=19,gain=323.564,cover=144440
				19:leaf=-0.00890471,cover=65140.8
				20:leaf=-0.00414872,cover=79299.1
			10:[D_CONID_COEC<0.0721433] yes=21,no=22,missing=21,gain=1408.4,cover=983600
				21:leaf=0.000276002,cover=886495
				22:leaf=0.00661881,cover=97105
	2:[D_CONID_COEC<0.0630496] yes=5,no=6,missing=6,gain=1063.75,cover=320214
		5:[WORD_COUNT<759.5] yes=11,no=12,missing=11,gain=172.033,cover=34630.3
			11:[D_CONID_COEC<0.0328854] yes=23,no=24,missing=24,gain=104.599,cover=4939.96
				23:leaf=-0.00669148,cover=1115.33
				24:leaf=0.0107055,cover=3824.64
			12:[WORD_COUNT<1178] yes=25,no=26,missing=25,gain=131.665,cover=29690.4
				25:leaf=-0.0107864,cover=4901.23
				26:leaf=-0.00181835,cover=24789.1
		6:[WORD_COUNT<3230] yes=13,no=14,missing=13,gain=737.594,cover=285584
			13:[D_CONID_COEC<0.120065] yes=27,no=28,missing=27,gain=462.355,cover=245172
				27:leaf=0.00556919,cover=214782
				28:leaf=0.0121584,cover=30389.4
			14:[C_D_U_CATEGORY_CITY_MACRO_MAX_COEC<0.0591364] yes=29,no=30,missing=29,gain=498.595,cover=40412
				29:leaf=0.00578795,cover=13393.9
				30:leaf=0.0175867,cover=27018.1
booster[2]:
0:[D_PUBLISHER_COEC<0.0577036] yes=1,no=2,missing=2,gain=5728.48,cover=1.76e+06
	1:[U_KW_LEN<0.5] yes=3,no=4,missing=3,gain=3479.78,cover=1.43531e+06
		3:[D_CONID_COEC<0.0628003] yes=7,no=8,missing=7,gain=446.537,cover=316392
			7:[D_CONID_COEC<0.0333449] yes=15,no=16,missing=16,gain=307.127,cover=283354
				15:leaf=-0.0110536,cover=35141.1
				16:leaf=-0.00605922,cover=248213
			8:[D_CONID_C<27.8805] yes=17,no=18,missing=18,gain=116.196,cover=33038.1
				17:leaf=-0.00361103,cover=15919.2
				18:leaf=0.00232317,cover=17118.9
		4:[D_CONID_COEC<0.0398435] yes=9,no=10,missing=10,gain=2221.76,cover=1.11892e+06
			9:[D_CAT_LEN<0.5] yes=19,no=20,missing=19,gain=266.432,cover=143906
				19:leaf=-0.00310861,cover=53683.7
				20:leaf=-0.00755731,cover=90221.8
			10:[D_CONID_COEC<0.072077] yes=21,no=22,missing=21,gain=1638.55,cover=975011
				21:leaf=6.53244e-05,cover=875177
				22:leaf=0.0068264,cover=99833.5
	2:[D_CONID_COEC<0.0616552] yes=5,no=6,missing=6,gain=943.893,cover=324690
		5:[WORD_COUNT<759.5] yes=11,no=12,missing=11,gain=135.259,cover=33381.9
			11:[C_D_U_CATEGORY_CITY_MAX_EC<524.566] yes=23,no=24,missing=23,gain=89.5785,cover=4524.53
				23:leaf=0.0100285,cover=3415.43
				24:leaf=-0.0063217,cover=1109.1
			12:[U_KW_LEN<0.5] yes=25,no=26,missing=25,gain=85.5477,cover=28857.4
				25:leaf=-0.00812065,cover=6927.16
				26:leaf=-0.001747,cover=21930.2
		6:[C_D_U_CATEGORY_AGE_MACRO_MAX_COEC<0.0926228] yes=13,no=14,missing=13,gain=735.893,cover=291308
			13:[U_KW_LEN<0.5] yes=27,no=28,missing=27,gain=442.057,cover=262639
				27:leaf=0.00209472,cover=56138.3
				28:leaf=0.00709855,cover=206500
			14:[WORD_COUNT<3224.5] yes=29,no=30,missing=29,gain=222.909,cover=28669.3
				29:leaf=0.00827769,cover=9656.18
				30:leaf=0.0176076,cover=19013.1
booster[3]:
0:[D_PUBLISHER_COEC<0.0577036] yes=1,no=2,missing=1,gain=5131.69,cover=1.76109e+06
	1:[U_KW_LEN<0.5] yes=3,no=4,missing=3,gain=3288.05,cover=1.44215e+06
		3:[D_CONID_COEC<0.0399642] yes=7,no=8,missing=8,gain=462.221,cover=316673
			7:[D_CONID_EC<18.0315] yes=15,no=16,missing=16,gain=86.7772,cover=44204.5
				15:leaf=-0.00749307,cover=15127.2
				16:leaf=-0.0121634,cover=29077.3
			8:[U_AGE_2<0.5] yes=17,no=18,missing=17,gain=337.863,cover=272469
				17:leaf=-0.00710135,cover=115797
				18:leaf=-0.00353963,cover=156671
		4:[D_CONID_COEC<0.0403079] yes=9,no=10,missing=10,gain=2312.87,cover=1.12548e+06
			9:[D_PUBLISHER_COEC<0.0217995] yes=19,no=20,missing=19,gain=225.647,cover=144899
				19:leaf=-0.0117443,cover=15064.9
				20:leaf=-0.00527972,cover=129834
			10:[CAT_REL<0.0220305] yes=21,no=22,missing=21,gain=1260.33,cover=980580
				21:leaf=-0.000114649,cover=772473
				22:leaf=0.00426932,cover=208107
	2:[D_CONID_COEC<0.0586008] yes=5,no=6,missing=6,gain=956.735,cover=318934
		5:[D_CONID_COEC<0.0373293] yes=11,no=12,missing=12,gain=117.655,cover=31957
			11:[D_CONID_C<13.7627] yes=23,no=24,missing=24,gain=82.9684,cover=19727.6
				23:leaf=-0.00420169,cover=18834.8
				24:leaf=-0.0197936,cover=892.794
			12:[DOC_AGE<8.5] yes=25,no=26,missing=25,gain=60.7298,cover=12229.4
				25:leaf=0.011449,cover=1322.24
				26:leaf=0.000106282,cover=10907.1
		6:[WORD_COUNT<2766.5] yes=13,no=14,missing=13,gain=735.078,cover=286977
			13:[D_CONID_C<54.9119] yes=27,no=28,missing=27,gain=377.158,cover=228699
				27:leaf=0.00448202,cover=195209
				28:leaf=0.0102253,cover=33489.8
			14:[C_D_U_CATEGORY_CITY_MACRO_MAX_COEC<0.0398657] yes=29,no=30,missing=29,gain=433.902,cover=58278.4
				29:leaf=0.00590311,cover=21179.6
				30:leaf=0.0148732,cover=37098.8
booster[4]:
0:[D_PUBLISHER_COEC<0.0577036] yes=1,no=2,missing=1,gain=4733.42,cover=1.76636e+06
	1:[U_KW_LEN<0.5] yes=3,no=4,missing=3,gain=2904.21,cover=1.44701e+06
		3:[D_CONID_COEC<0.0329846] yes=7,no=8,missing=8,gain=450.073,cover=317388
			7:[DAY_OF_WEEK<2.5] yes=15,no=16,missing=15,gain=113.994,cover=34179.3
				15:leaf=-0.00670465,cover=11173.8
				16:leaf=-0.0128614,cover=23005.4
			8:[D_CONID_COEC<0.073172] yes=17,no=18,missing=17,gain=361.753,cover=283209
				17:leaf=-0.00536086,cover=255717
				18:leaf=0.00067508,cover=27492.1
		4:[D_CONID_COEC<0.040017] yes=9,no=10,missing=10,gain=2040.48,cover=1.12962e+06
			9:[D_PUBLISHER_COEC<0.0286957] yes=19,no=20,missing=20,gain=302.665,cover=143492
				19:leaf=-0.00966192,cover=34580.7
				20:leaf=-0.00429266,cover=108911
			10:[D_CONID_COEC<0.0711485] yes=21,no=22,missing=21,gain=1287.78,cover=986133
				21:leaf=0.000186787,cover=885829
				22:leaf=0.00616434,cover=100304
	2:[D_CONID_COEC<0.0619725] yes=5,no=6,missing=6,gain=861.705,cover=319343
		5:[WORD_COUNT<759.5] yes=11,no=12,missing=11,gain=107.134,cover=33647.9
			11:[C_D_U_CATEGORY_GENDER_MAX_C<30.422] yes=23,no=24,missing=23,gain=55.1294,cover=4642.07
				23:leaf=0.00813918,cover=3488.3
				24:leaf=-0.00446556,cover=1153.77
			12:[WORD_COUNT<1179] yes=25,no=26,missing=25,gain=85.301,cover=29005.8
				25:leaf=-0.0092232,cover=4852.38
				26:leaf=-0.00195889,cover=24153.5
		6:[WORD_COUNT<3137.5] yes=13,no=14,missing=13,gain=673.69,cover=285695
			13:[CAT_REL<0.360884] yes=27,no=28,missing=27,gain=361.077,cover=238524
				27:leaf=0.00428528,cover=184819
				28:leaf=0.00894284,cover=53705.2
			14:[C_D_U_CATEGORY_CITY_MACRO_MAX_COEC<0.0591769] yes=29,no=30,missing=29,gain=335.623,cover=47171.4
				29:leaf=0.00666009,cover=18661.5
				30:leaf=0.0152857,cover=28509.9
booster[5]:
0:[D_PUBLISHER_COEC<0.0577704] yes=1,no=2,missing=2,gain=4281.21,cover=1.76738e+06
	1:[U_KW_LEN<0.5] yes=3,no=4,missing=3,gain=2625.25,cover=1.44067e+06
		3:[D_CONID_COEC<0.0496317] yes=7,no=8,missing=8,gain=390.321,cover=316564
			7:[D_CONID_EC<18.8203] yes=15,no=16,missing=16,gain=133.831,cover=55096.8
				15:leaf=-0.00534355,cover=17421.4
				16:leaf=-0.0106436,cover=37675.4
			8:[WORD_COUNT<1292.5] yes=17,no=18,missing=17,gain=296.535,cover=261468
				17:leaf=-0.00208793,cover=93904.9
				18:leaf=-0.00559777,cover=167563
		4:[D_CONID_COEC<0.0402817] yes=9,no=10,missing=10,gain=1528.35,cover=1.1241e+06
			9:[WORD_COUNT<1898.5] yes=19,no=20,missing=19,gain=287.19,cover=148085
				19:leaf=-0.00713988,cover=67124.3
				20:leaf=-0.00271668,cover=80960.6
			10:[D_CONID_COEC<0.0731694] yes=21,no=22,missing=21,gain=1123.61,cover=976019
				21:leaf=0.000182083,cover=883944
				22:leaf=0.00598603,cover=92074.2
	2:[D_CONID_COEC<0.0777018] yes=5,no=6,missing=6,gain=797.504,cover=326711
		5:[D_CONID_COEC<0.025563] yes=11,no=12,missing=12,gain=147.171,cover=41614.9
			11:[DAY_OF_WEEK<4.5] yes=23,no=24,missing=23,gain=43.9969,cover=12953
				23:leaf=-0.00970005,cover=4447.22
				24:leaf=-0.0035626,cover=8505.73
			12:[CAT_REL<0.003039] yes=25,no=26,missing=25,gain=112.59,cover=28662
				25:leaf=-0.0012019,cover=20642.5
				26:leaf=0.00577878,cover=8019.44
		6:[WORD_COUNT<3265] yes=13,no=14,missing=13,gain=534.343,cover=285096
			13:[CAT_REL<0.030227] yes=27,no=28,missing=27,gain=395.284,cover=243362
				27:leaf=0.00396049,cover=171445
				28:leaf=0.00837696,cover=71917.2
			14:[C_D_U_CATEGORY_CITY_MACRO_MAX_COEC<0.0591364] yes=29,no=30,missing=29,gain=420.873,cover=41734.4
				29:leaf=0.00425783,cover=13833.2
				30:leaf=0.0149246,cover=27901.2
booster[6]:
0:[C_D_U_PUBLISHER_AGE_COEC<0.0493552] yes=1,no=2,missing=2,gain=3723.4,cover=1.76839e+06
	1:[U_KW_LEN<0.5] yes=3,no=4,missing=3,gain=2044.6,cover=1.20903e+06
		3:[D_CONID_COEC<0.0623621] yes=7,no=8,missing=7,gain=311.817,cover=272949
			7:[D_CONID_COEC<0.0388125] yes=15,no=16,missing=16,gain=210.485,cover=248823
				15:leaf=-0.00918327,cover=39092.6
				16:leaf=-0.00518698,cover=209731
			8:[D_CONID_C<11.8086] yes=17,no=18,missing=18,gain=94.9479,cover=24125.7
				17:leaf=-0.00352095,cover=10217
				18:leaf=0.00282694,cover=13908.8
		4:[D_CONID_COEC<0.0390237] yes=9,no=10,missing=10,gain=1339.46,cover=936084
			9:[D_CAT_LEN<0.5] yes=19,no=20,missing=19,gain=273.156,cover=124257
				19:leaf=-0.0022412,cover=47822.4
				20:leaf=-0.00705934,cover=76434.5
			10:[CAT_REL<0.024689] yes=21,no=22,missing=21,gain=1065.41,cover=811827
				21:leaf=-0.00058713,cover=634805
				22:leaf=0.00379944,cover=177022
	2:[D_CONID_COEC<0.105842] yes=5,no=6,missing=5,gain=1214.98,cover=559360
		5:[D_CONID_COEC<0.0405801] yes=11,no=12,missing=12,gain=960.331,cover=490753
			11:[D_PUBLISHER_EC<8157.01] yes=23,no=24,missing=24,gain=72.603,cover=39698.3
				23:leaf=-0.00352474,cover=28395.6
				24:leaf=-0.00826311,cover=11302.7
			12:[U_KW_LEN<0.5] yes=25,no=26,missing=25,gain=652.839,cover=451054
				25:leaf=-0.000562031,cover=90392.3
				26:leaf=0.00418991,cover=360662
		6:[D_CONID_C<11.4159] yes=13,no=14,missing=14,gain=88.9735,cover=68607.2
			13:[D_PUBLISHER_EC<65.5681] yes=27,no=28,missing=28,gain=67.2775,cover=10648.5
				27:leaf=-0.0229376,cover=203.273
				28:leaf=0.00603874,cover=10445.2
			14:[D_CONID_COEC<0.229867] yes=29,no=30,missing=30,gain=68.8913,cover=57958.7
				29:leaf=0.00966068,cover=47776.7
				30:leaf=0.0141918,cover=10182
booster[7]:
0:[C_D_U_PUBLISHER_AGE_COEC<0.0576573] yes=1,no=2,missing=1,gain=3720.7,cover=1.77001e+06
	1:[U_KW_LEN<0.5] yes=3,no=4,missing=3,gain=2208.63,cover=1.39328e+06
		3:[D_CONID_COEC<0.0400718] yes=7,no=8,missing=8,gain=323.514,cover=307577
			7:[D_CONID_EC<15.9322] yes=15,no=16,missing=16,gain=54.6125,cover=43573.7
				15:leaf=-0.00629138,cover=13958.9
				16:leaf=-0.0100859,cover=29614.8
			8:[DOC_AGE<1.5] yes=17,no=18,missing=17,gain=329.873,cover=264003
				17:leaf=-0.00752686,cover=58664.8
				18:leaf=-0.00327552,cover=205339
		4:[D_CONID_COEC<0.0396368] yes=9,no=10,missing=10,gain=1497.17,cover=1.0857e+06
			9:[D_CONID_EC<15.2959] yes=19,no=20,missing=20,gain=250.704,cover=139853
				19:leaf=-0.00235618,cover=57015.8
				20:leaf=-0.00666424,cover=82837.4
			10:[CAT_REL<0.0246905] yes=21,no=22,missing=21,gain=1033.12,cover=945848
				21:leaf=-0.00023019,cover=742480
				22:leaf=0.00379208,cover=203368
	2:[D_CONID_COEC<0.0486725] yes=5,no=6,missing=6,gain=684.938,cover=376731
		5:[D_CONID_EC<362.69] yes=11,no=12,missing=12,gain=71.1178,cover=30243.2
			11:[C_D_U_CATEGORY_AGE_MAX_C<459.461] yes=23,no=24,missing=23,gain=43.9838,cover=27062.9
				23:leaf=-0.00153717,cover=26107.3
				24:leaf=-0.0124533,cover=955.622
			12:[C_D_U_PUBLISHER_GENDER_COEC<0.0975481] yes=25,no=26,missing=26,gain=28.6932,cover=3180.31
				25:leaf=-0.0104895,cover=3119.9
				26:leaf=0.0240477,cover=60.4033
		6:[WORD_COUNT<3118.5] yes=13,no=14,missing=13,gain=489.154,cover=346488
			13:[CAT_REL<0.02155] yes=27,no=28,missing=27,gain=401.203,cover=292549
				27:leaf=0.00315493,cover=213169
				28:leaf=0.00731917,cover=79379.6
			14:[WORD_COUNT<3275.5] yes=29,no=30,missing=29,gain=358.343,cover=53939
				29:leaf=0.0134213,cover=27780.3
				30:leaf=0.00526664,cover=26158.7
booster[8]:
0:[D_PUBLISHER_COEC<0.0577036] yes=1,no=2,missing=1,gain=3371.71,cover=1.75691e+06
	1:[U_KW_LEN<0.5] yes=3,no=4,missing=3,gain=2039.87,cover=1.43754e+06
		3:[D_CONID_COEC<0.033413] yes=7,no=8,missing=8,gain=328.672,cover=315260
			7:[D_CONID_EC<16.2586] yes=15,no=16,missing=16,gain=92.7019,cover=34431.1
				15:leaf=-0.00611092,cover=13800.8
				16:leaf=-0.0114058,cover=20630.3
			8:[WORD_COUNT<1316.5] yes=17,no=18,missing=17,gain=276.465,cover=280829
				17:leaf=-0.0020501,cover=103235
				18:leaf=-0.00530387,cover=177593
		4:[D_CONID_COEC<0.0741148] yes=9,no=10,missing=9,gain=1292.31,cover=1.12228e+06
			9:[D_CONID_COEC<0.0385345] yes=19,no=20,missing=20,gain=1012.15,cover=1.03122e+06
				19:leaf=-0.00463256,cover=136691
				20:leaf=-1.30181e-05,cover=894526
			10:[D_CONID_C<18.7404] yes=21,no=22,missing=22,gain=326.984,cover=91066.4
				21:leaf=0.00217109,cover=39580
				22:leaf=0.00821519,cover=51486.5
	2:[D_CATEGORY_MACRO_MAX_COEC<0.0791516] yes=5,no=6,missing=5,gain=477.177,cover=319370
		5:[U_KW_LEN<0.5] yes=11,no=12,missing=11,gain=443.734,cover=251816
			11:[D_CONID_COEC<0.0998067] yes=23,no=24,missing=23,gain=170.392,cover=50857
				23:leaf=-0.00190682,cover=42388.1
				24:leaf=0.00586123,cover=8468.94
			12:[D_CONID_COEC<0.0928121] yes=25,no=26,missing=25,gain=250.448,cover=200959
				25:leaf=0.00384809,cover=169056
				26:leaf=0.00867814,cover=31903.2
		6:[WORD_COUNT<3260] yes=13,no=14,missing=13,gain=355.678,cover=67554.4
			13:[D_CONID_C<47.222] yes=27,no=28,missing=27,gain=81.3072,cover=43675.4
				27:leaf=0.00436037,cover=32722.9
				28:leaf=0.0093376,cover=10952.5
			14:[WORD_COUNT<3307.5] yes=29,no=30,missing=29,gain=34.5121,cover=23879
				29:leaf=0.0136551,cover=22574.6
				30:leaf=0.00528515,cover=1304.44
booster[9]:
0:[D_PUBLISHER_COEC<0.0549596] yes=1,no=2,missing=1,gain=3144.87,cover=1.76713e+06
	1:[U_KW_LEN<0.5] yes=3,no=4,missing=3,gain=1711.15,cover=1.37088e+06
		3:[D_CONID_COEC<0.0630714] yes=7,no=8,missing=7,gain=337.729,cover=301262
			7:[D_CONID_COEC<0.0294362] yes=15,no=16,missing=16,gain=227.928,cover=272095
				15:leaf=-0.00908297,cover=29685.1
				16:leaf=-0.00444116,cover=242410
			8:[D_CONID_C<49.6259] yes=17,no=18,missing=18,gain=108.012,cover=29167.2
				17:leaf=-0.00155543,cover=18743
				18:leaf=0.00479345,cover=10424.2
		4:[D_CONID_COEC<0.0642428] yes=9,no=10,missing=9,gain=1097.27,cover=1.06962e+06
			9:[D_CONID_COEC<0.0307434] yes=19,no=20,missing=20,gain=829.875,cover=970455
				19:leaf=-0.00486248,cover=104140
				20:leaf=-0.000138412,cover=866315
			10:[D_CONID_C<18.592] yes=21,no=22,missing=22,gain=319.58,cover=99164.4
				21:leaf=0.00193611,cover=47837.2
				22:leaf=0.00761657,cover=51327.2
	2:[D_CONID_COEC<0.0486974] yes=5,no=6,missing=6,gain=624.753,cover=396248
		5:[C_D_U_PUBLISHER_GENDER_COEC<0.100758] yes=11,no=12,missing=11,gain=65.5531,cover=29999.6
			11:[U_KW_LEN<0.5] yes=23,no=24,missing=23,gain=48.4829,cover=27295.2
				23:leaf=-0.00763038,cover=6060.59
				24:leaf=-0.00256022,cover=21234.7
			12:[C_D_U_CATEGORY_CITY_MAX_C<688.388] yes=25,no=26,missing=25,gain=29.7436,cover=2704.36
				25:leaf=0.00576643,cover=2549.86
				26:leaf=-0.0167604,cover=154.506
		6:[U_KW_LEN<0.5] yes=13,no=14,missing=13,gain=495.876,cover=366249
			13:[D_CONID_COEC<0.127295] yes=27,no=28,missing=27,gain=197.923,cover=79027.6
				27:leaf=1.46335e-05,cover=67529.7
				28:leaf=0.00711098,cover=11497.9
			14:[D_CATEGORY_MACRO_MAX_COEC<0.0738358] yes=29,no=30,missing=29,gain=361.673,cover=287221
				29:leaf=0.00470675,cover=237394
				30:leaf=0.00939242,cover=49827.3
booster[10]:
0:[D_PUBLISHER_COEC<0.0577704] yes=1,no=2,missing=1,gain=2792.6,cover=1.76599e+06
	1:[U_KW_LEN<0.5] yes=3,no=4,missing=3,gain=1639.29,cover=1.4455e+06
		3:[D_CONID_COEC<0.0504005] yes=7,no=8,missing=8,gain=297.169,cover=317894
			7:[D_CATEGORY_MACRO_MAX_COEC<0.0347369] yes=15,no=16,missing=16,gain=83.5166,cover=57142.1
				15:leaf=-0.0113059,cover=10886
				16:leaf=-0.00643785,cover=46256
			8:[WORD_COUNT<1295.5] yes=17,no=18,missing=17,gain=266.823,cover=260752
				17:leaf=-0.00128411,cover=95727
				18:leaf=-0.00460233,cover=165025
		4:[D_CONID_COEC<0.0391362] yes=9,no=10,missing=10,gain=1091.28,cover=1.12761e+06
			9:[D_CONID_EC<14.9776] yes=19,no=20,missing=20,gain=267.48,cover=139437
				19:leaf=-0.00158486,cover=58116.1
				20:leaf=-0.00602665,cover=81321.3
			10:[CAT_REL<0.0247415] yes=21,no=22,missing=21,gain=911.121,cover=988172
				21:leaf=-0.000231332,cover=781379
				22:leaf=0.00350095,cover=206794
	2:[WORD_COUNT<3265] yes=5,no=6,missing=5,gain=495.595,cover=320491
		5:[D_CONID_COEC<0.0463613] yes=11,no=12,missing=12,gain=408.227,cover=276314
			11:[U_KW_LEN<0.5] yes=23,no=24,missing=23,gain=44.9588,cover=23575.3
				23:leaf=-0.00694429,cover=5216.34
				24:leaf=-0.00168436,cover=18359
			12:[DOC_AGE<3.5] yes=25,no=26,missing=25,gain=398.895,cover=252739
				25:leaf=0.00111566,cover=80133
				26:leaf=0.00538443,cover=172606
		6:[WORD_COUNT<3275.5] yes=13,no=14,missing=13,gain=274.127,cover=44176.2
			13:[D_CONID_C<480.734] yes=27,no=28,missing=28,gain=21.7974,cover=23595.8
				27:leaf=0.00944947,cover=3984.87
				28:leaf=0.0135115,cover=19611
			14:[WORD_COUNT<5957.5] yes=29,no=30,missing=29,gain=139.196,cover=20580.4
				29:leaf=0.00123934,cover=11399.5
				30:leaf=0.00951151,cover=9180.87
booster[11]:
0:[D_PUBLISHER_COEC<0.0577036] yes=1,no=2,missing=1,gain=2741.01,cover=1.76494e+06
	1:[U_KW_LEN<0.5] yes=3,no=4,missing=3,gain=1433.34,cover=1.44187e+06
		3:[U_AGE_2<0.5] yes=7,no=8,missing=7,gain=251.87,cover=316933
			7:[D_CONID_COEC<0.0633877] yes=15,no=16,missing=15,gain=144.739,cover=138801
				15:leaf=-0.00603754,cover=124678
				16:leaf=-0.000696605,cover=14122.1
			8:[TIME_OF_DAY<16.5] yes=17,no=18,missing=17,gain=167.295,cover=178133
				17:leaf=-0.00331571,cover=150070
				18:leaf=0.000890264,cover=28063.1
		4:[D_CONID_COEC<0.0397283] yes=9,no=10,missing=10,gain=1065.65,cover=1.12494e+06
			9:[D_PUBLISHER_COEC<0.0305269] yes=19,no=20,missing=19,gain=312.443,cover=141515
				19:leaf=-0.00776836,cover=41923.3
				20:leaf=-0.00262297,cover=99591.6
			10:[CAT_REL<0.0247415] yes=21,no=22,missing=21,gain=922.434,cover=983425
				21:leaf=-0.000296525,cover=776813
				22:leaf=0.00346247,cover=206612
	2:[WORD_COUNT<2766.5] yes=5,no=6,missing=5,gain=466.634,cover=323071
		5:[U_KW_LEN<0.5] yes=11,no=12,missing=11,gain=319.659,cover=259181
			11:[D_CONID_COEC<0.0986701] yes=23,no=24,missing=23,gain=142.131,cover=56064
				23:leaf=-0.00134863,cover=45246.9
				24:leaf=0.00503091,cover=10817.1
			12:[D_CONID_C<55.27] yes=25,no=26,missing=25,gain=247.618,cover=203117
				25:leaf=0.00350578,cover=178966
				26:leaf=0.00889941,cover=24150.8
		6:[C_D_U_CATEGORY_CITY_MACRO_MAX_COEC<0.0591422] yes=13,no=14,missing=13,gain=243.404,cover=63890
			13:[DAY_OF_WEEK<5.5] yes=27,no=28,missing=27,gain=68.7397,cover=27562.1
				27:leaf=0.00208936,cover=14543.5
				28:leaf=0.00709112,cover=13018.6
			14:[D_CONID_EC<70.0573] yes=29,no=30,missing=30,gain=112.722,cover=36328
				29:leaf=-0.000193643,cover=2235.28
				30:leaf=0.0113967,cover=34092.7
booster[12]:
0:[D_PUBLISHER_COEC<0.0577036] yes=1,no=2,missing=2,gain=2152.29,cover=1.76463e+06
	1:[U_KW_LEN<0.5] yes=3,no=4,missing=3,gain=1321.42,cover=1.43875e+06
		3:[D_CONID_COEC<0.0603592] yes=7,no=8,missing=7,gain=262.093,cover=316236
			7:[D_PUBLISHER_EC<9716.36] yes=15,no=16,missing=16,gain=229.739,cover=281554
				15:leaf=-0.00371756,cover=249182
				16:leaf=-0.00819499,cover=32371.6
			8:[D_CONID_C<22.4539] yes=17,no=18,missing=18,gain=91.3519,cover=34682.6
				17:leaf=-0.00251494,cover=15295
				18:leaf=0.00265321,cover=19387.7
		4:[D_CONID_COEC<0.0644088] yes=9,no=10,missing=9,gain=943.794,cover=1.12252e+06
			9:[DOC_AGE<22.5] yes=19,no=20,missing=19,gain=821.585,cover=1.01293e+06
				19:leaf=-7.52431e-05,cover=913560
				20:leaf=-0.0048625,cover=99370.6
			10:[D_CONID_C<19.8106] yes=21,no=22,missing=22,gain=181.748,cover=109586
				21:leaf=0.00223797,cover=53058.1
				22:leaf=0.00631252,cover=56527.9
	2:[WORD_COUNT<2766.5] yes=5,no=6,missing=5,gain=432.837,cover=325881
		5:[CAT_REL<0.0138125] yes=11,no=12,missing=11,gain=280.066,cover=262785
			11:[D_CAT_LEN<0.5] yes=23,no=24,missing=23,gain=342.014,cover=184310
				23:leaf=0.00343614,cover=110197
				24:leaf=-0.000956575,cover=74112.7
			12:[D_CONID_COEC<0.0425191] yes=25,no=26,missing=26,gain=124.892,cover=78474.5
				25:leaf=-0.00275436,cover=4602.48
				26:leaf=0.00573434,cover=73872
		6:[C_D_U_CATEGORY_CITY_MACRO_MAX_COEC<0.0591754] yes=13,no=14,missing=13,gain=187.566,cover=63096.1
			13:[D_CATEGORY_MAX_C<88.2954] yes=27,no=28,missing=27,gain=90.9039,cover=28653.7
				27:leaf=0.0048238,cover=27889.7
				28:leaf=-0.0126473,cover=764.012
			14:[D_CONID_C<1.83389] yes=29,no=30,missing=30,gain=89.745,cover=34442.4
				29:leaf=-0.0028152,cover=1347.19
				30:leaf=0.010348,cover=33095.2
booster[13]:
0:[C_D_U_PUBLISHER_AGE_COEC<0.0493552] yes=1,no=2,missing=2,gain=2220.08,cover=1.76697e+06
	1:[U_KW_LEN<0.5] yes=3,no=4,missing=3,gain=919.519,cover=1.20572e+06
		3:[WORD_COUNT<1317.5] yes=7,no=8,missing=7,gain=189.879,cover=272709
			7:[D_CONID_COEC<0.0319959] yes=15,no=16,missing=16,gain=147.289,cover=96889.7
				15:leaf=-0.0081617,cover=8760.76
				16:leaf=-0.0013643,cover=88128.9
			8:[TIME_OF_DAY<11.5] yes=17,no=18,missing=17,gain=108.498,cover=175820
				17:leaf=-0.00589489,cover=93972.2
				18:leaf=-0.00340473,cover=81847.4
		4:[D_CONID_COEC<0.063185] yes=9,no=10,missing=9,gain=604.418,cover=933015
			9:[DOC_AGE<30.5] yes=19,no=20,missing=19,gain=570.382,cover=856295
				19:leaf=-0.000454489,cover=787229
				20:leaf=-0.00519341,cover=69065.7
			10:[D_CONID_C<40.8958] yes=21,no=22,missing=22,gain=162.562,cover=76720.2
				21:leaf=0.00231601,cover=54283.8
				22:leaf=0.00737569,cover=22436.4
	2:[D_CONID_COEC<0.115175] yes=5,no=6,missing=5,gain=713.018,cover=561247
		5:[D_CONID_COEC<0.0437423] yes=11,no=12,missing=12,gain=515.452,cover=501689
			11:[WORD_COUNT<1175] yes=23,no=24,missing=23,gain=71.6857,cover=44781.8
				23:leaf=-0.00697519,cover=9533.33
				24:leaf=-0.00208825,cover=35248.5
			12:[CAT_REL<0.001857] yes=25,no=26,missing=25,gain=390.476,cover=456907
				25:leaf=0.00169744,cover=352638
				26:leaf=0.00518032,cover=104269
		6:[D_CONID_C<11.0243] yes=13,no=14,missing=14,gain=114.747,cover=59558
			13:[D_PUBLISHER_COEC<0.0553163] yes=27,no=28,missing=28,gain=48.7348,cover=8176.25
				27:leaf=-0.00687293,cover=1235.03
				28:leaf=0.00390325,cover=6941.22
			14:[U_KW_LEN<0.5] yes=29,no=30,missing=29,gain=63.0043,cover=51381.8
				29:leaf=0.00568757,cover=13290.8
				30:leaf=0.00968668,cover=38091
booster[14]:
0:[D_PUBLISHER_COEC<0.0550742] yes=1,no=2,missing=2,gain=1815.78,cover=1.75992e+06
	1:[CAT_REL<0.013114] yes=3,no=4,missing=3,gain=1186.29,cover=1.3631e+06
		3:[D_CONID_COEC<0.0732849] yes=7,no=8,missing=7,gain=890.099,cover=1.11112e+06
			7:[D_CAT_LEN<0.5] yes=15,no=16,missing=15,gain=886.78,cover=1.02739e+06
				15:leaf=-0.000591159,cover=526848
				16:leaf=-0.00353004,cover=500546
			8:[D_CONID_C<15.1288] yes=17,no=18,missing=18,gain=296.15,cover=83725.6
				17:leaf=-0.000204635,cover=34604.6
				18:leaf=0.00583419,cover=49121
		4:[D_CONID_COEC<0.0270372] yes=9,no=10,missing=10,gain=483.954,cover=251979
			9:[CAT_REL<0.916443] yes=19,no=20,missing=19,gain=52.056,cover=29768.1
				19:leaf=-0.00316495,cover=27213.1
				20:leaf=-0.0106284,cover=2555.02
			10:[D_PUBLISHER_C<31.1362] yes=21,no=22,missing=22,gain=282.321,cover=222211
				21:leaf=-0.00066104,cover=42894.4
				22:leaf=0.00385452,cover=179316
	2:[D_CONID_COEC<0.0374574] yes=5,no=6,missing=6,gain=404.928,cover=396820
		5:[C_D_U_PUBLISHER_AGE_COEC<0.0759572] yes=11,no=12,missing=11,gain=60.8097,cover=22951.6
			11:[WORD_COUNT<680] yes=23,no=24,missing=23,gain=55.4595,cover=15089.3
				23:leaf=0.00367823,cover=1519.82
				24:leaf=-0.00639178,cover=13569.4
			12:[D_PUBLISHER_COEC<0.0682639] yes=25,no=26,missing=26,gain=54.581,cover=7862.32
				25:leaf=0.01131,cover=945.051
				26:leaf=-0.00149458,cover=6917.27
		6:[C_D_U_CATEGORY_AGE_MACRO_MAX_COEC<0.0926228] yes=13,no=14,missing=13,gain=341.785,cover=373868
			13:[U_KW_LEN<0.5] yes=27,no=28,missing=27,gain=285.091,cover=344923
				27:leaf=0.000157854,cover=75022
				28:leaf=0.00364224,cover=269902
			14:[WORD_COUNT<3243.5] yes=29,no=30,missing=29,gain=81.6807,cover=28944.8
				29:leaf=0.0048389,cover=9838.81
				30:leaf=0.010447,cover=19106
booster[15]:
0:[D_PUBLISHER_COEC<0.0577036] yes=1,no=2,missing=1,gain=1824.88,cover=1.75915e+06
	1:[D_CONID_COEC<0.0304194] yes=3,no=4,missing=4,gain=1079.67,cover=1.43971e+06
		3:[D_CONID_EC<16.295] yes=7,no=8,missing=8,gain=440.632,cover=134205
			7:[D_CAT_LEN<0.5] yes=15,no=16,missing=15,gain=646.088,cover=69490.4
				15:leaf=0.00400833,cover=25545.4
				16:leaf=-0.00599076,cover=43945
			8:[CAT_REL<0.015724] yes=17,no=18,missing=17,gain=114.304,cover=64714.6
				17:leaf=-0.00915011,cover=50766.2
				18:leaf=-0.00403933,cover=13948.5
		4:[CAT_REL<0.0243255] yes=9,no=10,missing=9,gain=1130.38,cover=1.3055e+06
			9:[DOC_AGE<1.5] yes=19,no=20,missing=19,gain=674.5,cover=1.09012e+06
				19:leaf=-0.00329459,cover=251633
				20:leaf=-0.000342933,cover=838491
			10:[D_PUBLISHER_C<32.2829] yes=21,no=22,missing=21,gain=186.642,cover=215380
				21:leaf=2.8685e-05,cover=43852.2
				22:leaf=0.00368391,cover=171528
	2:[D_CONID_COEC<0.0777393] yes=5,no=6,missing=6,gain=324.326,cover=319442
		5:[WORD_COUNT<760.5] yes=11,no=12,missing=11,gain=73.8839,cover=42521.1
			11:[C_D_U_CATEGORY_GENDER_MAX_C<35.9076] yes=23,no=24,missing=23,gain=98.2312,cover=6001.09
				23:leaf=0.00870624,cover=4155.35
				24:leaf=-0.00515302,cover=1845.75
			12:[U_KW_LEN<0.5] yes=25,no=26,missing=25,gain=45.5274,cover=36520
				25:leaf=-0.00463321,cover=8983.25
				26:leaf=-0.000534165,cover=27536.7
		6:[DOC_AGE<4.5] yes=13,no=14,missing=13,gain=416.959,cover=276921
			13:[C_D_U_CATEGORY_AGE_MACRO_MAX_COEC<0.0598597] yes=27,no=28,missing=27,gain=375.918,cover=109194
				27:leaf=-0.000894985,cover=63625.7
				28:leaf=0.00505428,cover=45568.6
			14:[U_KW_LEN<0.5] yes=29,no=30,missing=29,gain=174.241,cover=167726
				29:leaf=0.00266666,cover=39761.7
				30:leaf=0.00645613,cover=127965
booster[16]:
0:[CAT_REL<0.013114] yes=1,no=2,missing=1,gain=1475.73,cover=1.76674e+06
	1:[D_CONID_COEC<0.0741956] yes=3,no=4,missing=3,gain=1204.87,cover=1.41572e+06
		3:[D_CAT_LEN<0.5] yes=7,no=8,missing=7,gain=1185.11,cover=1.26484e+06
			7:[D_PUBLISHER_COEC<0.0323702] yes=15,no=16,missing=16,gain=649.144,cover=677501
				15:leaf=-0.00226488,cover=186651
				16:leaf=0.00119934,cover=490850
			8:[D_CONID_COEC<0.0267724] yes=17,no=18,missing=18,gain=828.21,cover=587342
				17:leaf=-0.0086481,cover=55291
				18:leaf=-0.00221857,cover=532051
		4:[D_CONID_C<0.932033] yes=9,no=10,missing=10,gain=226.424,cover=150873
			9:[D_PUBLISHER_COEC<0.0250379] yes=19,no=20,missing=20,gain=95.4645,cover=11154.1
				19:leaf=-0.0218221,cover=654.381
				20:leaf=-0.00215228,cover=10499.7
			10:[D_CONID_COEC<0.109791] yes=21,no=22,missing=22,gain=198.359,cover=139719
				21:leaf=0.00232492,cover=74234.3
				22:leaf=0.00610025,cover=65484.7
	2:[D_CONID_COEC<0.0269312] yes=5,no=6,missing=6,gain=656.68,cover=351021
		5:[CAT_REL<0.757924] yes=11,no=12,missing=11,gain=40.3724,cover=33121.2
			11:[C_D_U_CATEGORY_AGE_MAX_C<0.248336] yes=23,no=24,missing=24,gain=28.6119,cover=26086
				23:leaf=0.0104564,cover=397.002
				24:leaf=-0.0030538,cover=25689
			12:[C_D_U_PUBLISHER_AGE_COEC<0.0825781] yes=25,no=26,missing=26,gain=40.405,cover=7035.18
				25:leaf=-0.00819171,cover=6510.38
				26:leaf=0.00622112,cover=524.798
		6:[D_CONID_C<20.6627] yes=13,no=14,missing=13,gain=214.381,cover=317900
			13:[C_D_U_PUBLISHER_GENDER_COEC<0.0182136] yes=27,no=28,missing=27,gain=159.019,cover=286033
				27:leaf=-0.00283668,cover=10474.3
				28:leaf=0.00343983,cover=275559
			14:[D_CONID_COEC<0.0938418] yes=29,no=30,missing=30,gain=38.7514,cover=31866.3
				29:leaf=0.00527286,cover=11891.4
				30:leaf=0.00887891,cover=19974.9
booster[17]:
0:[D_PUBLISHER_COEC<0.0549596] yes=1,no=2,missing=2,gain=1421.07,cover=1.75852e+06
	1:[U_KW_LEN<0.5] yes=3,no=4,missing=3,gain=1043.91,cover=1.3608e+06
		3:[WORD_COUNT<2351.5] yes=7,no=8,missing=7,gain=207.871,cover=296403
			7:[D_CONID_COEC<0.0400463] yes=15,no=16,missing=16,gain=169.14,cover=221706
				15:leaf=-0.00623785,cover=28944.3
				16:leaf=-0.00213877,cover=192762
			8:[C_D_U_PUBLISHER_AGE_COEC<0.0358337] yes=17,no=18,missing=18,gain=103.889,cover=74697.3
				17:leaf=-0.00727196,cover=44215.7
				18:leaf=-0.00347775,cover=30481.6
		4:[D_CONID_COEC<0.0628916] yes=9,no=10,missing=9,gain=637.302,cover=1.0644e+06
			9:[DOC_AGE<22.5] yes=19,no=20,missing=19,gain=554.031,cover=965008
				19:leaf=-8.16955e-05,cover=868926
				20:leaf=-0.00408288,cover=96081.9
			10:[D_CONID_EC<9.22554] yes=21,no=22,missing=22,gain=206.673,cover=99387.4
				21:leaf=-0.0028644,cover=10627
				22:leaf=0.00451381,cover=88760.4
	2:[D_CONID_COEC<0.0778845] yes=5,no=6,missing=6,gain=344.173,cover=397723
		5:[U_KW_LEN<0.5] yes=11,no=12,missing=11,gain=90.838,cover=48796.5
			11:[C_D_U_PUBLISHER_GENDER_C<2.17005] yes=23,no=24,missing=24,gain=34.0876,cover=10860.6
				23:leaf=0.00429317,cover=838.759
				24:leaf=-0.00619588,cover=10021.8
			12:[WORD_COUNT<760.5] yes=25,no=26,missing=25,gain=70.9825,cover=37935.9
				25:leaf=0.00499989,cover=5595.01
				26:leaf=-0.00109913,cover=32340.9
		6:[DOC_AGE<3.5] yes=13,no=14,missing=13,gain=329.647,cover=348927
			13:[CAT_REL<0.502588] yes=27,no=28,missing=27,gain=220.562,cover=121669
				27:leaf=0.000143434,cover=103723
				28:leaf=0.00614687,cover=17945.4
			14:[WORD_COUNT<2766.5] yes=29,no=30,missing=29,gain=149.861,cover=227258
				29:leaf=0.00355196,cover=174978
				30:leaf=0.0066028,cover=52280.4
booster[18]:
0:[C_D_U_PUBLISHER_AGE_COEC<0.05719] yes=1,no=2,missing=1,gain=1273.19,cover=1.75929e+06
	1:[U_KW_LEN<0.5] yes=3,no=4,missing=3,gain=803.536,cover=1.38502e+06
		3:[U_AGE_2<0.5] yes=7,no=8,missing=7,gain=223.122,cover=306406
			7:[D_CATEGORY_MACRO_MAX_COEC<0.03594] yes=15,no=16,missing=16,gain=115.781,cover=141201
				15:leaf=-0.00832782,cover=16945.4
				16:leaf=-0.00392199,cover=124256
			8:[D_CONID_COEC<0.0537803] yes=17,no=18,missing=17,gain=116.579,cover=165204
				17:leaf=-0.00222678,cover=145922
				18:leaf=0.00190977,cover=19282.7
		4:[D_CONID_COEC<0.0307434] yes=9,no=10,missing=10,gain=579.94,cover=1.07862e+06
			9:[D_CONID_EC<14.4074] yes=19,no=20,missing=20,gain=377.215,cover=103216
				19:leaf=-0.000753898,cover=53744.5
				20:leaf=-0.00680443,cover=49471
			10:[CAT_REL<0.0247465] yes=21,no=22,missing=21,gain=542.122,cover=975401
				21:leaf=-0.000329515,cover=765754
				22:leaf=0.00254008,cover=209647
	2:[D_CONID_COEC<0.0486908] yes=5,no=6,missing=6,gain=303.579,cover=374268
		5:[D_CONID_EC<27.1604] yes=11,no=12,missing=12,gain=43.577,cover=30234.8
			11:[D_CATEGORY_MACRO_MAX_COEC<0.0316125] yes=23,no=24,missing=24,gain=38.355,cover=15109.5
				23:leaf=-0.0103107,cover=907.23
				24:leaf=0.000287753,cover=14202.3
			12:[D_CONID_COEC<0.0217873] yes=25,no=26,missing=26,gain=57.5926,cover=15125.3
				25:leaf=-0.0101432,cover=3164.29
				26:leaf=-0.00255828,cover=11961
		6:[U_KW_LEN<0.5] yes=13,no=14,missing=13,gain=262.145,cover=344033
			13:[D_CONID_COEC<0.130282] yes=27,no=28,missing=27,gain=87.5424,cover=71990.6
				27:leaf=-0.000366456,cover=62955.4
				28:leaf=0.00489626,cover=9035.24
			14:[DOC_AGE<0.5] yes=29,no=30,missing=29,gain=217.884,cover=272043
				29:leaf=-0.00200626,cover=15826.3
				30:leaf=0.0040388,cover=256216
booster[19]:
0:[D_PUBLISHER_COEC<0.0549596] yes=1,no=2,missing=2,gain=1286.9,cover=1.76924e+06
	1:[CAT_REL<0.024628] yes=3,no=4,missing=3,gain=831.786,cover=1.36668e+06
		3:[DOC_AGE<36.5] yes=7,no=8,missing=7,gain=686.351,cover=1.12323e+06
			7:[D_PUBLISHER_COEC<0.0267699] yes=15,no=16,missing=16,gain=567.054,cover=1.0555e+06
				15:leaf=-0.00340095,cover=184470
				16:leaf=-0.00034932,cover=871033
			8:[D_CONID_COEC<0.0485945] yes=17,no=18,missing=17,gain=214.903,cover=67726.9
				17:leaf=-0.00758465,cover=52611.4
				18:leaf=-0.000820345,cover=15115.5
		4:[D_CONID_COEC<0.0298008] yes=9,no=10,missing=10,gain=206.251,cover=243450
			9:[CAT_REL<0.959983] yes=19,no=20,missing=19,gain=70.2526,cover=30853.3
				19:leaf=-0.0011875,cover=28992.5
				20:leaf=-0.0112074,cover=1860.72
			10:[WORD_COUNT<1804] yes=21,no=22,missing=21,gain=168.639,cover=212597
				21:leaf=0.00131131,cover=117146
				22:leaf=0.00414255,cover=95451
	2:[D_CATEGORY_MACRO_MAX_COEC<0.0791984] yes=5,no=6,missing=5,gain=313.603,cover=402563
		5:[U_KW_LEN<0.5] yes=11,no=12,missing=11,gain=242.06,cover=334356
			11:[D_CONID_COEC<0.130698] yes=23,no=24,missing=23,gain=125.015,cover=69792.1
				23:leaf=-0.00126393,cover=64449
				24:leaf=0.00669421,cover=5343.09
			12:[D_CONID_COEC<0.0779334] yes=25,no=26,missing=25,gain=169.074,cover=264564
				25:leaf=0.00203606,cover=213306
				26:leaf=0.00523416,cover=51258.2
		6:[D_CATEGORY_MAX_C<75.0117] yes=13,no=14,missing=14,gain=177.651,cover=68207
			13:[C_D_U_CATEGORY_GENDER_MAX_C<0.236405] yes=27,no=28,missing=28,gain=31.1882,cover=15930.4
				27:leaf=-0.00523364,cover=315.869
				28:leaf=0.010622,cover=15614.5
			14:[D_CONID_C<376.942] yes=29,no=30,missing=29,gain=69.7856,cover=52276.6
				29:leaf=0.00351673,cover=44577.9
				30:leaf=0.00867183,cover=7698.67
booster[20]:
0:[D_CONID_COEC<0.0922486] yes=1,no=2,missing=1,gain=1166.23,cover=1.7586e+06
	1:[CAT_REL<0.0252075] yes=3,no=4,missing=3,gain=908.291,cover=1.62586e+06
		3:[D_CAT_LEN<0.5] yes=7,no=8,missing=7,gain=834.377,cover=1.32026e+06
			7:[D_PUBLISHER_C<0.0882887] yes=15,no=16,missing=16,gain=527.322,cover=706114
				15:leaf=0.0100135,cover=13340.5
				16:leaf=-2.22519e-05,cover=692773
			8:[D_CONID_COEC<0.0250336] yes=17,no=18,missing=18,gain=521.542,cover=614147
				17:leaf=-0.00697938,cover=55413
				18:leaf=-0.00189381,cover=558734
		4:[D_PUBLISHER_C<30.4205] yes=9,no=10,missing=9,gain=297.489,cover=305594
			9:[D_PUBLISHER_COEC<0.0648654] yes=19,no=20,missing=19,gain=87.4917,cover=59556.4
				19:leaf=-0.0018476,cover=52600.9
				20:leaf=0.00411906,cover=6955.44
			10:[D_PUBLISHER_EC<7095.6] yes=21,no=22,missing=22,gain=295.432,cover=246038
				21:leaf=0.00368073,cover=194385
				22:leaf=-0.000573499,cover=51652.6
	2:[D_CONID_EC<74.2882] yes=5,no=6,missing=6,gain=344.014,cover=132743
		5:[D_CONID_C<1.21588] yes=11,no=12,missing=12,gain=78.2142,cover=30900.3
			11:[WORD_COUNT<1512.5] yes=23,no=24,missing=23,gain=35.5398,cover=12441.2
				23:leaf=-0.00757045,cover=3438.61
				24:leaf=-0.00159519,cover=9002.56
			12:[CAT_REL<0.434375] yes=25,no=26,missing=25,gain=38.1332,cover=18459.1
				25:leaf=0.000834104,cover=15223.7
				26:leaf=0.0068107,cover=3235.38
		6:[U_KW_LEN<0.5] yes=13,no=14,missing=13,gain=72.2506,cover=101843
			13:[D_CONID_C<25.4658] yes=27,no=28,missing=28,gain=49.046,cover=25789
				27:leaf=-0.00178142,cover=3692.01
				28:leaf=0.0044439,cover=22097
			14:[TIME_OF_DAY<6.5] yes=29,no=30,missing=29,gain=50.2726,cover=76053.5
				29:leaf=0.00741884,cover=54691.7
				30:leaf=0.00455808,cover=21361.8
booster[21]:
0:[D_CONID_COEC<0.0779049] yes=1,no=2,missing=1,gain=1035.98,cover=1.76525e+06
	1:[U_KW_LEN<0.5] yes=3,no=4,missing=3,gain=761.307,cover=1.58335e+06
		3:[D_PUBLISHER_EC<6618.15] yes=7,no=8,missing=8,gain=247.251,cover=344611
			7:[U_AGE_2<0.5] yes=15,no=16,missing=15,gain=222.871,cover=260056
				15:leaf=-0.00330196,cover=116646
				16:leaf=-0.000358856,cover=143411
			8:[WORD_COUNT<1015.5] yes=17,no=18,missing=17,gain=56.0548,cover=84555
				17:leaf=-0.00206026,cover=15373.5
				18:leaf=-0.00539827,cover=69181.5
		4:[DOC_AGE<27.5] yes=9,no=10,missing=9,gain=631.252,cover=1.23874e+06
			9:[DOC_AGE<0.5] yes=19,no=20,missing=19,gain=593.361,cover=1.13875e+06
				19:leaf=-0.0026895,cover=125829
				20:leaf=0.000951027,cover=1.01292e+06
			10:[CAT_REL<0.0358745] yes=21,no=22,missing=21,gain=271.311,cover=99987
				21:leaf=-0.00613422,cover=51258.5
				22:leaf=-0.00092346,cover=48728.6
	2:[D_CONID_C<1.24754] yes=5,no=6,missing=6,gain=314.313,cover=181903
		5:[WORD_COUNT<3186.5] yes=11,no=12,missing=11,gain=50.2105,cover=16181.5
			11:[C_D_U_CATEGORY_AGE_MACRO_MAX_COEC<0.0613593] yes=23,no=24,missing=23,gain=81.2476,cover=10127.5
				23:leaf=-0.00806503,cover=7162.98
				24:leaf=0.00177667,cover=2964.52
			12:[C_D_U_PUBLISHER_AGE_COEC<0.0295853] yes=25,no=26,missing=26,gain=27.5746,cover=6053.98
				25:leaf=0.00453269,cover=2545
				26:leaf=-0.00230227,cover=3508.98
		6:[D_CONID_COEC<0.109685] yes=13,no=14,missing=14,gain=142.346,cover=165722
			13:[U_KW_LEN<0.5] yes=27,no=28,missing=27,gain=81.0169,cover=83599.9
				27:leaf=6.90184e-05,cover=20304.3
				28:leaf=0.0036988,cover=63295.6
			14:[D_CONID_C<36.7566] yes=29,no=30,missing=30,gain=64.0776,cover=82122
				29:leaf=0.00397959,cover=31547.8
				30:leaf=0.00685131,cover=50574.2
booster[22]:
0:[D_CONID_COEC<0.0629796] yes=1,no=2,missing=1,gain=944.129,cover=1.76447e+06
	1:[D_PUBLISHER_EC<8391.06] yes=3,no=4,missing=3,gain=760.397,cover=1.53926e+06
		3:[DOC_AGE<19.5] yes=7,no=8,missing=7,gain=775.655,cover=1.29827e+06
			7:[DOC_AGE<1.5] yes=15,no=16,missing=15,gain=735.878,cover=1.13609e+06
				15:leaf=-0.00175668,cover=274194
				16:leaf=0.00121719,cover=861893
			8:[CAT_REL<0.0336535] yes=17,no=18,missing=17,gain=216.56,cover=162187
				17:leaf=-0.00442836,cover=111522
				18:leaf=-0.000486213,cover=50665.3
		4:[D_CONID_COEC<0.0257337] yes=9,no=10,missing=10,gain=208.344,cover=240987
			9:[D_PUBLISHER_C<303.621] yes=19,no=20,missing=20,gain=89.431,cover=31299.3
				19:leaf=-0.000305557,cover=4502.65
				20:leaf=-0.00792125,cover=26796.6
			10:[U_KW_LEN<0.5] yes=21,no=22,missing=21,gain=128.53,cover=209688
				21:leaf=-0.00486054,cover=43830.2
				22:leaf=-0.00181612,cover=165858
	2:[D_CONID_C<18.5565] yes=5,no=6,missing=6,gain=221.539,cover=225208
		5:[D_CONID_C<0.171973] yes=11,no=12,missing=12,gain=119.234,cover=86683.7
			11:[C_D_U_CATEGORY_AGE_MAX_EC<0.805624] yes=23,no=24,missing=24,gain=23.1747,cover=975.031
				23:leaf=0.0170288,cover=48.6793
				24:leaf=-0.0181044,cover=926.352
			12:[C_D_U_CATEGORY_GENDER_MAX_C<48.4609] yes=25,no=26,missing=26,gain=65.0877,cover=85708.7
				25:leaf=0.00408748,cover=16264.3
				26:leaf=0.000573599,cover=69444.5
		6:[D_CONID_COEC<0.0978328] yes=13,no=14,missing=14,gain=164.164,cover=138524
			13:[TIME_OF_DAY<2.5] yes=27,no=28,missing=27,gain=49.0193,cover=58687.9
				27:leaf=0.00430125,cover=19565.1
				28:leaf=0.00123596,cover=39122.8
			14:[U_KW_LEN<0.5] yes=29,no=30,missing=29,gain=61.5586,cover=79836.2
				29:leaf=0.00338974,cover=20639.8
				30:leaf=0.00656115,cover=59196.4
booster[23]:
0:[CAT_REL<0.0247415] yes=1,no=2,missing=1,gain=1016.02,cover=1.76816e+06
	1:[D_CAT_LEN<0.5] yes=3,no=4,missing=3,gain=727.181,cover=1.42767e+06
		3:[D_PUBLISHER_COEC<0.0323702] yes=7,no=8,missing=8,gain=485.616,cover=761396
			7:[C_D_U_PUBLISHER_AGE_EC<6.31033] yes=15,no=16,missing=16,gain=696.653,cover=196408
				15:leaf=0.00968812,cover=12727.9
				16:leaf=-0.00240761,cover=183680
			8:[U_AGE_2<0.5] yes=17,no=18,missing=17,gain=348.765,cover=564988
				17:leaf=-0.000551966,cover=180320
				18:leaf=0.00211299,cover=384668
		4:[D_CONID_COEC<0.0565154] yes=9,no=10,missing=9,gain=677.05,cover=666279
			9:[D_CATEGORY_MACRO_MAX_COEC<0.0771571] yes=19,no=20,missing=19,gain=520.273,cover=573568
				19:leaf=-0.00274589,cover=542376
				20:leaf=0.00389467,cover=31191.4
			10:[D_CONID_EC<10.095] yes=21,no=22,missing=22,gain=170.751,cover=92711
				21:leaf=-0.00498452,cover=7552.36
				22:leaf=0.00285947,cover=85158.7
	2:[D_CONID_COEC<0.0230421] yes=5,no=6,missing=6,gain=275.725,cover=340483
		5:[WORD_COUNT<1853] yes=11,no=12,missing=11,gain=47.0145,cover=30670.8
			11:[D_CONID_EC<8.97118] yes=23,no=24,missing=24,gain=37.5986,cover=17357.3
				23:leaf=-0.00167683,cover=9742.19
				24:leaf=-0.00636644,cover=7615.13
			12:[D_PUBLISHER_COEC<0.0213794] yes=25,no=26,missing=26,gain=56.6078,cover=13313.5
				25:leaf=-0.0076439,cover=1953.92
				26:leaf=0.00156742,cover=11359.6
		6:[D_PUBLISHER_C<31.1036] yes=13,no=14,missing=13,gain=175.742,cover=309812
			13:[C_D_U_PUBLISHER_AGE_COEC<0.036268] yes=27,no=28,missing=27,gain=122.805,cover=53601.6
				27:leaf=-0.00158988,cover=32400.1
				28:leaf=0.00330454,cover=21201.5
			14:[D_PUBLISHER_COEC<0.020812] yes=29,no=30,missing=30,gain=124.932,cover=256210
				29:leaf=0.01273,cover=3609.17
				30:leaf=0.00336233,cover=252601
booster[24]:
0:[D_CONID_COEC<0.0721641] yes=1,no=2,missing=1,gain=939.463,cover=1.7644e+06
	1:[U_KW_LEN<0.5] yes=3,no=4,missing=3,gain=791.09,cover=1.56024e+06
		3:[D_PUBLISHER_EC<6677.79] yes=7,no=8,missing=8,gain=222.527,cover=338067
			7:[C_D_U_CATEGORY_CITY_MACRO_MAX_COEC<0.0337548] yes=15,no=16,missing=16,gain=240.238,cover=256983
				15:leaf=-0.00601712,cover=30086.4
				16:leaf=-0.00126225,cover=226897
			8:[D_PUBLISHER_C<619.626] yes=17,no=18,missing=18,gain=57.6288,cover=81084
				17:leaf=-0.00416568,cover=65218.5
				18:leaf=-0.0075259,cover=15865.5
		4:[DOC_AGE<25.5] yes=9,no=10,missing=9,gain=511.496,cover=1.22217e+06
			9:[D_PUBLISHER_EC<8766.22] yes=19,no=20,missing=19,gain=531.612,cover=1.1172e+06
				19:leaf=0.000979217,cover=940738
				20:leaf=-0.00201149,cover=176460
			10:[CAT_REL<0.0350195] yes=21,no=22,missing=21,gain=213.283,cover=104977
				21:leaf=-0.00527913,cover=55312.6
				22:leaf=-0.000765131,cover=49664.4
	2:[D_CONID_EC<9.65669] yes=5,no=6,missing=6,gain=243.546,cover=204158
		5:[D_CONID_C<0.187161] yes=11,no=12,missing=12,gain=55.9388,cover=17688.5
			11:[D_CONID_COEC<0.106789] yes=23,no=24,missing=24,gain=17.0588,cover=977.755
				23:leaf=-0.0233728,cover=324.74
				24:leaf=-0.00933588,cover=653.015
			12:[C_D_U_PUBLISHER_AGE_COEC<0.0418373] yes=25,no=26,missing=25,gain=42.9302,cover=16710.8
				25:leaf=-0.00405461,cover=9033.07
				26:leaf=0.00103045,cover=7677.71
		6:[D_CONID_COEC<0.092358] yes=13,no=14,missing=14,gain=140.144,cover=186469
			13:[D_PUBLISHER_COEC<0.0288778] yes=27,no=28,missing=28,gain=62.4605,cover=67051.5
				27:leaf=0.00807655,cover=3869.14
				28:leaf=0.00153284,cover=63182.3
			14:[TIME_OF_DAY<2.5] yes=29,no=30,missing=29,gain=102.017,cover=119418
				29:leaf=0.00683258,cover=39836.8
				30:leaf=0.00373296,cover=79580.9
booster[25]:
0:[D_PUBLISHER_COEC<0.0549596] yes=1,no=2,missing=2,gain=1012.01,cover=1.76511e+06
	1:[CAT_REL<0.009675] yes=3,no=4,missing=3,gain=586.796,cover=1.36223e+06
		3:[U_AGE_2<0.5] yes=7,no=8,missing=7,gain=519.708,cover=1.10758e+06
			7:[WORD_COUNT<1330.5] yes=15,no=16,missing=15,gain=157.996,cover=375621
				15:leaf=-0.00121767,cover=128681
				16:leaf=-0.00337849,cover=246940
			8:[C_D_U_PUBLISHER_AGE_COEC<0.0358507] yes=17,no=18,missing=17,gain=384.177,cover=731962
				17:leaf=-0.00153105,cover=354930
				18:leaf=0.000760969,cover=377032
		4:[D_PUBLISHER_C<28.8769] yes=9,no=10,missing=10,gain=248.806,cover=254645
			9:[D_PUBLISHER_COEC<0.0149403] yes=19,no=20,missing=20,gain=76.5858,cover=53403.1
				19:leaf=-0.00668478,cover=6279.9
				20:leaf=-0.00080711,cover=47123.2
			10:[D_CONID_C<1.21199] yes=21,no=22,missing=22,gain=145.102,cover=201242
				21:leaf=-0.00171082,cover=19912.5
				22:leaf=0.00278555,cover=181329
	2:[U_KW_LEN<0.5] yes=5,no=6,missing=5,gain=245.285,cover=402883
		5:[C_D_U_CATEGORY_GENDER_MACRO_MAX_COEC<0.0738834] yes=11,no=12,missing=11,gain=123.996,cover=87361.7
			11:[D_PUBLISHER_EC<1222.33] yes=23,no=24,missing=24,gain=117.834,cover=70680
				23:leaf=0.00212329,cover=20820.3
				24:leaf=-0.00235515,cover=49859.7
			12:[WORD_COUNT<1762] yes=25,no=26,missing=25,gain=35.7997,cover=16681.8
				25:leaf=0.00113493,cover=7314.17
				26:leaf=0.00580305,cover=9367.59
		6:[D_CONID_COEC<0.0486792] yes=13,no=14,missing=14,gain=156.827,cover=315521
			13:[C_D_U_CATEGORY_CITY_MAX_EC<4746.74] yes=27,no=28,missing=27,gain=35.6677,cover=23684.2
				27:leaf=-0.000520567,cover=22101.8
				28:leaf=-0.00828916,cover=1582.37
			14:[C_D_U_CATEGORY_AGE_MACRO_MAX_COEC<0.0926228] yes=29,no=30,missing=29,gain=127.663,cover=291837
				29:leaf=0.00289763,cover=270607
				30:leaf=0.00692416,cover=21229.4
booster[26]:
0:[D_PUBLISHER_COEC<0.0550742] yes=1,no=2,missing=1,gain=794.678,cover=1.7633e+06
	1:[CAT_REL<0.0349515] yes=3,no=4,missing=3,gain=466.207,cover=1.37151e+06
		3:[U_AGE_2<0.5] yes=7,no=8,missing=7,gain=439.407,cover=1.14073e+06
			7:[C_D_U_CATEGORY_CITY_MACRO_MAX_COEC<0.0385184] yes=15,no=16,missing=16,gain=141.568,cover=389038
				15:leaf=-0.0053173,cover=36034.7
				16:leaf=-0.0020273,cover=353003
			8:[DOC_AGE<35.5] yes=17,no=18,missing=17,gain=346.899,cover=751687
				17:leaf=-2.73148e-05,cover=717436
				18:leaf=-0.00517789,cover=34251
		4:[D_CONID_COEC<0.0230701] yes=9,no=10,missing=10,gain=121.912,cover=230781
			9:[CAT_REL<0.607323] yes=19,no=20,missing=19,gain=52.2414,cover=25663.1
				19:leaf=-0.000202085,cover=17429.1
				20:leaf=-0.0050346,cover=8233.96
			10:[WORD_COUNT<1804] yes=21,no=22,missing=21,gain=102.895,cover=205118
				21:leaf=0.000902178,cover=114074
				22:leaf=0.00315617,cover=91043.9
	2:[D_PUBLISHER_C<77.5493] yes=5,no=6,missing=6,gain=197.729,cover=391792
		5:[WORD_COUNT<2551.5] yes=11,no=12,missing=11,gain=177.826,cover=102724
			11:[DAY_OF_WEEK<2.5] yes=23,no=24,missing=23,gain=108.781,cover=69119.7
				23:leaf=0.00583886,cover=17510.2
				24:leaf=0.00127817,cover=51609.5
			12:[C_D_U_CATEGORY_CITY_MACRO_MAX_COEC<0.0664423] yes=25,no=26,missing=25,gain=85.6709,cover=33604.4
				25:leaf=0.00392819,cover=14267.2
				26:leaf=0.00903622,cover=19337.2
		6:[D_CONID_COEC<0.119839] yes=13,no=14,missing=13,gain=204.215,cover=289068
			13:[U_KW_LEN<0.5] yes=27,no=28,missing=27,gain=219.06,cover=251334
				27:leaf=-0.00208401,cover=51735.1
				28:leaf=0.00156691,cover=199599
			14:[D_CONID_COEC<0.1787] yes=29,no=30,missing=30,gain=25.0408,cover=37734.6
				29:leaf=0.00368365,cover=22222.3
				30:leaf=0.00630182,cover=15512.3
booster[27]:
0:[D_CONID_COEC<0.0398206] yes=1,no=2,missing=2,gain=763.513,cover=1.76409e+06
	1:[D_CONID_EC<14.3915] yes=3,no=4,missing=4,gain=262.241,cover=209320
		3:[D_CAT_LEN<0.5] yes=7,no=8,missing=7,gain=479.409,cover=80002
			7:[D_PUBLISHER_EC<8730.73] yes=15,no=16,missing=15,gain=353.166,cover=29541.8
				15:leaf=0.0066454,cover=25501.8
				16:leaf=-0.00926419,cover=4040
			8:[D_PUBLISHER_COEC<0.019347] yes=17,no=18,missing=18,gain=115.436,cover=50460.2
				17:leaf=-0.00931113,cover=7417.28
				18:leaf=-0.00255768,cover=43042.9
		4:[D_CONID_COEC<0.0268782] yes=9,no=10,missing=10,gain=321.173,cover=129318
			9:[CAT_REL<0.037017] yes=19,no=20,missing=19,gain=64.9243,cover=63090.3
				19:leaf=-0.0075989,cover=50148.3
				20:leaf=-0.00362631,cover=12942
			10:[CAT_REL<0.014792] yes=21,no=22,missing=21,gain=72.625,cover=66227.8
				21:leaf=-0.0025819,cover=54126.4
				22:leaf=0.0017026,cover=12101.3
	2:[DOC_AGE<0.5] yes=5,no=6,missing=5,gain=794.179,cover=1.55477e+06
		5:[C_D_U_PUBLISHER_GENDER_COEC<0.0210841] yes=11,no=12,missing=12,gain=265.004,cover=155431
			11:[C_D_U_PUBLISHER_AGE_COEC<0.0156098] yes=23,no=24,missing=23,gain=31.0655,cover=9968.17
				23:leaf=-0.0143907,cover=3888.65
				24:leaf=-0.00866445,cover=6079.52
			12:[DOC_AGE<-0.5] yes=25,no=26,missing=25,gain=177.344,cover=145463
				25:leaf=0.00413937,cover=9479.33
				26:leaf=-0.00293363,cover=135984
		6:[CAT_REL<0.004886] yes=13,no=14,missing=13,gain=534.481,cover=1.39934e+06
			13:[D_PUBLISHER_COEC<0.0522862] yes=27,no=28,missing=27,gain=385.919,cover=1.12658e+06
				27:leaf=-0.000293719,cover=819080
				28:leaf=0.00178364,cover=307501
			14:[D_PUBLISHER_C<23.3352] yes=29,no=30,missing=29,gain=131.864,cover=272758
				29:leaf=-3.26735e-05,cover=37054.2
				30:leaf=0.00317595,cover=235704
booster[28]:
0:[D_CONID_COEC<0.0720877] yes=1,no=2,missing=1,gain=664.095,cover=1.76055e+06
	1:[CAT_REL<0.0246235] yes=3,no=4,missing=3,gain=535.326,cover=1.5587e+06
		3:[D_CAT_LEN<0.5] yes=7,no=8,missing=7,gain=564.167,cover=1.26488e+06
			7:[U_KW_LEN<0.5] yes=15,no=16,missing=15,gain=387.38,cover=669916
				15:leaf=-0.00228295,cover=129765
				16:leaf=0.000759415,cover=540151
			8:[D_PUBLISHER_COEC<0.019759] yes=17,no=18,missing=18,gain=406.282,cover=594960
				17:leaf=-0.00765048,cover=29651.7
				18:leaf=-0.0016463,cover=565308
		4:[D_CONID_COEC<0.01794] yes=9,no=10,missing=10,gain=187.765,cover=293827
			9:[CAT_REL<0.979508] yes=19,no=20,missing=19,gain=50.2779,cover=26943
				19:leaf=-0.00189403,cover=25360.1
				20:leaf=-0.0110766,cover=1582.87
			10:[WORD_COUNT<1804.5] yes=21,no=22,missing=21,gain=149.665,cover=266884
				21:leaf=0.000957822,cover=157353
				22:leaf=0.00336488,cover=109530
	2:[D_CONID_C<1.1319] yes=5,no=6,missing=6,gain=153.798,cover=201843
		5:[D_PUBLISHER_C<4.64341] yes=11,no=12,missing=12,gain=65.1882,cover=18028.2
			11:[C_D_U_PUBLISHER_AGE_EC<1.33924] yes=23,no=24,missing=24,gain=26.3419,cover=1356.81
				23:leaf=0.00667377,cover=161.099
				24:leaf=-0.0148285,cover=1195.71
			12:[C_D_U_PUBLISHER_AGE_C<6.44651] yes=25,no=26,missing=26,gain=45.1937,cover=16671.3
				25:leaf=0.00432209,cover=3338.7
				26:leaf=-0.0021821,cover=13332.6
		6:[U_KW_LEN<0.5] yes=13,no=14,missing=13,gain=125.488,cover=183815
			13:[D_CAT_LEN<0.5] yes=27,no=28,missing=27,gain=74.5213,cover=45038.1
				27:leaf=-0.00172507,cover=17648.7
				28:leaf=0.00244116,cover=27389.4
			14:[D_CONID_COEC<0.109685] yes=29,no=30,missing=30,gain=74.8397,cover=138777
				29:leaf=0.00280373,cover=76852.8
				30:leaf=0.0051396,cover=61924.2
booster[29]:
0:[D_PUBLISHER_COEC<0.0549596] yes=1,no=2,missing=1,gain=727.466,cover=1.76394e+06
	1:[D_CONID_COEC<0.0628045] yes=3,no=4,missing=3,gain=464.353,cover=1.36795e+06
		3:[D_PUBLISHER_EC<8453.2] yes=7,no=8,missing=7,gain=366.952,cover=1.23772e+06
			7:[D_CONID_EC<18.4468] yes=15,no=16,missing=15,gain=336.404,cover=1.03036e+06
				15:leaf=-0.000109937,cover=911265
				16:leaf=-0.00293562,cover=119096
			8:[D_CONID_COEC<0.0293714] yes=17,no=18,missing=18,gain=133.369,cover=207355
				17:leaf=-0.00576152,cover=31084.2
				18:leaf=-0.00220935,cover=176271
		4:[D_CONID_C<21.5513] yes=9,no=10,missing=10,gain=138.133,cover=130238
			9:[D_CONID_EC<5.72053] yes=19,no=20,missing=20,gain=46.0034,cover=64370.9
				19:leaf=-0.0025332,cover=9552.1
				20:leaf=0.00122671,cover=54818.8
			10:[D_CONID_COEC<0.0935939] yes=21,no=22,missing=22,gain=60.6987,cover=65867.3
				21:leaf=0.00216567,cover=28095.9
				22:leaf=0.00523474,cover=37771.4
	2:[D_CONID_COEC<0.0775204] yes=5,no=6,missing=6,gain=173.926,cover=395989
		5:[DOC_AGE<8.5] yes=11,no=12,missing=11,gain=39.0372,cover=49315.2
			11:[D_CONID_EC<4.85233] yes=23,no=24,missing=24,gain=79.4301,cover=2644.24
				23:leaf=-0.022519,cover=237
				24:leaf=0.00776176,cover=2407.24
			12:[U_AGE_1<0.5] yes=25,no=26,missing=25,gain=38.9063,cover=46671
				25:leaf=-0.00157014,cover=43844.5
				26:leaf=0.00448126,cover=2826.45
		6:[D_PUBLISHER_C<77.0522] yes=13,no=14,missing=14,gain=177.649,cover=346674
			13:[WORD_COUNT<2699] yes=27,no=28,missing=27,gain=109.79,cover=92519.3
				27:leaf=0.00299736,cover=62852.1
				28:leaf=0.00668779,cover=29667.2
			14:[U_KW_LEN<0.5] yes=29,no=30,missing=29,gain=128.495,cover=254155
				29:leaf=-0.000519153,cover=54929.5
				30:leaf=0.00221225,cover=199225
booster[30]:
0:[DOC_AGE<0.5] yes=1,no=2,missing=1,gain=611.732,cover=1.76517e+06
	1:[C_D_U_PUBLISHER_AGE_COEC<0.0205364] yes=3,no=4,missing=4,gain=181.737,cover=155341
		3:[C_D_U_PUBLISHER_GENDER_COEC<0.0311379] yes=7,no=8,missing=8,gain=36.1525,cover=8662.03
			7:[CAT_REL<0.133438] yes=15,no=16,missing=15,gain=31.4641,cover=7914.61
				15:leaf=-0.0121612,cover=6992.33
				16:leaf=-0.00233298,cover=922.273
			8:[C_D_U_PUBLISHER_GENDER_COEC<0.0336251] yes=17,no=18,missing=17,gain=30.1041,cover=747.427
				17:leaf=0.00858657,cover=452.272
				18:leaf=-0.0119113,cover=295.155
		4:[DOC_AGE<-0.5] yes=9,no=10,missing=9,gain=159.834,cover=146679
			9:[C_D_U_CATEGORY_CITY_MAX_C<30.5054] yes=19,no=20,missing=19,gain=47.567,cover=9413.38
				19:leaf=0.00102925,cover=5966.06
				20:leaf=0.00840631,cover=3447.32
			10:[D_PUBLISHER_C<665.995] yes=21,no=22,missing=21,gain=83.1773,cover=137265
				21:leaf=-0.00269292,cover=129064
				22:leaf=-0.00788561,cover=8201.36
	2:[D_CONID_COEC<0.0396373] yes=5,no=6,missing=6,gain=599.814,cover=1.60983e+06
		5:[D_CONID_EC<14.3753] yes=11,no=12,missing=12,gain=297.588,cover=209567
			11:[D_CAT_LEN<0.5] yes=23,no=24,missing=23,gain=488.967,cover=81043.2
				23:leaf=0.00515642,cover=30652.2
				24:leaf=-0.00285214,cover=50391
			12:[D_CONID_COEC<0.0269252] yes=25,no=26,missing=26,gain=262.144,cover=128524
				25:leaf=-0.00598008,cover=63414.9
				26:leaf=-0.00146343,cover=65108.9
		6:[U_KW_LEN<0.5] yes=13,no=14,missing=13,gain=495.06,cover=1.40026e+06
			13:[C_D_U_CATEGORY_CITY_MACRO_MAX_COEC<0.0591754] yes=27,no=28,missing=27,gain=166.441,cover=307648
				27:leaf=-0.00157462,cover=263636
				28:leaf=0.00174688,cover=44012.3
			14:[C_D_U_PUBLISHER_AGE_COEC<0.0493601] yes=29,no=30,missing=30,gain=372.731,cover=1.09261e+06
				29:leaf=0.000492802,cover=709679
				30:leaf=0.00242837,cover=382932
booster[31]:
0:[D_CONID_COEC<0.092499] yes=1,no=2,missing=1,gain=541.151,cover=1.76557e+06
	1:[CAT_REL<0.0138135] yes=3,no=4,missing=3,gain=487.091,cover=1.63282e+06
		3:[D_CAT_LEN<0.5] yes=7,no=8,missing=7,gain=474.272,cover=1.31407e+06
			7:[U_KW_LEN<0.5] yes=15,no=16,missing=15,gain=407.287,cover=708594
				15:leaf=-0.00217835,cover=137843
				16:leaf=0.000849977,cover=570752
			8:[C_D_U_PUBLISHER_GENDER_COEC<0.0166651] yes=17,no=18,missing=17,gain=326.743,cover=605480
				17:leaf=-0.00702133,cover=26996.9
				18:leaf=-0.00139385,cover=578483
		4:[D_CONID_C<0.502983] yes=9,no=10,missing=10,gain=151.919,cover=318747
			9:[C_D_U_CATEGORY_AGE_MAX_EC<100.39] yes=19,no=20,missing=20,gain=55.6103,cover=30188.9
				19:leaf=0.00675123,cover=1782.51
				20:leaf=-0.00235078,cover=28406.4
			10:[D_PUBLISHER_EC<7217.74] yes=21,no=22,missing=22,gain=173.642,cover=288558
				21:leaf=0.00246312,cover=240472
				22:leaf=-0.000828216,cover=48085.3
	2:[D_CONID_EC<72.0554] yes=5,no=6,missing=6,gain=176.461,cover=132747
		5:[C_D_U_PUBLISHER_GENDER_C<2.82811] yes=11,no=12,missing=11,gain=62.5781,cover=30633.3
			11:[CAT_REL<0.27247] yes=23,no=24,missing=23,gain=46.2167,cover=1747.78
				23:leaf=-0.0159365,cover=1059.08
				24:leaf=0.000698622,cover=688.697
			12:[D_PUBLISHER_EC<14812.4] yes=25,no=26,missing=26,gain=64.0294,cover=28885.5
				25:leaf=0.000617708,cover=28532.3
				26:leaf=-0.0207728,cover=353.19
		6:[C_D_U_PUBLISHER_AGE_EC<3309.47] yes=13,no=14,missing=14,gain=76.2021,cover=102114
			13:[C_D_U_CATEGORY_GENDER_MAX_EC<3744.08] yes=27,no=28,missing=27,gain=31.137,cover=53434.2
				27:leaf=0.00333378,cover=45302.8
				28:leaf=-2.64702e-05,cover=8131.41
			14:[DAY_OF_WEEK<3.5] yes=29,no=30,missing=29,gain=50.3046,cover=48679.7
				29:leaf=0.00372727,cover=21203.3
				30:leaf=0.00696925,cover=27476.4
booster[32]:
0:[CAT_REL<0.024534] yes=1,no=2,missing=1,gain=556.263,cover=1.76911e+06
	1:[D_CAT_LEN<0.5] yes=3,no=4,missing=3,gain=443.84,cover=1.42887e+06
		3:[D_PUBLISHER_COEC<0.0323702] yes=7,no=8,missing=8,gain=428.965,cover=760665
			7:[C_D_U_PUBLISHER_AGE_EC<6.31033] yes=15,no=16,missing=16,gain=529.092,cover=193987
				15:leaf=0.00853705,cover=12127.4
				16:leaf=-0.00224877,cover=181859
			8:[D_CONID_C<0.0596592] yes=17,no=18,missing=18,gain=233.063,cover=566679
				17:leaf=0.00579693,cover=25751.5
				18:leaf=0.000928409,cover=540927
		4:[D_PUBLISHER_COEC<0.019759] yes=9,no=10,missing=9,gain=408.258,cover=668210
			9:[C_D_U_CATEGORY_AGE_MAX_C<100.036] yes=19,no=20,missing=19,gain=193.351,cover=30676.4
				19:leaf=-0.00812157,cover=28200.2
				20:leaf=0.00644863,cover=2476.22
			10:[D_CONID_COEC<0.0435142] yes=21,no=22,missing=22,gain=355.237,cover=637533
				21:leaf=-0.00404475,cover=85220.4
				22:leaf=-0.00057647,cover=552313
	2:[D_PUBLISHER_C<31.7767] yes=5,no=6,missing=5,gain=144.741,cover=340235
		5:[C_D_U_PUBLISHER_AGE_COEC<0.0204681] yes=11,no=12,missing=11,gain=86.603,cover=68111.2
			11:[D_CATEGORY_MAX_EC<322.696] yes=23,no=24,missing=24,gain=48.606,cover=16013.3
				23:leaf=0.00469847,cover=1660.44
				24:leaf=-0.00433546,cover=14352.9
			12:[WORD_COUNT<1242.5] yes=25,no=26,missing=25,gain=49.3635,cover=52097.9
				25:leaf=-0.000815377,cover=24697.7
				26:leaf=0.00226689,cover=27400.3
		6:[C_D_U_CATEGORY_CITY_MAX_EC<577.19] yes=13,no=14,missing=14,gain=152.539,cover=272124
			13:[C_D_U_PUBLISHER_GENDER_C<84.472] yes=27,no=28,missing=28,gain=33.6734,cover=13508.4
				27:leaf=0.0085638,cover=11673.2
				28:leaf=0.00127728,cover=1835.22
			14:[D_CONID_C<19.775] yes=29,no=30,missing=29,gain=119.305,cover=258615
				29:leaf=0.00172376,cover=227082
				30:leaf=0.00500584,cover=31532.9
booster[33]:
0:[DOC_AGE<0.5] yes=1,no=2,missing=1,gain=552.808,cover=1.76468e+06
	1:[DOC_AGE<-0.5] yes=3,no=4,missing=3,gain=147.904,cover=154567
		3:[D_PUBLISHER_EC<6175.84] yes=7,no=8,missing=8,gain=53.3156,cover=9424.52
			7:[WORD_COUNT<516.5] yes=15,no=16,missing=15,gain=42.9346,cover=8127.94
				15:leaf=-0.0231523,cover=134.684
				16:leaf=0.00521443,cover=7993.26
			8:[C_D_U_PUBLISHER_GENDER_COEC<0.0275703] yes=17,no=18,missing=18,gain=21.8541,cover=1296.58
				17:leaf=-0.00170518,cover=880.53
				18:leaf=-0.0156018,cover=416.05
		4:[C_D_U_PUBLISHER_GENDER_COEC<0.020287] yes=9,no=10,missing=10,gain=128.656,cover=145142
			9:[C_D_U_PUBLISHER_AGE_COEC<0.0327707] yes=19,no=20,missing=19,gain=41.4773,cover=8640.85
				19:leaf=-0.00972723,cover=8400.09
				20:leaf=0.0112874,cover=240.756
			10:[D_PUBLISHER_C<651.523] yes=21,no=22,missing=21,gain=71.8409,cover=136501
				21:leaf=-0.00254414,cover=127471
				22:leaf=-0.0071589,cover=9030.54
	2:[D_CONID_COEC<0.0535048] yes=5,no=6,missing=6,gain=543.117,cover=1.61011e+06
		5:[D_CONID_EC<19.0875] yes=11,no=12,missing=12,gain=245.809,cover=282077
			11:[D_CAT_LEN<0.5] yes=23,no=24,missing=23,gain=376.198,cover=101021
				23:leaf=0.00428633,cover=37130
				24:leaf=-0.00204212,cover=63890.5
			12:[D_CONID_COEC<0.0249956] yes=25,no=26,missing=26,gain=216.801,cover=181056
				25:leaf=-0.00546654,cover=53488.6
				26:leaf=-0.00167421,cover=127568
		6:[CAT_REL<0.021282] yes=13,no=14,missing=13,gain=381.872,cover=1.32803e+06
			13:[DOC_AGE<3.5] yes=27,no=28,missing=27,gain=434.88,cover=1.07231e+06
				27:leaf=-0.00100482,cover=396542
				28:leaf=0.00108097,cover=675766
			14:[D_PUBLISHER_COEC<0.0334435] yes=29,no=30,missing=29,gain=116.999,cover=255727
				29:leaf=0.000772609,cover=73296.6
				30:leaf=0.00313777,cover=182430
booster[34]:
0:[DOC_AGE<1.5] yes=1,no=2,missing=1,gain=522.86,cover=1.76728e+06
	1:[D_PUBLISHER_COEC<0.0240863] yes=3,no=4,missing=4,gain=263.333,cover=345073
		3:[C_D_U_PUBLISHER_AGE_COEC<0.0286136] yes=7,no=8,missing=8,gain=84.8796,cover=28028.3
			7:[D_PUBLISHER_COEC<0.016449] yes=15,no=16,missing=16,gain=61.2406,cover=25665.2
				15:leaf=-0.0111255,cover=7095.66
				16:leaf=-0.00566401,cover=18569.6
			8:[DAY_OF_WEEK<2.5] yes=17,no=18,missing=17,gain=20.0092,cover=2363.1
				17:leaf=-0.00623954,cover=491.716
				18:leaf=0.00508566,cover=1871.38
		4:[CAT_REL<0.0223265] yes=9,no=10,missing=9,gain=167.184,cover=317045
			9:[D_CAT_LEN<0.5] yes=19,no=20,missing=19,gain=127.616,cover=254925
				19:leaf=-0.000778975,cover=132996
				20:leaf=-0.0030185,cover=121929
			10:[D_PUBLISHER_EC<7370.01] yes=21,no=22,missing=21,gain=68.7806,cover=62119.9
				21:leaf=0.00195207,cover=47827.2
				22:leaf=-0.0020008,cover=14292.7
	2:[D_CONID_COEC<0.0403095] yes=5,no=6,missing=6,gain=513.53,cover=1.4222e+06
		5:[D_CONID_EC<14.3915] yes=11,no=12,missing=12,gain=184.745,cover=214874
			11:[DAY_OF_WEEK<2.5] yes=23,no=24,missing=23,gain=243.65,cover=80901.3
				23:leaf=0.00441349,cover=23383.3
				24:leaf=-0.00163947,cover=57518
			12:[D_CONID_COEC<0.0269332] yes=25,no=26,missing=26,gain=204.529,cover=133973
				25:leaf=-0.00497204,cover=63561.2
				26:leaf=-0.00105968,cover=70411.4
		6:[IMAGE_COUNT<0.5] yes=13,no=14,missing=13,gain=348.447,cover=1.20733e+06
			13:[D_PUBLISHER_EC<4815.57] yes=27,no=28,missing=27,gain=33.3434,cover=8858.81
				27:leaf=-0.00809571,cover=8149.03
				28:leaf=-0.019393,cover=709.788
			14:[U_AGE_2<0.5] yes=29,no=30,missing=29,gain=316.896,cover=1.19847e+06
				29:leaf=-0.000185375,cover=406538
				30:leaf=0.00153193,cover=791934
booster[35]:
0:[D_PUBLISHER_COEC<0.0577036] yes=1,no=2,missing=1,gain=489.832,cover=1.75868e+06
	1:[U_KW_LEN<0.5] yes=3,no=4,missing=3,gain=377.901,cover=1.43822e+06
		3:[TIME_OF_DAY<17.5] yes=7,no=8,missing=7,gain=160.115,cover=314715
			7:[U_AGE_2<0.5] yes=15,no=16,missing=15,gain=103.265,cover=276956
				15:leaf=-0.00356118,cover=116033
				16:leaf=-0.00160434,cover=160923
			8:[WORD_COUNT<1205.5] yes=17,no=18,missing=17,gain=71.3315,cover=37759.6
				17:leaf=0.00409806,cover=12705.7
				18:leaf=-0.000501062,cover=25054
		4:[DOC_AGE<0.5] yes=9,no=10,missing=9,gain=259.229,cover=1.1235e+06
			9:[C_D_U_PUBLISHER_AGE_COEC<0.0175388] yes=19,no=20,missing=20,gain=112.419,cover=112619
				19:leaf=-0.00981039,cover=4798.55
				20:leaf=-0.00198958,cover=107821
			10:[DOC_AGE<23.5] yes=21,no=22,missing=21,gain=318.305,cover=1.01088e+06
				21:leaf=0.000530781,cover=891465
				22:leaf=-0.00221808,cover=119419
	2:[WORD_COUNT<2766.5] yes=5,no=6,missing=5,gain=176.817,cover=320457
		5:[WORD_COUNT<1784.5] yes=11,no=12,missing=11,gain=161.55,cover=258354
			11:[D_CAT_LEN<0.5] yes=23,no=24,missing=23,gain=168.63,cover=209578
				23:leaf=0.00342913,cover=85027.4
				24:leaf=0.000540723,cover=124550
			12:[C_D_U_CATEGORY_CITY_MACRO_MAX_COEC<0.0239236] yes=25,no=26,missing=25,gain=108.099,cover=48775.9
				25:leaf=-0.00353044,cover=27758.2
				26:leaf=0.00122278,cover=21017.7
		6:[C_D_U_CATEGORY_CITY_MAX_EC<396.997] yes=13,no=14,missing=14,gain=104.575,cover=62103.4
			13:[D_PUBLISHER_COEC<0.0727918] yes=27,no=28,missing=28,gain=56.4809,cover=20304.3
				27:leaf=-0.00601398,cover=797.259
				28:leaf=0.0075577,cover=19507
			14:[DAY_OF_WEEK<3.5] yes=29,no=30,missing=29,gain=60.3843,cover=41799.1
				29:leaf=-0.00239584,cover=5190.87
				30:leaf=0.00336623,cover=36608.3
booster[36]:
0:[TIME_OF_DAY<17.5] yes=1,no=2,missing=1,gain=453.46,cover=1.75975e+06
	1:[D_CONID_COEC<0.0740124] yes=3,no=4,missing=3,gain=432.155,cover=1.59899e+06
		3:[CAT_REL<0.0135565] yes=7,no=8,missing=7,gain=366.232,cover=1.41506e+06
			7:[D_CAT_LEN<0.5] yes=15,no=16,missing=15,gain=420.307,cover=1.13704e+06
				15:leaf=-7.75591e-05,cover=608534
				16:leaf=-0.00200496,cover=528509
			8:[C_D_U_PUBLISHER_AGE_COEC<0.0359063] yes=17,no=18,missing=17,gain=166.211,cover=278017
				17:leaf=-0.00043595,cover=112131
				18:leaf=0.00205616,cover=165886
		4:[D_CONID_C<11.0185] yes=9,no=10,missing=10,gain=143.367,cover=183926
			9:[D_CONID_COEC<0.0742825] yes=19,no=20,missing=20,gain=112.783,cover=52227.9
				19:leaf=0.00898724,cover=3128.39
				20:leaf=-0.000802645,cover=49099.5
			10:[TIME_OF_DAY<2.5] yes=21,no=22,missing=21,gain=90.4963,cover=131698
				21:leaf=0.0046894,cover=45313.2
				22:leaf=0.00193043,cover=86385
	2:[D_PUBLISHER_EC<5806.19] yes=5,no=6,missing=5,gain=141.816,cover=160769
		5:[C_D_U_CATEGORY_CITY_MACRO_MAX_COEC<0.0383604] yes=11,no=12,missing=12,gain=106.119,cover=154632
			11:[D_CATEGORY_MACRO_MAX_COEC<0.0210394] yes=23,no=24,missing=24,gain=100.426,cover=14912.3
				23:leaf=0.00462524,cover=4936.54
				24:leaf=-0.00409335,cover=9975.73
			12:[DOC_AGE<5.5] yes=25,no=26,missing=25,gain=110.126,cover=139720
				25:leaf=0.00106888,cover=41453.8
				26:leaf=0.00414189,cover=98266.1
		6:[WORD_COUNT<3189] yes=13,no=14,missing=13,gain=29.772,cover=6137.21
			13:[C_D_U_PUBLISHER_GENDER_C<38.5587] yes=27,no=28,missing=28,gain=16.6306,cover=5114.66
				27:leaf=0.00612878,cover=247.187
				28:leaf=-0.00714677,cover=4867.47
			14:[U_KW_LEN<0.5] yes=29,no=30,missing=29,gain=10.4765,cover=1022.56
				29:leaf=-0.00926797,cover=151.247
				30:leaf=0.0049489,cover=871.312
booster[37]:
0:[D_CONID_COEC<0.090915] yes=1,no=2,missing=1,gain=496.994,cover=1.76391e+06
	1:[D_PUBLISHER_EC<7380.73] yes=3,no=4,missing=3,gain=377.396,cover=1.62202e+06
		3:[C_D_U_PUBLISHER_AGE_COEC<0.0600328] yes=7,no=8,missing=8,gain=298.669,cover=1.27281e+06
			7:[WORD_COUNT<2312.5] yes=15,no=16,missing=15,gain=285.862,cover=1.03866e+06
				15:leaf=0.000293915,cover=763153
				16:leaf=-0.00158503,cover=275505
			8:[C_D_U_PUBLISHER_GENDER_C<43.9329] yes=17,no=18,missing=18,gain=179.358,cover=234148
				17:leaf=0.003166,cover=116244
				18:leaf=0.000398255,cover=117904
		4:[D_CONID_COEC<0.0334084] yes=9,no=10,missing=9,gain=133.97,cover=349211
			9:[D_PUBLISHER_C<502.455] yes=19,no=20,missing=20,gain=287.414,cover=249380
				19:leaf=-0.00111703,cover=166376
				20:leaf=-0.00471916,cover=83004.3
			10:[TIME_OF_DAY<4.5] yes=21,no=22,missing=21,gain=80.7943,cover=99831.5
				21:leaf=0.000736944,cover=71950.1
				22:leaf=-0.00243346,cover=27881.3
	2:[D_CONID_EC<72.9643] yes=5,no=6,missing=6,gain=139.289,cover=141897
		5:[DAY_OF_WEEK<2.5] yes=11,no=12,missing=11,gain=56.9973,cover=32649.2
			11:[CAT_REL<0.49104] yes=23,no=24,missing=23,gain=28.0333,cover=4400.35
				23:leaf=-0.00696589,cover=3755.65
				24:leaf=0.00431449,cover=644.692
			12:[D_PUBLISHER_EC<11959.3] yes=25,no=26,missing=26,gain=37.4279,cover=28248.8
				25:leaf=0.0012234,cover=26828.2
				26:leaf=-0.00710173,cover=1420.61
		6:[TIME_OF_DAY<2.5] yes=13,no=14,missing=13,gain=76.4339,cover=109247
			13:[D_PUBLISHER_COEC<0.0506972] yes=27,no=28,missing=28,gain=33.1445,cover=38259.1
				27:leaf=0.00757232,cover=12855.3
				28:leaf=0.00445617,cover=25403.8
			14:[D_CONID_COEC<0.187662] yes=29,no=30,missing=30,gain=34.7282,cover=70988.3
				29:leaf=0.00225978,cover=60086.8
				30:leaf=0.00532721,cover=10901.5
booster[38]:
0:[C_D_U_PUBLISHER_AGE_COEC<0.0493552] yes=1,no=2,missing=1,gain=485.297,cover=1.76154e+06
	1:[DOC_AGE<1.5] yes=3,no=4,missing=3,gain=262.563,cover=1.20876e+06
		3:[D_PUBLISHER_COEC<0.0163923] yes=7,no=8,missing=8,gain=214.856,cover=256075
			7:[WORD_COUNT<755] yes=15,no=16,missing=15,gain=29.043,cover=7151.23
				15:leaf=-0.00205432,cover=886.108
				16:leaf=-0.0117279,cover=6265.12
			8:[D_CONID_C<0.975199] yes=17,no=18,missing=18,gain=117.29,cover=248924
				17:leaf=0.00920488,cover=2423.03
				18:leaf=-0.00184756,cover=246501
		4:[DOC_AGE<19.5] yes=9,no=10,missing=9,gain=280.148,cover=952685
			9:[D_PUBLISHER_EC<10.876] yes=19,no=20,missing=20,gain=273.291,cover=774344
				19:leaf=0.00746822,cover=12821.9
				20:leaf=0.000107565,cover=761522
			10:[D_CONID_COEC<0.0507161] yes=21,no=22,missing=21,gain=139.424,cover=178341
				21:leaf=-0.00281994,cover=130099
				22:leaf=0.000327186,cover=48241.9
	2:[D_CONID_COEC<0.0435078] yes=5,no=6,missing=6,gain=219.145,cover=552781
		5:[C_D_U_PUBLISHER_GENDER_EC<43.7955] yes=11,no=12,missing=12,gain=48.1399,cover=43382.4
			11:[WORD_COUNT<1782] yes=23,no=24,missing=23,gain=35.0222,cover=2887.52
				23:leaf=-0.00230102,cover=1239.09
				24:leaf=0.00882146,cover=1648.42
			12:[CAT_REL<0.0166375] yes=25,no=26,missing=25,gain=42.6682,cover=40494.9
				25:leaf=-0.00355837,cover=30540.2
				26:leaf=0.000210987,cover=9954.75
		6:[DOC_AGE<4.5] yes=13,no=14,missing=13,gain=171.436,cover=509398
			13:[D_PUBLISHER_C<495.752] yes=27,no=28,missing=28,gain=220.875,cover=211497
				27:leaf=0.00114159,cover=176840
				28:leaf=-0.00322357,cover=34657.8
			14:[DOC_AGE<40.5] yes=29,no=30,missing=29,gain=113.233,cover=297901
				29:leaf=0.00257228,cover=274514
				30:leaf=-0.001052,cover=23386.7
booster[39]:
0:[U_KW_LEN<0.5] yes=1,no=2,missing=1,gain=407.286,cover=1.76386e+06
	1:[TIME_OF_DAY<17.5] yes=3,no=4,missing=3,gain=171.376,cover=386496
		3:[D_CONID_C<35.8834] yes=7,no=8,missing=7,gain=137.924,cover=337955
			7:[C_D_U_CATEGORY_AGE_MACRO_MAX_COEC<0.0359251] yes=15,no=16,missing=15,gain=110.837,cover=300349
				15:leaf=-0.00259758,cover=259936
				16:leaf=0.000217105,cover=40413.4
			8:[D_CONID_COEC<0.133572] yes=17,no=18,missing=18,gain=39.7669,cover=37605.9
				17:leaf=6.76819e-05,cover=28404.3
				18:leaf=0.00384965,cover=9201.57
		4:[C_D_U_CATEGORY_CITY_MACRO_MAX_COEC<0.038767] yes=9,no=10,missing=10,gain=47.2168,cover=48540.5
			9:[DOC_AGE<35.5] yes=19,no=20,missing=19,gain=99.3452,cover=6950.52
				19:leaf=0.00740825,cover=1854.38
				20:leaf=-0.00610438,cover=5096.14
			10:[D_PUBLISHER_C<51.1015] yes=21,no=22,missing=22,gain=64.0638,cover=41590
				21:leaf=0.00436674,cover=16551.1
				22:leaf=0.000357672,cover=25038.9
	2:[DOC_AGE<0.5] yes=5,no=6,missing=5,gain=313.79,cover=1.37736e+06
		5:[DOC_AGE<-0.5] yes=11,no=12,missing=11,gain=173.679,cover=124117
			11:[D_PUBLISHER_C<297.528] yes=23,no=24,missing=24,gain=40.1208,cover=8226.39
				23:leaf=0.00545252,cover=8088.75
				24:leaf=-0.0216781,cover=137.636
			12:[D_PUBLISHER_COEC<0.0205488] yes=25,no=26,missing=26,gain=95.0554,cover=115890
				25:leaf=-0.009129,cover=5198.84
				26:leaf=-0.00221168,cover=110692
		6:[D_CONID_COEC<0.0402817] yes=13,no=14,missing=14,gain=333.87,cover=1.25325e+06
			13:[DAY_OF_WEEK<2.5] yes=27,no=28,missing=27,gain=172.765,cover=162877
				27:leaf=0.00133165,cover=40485.6
				28:leaf=-0.00243624,cover=122391
			14:[D_PUBLISHER_COEC<0.0547032] yes=29,no=30,missing=30,gain=223.294,cover=1.09037e+06
				29:leaf=0.000506667,cover=810354
				30:leaf=0.00214449,cover=280016
booster[40]:
0:[U_AGE_2<0.5] yes=1,no=2,missing=1,gain=358.602,cover=1.76374e+06
	1:[CAT_REL<0.056058] yes=3,no=4,missing=3,gain=217.811,cover=609419
		3:[D_CONID_COEC<0.0642484] yes=7,no=8,missing=7,gain=120.757,cover=498952
			7:[WORD_COUNT<1557.5] yes=15,no=16,missing=15,gain=118.405,cover=436238
				15:leaf=-0.000799765,cover=199009
				16:leaf=-0.00245362,cover=237229
			8:[D_PUBLISHER_C<4.94383] yes=17,no=18,missing=18,gain=60.6406,cover=62714.5
				17:leaf=-0.016136,cover=532.627
				18:leaf=0.000791304,cover=62181.8
		4:[CAT_REL<0.9909] yes=9,no=10,missing=9,gain=73.7221,cover=110467
			9:[D_CONID_C<3.12202] yes=19,no=20,missing=19,gain=80.4973,cover=100568
				19:leaf=0.000804417,cover=83024.1
				20:leaf=0.00453187,cover=17544.4
			10:[C_D_U_CATEGORY_AGE_MAX_C<334.971] yes=21,no=22,missing=21,gain=27.41,cover=9898.09
				21:leaf=-0.00447955,cover=7684.68
				22:leaf=0.00183443,cover=2213.41
	2:[C_D_U_PUBLISHER_AGE_COEC<0.0270963] yes=5,no=6,missing=6,gain=260.122,cover=1.15432e+06
		5:[D_PUBLISHER_EC<11.7677] yes=11,no=12,missing=12,gain=282.896,cover=122372
			11:[C_D_U_CATEGORY_AGE_MACRO_MAX_COEC<0.280816] yes=23,no=24,missing=24,gain=167.986,cover=10970.5
				23:leaf=-0.00866689,cover=1652.64
				24:leaf=0.00862633,cover=9317.83
			12:[C_D_U_PUBLISHER_AGE_COEC<0.0160638] yes=25,no=26,missing=26,gain=88.6625,cover=111402
				25:leaf=-0.00536256,cover=20521.9
				26:leaf=-0.00172391,cover=90879.7
		6:[C_D_U_PUBLISHER_AGE_EC<3775.97] yes=13,no=14,missing=14,gain=245.403,cover=1.03195e+06
			13:[D_PUBLISHER_COEC<0.0269796] yes=27,no=28,missing=28,gain=245.02,cover=662011
				27:leaf=-0.00382083,cover=21940
				28:leaf=0.00155274,cover=640071
			14:[D_CONID_COEC<0.0608077] yes=29,no=30,missing=29,gain=337.069,cover=369939
				29:leaf=-0.00102079,cover=290758
				30:leaf=0.00265892,cover=79181.6
booster[41]:
0:[CAT_REL<0.000738] yes=1,no=2,missing=1,gain=312.605,cover=1.76377e+06
	1:[WORD_COUNT<1556.5] yes=3,no=4,missing=3,gain=339.584,cover=1.41117e+06
		3:[D_CONID_COEC<0.0399729] yes=7,no=8,missing=8,gain=549.823,cover=657177
			7:[D_CONID_COEC<0.0189526] yes=15,no=16,missing=16,gain=42.1097,cover=52667.1
				15:leaf=-0.0060024,cover=23415.3
				16:leaf=-0.00315705,cover=29251.8
			8:[D_CATEGORY_MACRO_MAX_COEC<0.00810633] yes=17,no=18,missing=17,gain=357.552,cover=604510
				17:leaf=0.00133367,cover=537529
				18:leaf=-0.00254035,cover=66981.2
		4:[D_PUBLISHER_COEC<0.0401594] yes=9,no=10,missing=10,gain=366.942,cover=753996
			9:[C_D_U_PUBLISHER_AGE_COEC<0.0359009] yes=19,no=20,missing=20,gain=436.157,cover=385072
				19:leaf=-0.00295153,cover=314880
				20:leaf=0.00140704,cover=70192.2
			10:[C_D_U_CATEGORY_CITY_MACRO_MAX_COEC<0.0820843] yes=21,no=22,missing=21,gain=206.602,cover=368924
				21:leaf=-0.000281299,cover=342178
				22:leaf=0.0042816,cover=26746.3
	2:[D_CONID_COEC<0.014785] yes=5,no=6,missing=6,gain=146.403,cover=352597
		5:[D_CONID_COEC<0.00552601] yes=11,no=12,missing=12,gain=38.4228,cover=25821.2
			11:[C_D_U_PUBLISHER_GENDER_C<16.7593] yes=23,no=24,missing=23,gain=33.6371,cover=21302.9
				23:leaf=-0.00328801,cover=11334.2
				24:leaf=0.000693693,cover=9968.71
			12:[D_PUBLISHER_EC<10402.6] yes=25,no=26,missing=26,gain=30.488,cover=4518.31
				25:leaf=-0.00476527,cover=3835.53
				26:leaf=-0.0162286,cover=682.787
		6:[CAT_REL<0.968866] yes=13,no=14,missing=13,gain=146.313,cover=326776
			13:[CAT_REL<0.705518] yes=27,no=28,missing=27,gain=144.096,cover=294995
				27:leaf=0.00145266,cover=246172
				28:leaf=0.00442618,cover=48822.6
			14:[C_D_U_PUBLISHER_AGE_COEC<0.036423] yes=29,no=30,missing=29,gain=49.5218,cover=31781.3
				29:leaf=-0.00501686,cover=8041
				30:leaf=-0.000477042,cover=23740.3
booster[42]:
0:[U_AGE_2<0.5] yes=1,no=2,missing=1,gain=349.499,cover=1.76592e+06
	1:[CAT_REL<0.155939] yes=3,no=4,missing=3,gain=240.069,cover=607737
		3:[C_D_U_CATEGORY_CITY_MACRO_MAX_COEC<0.0345819] yes=7,no=8,missing=8,gain=118.831,cover=518686
			7:[C_D_U_CATEGORY_AGE_MACRO_MAX_COEC<0.0058816] yes=15,no=16,missing=16,gain=65.9353,cover=41993.3
				15:leaf=0.00020029,cover=7910.8
				16:leaf=-0.00486658,cover=34082.5
			8:[DOC_AGE<3.5] yes=17,no=18,missing=17,gain=133.297,cover=476692
				17:leaf=-0.00221777,cover=178611
				18:leaf=-0.000490432,cover=298082
		4:[CAT_REL<0.9909] yes=9,no=10,missing=9,gain=77.5809,cover=89051.4
			9:[CAT_REL<0.506452] yes=19,no=20,missing=19,gain=57.3125,cover=78981.9
				19:leaf=0.000486182,cover=35554.2
				20:leaf=0.00319344,cover=43427.7
			10:[D_CONID_EC<324.063] yes=21,no=22,missing=21,gain=31.5381,cover=10069.5
				21:leaf=-0.00380211,cover=8685.71
				22:leaf=0.00432318,cover=1383.76
	2:[DOC_AGE<32.5] yes=5,no=6,missing=5,gain=266.406,cover=1.15818e+06
		5:[C_D_U_PUBLISHER_AGE_COEC<0.0358793] yes=11,no=12,missing=12,gain=385.087,cover=1.07815e+06
			11:[WORD_COUNT<1869.5] yes=23,no=24,missing=23,gain=255.572,cover=394750
				23:leaf=0.000584593,cover=227428
				24:leaf=-0.00198988,cover=167321
			12:[D_CONID_EC<1.33847] yes=25,no=26,missing=26,gain=243.745,cover=683396
				25:leaf=0.0106313,cover=7159.73
				26:leaf=0.00135769,cover=676236
		6:[WORD_COUNT<5879] yes=13,no=14,missing=13,gain=82.4102,cover=80037.9
			13:[CAT_REL<0.0859485] yes=27,no=28,missing=27,gain=88.1798,cover=75401.2
				27:leaf=-0.00400334,cover=46384.8
				28:leaf=-0.000489075,cover=29016.4
			14:[C_D_U_CATEGORY_CITY_MACRO_MAX_COEC<0.0319087] yes=29,no=30,missing=30,gain=37.5536,cover=4636.71
				29:leaf=-0.00350992,cover=1173.93
				30:leaf=0.00683565,cover=3462.78
booster[43]:
0:[U_KW_LEN<0.5] yes=1,no=2,missing=1,gain=305.374,cover=1.76556e+06
	1:[TIME_OF_DAY<16.5] yes=3,no=4,missing=3,gain=129.897,cover=387057
		3:[U_AGE_2<0.5] yes=7,no=8,missing=7,gain=82.9815,cover=313548
			7:[C_D_U_PUBLISHER_GENDER_EC<5442.33] yes=15,no=16,missing=16,gain=33.9838,cover=130322
				15:leaf=-0.00248766,cover=125756
				16:leaf=-0.00687861,cover=4565.92
			8:[D_CONID_C<47.6344] yes=17,no=18,missing=17,gain=102.484,cover=183226
				17:leaf=-0.00140189,cover=163492
				18:leaf=0.00241254,cover=19733.6
		4:[C_D_U_CATEGORY_CITY_MACRO_MAX_COEC<0.0399746] yes=9,no=10,missing=9,gain=68.6797,cover=73508.9
			9:[DOC_AGE<39.5] yes=19,no=20,missing=19,gain=87.3513,cover=58920.9
				19:leaf=0.000623609,cover=51587
				20:leaf=-0.00520781,cover=7333.94
			10:[C_D_U_PUBLISHER_GENDER_COEC<0.0243079] yes=21,no=22,missing=22,gain=67.7584,cover=14588
				21:leaf=0.0123915,cover=1954.21
				22:leaf=0.00238883,cover=12633.8
	2:[DOC_AGE<35.5] yes=5,no=6,missing=5,gain=270.669,cover=1.3785e+06
		5:[D_PUBLISHER_COEC<0.0267699] yes=11,no=12,missing=12,gain=292.54,cover=1.27488e+06
			11:[C_D_U_PUBLISHER_GENDER_EC<5.18328] yes=23,no=24,missing=24,gain=289.85,cover=166470
				23:leaf=0.00644115,cover=11008.6
				24:leaf=-0.001954,cover=155462
			12:[D_CONID_EC<1.33847] yes=25,no=26,missing=26,gain=241.7,cover=1.10841e+06
				25:leaf=0.00830329,cover=10768
				26:leaf=0.000775976,cover=1.09764e+06
		6:[CAT_REL<0.306774] yes=13,no=14,missing=13,gain=138.067,cover=103620
			13:[D_CONID_C<0.182737] yes=27,no=28,missing=27,gain=198.423,cover=66188.6
				27:leaf=-0.00649013,cover=29899.3
				28:leaf=-0.000989193,cover=36289.3
			14:[WORD_COUNT<1241.5] yes=29,no=30,missing=29,gain=66.8846,cover=37431.6
				29:leaf=-0.00200201,cover=16917.7
				30:leaf=0.00224463,cover=20513.9
booster[44]:
0:[DOC_AGE<1.5] yes=1,no=2,missing=1,gain=350.305,cover=1.76829e+06
	1:[C_D_U_PUBLISHER_GENDER_COEC<0.0202845] yes=3,no=4,missing=4,gain=178.151,cover=345734
		3:[C_D_U_CATEGORY_GENDER_MAX_C<62.6858] yes=7,no=8,missing=7,gain=56.9117,cover=17820.9
			7:[C_D_U_CATEGORY_CITY_MACRO_MAX_COEC<0.0180861] yes=15,no=16,missing=16,gain=24.9254,cover=16314.8
				15:leaf=-0.0148207,cover=975.38
				16:leaf=-0.00657828,cover=15339.4
			8:[C_D_U_CATEGORY_AGE_MAX_C<382.792] yes=17,no=18,missing=18,gain=30.425,cover=1506.08
				17:leaf=0.00733631,cover=1108.94
				18:leaf=-0.00877593,cover=397.143
		4:[D_CONID_C<0.693981] yes=9,no=10,missing=9,gain=144.758,cover=327913
			9:[D_PUBLISHER_C<632.631] yes=19,no=20,missing=19,gain=106.313,cover=325799
				19:leaf=-0.000927826,cover=304785
				20:leaf=-0.00460473,cover=21013.5
			10:[C_D_U_PUBLISHER_AGE_EC<6921.24] yes=21,no=22,missing=22,gain=11.3146,cover=2114.73
				21:leaf=0.0123345,cover=2092.73
				22:leaf=-0.0230157,cover=22
	2:[D_CONID_COEC<0.0396345] yes=5,no=6,missing=6,gain=327.18,cover=1.42256e+06
		5:[D_CONID_EC<14.4618] yes=11,no=12,missing=12,gain=174.06,cover=208921
			11:[D_CAT_LEN<0.5] yes=23,no=24,missing=23,gain=221.302,cover=79843.6
				23:leaf=0.00389533,cover=29287.5
				24:leaf=-0.00156663,cover=50556.1
			12:[D_CONID_COEC<0.0188967] yes=25,no=26,missing=26,gain=106.77,cover=129078
				25:leaf=-0.00481056,cover=36793.8
				26:leaf=-0.00162511,cover=92284.1
		6:[U_AGE_2<0.5] yes=13,no=14,missing=13,gain=222.766,cover=1.21364e+06
			13:[CAT_REL<0.506817] yes=27,no=28,missing=27,gain=183.964,cover=410381
				27:leaf=-0.000533701,cover=374017
				28:leaf=0.00319145,cover=36363.7
			14:[C_D_U_PUBLISHER_AGE_COEC<0.0356558] yes=29,no=30,missing=29,gain=217.625,cover=803256
				29:leaf=8.37385e-05,cover=273761
				30:leaf=0.00182008,cover=529495
booster[45]:
0:[DOC_AGE<1.5] yes=1,no=2,missing=1,gain=343.638,cover=1.76148e+06
	1:[C_D_U_PUBLISHER_AGE_COEC<0.0192736] yes=3,no=4,missing=4,gain=155.063,cover=342737
		3:[D_PUBLISHER_C<233.853] yes=7,no=8,missing=8,gain=31.7635,cover=14288.4
			7:[D_PUBLISHER_C<1.27998] yes=15,no=16,missing=16,gain=27.3203,cover=13971
				15:leaf=-0.00257997,cover=2884.28
				16:leaf=-0.00804376,cover=11086.7
			8:[C_D_U_PUBLISHER_AGE_COEC<0.0149955] yes=17,no=18,missing=18,gain=13.0367,cover=317.426
				17:leaf=0.0124635,cover=285.426
				18:leaf=-0.0207657,cover=32
		4:[D_PUBLISHER_C<606.9] yes=9,no=10,missing=9,gain=154.08,cover=328449
			9:[WORD_COUNT<1335.5] yes=19,no=20,missing=19,gain=133.021,cover=305112
				19:leaf=0.000307225,cover=125662
				20:leaf=-0.001814,cover=179450
			10:[D_PUBLISHER_C<1193.44] yes=21,no=22,missing=22,gain=45.119,cover=23336.9
				21:leaf=-0.00573261,cover=21832.8
				22:leaf=0.00321888,cover=1504.09
	2:[D_CONID_COEC<0.0529491] yes=5,no=6,missing=6,gain=365.413,cover=1.41875e+06
		5:[D_CONID_EC<18.2179] yes=11,no=12,missing=12,gain=185.734,cover=278009
			11:[DAY_OF_WEEK<2.5] yes=23,no=24,missing=23,gain=240.718,cover=96880.2
				23:leaf=0.00432173,cover=28321.4
				24:leaf=-0.00115783,cover=68558.8
			12:[D_CONID_COEC<0.0262733] yes=25,no=26,missing=26,gain=158.968,cover=181129
				25:leaf=-0.00444597,cover=57290.7
				26:leaf=-0.00126069,cover=123838
		6:[IMAGE_COUNT<0.5] yes=13,no=14,missing=13,gain=239.331,cover=1.14074e+06
			13:[C_D_U_CATEGORY_CITY_MAX_EC<2552.35] yes=27,no=28,missing=27,gain=43.7627,cover=8856.35
				27:leaf=-0.00925353,cover=7072.3
				28:leaf=-0.00049011,cover=1784.05
			14:[D_PUBLISHER_COEC<0.0323702] yes=29,no=30,missing=30,gain=196.175,cover=1.13188e+06
				29:leaf=-0.000279754,cover=322695
				30:leaf=0.00117829,cover=809185
booster[46]:
0:[U_AGE_2<0.5] yes=1,no=2,missing=1,gain=282.079,cover=1.76524e+06
	1:[CAT_REL<0.506452] yes=3,no=4,missing=3,gain=193.284,cover=607541
		3:[DOC_AGE<5.5] yes=7,no=8,missing=7,gain=109.931,cover=554173
			7:[C_D_U_PUBLISHER_AGE_COEC<0.0234002] yes=15,no=16,missing=16,gain=159.231,cover=264586
				15:leaf=-0.00510137,cover=32980.7
				16:leaf=-0.00138808,cover=231605
			8:[TIME_OF_DAY<17.5] yes=17,no=18,missing=17,gain=72.0806,cover=289587
				17:leaf=-0.000772224,cover=246204
				18:leaf=0.0014381,cover=43383.2
		4:[CAT_REL<0.9909] yes=9,no=10,missing=9,gain=143.534,cover=53367.7
			9:[D_PUBLISHER_C<307.333] yes=19,no=20,missing=20,gain=64.1915,cover=43842.7
				19:leaf=0.00413282,cover=36073.6
				20:leaf=-0.000877514,cover=7769.12
			10:[C_D_U_CATEGORY_AGE_MAX_C<325.416] yes=21,no=22,missing=21,gain=30.6886,cover=9524.98
				21:leaf=-0.00508879,cover=7309.76
				22:leaf=0.00162835,cover=2215.22
	2:[DOC_AGE<26.5] yes=5,no=6,missing=5,gain=234.796,cover=1.1577e+06
		5:[C_D_U_PUBLISHER_AGE_COEC<0.0358793] yes=11,no=12,missing=12,gain=359.29,cover=1.05969e+06
			11:[D_PUBLISHER_EC<10.885] yes=23,no=24,missing=24,gain=229.056,cover=389551
				23:leaf=0.00703854,cover=9826.25
				24:leaf=-0.000693133,cover=379725
			12:[D_PUBLISHER_C<297.463] yes=25,no=26,missing=26,gain=233.391,cover=670136
				25:leaf=0.00213869,cover=416878
				26:leaf=0.000214235,cover=253258
		6:[D_CONID_COEC<0.011322] yes=13,no=14,missing=13,gain=91.5046,cover=98014.1
			13:[C_D_U_CATEGORY_CITY_MACRO_MAX_COEC<0.0365614] yes=27,no=28,missing=27,gain=86.7776,cover=35552.4
				27:leaf=-0.00576668,cover=22395.3
				28:leaf=-0.000650442,cover=13157.1
			14:[C_D_U_CATEGORY_AGE_MACRO_MAX_COEC<0.0601489] yes=29,no=30,missing=30,gain=57.4538,cover=62461.7
				29:leaf=0.00105114,cover=26840.4
				30:leaf=-0.0020121,cover=35621.3
booster[47]:
0:[D_CONID_C<46.7818] yes=1,no=2,missing=1,gain=310.571,cover=1.76961e+06
	1:[TIME_OF_DAY<16.5] yes=3,no=4,missing=3,gain=277.021,cover=1.65023e+06
		3:[CAT_REL<0.021234] yes=7,no=8,missing=7,gain=266.004,cover=1.3787e+06
			7:[D_CAT_LEN<0.5] yes=15,no=16,missing=15,gain=229.695,cover=1.10498e+06
				15:leaf=-0.000103343,cover=588510
				16:leaf=-0.0015482,cover=516468
			8:[WORD_COUNT<1820.5] yes=17,no=18,missing=17,gain=108.196,cover=273723
				17:leaf=0.000135501,cover=161781
				18:leaf=0.00215745,cover=111941
		4:[DOC_AGE<3.5] yes=9,no=10,missing=9,gain=120.024,cover=271533
			9:[D_PUBLISHER_COEC<0.027549] yes=19,no=20,missing=19,gain=97.9014,cover=57708.7
				19:leaf=-0.00616004,cover=7207.74
				20:leaf=6.88272e-05,cover=50501
			10:[D_CONID_COEC<0.0522162] yes=21,no=22,missing=22,gain=93.1845,cover=213824
				21:leaf=-0.00126255,cover=21486.4
				22:leaf=0.00220922,cover=192338
	2:[D_CONID_COEC<0.0977637] yes=5,no=6,missing=6,gain=91.7677,cover=119373
		5:[TIME_OF_DAY<6.5] yes=11,no=12,missing=11,gain=67.2233,cover=55541
			11:[C_D_U_PUBLISHER_GENDER_EC<10457.8] yes=23,no=24,missing=24,gain=28.051,cover=44831.3
				23:leaf=0.00159916,cover=42971.9
				24:leaf=0.00787043,cover=1859.39
			12:[C_D_U_PUBLISHER_GENDER_COEC<0.0605769] yes=25,no=26,missing=26,gain=32.0376,cover=10709.7
				25:leaf=-0.0036942,cover=9113.19
				26:leaf=0.00398242,cover=1596.48
		6:[DOC_AGE<35.5] yes=13,no=14,missing=13,gain=48.6987,cover=63831.8
			13:[C_D_U_CATEGORY_CITY_MAX_C<1251.17] yes=27,no=28,missing=28,gain=32.4019,cover=61024.9
				27:leaf=0.00257299,cover=22424.3
				28:leaf=0.00496294,cover=38600.6
			14:[C_D_U_CATEGORY_GENDER_MAX_C<104.674] yes=29,no=30,missing=30,gain=46.4098,cover=2806.92
				29:leaf=0.00437297,cover=1279.44
				30:leaf=-0.00853173,cover=1527.48
booster[48]:
0:[U_KW_LEN<0.5] yes=1,no=2,missing=1,gain=258.014,cover=1.76522e+06
	1:[TIME_OF_DAY<17.5] yes=3,no=4,missing=3,gain=120.249,cover=387087
		3:[C_D_U_CATEGORY_GENDER_MACRO_MAX_COEC<0.0706682] yes=7,no=8,missing=7,gain=79.8921,cover=338813
			7:[DOC_AGE<1.5] yes=15,no=16,missing=15,gain=72.3433,cover=312415
				15:leaf=-0.00321644,cover=61046
				16:leaf=-0.00129755,cover=251369
			8:[U_GENDER<1.5] yes=17,no=18,missing=17,gain=52.0155,cover=26397.4
				17:leaf=-9.09906e-05,cover=19786.6
				18:leaf=0.00503148,cover=6610.82
		4:[C_D_U_CATEGORY_CITY_MACRO_MAX_COEC<0.0383604] yes=9,no=10,missing=10,gain=44.0504,cover=48274.3
			9:[DOC_AGE<35.5] yes=19,no=20,missing=19,gain=54.7072,cover=6599.76
				19:leaf=0.00516293,cover=1695.52
				20:leaf=-0.0052536,cover=4904.24
			10:[C_D_U_PUBLISHER_GENDER_EC<331.549] yes=21,no=22,missing=22,gain=49.3832,cover=41674.5
				21:leaf=0.00416364,cover=14593.1
				22:leaf=0.000555537,cover=27081.4
	2:[DOC_AGE<3.5] yes=5,no=6,missing=5,gain=212.473,cover=1.37814e+06
		5:[D_PUBLISHER_COEC<0.0242423] yes=11,no=12,missing=12,gain=151.31,cover=517264
			11:[WORD_COUNT<3319] yes=23,no=24,missing=23,gain=67.9479,cover=41624.2
				23:leaf=-0.0024818,cover=35169.8
				24:leaf=-0.00806267,cover=6454.45
			12:[D_PUBLISHER_C<634.972] yes=25,no=26,missing=25,gain=130.294,cover=475639
				25:leaf=-1.66114e-05,cover=452523
				26:leaf=-0.00386503,cover=23116.4
		6:[DOC_AGE<34.5] yes=13,no=14,missing=13,gain=318.744,cover=860873
			13:[D_PUBLISHER_EC<766.187] yes=27,no=28,missing=27,gain=185.753,cover=755439
				27:leaf=0.00317131,cover=101830
				28:leaf=0.000875482,cover=653609
			14:[CAT_REL<0.041557] yes=29,no=30,missing=29,gain=124.542,cover=105434
				29:leaf=-0.00353637,cover=50667.4
				30:leaf=-9.68809e-05,cover=54766.6
booster[49]:
0:[CAT_REL<0.009793] yes=1,no=2,missing=1,gain=295.147,cover=1.76552e+06
	1:[D_CAT_LEN<0.5] yes=3,no=4,missing=3,gain=269.392,cover=1.41157e+06
		3:[U_KW_LEN<0.5] yes=7,no=8,missing=7,gain=251.538,cover=761184
			7:[D_PUBLISHER_EC<556.87] yes=15,no=16,missing=16,gain=91.6755,cover=149285
				15:leaf=0.00244015,cover=13421.3
				16:leaf=-0.00189139,cover=135864
			8:[D_PUBLISHER_COEC<0.0323702] yes=17,no=18,missing=18,gain=195.375,cover=611899
				17:leaf=-0.000745155,cover=155247
				18:leaf=0.00130809,cover=456652
		4:[DOC_AGE<0.5] yes=9,no=10,missing=9,gain=220.596,cover=650388
			9:[C_D_U_PUBLISHER_AGE_COEC<0.0178062] yes=19,no=20,missing=20,gain=42.8898,cover=59801.3
				19:leaf=-0.00982472,cover=2944.47
				20:leaf=-0.00363646,cover=56856.8
			10:[WORD_COUNT<719.5] yes=21,no=22,missing=21,gain=196.004,cover=590586
				21:leaf=-0.00461416,cover=31157.1
				22:leaf=-0.000539547,cover=559429
	2:[CAT_REL<0.935994] yes=5,no=6,missing=5,gain=138,cover=353946
		5:[CAT_REL<0.705276] yes=11,no=12,missing=11,gain=126.729,cover=318143
			11:[D_PUBLISHER_COEC<0.0144053] yes=23,no=24,missing=24,gain=79.6668,cover=264568
				23:leaf=-0.00481728,cover=5393.68
				24:leaf=0.00132177,cover=259174
			12:[D_CONID_COEC<0.0230246] yes=25,no=26,missing=26,gain=104.329,cover=53574.9
				25:leaf=-0.0026564,cover=5504.97
				26:leaf=0.00460993,cover=48069.9
		6:[C_D_U_PUBLISHER_AGE_COEC<0.0359851] yes=13,no=14,missing=13,gain=62.5939,cover=35802.9
			13:[C_D_U_PUBLISHER_GENDER_COEC<0.0329831] yes=27,no=28,missing=28,gain=56.828,cover=9049.18
				27:leaf=-0.00306454,cover=6979.7
				28:leaf=-0.0124978,cover=2069.48
			14:[C_D_U_CATEGORY_AGE_MACRO_MAX_COEC<0.0343472] yes=29,no=30,missing=30,gain=30.8066,cover=26753.7
				29:leaf=-0.0134516,cover=444.455
				30:leaf=-0.000191803,cover=26309.2
booster[50]:
0:[CAT_REL<0.0007465] yes=1,no=2,missing=1,gain=256.965,cover=1.77011e+06
	1:[U_AGE_2<0.5] yes=3,no=4,missing=3,gain=238.552,cover=1.41287e+06
		3:[C_D_U_CATEGORY_CITY_MACRO_MAX_COEC<0.0384611] yes=7,no=8,missing=8,gain=109.216,cover=479088
			7:[D_CONID_EC<6.05183] yes=15,no=16,missing=15,gain=45.6047,cover=37039.1
				15:leaf=-0.00510465,cover=23114.2
				16:leaf=-0.00148235,cover=13924.8
			8:[DOC_AGE<3.5] yes=17,no=18,missing=17,gain=106.783,cover=442049
				17:leaf=-0.00193393,cover=162853
				18:leaf=-0.000322902,cover=279196
		4:[C_D_U_PUBLISHER_AGE_COEC<0.0358784] yes=9,no=10,missing=10,gain=180.76,cover=933780
			9:[WORD_COUNT<1410.5] yes=19,no=20,missing=19,gain=239.009,cover=356867
				19:leaf=0.000986997,cover=137536
				20:leaf=-0.00167171,cover=219331
			10:[DOC_AGE<35.5] yes=21,no=22,missing=21,gain=167.482,cover=576913
				21:leaf=0.000962509,cover=552805
				22:leaf=-0.00329477,cover=24108.2
	2:[CAT_REL<0.968866] yes=5,no=6,missing=5,gain=158.218,cover=357244
		5:[D_PUBLISHER_COEC<0.0152054] yes=11,no=12,missing=12,gain=94.5781,cover=324353
			11:[CAT_REL<0.306427] yes=23,no=24,missing=23,gain=62.5945,cover=6329.24
				23:leaf=-0.00806702,cover=4133.45
				24:leaf=0.00237794,cover=2195.79
			12:[WORD_COUNT<1074.5] yes=25,no=26,missing=25,gain=88.6167,cover=318024
				25:leaf=0.000383553,cover=88413.1
				26:leaf=0.00224652,cover=229610
		6:[C_D_U_PUBLISHER_GENDER_COEC<0.0413332] yes=13,no=14,missing=13,gain=43.0041,cover=32890.7
			13:[WORD_COUNT<1718.5] yes=27,no=28,missing=27,gain=54.454,cover=11008.7
				27:leaf=-0.00772375,cover=6118.05
				28:leaf=-0.000646642,cover=4890.66
			14:[DOC_AGE<-18.5] yes=29,no=30,missing=29,gain=22.0626,cover=21882
				29:leaf=0.0133608,cover=272.595
				30:leaf=-0.000927399,cover=21609.4
booster[51]:
0:[D_CONID_COEC<0.0913638] yes=1,no=2,missing=1,gain=246.875,cover=1.76573e+06
	1:[D_PUBLISHER_EC<8734.03] yes=3,no=4,missing=3,gain=215.79,cover=1.6289e+06
		3:[U_AGE_2<0.5] yes=7,no=8,missing=7,gain=187.94,cover=1.37309e+06
			7:[CAT_REL<0.505775] yes=15,no=16,missing=15,gain=113.243,cover=474125
				15:leaf=-0.000964989,cover=431112
				16:leaf=0.00172545,cover=43013.2
			8:[DOC_AGE<27.5] yes=17,no=18,missing=17,gain=182.866,cover=898960
				17:leaf=0.000725781,cover=823170
				18:leaf=-0.00184079,cover=75790.2
		4:[D_CONID_COEC<0.0344338] yes=9,no=10,missing=9,gain=220.495,cover=255816
			9:[WORD_COUNT<2064] yes=19,no=20,missing=19,gain=113.304,cover=172237
				19:leaf=-0.00154345,cover=109049
				20:leaf=-0.00420435,cover=63188.4
			10:[U_KW_LEN<0.5] yes=21,no=22,missing=21,gain=100.526,cover=83579.1
				21:leaf=-0.00265637,cover=18374.1
				22:leaf=0.00153065,cover=65205
	2:[D_CONID_EC<24.0133] yes=5,no=6,missing=6,gain=100.616,cover=136824
		5:[D_CONID_COEC<0.108426] yes=11,no=12,missing=12,gain=36.8961,cover=18599.8
			11:[C_D_U_CATEGORY_AGE_MAX_EC<2082.73] yes=23,no=24,missing=24,gain=51.6983,cover=1461.76
				23:leaf=-0.00183185,cover=925.739
				24:leaf=-0.021335,cover=536.019
			12:[C_D_U_PUBLISHER_AGE_C<471.466] yes=25,no=26,missing=25,gain=18.0176,cover=17138.1
				25:leaf=-0.00103018,cover=16534.6
				26:leaf=0.00775851,cover=603.486
		6:[TIME_OF_DAY<1.5] yes=13,no=14,missing=13,gain=63.5686,cover=118224
			13:[C_D_U_PUBLISHER_GENDER_COEC<0.0391069] yes=27,no=28,missing=28,gain=28.8977,cover=22219.1
				27:leaf=0.0088091,cover=4059.17
				28:leaf=0.00414231,cover=18159.9
			14:[DAY_OF_WEEK<3.5] yes=29,no=30,missing=29,gain=63.9059,cover=96004.7
				29:leaf=3.41471e-05,cover=28340.7
				30:leaf=0.00286229,cover=67664.1
booster[52]:
0:[U_AGE_2<0.5] yes=1,no=2,missing=1,gain=239.295,cover=1.76144e+06
	1:[D_CONID_COEC<0.0913966] yes=3,no=4,missing=3,gain=130.485,cover=604384
		3:[C_D_U_PUBLISHER_GENDER_EC<2383.74] yes=7,no=8,missing=7,gain=125.376,cover=556582
			7:[DOC_AGE<1.5] yes=15,no=16,missing=15,gain=73.295,cover=436840
				15:leaf=-0.00200066,cover=83378.1
				16:leaf=-0.000352613,cover=353462
			8:[C_D_U_PUBLISHER_AGE_COEC<0.0245652] yes=17,no=18,missing=18,gain=54.1962,cover=119742
				17:leaf=-0.00698332,cover=6363.05
				18:leaf=-0.00224137,cover=113378
		4:[D_PUBLISHER_EC<10076.5] yes=9,no=10,missing=10,gain=24.794,cover=47802.6
			9:[TIME_OF_DAY<17.5] yes=19,no=20,missing=19,gain=29.2739,cover=35763.2
				19:leaf=0.000513566,cover=32039.3
				20:leaf=0.00519673,cover=3723.87
			10:[D_CONID_C<20.4728] yes=21,no=22,missing=22,gain=18.511,cover=12039.4
				21:leaf=-0.000429316,cover=2282
				22:leaf=0.00457266,cover=9757.38
	2:[TIME_OF_DAY<16.5] yes=5,no=6,missing=5,gain=180.454,cover=1.15706e+06
		5:[C_D_U_PUBLISHER_AGE_COEC<0.0358026] yes=11,no=12,missing=12,gain=260.309,cover=982937
			11:[WORD_COUNT<1407.5] yes=23,no=24,missing=23,gain=104.438,cover=358119
				23:leaf=0.000108979,cover=140322
				24:leaf=-0.00164016,cover=217797
			12:[DOC_AGE<33.5] yes=25,no=26,missing=25,gain=165.778,cover=624819
				25:leaf=0.000939324,cover=588156
				26:leaf=-0.002526,cover=36663.2
		6:[D_PUBLISHER_EC<5953.21] yes=13,no=14,missing=13,gain=96.9965,cover=174120
			13:[D_PUBLISHER_COEC<0.0272614] yes=27,no=28,missing=28,gain=109.603,cover=164013
				27:leaf=-0.00114863,cover=21723.5
				28:leaf=0.00266436,cover=142290
			14:[WORD_COUNT<3108] yes=29,no=30,missing=29,gain=57.6439,cover=10107.2
				29:leaf=-0.00510728,cover=7510.75
				30:leaf=0.00353385,cover=2596.5
booster[53]:
0:[D_CONID_C<48.2749] yes=1,no=2,missing=1,gain=283.429,cover=1.76435e+06
	1:[D_PUBLISHER_C<501.614] yes=3,no=4,missing=3,gain=248.247,cover=1.64817e+06
		3:[D_PUBLISHER_COEC<0.0555103] yes=7,no=8,missing=8,gain=206.327,cover=1.51016e+06
			7:[D_CATEGORY_MACRO_MAX_COEC<0.00802669] yes=15,no=16,missing=16,gain=171.652,cover=1.22023e+06
				15:leaf=0.00496004,cover=15603.4
				16:leaf=-0.000317909,cover=1.20463e+06
			8:[D_CONID_COEC<0.112343] yes=17,no=18,missing=18,gain=108.161,cover=289928
				17:leaf=-0.000939222,cover=47831.8
				18:leaf=0.0016627,cover=242097
		4:[D_CONID_COEC<0.0409176] yes=9,no=10,missing=9,gain=295.249,cover=138007
			9:[WORD_COUNT<594.5] yes=19,no=20,missing=19,gain=99.3072,cover=95868.4
				19:leaf=0.0056421,cover=2753.75
				20:leaf=-0.00399092,cover=93114.7
			10:[U_KW_LEN<0.5] yes=21,no=22,missing=21,gain=101.936,cover=42138.2
				21:leaf=-0.00424786,cover=6903.85
				22:leaf=0.00239595,cover=35234.3
	2:[D_CONID_COEC<0.109629] yes=5,no=6,missing=6,gain=44.5024,cover=116181
		5:[D_PUBLISHER_COEC<0.0809549] yes=11,no=12,missing=12,gain=29.2456,cover=68371.4
			11:[D_CONID_EC<1592] yes=23,no=24,missing=24,gain=30.1817,cover=67851.2
				23:leaf=0.00231775,cover=49528.5
				24:leaf=-5.74326e-05,cover=18322.7
			12:[C_D_U_CATEGORY_AGE_MAX_C<1471.78] yes=25,no=26,missing=26,gain=23.8341,cover=520.151
				25:leaf=-0.0330126,cover=93
				26:leaf=-0.00518448,cover=427.151
		6:[DOC_AGE<35.5] yes=13,no=14,missing=13,gain=52.3506,cover=47810
			13:[D_PUBLISHER_COEC<0.0768374] yes=27,no=28,missing=28,gain=38.014,cover=45997.7
				27:leaf=0.00520574,cover=25249.3
				28:leaf=0.00231693,cover=20748.3
			14:[C_D_U_PUBLISHER_GENDER_C<149.814] yes=29,no=30,missing=30,gain=49.3579,cover=1812.32
				29:leaf=-0.000899586,cover=1487.76
				30:leaf=-0.0223935,cover=324.562
booster[54]:
0:[D_CONID_COEC<0.0913679] yes=1,no=2,missing=1,gain=229.005,cover=1.76469e+06
	1:[D_PUBLISHER_C<497.359] yes=3,no=4,missing=3,gain=211.579,cover=1.6264e+06
		3:[C_D_U_PUBLISHER_GENDER_COEC<0.0571298] yes=7,no=8,missing=7,gain=218.628,cover=1.47868e+06
			7:[DOC_AGE<22.5] yes=15,no=16,missing=15,gain=182.691,cover=1.2162e+06
				15:leaf=-2.81835e-05,cover=1.06956e+06
				16:leaf=-0.00191011,cover=146639
			8:[D_CATEGORY_MACRO_MAX_COEC<0.0791516] yes=17,no=18,missing=17,gain=141.784,cover=262481
				17:leaf=0.000822719,cover=219627
				18:leaf=0.00396679,cover=42853.8
		4:[D_CONID_COEC<0.0296209] yes=9,no=10,missing=9,gain=223.239,cover=147716
			9:[WORD_COUNT<594.5] yes=19,no=20,missing=19,gain=102.328,cover=89190
				19:leaf=0.00610802,cover=2669.68
				20:leaf=-0.00382927,cover=86520.3
			10:[DAY_OF_WEEK<3.5] yes=21,no=22,missing=21,gain=53.1876,cover=58526.2
				21:leaf=-0.00171669,cover=19178.1
				22:leaf=0.00149459,cover=39348.1
	2:[D_CONID_EC<72.1325] yes=5,no=6,missing=6,gain=89.9996,cover=138289
		5:[DAY_OF_WEEK<2.5] yes=11,no=12,missing=11,gain=51.5397,cover=31706.4
			11:[CAT_REL<0.094099] yes=23,no=24,missing=23,gain=40.6992,cover=4235.1
				23:leaf=-0.00846649,cover=3102.47
				24:leaf=0.00260493,cover=1132.62
			12:[D_CONID_C<0.180835] yes=25,no=26,missing=26,gain=39.1586,cover=27471.3
				25:leaf=-0.0122917,cover=591.82
				26:leaf=0.000699779,cover=26879.5
		6:[D_PUBLISHER_COEC<0.0361084] yes=13,no=14,missing=14,gain=52.6077,cover=106582
			13:[C_D_U_CATEGORY_AGE_MACRO_MAX_COEC<0.0342324] yes=27,no=28,missing=28,gain=15.4905,cover=9444.55
				27:leaf=-0.0174458,cover=67.6882
				28:leaf=0.00639731,cover=9376.87
			14:[D_CONID_COEC<0.131543] yes=29,no=30,missing=30,gain=41.7277,cover=97137.9
				29:leaf=0.00139091,cover=54071.3
				30:leaf=0.00347698,cover=43066.6
booster[55]:
0:[CAT_REL<0.0247415] yes=1,no=2,missing=1,gain=233.03,cover=1.76469e+06
	1:[DOC_AGE<0.5] yes=3,no=4,missing=3,gain=231.332,cover=1.42559e+06
		3:[DOC_AGE<-0.5] yes=7,no=8,missing=7,gain=76.2314,cover=123892
			7:[D_PUBLISHER_EC<6247.29] yes=15,no=16,missing=16,gain=43.6554,cover=6863.9
				15:leaf=0.00459846,cover=5724.32
				16:leaf=-0.00611403,cover=1139.58
			8:[D_CAT_LEN<0.5] yes=17,no=18,missing=17,gain=55.5305,cover=117028
				17:leaf=-0.00151787,cover=58785.9
				18:leaf=-0.00369624,cover=58242.3
		4:[D_CONID_COEC<0.0403096] yes=9,no=10,missing=10,gain=200.577,cover=1.3017e+06
			9:[D_CONID_EC<14.654] yes=19,no=20,missing=20,gain=129.114,cover=166189
				19:leaf=0.000222381,cover=58721.6
				20:leaf=-0.00269316,cover=107468
			10:[WORD_COUNT<1642.5] yes=21,no=22,missing=21,gain=234.091,cover=1.13551e+06
				21:leaf=0.000894755,cover=583773
				22:leaf=-0.000541628,cover=551734
	2:[CAT_REL<0.967079] yes=5,no=6,missing=5,gain=100.934,cover=339104
		5:[WORD_COUNT<1804.5] yes=11,no=12,missing=11,gain=70.2672,cover=304901
			11:[CAT_REL<0.705276] yes=23,no=24,missing=23,gain=52.3127,cover=179887
				23:leaf=0.000445079,cover=143111
				24:leaf=0.0025593,cover=36776.3
			12:[D_PUBLISHER_COEC<0.0179684] yes=25,no=26,missing=25,gain=96.7809,cover=125014
				25:leaf=-0.00456099,cover=4773.42
				26:leaf=0.00269781,cover=120241
		6:[C_D_U_CATEGORY_GENDER_MAX_EC<533.158] yes=13,no=14,missing=14,gain=32.2309,cover=34203.2
			13:[C_D_U_CATEGORY_AGE_MAX_EC<520.381] yes=27,no=28,missing=28,gain=19.0711,cover=2056.8
				27:leaf=-0.00266352,cover=614.198
				28:leaf=0.00785209,cover=1442.61
			14:[C_D_U_CATEGORY_GENDER_MAX_C<47.0519] yes=29,no=30,missing=30,gain=32.5242,cover=32146.4
				29:leaf=-0.00929864,cover=1362.78
				30:leaf=-0.00140782,cover=30783.6
booster[56]:
0:[TIME_OF_DAY<16.5] yes=1,no=2,missing=1,gain=228.501,cover=1.76191e+06
	1:[D_CONID_C<49.583] yes=3,no=4,missing=3,gain=222.835,cover=1.48734e+06
		3:[U_KW_LEN<0.5] yes=7,no=8,missing=7,gain=229.697,cover=1.3776e+06
			7:[C_D_U_PUBLISHER_GENDER_C<258.341] yes=15,no=16,missing=16,gain=85.3699,cover=281107
				15:leaf=-0.00151167,cover=264067
				16:leaf=-0.00516305,cover=17040.1
			8:[DOC_AGE<31.5] yes=17,no=18,missing=17,gain=129.062,cover=1.0965e+06
				17:leaf=2.77565e-05,cover=1.00999e+06
				18:leaf=-0.0019845,cover=86508.9
		4:[TIME_OF_DAY<2.5] yes=9,no=10,missing=9,gain=42.3551,cover=109733
			9:[DOC_AGE<37.5] yes=19,no=20,missing=19,gain=24.0717,cover=43972.8
				19:leaf=0.00319332,cover=43596.3
				20:leaf=-0.0094886,cover=376.476
			10:[D_CONID_COEC<0.0503113] yes=21,no=22,missing=22,gain=50.9717,cover=65760
				21:leaf=-0.00288454,cover=7216.83
				22:leaf=0.00156873,cover=58543.2
	2:[D_PUBLISHER_EC<5883.02] yes=5,no=6,missing=5,gain=144.75,cover=274571
		5:[D_PUBLISHER_COEC<0.0263723] yes=11,no=12,missing=12,gain=118.198,cover=258959
			11:[DOC_AGE<8.5] yes=23,no=24,missing=23,gain=104.124,cover=34721.1
				23:leaf=-0.00407161,cover=16223.5
				24:leaf=0.00141622,cover=18497.5
			12:[D_CATEGORY_MACRO_MAX_COEC<0.00810633] yes=25,no=26,missing=26,gain=90.6486,cover=224238
				25:leaf=0.0086408,cover=5003.49
				26:leaf=0.00183506,cover=219234
		6:[WORD_COUNT<3971] yes=13,no=14,missing=13,gain=50.0525,cover=15612.5
			13:[D_PUBLISHER_COEC<0.0327215] yes=27,no=28,missing=28,gain=49.9094,cover=13003
				27:leaf=0.00434287,cover=1376.12
				28:leaf=-0.00572455,cover=11626.9
			14:[WORD_COUNT<4276] yes=29,no=30,missing=29,gain=36.9752,cover=2609.42
				29:leaf=0.00977741,cover=1121.9
				30:leaf=-0.00224069,cover=1487.52
booster[57]:
0:[CAT_REL<0.0247415] yes=1,no=2,missing=1,gain=234.387,cover=1.76811e+06
	1:[C_D_U_CATEGORY_CITY_MACRO_MAX_COEC<0.0339371] yes=3,no=4,missing=4,gain=225.354,cover=1.42949e+06
		3:[D_CATEGORY_MACRO_MAX_COEC<0.00932997] yes=7,no=8,missing=8,gain=206.098,cover=92061.3
			7:[D_CATEGORY_MAX_C<0.217327] yes=15,no=16,missing=16,gain=155.895,cover=17473.1
				15:leaf=-0.0013078,cover=11116.6
				16:leaf=0.00850854,cover=6356.51
			8:[D_CONID_EC<3.52083] yes=17,no=18,missing=17,gain=178.308,cover=74588.3
				17:leaf=-0.00581286,cover=43905.2
				18:leaf=-0.00084484,cover=30683.1
		4:[DOC_AGE<3.5] yes=9,no=10,missing=9,gain=252.475,cover=1.33743e+06
			9:[WORD_COUNT<1329.5] yes=19,no=20,missing=19,gain=177.326,cover=504952
				19:leaf=0.000249347,cover=191628
				20:leaf=-0.00168153,cover=313324
			10:[C_D_U_PUBLISHER_GENDER_EC<626.851] yes=21,no=22,missing=21,gain=246.079,cover=832476
				21:leaf=0.00189012,cover=222860
				22:leaf=-5.14287e-05,cover=609616
	2:[WORD_COUNT<1995.5] yes=5,no=6,missing=5,gain=122.838,cover=338617
		5:[CAT_REL<0.950219] yes=11,no=12,missing=11,gain=86.9602,cover=221579
			11:[CAT_REL<0.707211] yes=23,no=24,missing=23,gain=71.0887,cover=196553
				23:leaf=0.000414636,cover=156867
				24:leaf=0.0027834,cover=39686.1
			12:[C_D_U_PUBLISHER_AGE_EC<27.0015] yes=25,no=26,missing=25,gain=34.8505,cover=25026.1
				25:leaf=-0.0176266,cover=361.532
				26:leaf=-0.0020101,cover=24664.6
		6:[D_PUBLISHER_COEC<0.0324294] yes=13,no=14,missing=13,gain=101.723,cover=117038
			13:[WORD_COUNT<2273.5] yes=27,no=28,missing=27,gain=69.2616,cover=33488.4
				27:leaf=0.00413697,cover=8419.64
				28:leaf=-0.00110421,cover=25068.7
			14:[WORD_COUNT<2005.5] yes=29,no=30,missing=29,gain=73.3505,cover=83549.4
				29:leaf=0.00939429,cover=4924.61
				30:leaf=0.0031043,cover=78624.8
booster[58]:
0:[TIME_OF_DAY<17.5] yes=1,no=2,missing=1,gain=174.29,cover=1.76093e+06
	1:[DOC_AGE<49.5] yes=3,no=4,missing=3,gain=182.818,cover=1.6041e+06
		3:[D_PUBLISHER_COEC<0.0249502] yes=7,no=8,missing=8,gain=265.182,cover=1.50612e+06
			7:[D_PUBLISHER_EC<10.8776] yes=15,no=16,missing=16,gain=330.822,cover=121289
				15:leaf=0.00560489,cover=11954.8
				16:leaf=-0.00315532,cover=109334
			8:[U_KW_LEN<0.5] yes=17,no=18,missing=17,gain=168.902,cover=1.38484e+06
				17:leaf=-0.000926501,cover=290035
				18:leaf=0.000430543,cover=1.0948e+06
		4:[CAT_REL<0.041557] yes=9,no=10,missing=9,gain=84.0512,cover=97970.8
			9:[D_CONID_EC<137.103] yes=19,no=20,missing=20,gain=61.1602,cover=55345.4
				19:leaf=-0.00250264,cover=39311.3
				20:leaf=-0.00616677,cover=16034.1
			10:[C_D_U_CATEGORY_AGE_MAX_EC<804.186] yes=21,no=22,missing=22,gain=78.3882,cover=42625.4
				21:leaf=0.00263532,cover=12950.8
				22:leaf=-0.00202671,cover=29674.6
	2:[D_PUBLISHER_EC<5336.58] yes=5,no=6,missing=5,gain=65.5243,cover=156839
		5:[C_D_U_PUBLISHER_AGE_COEC<0.0378432] yes=11,no=12,missing=11,gain=63.6106,cover=147415
			11:[WORD_COUNT<1640.5] yes=23,no=24,missing=23,gain=60.136,cover=66829.2
				23:leaf=0.00212582,cover=34595.1
				24:leaf=-0.000875757,cover=32234.1
			12:[DAY_OF_WEEK<3.5] yes=25,no=26,missing=25,gain=42.7937,cover=80585.4
				25:leaf=0.000699638,cover=19135.6
				26:leaf=0.00340741,cover=61449.8
		6:[WORD_COUNT<2019.5] yes=13,no=14,missing=13,gain=35.222,cover=9424.47
			13:[D_PUBLISHER_COEC<0.0310688] yes=27,no=28,missing=28,gain=23.7738,cover=4517.73
				27:leaf=0.00903396,cover=258.424
				28:leaf=-0.00656038,cover=4259.3
			14:[D_PUBLISHER_C<178.058] yes=29,no=30,missing=30,gain=23.2454,cover=4906.74
				29:leaf=-0.0231685,cover=101
				30:leaf=0.000952696,cover=4805.74
booster[59]:
0:[C_D_U_CATEGORY_AGE_MACRO_MAX_COEC<0.0926228] yes=1,no=2,missing=1,gain=192.035,cover=1.76295e+06
	1:[D_CONID_COEC<0.109844] yes=3,no=4,missing=3,gain=174.714,cover=1.72627e+06
		3:[D_PUBLISHER_C<304.374] yes=7,no=8,missing=7,gain=184.948,cover=1.64046e+06
			7:[U_AGE_2<0.5] yes=15,no=16,missing=15,gain=184.771,cover=1.24215e+06
				15:leaf=-0.000729678,cover=432772
				16:leaf=0.000550201,cover=809374
			8:[D_PUBLISHER_COEC<0.0415016] yes=17,no=18,missing=18,gain=101.082,cover=398315
				17:leaf=-0.00250158,cover=100878
				18:leaf=-0.000670012,cover=297438
		4:[D_CONID_C<3.87343] yes=9,no=10,missing=10,gain=76.2627,cover=85807.4
			9:[WORD_COUNT<1512.5] yes=19,no=20,missing=19,gain=45.2074,cover=17194.1
				19:leaf=-0.0061472,cover=3271.91
				20:leaf=0.00038343,cover=13922.2
			10:[C_D_U_PUBLISHER_AGE_EC<3342.79] yes=21,no=22,missing=22,gain=37.1734,cover=68613.3
				21:leaf=0.00160658,cover=31653.4
				22:leaf=0.00394126,cover=36959.8
	2:[D_CATEGORY_MACRO_MAX_COEC<0.0846722] yes=5,no=6,missing=6,gain=71.5681,cover=36680.8
		5:[C_D_U_CATEGORY_CITY_MAX_EC<1.69289] yes=11,no=12,missing=12,gain=16.9299,cover=11979
			11:leaf=-0.0206967,cover=55
			12:[D_CONID_EC<36.9162] yes=23,no=24,missing=23,gain=16.5326,cover=11924
				23:leaf=0.00714657,cover=11674.5
				24:leaf=-0.00584304,cover=249.497
		6:[C_D_U_CATEGORY_GENDER_MAX_C<539.041] yes=13,no=14,missing=14,gain=29.8992,cover=24701.8
			13:[WORD_COUNT<5116.5] yes=25,no=26,missing=25,gain=25.5177,cover=22470.3
				25:leaf=0.00212568,cover=20919.5
				26:leaf=0.00877117,cover=1550.85
			14:[C_D_U_CATEGORY_AGE_MACRO_MAX_COEC<0.0937402] yes=27,no=28,missing=28,gain=26.0809,cover=2231.43
				27:leaf=-0.000398034,cover=1683.97
				28:leaf=-0.0129522,cover=547.463
booster[60]:
0:[D_CONID_COEC<0.0923777] yes=1,no=2,missing=1,gain=164.389,cover=1.76808e+06
	1:[TIME_OF_DAY<7.5] yes=3,no=4,missing=3,gain=150.106,cover=1.63437e+06
		3:[D_PUBLISHER_C<82.4825] yes=7,no=8,missing=7,gain=148.377,cover=507525
			7:[WORD_COUNT<4592.5] yes=15,no=16,missing=15,gain=117.876,cover=93238.1
				15:leaf=-0.00331457,cover=80687.4
				16:leaf=0.00189417,cover=12550.7
			8:[D_CONID_EC<28.1542] yes=17,no=18,missing=18,gain=130.491,cover=414287
				17:leaf=0.00204598,cover=47984.9
				18:leaf=-0.000726925,cover=366302
		4:[D_PUBLISHER_EC<2759.85] yes=9,no=10,missing=9,gain=143.434,cover=1.12685e+06
			9:[DOC_AGE<39.5] yes=19,no=20,missing=19,gain=174.218,cover=542264
				19:leaf=0.00118602,cover=461080
				20:leaf=-0.00132585,cover=81183.4
			10:[D_PUBLISHER_COEC<0.0295761] yes=21,no=22,missing=22,gain=262.185,cover=584583
				21:leaf=-0.00326071,cover=67057
				22:leaf=6.21065e-05,cover=517526
	2:[TIME_OF_DAY<2.5] yes=5,no=6,missing=5,gain=55.0586,cover=133707
		5:[U_KW_LEN<0.5] yes=11,no=12,missing=11,gain=35.1858,cover=41808.1
			11:[DAY_OF_WEEK<3.5] yes=23,no=24,missing=23,gain=25.1452,cover=8527.58
				23:leaf=-0.0026304,cover=3845.9
				24:leaf=0.00282541,cover=4681.68
			12:[D_CONID_C<0.873133] yes=25,no=26,missing=26,gain=23.1081,cover=33280.5
				25:leaf=-0.00302842,cover=1140.17
				26:leaf=0.00421282,cover=32140.4
		6:[DAY_OF_WEEK<2.5] yes=13,no=14,missing=13,gain=47.9507,cover=91898.8
			13:[C_D_U_CATEGORY_GENDER_MAX_C<776.527] yes=27,no=28,missing=28,gain=46.2877,cover=12988.8
				27:leaf=0.00175456,cover=5418.7
				28:leaf=-0.00429828,cover=7570.15
			14:[D_CONID_EC<3.60766] yes=29,no=30,missing=30,gain=32.9216,cover=78909.9
				29:leaf=-0.00237312,cover=5116.28
				30:leaf=0.00177408,cover=73793.6
booster[61]:
0:[DOC_AGE<0.5] yes=1,no=2,missing=1,gain=167.495,cover=1.76512e+06
	1:[DOC_AGE<-0.5] yes=3,no=4,missing=3,gain=127.775,cover=155288
		3:[D_PUBLISHER_EC<6183.58] yes=7,no=8,missing=8,gain=28.4324,cover=9878.94
			7:[D_PUBLISHER_EC<3789.73] yes=15,no=16,missing=16,gain=38.7446,cover=8587.62
				15:leaf=0.00177934,cover=4494.57
				16:leaf=0.00850368,cover=4093.05
			8:[C_D_U_PUBLISHER_AGE_EC<5282.04] yes=17,no=18,missing=18,gain=13.3525,cover=1291.32
				17:leaf=-0.00551237,cover=1033.1
				18:leaf=0.00718008,cover=258.22
		4:[TIME_OF_DAY<16.5] yes=9,no=10,missing=9,gain=73.0569,cover=145409
			9:[C_D_U_PUBLISHER_GENDER_COEC<0.120741] yes=19,no=20,missing=19,gain=53.6259,cover=135266
				19:leaf=-0.00233259,cover=134063
				20:leaf=0.00826393,cover=1203.73
			10:[C_D_U_CATEGORY_GENDER_MAX_C<22.9428] yes=21,no=22,missing=22,gain=39.8867,cover=10142.9
				21:leaf=-0.0184904,cover=227.554
				22:leaf=0.00263704,cover=9915.38
	2:[IMAGE_COUNT<0.5] yes=5,no=6,missing=5,gain=164.24,cover=1.60983e+06
		5:[C_D_U_CATEGORY_AGE_MAX_EC<425.148] yes=11,no=12,missing=11,gain=97.9144,cover=16972.7
			11:[WORD_COUNT<4756.5] yes=23,no=24,missing=23,gain=35.3322,cover=7878.11
				23:leaf=-0.00974343,cover=7310.4
				24:leaf=0.0032005,cover=567.712
			12:[C_D_U_PUBLISHER_AGE_COEC<0.0263361] yes=25,no=26,missing=25,gain=43.7259,cover=9094.55
				25:leaf=0.00188638,cover=5079.98
				26:leaf=-0.00509486,cover=4014.58
		6:[U_GENDER<4.00001] yes=13,no=14,missing=14,gain=151.276,cover=1.59286e+06
			13:[WORD_COUNT<721.5] yes=27,no=28,missing=27,gain=125.658,cover=1.10432e+06
				27:leaf=-0.00156637,cover=66643.5
				28:leaf=0.000673381,cover=1.03768e+06
			14:[C_D_U_PUBLISHER_AGE_COEC<0.048529] yes=29,no=30,missing=29,gain=79.4241,cover=488543
				29:leaf=-0.000882413,cover=368462
				30:leaf=0.000598274,cover=120081
booster[62]:
0:[CAT_REL<0.0007465] yes=1,no=2,missing=1,gain=155.778,cover=1.76167e+06
	1:[D_CAT_LEN<0.5] yes=3,no=4,missing=3,gain=145.757,cover=1.40922e+06
		3:[D_PUBLISHER_COEC<0.0323702] yes=7,no=8,missing=8,gain=224.725,cover=760096
			7:[C_D_U_PUBLISHER_GENDER_EC<287.294] yes=15,no=16,missing=16,gain=226.494,cover=192643
				15:leaf=0.00195846,cover=42617
				16:leaf=-0.00217198,cover=150026
			8:[D_CONID_EC<20.9229] yes=17,no=18,missing=18,gain=224.512,cover=567453
				17:leaf=0.00441232,cover=38349.8
				18:leaf=0.00045047,cover=529103
		4:[D_PUBLISHER_COEC<0.0163093] yes=9,no=10,missing=9,gain=172.66,cover=649121
			9:[C_D_U_CATEGORY_AGE_MAX_C<98.86] yes=19,no=20,missing=19,gain=126.758,cover=17747.3
				19:leaf=-0.00674272,cover=16666.7
				20:leaf=0.0109213,cover=1080.65
			10:[D_PUBLISHER_C<112.66] yes=21,no=22,missing=22,gain=184.417,cover=631373
				21:leaf=0.000341197,cover=264211
				22:leaf=-0.00139104,cover=367162
	2:[D_PUBLISHER_COEC<0.0135241] yes=5,no=6,missing=6,gain=78.3382,cover=352451
		5:[C_D_U_CATEGORY_GENDER_MAX_EC<3125.26] yes=11,no=12,missing=11,gain=49.3135,cover=5457.57
			11:[WORD_COUNT<4601] yes=23,no=24,missing=23,gain=52.9482,cover=4629.2
				23:leaf=-0.00963769,cover=3740.18
				24:leaf=0.00393354,cover=889.021
			12:[C_D_U_CATEGORY_AGE_MACRO_MAX_COEC<0.0700112] yes=25,no=26,missing=26,gain=32.8921,cover=828.367
				25:leaf=0.0109173,cover=677.167
				26:leaf=-0.014809,cover=151.2
		6:[WORD_COUNT<2172.5] yes=13,no=14,missing=13,gain=78.8839,cover=346994
			13:[C_D_U_CATEGORY_AGE_MAX_EC<44.0079] yes=27,no=28,missing=28,gain=77.6097,cover=243629
				27:leaf=0.00743816,cover=3992.38
				28:leaf=0.000409914,cover=239637
			14:[WORD_COUNT<2273.5] yes=29,no=30,missing=29,gain=190.54,cover=103364
				29:leaf=0.00748743,cover=14501.8
				30:leaf=0.0013063,cover=88862.6
booster[63]:
0:[DOC_AGE<33.5] yes=1,no=2,missing=1,gain=166.443,cover=1.76236e+06
	1:[DOC_AGE<1.5] yes=3,no=4,missing=3,gain=205.959,cover=1.61355e+06
		3:[D_PUBLISHER_COEC<0.0163923] yes=7,no=8,missing=8,gain=128.956,cover=343868
			7:[CAT_REL<0.160906] yes=15,no=16,missing=15,gain=28.9583,cover=7277.14
				15:leaf=-0.00840468,cover=6782.97
				16:leaf=0.00412534,cover=494.163
			8:[WORD_COUNT<6076] yes=17,no=18,missing=17,gain=94.6612,cover=336591
				17:leaf=-0.000738373,cover=332932
				18:leaf=-0.0088234,cover=3659.15
		4:[C_D_U_PUBLISHER_GENDER_EC<368.548] yes=9,no=10,missing=9,gain=171.024,cover=1.26969e+06
			9:[C_D_U_CATEGORY_GENDER_MACRO_MAX_COEC<0.0534963] yes=19,no=20,missing=20,gain=173.728,cover=218550
				19:leaf=-0.00159373,cover=34125.3
				20:leaf=0.00228981,cover=184425
			10:[D_PUBLISHER_COEC<0.026973] yes=21,no=22,missing=22,gain=271.117,cover=1.05114e+06
				21:leaf=-0.00230743,cover=101694
				22:leaf=0.000408978,cover=949442
	2:[D_CATEGORY_MACRO_MAX_COEC<0.024795] yes=5,no=6,missing=5,gain=74.7191,cover=148806
		5:[D_CONID_C<3.76278] yes=11,no=12,missing=11,gain=55.4814,cover=47422.2
			11:[WORD_COUNT<3161.5] yes=23,no=24,missing=23,gain=38.397,cover=31401.1
				23:leaf=-0.0054442,cover=24201.1
				24:leaf=-0.00128482,cover=7199.93
			12:[C_D_U_PUBLISHER_AGE_COEC<0.0366945] yes=25,no=26,missing=26,gain=43.9835,cover=16021.2
				25:leaf=0.0032369,cover=4625.59
				26:leaf=-0.00254369,cover=11395.6
		6:[C_D_U_PUBLISHER_AGE_EC<30.2764] yes=13,no=14,missing=13,gain=50.3363,cover=101383
			13:[C_D_U_CATEGORY_AGE_MAX_EC<1915.76] yes=27,no=28,missing=28,gain=40.8681,cover=11675.2
				27:leaf=-0.00325021,cover=11053.5
				28:leaf=-0.0164166,cover=621.666
			14:[C_D_U_CATEGORY_AGE_MAX_EC<805.23] yes=29,no=30,missing=30,gain=64.9856,cover=89708.2
				29:leaf=0.00111103,cover=37893.9
				30:leaf=-0.00161343,cover=51814.3
booster[64]:
0:[IMAGE_COUNT<0.5] yes=1,no=2,missing=1,gain=172.516,cover=1.7643e+06
	1:[C_D_U_CATEGORY_CITY_MAX_EC<2552.35] yes=3,no=4,missing=3,gain=100.211,cover=17111.6
		3:[C_D_U_CATEGORY_GENDER_MAX_EC<1907.74] yes=7,no=8,missing=8,gain=65.698,cover=13751.3
			7:[C_D_U_CATEGORY_AGE_MAX_C<52.052] yes=15,no=16,missing=16,gain=26.8709,cover=7487.26
				15:leaf=-0.0054994,cover=5582.67
				16:leaf=0.00137764,cover=1904.58
			8:[D_CONID_COEC<0.223302] yes=17,no=18,missing=17,gain=29.3741,cover=6264
				17:leaf=-0.0117306,cover=5734.33
				18:leaf=0.000574741,cover=529.674
		4:[D_PUBLISHER_COEC<0.0186433] yes=9,no=10,missing=10,gain=59.4507,cover=3360.38
			9:[U_KW_LEN<0.5] yes=19,no=20,missing=19,gain=40.05,cover=1779.36
				19:leaf=-0.00943245,cover=252.496
				20:leaf=0.0120357,cover=1526.86
			10:[C_D_U_CATEGORY_CITY_MAX_EC<2576.95] yes=21,no=22,missing=22,gain=30.1972,cover=1581.02
				21:leaf=0.0173684,cover=144.604
				22:leaf=-0.00653028,cover=1436.42
	2:[D_CONID_C<45.6107] yes=5,no=6,missing=5,gain=160.744,cover=1.74719e+06
		5:[D_PUBLISHER_C<313.528] yes=11,no=12,missing=11,gain=172.666,cover=1.62537e+06
			11:[WORD_COUNT<1066.5] yes=23,no=24,missing=23,gain=138.878,cover=1.27443e+06
				23:leaf=-0.000838468,cover=272088
				24:leaf=0.000435273,cover=1.00235e+06
			12:[D_CONID_COEC<0.0242273] yes=25,no=26,missing=26,gain=126.387,cover=350939
				25:leaf=-0.0042207,cover=29509.8
				26:leaf=-0.000801644,cover=321430
		6:[DOC_AGE<23.5] yes=13,no=14,missing=13,gain=47.5249,cover=121818
			13:[TIME_OF_DAY<7.5] yes=27,no=28,missing=27,gain=45.2651,cover=95226.2
				27:leaf=0.00254551,cover=90553.6
				28:leaf=-0.00250067,cover=4672.62
			14:[D_CONID_COEC<0.186873] yes=29,no=30,missing=30,gain=57.2737,cover=26591.9
				29:leaf=-0.0015757,cover=18881.5
				30:leaf=0.00353809,cover=7710.38
booster[65]:
0:[DOC_AGE<0.5] yes=1,no=2,missing=1,gain=161.799,cover=1.76075e+06
	1:[DOC_AGE<-0.5] yes=3,no=4,missing=3,gain=92.7818,cover=154302
		3:[WORD_COUNT<2210.5] yes=7,no=8,missing=7,gain=49.0452,cover=9545.76
			7:[D_PUBLISHER_COEC<0.0510479] yes=15,no=16,missing=16,gain=40.5981,cover=5103.54
				15:leaf=0.00915235,cover=3823.78
				16:leaf=-0.00113491,cover=1279.76
			8:[D_CATEGORY_MACRO_MAX_COEC<0.00391756] yes=17,no=18,missing=18,gain=22.5875,cover=4442.22
				17:leaf=0.0080297,cover=645.263
				18:leaf=-0.00208198,cover=3796.96
		4:[D_PUBLISHER_C<674.016] yes=9,no=10,missing=9,gain=56.589,cover=144756
			9:[D_PUBLISHER_C<464.377] yes=19,no=20,missing=19,gain=60.0385,cover=137512
				19:leaf=-0.0019963,cover=122634
				20:leaf=0.00136703,cover=14877.9
			10:[C_D_U_PUBLISHER_AGE_C<821.193] yes=21,no=22,missing=22,gain=22.8674,cover=7243.83
				21:leaf=-0.00675095,cover=6943.35
				22:leaf=0.00731989,cover=300.483
	2:[D_CONID_COEC<0.0398459] yes=5,no=6,missing=6,gain=139.521,cover=1.60645e+06
		5:[D_CONID_EC<1.33864] yes=11,no=12,missing=12,gain=135.815,cover=209121
			11:[D_CAT_LEN<0.5] yes=23,no=24,missing=23,gain=134.071,cover=26336.5
				23:leaf=0.00636862,cover=11455.7
				24:leaf=-0.000827178,cover=14880.8
			12:[DAY_OF_WEEK<2.5] yes=25,no=26,missing=25,gain=75.9193,cover=182785
				25:leaf=0.000197998,cover=46856.9
				26:leaf=-0.00213586,cover=135928
		6:[WORD_COUNT<728.5] yes=13,no=14,missing=13,gain=119.411,cover=1.39733e+06
			13:[D_CAT_LEN<0.5] yes=27,no=28,missing=27,gain=107.853,cover=89417.5
				27:leaf=0.000549066,cover=38743.4
				28:leaf=-0.00295524,cover=50674.1
			14:[WORD_COUNT<729.5] yes=29,no=30,missing=29,gain=378.838,cover=1.30791e+06
				29:leaf=0.010265,cover=9760.34
				30:leaf=0.000377925,cover=1.29815e+06
booster[66]:
0:[DOC_AGE<0.5] yes=1,no=2,missing=1,gain=193.999,cover=1.76751e+06
	1:[D_PUBLISHER_COEC<0.024111] yes=3,no=4,missing=4,gain=86.2499,cover=153582
		3:[C_D_U_CATEGORY_CITY_MAX_C<60.9507] yes=7,no=8,missing=7,gain=33.7846,cover=13467.3
			7:[C_D_U_PUBLISHER_AGE_C<46.7102] yes=15,no=16,missing=15,gain=18.1202,cover=12948.9
				15:leaf=-0.00636571,cover=12343.3
				16:leaf=0.00248989,cover=605.51
			8:[C_D_U_PUBLISHER_GENDER_EC<19.5346] yes=17,no=18,missing=18,gain=13.5566,cover=518.471
				17:leaf=-0.0202148,cover=41
				18:leaf=0.00943422,cover=477.471
		4:[DOC_AGE<-0.5] yes=9,no=10,missing=9,gain=65.9204,cover=140114
			9:[D_PUBLISHER_COEC<0.0518364] yes=19,no=20,missing=20,gain=39.7246,cover=9133.53
				19:leaf=0.00421048,cover=7797.77
				20:leaf=-0.00511873,cover=1335.76
			10:[D_PUBLISHER_C<93.585] yes=21,no=22,missing=21,gain=50.0978,cover=130981
				21:leaf=0.000165935,cover=32180.1
				22:leaf=-0.00210554,cover=98800.7
	2:[U_KW_LEN<0.5] yes=5,no=6,missing=5,gain=168.454,cover=1.61393e+06
		5:[C_D_U_CATEGORY_CITY_MACRO_MAX_COEC<0.0333041] yes=11,no=12,missing=11,gain=73.9278,cover=356504
			11:[WORD_COUNT<1319.5] yes=23,no=24,missing=23,gain=73.7237,cover=299058
				23:leaf=2.64746e-05,cover=104628
				24:leaf=-0.00161958,cover=194430
			12:[D_CATEGORY_MACRO_MAX_COEC<0.0401953] yes=25,no=26,missing=26,gain=45.4256,cover=57445.6
				25:leaf=0.00471225,cover=6924.34
				26:leaf=0.000394117,cover=50521.3
		6:[WORD_COUNT<728.5] yes=13,no=14,missing=13,gain=138.772,cover=1.25742e+06
			13:[D_PUBLISHER_COEC<0.053643] yes=27,no=28,missing=27,gain=89.9435,cover=79849.7
				27:leaf=-0.00277213,cover=51114.1
				28:leaf=0.000724159,cover=28735.6
			14:[WORD_COUNT<729.5] yes=29,no=30,missing=29,gain=246.007,cover=1.17757e+06
				29:leaf=0.0099729,cover=7017.72
				30:leaf=0.000584037,cover=1.17055e+06
booster[67]:
0:[D_CATEGORY_MACRO_MAX_COEC<0.00896242] yes=1,no=2,missing=2,gain=126.102,cover=1.76644e+06
	1:[D_CATEGORY_MACRO_MAX_COEC<0.00758001] yes=3,no=4,missing=4,gain=195.266,cover=20538.8
		3:[C_D_U_PUBLISHER_AGE_EC<48.7765] yes=7,no=8,missing=8,gain=49.7463,cover=13683.1
			7:[IMAGE_COUNT<0.5] yes=15,no=16,missing=15,gain=15.8364,cover=2216.35
				15:leaf=0.0141468,cover=89.0545
				16:leaf=-0.00727072,cover=2127.3
			8:[D_PUBLISHER_C<10.3839] yes=17,no=18,missing=18,gain=69.2704,cover=11466.8
				17:leaf=0.00846501,cover=2893.48
				18:leaf=-0.000480836,cover=8573.31
		4:[C_D_U_PUBLISHER_AGE_EC<664.14] yes=9,no=10,missing=9,gain=90.7036,cover=6855.63
			9:[D_CATEGORY_MAX_EC<7.6943] yes=19,no=20,missing=20,gain=20.618,cover=988.062
				19:leaf=0.0271324,cover=51.9688
				20:leaf=-0.00493521,cover=936.093
			10:[C_D_U_PUBLISHER_GENDER_C<11.0532] yes=21,no=22,missing=22,gain=13.6089,cover=5867.57
				21:leaf=-0.0245222,cover=23
				22:leaf=0.0133016,cover=5844.57
	2:[C_D_U_CATEGORY_CITY_MACRO_MAX_COEC<0.0285907] yes=5,no=6,missing=6,gain=282.978,cover=1.7459e+06
		5:[WORD_COUNT<1983.5] yes=11,no=12,missing=11,gain=137.401,cover=52721.2
			11:[D_CONID_COEC<0.0518438] yes=23,no=24,missing=24,gain=76.5318,cover=27013.8
				23:leaf=-0.00204097,cover=8023.92
				24:leaf=-0.00786534,cover=18989.9
			12:[C_D_U_CATEGORY_CITY_MACRO_MAX_COEC<0.0220937] yes=25,no=26,missing=26,gain=57.8354,cover=25707.4
				25:leaf=-0.00439607,cover=8523.03
				26:leaf=0.000641401,cover=17184.4
		6:[DOC_AGE<0.5] yes=13,no=14,missing=13,gain=119.063,cover=1.69318e+06
			13:[C_D_U_PUBLISHER_AGE_EC<9372.26] yes=27,no=28,missing=27,gain=100.355,cover=149947
				27:leaf=-0.00104476,cover=145502
				28:leaf=-0.00867079,cover=4444.85
			14:[IMAGE_COUNT<0.5] yes=29,no=30,missing=29,gain=112.912,cover=1.54323e+06
				29:leaf=-0.00463871,cover=11937.9
				30:leaf=0.000242681,cover=1.53129e+06
booster[68]:
0:[U_AGE_2<0.5] yes=1,no=2,missing=1,gain=156.789,cover=1.76561e+06
	1:[CAT_REL<0.0515015] yes=3,no=4,missing=3,gain=99.9645,cover=607047
		3:[C_D_U_PUBLISHER_AGE_COEC<0.0234113] yes=7,no=8,missing=8,gain=71.2926,cover=494839
			7:[C_D_U_CATEGORY_CITY_MACRO_MAX_COEC<0.0591617] yes=15,no=16,missing=15,gain=83.1284,cover=62043.6
				15:leaf=-0.00293558,cover=58951.5
				16:leaf=0.00547369,cover=3092.11
			8:[TIME_OF_DAY<0.5] yes=17,no=18,missing=17,gain=51.7798,cover=432796
				17:leaf=0.00375864,cover=6402.66
				18:leaf=-0.00077111,cover=426393
		4:[CAT_REL<0.0758505] yes=9,no=10,missing=9,gain=37.3306,cover=112208
			9:[DOC_AGE<83.5] yes=19,no=20,missing=19,gain=19.9361,cover=9362.8
				19:leaf=0.00425199,cover=8930.26
				20:leaf=-0.00672881,cover=432.531
			10:[CAT_REL<0.077563] yes=21,no=22,missing=21,gain=54.5848,cover=102845
				21:leaf=-0.0186193,cover=373.046
				22:leaf=0.000516024,cover=102472
	2:[DOC_AGE<31.5] yes=5,no=6,missing=5,gain=113.996,cover=1.15856e+06
		5:[C_D_U_PUBLISHER_AGE_COEC<0.0358793] yes=11,no=12,missing=12,gain=139.321,cover=1.07705e+06
			11:[WORD_COUNT<1410.5] yes=23,no=24,missing=23,gain=124.083,cover=394176
				23:leaf=0.000873664,cover=152040
				24:leaf=-0.00094881,cover=242136
			12:[C_D_U_PUBLISHER_GENDER_C<21.0079] yes=25,no=26,missing=25,gain=138.291,cover=682872
				25:leaf=0.00263182,cover=102088
				26:leaf=0.000636368,cover=580784
		6:[C_D_U_PUBLISHER_GENDER_EC<1079.81] yes=13,no=14,missing=13,gain=92.3495,cover=81510
			13:[WORD_COUNT<5610] yes=27,no=28,missing=27,gain=74.0721,cover=64604.2
				27:leaf=-0.00104434,cover=60007.4
				28:leaf=0.00554063,cover=4596.79
			14:[C_D_U_CATEGORY_AGE_MACRO_MAX_COEC<0.0890692] yes=29,no=30,missing=29,gain=38.8848,cover=16905.8
				29:leaf=-0.00525305,cover=16128.5
				30:leaf=0.00619087,cover=777.28
booster[69]:
0:[CAT_REL<0.013595] yes=1,no=2,missing=1,gain=141.545,cover=1.76152e+06
	1:[D_CAT_LEN<0.5] yes=3,no=4,missing=3,gain=155.546,cover=1.41386e+06
		3:[D_CONID_EC<1.33909] yes=7,no=8,missing=8,gain=215.51,cover=760709
			7:[WORD_COUNT<2029] yes=15,no=16,missing=15,gain=147.998,cover=12064.7
				15:leaf=-0.00489505,cover=2198.69
				16:leaf=0.00944813,cover=9866.03
			8:[D_PUBLISHER_EC<403.191] yes=17,no=18,missing=17,gain=176.322,cover=748644
				17:leaf=0.00270695,cover=59606.9
				18:leaf=-0.000127627,cover=689037
		4:[C_D_U_CATEGORY_CITY_MACRO_MAX_COEC<0.075422] yes=9,no=10,missing=9,gain=147.412,cover=653155
			9:[WORD_COUNT<1293] yes=19,no=20,missing=19,gain=190.895,cover=604817
				19:leaf=0.000103568,cover=222852
				20:leaf=-0.00173788,cover=381965
			10:[C_D_U_CATEGORY_CITY_MAX_C<44.4352] yes=21,no=22,missing=22,gain=96.3743,cover=48337.7
				21:leaf=0.0051454,cover=14955.3
				22:leaf=0.000315613,cover=33382.4
	2:[WORD_COUNT<1075.5] yes=5,no=6,missing=5,gain=96.2406,cover=347652
		5:[WORD_COUNT<1017.5] yes=11,no=12,missing=11,gain=98.3819,cover=98369.3
			11:[WORD_COUNT<1014.5] yes=23,no=24,missing=23,gain=66.0466,cover=91548.2
				23:leaf=-0.000197546,cover=90422
				24:leaf=0.0119803,cover=1126.27
			12:[C_D_U_PUBLISHER_GENDER_EC<21.8686] yes=25,no=26,missing=26,gain=39.2419,cover=6821.06
				25:leaf=0.0103194,cover=337.873
				26:leaf=-0.00713781,cover=6483.19
		6:[C_D_U_CATEGORY_CITY_MAX_EC<489.79] yes=13,no=14,missing=14,gain=64.0076,cover=249283
			13:[C_D_U_PUBLISHER_GENDER_C<1.89608] yes=27,no=28,missing=27,gain=27.9799,cover=19665.3
				27:leaf=0.000655879,cover=4526.17
				28:leaf=0.00513652,cover=15139.1
			14:[CAT_REL<0.500044] yes=29,no=30,missing=29,gain=74.9655,cover=229618
				29:leaf=0.000371407,cover=134204
				30:leaf=0.00220463,cover=95413.8
