booster[0]:
0:[U_KW_LEN<200] yes=1,no=2,missing=1
	1:[D_TITLEMD5_COEC<0.103597] yes=3,no=4,missing=3
		3:[D_TITLEMD5_COEC<0.0563473] yes=7,no=8,missing=7
			7:[D_TITLEMD5_COEC<0.0390169] yes=15,no=16,missing=16
				15:[D_KEYWORD_MACRO_MEAN_COEC<0.0441061] yes=31,no=32,missing=32
					31:[D_TITLEMD5_COEC<0.019833] yes=63,no=64,missing=64
						63:[D_KEYWORD_MICRO_MAX_COEC<0.161188] yes=127,no=128,missing=128
							127:leaf=-0.144686
							128:leaf=-0.0844934
						64:[D_CAT_LEN<2] yes=129,no=130,missing=130
							129:leaf=-0.115608
							130:leaf=-0.14893
					32:[C_D_U_CATEGORY_CITY_MACRO_MAX_COEC<0.0961044] yes=65,no=66,missing=66
						65:[D_KEYWORD_MACRO_MEAN_COEC<0.0683527] yes=131,no=132,missing=132
							131:leaf=-0.117377
							132:leaf=-0.0928122
						66:[C_D_U_CATEGORY_CITY_MICRO_MAX_COEC<0.0974384] yes=133,no=134,missing=133
							133:leaf=0.0224386
							134:leaf=-0.0932363
				16:[C_D_U_CATEGORY_CITY_MACRO_MAX_COEC<0.0636133] yes=33,no=34,missing=34
					33:[C_D_U_TITLEMD5_CATEGORY_MACRO_MEAN_COEC<0.0500626] yes=67,no=68,missing=68
						67:[CAT_REL<0.450796] yes=135,no=136,missing=136
							135:leaf=-0.11688
							136:leaf=-0.0826329
						68:[DAY_OF_WEEK<3] yes=137,no=138,missing=138
							137:leaf=-0.0602297
							138:leaf=-0.0962286
					34:[C_D_U_TITLEMD5_CATEGORY_MACRO_MEAN_COEC<0.0534007] yes=69,no=70,missing=70
						69:[D_KEYWORD_MICRO_MEAN_COEC<0.0994045] yes=139,no=140,missing=140
							139:leaf=-0.0883539
							140:leaf=-0.027848
						70:[D_CATEGORY_MACRO_MAX_COEC<0.0362783] yes=141,no=142,missing=142
							141:leaf=0.113009
							142:leaf=-0.0616735
			8:[C_D_U_TITLEMD5_CATEGORY_MACRO_MEAN_COEC<0.0819813] yes=17,no=18,missing=17
				17:[C_D_U_TITLEMD5_CATEGORY_MACRO_MEAN_COEC<0.0627666] yes=35,no=36,missing=36
					35:[IMAGE_COUNT<3] yes=71,no=72,missing=72
						71:[C_D_U_CATEGORY_CITY_MACRO_MAX_COEC<0.0421636] yes=143,no=144,missing=144
							143:leaf=-0.118197
							144:leaf=-0.0681941
						72:[U_AGE_2<0.999999] yes=145,no=146,missing=146
							145:leaf=-0.0490864
							146:leaf=-0.0040125
					36:[TIME_OF_DAY<17] yes=73,no=74,missing=74
						73:[C_D_U_CATEGORY_GENDER_MACRO_MAX_COEC<0.0730626] yes=147,no=148,missing=148
							147:leaf=-0.0504628
							148:leaf=-0.0288858
						74:[C_D_U_TITLEMD5_GENDER_COEC<0.082715] yes=149,no=150,missing=149
							149:leaf=-0.0269766
							150:leaf=0.00155955
				18:[U_KW_LEN<98] yes=37,no=38,missing=38
					37:[U_KW_LEN<39] yes=75,no=76,missing=76
						75:[C_D_U_CATEGORY_GENDER_MACRO_MEAN_COEC<0.0728691] yes=151,no=152,missing=152
							151:leaf=-0.0520513
							152:leaf=-0.0176908
						76:[C_D_U_TITLEMD5_CATEGORY_MACRO_MEAN_COEC<0.0958942] yes=153,no=154,missing=154
							153:leaf=-0.0233994
							154:leaf=0.00230803
					38:[CAT_REL<0.30208] yes=77,no=78,missing=78
						77:[C_D_U_TITLEMD5_CATEGORY_MICRO_MEAN_COEC<0.0977976] yes=155,no=156,missing=156
							155:leaf=-0.00743833
							156:leaf=0.0168463
						78:[C_D_U_TITLEMD5_CATEGORY_MACRO_MEAN_COEC<0.103258] yes=157,no=158,missing=158
							157:leaf=0.0272922
							158:leaf=0.0601753
		4:[C_D_U_TITLEMD5_GENDER_COEC<0.146543] yes=9,no=10,missing=9
			9:[C_D_U_TITLEMD5_CATEGORY_MACRO_MEAN_COEC<0.117925] yes=19,no=20,missing=19
				19:[C_D_U_TITLEMD5_GENDER_COEC<0.118098] yes=39,no=40,missing=39
					39:[C_D_U_TITLEMD5_CATEGORY_MACRO_MEAN_COEC<0.102005] yes=79,no=80,missing=79
						79:[C_D_U_TITLEMD5_CATEGORY_MICRO_MEAN_COEC<0.104851] yes=159,no=160,missing=160
							159:leaf=-0.0343569
							160:leaf=-0.00550422
						80:[U_KW_LEN<130] yes=161,no=162,missing=162
							161:leaf=0.00602258
							162:leaf=0.0326259
					40:[U_AGE_2<0.999999] yes=81,no=82,missing=82
						81:[WORD_COUNT<4300] yes=163,no=164,missing=164
							163:leaf=0.00139257
							164:leaf=0.040237
						82:[C_D_U_CATEGORY_GENDER_MICRO_MEAN_COEC<0.102325] yes=165,no=166,missing=165
							165:leaf=0.0276649
							166:leaf=0.0704441
				20:[U_KW_LEN<64] yes=41,no=42,missing=42
					41:[C_D_U_TITLEMD5_GENDER_COEC<0.0480283] yes=83,no=84,missing=83
						83:[C_D_U_CATEGORY_GENDER_MICRO_MAX_COEC<0.0942427] yes=167,no=168,missing=168
							167:leaf=-0.0666898
							168:leaf=0.0260546
						84:[D_KEYWORD_MICRO_MEAN_COEC<0.086732] yes=169,no=170,missing=170
							169:leaf=0.00847672
							170:leaf=0.0324135
					42:[C_D_U_TITLEMD5_GENDER_COEC<0.0849087] yes=85,no=86,missing=85
						85:[CAT_REL<0.199999] yes=171,no=172,missing=172
							171:leaf=-0.0599012
							172:leaf=0.00908612
						86:[C_D_U_TITLEMD5_CATEGORY_MACRO_MEAN_COEC<0.135107] yes=173,no=174,missing=174
							173:leaf=0.0479056
							174:leaf=0.0771008
			10:[D_KEYWORD_MACRO_MEAN_COEC<0.081516] yes=21,no=22,missing=22
				21:[D_KEYWORD_MACRO_MEAN_COEC<0.0627201] yes=43,no=44,missing=44
					43:[CAT_REL<0.199999] yes=87,no=88,missing=88
						87:[D_KEYWORD_MACRO_MAX_COEC<0.0139109] yes=175,no=176,missing=176
							175:leaf=-0.114879
							176:leaf=-0.040888
						88:[U_KW_LEN<80] yes=177,no=178,missing=178
							177:leaf=-0.0374387
							178:leaf=0.0130676
					44:[U_KW_LEN<135] yes=89,no=90,missing=90
						89:[C_D_U_CATEGORY_GENDER_MICRO_MAX_COEC<0.0955448] yes=179,no=180,missing=179
							179:leaf=0.0144475
							180:leaf=0.0800155
						90:[CAT_REL<0.355771] yes=181,no=182,missing=182
							181:leaf=0.0403963
							182:leaf=0.0813244
				22:[C_D_U_TITLEMD5_CATEGORY_MACRO_MEAN_COEC<0.169431] yes=45,no=46,missing=45
					45:[U_AGE_2<0.999999] yes=91,no=92,missing=92
						91:[C_D_U_TITLEMD5_CATEGORY_MICRO_MAX_COEC<0.17293] yes=183,no=184,missing=184
							183:leaf=0.0274254
							184:leaf=0.0576592
						92:[C_D_U_TITLEMD5_GENDER_COEC<0.19174] yes=185,no=186,missing=186
							185:leaf=0.0670356
							186:leaf=0.0965067
					46:[U_KW_LEN<98] yes=93,no=94,missing=94
						93:[C_D_U_TITLEMD5_CATEGORY_MACRO_MEAN_COEC<0.211848] yes=187,no=188,missing=188
							187:leaf=0.0776681
							188:leaf=0.102761
						94:[C_D_U_TITLEMD5_CATEGORY_MACRO_MEAN_COEC<0.221292] yes=189,no=190,missing=190
							189:leaf=0.107216
							190:leaf=0.13087
	2:[C_D_U_TITLEMD5_CATEGORY_MACRO_MEAN_COEC<0.0838621] yes=5,no=6,missing=6
		5:[C_D_U_TITLEMD5_CATEGORY_MACRO_MEAN_COEC<0.0586646] yes=11,no=12,missing=12
			11:[C_D_U_TITLEMD5_CATEGORY_MACRO_MEAN_COEC<0.0432072] yes=23,no=24,missing=24
				23:[CAT_REL<0.149452] yes=47,no=48,missing=48
					47:[CAT_REL<0.042448] yes=95,no=96,missing=96
						95:[D_CATEGORY_MICRO_MAX_COEC<0.105162] yes=191,no=192,missing=192
							191:leaf=-0.153851
							192:leaf=-0.0715133
						96:[C_D_U_TITLEMD5_CATEGORY_MACRO_MEAN_COEC<0.0319773] yes=193,no=194,missing=194
							193:leaf=-0.137461
							194:leaf=-0.117329
					48:[D_TITLEMD5_COEC<0.0786479] yes=97,no=98,missing=98
						97:[KW_REL<0.00165971] yes=195,no=196,missing=196
							195:leaf=-0.126432
							196:leaf=-0.0981076
						98:[KW_REL<0.00228787] yes=197,no=198,missing=198
							197:leaf=-0.087286
							198:leaf=-0.0436415
				24:[CAT_REL<0.11111] yes=49,no=50,missing=50
					49:[CAT_REL<0.05104] yes=99,no=100,missing=100
						99:[D_CATEGORY_MICRO_MAX_COEC<0.0637742] yes=199,no=200,missing=199
							199:leaf=-0.103578
							200:leaf=-0.132009
						100:[D_CATEGORY_MICRO_MEAN_COEC<0.0643925] yes=201,no=202,missing=202
							201:leaf=-0.0739315
							202:leaf=-0.103365
					50:[U_CAT_LEN<11] yes=101,no=102,missing=102
						101:[KW_REL<0.0011918] yes=203,no=204,missing=204
							203:leaf=-0.104894
							204:leaf=-0.0815247
						102:[KW_REL<0.00132671] yes=205,no=206,missing=206
							205:leaf=-0.0812262
							206:leaf=-0.0487731
			12:[CAT_REL<0.11111] yes=25,no=26,missing=26
				25:[CAT_REL<0.042448] yes=51,no=52,missing=52
					51:[D_CATEGORY_MICRO_MAX_COEC<0.0588429] yes=103,no=104,missing=103
						103:[C_D_U_PUBLISHER_AGE_COEC<0.0773075] yes=207,no=208,missing=208
							207:leaf=-0.0809805
							208:leaf=-0.0121998
						104:[C_D_U_TITLEMD5_CATEGORY_MACRO_MEAN_COEC<0.0705454] yes=209,no=210,missing=210
							209:leaf=-0.114914
							210:leaf=-0.0865966
					52:[U_CAT_LEN<12] yes=105,no=106,missing=106
						105:[C_D_U_TITLEMD5_CATEGORY_MACRO_MEAN_COEC<0.0674406] yes=211,no=212,missing=212
							211:leaf=-0.0918176
							212:leaf=-0.0699723
						106:[C_D_U_TITLEMD5_CATEGORY_MACRO_MEAN_COEC<0.0708464] yes=213,no=214,missing=214
							213:leaf=-0.0614644
							214:leaf=-0.0311609
				26:[KW_REL<0.0011918] yes=53,no=54,missing=54
					53:[U_CAT_LEN<11] yes=107,no=108,missing=108
						107:[C_D_U_TITLEMD5_CATEGORY_MACRO_MEAN_COEC<0.0688327] yes=215,no=216,missing=216
							215:leaf=-0.0799155
							216:leaf=-0.0578813
						108:[D_CATEGORY_MACRO_MAX_COEC<0.0963548] yes=217,no=218,missing=218
							217:leaf=-0.0297088
							218:leaf=-0.0624767
					54:[U_CAT_LEN<11] yes=109,no=110,missing=110
						109:[C_D_U_TITLEMD5_CATEGORY_MACRO_MEAN_COEC<0.0739643] yes=219,no=220,missing=220
							219:leaf=-0.048946
							220:leaf=-0.0192195
						110:[C_D_U_TITLEMD5_CATEGORY_MACRO_MEAN_COEC<0.0705454] yes=221,no=222,missing=222
							221:leaf=-0.0163963
							222:leaf=0.0128736
		6:[C_D_U_TITLEMD5_CATEGORY_MACRO_MEAN_COEC<0.122345] yes=13,no=14,missing=14
			13:[KW_REL<0.00107849] yes=27,no=28,missing=28
				27:[C_D_U_TITLEMD5_CATEGORY_MACRO_MEAN_COEC<0.102051] yes=55,no=56,missing=56
					55:[CAT_REL<0.05104] yes=111,no=112,missing=112
						111:[D_KEYWORD_MICRO_MEAN_COEC<0.0789314] yes=223,no=224,missing=224
							223:leaf=-0.0874012
							224:leaf=-0.043529
						112:[U_CAT_LEN<12] yes=225,no=226,missing=226
							225:leaf=-0.028794
							226:leaf=-1.38119e-05
					56:[U_CAT_LEN<10] yes=113,no=114,missing=114
						113:[CAT_REL<0.279634] yes=227,no=228,missing=228
							227:leaf=-0.0229418
							228:leaf=0.00606509
						114:[CAT_REL<0.21759] yes=229,no=230,missing=230
							229:leaf=0.00678773
							230:leaf=0.0377991
				28:[CAT_REL<0.098026] yes=57,no=58,missing=58
					57:[U_CAT_LEN<10] yes=115,no=116,missing=116
						115:[C_D_U_TITLEMD5_CATEGORY_MACRO_MEAN_COEC<0.0987063] yes=231,no=232,missing=232
							231:leaf=-0.0488196
							232:leaf=-0.0157342
						116:[C_D_U_TITLEMD5_CATEGORY_MACRO_MEAN_COEC<0.102051] yes=233,no=234,missing=234
							233:leaf=-0.00552912
							234:leaf=0.0244859
					58:[U_CAT_LEN<11] yes=117,no=118,missing=118
						117:[CAT_REL<0.356753] yes=235,no=236,missing=236
							235:leaf=0.00637091
							236:leaf=0.0349758
						118:[C_D_U_TITLEMD5_CATEGORY_MACRO_MEAN_COEC<0.100925] yes=237,no=238,missing=238
							237:leaf=0.0387145
							238:leaf=0.0664628
			14:[CAT_REL<0.271144] yes=29,no=30,missing=30
				29:[D_KEYWORD_MACRO_MEAN_COEC<0.0679799] yes=59,no=60,missing=60
					59:[CAT_REL<0.05104] yes=119,no=120,missing=120
						119:[D_KEYWORD_MACRO_MEAN_COEC<0.0558084] yes=239,no=240,missing=240
							239:leaf=-0.143469
							240:leaf=-0.0798126
						120:[C_D_U_TITLEMD5_CATEGORY_MICRO_MAX_COEC<0.266947] yes=241,no=242,missing=242
							241:leaf=0.0352679
							242:leaf=-0.0266807
					60:[C_D_U_TITLEMD5_CATEGORY_MACRO_MEAN_COEC<0.160394] yes=121,no=122,missing=122
						121:[U_CAT_LEN<11] yes=243,no=244,missing=244
							243:leaf=0.0281626
							244:leaf=0.0646649
						122:[C_D_U_TITLEMD5_GENDER_COEC<0.0973514] yes=245,no=246,missing=245
							245:leaf=-0.0215831
							246:leaf=0.0837381
				30:[C_D_U_TITLEMD5_GENDER_COEC<0.045988] yes=61,no=62,missing=61
					61:[KW_REL<0.00573208] yes=123,no=124,missing=124
						123:[D_KEYWORD_MACRO_MEAN_COEC<0.0723237] yes=247,no=248,missing=248
							247:leaf=-0.0183822
							248:leaf=0.0246088
						124:[U_CAT_LEN<10] yes=249,no=250,missing=250
							249:leaf=0.0144412
							250:leaf=0.0534134
					62:[C_D_U_TITLEMD5_CATEGORY_MACRO_MEAN_COEC<0.166274] yes=125,no=126,missing=126
						125:[U_CAT_LEN<10] yes=251,no=252,missing=252
							251:leaf=0.0626294
							252:leaf=0.0938369
						126:[C_D_U_TITLEMD5_CATEGORY_MICRO_MAX_COEC<0.46464] yes=253,no=254,missing=254
							253:leaf=0.113486
							254:leaf=0.0377149
booster[1]:
0:[U_KW_LEN<200] yes=1,no=2,missing=1
	1:[D_TITLEMD5_COEC<0.0884704] yes=3,no=4,missing=3
		3:[D_TITLEMD5_COEC<0.0568272] yes=7,no=8,missing=7
			7:[D_TITLEMD5_COEC<0.0324519] yes=15,no=16,missing=16
				15:[D_KEYWORD_MACRO_MEAN_COEC<0.0479083] yes=31,no=32,missing=32
					31:[D_PUBLISHER_COEC<0.029226] yes=63,no=64,missing=63
						63:[U_KW_LEN<118] yes=127,no=128,missing=128
							127:leaf=-0.144273
							128:leaf=-0.115392
						64:[IMAGE_COUNT<3] yes=129,no=130,missing=130
							129:leaf=-0.121231
							130:leaf=-0.0818205
					32:[C_D_U_CATEGORY_CITY_MACRO_MEAN_COEC<0.0961714] yes=65,no=66,missing=66
						65:[C_D_U_PUBLISHER_CITY_COEC<0.0395706] yes=131,no=132,missing=132
							131:leaf=-0.125103
							132:leaf=-0.1004
						66:[C_D_U_CATEGORY_CITY_MICRO_MAX_COEC<0.0971391] yes=133,no=134,missing=133
							133:leaf=0.04333
							134:leaf=-0.0791837
				16:[C_D_U_CATEGORY_CITY_MACRO_MEAN_COEC<0.0611464] yes=33,no=34,missing=34
					33:[C_D_U_TITLEMD5_CATEGORY_MACRO_MEAN_COEC<0.0504157] yes=67,no=68,missing=68
						67:[CAT_REL<0.325977] yes=135,no=136,missing=136
							135:leaf=-0.115389
							136:leaf=-0.0802174
						68:[WORD_COUNT<3076] yes=137,no=138,missing=138
							137:leaf=-0.0950833
							138:leaf=-0.0667302
					34:[C_D_U_TITLEMD5_CATEGORY_MACRO_MEAN_COEC<0.0556669] yes=69,no=70,missing=70
						69:[D_KEYWORD_MACRO_MEAN_COEC<0.0737408] yes=139,no=140,missing=140
							139:leaf=-0.0838917
							140:leaf=-0.0482487
						70:[C_D_U_CATEGORY_GENDER_MICRO_MAX_COEC<0.0417285] yes=141,no=142,missing=142
							141:leaf=0.0901539
							142:leaf=-0.0577865
			8:[C_D_U_TITLEMD5_CATEGORY_MACRO_MEAN_COEC<0.0754489] yes=17,no=18,missing=17
				17:[IMAGE_COUNT<3] yes=35,no=36,missing=36
					35:[C_D_U_CATEGORY_GENDER_MICRO_MEAN_COEC<0.0605419] yes=71,no=72,missing=71
						71:[C_D_U_TITLEMD5_CATEGORY_MACRO_MEAN_COEC<0.0635682] yes=143,no=144,missing=144
							143:leaf=-0.109278
							144:leaf=-0.0754565
						72:[C_D_U_TITLEMD5_CATEGORY_MACRO_MEAN_COEC<0.0609609] yes=145,no=146,missing=146
							145:leaf=-0.0646781
							146:leaf=-0.0407845
					36:[D_PUBLISHER_COEC<0.091274] yes=73,no=74,missing=74
						73:[C_D_U_CATEGORY_CITY_MICRO_MAX_COEC<0.12373] yes=147,no=148,missing=147
							147:leaf=-0.00941391
							148:leaf=0.072749
						74:[U_GENDER<2] yes=149,no=150,missing=149
							149:leaf=-0.0430202
							150:leaf=0.0266548
				18:[U_KW_LEN<95] yes=37,no=38,missing=38
					37:[C_D_U_CATEGORY_GENDER_MICRO_MAX_COEC<0.10441] yes=75,no=76,missing=75
						75:[KW_REL<2.80296e-06] yes=151,no=152,missing=152
							151:leaf=-0.0476828
							152:leaf=-0.0236554
						76:[C_D_U_TITLEMD5_GENDER_COEC<0.0867827] yes=153,no=154,missing=154
							153:leaf=0.000353515
							154:leaf=0.0726343
					38:[KW_REL<0.000741035] yes=77,no=78,missing=78
						77:[D_CATEGORY_MACRO_MEAN_COEC<0.0811361] yes=155,no=156,missing=155
							155:leaf=-0.0268526
							156:leaf=0.00454411
						78:[C_D_U_TITLEMD5_CATEGORY_MACRO_MEAN_COEC<0.0913854] yes=157,no=158,missing=158
							157:leaf=0.00921587
							158:leaf=0.0451495
		4:[C_D_U_TITLEMD5_GENDER_COEC<0.128963] yes=9,no=10,missing=9
			9:[C_D_U_TITLEMD5_CATEGORY_MACRO_MEAN_COEC<0.103753] yes=19,no=20,missing=19
				19:[TIME_OF_DAY<17] yes=39,no=40,missing=40
					39:[C_D_U_CATEGORY_GENDER_MICRO_MAX_COEC<0.0647948] yes=79,no=80,missing=80
						79:[CAT_REL<0.063972] yes=159,no=160,missing=160
							159:leaf=-0.0441969
							160:leaf=-0.0119511
						80:[C_D_U_TITLEMD5_CATEGORY_MACRO_MEAN_COEC<0.0882654] yes=161,no=162,missing=162
							161:leaf=-0.0262697
							162:leaf=-0.00582335
					40:[C_D_U_TITLEMD5_GENDER_COEC<0.0957454] yes=81,no=82,missing=81
						81:[C_D_U_CATEGORY_GENDER_MICRO_MAX_COEC<0.0891966] yes=163,no=164,missing=163
							163:leaf=-0.0174721
							164:leaf=0.0170437
						82:[D_CATEGORY_MICRO_MAX_COEC<0.0909735] yes=165,no=166,missing=166
							165:leaf=0.013839
							166:leaf=0.0457862
				20:[U_KW_LEN<116] yes=41,no=42,missing=42
					41:[C_D_U_TITLEMD5_GENDER_COEC<0.0655795] yes=83,no=84,missing=83
						83:[C_D_U_CATEGORY_GENDER_MICRO_MAX_COEC<0.0956777] yes=167,no=168,missing=168
							167:leaf=-0.0429486
							168:leaf=0.0429206
						84:[U_KW_LEN<32] yes=169,no=170,missing=170
							169:leaf=-0.000935349
							170:leaf=0.0234443
					42:[CAT_REL<0.249999] yes=85,no=86,missing=86
						85:[C_D_U_TITLEMD5_GENDER_COEC<0.0811112] yes=171,no=172,missing=171
							171:leaf=-0.0286051
							172:leaf=0.0321943
						86:[C_D_U_TITLEMD5_GENDER_COEC<0.0592312] yes=173,no=174,missing=173
							173:leaf=0.0195447
							174:leaf=0.0629147
			10:[C_D_U_TITLEMD5_CATEGORY_MACRO_MEAN_COEC<0.156599] yes=21,no=22,missing=21
				21:[D_KEYWORD_MACRO_MEAN_COEC<0.0708729] yes=43,no=44,missing=44
					43:[D_KEYWORD_MACRO_MEAN_COEC<0.0616965] yes=87,no=88,missing=88
						87:[U_KW_LEN<186] yes=175,no=176,missing=176
							175:leaf=-0.0509083
							176:leaf=0.0361607
						88:[D_CATEGORY_MACRO_MEAN_COEC<0.0618096] yes=177,no=178,missing=178
							177:leaf=-0.0607894
							178:leaf=0.0128169
					44:[D_KEYWORD_MICRO_MAX_COEC<0.212193] yes=89,no=90,missing=90
						89:[U_AGE_2<0.999999] yes=179,no=180,missing=180
							179:leaf=0.0326353
							180:leaf=0.0532172
						90:[D_PUBLISHER_COEC<0.0724676] yes=181,no=182,missing=182
							181:leaf=-0.0170522
							182:leaf=0.0915859
				22:[D_KEYWORD_MACRO_MEAN_COEC<0.0805622] yes=45,no=46,missing=46
					45:[C_D_U_TITLEMD5_CATEGORY_MICRO_MAX_COEC<0.311336] yes=91,no=92,missing=92
						91:[U_KW_LEN<60] yes=183,no=184,missing=184
							183:leaf=0.0076312
							184:leaf=0.0676066
						92:[CAT_REL<0.185237] yes=185,no=186,missing=186
							185:leaf=-0.0773774
							186:leaf=-0.00100574
					46:[U_KW_LEN<67] yes=93,no=94,missing=94
						93:[C_D_U_TITLEMD5_CATEGORY_MICRO_MEAN_COEC<0.203086] yes=187,no=188,missing=188
							187:leaf=0.0533381
							188:leaf=0.0837174
						94:[C_D_U_TITLEMD5_CATEGORY_MACRO_MEAN_COEC<0.189609] yes=189,no=190,missing=190
							189:leaf=0.0843215
							190:leaf=0.105184
	2:[C_D_U_TITLEMD5_CATEGORY_MACRO_MEAN_COEC<0.0805027] yes=5,no=6,missing=6
		5:[C_D_U_TITLEMD5_CATEGORY_MACRO_MEAN_COEC<0.0551056] yes=11,no=12,missing=12
			11:[CAT_REL<0.083654] yes=23,no=24,missing=24
				23:[C_D_U_TITLEMD5_CATEGORY_MACRO_MEAN_COEC<0.0379537] yes=47,no=48,missing=48
					47:[D_KEYWORD_MICRO_MEAN_COEC<0.110957] yes=95,no=96,missing=96
						95:[CAT_REL<0.027825] yes=191,no=192,missing=192
							191:leaf=-0.145269
							192:leaf=-0.127511
						96:[C_D_U_CATEGORY_AGE_MACRO_MAX_COEC<0.623598] yes=193,no=194,missing=194
							193:leaf=-0.0813431
							194:leaf=0.156
					48:[C_D_U_CATEGORY_GENDER_MICRO_MAX_COEC<0.0533961] yes=97,no=98,missing=97
						97:[CAT_REL<0.027825] yes=195,no=196,missing=196
							195:leaf=-0.102907
							196:leaf=-0.0536095
						98:[CAT_REL<0.042423] yes=197,no=198,missing=198
							197:leaf=-0.126306
							198:leaf=-0.104873
				24:[C_D_U_TITLEMD5_CATEGORY_MACRO_MEAN_COEC<0.0416127] yes=49,no=50,missing=50
					49:[D_TITLEMD5_COEC<0.109163] yes=99,no=100,missing=100
						99:[KW_REL<0.00415188] yes=199,no=200,missing=200
							199:leaf=-0.111778
							200:leaf=-0.0846439
						100:[D_PUBLISHER_COEC<0.0470413] yes=201,no=202,missing=202
							201:leaf=-0.105285
							202:leaf=-0.0492115
					50:[KW_REL<0.00131564] yes=101,no=102,missing=102
						101:[U_CAT_LEN<14] yes=203,no=204,missing=204
							203:leaf=-0.0929521
							204:leaf=-0.0740135
						102:[U_CAT_LEN<10] yes=205,no=206,missing=206
							205:leaf=-0.084797
							206:leaf=-0.0536959
			12:[CAT_REL<0.096591] yes=25,no=26,missing=26
				25:[CAT_REL<0.027825] yes=51,no=52,missing=52
					51:[D_CATEGORY_MICRO_MAX_COEC<0.0618814] yes=103,no=104,missing=103
						103:[C_D_U_CATEGORY_AGE_MICRO_MEAN_COEC<0.0690285] yes=207,no=208,missing=208
							207:leaf=-0.0748358
							208:leaf=0.0364462
						104:[D_CATEGORY_MICRO_MAX_COEC<0.0979951] yes=209,no=210,missing=210
							209:leaf=-0.107855
							210:leaf=-0.0597662
					52:[C_D_U_TITLEMD5_CATEGORY_MACRO_MEAN_COEC<0.0688349] yes=105,no=106,missing=106
						105:[D_CATEGORY_MICRO_MAX_COEC<0.0641719] yes=211,no=212,missing=212
							211:leaf=-0.0516339
							212:leaf=-0.0821539
						106:[U_CAT_LEN<12] yes=213,no=214,missing=214
							213:leaf=-0.0682879
							214:leaf=-0.0402717
				26:[U_CAT_LEN<12] yes=53,no=54,missing=54
					53:[KW_REL<0.00106609] yes=107,no=108,missing=108
						107:[C_D_U_TITLEMD5_CATEGORY_MACRO_MEAN_COEC<0.0688349] yes=215,no=216,missing=216
							215:leaf=-0.0755628
							216:leaf=-0.0553926
						108:[C_D_U_TITLEMD5_CATEGORY_MACRO_MEAN_COEC<0.0670274] yes=217,no=218,missing=218
							217:leaf=-0.0531426
							218:leaf=-0.0268416
					54:[KW_REL<0.00139638] yes=109,no=110,missing=110
						109:[C_D_U_TITLEMD5_CATEGORY_MACRO_MEAN_COEC<0.0650721] yes=219,no=220,missing=220
							219:leaf=-0.0566608
							220:leaf=-0.0285063
						110:[C_D_U_TITLEMD5_CATEGORY_MACRO_MEAN_COEC<0.0670274] yes=221,no=222,missing=222
							221:leaf=-0.020474
							222:leaf=0.0074141
		6:[C_D_U_TITLEMD5_CATEGORY_MACRO_MEAN_COEC<0.117243] yes=13,no=14,missing=14
			13:[KW_REL<0.00126995] yes=27,no=28,missing=28
				27:[U_CAT_LEN<10] yes=55,no=56,missing=56
					55:[CAT_REL<0.262523] yes=111,no=112,missing=112
						111:[C_D_U_TITLEMD5_CATEGORY_MACRO_MEAN_COEC<0.0969937] yes=223,no=224,missing=224
							223:leaf=-0.0555016
							224:leaf=-0.0280424
						112:[C_D_U_TITLEMD5_CATEGORY_MACRO_MEAN_COEC<0.0953975] yes=225,no=226,missing=226
							225:leaf=-0.0257974
							226:leaf=-0.00266491
					56:[CAT_REL<0.262523] yes=113,no=114,missing=114
						113:[C_D_U_TITLEMD5_CATEGORY_MACRO_MEAN_COEC<0.0923248] yes=227,no=228,missing=228
							227:leaf=-0.0293917
							228:leaf=-0.00028047
						114:[C_D_U_TITLEMD5_CATEGORY_MACRO_MEAN_COEC<0.0953975] yes=229,no=230,missing=230
							229:leaf=0.00457361
							230:leaf=0.029587
				28:[CAT_REL<0.096591] yes=57,no=58,missing=58
					57:[WORD_COUNT<2088] yes=115,no=116,missing=116
						115:[CAT_REL<0.027825] yes=231,no=232,missing=232
							231:leaf=-0.0603273
							232:leaf=-0.0144438
						116:[U_CAT_LEN<11] yes=233,no=234,missing=234
							233:leaf=-0.0166304
							234:leaf=0.0187982
					58:[U_CAT_LEN<10] yes=117,no=118,missing=118
						117:[C_D_U_TITLEMD5_CATEGORY_MACRO_MEAN_COEC<0.100477] yes=235,no=236,missing=236
							235:leaf=-0.00402978
							236:leaf=0.0253159
						118:[C_D_U_TITLEMD5_CATEGORY_MACRO_MEAN_COEC<0.0953975] yes=237,no=238,missing=238
							237:leaf=0.0280342
							238:leaf=0.0531841
			14:[CAT_REL<0.273901] yes=29,no=30,missing=30
				29:[U_CAT_LEN<11] yes=59,no=60,missing=60
					59:[C_D_U_TITLEMD5_CATEGORY_MACRO_MEAN_COEC<0.148035] yes=119,no=120,missing=120
						119:[KW_REL<0.000917871] yes=239,no=240,missing=240
							239:leaf=0.00128204
							240:leaf=0.0288177
						120:[D_KEYWORD_MACRO_MEAN_COEC<0.0747454] yes=241,no=242,missing=242
							241:leaf=-0.0279006
							242:leaf=0.0550106
					60:[C_D_U_TITLEMD5_GENDER_COEC<0.0729703] yes=121,no=122,missing=121
						121:[KW_REL<0.00126995] yes=243,no=244,missing=244
							243:leaf=-0.0608917
							244:leaf=-0.0100228
						122:[C_D_U_TITLEMD5_CATEGORY_MACRO_MEAN_COEC<0.148035] yes=245,no=246,missing=246
							245:leaf=0.0508941
							246:leaf=0.081383
				30:[C_D_U_TITLEMD5_GENDER_COEC<0.0492555] yes=61,no=62,missing=61
					61:[KW_REL<0.00609951] yes=123,no=124,missing=124
						123:[D_KEYWORD_MACRO_MEAN_COEC<0.0803054] yes=247,no=248,missing=248
							247:leaf=-0.0113256
							248:leaf=0.0271815
						124:[U_CAT_LEN<13] yes=249,no=250,missing=250
							249:leaf=0.027314
							250:leaf=0.0604115
					62:[C_D_U_TITLEMD5_CATEGORY_MACRO_MEAN_COEC<0.148035] yes=125,no=126,missing=126
						125:[U_CAT_LEN<10] yes=251,no=252,missing=252
							251:leaf=0.0487379
							252:leaf=0.0784593
						126:[D_KEYWORD_MACRO_MEAN_COEC<0.0667736] yes=253,no=254,missing=254
							253:leaf=0.0412263
							254:leaf=0.0969284
booster[2]:
0:[U_KW_LEN<200] yes=1,no=2,missing=1
	1:[D_TITLEMD5_COEC<0.11048] yes=3,no=4,missing=3
		3:[D_TITLEMD5_COEC<0.0694918] yes=7,no=8,missing=7
			7:[D_TITLEMD5_COEC<0.0392307] yes=15,no=16,missing=16
				15:[D_KEYWORD_MACRO_MEAN_COEC<0.0610009] yes=31,no=32,missing=32
					31:[C_D_U_PUBLISHER_GENDER_COEC<0.0424835] yes=63,no=64,missing=63
						63:[D_TITLEMD5_COEC<0.0331058] yes=127,no=128,missing=128
							127:leaf=-0.121739
							128:leaf=-0.0846422
						64:[IMAGE_COUNT<3] yes=129,no=130,missing=130
							129:leaf=-0.100436
							130:leaf=-0.0603561
					32:[C_D_U_CATEGORY_CITY_MICRO_MEAN_COEC<0.117793] yes=65,no=66,missing=66
						65:[C_D_U_TITLEMD5_CATEGORY_MACRO_MAX_COEC<0.032766] yes=131,no=132,missing=131
							131:leaf=-0.0843073
							132:leaf=-0.0395591
						66:[C_D_U_CATEGORY_GENDER_MICRO_MAX_COEC<0.0719664] yes=133,no=134,missing=133
							133:leaf=0.0706738
							134:leaf=-0.0630408
				16:[C_D_U_TITLEMD5_CATEGORY_MACRO_MEAN_COEC<0.0542682] yes=33,no=34,missing=34
					33:[C_D_U_CATEGORY_CITY_MACRO_MEAN_COEC<0.0597356] yes=67,no=68,missing=68
						67:[D_KEYWORD_MACRO_MAX_COEC<0.0152501] yes=135,no=136,missing=136
							135:leaf=-0.112393
							136:leaf=-0.0813991
						68:[D_KEYWORD_MACRO_MEAN_COEC<0.0880546] yes=137,no=138,missing=138
							137:leaf=-0.0694518
							138:leaf=-0.0120421
					34:[U_KW_LEN<118] yes=69,no=70,missing=70
						69:[C_D_U_CATEGORY_CITY_MACRO_MAX_COEC<0.0691537] yes=139,no=140,missing=139
							139:leaf=-0.0661736
							140:leaf=-0.0438816
						70:[CAT_REL<0.233632] yes=141,no=142,missing=142
							141:leaf=-0.0434586
							142:leaf=-0.0126927
			8:[C_D_U_TITLEMD5_CATEGORY_MACRO_MEAN_COEC<0.0882042] yes=17,no=18,missing=17
				17:[C_D_U_CATEGORY_CITY_MACRO_MEAN_COEC<0.0682636] yes=35,no=36,missing=36
					35:[IMAGE_COUNT<3] yes=71,no=72,missing=72
						71:[U_CAT_LEN<6] yes=143,no=144,missing=144
							143:leaf=-0.0449626
							144:leaf=-0.0159805
						72:[D_PUBLISHER_COEC<0.0900678] yes=145,no=146,missing=146
							145:leaf=0.00576837
							146:leaf=-0.044884
					36:[C_D_U_TITLEMD5_GENDER_COEC<0.0952246] yes=73,no=74,missing=74
						73:[C_D_U_TITLEMD5_CATEGORY_MICRO_MEAN_COEC<0.0778188] yes=147,no=148,missing=148
							147:leaf=-0.0419746
							148:leaf=-0.0212206
						74:[U_GENDER<2] yes=149,no=150,missing=149
							149:leaf=-0.0103665
							150:leaf=0.0260004
				18:[U_KW_LEN<82] yes=37,no=38,missing=38
					37:[C_D_U_CATEGORY_GENDER_MICRO_MEAN_COEC<0.0953771] yes=75,no=76,missing=76
						75:[D_KEYWORD_MICRO_MEAN_COEC<0.0837001] yes=151,no=152,missing=152
							151:leaf=-0.0227884
							152:leaf=-0.00256871
						76:[D_CATEGORY_MACRO_MAX_COEC<0.0993945] yes=153,no=154,missing=153
							153:leaf=0.0503561
							154:leaf=-0.00382879
					38:[CAT_REL<0.368955] yes=77,no=78,missing=78
						77:[CAT_REL<0.063078] yes=155,no=156,missing=156
							155:leaf=-0.00908509
							156:leaf=0.0164539
						78:[C_D_U_TITLEMD5_CATEGORY_MACRO_MEAN_COEC<0.101692] yes=157,no=158,missing=158
							157:leaf=0.0228711
							158:leaf=0.0502048
		4:[C_D_U_TITLEMD5_CATEGORY_MACRO_MEAN_COEC<0.136779] yes=9,no=10,missing=9
			9:[D_KEYWORD_MICRO_MEAN_COEC<0.0895551] yes=19,no=20,missing=20
				19:[D_KEYWORD_MACRO_MEAN_COEC<0.0627655] yes=39,no=40,missing=40
					39:[C_D_U_TITLEMD5_CATEGORY_MACRO_MEAN_COEC<0.0994993] yes=79,no=80,missing=80
						79:[C_D_U_TITLEMD5_GENDER_COEC<0.14019] yes=159,no=160,missing=159
							159:leaf=-0.102901
							160:leaf=-0.037703
						80:[C_D_U_CATEGORY_GENDER_MACRO_MAX_COEC<0.060762] yes=161,no=162,missing=161
							161:leaf=-0.0765647
							162:leaf=-0.0124239
					40:[U_AGE_2<0.999999] yes=81,no=82,missing=82
						81:[WORD_COUNT<630] yes=163,no=164,missing=164
							163:leaf=0.0447847
							164:leaf=-0.00415717
						82:[C_D_U_CATEGORY_CITY_MACRO_MEAN_COEC<0.0743462] yes=165,no=166,missing=165
							165:leaf=0.0125384
							166:leaf=0.0337272
				20:[C_D_U_TITLEMD5_GENDER_COEC<0.156166] yes=41,no=42,missing=41
					41:[WORD_COUNT<4328] yes=83,no=84,missing=84
						83:[CAT_REL<0.080072] yes=167,no=168,missing=168
							167:leaf=0.0143974
							168:leaf=0.0378288
						84:[D_CATEGORY_MICRO_MEAN_COEC<0.0995034] yes=169,no=170,missing=170
							169:leaf=0.0294983
							170:leaf=0.0811657
					42:[D_KEYWORD_MICRO_MAX_COEC<0.213871] yes=85,no=86,missing=86
						85:[WORD_COUNT<1420] yes=171,no=172,missing=172
							171:leaf=0.0368927
							172:leaf=0.0619278
						86:[U_AGE_2<0.999999] yes=173,no=174,missing=174
							173:leaf=0.0696651
							174:leaf=0.09666
			10:[D_KEYWORD_MACRO_MEAN_COEC<0.0714159] yes=21,no=22,missing=22
				21:[C_D_U_TITLEMD5_GENDER_COEC<0.0444107] yes=43,no=44,missing=43
					43:[U_KW_LEN<111] yes=87,no=88,missing=88
						87:[D_CATEGORY_MACRO_MAX_COEC<0.0642864] yes=175,no=176,missing=175
							175:leaf=-0.105017
							176:leaf=-0.0349296
						88:[WORD_COUNT<1804] yes=177,no=178,missing=178
							177:leaf=0.0153961
							178:leaf=-0.0284123
					44:[C_D_U_CATEGORY_CITY_MACRO_MAX_COEC<0.0534186] yes=89,no=90,missing=89
						89:[D_CATEGORY_MACRO_MEAN_COEC<0.0707759] yes=179,no=180,missing=179
							179:leaf=-0.0737833
							180:leaf=0.00125754
						90:[U_KW_LEN<79] yes=181,no=182,missing=182
							181:leaf=0.0010756
							182:leaf=0.0354502
				22:[C_D_U_TITLEMD5_CATEGORY_MICRO_MEAN_COEC<0.172513] yes=45,no=46,missing=46
					45:[U_KW_LEN<45] yes=91,no=92,missing=92
						91:[C_D_U_TITLEMD5_GENDER_COEC<0.156166] yes=183,no=184,missing=183
							183:leaf=0.0172542
							184:leaf=0.043304
						92:[KW_REL<0.000313401] yes=185,no=186,missing=186
							185:leaf=0.0457287
							186:leaf=0.0673602
					46:[D_PUBLISHER_COEC<0.0614337] yes=93,no=94,missing=94
						93:[D_KEYWORD_MICRO_MAX_COEC<0.247094] yes=187,no=188,missing=188
							187:leaf=0.0077955
							188:leaf=-0.0922751
						94:[U_KW_LEN<115] yes=189,no=190,missing=190
							189:leaf=0.0687538
							190:leaf=0.0898717
	2:[C_D_U_TITLEMD5_CATEGORY_MACRO_MEAN_COEC<0.0861275] yes=5,no=6,missing=6
		5:[C_D_U_TITLEMD5_CATEGORY_MACRO_MEAN_COEC<0.0571289] yes=11,no=12,missing=12
			11:[C_D_U_TITLEMD5_CATEGORY_MACRO_MEAN_COEC<0.0461287] yes=23,no=24,missing=24
				23:[KW_REL<0.00133162] yes=47,no=48,missing=48
					47:[D_TITLEMD5_COEC<0.0252742] yes=95,no=96,missing=96
						95:[D_KEYWORD_MACRO_MEAN_COEC<0.0697536] yes=191,no=192,missing=192
							191:leaf=-0.128006
							192:leaf=-0.08669
						96:[CAT_REL<0.095599] yes=193,no=194,missing=194
							193:leaf=-0.115329
							194:leaf=-0.0928974
					48:[D_TITLEMD5_COEC<0.143351] yes=97,no=98,missing=98
						97:[CAT_REL<0.147899] yes=195,no=196,missing=196
							195:leaf=-0.104182
							196:leaf=-0.0786746
						98:[D_PUBLISHER_COEC<0.0582323] yes=197,no=198,missing=197
							197:leaf=-0.0671701
							198:leaf=-0.0252975
				24:[CAT_REL<0.147899] yes=49,no=50,missing=50
					49:[CAT_REL<0.048837] yes=99,no=100,missing=100
						99:[D_CATEGORY_MICRO_MAX_COEC<0.0630236] yes=199,no=200,missing=199
							199:leaf=-0.0775742
							200:leaf=-0.108678
						100:[U_CAT_LEN<12] yes=201,no=202,missing=202
							201:leaf=-0.0911245
							202:leaf=-0.0701311
					50:[U_CAT_LEN<14] yes=101,no=102,missing=102
						101:[U_CAT_LEN<9] yes=203,no=204,missing=204
							203:leaf=-0.0789775
							204:leaf=-0.0559933
						102:[KW_REL<0.00148475] yes=205,no=206,missing=206
							205:leaf=-0.0540615
							206:leaf=-0.023215
			12:[CAT_REL<0.131039] yes=25,no=26,missing=26
				25:[CAT_REL<0.048837] yes=51,no=52,missing=52
					51:[C_D_U_CATEGORY_AGE_MICRO_MAX_COEC<0.109446] yes=103,no=104,missing=104
						103:[C_D_U_TITLEMD5_CATEGORY_MACRO_MEAN_COEC<0.0776747] yes=207,no=208,missing=208
							207:leaf=-0.0845371
							208:leaf=-0.0589596
						104:[D_KEYWORD_MACRO_MAX_COEC<0.0250963] yes=209,no=210,missing=210
							209:leaf=-0.0212877
							210:leaf=0.0407329
					52:[U_CAT_LEN<12] yes=105,no=106,missing=106
						105:[C_D_U_TITLEMD5_CATEGORY_MACRO_MEAN_COEC<0.0744325] yes=211,no=212,missing=212
							211:leaf=-0.0689466
							212:leaf=-0.0475078
						106:[C_D_U_TITLEMD5_CATEGORY_MACRO_MEAN_COEC<0.0744325] yes=213,no=214,missing=214
							213:leaf=-0.0424944
							214:leaf=-0.0147026
				26:[KW_REL<0.00139286] yes=53,no=54,missing=54
					53:[C_D_U_TITLEMD5_CATEGORY_MACRO_MEAN_COEC<0.0691137] yes=107,no=108,missing=108
						107:[D_KEYWORD_MACRO_MEAN_COEC<0.0792984] yes=215,no=216,missing=216
							215:leaf=-0.0499872
							216:leaf=-0.076337
						108:[WORD_COUNT<2732] yes=217,no=218,missing=218
							217:leaf=-0.0355671
							218:leaf=-0.00731327
					54:[U_CAT_LEN<11] yes=109,no=110,missing=110
						109:[C_D_U_TITLEMD5_CATEGORY_MACRO_MEAN_COEC<0.0713313] yes=219,no=220,missing=220
							219:leaf=-0.0430576
							220:leaf=-0.014638
						110:[C_D_U_TITLEMD5_CATEGORY_MACRO_MEAN_COEC<0.0713313] yes=221,no=222,missing=222
							221:leaf=-0.0106685
							222:leaf=0.0166437
		6:[C_D_U_TITLEMD5_CATEGORY_MACRO_MEAN_COEC<0.127012] yes=13,no=14,missing=14
			13:[KW_REL<0.000899415] yes=27,no=28,missing=28
				27:[C_D_U_TITLEMD5_CATEGORY_MACRO_MEAN_COEC<0.10795] yes=55,no=56,missing=56
					55:[CAT_REL<0.270664] yes=111,no=112,missing=112
						111:[U_CAT_LEN<11] yes=223,no=224,missing=224
							223:leaf=-0.0391482
							224:leaf=-0.0133909
						112:[U_CAT_LEN<14] yes=225,no=226,missing=226
							225:leaf=-0.00457012
							226:leaf=0.0236902
					56:[U_CAT_LEN<12] yes=113,no=114,missing=114
						113:[CAT_REL<0.262859] yes=227,no=228,missing=228
							227:leaf=-0.00983572
							228:leaf=0.013354
						114:[CAT_REL<0.20521] yes=229,no=230,missing=230
							229:leaf=0.01149
							230:leaf=0.0415068
				28:[CAT_REL<0.125152] yes=57,no=58,missing=58
					57:[U_CAT_LEN<9] yes=115,no=116,missing=116
						115:[C_D_U_TITLEMD5_CATEGORY_MACRO_MEAN_COEC<0.100856] yes=231,no=232,missing=232
							231:leaf=-0.0453934
							232:leaf=-0.0131126
						116:[C_D_U_TITLEMD5_CATEGORY_MACRO_MEAN_COEC<0.10381] yes=233,no=234,missing=234
							233:leaf=-0.000422293
							234:leaf=0.0257666
					58:[U_CAT_LEN<10] yes=117,no=118,missing=118
						117:[C_D_U_TITLEMD5_CATEGORY_MACRO_MEAN_COEC<0.100856] yes=235,no=236,missing=236
							235:leaf=0.000725153
							236:leaf=0.0258499
						118:[C_D_U_TITLEMD5_CATEGORY_MACRO_MEAN_COEC<0.10595] yes=237,no=238,missing=238
							237:leaf=0.0344663
							238:leaf=0.0575846
			14:[C_D_U_TITLEMD5_GENDER_COEC<0.0413953] yes=29,no=30,missing=29
				29:[CAT_REL<0.262859] yes=59,no=60,missing=60
					59:[CAT_REL<0.095599] yes=119,no=120,missing=120
						119:[C_D_U_CATEGORY_CITY_MICRO_MEAN_COEC<0.201776] yes=239,no=240,missing=240
							239:leaf=-0.102873
							240:leaf=0.0518259
						120:[KW_REL<0.00316753] yes=241,no=242,missing=242
							241:leaf=-0.050735
							242:leaf=-0.00978323
					60:[U_CAT_LEN<14] yes=121,no=122,missing=122
						121:[KW_REL<0.00328792] yes=243,no=244,missing=244
							243:leaf=-0.0175697
							244:leaf=0.0142572
						122:[D_KEYWORD_MACRO_MEAN_COEC<0.0547437] yes=245,no=246,missing=246
							245:leaf=-0.0141642
							246:leaf=0.0375948
				30:[CAT_REL<0.234599] yes=61,no=62,missing=62
					61:[KW_REL<0.000587169] yes=123,no=124,missing=124
						123:[C_D_U_TITLEMD5_CATEGORY_MACRO_MEAN_COEC<0.178612] yes=247,no=248,missing=248
							247:leaf=0.0161733
							248:leaf=0.0554864
						124:[U_CAT_LEN<9] yes=249,no=250,missing=250
							249:leaf=0.0348015
							250:leaf=0.065563
					62:[U_CAT_LEN<9] yes=125,no=126,missing=126
						125:[C_D_U_TITLEMD5_CATEGORY_MACRO_MAX_COEC<0.090229] yes=251,no=252,missing=252
							251:leaf=0.0434777
							252:leaf=0.0720634
						126:[C_D_U_TITLEMD5_CATEGORY_MICRO_MAX_COEC<0.449913] yes=253,no=254,missing=254
							253:leaf=0.085516
							254:leaf=0.02884
booster[3]:
0:[U_KW_LEN<200] yes=1,no=2,missing=1
	1:[D_TITLEMD5_COEC<0.108325] yes=3,no=4,missing=3
		3:[D_TITLEMD5_COEC<0.069721] yes=7,no=8,missing=7
			7:[D_TITLEMD5_COEC<0.0400384] yes=15,no=16,missing=16
				15:[D_KEYWORD_MACRO_MEAN_COEC<0.0599674] yes=31,no=32,missing=32
					31:[D_TITLEMD5_COEC<0.0211253] yes=63,no=64,missing=64
						63:[KW_REL<0.00364496] yes=127,no=128,missing=128
							127:leaf=-0.108508
							128:leaf=-0.0809604
						64:[C_D_U_TITLEMD5_CATEGORY_MACRO_MEAN_COEC<0.0362323] yes=129,no=130,missing=130
							129:leaf=-0.0939193
							130:leaf=-0.0761004
					32:[D_KEYWORD_MACRO_MEAN_COEC<0.0872801] yes=65,no=66,missing=66
						65:[C_D_U_TITLEMD5_CATEGORY_MACRO_MAX_COEC<0.0208065] yes=131,no=132,missing=132
							131:leaf=-0.0811982
							132:leaf=-0.0572615
						66:[D_CATEGORY_MICRO_MEAN_COEC<0.0980219] yes=133,no=134,missing=134
							133:leaf=-0.00577295
							134:leaf=-0.125843
				16:[C_D_U_TITLEMD5_CATEGORY_MACRO_MEAN_COEC<0.0507382] yes=33,no=34,missing=34
					33:[C_D_U_CATEGORY_GENDER_MICRO_MAX_COEC<0.0931232] yes=67,no=68,missing=67
						67:[CAT_REL<0.537193] yes=135,no=136,missing=136
							135:leaf=-0.0743559
							136:leaf=-0.045259
						68:[C_D_U_PUBLISHER_CITY_COEC<0.0447688] yes=137,no=138,missing=137
							137:leaf=-0.0958384
							138:leaf=-0.0290811
					34:[U_KW_LEN<115] yes=69,no=70,missing=70
						69:[WORD_COUNT<3109] yes=139,no=140,missing=140
							139:leaf=-0.0566997
							140:leaf=-0.0338288
						70:[CAT_REL<0.142856] yes=141,no=142,missing=142
							141:leaf=-0.0573736
							142:leaf=-0.0185302
			8:[C_D_U_TITLEMD5_CATEGORY_MACRO_MEAN_COEC<0.0892348] yes=17,no=18,missing=17
				17:[C_D_U_CATEGORY_CITY_MICRO_MEAN_COEC<0.0677184] yes=35,no=36,missing=36
					35:[IMAGE_COUNT<3] yes=71,no=72,missing=72
						71:[U_AGE_2<0.999999] yes=143,no=144,missing=144
							143:leaf=-0.0447085
							144:leaf=-0.0270314
						72:[D_PUBLISHER_COEC<0.0885895] yes=145,no=146,missing=146
							145:leaf=0.00936332
							146:leaf=-0.0354697
					36:[C_D_U_TITLEMD5_CATEGORY_MACRO_MEAN_COEC<0.0753078] yes=73,no=74,missing=74
						73:[C_D_U_PUBLISHER_GENDER_COEC<0.0855547] yes=147,no=148,missing=147
							147:leaf=-0.0406794
							148:leaf=-0.0164596
						74:[TIME_OF_DAY<18] yes=149,no=150,missing=150
							149:leaf=-0.0150746
							150:leaf=0.0122538
				18:[U_KW_LEN<52] yes=37,no=38,missing=38
					37:[C_D_U_CATEGORY_GENDER_MICRO_MAX_COEC<0.0942879] yes=75,no=76,missing=75
						75:[C_D_U_TITLEMD5_GENDER_COEC<0.0654798] yes=151,no=152,missing=152
							151:leaf=-0.0612958
							152:leaf=-0.0206001
						76:[U_GENDER<2] yes=153,no=154,missing=153
							153:leaf=0.000616643
							154:leaf=0.0608822
					38:[CAT_REL<0.388723] yes=77,no=78,missing=78
						77:[U_KW_LEN<116] yes=155,no=156,missing=156
							155:leaf=-0.00675243
							156:leaf=0.0175619
						78:[C_D_U_TITLEMD5_CATEGORY_MACRO_MEAN_COEC<0.101589] yes=157,no=158,missing=158
							157:leaf=0.0153362
							158:leaf=0.0417198
		4:[C_D_U_TITLEMD5_CATEGORY_MACRO_MEAN_COEC<0.136891] yes=9,no=10,missing=9
			9:[D_KEYWORD_MICRO_MAX_COEC<0.160887] yes=19,no=20,missing=20
				19:[U_AGE_2<0.999999] yes=39,no=40,missing=40
					39:[D_KEYWORD_MICRO_MEAN_COEC<0.0862355] yes=79,no=80,missing=80
						79:[C_D_U_TITLEMD5_CATEGORY_MACRO_MEAN_COEC<0.0981755] yes=159,no=160,missing=160
							159:leaf=-0.0495756
							160:leaf=-0.0046139
						80:[WORD_COUNT<4328] yes=161,no=162,missing=162
							161:leaf=0.00921759
							162:leaf=0.0404142
					40:[C_D_U_TITLEMD5_GENDER_COEC<0.118182] yes=81,no=82,missing=81
						81:[C_D_U_TITLEMD5_GENDER_COEC<0.0679426] yes=163,no=164,missing=163
							163:leaf=-0.0278671
							164:leaf=0.0134219
						82:[C_D_U_CATEGORY_GENDER_MICRO_MAX_COEC<0.102463] yes=165,no=166,missing=165
							165:leaf=0.0283897
							166:leaf=0.0556573
				20:[C_D_U_TITLEMD5_GENDER_COEC<0.123956] yes=41,no=42,missing=41
					41:[C_D_U_PUBLISHER_CITY_COEC<0.0588847] yes=83,no=84,missing=83
						83:[DAY_OF_WEEK<5] yes=167,no=168,missing=168
							167:leaf=-0.149893
							168:leaf=-0.0405346
						84:[D_KEYWORD_MICRO_MEAN_COEC<0.166515] yes=169,no=170,missing=170
							169:leaf=0.00804214
							170:leaf=-0.19754
					42:[U_GENDER<2] yes=85,no=86,missing=85
						85:[C_D_U_TITLEMD5_CATEGORY_MACRO_MEAN_COEC<0.132765] yes=171,no=172,missing=172
							171:leaf=0.0189795
							172:leaf=0.0532541
						86:[D_KEYWORD_MICRO_MAX_COEC<0.189654] yes=173,no=174,missing=174
							173:leaf=0.0749961
							174:leaf=0.101933
			10:[D_KEYWORD_MACRO_MEAN_COEC<0.0716951] yes=21,no=22,missing=22
				21:[C_D_U_TITLEMD5_CATEGORY_MICRO_MAX_COEC<0.237216] yes=43,no=44,missing=44
					43:[D_KEYWORD_MACRO_MEAN_COEC<0.0615675] yes=87,no=88,missing=88
						87:[KW_REL<2.03311e-05] yes=175,no=176,missing=176
							175:leaf=-0.0863318
							176:leaf=0.00187809
						88:[C_D_U_TITLEMD5_GENDER_COEC<0.0936389] yes=177,no=178,missing=178
							177:leaf=-0.0244906
							178:leaf=0.0373006
					44:[C_D_U_CATEGORY_CITY_MACRO_MAX_COEC<0.0531068] yes=89,no=90,missing=89
						89:[CAT_REL<0.345956] yes=179,no=180,missing=180
							179:leaf=-0.10198
							180:leaf=-0.0207877
						90:[C_D_U_TITLEMD5_CATEGORY_MACRO_MAX_COEC<0.0935264] yes=181,no=182,missing=182
							181:leaf=0.0215214
							182:leaf=-0.0217723
				22:[U_KW_LEN<52] yes=45,no=46,missing=46
					45:[C_D_U_TITLEMD5_GENDER_COEC<0.156205] yes=91,no=92,missing=91
						91:[C_D_U_TITLEMD5_GENDER_COEC<0.101037] yes=183,no=184,missing=183
							183:leaf=-0.0259736
							184:leaf=0.0240766
						92:[U_AGE_2<0.999999] yes=185,no=186,missing=186
							185:leaf=0.0385278
							186:leaf=0.0636377
					46:[C_D_U_TITLEMD5_CATEGORY_MACRO_MEAN_COEC<0.168546] yes=93,no=94,missing=94
						93:[KW_REL<0.000314084] yes=187,no=188,missing=188
							187:leaf=0.0444432
							188:leaf=0.0613341
						94:[C_D_U_TITLEMD5_CATEGORY_MICRO_MAX_COEC<0.494304] yes=189,no=190,missing=190
							189:leaf=0.0805745
							190:leaf=0.0160917
	2:[C_D_U_TITLEMD5_CATEGORY_MACRO_MEAN_COEC<0.0809818] yes=5,no=6,missing=6
		5:[C_D_U_TITLEMD5_CATEGORY_MACRO_MEAN_COEC<0.0520809] yes=11,no=12,missing=12
			11:[CAT_REL<0.149677] yes=23,no=24,missing=24
				23:[C_D_U_TITLEMD5_CATEGORY_MACRO_MEAN_COEC<0.0319459] yes=47,no=48,missing=48
					47:[KW_REL<0.00112799] yes=95,no=96,missing=96
						95:[C_D_U_PUBLISHER_AGE_COEC<0.0981254] yes=191,no=192,missing=192
							191:leaf=-0.122414
							192:leaf=-0.0812561
						96:[D_KEYWORD_MACRO_MEAN_COEC<0.0923875] yes=193,no=194,missing=194
							193:leaf=-0.102733
							194:leaf=0.0669136
					48:[CAT_REL<0.061015] yes=97,no=98,missing=98
						97:[D_CATEGORY_MICRO_MAX_COEC<0.0651454] yes=195,no=196,missing=195
							195:leaf=-0.087782
							196:leaf=-0.105065
						98:[D_CATEGORY_MACRO_MEAN_COEC<0.0582016] yes=197,no=198,missing=198
							197:leaf=-0.0374332
							198:leaf=-0.084658
				24:[KW_REL<0.00252045] yes=49,no=50,missing=50
					49:[D_TITLEMD5_COEC<0.0239462] yes=99,no=100,missing=100
						99:[D_KEYWORD_MACRO_MEAN_COEC<0.0673896] yes=199,no=200,missing=200
							199:leaf=-0.108674
							200:leaf=-0.0754414
						100:[U_CAT_LEN<14] yes=201,no=202,missing=202
							201:leaf=-0.0818122
							202:leaf=-0.0596385
					50:[D_TITLEMD5_COEC<0.044072] yes=101,no=102,missing=102
						101:[CAT_REL<0.666215] yes=203,no=204,missing=204
							203:leaf=-0.0743712
							204:leaf=-0.0454907
						102:[U_CAT_LEN<16] yes=205,no=206,missing=206
							205:leaf=-0.0506231
							206:leaf=-0.0239646
			12:[CAT_REL<0.100382] yes=25,no=26,missing=26
				25:[CAT_REL<0.039576] yes=51,no=52,missing=52
					51:[D_CATEGORY_MICRO_MAX_COEC<0.0637742] yes=103,no=104,missing=103
						103:[C_D_U_PUBLISHER_CITY_COEC<0.0833104] yes=207,no=208,missing=207
							207:leaf=-0.0689392
							208:leaf=-0.0300967
						104:[C_D_U_TITLEMD5_CATEGORY_MACRO_MEAN_COEC<0.0707813] yes=209,no=210,missing=210
							209:leaf=-0.0939357
							210:leaf=-0.0717891
					52:[C_D_U_TITLEMD5_CATEGORY_MACRO_MEAN_COEC<0.0654579] yes=105,no=106,missing=106
						105:[U_CAT_LEN<10] yes=211,no=212,missing=212
							211:leaf=-0.0876418
							212:leaf=-0.0608833
						106:[U_CAT_LEN<13] yes=213,no=214,missing=214
							213:leaf=-0.0550158
							214:leaf=-0.0281711
				26:[U_CAT_LEN<13] yes=53,no=54,missing=54
					53:[C_D_U_TITLEMD5_CATEGORY_MACRO_MEAN_COEC<0.0635675] yes=107,no=108,missing=108
						107:[CAT_REL<0.294368] yes=215,no=216,missing=216
							215:leaf=-0.064077
							216:leaf=-0.0408644
						108:[KW_REL<0.00309985] yes=217,no=218,missing=218
							217:leaf=-0.0394162
							218:leaf=-0.0144262
					54:[KW_REL<0.00110014] yes=109,no=110,missing=110
						109:[C_D_U_TITLEMD5_CATEGORY_MACRO_MEAN_COEC<0.0689116] yes=219,no=220,missing=220
							219:leaf=-0.047026
							220:leaf=-0.0185707
						110:[C_D_U_TITLEMD5_CATEGORY_MACRO_MEAN_COEC<0.0654579] yes=221,no=222,missing=222
							221:leaf=-0.018398
							222:leaf=0.00803526
		6:[C_D_U_TITLEMD5_CATEGORY_MACRO_MEAN_COEC<0.118801] yes=13,no=14,missing=14
			13:[KW_REL<0.000866313] yes=27,no=28,missing=28
				27:[C_D_U_TITLEMD5_CATEGORY_MACRO_MEAN_COEC<0.0995721] yes=55,no=56,missing=56
					55:[CAT_REL<0.05111] yes=111,no=112,missing=112
						111:[D_KEYWORD_MICRO_MEAN_COEC<0.0795873] yes=223,no=224,missing=224
							223:leaf=-0.0771742
							224:leaf=-0.0383995
						112:[U_CAT_LEN<14] yes=225,no=226,missing=226
							225:leaf=-0.0257463
							226:leaf=0.000200676
					56:[U_CAT_LEN<12] yes=113,no=114,missing=114
						113:[CAT_REL<0.267291] yes=227,no=228,missing=228
							227:leaf=-0.0186719
							228:leaf=0.00261639
						114:[D_TITLEMD5_COEC<0.141291] yes=229,no=230,missing=230
							229:leaf=0.0178516
							230:leaf=-0.0166269
				28:[CAT_REL<0.076311] yes=57,no=58,missing=58
					57:[D_PUBLISHER_COEC<0.0719685] yes=115,no=116,missing=116
						115:[CAT_REL<0.039576] yes=231,no=232,missing=232
							231:leaf=-0.0634849
							232:leaf=-0.0286321
						116:[D_CATEGORY_MICRO_MAX_COEC<0.0640242] yes=233,no=234,missing=233
							233:leaf=0.0261088
							234:leaf=-0.00998856
					58:[U_CAT_LEN<11] yes=117,no=118,missing=118
						117:[CAT_REL<0.32192] yes=235,no=236,missing=236
							235:leaf=-0.00348871
							236:leaf=0.0218479
						118:[C_D_U_TITLEMD5_CATEGORY_MACRO_MEAN_COEC<0.0970641] yes=237,no=238,missing=238
							237:leaf=0.0228848
							238:leaf=0.044421
			14:[CAT_REL<0.294368] yes=29,no=30,missing=30
				29:[U_CAT_LEN<10] yes=59,no=60,missing=60
					59:[C_D_U_TITLEMD5_CATEGORY_MACRO_MEAN_COEC<0.156483] yes=119,no=120,missing=120
						119:[KW_REL<0.000823017] yes=239,no=240,missing=240
							239:leaf=-0.00129048
							240:leaf=0.021912
						120:[D_KEYWORD_MACRO_MEAN_COEC<0.0773014] yes=241,no=242,missing=242
							241:leaf=-0.0240056
							242:leaf=0.0466774
					60:[D_KEYWORD_MACRO_MEAN_COEC<0.0648582] yes=121,no=122,missing=122
						121:[KW_REL<0.00279433] yes=243,no=244,missing=244
							243:leaf=-0.0411438
							244:leaf=0.015243
						122:[C_D_U_TITLEMD5_CATEGORY_MACRO_MEAN_COEC<0.14087] yes=245,no=246,missing=246
							245:leaf=0.0390116
							246:leaf=0.0645887
				30:[C_D_U_TITLEMD5_GENDER_COEC<0.0418389] yes=61,no=62,missing=61
					61:[KW_REL<0.000770086] yes=123,no=124,missing=124
						123:[D_KEYWORD_MACRO_MEAN_COEC<0.0766679] yes=247,no=248,missing=248
							247:leaf=-0.0439664
							248:leaf=-0.00433796
						124:[D_KEYWORD_MICRO_MEAN_COEC<0.106468] yes=249,no=250,missing=250
							249:leaf=0.0136068
							250:leaf=0.0716923
					62:[C_D_U_TITLEMD5_CATEGORY_MACRO_MEAN_COEC<0.156483] yes=125,no=126,missing=126
						125:[U_CAT_LEN<9] yes=251,no=252,missing=252
							251:leaf=0.0396244
							252:leaf=0.066176
						126:[D_KEYWORD_MACRO_MEAN_COEC<0.0723745] yes=253,no=254,missing=254
							253:leaf=0.0380656
							254:leaf=0.0859658
booster[4]:
0:[U_KW_LEN<200] yes=1,no=2,missing=1
	1:[D_TITLEMD5_COEC<0.110735] yes=3,no=4,missing=3
		3:[D_TITLEMD5_COEC<0.0682979] yes=7,no=8,missing=7
			7:[D_TITLEMD5_COEC<0.0389372] yes=15,no=16,missing=16
				15:[D_KEYWORD_MACRO_MEAN_COEC<0.0508955] yes=31,no=32,missing=32
					31:[D_PUBLISHER_COEC<0.0294735] yes=63,no=64,missing=63
						63:[KW_REL<0.0186078] yes=127,no=128,missing=128
							127:leaf=-0.109956
							128:leaf=-0.0198859
						64:[IMAGE_COUNT<3] yes=129,no=130,missing=130
							129:leaf=-0.0904381
							130:leaf=-0.0584052
					32:[C_D_U_CATEGORY_CITY_MACRO_MAX_COEC<0.0959952] yes=65,no=66,missing=66
						65:[C_D_U_PUBLISHER_CITY_COEC<0.039888] yes=131,no=132,missing=132
							131:leaf=-0.0960135
							132:leaf=-0.0718638
						66:[C_D_U_CATEGORY_CITY_MACRO_MEAN_COEC<0.0974597] yes=133,no=134,missing=133
							133:leaf=0.0415282
							134:leaf=-0.0553847
				16:[C_D_U_TITLEMD5_CATEGORY_MACRO_MEAN_COEC<0.0569834] yes=33,no=34,missing=34
					33:[D_KEYWORD_MACRO_MEAN_COEC<0.087628] yes=67,no=68,missing=68
						67:[CAT_REL<0.222221] yes=135,no=136,missing=136
							135:leaf=-0.0716855
							136:leaf=-0.0538205
						68:[C_D_U_TITLEMD5_CATEGORY_MICRO_MEAN_COEC<0.0196112] yes=137,no=138,missing=138
							137:leaf=0.0889891
							138:leaf=-0.0296221
					34:[U_KW_LEN<106] yes=69,no=70,missing=70
						69:[WORD_COUNT<3000] yes=139,no=140,missing=140
							139:leaf=-0.0531952
							140:leaf=-0.0279752
						70:[CAT_REL<0.570172] yes=141,no=142,missing=142
							141:leaf=-0.0231242
							142:leaf=0.0138243
			8:[C_D_U_TITLEMD5_CATEGORY_MACRO_MEAN_COEC<0.0870678] yes=17,no=18,missing=17
				17:[C_D_U_TITLEMD5_CATEGORY_MICRO_MEAN_COEC<0.0800928] yes=35,no=36,missing=36
					35:[C_D_U_CATEGORY_CITY_MACRO_MAX_COEC<0.0525519] yes=71,no=72,missing=72
						71:[D_KEYWORD_MICRO_MEAN_COEC<0.0876407] yes=143,no=144,missing=144
							143:leaf=-0.0786518
							144:leaf=-0.0139087
						72:[CAT_REL<0.199999] yes=145,no=146,missing=146
							145:leaf=-0.0412523
							146:leaf=-0.0206671
					36:[TIME_OF_DAY<17] yes=73,no=74,missing=74
						73:[C_D_U_CATEGORY_CITY_MICRO_MAX_COEC<0.0666943] yes=147,no=148,missing=148
							147:leaf=-0.0338844
							148:leaf=-0.0157305
						74:[U_GENDER<4] yes=149,no=150,missing=150
							149:leaf=0.0129225
							150:leaf=-0.0111914
				18:[U_KW_LEN<94] yes=37,no=38,missing=38
					37:[D_KEYWORD_MICRO_MEAN_COEC<0.0815917] yes=75,no=76,missing=76
						75:[TIME_OF_DAY<18] yes=151,no=152,missing=152
							151:leaf=-0.0195129
							152:leaf=0.0167321
						76:[U_GENDER<2] yes=153,no=154,missing=153
							153:leaf=-0.00195743
							154:leaf=0.032181
					38:[CAT_REL<0.363466] yes=77,no=78,missing=78
						77:[KW_REL<0.000415743] yes=155,no=156,missing=156
							155:leaf=-0.00765945
							156:leaf=0.0158103
						78:[C_D_U_TITLEMD5_CATEGORY_MACRO_MEAN_COEC<0.120194] yes=157,no=158,missing=158
							157:leaf=0.0285464
							158:leaf=0.0630569
		4:[C_D_U_TITLEMD5_GENDER_COEC<0.154202] yes=9,no=10,missing=9
			9:[C_D_U_TITLEMD5_CATEGORY_MACRO_MEAN_COEC<0.123725] yes=19,no=20,missing=19
				19:[U_AGE_2<0.999999] yes=39,no=40,missing=40
					39:[WORD_COUNT<4300] yes=79,no=80,missing=80
						79:[D_CATEGORY_MACRO_MEAN_COEC<0.0622024] yes=159,no=160,missing=159
							159:leaf=-0.0405536
							160:leaf=0.000571795
						80:[D_CATEGORY_MICRO_MAX_COEC<0.0995812] yes=161,no=162,missing=162
							161:leaf=0.00814664
							162:leaf=0.0600662
					40:[TIME_OF_DAY<17] yes=81,no=82,missing=82
						81:[D_KEYWORD_MACRO_MEAN_COEC<0.0646442] yes=163,no=164,missing=164
							163:leaf=-0.0326237
							164:leaf=0.0165579
						82:[C_D_U_CATEGORY_GENDER_MICRO_MAX_COEC<0.102379] yes=165,no=166,missing=166
							165:leaf=0.0344897
							166:leaf=0.0802793
				20:[U_KW_LEN<94] yes=41,no=42,missing=42
					41:[C_D_U_TITLEMD5_GENDER_COEC<0.084888] yes=83,no=84,missing=83
						83:[C_D_U_CATEGORY_CITY_MACRO_MEAN_COEC<0.0913252] yes=167,no=168,missing=168
							167:leaf=-0.0448259
							168:leaf=0.0328444
						84:[U_KW_LEN<29] yes=169,no=170,missing=170
							169:leaf=0.00716957
							170:leaf=0.0298506
					42:[C_D_U_TITLEMD5_GENDER_COEC<0.084888] yes=85,no=86,missing=85
						85:[CAT_REL<0.201505] yes=171,no=172,missing=172
							171:leaf=-0.0616315
							172:leaf=0.0020425
						86:[KW_REL<0.000653378] yes=173,no=174,missing=174
							173:leaf=0.0424931
							174:leaf=0.0601554
			10:[D_KEYWORD_MACRO_MEAN_COEC<0.0804774] yes=21,no=22,missing=22
				21:[C_D_U_TITLEMD5_GENDER_COEC<0.199985] yes=43,no=44,missing=44
					43:[D_TITLEMD5_COEC<0.149778] yes=87,no=88,missing=88
						87:[CAT_REL<0.199999] yes=175,no=176,missing=176
							175:leaf=-0.0285875
							176:leaf=0.0202487
						88:[D_KEYWORD_MICRO_MEAN_COEC<0.0780921] yes=177,no=178,missing=178
							177:leaf=0.0222165
							178:leaf=0.061176
					44:[D_KEYWORD_MACRO_MEAN_COEC<0.0574729] yes=89,no=90,missing=90
						89:[CAT_REL<0.033934] yes=179,no=180,missing=180
							179:leaf=-0.122128
							180:leaf=-0.0384722
						90:[C_D_U_PUBLISHER_CITY_COEC<0.07303] yes=181,no=182,missing=181
							181:leaf=-0.0222269
							182:leaf=0.0155813
				22:[C_D_U_TITLEMD5_CATEGORY_MACRO_MEAN_COEC<0.175007] yes=45,no=46,missing=45
					45:[U_AGE_2<0.999999] yes=91,no=92,missing=92
						91:[WORD_COUNT<1306] yes=183,no=184,missing=184
							183:leaf=0.0223403
							184:leaf=0.0425874
						92:[WORD_COUNT<1359] yes=185,no=186,missing=186
							185:leaf=0.0419428
							186:leaf=0.0632796
					46:[U_KW_LEN<82] yes=93,no=94,missing=94
						93:[C_D_U_TITLEMD5_CATEGORY_MICRO_MEAN_COEC<0.234608] yes=187,no=188,missing=188
							187:leaf=0.0525791
							188:leaf=0.0726644
						94:[C_D_U_TITLEMD5_CATEGORY_MACRO_MEAN_COEC<0.238164] yes=189,no=190,missing=190
							189:leaf=0.0742532
							190:leaf=0.0984675
	2:[C_D_U_TITLEMD5_CATEGORY_MACRO_MEAN_COEC<0.0881798] yes=5,no=6,missing=6
		5:[C_D_U_TITLEMD5_CATEGORY_MACRO_MEAN_COEC<0.058683] yes=11,no=12,missing=12
			11:[C_D_U_TITLEMD5_CATEGORY_MACRO_MEAN_COEC<0.0409735] yes=23,no=24,missing=24
				23:[KW_REL<0.00121183] yes=47,no=48,missing=48
					47:[D_PUBLISHER_COEC<0.0416236] yes=95,no=96,missing=96
						95:[C_D_U_TITLEMD5_CATEGORY_MACRO_MEAN_COEC<0.0320304] yes=191,no=192,missing=192
							191:leaf=-0.121837
							192:leaf=-0.0876577
						96:[D_TITLEMD5_COEC<0.140519] yes=193,no=194,missing=194
							193:leaf=-0.0950958
							194:leaf=-0.0561418
					48:[D_TITLEMD5_COEC<0.0831882] yes=97,no=98,missing=98
						97:[CAT_REL<0.229027] yes=195,no=196,missing=196
							195:leaf=-0.0866535
							196:leaf=-0.0661367
						98:[D_PUBLISHER_COEC<0.0416236] yes=197,no=198,missing=197
							197:leaf=-0.0748775
							198:leaf=-0.0251417
				24:[CAT_REL<0.139465] yes=49,no=50,missing=50
					49:[CAT_REL<0.061712] yes=99,no=100,missing=100
						99:[D_CATEGORY_MICRO_MAX_COEC<0.0637782] yes=199,no=200,missing=199
							199:leaf=-0.0685131
							200:leaf=-0.0911693
						100:[U_CAT_LEN<12] yes=201,no=202,missing=202
							201:leaf=-0.0783546
							202:leaf=-0.0579361
					50:[U_CAT_LEN<11] yes=101,no=102,missing=102
						101:[KW_REL<0.0014826] yes=203,no=204,missing=204
							203:leaf=-0.0732527
							204:leaf=-0.0538323
						102:[KW_REL<0.00180306] yes=205,no=206,missing=206
							205:leaf=-0.0502775
							206:leaf=-0.0273248
			12:[CAT_REL<0.189099] yes=25,no=26,missing=26
				25:[U_CAT_LEN<12] yes=51,no=52,missing=52
					51:[CAT_REL<0.056291] yes=103,no=104,missing=104
						103:[C_D_U_CATEGORY_AGE_MICRO_MAX_COEC<0.109478] yes=207,no=208,missing=208
							207:leaf=-0.0683781
							208:leaf=0.00132727
						104:[C_D_U_TITLEMD5_CATEGORY_MACRO_MEAN_COEC<0.0716278] yes=209,no=210,missing=210
							209:leaf=-0.0557634
							210:leaf=-0.0374972
					52:[CAT_REL<0.041543] yes=105,no=106,missing=106
						105:[D_CATEGORY_MICRO_MAX_COEC<0.0589056] yes=211,no=212,missing=211
							211:leaf=-0.00608334
							212:leaf=-0.0618112
						106:[WORD_COUNT<1886] yes=213,no=214,missing=214
							213:leaf=-0.0372333
							214:leaf=-0.0102131
				26:[U_CAT_LEN<10] yes=53,no=54,missing=54
					53:[C_D_U_TITLEMD5_CATEGORY_MACRO_MAX_COEC<0.0446879] yes=107,no=108,missing=108
						107:[U_CAT_LEN<7] yes=215,no=216,missing=216
							215:leaf=-0.054907
							216:leaf=-0.0307711
						108:[KW_REL<0.00247692] yes=217,no=218,missing=218
							217:leaf=-0.0286956
							218:leaf=-0.00160527
					54:[KW_REL<0.00166654] yes=109,no=110,missing=110
						109:[C_D_U_TITLEMD5_CATEGORY_MACRO_MEAN_COEC<0.0763243] yes=219,no=220,missing=220
							219:leaf=-0.0281196
							220:leaf=-0.00316483
						110:[C_D_U_TITLEMD5_CATEGORY_MACRO_MEAN_COEC<0.0739635] yes=221,no=222,missing=222
							221:leaf=-0.000618525
							222:leaf=0.0210759
		6:[C_D_U_TITLEMD5_CATEGORY_MACRO_MEAN_COEC<0.130878] yes=13,no=14,missing=14
			13:[KW_REL<0.00133128] yes=27,no=28,missing=28
				27:[U_CAT_LEN<12] yes=55,no=56,missing=56
					55:[CAT_REL<0.252664] yes=111,no=112,missing=112
						111:[C_D_U_TITLEMD5_CATEGORY_MACRO_MEAN_COEC<0.109556] yes=223,no=224,missing=224
							223:leaf=-0.025923
							224:leaf=-0.0064299
						112:[WORD_COUNT<1510] yes=225,no=226,missing=226
							225:leaf=-0.00468845
							226:leaf=0.0137014
					56:[CAT_REL<0.20521] yes=113,no=114,missing=114
						113:[D_CATEGORY_MACRO_MAX_COEC<0.0931317] yes=227,no=228,missing=228
							227:leaf=0.0112336
							228:leaf=-0.0241663
						114:[C_D_U_TITLEMD5_CATEGORY_MACRO_MEAN_COEC<0.107682] yes=229,no=230,missing=230
							229:leaf=0.0137889
							230:leaf=0.0369798
				28:[CAT_REL<0.142381] yes=57,no=58,missing=58
					57:[U_CAT_LEN<12] yes=115,no=116,missing=116
						115:[C_D_U_PUBLISHER_GENDER_COEC<0.0777567] yes=231,no=232,missing=231
							231:leaf=-0.0275721
							232:leaf=0.00393145
						116:[WORD_COUNT<2096] yes=233,no=234,missing=234
							233:leaf=0.00725037
							234:leaf=0.0335088
					58:[U_CAT_LEN<9] yes=117,no=118,missing=118
						117:[CAT_REL<0.463919] yes=235,no=236,missing=236
							235:leaf=0.00385089
							236:leaf=0.0308399
						118:[C_D_U_TITLEMD5_CATEGORY_MACRO_MEAN_COEC<0.107682] yes=237,no=238,missing=238
							237:leaf=0.0329094
							238:leaf=0.0528892
			14:[D_KEYWORD_MACRO_MEAN_COEC<0.0665346] yes=29,no=30,missing=30
				29:[KW_REL<0.00247692] yes=59,no=60,missing=60
					59:[CAT_REL<0.116928] yes=119,no=120,missing=120
						119:[CAT_REL<0.034396] yes=239,no=240,missing=240
							239:leaf=-0.123166
							240:leaf=-0.0652123
						120:[C_D_U_TITLEMD5_CATEGORY_MICRO_MAX_COEC<0.281944] yes=241,no=242,missing=242
							241:leaf=0.00526487
							242:leaf=-0.0446967
					60:[C_D_U_TITLEMD5_CATEGORY_MICRO_MAX_COEC<0.26729] yes=121,no=122,missing=122
						121:[CAT_REL<0.041543] yes=243,no=244,missing=244
							243:leaf=-0.0854245
							244:leaf=0.0575316
						122:[CAT_REL<0.077073] yes=245,no=246,missing=246
							245:leaf=-0.0990778
							246:leaf=0.00654776
				30:[KW_REL<0.000734719] yes=61,no=62,missing=62
					61:[C_D_U_TITLEMD5_CATEGORY_MACRO_MEAN_COEC<0.189481] yes=123,no=124,missing=124
						123:[CAT_REL<0.229027] yes=247,no=248,missing=248
							247:leaf=0.0177624
							248:leaf=0.0433028
						124:[D_KEYWORD_MICRO_MEAN_COEC<0.0865906] yes=249,no=250,missing=250
							249:leaf=-0.0298705
							250:leaf=0.0695595
					62:[C_D_U_TITLEMD5_CATEGORY_MACRO_MEAN_COEC<0.167007] yes=125,no=126,missing=126
						125:[U_CAT_LEN<12] yes=251,no=252,missing=252
							251:leaf=0.0465114
							252:leaf=0.0673921
						126:[D_PUBLISHER_COEC<0.0633272] yes=253,no=254,missing=254
							253:leaf=0.0164755
							254:leaf=0.0791745
booster[5]:
0:[U_KW_LEN<200] yes=1,no=2,missing=1
	1:[C_D_U_TITLEMD5_GENDER_COEC<0.0961982] yes=3,no=4,missing=3
		3:[D_TITLEMD5_COEC<0.0566699] yes=7,no=8,missing=7
			7:[D_TITLEMD5_COEC<0.033347] yes=15,no=16,missing=16
				15:[C_D_U_CATEGORY_CITY_MACRO_MAX_COEC<0.0609349] yes=31,no=32,missing=32
					31:[KW_REL<0.00429132] yes=63,no=64,missing=64
						63:[D_KEYWORD_MACRO_MEAN_COEC<0.0647602] yes=127,no=128,missing=128
							127:leaf=-0.0955355
							128:leaf=-0.0563065
						64:[C_D_U_CATEGORY_CITY_MACRO_MEAN_COEC<0.0388135] yes=129,no=130,missing=130
							129:leaf=-0.0934337
							130:leaf=-0.056615
					32:[IMAGE_COUNT<3] yes=65,no=66,missing=66
						65:[D_KEYWORD_MACRO_MEAN_COEC<0.083644] yes=131,no=132,missing=132
							131:leaf=-0.072787
							132:leaf=-0.012403
						66:[KW_REL<0.00176263] yes=133,no=134,missing=134
							133:leaf=-0.0532694
							134:leaf=-0.00300926
				16:[C_D_U_CATEGORY_CITY_MACRO_MEAN_COEC<0.0644347] yes=33,no=34,missing=33
					33:[WORD_COUNT<3181] yes=67,no=68,missing=68
						67:[U_AGE_1<0.999999] yes=135,no=136,missing=136
							135:leaf=-0.0739675
							136:leaf=-0.038976
						68:[WORD_COUNT<3398] yes=137,no=138,missing=138
							137:leaf=0.00546508
							138:leaf=-0.0539634
					34:[D_CATEGORY_MICRO_MAX_COEC<0.0508159] yes=69,no=70,missing=70
						69:[U_GENDER<2] yes=139,no=140,missing=140
							139:leaf=0.133199
							140:leaf=-0.091547
						70:[IMAGE_COUNT<2] yes=141,no=142,missing=142
							141:leaf=-0.0472645
							142:leaf=-0.0172101
			8:[C_D_U_TITLEMD5_CATEGORY_MACRO_MEAN_COEC<0.0759823] yes=17,no=18,missing=17
				17:[C_D_U_CATEGORY_GENDER_MICRO_MEAN_COEC<0.0670871] yes=35,no=36,missing=36
					35:[TIME_OF_DAY<17] yes=71,no=72,missing=72
						71:[IMAGE_COUNT<3] yes=143,no=144,missing=144
							143:leaf=-0.0503845
							144:leaf=-0.0099942
						72:[U_KW_LEN<16] yes=145,no=146,missing=146
							145:leaf=-0.00350995
							146:leaf=-0.0597946
					36:[C_D_U_TITLEMD5_CATEGORY_MICRO_MAX_COEC<0.10652] yes=73,no=74,missing=74
						73:[U_KW_LEN<122] yes=147,no=148,missing=148
							147:leaf=-0.039823
							148:leaf=-0.0208352
						74:[D_KEYWORD_MACRO_MAX_COEC<0.0106864] yes=149,no=150,missing=150
							149:leaf=0.0247033
							150:leaf=-0.0201875
				18:[U_KW_LEN<115] yes=37,no=38,missing=38
					37:[KW_REL<0.000669256] yes=75,no=76,missing=76
						75:[C_D_U_CATEGORY_CITY_MACRO_MEAN_COEC<0.0699032] yes=151,no=152,missing=152
							151:leaf=-0.0445467
							152:leaf=-0.0167622
						76:[U_KW_LEN<41] yes=153,no=154,missing=154
							153:leaf=-0.0248298
							154:leaf=-0.00106995
					38:[CAT_REL<0.101927] yes=77,no=78,missing=78
						77:[C_D_U_CATEGORY_CITY_MACRO_MAX_COEC<0.0880947] yes=155,no=156,missing=156
							155:leaf=-0.0268145
							156:leaf=0.0168035
						78:[KW_REL<0.000379369] yes=157,no=158,missing=158
							157:leaf=-0.00383703
							158:leaf=0.0236948
		4:[C_D_U_TITLEMD5_CATEGORY_MACRO_MEAN_COEC<0.130363] yes=9,no=10,missing=9
			9:[D_TITLEMD5_COEC<0.149789] yes=19,no=20,missing=20
				19:[C_D_U_TITLEMD5_CATEGORY_MACRO_MEAN_COEC<0.112788] yes=39,no=40,missing=39
					39:[D_KEYWORD_MACRO_MEAN_COEC<0.0647602] yes=79,no=80,missing=80
						79:[C_D_U_CATEGORY_GENDER_MACRO_MAX_COEC<0.0591253] yes=159,no=160,missing=160
							159:leaf=-0.0670725
							160:leaf=-0.018457
						80:[U_GENDER<2] yes=161,no=162,missing=161
							161:leaf=0.000362428
							162:leaf=0.0256113
					40:[U_CAT_LEN<4] yes=81,no=82,missing=82
						81:[C_D_U_CATEGORY_GENDER_MICRO_MEAN_COEC<0.0953151] yes=163,no=164,missing=164
							163:leaf=0.00142403
							164:leaf=0.0251173
						82:[U_CAT_LEN<6] yes=165,no=166,missing=166
							165:leaf=0.0266497
							166:leaf=0.0443094
				20:[D_KEYWORD_MICRO_MAX_COEC<0.116509] yes=41,no=42,missing=42
					41:[C_D_U_TITLEMD5_CATEGORY_MACRO_MEAN_COEC<0.0916417] yes=83,no=84,missing=84
						83:[D_KEYWORD_MACRO_MEAN_COEC<0.056598] yes=167,no=168,missing=168
							167:leaf=-0.0889597
							168:leaf=-0.185015
						84:[TIME_OF_DAY<17] yes=169,no=170,missing=170
							169:leaf=-0.0505163
							170:leaf=0.0139224
					42:[D_KEYWORD_MICRO_MAX_COEC<0.212302] yes=85,no=86,missing=86
						85:[WORD_COUNT<1358] yes=171,no=172,missing=172
							171:leaf=0.0174963
							172:leaf=0.0415849
						86:[D_CATEGORY_MACRO_MEAN_COEC<0.062987] yes=173,no=174,missing=174
							173:leaf=-0.149409
							174:leaf=0.0648797
			10:[U_KW_LEN<98] yes=21,no=22,missing=22
				21:[D_KEYWORD_MICRO_MAX_COEC<0.164295] yes=43,no=44,missing=44
					43:[D_KEYWORD_MACRO_MEAN_COEC<0.0647602] yes=87,no=88,missing=88
						87:[C_D_U_TITLEMD5_CATEGORY_MACRO_MEAN_COEC<0.199801] yes=175,no=176,missing=176
							175:leaf=-0.0420242
							176:leaf=0.00881962
						88:[U_KW_LEN<36] yes=177,no=178,missing=178
							177:leaf=0.0133239
							178:leaf=0.0345938
					44:[C_D_U_TITLEMD5_CATEGORY_MACRO_MEAN_COEC<0.199801] yes=89,no=90,missing=90
						89:[WORD_COUNT<1444] yes=179,no=180,missing=180
							179:leaf=0.0232319
							180:leaf=0.0491351
						90:[D_KEYWORD_MACRO_MEAN_COEC<0.0788538] yes=181,no=182,missing=182
							181:leaf=-0.0558307
							182:leaf=0.0651998
				22:[C_D_U_TITLEMD5_CATEGORY_MACRO_MEAN_COEC<0.17345] yes=45,no=46,missing=46
					45:[CAT_REL<0.221806] yes=91,no=92,missing=92
						91:[D_KEYWORD_MICRO_MEAN_COEC<0.0697227] yes=183,no=184,missing=184
							183:leaf=-0.037368
							184:leaf=0.0425652
						92:[C_D_U_PUBLISHER_GENDER_COEC<0.0529557] yes=185,no=186,missing=186
							185:leaf=-0.00886657
							186:leaf=0.057026
					46:[D_KEYWORD_MACRO_MEAN_COEC<0.0647602] yes=93,no=94,missing=94
						93:[WORD_COUNT<1812] yes=187,no=188,missing=188
							187:leaf=-0.0878035
							188:leaf=0.0201109
						94:[CAT_REL<0.416336] yes=189,no=190,missing=190
							189:leaf=0.0663564
							190:leaf=0.0881064
	2:[C_D_U_TITLEMD5_CATEGORY_MACRO_MEAN_COEC<0.0856577] yes=5,no=6,missing=6
		5:[C_D_U_TITLEMD5_CATEGORY_MACRO_MEAN_COEC<0.054415] yes=11,no=12,missing=12
			11:[CAT_REL<0.088165] yes=23,no=24,missing=24
				23:[C_D_U_TITLEMD5_CATEGORY_MACRO_MEAN_COEC<0.0389294] yes=47,no=48,missing=48
					47:[D_KEYWORD_MICRO_MAX_COEC<0.194177] yes=95,no=96,missing=96
						95:[CAT_REL<0.043288] yes=191,no=192,missing=192
							191:leaf=-0.106247
							192:leaf=-0.0904978
						96:[C_D_U_TITLEMD5_AGE_COEC<0.119795] yes=193,no=194,missing=194
							193:leaf=-0.0732035
							194:leaf=0.0506607
					48:[D_CATEGORY_MICRO_MAX_COEC<0.062987] yes=97,no=98,missing=97
						97:[D_PUBLISHER_COEC<0.087086] yes=195,no=196,missing=196
							195:leaf=-0.0679597
							196:leaf=-0.0215572
						98:[CAT_REL<0.043288] yes=197,no=198,missing=198
							197:leaf=-0.0930341
							198:leaf=-0.0725862
				24:[KW_REL<0.00134994] yes=49,no=50,missing=50
					49:[D_TITLEMD5_COEC<0.0268397] yes=99,no=100,missing=100
						99:[U_CAT_LEN<14] yes=199,no=200,missing=200
							199:leaf=-0.0995161
							200:leaf=-0.0784349
						100:[U_CAT_LEN<14] yes=201,no=202,missing=202
							201:leaf=-0.0707971
							202:leaf=-0.0562706
					50:[U_CAT_LEN<14] yes=101,no=102,missing=102
						101:[D_TITLEMD5_COEC<0.0360252] yes=203,no=204,missing=204
							203:leaf=-0.0718603
							204:leaf=-0.0522633
						102:[CAT_REL<0.838619] yes=205,no=206,missing=206
							205:leaf=-0.0394085
							206:leaf=0.0710494
			12:[CAT_REL<0.141729] yes=25,no=26,missing=26
				25:[U_CAT_LEN<11] yes=51,no=52,missing=52
					51:[CAT_REL<0.030387] yes=103,no=104,missing=104
						103:[C_D_U_CATEGORY_AGE_MACRO_MAX_COEC<0.623598] yes=207,no=208,missing=208
							207:leaf=-0.0741662
							208:leaf=0.0311586
						104:[U_CAT_LEN<7] yes=209,no=210,missing=210
							209:leaf=-0.0749013
							210:leaf=-0.0486575
					52:[C_D_U_TITLEMD5_CATEGORY_MACRO_MEAN_COEC<0.0710738] yes=105,no=106,missing=106
						105:[CAT_REL<0.048792] yes=211,no=212,missing=212
							211:leaf=-0.0675503
							212:leaf=-0.0377298
						106:[CAT_REL<0.035876] yes=213,no=214,missing=214
							213:leaf=-0.0482535
							214:leaf=-0.0150446
				26:[U_CAT_LEN<14] yes=53,no=54,missing=54
					53:[C_D_U_TITLEMD5_CATEGORY_MACRO_MEAN_COEC<0.072427] yes=107,no=108,missing=108
						107:[KW_REL<0.00114323] yes=215,no=216,missing=216
							215:leaf=-0.0482462
							216:leaf=-0.0259103
						108:[KW_REL<0.00389413] yes=217,no=218,missing=218
							217:leaf=-0.0194617
							218:leaf=0.00547922
					54:[D_CATEGORY_MACRO_MEAN_COEC<0.0960626] yes=109,no=110,missing=110
						109:[C_D_U_TITLEMD5_CATEGORY_MACRO_MEAN_COEC<0.0687465] yes=219,no=220,missing=220
							219:leaf=-0.00532278
							220:leaf=0.0193104
						110:[CAT_REL<0.339801] yes=221,no=222,missing=222
							221:leaf=-0.0436694
							222:leaf=-0.00493015
		6:[C_D_U_TITLEMD5_CATEGORY_MACRO_MEAN_COEC<0.13128] yes=13,no=14,missing=14
			13:[KW_REL<0.00067002] yes=27,no=28,missing=28
				27:[C_D_U_TITLEMD5_CATEGORY_MACRO_MEAN_COEC<0.106997] yes=55,no=56,missing=56
					55:[CAT_REL<0.351483] yes=111,no=112,missing=112
						111:[U_CAT_LEN<16] yes=223,no=224,missing=224
							223:leaf=-0.0273667
							224:leaf=0.00227754
						112:[WORD_COUNT<1408] yes=225,no=226,missing=226
							225:leaf=-0.0055014
							226:leaf=0.0176629
					56:[U_CAT_LEN<9] yes=113,no=114,missing=114
						113:[D_KEYWORD_MACRO_MEAN_COEC<0.064166] yes=227,no=228,missing=228
							227:leaf=-0.077945
							228:leaf=-0.012076
						114:[D_TITLEMD5_COEC<0.141051] yes=229,no=230,missing=230
							229:leaf=0.0189823
							230:leaf=-0.00957884
				28:[CAT_REL<0.062876] yes=57,no=58,missing=58
					57:[C_D_U_PUBLISHER_AGE_COEC<0.0708314] yes=115,no=116,missing=115
						115:[C_D_U_CATEGORY_GENDER_MICRO_MEAN_COEC<0.0893182] yes=231,no=232,missing=232
							231:leaf=-0.0509874
							232:leaf=0.011279
						116:[C_D_U_CATEGORY_AGE_MICRO_MAX_COEC<0.105781] yes=233,no=234,missing=234
							233:leaf=-0.00257484
							234:leaf=0.0351846
					58:[U_CAT_LEN<14] yes=117,no=118,missing=118
						117:[C_D_U_TITLEMD5_CATEGORY_MACRO_MEAN_COEC<0.106997] yes=235,no=236,missing=236
							235:leaf=0.007596
							236:leaf=0.0294284
						118:[C_D_U_TITLEMD5_CATEGORY_MACRO_MEAN_COEC<0.105709] yes=237,no=238,missing=238
							237:leaf=0.0311227
							238:leaf=0.0498445
			14:[C_D_U_TITLEMD5_GENDER_COEC<0.0758708] yes=29,no=30,missing=29
				29:[CAT_REL<0.304965] yes=59,no=60,missing=60
					59:[U_CAT_LEN<13] yes=119,no=120,missing=120
						119:[D_KEYWORD_MICRO_MEAN_COEC<0.108362] yes=239,no=240,missing=240
							239:leaf=-0.05567
							240:leaf=0.0137872
						120:[CAT_REL<0.196358] yes=241,no=242,missing=242
							241:leaf=-0.0421121
							242:leaf=-0.000773556
					60:[KW_REL<0.000810665] yes=121,no=122,missing=122
						121:[C_D_U_PUBLISHER_AGE_COEC<0.0632182] yes=243,no=244,missing=243
							243:leaf=-0.0491265
							244:leaf=-0.00298922
						122:[C_D_U_PUBLISHER_CITY_COEC<0.0705809] yes=245,no=246,missing=245
							245:leaf=0.00941168
							246:leaf=0.0371812
				30:[CAT_REL<0.351483] yes=61,no=62,missing=62
					61:[U_CAT_LEN<9] yes=123,no=124,missing=124
						123:[C_D_U_TITLEMD5_CATEGORY_MACRO_MEAN_COEC<0.198218] yes=247,no=248,missing=248
							247:leaf=0.0169821
							248:leaf=0.0479968
						124:[KW_REL<0.000874643] yes=249,no=250,missing=250
							249:leaf=0.0358317
							250:leaf=0.0570513
					62:[U_CAT_LEN<8] yes=125,no=126,missing=126
						125:[C_D_U_TITLEMD5_CATEGORY_MACRO_MEAN_COEC<0.179265] yes=251,no=252,missing=252
							251:leaf=0.0369056
							252:leaf=0.058882
						126:[D_KEYWORD_MICRO_MAX_COEC<0.204817] yes=253,no=254,missing=254
							253:leaf=0.0679929
							254:leaf=0.0915316
booster[6]:
0:[U_KW_LEN<200] yes=1,no=2,missing=1
	1:[D_TITLEMD5_COEC<0.11096] yes=3,no=4,missing=3
		3:[D_TITLEMD5_COEC<0.0707813] yes=7,no=8,missing=7
			7:[D_TITLEMD5_COEC<0.0429739] yes=15,no=16,missing=16
				15:[D_KEYWORD_MACRO_MEAN_COEC<0.0343299] yes=31,no=32,missing=32
					31:[D_KEYWORD_MICRO_MAX_COEC<0.160993] yes=63,no=64,missing=64
						63:[KW_REL<0.00825777] yes=127,no=128,missing=128
							127:leaf=-0.0935976
							128:leaf=-0.0386357
						64:[DAY_OF_WEEK<6] yes=129,no=130,missing=130
							129:leaf=-0.0654357
							130:leaf=0.0969823
					32:[C_D_U_TITLEMD5_CATEGORY_MICRO_MEAN_COEC<0.034298] yes=65,no=66,missing=66
						65:[C_D_U_PUBLISHER_CITY_COEC<0.0635614] yes=131,no=132,missing=132
							131:leaf=-0.0785888
							132:leaf=-0.0630043
						66:[C_D_U_CATEGORY_CITY_MACRO_MAX_COEC<0.061015] yes=133,no=134,missing=134
							133:leaf=-0.0687018
							134:leaf=-0.046979
				16:[C_D_U_CATEGORY_CITY_MACRO_MEAN_COEC<0.0579631] yes=33,no=34,missing=34
					33:[C_D_U_TITLEMD5_CATEGORY_MACRO_MEAN_COEC<0.0633608] yes=67,no=68,missing=67
						67:[WORD_COUNT<2950] yes=135,no=136,missing=136
							135:leaf=-0.0725706
							136:leaf=-0.0456669
						68:[U_KW_LEN<64] yes=137,no=138,missing=138
							137:leaf=-0.0615882
							138:leaf=-0.0103134
					34:[C_D_U_TITLEMD5_CATEGORY_MACRO_MEAN_COEC<0.0550723] yes=69,no=70,missing=70
						69:[D_KEYWORD_MACRO_MEAN_COEC<0.0676212] yes=139,no=140,missing=140
							139:leaf=-0.0495529
							140:leaf=-0.0264575
						70:[WORD_COUNT<2367] yes=141,no=142,missing=142
							141:leaf=-0.0342712
							142:leaf=-0.0170069
			8:[C_D_U_TITLEMD5_CATEGORY_MACRO_MEAN_COEC<0.0942048] yes=17,no=18,missing=17
				17:[U_AGE_2<0.999999] yes=35,no=36,missing=36
					35:[C_D_U_CATEGORY_CITY_MACRO_MEAN_COEC<0.0664255] yes=71,no=72,missing=72
						71:[U_KW_LEN<187] yes=143,no=144,missing=144
							143:leaf=-0.036104
							144:leaf=0.0239696
						72:[TIME_OF_DAY<17] yes=145,no=146,missing=146
							145:leaf=-0.0201668
							146:leaf=0.00177024
					36:[C_D_U_TITLEMD5_CATEGORY_MACRO_MEAN_COEC<0.078103] yes=73,no=74,missing=74
						73:[U_CAT_LEN<6] yes=147,no=148,missing=148
							147:leaf=-0.0287763
							148:leaf=-0.00539782
						74:[IMAGE_COUNT<2] yes=149,no=150,missing=150
							149:leaf=-0.00414236
							150:leaf=0.0172697
				18:[U_KW_LEN<64] yes=37,no=38,missing=38
					37:[C_D_U_CATEGORY_GENDER_MICRO_MAX_COEC<0.0942314] yes=75,no=76,missing=75
						75:[TIME_OF_DAY<17] yes=151,no=152,missing=152
							151:leaf=-0.0184472
							152:leaf=0.00628222
						76:[DAY_OF_WEEK<3] yes=153,no=154,missing=154
							153:leaf=-0.00906865
							154:leaf=0.0371555
					38:[CAT_REL<0.393938] yes=77,no=78,missing=78
						77:[D_KEYWORD_MACRO_MEAN_COEC<0.0590053] yes=155,no=156,missing=156
							155:leaf=-0.0377392
							156:leaf=0.0102066
						78:[KW_REL<0.000606438] yes=157,no=158,missing=158
							157:leaf=0.0123263
							158:leaf=0.0371341
		4:[C_D_U_TITLEMD5_CATEGORY_MACRO_MEAN_COEC<0.157128] yes=9,no=10,missing=9
			9:[D_KEYWORD_MICRO_MEAN_COEC<0.0859701] yes=19,no=20,missing=20
				19:[C_D_U_TITLEMD5_CATEGORY_MACRO_MEAN_COEC<0.101825] yes=39,no=40,missing=40
					39:[D_TITLEMD5_COEC<0.190067] yes=79,no=80,missing=80
						79:[D_CATEGORY_MICRO_MAX_COEC<0.0753882] yes=159,no=160,missing=159
							159:leaf=-0.0338414
							160:leaf=-0.00584008
						80:[WORD_COUNT<965] yes=161,no=162,missing=162
							161:leaf=0.0210243
							162:leaf=-0.135383
					40:[U_KW_LEN<112] yes=81,no=82,missing=82
						81:[U_AGE_2<0.999999] yes=163,no=164,missing=164
							163:leaf=-0.00769409
							164:leaf=0.014278
						82:[CAT_REL<0.123222] yes=165,no=166,missing=166
							165:leaf=0.00152622
							166:leaf=0.0311195
				20:[C_D_U_TITLEMD5_CATEGORY_MICRO_MEAN_COEC<0.124635] yes=41,no=42,missing=42
					41:[WORD_COUNT<3732] yes=83,no=84,missing=84
						83:[CAT_REL<0.142856] yes=167,no=168,missing=168
							167:leaf=-0.00582196
							168:leaf=0.0214284
						84:[D_KEYWORD_MACRO_MEAN_COEC<0.0975961] yes=169,no=170,missing=170
							169:leaf=0.0190373
							170:leaf=0.0632262
					42:[C_D_U_CATEGORY_GENDER_MICRO_MAX_COEC<0.0989918] yes=85,no=86,missing=85
						85:[U_KW_LEN<106] yes=171,no=172,missing=172
							171:leaf=0.0197556
							172:leaf=0.0370732
						86:[WORD_COUNT<3732] yes=173,no=174,missing=174
							173:leaf=0.0363345
							174:leaf=0.0729727
			10:[D_KEYWORD_MACRO_MEAN_COEC<0.0801308] yes=21,no=22,missing=22
				21:[C_D_U_TITLEMD5_CATEGORY_MICRO_MEAN_COEC<0.22084] yes=43,no=44,missing=44
					43:[D_KEYWORD_MACRO_MEAN_COEC<0.0616512] yes=87,no=88,missing=88
						87:[D_KEYWORD_MICRO_MAX_COEC<0.0949134] yes=175,no=176,missing=176
							175:leaf=0.0198921
							176:leaf=-0.0479869
						88:[WORD_COUNT<4328] yes=177,no=178,missing=178
							177:leaf=0.0280165
							178:leaf=0.0740119
					44:[CAT_REL<0.151529] yes=89,no=90,missing=90
						89:[WORD_COUNT<4648] yes=179,no=180,missing=180
							179:leaf=-0.102236
							180:leaf=0.0157744
						90:[C_D_U_PUBLISHER_GENDER_COEC<0.113132] yes=181,no=182,missing=181
							181:leaf=-0.0138597
							182:leaf=0.0853022
				22:[U_KW_LEN<44] yes=45,no=46,missing=46
					45:[D_KEYWORD_MICRO_MAX_COEC<0.209365] yes=91,no=92,missing=92
						91:[U_AGE_2<0.999999] yes=183,no=184,missing=184
							183:leaf=0.0175184
							184:leaf=0.0400098
						92:[C_D_U_TITLEMD5_GENDER_COEC<0.145826] yes=185,no=186,missing=185
							185:leaf=-0.0860091
							186:leaf=0.055523
					46:[WORD_COUNT<1359] yes=93,no=94,missing=94
						93:[C_D_U_TITLEMD5_CATEGORY_MICRO_MEAN_COEC<0.210642] yes=187,no=188,missing=188
							187:leaf=0.0388057
							188:leaf=0.0605577
						94:[KW_REL<0.000331431] yes=189,no=190,missing=190
							189:leaf=0.0547796
							190:leaf=0.0696945
	2:[C_D_U_TITLEMD5_CATEGORY_MACRO_MEAN_COEC<0.0794923] yes=5,no=6,missing=6
		5:[C_D_U_TITLEMD5_CATEGORY_MACRO_MEAN_COEC<0.0498306] yes=11,no=12,missing=12
			11:[CAT_REL<0.152459] yes=23,no=24,missing=24
				23:[C_D_U_TITLEMD5_CATEGORY_MACRO_MEAN_COEC<0.0324857] yes=47,no=48,missing=48
					47:[CAT_REL<0.040332] yes=95,no=96,missing=96
						95:[D_CATEGORY_MACRO_MAX_COEC<0.104894] yes=191,no=192,missing=192
							191:leaf=-0.103354
							192:leaf=-0.0210254
						96:[D_CATEGORY_MICRO_MAX_COEC<0.0676115] yes=193,no=194,missing=194
							193:leaf=-0.0718235
							194:leaf=-0.0918434
					48:[KW_REL<0.000453817] yes=97,no=98,missing=98
						97:[D_CATEGORY_MACRO_MAX_COEC<0.0967279] yes=195,no=196,missing=196
							195:leaf=-0.0821249
							196:leaf=-0.121673
						98:[D_CATEGORY_MICRO_MEAN_COEC<0.0644415] yes=197,no=198,missing=198
							197:leaf=-0.0464099
							198:leaf=-0.0704324
				24:[U_CAT_LEN<14] yes=49,no=50,missing=50
					49:[KW_REL<0.00326102] yes=99,no=100,missing=100
						99:[D_TITLEMD5_COEC<0.0250171] yes=199,no=200,missing=200
							199:leaf=-0.0861784
							200:leaf=-0.0638751
						100:[C_D_U_TITLEMD5_AGE_COEC<0.0690798] yes=201,no=202,missing=202
							201:leaf=-0.0561357
							202:leaf=-0.0265133
					50:[CAT_REL<0.671218] yes=101,no=102,missing=102
						101:[D_TITLEMD5_COEC<0.0372053] yes=203,no=204,missing=204
							203:leaf=-0.0572396
							204:leaf=-0.0358651
						102:[CAT_REL<0.916316] yes=205,no=206,missing=206
							205:leaf=-0.0115682
							206:leaf=0.087059
			12:[KW_REL<0.000865076] yes=25,no=26,missing=26
				25:[CAT_REL<0.071612] yes=51,no=52,missing=52
					51:[C_D_U_PUBLISHER_GENDER_COEC<0.0842216] yes=103,no=104,missing=103
						103:[C_D_U_CATEGORY_CITY_MACRO_MEAN_COEC<0.0763438] yes=207,no=208,missing=207
							207:leaf=-0.0771027
							208:leaf=-0.0596981
						104:[D_CATEGORY_MICRO_MAX_COEC<0.0630026] yes=209,no=210,missing=210
							209:leaf=-0.0260846
							210:leaf=-0.0557207
					52:[C_D_U_TITLEMD5_CATEGORY_MACRO_MEAN_COEC<0.0637536] yes=105,no=106,missing=106
						105:[D_KEYWORD_MACRO_MEAN_COEC<0.0738523] yes=211,no=212,missing=212
							211:leaf=-0.0473773
							212:leaf=-0.0677296
						106:[D_CATEGORY_MICRO_MEAN_COEC<0.0960832] yes=213,no=214,missing=214
							213:leaf=-0.0259148
							214:leaf=-0.0520947
				26:[CAT_REL<0.191211] yes=53,no=54,missing=54
					53:[CAT_REL<0.063599] yes=107,no=108,missing=108
						107:[D_CATEGORY_MICRO_MEAN_COEC<0.101111] yes=215,no=216,missing=216
							215:leaf=-0.0524566
							216:leaf=0.0188031
						108:[C_D_U_TITLEMD5_CATEGORY_MACRO_MEAN_COEC<0.0620085] yes=217,no=218,missing=218
							217:leaf=-0.0404845
							218:leaf=-0.0185824
					54:[U_CAT_LEN<10] yes=109,no=110,missing=110
						109:[CAT_REL<0.32327] yes=219,no=220,missing=220
							219:leaf=-0.0411121
							220:leaf=-0.0208533
						110:[WORD_COUNT<1271] yes=221,no=222,missing=222
							221:leaf=-0.0224906
							222:leaf=0.00203969
		6:[C_D_U_TITLEMD5_CATEGORY_MACRO_MEAN_COEC<0.113021] yes=13,no=14,missing=14
			13:[KW_REL<0.00291202] yes=27,no=28,missing=28
				27:[U_CAT_LEN<14] yes=55,no=56,missing=56
					55:[CAT_REL<0.027327] yes=111,no=112,missing=112
						111:[D_KEYWORD_MICRO_MEAN_COEC<0.0842762] yes=223,no=224,missing=224
							223:leaf=-0.0638097
							224:leaf=-0.029629
						112:[WORD_COUNT<2948] yes=225,no=226,missing=226
							225:leaf=-0.0147954
							226:leaf=0.0076606
					56:[D_TITLEMD5_COEC<0.120153] yes=113,no=114,missing=114
						113:[C_D_U_TITLEMD5_CATEGORY_MACRO_MEAN_COEC<0.0972072] yes=227,no=228,missing=228
							227:leaf=0.00649643
							228:leaf=0.0328672
						114:[C_D_U_TITLEMD5_CATEGORY_MACRO_MEAN_COEC<0.103958] yes=229,no=230,missing=230
							229:leaf=-0.0308975
							230:leaf=0.00498255
				28:[CAT_REL<0.233548] yes=57,no=58,missing=58
					57:[U_CAT_LEN<12] yes=115,no=116,missing=116
						115:[U_CAT_LEN<8] yes=231,no=232,missing=232
							231:leaf=-0.0289367
							232:leaf=-0.00137672
						116:[WORD_COUNT<2076] yes=233,no=234,missing=234
							233:leaf=0.00505071
							234:leaf=0.0282898
					58:[U_CAT_LEN<9] yes=117,no=118,missing=118
						117:[C_D_U_TITLEMD5_CATEGORY_MACRO_MAX_COEC<0.0536301] yes=235,no=236,missing=236
							235:leaf=-0.00528441
							236:leaf=0.0194115
						118:[WORD_COUNT<1578] yes=237,no=238,missing=238
							237:leaf=0.0211926
							238:leaf=0.044454
			14:[CAT_REL<0.222149] yes=29,no=30,missing=30
				29:[KW_REL<0.000453817] yes=59,no=60,missing=60
					59:[D_KEYWORD_MICRO_MEAN_COEC<0.0803566] yes=119,no=120,missing=120
						119:[C_D_U_TITLEMD5_CATEGORY_MACRO_MAX_COEC<0.0511612] yes=239,no=240,missing=240
							239:leaf=-0.0115681
							240:leaf=-0.0627514
						120:[C_D_U_TITLEMD5_CATEGORY_MACRO_MEAN_COEC<0.169793] yes=241,no=242,missing=242
							241:leaf=0.00117896
							242:leaf=0.0314789
					60:[D_KEYWORD_MACRO_MEAN_COEC<0.0708973] yes=121,no=122,missing=122
						121:[CAT_REL<0.040332] yes=243,no=244,missing=244
							243:leaf=-0.0704757
							244:leaf=0.000396889
						122:[C_D_U_TITLEMD5_CATEGORY_MACRO_MEAN_COEC<0.154489] yes=245,no=246,missing=246
							245:leaf=0.0273569
							246:leaf=0.0518938
				30:[C_D_U_TITLEMD5_AGE_COEC<0.0502208] yes=61,no=62,missing=61
					61:[CAT_REL<0.372422] yes=123,no=124,missing=124
						123:[U_CAT_LEN<11] yes=247,no=248,missing=248
							247:leaf=-0.0424823
							248:leaf=-0.00704303
						124:[KW_REL<0.00610853] yes=249,no=250,missing=250
							249:leaf=-0.00138364
							250:leaf=0.0300576
					62:[U_CAT_LEN<11] yes=125,no=126,missing=126
						125:[C_D_U_TITLEMD5_CATEGORY_MACRO_MAX_COEC<0.0765828] yes=251,no=252,missing=252
							251:leaf=0.0246563
							252:leaf=0.0487473
						126:[C_D_U_TITLEMD5_CATEGORY_MACRO_MEAN_COEC<0.142734] yes=253,no=254,missing=254
							253:leaf=0.047439
							254:leaf=0.0676748
booster[7]:
0:[U_KW_LEN<200] yes=1,no=2,missing=1
	1:[C_D_U_TITLEMD5_GENDER_COEC<0.0883399] yes=3,no=4,missing=3
		3:[D_TITLEMD5_COEC<0.0489453] yes=7,no=8,missing=8
			7:[D_TITLEMD5_COEC<0.0332127] yes=15,no=16,missing=16
				15:[KW_REL<0.0067086] yes=31,no=32,missing=32
					31:[D_KEYWORD_MACRO_MEAN_COEC<0.0601475] yes=63,no=64,missing=64
						63:[C_D_U_CATEGORY_GENDER_MACRO_MEAN_COEC<0.0568363] yes=127,no=128,missing=128
							127:leaf=-0.0840212
							128:leaf=-0.0694968
						64:[D_PUBLISHER_COEC<0.0959061] yes=129,no=130,missing=130
							129:leaf=-0.0591442
							130:leaf=-0.0233035
					32:[U_KW_LEN<57] yes=65,no=66,missing=66
						65:[C_D_U_CATEGORY_GENDER_MACRO_MAX_COEC<0.0753652] yes=131,no=132,missing=131
							131:leaf=-0.0540585
							132:leaf=-0.0949643
						66:[D_KEYWORD_MICRO_MEAN_COEC<0.0815931] yes=133,no=134,missing=134
							133:leaf=-0.0437181
							134:leaf=0.0333862
				16:[C_D_U_TITLEMD5_CATEGORY_MACRO_MEAN_COEC<0.0429083] yes=33,no=34,missing=34
					33:[IMAGE_COUNT<3] yes=67,no=68,missing=68
						67:[D_KEYWORD_MACRO_MEAN_COEC<0.0774072] yes=135,no=136,missing=136
							135:leaf=-0.0624932
							136:leaf=-0.00866147
						68:[D_KEYWORD_MACRO_MAX_COEC<0.0174002] yes=137,no=138,missing=138
							137:leaf=-0.0544767
							138:leaf=0.0421624
					34:[C_D_U_CATEGORY_GENDER_MICRO_MEAN_COEC<0.0607027] yes=69,no=70,missing=69
						69:[C_D_U_PUBLISHER_CITY_COEC<0.0979159] yes=139,no=140,missing=140
							139:leaf=-0.0537452
							140:leaf=-0.112342
						70:[TIME_OF_DAY<15] yes=141,no=142,missing=142
							141:leaf=-0.0415127
							142:leaf=-0.0265961
			8:[C_D_U_TITLEMD5_CATEGORY_MACRO_MEAN_COEC<0.0736595] yes=17,no=18,missing=17
				17:[IMAGE_COUNT<2] yes=35,no=36,missing=36
					35:[C_D_U_CATEGORY_GENDER_MACRO_MEAN_COEC<0.0607348] yes=71,no=72,missing=72
						71:[U_AGE_1<0.999999] yes=143,no=144,missing=144
							143:leaf=-0.0600503
							144:leaf=-0.00878723
						72:[TIME_OF_DAY<17] yes=145,no=146,missing=146
							145:leaf=-0.0320528
							146:leaf=-0.00950922
					36:[D_PUBLISHER_COEC<0.0438516] yes=73,no=74,missing=73
						73:[C_D_U_TITLEMD5_CATEGORY_MICRO_MAX_COEC<0.139239] yes=147,no=148,missing=147
							147:leaf=-0.124407
							148:leaf=0.0282685
						74:[WORD_COUNT<5008] yes=149,no=150,missing=150
							149:leaf=-0.0103518
							150:leaf=0.0202195
				18:[U_KW_LEN<111] yes=37,no=38,missing=38
					37:[IMAGE_COUNT<3] yes=75,no=76,missing=76
						75:[D_KEYWORD_MACRO_MEAN_COEC<0.053879] yes=151,no=152,missing=152
							151:leaf=-0.0526355
							152:leaf=-0.0194411
						76:[KW_REL<0.0012941] yes=153,no=154,missing=154
							153:leaf=-0.00303811
							154:leaf=0.031256
					38:[CAT_REL<0.199999] yes=77,no=78,missing=78
						77:[WORD_COUNT<2302] yes=155,no=156,missing=156
							155:leaf=-0.0262501
							156:leaf=0.00698043
						78:[C_D_U_CATEGORY_CITY_MACRO_MAX_COEC<0.119361] yes=157,no=158,missing=158
							157:leaf=0.0130921
							158:leaf=0.0711924
		4:[D_TITLEMD5_COEC<0.131159] yes=9,no=10,missing=10
			9:[C_D_U_TITLEMD5_CATEGORY_MACRO_MEAN_COEC<0.110704] yes=19,no=20,missing=19
				19:[U_AGE_2<0.999999] yes=39,no=40,missing=40
					39:[C_D_U_CATEGORY_GENDER_MICRO_MEAN_COEC<0.0640972] yes=79,no=80,missing=80
						79:[D_KEYWORD_MICRO_MEAN_COEC<0.0690869] yes=159,no=160,missing=160
							159:leaf=-0.0544382
							160:leaf=-0.0227515
						80:[U_GENDER<2] yes=161,no=162,missing=162
							161:leaf=-0.0303477
							162:leaf=-0.00470822
					40:[TIME_OF_DAY<17] yes=81,no=82,missing=82
						81:[C_D_U_CATEGORY_CITY_MACRO_MEAN_COEC<0.0678331] yes=163,no=164,missing=163
							163:leaf=-0.0128922
							164:leaf=0.00514684
						82:[C_D_U_TITLEMD5_CATEGORY_MACRO_MEAN_COEC<0.0983061] yes=165,no=166,missing=166
							165:leaf=0.00603185
							166:leaf=0.0310902
				20:[U_KW_LEN<116] yes=41,no=42,missing=42
					41:[U_KW_LEN<28] yes=83,no=84,missing=84
						83:[TIME_OF_DAY<19] yes=167,no=168,missing=168
							167:leaf=-0.0123788
							168:leaf=0.0372786
						84:[C_D_U_TITLEMD5_CATEGORY_MICRO_MAX_COEC<0.186852] yes=169,no=170,missing=170
							169:leaf=0.0192799
							170:leaf=-0.00925499
					42:[C_D_U_TITLEMD5_CATEGORY_MACRO_MEAN_COEC<0.124134] yes=85,no=86,missing=86
						85:[D_TITLEMD5_COEC<0.0999572] yes=171,no=172,missing=172
							171:leaf=0.0520965
							172:leaf=0.0235141
						86:[CAT_REL<0.381247] yes=173,no=174,missing=174
							173:leaf=0.0397386
							174:leaf=0.060335
			10:[C_D_U_TITLEMD5_CATEGORY_MACRO_MEAN_COEC<0.162814] yes=21,no=22,missing=21
				21:[C_D_U_TITLEMD5_CATEGORY_MICRO_MEAN_COEC<0.134337] yes=43,no=44,missing=44
					43:[WORD_COUNT<4328] yes=87,no=88,missing=88
						87:[C_D_U_PUBLISHER_CITY_COEC<0.0953119] yes=175,no=176,missing=175
							175:leaf=-0.013095
							176:leaf=0.0111145
						88:[D_KEYWORD_MACRO_MAX_COEC<0.0322325] yes=177,no=178,missing=178
							177:leaf=0.00391225
							178:leaf=0.0683671
					44:[U_AGE_2<0.999999] yes=89,no=90,missing=90
						89:[D_KEYWORD_MACRO_MAX_COEC<0.0331745] yes=179,no=180,missing=180
							179:leaf=0.0119991
							180:leaf=0.0278345
						90:[TIME_OF_DAY<17] yes=181,no=182,missing=182
							181:leaf=0.0323306
							182:leaf=0.0548122
				22:[D_KEYWORD_MACRO_MEAN_COEC<0.0890102] yes=45,no=46,missing=46
					45:[C_D_U_TITLEMD5_CATEGORY_MICRO_MAX_COEC<0.30967] yes=91,no=92,missing=92
						91:[U_KW_LEN<66] yes=183,no=184,missing=184
							183:leaf=0.00949248
							184:leaf=0.0502143
						92:[D_KEYWORD_MICRO_MEAN_COEC<0.0901065] yes=185,no=186,missing=186
							185:leaf=-0.0236769
							186:leaf=0.0386162
					46:[KW_REL<9.46977e-06] yes=93,no=94,missing=94
						93:[C_D_U_TITLEMD5_CATEGORY_MACRO_MEAN_COEC<0.198999] yes=187,no=188,missing=188
							187:leaf=0.0276365
							188:leaf=0.0485879
						94:[C_D_U_TITLEMD5_CATEGORY_MICRO_MEAN_COEC<0.236729] yes=189,no=190,missing=190
							189:leaf=0.0526633
							190:leaf=0.0724716
	2:[C_D_U_TITLEMD5_CATEGORY_MACRO_MEAN_COEC<0.0900693] yes=5,no=6,missing=6
		5:[C_D_U_TITLEMD5_CATEGORY_MACRO_MEAN_COEC<0.0617328] yes=11,no=12,missing=12
			11:[C_D_U_TITLEMD5_CATEGORY_MACRO_MEAN_COEC<0.04305] yes=23,no=24,missing=24
				23:[CAT_REL<0.228291] yes=47,no=48,missing=48
					47:[CAT_REL<0.068882] yes=95,no=96,missing=96
						95:[C_D_U_PUBLISHER_AGE_COEC<0.106988] yes=191,no=192,missing=192
							191:leaf=-0.0875129
							192:leaf=-0.0422974
						96:[D_CATEGORY_MICRO_MEAN_COEC<0.0640517] yes=193,no=194,missing=194
							193:leaf=-0.0478506
							194:leaf=-0.0709941
					48:[D_TITLEMD5_COEC<0.0604424] yes=97,no=98,missing=98
						97:[KW_REL<0.00412554] yes=195,no=196,missing=196
							195:leaf=-0.0644991
							196:leaf=-0.0424282
						98:[D_KEYWORD_MACRO_MEAN_COEC<0.0500912] yes=197,no=198,missing=198
							197:leaf=-0.0540683
							198:leaf=-0.0112447
				24:[CAT_REL<0.196557] yes=49,no=50,missing=50
					49:[CAT_REL<0.0392] yes=99,no=100,missing=100
						99:[D_CATEGORY_MICRO_MAX_COEC<0.0600305] yes=199,no=200,missing=200
							199:leaf=-0.0521699
							200:leaf=-0.0778642
						100:[D_CATEGORY_MACRO_MEAN_COEC<0.0586424] yes=201,no=202,missing=202
							201:leaf=-0.00866617
							202:leaf=-0.0482943
					50:[U_CAT_LEN<15] yes=101,no=102,missing=102
						101:[U_CAT_LEN<9] yes=203,no=204,missing=204
							203:leaf=-0.0522623
							204:leaf=-0.0299351
						102:[KW_REL<0.00181188] yes=205,no=206,missing=206
							205:leaf=-0.026937
							206:leaf=0.000827643
			12:[CAT_REL<0.202755] yes=25,no=26,missing=26
				25:[U_CAT_LEN<11] yes=51,no=52,missing=52
					51:[WORD_COUNT<1876] yes=103,no=104,missing=104
						103:[D_CATEGORY_MICRO_MAX_COEC<0.0965009] yes=207,no=208,missing=207
							207:leaf=-0.049822
							208:leaf=-0.0789502
						104:[U_CAT_LEN<7] yes=209,no=210,missing=210
							209:leaf=-0.0527882
							210:leaf=-0.0298639
					52:[WORD_COUNT<1876] yes=105,no=106,missing=106
						105:[D_CATEGORY_MACRO_MAX_COEC<0.0629166] yes=211,no=212,missing=212
							211:leaf=-0.00242224
							212:leaf=-0.0353895
						106:[CAT_REL<0.077141] yes=213,no=214,missing=214
							213:leaf=-0.0247817
							214:leaf=0.000249853
				26:[U_CAT_LEN<9] yes=53,no=54,missing=54
					53:[C_D_U_TITLEMD5_CATEGORY_MACRO_MAX_COEC<0.0489661] yes=107,no=108,missing=108
						107:[WORD_COUNT<3021] yes=215,no=216,missing=216
							215:leaf=-0.0366489
							216:leaf=-0.0143845
						108:[KW_REL<0.00208661] yes=217,no=218,missing=218
							217:leaf=-0.0215716
							218:leaf=-0.000150631
					54:[WORD_COUNT<1308] yes=109,no=110,missing=110
						109:[KW_REL<0.000524891] yes=219,no=220,missing=220
							219:leaf=-0.0353578
							220:leaf=-0.0103295
						110:[KW_REL<0.00435643] yes=221,no=222,missing=222
							221:leaf=0.00241568
							222:leaf=0.0238269
		6:[C_D_U_TITLEMD5_CATEGORY_MACRO_MEAN_COEC<0.135872] yes=13,no=14,missing=14
			13:[KW_REL<0.00156922] yes=27,no=28,missing=28
				27:[U_CAT_LEN<9] yes=55,no=56,missing=56
					55:[CAT_REL<0.3559] yes=111,no=112,missing=112
						111:[WORD_COUNT<2792] yes=223,no=224,missing=224
							223:leaf=-0.0247605
							224:leaf=-0.00469222
						112:[D_KEYWORD_MACRO_MEAN_COEC<0.0611372] yes=225,no=226,missing=226
							225:leaf=-0.04203
							226:leaf=0.00359033
					56:[CAT_REL<0.196557] yes=113,no=114,missing=114
						113:[D_CATEGORY_MICRO_MEAN_COEC<0.0936347] yes=227,no=228,missing=228
							227:leaf=0.00626752
							228:leaf=-0.0232878
						114:[D_CATEGORY_MICRO_MEAN_COEC<0.0936347] yes=229,no=230,missing=230
							229:leaf=0.0273376
							230:leaf=0.0067933
				28:[U_CAT_LEN<8] yes=57,no=58,missing=58
					57:[CAT_REL<0.373111] yes=115,no=116,missing=116
						115:[C_D_U_PUBLISHER_GENDER_COEC<0.0758316] yes=231,no=232,missing=232
							231:leaf=-0.0288844
							232:leaf=-0.00696497
						116:[C_D_U_TITLEMD5_CATEGORY_MACRO_MEAN_COEC<0.102151] yes=233,no=234,missing=234
							233:leaf=0.00364345
							234:leaf=0.0228747
					58:[CAT_REL<0.137105] yes=117,no=118,missing=118
						117:[WORD_COUNT<2090] yes=235,no=236,missing=236
							235:leaf=0.00174474
							236:leaf=0.023414
						118:[C_D_U_TITLEMD5_GENDER_COEC<0.0229053] yes=237,no=238,missing=237
							237:leaf=-0.0159827
							238:leaf=0.0363802
			14:[C_D_U_TITLEMD5_CATEGORY_MICRO_MAX_COEC<0.447188] yes=29,no=30,missing=30
				29:[C_D_U_TITLEMD5_CATEGORY_MACRO_MEAN_COEC<0.197252] yes=59,no=60,missing=60
					59:[KW_REL<0.00108082] yes=119,no=120,missing=120
						119:[D_KEYWORD_MACRO_MEAN_COEC<0.0774571] yes=239,no=240,missing=240
							239:leaf=-0.0245181
							240:leaf=0.0285422
						120:[U_CAT_LEN<10] yes=241,no=242,missing=242
							241:leaf=0.0368666
							242:leaf=0.0550324
					60:[D_KEYWORD_MACRO_MEAN_COEC<0.0847705] yes=121,no=122,missing=122
						121:[KW_REL<0.00171388] yes=243,no=244,missing=244
							243:leaf=-0.014939
							244:leaf=0.036585
						122:[U_CAT_LEN<9] yes=245,no=246,missing=246
							245:leaf=0.0534339
							246:leaf=0.0777659
				30:[D_KEYWORD_MACRO_MEAN_COEC<0.171035] yes=61,no=62,missing=62
					61:[CAT_REL<0.340714] yes=123,no=124,missing=124
						123:[KW_REL<0.00412554] yes=247,no=248,missing=248
							247:leaf=-0.0451387
							248:leaf=-0.00983262
						124:[D_KEYWORD_MICRO_MEAN_COEC<0.106771] yes=249,no=250,missing=250
							249:leaf=-0.001191
							250:leaf=0.043213
					62:[DAY_OF_WEEK<0.999999] yes=125,no=126,missing=126
						125:[D_CATEGORY_MACRO_MAX_COEC<0.0764501] yes=251,no=252,missing=252
							251:leaf=0.12516
							252:leaf=0.0610361
						126:[D_PUBLISHER_COEC<0.0620925] yes=253,no=254,missing=254
							253:leaf=-0.0749764
							254:leaf=0.0482166
booster[8]:
0:[U_KW_LEN<200] yes=1,no=2,missing=1
	1:[C_D_U_TITLEMD5_GENDER_COEC<0.0885573] yes=3,no=4,missing=3
		3:[D_TITLEMD5_COEC<0.0537] yes=7,no=8,missing=7
			7:[D_KEYWORD_MACRO_MEAN_COEC<0.0554011] yes=15,no=16,missing=16
				15:[C_D_U_TITLEMD5_CATEGORY_MICRO_MEAN_COEC<0.0337267] yes=31,no=32,missing=32
					31:[KW_REL<0.00679007] yes=63,no=64,missing=64
						63:[CAT_REL<0.222856] yes=127,no=128,missing=128
							127:leaf=-0.081738
							128:leaf=-0.0634104
						64:[U_KW_LEN<89] yes=129,no=130,missing=130
							129:leaf=-0.0662691
							130:leaf=-0.0162945
					32:[C_D_U_CATEGORY_CITY_MACRO_MEAN_COEC<0.0610652] yes=65,no=66,missing=66
						65:[U_AGE_1<0.999999] yes=131,no=132,missing=132
							131:leaf=-0.0651111
							132:leaf=-0.0204128
						66:[D_CATEGORY_MICRO_MEAN_COEC<0.0538798] yes=133,no=134,missing=134
							133:leaf=0.0670838
							134:leaf=-0.0424509
				16:[D_KEYWORD_MACRO_MEAN_COEC<0.0830206] yes=33,no=34,missing=34
					33:[C_D_U_TITLEMD5_CATEGORY_MACRO_MAX_COEC<0.0209579] yes=67,no=68,missing=68
						67:[D_TITLEMD5_COEC<0.0537] yes=135,no=136,missing=136
							135:leaf=-0.0550642
							136:leaf=-0.0156465
						68:[C_D_U_CATEGORY_CITY_MACRO_MEAN_COEC<0.0653298] yes=137,no=138,missing=138
							137:leaf=-0.0507185
							138:leaf=-0.0250555
					34:[D_TITLEMD5_COEC<0.0537] yes=69,no=70,missing=70
						69:[D_CATEGORY_MICRO_MEAN_COEC<0.0994029] yes=139,no=140,missing=140
							139:leaf=-0.000719716
							140:leaf=-0.0947426
						70:[C_D_U_CATEGORY_CITY_MACRO_MAX_COEC<0.045206] yes=141,no=142,missing=142
							141:leaf=-0.153513
							142:leaf=0.0777407
			8:[C_D_U_TITLEMD5_CATEGORY_MACRO_MEAN_COEC<0.0826951] yes=17,no=18,missing=17
				17:[IMAGE_COUNT<2] yes=35,no=36,missing=36
					35:[TIME_OF_DAY<17] yes=71,no=72,missing=72
						71:[C_D_U_CATEGORY_GENDER_MICRO_MAX_COEC<0.0655706] yes=143,no=144,missing=143
							143:leaf=-0.0438263
							144:leaf=-0.0248242
						72:[C_D_U_TITLEMD5_CATEGORY_MICRO_MEAN_COEC<0.0832229] yes=145,no=146,missing=146
							145:leaf=-0.0266775
							146:leaf=0.000424901
					36:[KW_REL<0.000525893] yes=73,no=74,missing=74
						73:[C_D_U_TITLEMD5_GENDER_COEC<0.0561996] yes=147,no=148,missing=147
							147:leaf=-0.0363876
							148:leaf=-0.00229342
						74:[C_D_U_PUBLISHER_GENDER_COEC<0.102654] yes=149,no=150,missing=150
							149:leaf=0.0212062
							150:leaf=-0.119547
				18:[U_KW_LEN<33] yes=37,no=38,missing=38
					37:[D_KEYWORD_MICRO_MEAN_COEC<0.083782] yes=75,no=76,missing=76
						75:[C_D_U_TITLEMD5_GENDER_COEC<0.0704505] yes=151,no=152,missing=152
							151:leaf=-0.0567376
							152:leaf=-0.0296225
						76:[D_PUBLISHER_COEC<0.069321] yes=153,no=154,missing=154
							153:leaf=-0.0536857
							154:leaf=0.00880328
					38:[KW_REL<0.00100545] yes=77,no=78,missing=78
						77:[C_D_U_TITLEMD5_GENDER_COEC<0.0620446] yes=155,no=156,missing=155
							155:leaf=-0.0346473
							156:leaf=-0.00492655
						78:[C_D_U_CATEGORY_CITY_MICRO_MEAN_COEC<0.110364] yes=157,no=158,missing=157
							157:leaf=0.00996738
							158:leaf=0.0586575
		4:[C_D_U_TITLEMD5_CATEGORY_MACRO_MEAN_COEC<0.129155] yes=9,no=10,missing=9
			9:[D_KEYWORD_MICRO_MEAN_COEC<0.0991714] yes=19,no=20,missing=20
				19:[C_D_U_TITLEMD5_CATEGORY_MACRO_MEAN_COEC<0.0892032] yes=39,no=40,missing=40
					39:[C_D_U_CATEGORY_GENDER_MACRO_MAX_COEC<0.0922594] yes=79,no=80,missing=80
						79:[U_KW_LEN<125] yes=159,no=160,missing=160
							159:leaf=-0.0324463
							160:leaf=-0.00944151
						80:[D_CATEGORY_MICRO_MEAN_COEC<0.0894014] yes=161,no=162,missing=161
							161:leaf=0.0420142
							162:leaf=0.00175966
					40:[U_KW_LEN<98] yes=81,no=82,missing=82
						81:[TIME_OF_DAY<17] yes=163,no=164,missing=164
							163:leaf=-0.00602565
							164:leaf=0.0178187
						82:[CAT_REL<0.142856] yes=165,no=166,missing=166
							165:leaf=0.00194255
							166:leaf=0.0241422
				20:[C_D_U_TITLEMD5_GENDER_COEC<0.191083] yes=41,no=42,missing=42
					41:[WORD_COUNT<1516] yes=83,no=84,missing=84
						83:[D_CATEGORY_MACRO_MAX_COEC<0.0903294] yes=167,no=168,missing=168
							167:leaf=0.0146929
							168:leaf=-0.00895139
						84:[TIME_OF_DAY<17] yes=169,no=170,missing=170
							169:leaf=0.0224113
							170:leaf=0.0449808
					42:[U_AGE_2<0.999999] yes=85,no=86,missing=86
						85:[D_KEYWORD_MICRO_MAX_COEC<0.21094] yes=171,no=172,missing=172
							171:leaf=0.0118039
							172:leaf=0.0465303
						86:[C_D_U_TITLEMD5_CATEGORY_MICRO_MEAN_COEC<0.166132] yes=173,no=174,missing=174
							173:leaf=0.0211948
							174:leaf=0.0604709
			10:[U_KW_LEN<98] yes=21,no=22,missing=22
				21:[C_D_U_TITLEMD5_CATEGORY_MACRO_MEAN_COEC<0.159325] yes=43,no=44,missing=44
					43:[D_KEYWORD_MACRO_MEAN_COEC<0.0680662] yes=87,no=88,missing=88
						87:[DAY_OF_WEEK<6] yes=175,no=176,missing=176
							175:leaf=-0.015742
							176:leaf=-0.103927
						88:[U_GENDER<2] yes=177,no=178,missing=177
							177:leaf=0.0144485
							178:leaf=0.041288
					44:[D_KEYWORD_MACRO_MEAN_COEC<0.0800376] yes=89,no=90,missing=90
						89:[CAT_REL<0.11111] yes=179,no=180,missing=180
							179:leaf=-0.0324786
							180:leaf=0.0128011
						90:[U_AGE_2<0.999999] yes=181,no=182,missing=182
							181:leaf=0.0293701
							182:leaf=0.047133
				22:[C_D_U_TITLEMD5_CATEGORY_MACRO_MEAN_COEC<0.167493] yes=45,no=46,missing=46
					45:[KW_REL<0.000755681] yes=91,no=92,missing=92
						91:[D_KEYWORD_MACRO_MEAN_COEC<0.0672054] yes=183,no=184,missing=184
							183:leaf=-0.0506355
							184:leaf=0.0308777
						92:[C_D_U_PUBLISHER_GENDER_COEC<0.055156] yes=185,no=186,missing=186
							185:leaf=-0.0085266
							186:leaf=0.045909
					46:[D_KEYWORD_MACRO_MEAN_COEC<0.0717756] yes=93,no=94,missing=94
						93:[CAT_REL<0.624999] yes=187,no=188,missing=188
							187:leaf=-0.0124028
							188:leaf=0.0703961
						94:[CAT_REL<0.414437] yes=189,no=190,missing=190
							189:leaf=0.051194
							190:leaf=0.0704024
	2:[C_D_U_TITLEMD5_CATEGORY_MACRO_MEAN_COEC<0.077936] yes=5,no=6,missing=6
		5:[C_D_U_TITLEMD5_CATEGORY_MACRO_MEAN_COEC<0.0472119] yes=11,no=12,missing=12
			11:[KW_REL<0.000973262] yes=23,no=24,missing=24
				23:[C_D_U_PUBLISHER_AGE_COEC<0.0268971] yes=47,no=48,missing=48
					47:[D_KEYWORD_MICRO_MEAN_COEC<0.113518] yes=95,no=96,missing=96
						95:[CAT_REL<0.008701] yes=191,no=192,missing=192
							191:leaf=-0.112482
							192:leaf=-0.0968511
						96:[CAT_REL<0.916316] yes=193,no=194,missing=194
							193:leaf=-0.0165458
							194:leaf=0.23949
					48:[D_KEYWORD_MACRO_MEAN_COEC<0.0502363] yes=97,no=98,missing=98
						97:[C_D_U_TITLEMD5_CATEGORY_MICRO_MEAN_COEC<0.0410386] yes=195,no=196,missing=196
							195:leaf=-0.0806257
							196:leaf=-0.0628745
						98:[D_TITLEMD5_COEC<2.85086] yes=197,no=198,missing=198
							197:leaf=-0.0640669
							198:leaf=-0.0278714
				24:[CAT_REL<0.361535] yes=49,no=50,missing=50
					49:[U_CAT_LEN<13] yes=99,no=100,missing=100
						99:[C_D_U_TITLEMD5_CATEGORY_MACRO_MEAN_COEC<0.0388651] yes=199,no=200,missing=200
							199:leaf=-0.0712755
							200:leaf=-0.0519072
						100:[C_D_U_CATEGORY_CITY_MICRO_MAX_COEC<0.11437] yes=201,no=202,missing=202
							201:leaf=-0.0461395
							202:leaf=0.0098054
					50:[D_KEYWORD_MACRO_MEAN_COEC<0.0600723] yes=101,no=102,missing=102
						101:[KW_REL<0.00670364] yes=203,no=204,missing=204
							203:leaf=-0.0560485
							204:leaf=-0.0236563
						102:[D_TITLEMD5_COEC<0.0779116] yes=205,no=206,missing=206
							205:leaf=-0.0248439
							206:leaf=0.0198152
			12:[KW_REL<0.000919838] yes=25,no=26,missing=26
				25:[CAT_REL<0.077316] yes=51,no=52,missing=52
					51:[C_D_U_TITLEMD5_CATEGORY_MACRO_MEAN_COEC<0.062169] yes=103,no=104,missing=104
						103:[C_D_U_CATEGORY_CITY_MICRO_MEAN_COEC<0.0770902] yes=207,no=208,missing=207
							207:leaf=-0.0707799
							208:leaf=-0.0522919
						104:[C_D_U_TITLEMD5_CATEGORY_MACRO_MAX_COEC<0.0315872] yes=209,no=210,missing=210
							209:leaf=-0.0364936
							210:leaf=-0.059872
					52:[WORD_COUNT<1522] yes=105,no=106,missing=106
						105:[D_CATEGORY_MACRO_MEAN_COEC<0.096745] yes=211,no=212,missing=212
							211:leaf=-0.0396078
							212:leaf=-0.0643792
						106:[C_D_U_TITLEMD5_CATEGORY_MACRO_MEAN_COEC<0.0644884] yes=213,no=214,missing=214
							213:leaf=-0.037481
							214:leaf=-0.0203313
				26:[U_CAT_LEN<16] yes=53,no=54,missing=54
					53:[CAT_REL<0.24694] yes=107,no=108,missing=108
						107:[C_D_U_TITLEMD5_CATEGORY_MACRO_MEAN_COEC<0.0644884] yes=215,no=216,missing=216
							215:leaf=-0.0398771
							216:leaf=-0.0233196
						108:[U_CAT_LEN<8] yes=217,no=218,missing=218
							217:leaf=-0.0344637
							218:leaf=-0.00947411
					54:[CAT_REL<0.103173] yes=109,no=110,missing=110
						109:[D_CATEGORY_MICRO_MEAN_COEC<0.0640364] yes=219,no=220,missing=219
							219:leaf=0.00497327
							220:leaf=-0.0350866
						110:[WORD_COUNT<2091] yes=221,no=222,missing=222
							221:leaf=-0.00632049
							222:leaf=0.014407
		6:[C_D_U_TITLEMD5_CATEGORY_MACRO_MEAN_COEC<0.113291] yes=13,no=14,missing=14
			13:[KW_REL<0.000585249] yes=27,no=28,missing=28
				27:[CAT_REL<0.253951] yes=55,no=56,missing=56
					55:[D_CATEGORY_MACRO_MEAN_COEC<0.0932482] yes=111,no=112,missing=112
						111:[C_D_U_PUBLISHER_AGE_COEC<0.0806786] yes=223,no=224,missing=223
							223:leaf=-0.0360022
							224:leaf=-0.0102351
						112:[C_D_U_TITLEMD5_CATEGORY_MACRO_MEAN_COEC<0.100283] yes=225,no=226,missing=226
							225:leaf=-0.0516926
							226:leaf=-0.0323586
					56:[D_CATEGORY_MACRO_MEAN_COEC<0.096745] yes=113,no=114,missing=114
						113:[U_CAT_LEN<10] yes=227,no=228,missing=228
							227:leaf=-0.00839369
							228:leaf=0.0148116
						114:[CAT_REL<0.313821] yes=229,no=230,missing=230
							229:leaf=-0.0349436
							230:leaf=-0.0102511
				28:[U_CAT_LEN<16] yes=57,no=58,missing=58
					57:[CAT_REL<0.299493] yes=115,no=116,missing=116
						115:[U_CAT_LEN<9] yes=231,no=232,missing=232
							231:leaf=-0.0220494
							232:leaf=-0.000351959
						116:[U_CAT_LEN<8] yes=233,no=234,missing=234
							233:leaf=-0.00248104
							234:leaf=0.0203722
					58:[CAT_REL<0.043062] yes=117,no=118,missing=118
						117:[D_CATEGORY_MICRO_MEAN_COEC<0.0640364] yes=235,no=236,missing=235
							235:leaf=0.0308816
							236:leaf=-0.0200044
						118:[D_CATEGORY_MICRO_MEAN_COEC<0.0958] yes=237,no=238,missing=238
							237:leaf=0.033285
							238:leaf=0.0101434
			14:[CAT_REL<0.361535] yes=29,no=30,missing=30
				29:[U_CAT_LEN<12] yes=59,no=60,missing=60
					59:[D_KEYWORD_MACRO_MEAN_COEC<0.0643993] yes=119,no=120,missing=120
						119:[CAT_REL<0.043062] yes=239,no=240,missing=240
							239:leaf=-0.100903
							240:leaf=-0.0303387
						120:[C_D_U_TITLEMD5_CATEGORY_MACRO_MEAN_COEC<0.158987] yes=241,no=242,missing=242
							241:leaf=0.0102843
							242:leaf=0.0316235
					60:[C_D_U_TITLEMD5_GENDER_COEC<0.068082] yes=121,no=122,missing=121
						121:[CAT_REL<0.197019] yes=243,no=244,missing=244
							243:leaf=-0.038407
							244:leaf=-0.00322281
						122:[C_D_U_TITLEMD5_CATEGORY_MACRO_MEAN_COEC<0.145989] yes=245,no=246,missing=246
							245:leaf=0.0294584
							246:leaf=0.0479941
				30:[U_CAT_LEN<8] yes=61,no=62,missing=62
					61:[C_D_U_TITLEMD5_AGE_COEC<0.0219649] yes=123,no=124,missing=123
						123:[DAY_OF_WEEK<4] yes=247,no=248,missing=248
							247:leaf=-0.0404203
							248:leaf=-0.000616802
						124:[C_D_U_TITLEMD5_CATEGORY_MACRO_MAX_COEC<0.0988626] yes=249,no=250,missing=250
							249:leaf=0.0189369
							250:leaf=0.0402448
					62:[D_KEYWORD_MACRO_MEAN_COEC<0.0614818] yes=125,no=126,missing=126
						125:[KW_REL<0.00371296] yes=251,no=252,missing=252
							251:leaf=-0.0278019
							252:leaf=0.029228
						126:[C_D_U_TITLEMD5_CATEGORY_MACRO_MEAN_COEC<0.158987] yes=253,no=254,missing=254
							253:leaf=0.0456912
							254:leaf=0.0637744
booster[9]:
0:[U_KW_LEN<200] yes=1,no=2,missing=1
	1:[C_D_U_TITLEMD5_GENDER_COEC<0.0836776] yes=3,no=4,missing=3
		3:[D_TITLEMD5_COEC<0.0508529] yes=7,no=8,missing=8
			7:[D_TITLEMD5_COEC<0.0346137] yes=15,no=16,missing=16
				15:[D_KEYWORD_MACRO_MEAN_COEC<0.0604381] yes=31,no=32,missing=32
					31:[C_D_U_PUBLISHER_GENDER_COEC<0.0482371] yes=63,no=64,missing=63
						63:[D_PUBLISHER_COEC<0.076415] yes=127,no=128,missing=127
							127:leaf=-0.0738633
							128:leaf=0.104557
						64:[IMAGE_COUNT<2] yes=129,no=130,missing=130
							129:leaf=-0.0598135
							130:leaf=-0.0227442
					32:[C_D_U_CATEGORY_CITY_MACRO_MAX_COEC<0.116621] yes=65,no=66,missing=66
						65:[TIME_OF_DAY<13] yes=131,no=132,missing=132
							131:leaf=-0.0328868
							132:leaf=-0.0594061
						66:[WORD_COUNT<2325] yes=133,no=134,missing=134
							133:leaf=0.071022
							134:leaf=-0.0642472
				16:[C_D_U_PUBLISHER_CITY_COEC<0.0890831] yes=33,no=34,missing=33
					33:[KW_REL<0.00438936] yes=67,no=68,missing=68
						67:[C_D_U_CATEGORY_GENDER_MACRO_MEAN_COEC<0.0926648] yes=135,no=136,missing=135
							135:leaf=-0.0497463
							136:leaf=-0.0223135
						68:[D_KEYWORD_MICRO_MEAN_COEC<0.0678487] yes=137,no=138,missing=138
							137:leaf=-0.0478163
							138:leaf=-0.0161329
					34:[WORD_COUNT<2214] yes=69,no=70,missing=70
						69:[D_KEYWORD_MICRO_MEAN_COEC<0.0964507] yes=139,no=140,missing=140
							139:leaf=-0.0409568
							140:leaf=0.0298674
						70:[C_D_U_TITLEMD5_CATEGORY_MICRO_MAX_COEC<0.163997] yes=141,no=142,missing=141
							141:leaf=-0.00805692
							142:leaf=-0.129839
			8:[C_D_U_TITLEMD5_CATEGORY_MACRO_MEAN_COEC<0.0666661] yes=17,no=18,missing=17
				17:[TIME_OF_DAY<17] yes=35,no=36,missing=36
					35:[D_KEYWORD_MACRO_MEAN_COEC<0.075983] yes=71,no=72,missing=72
						71:[IMAGE_COUNT<3] yes=143,no=144,missing=144
							143:leaf=-0.0355359
							144:leaf=-0.0118301
						72:[D_TITLEMD5_COEC<3.90951] yes=145,no=146,missing=146
							145:leaf=-0.0167344
							146:leaf=0.0476918
					36:[WORD_COUNT<3076] yes=73,no=74,missing=74
						73:[C_D_U_TITLEMD5_CATEGORY_MACRO_MAX_COEC<0.0315961] yes=147,no=148,missing=148
							147:leaf=-0.0439843
							148:leaf=-0.0135144
						74:[CAT_REL<0.641512] yes=149,no=150,missing=150
							149:leaf=0.00713564
							150:leaf=0.117132
				18:[U_KW_LEN<92] yes=37,no=38,missing=38
					37:[KW_REL<0.00123156] yes=75,no=76,missing=76
						75:[D_CATEGORY_MICRO_MEAN_COEC<0.0705305] yes=151,no=152,missing=151
							151:leaf=-0.0423798
							152:leaf=-0.0197228
						76:[U_KW_LEN<51] yes=153,no=154,missing=154
							153:leaf=-0.0204337
							154:leaf=-0.000600628
					38:[WORD_COUNT<1623] yes=77,no=78,missing=78
						77:[C_D_U_CATEGORY_CITY_MACRO_MAX_COEC<0.14409] yes=155,no=156,missing=155
							155:leaf=-0.0132492
							156:leaf=0.0645648
						78:[CAT_REL<0.199999] yes=157,no=158,missing=158
							157:leaf=-0.0104257
							158:leaf=0.015189
		4:[D_TITLEMD5_COEC<0.128802] yes=9,no=10,missing=10
			9:[C_D_U_TITLEMD5_CATEGORY_MACRO_MEAN_COEC<0.105321] yes=19,no=20,missing=19
				19:[TIME_OF_DAY<17] yes=39,no=40,missing=40
					39:[C_D_U_CATEGORY_GENDER_MACRO_MEAN_COEC<0.0646456] yes=79,no=80,missing=80
						79:[D_TITLEMD5_COEC<0.0683985] yes=159,no=160,missing=160
							159:leaf=-0.0699804
							160:leaf=-0.0238964
						80:[U_GENDER<2] yes=161,no=162,missing=161
							161:leaf=-0.00829076
							162:leaf=0.0165375
					40:[C_D_U_CATEGORY_GENDER_MICRO_MAX_COEC<0.089912] yes=81,no=82,missing=82
						81:[C_D_U_TITLEMD5_CATEGORY_MACRO_MEAN_COEC<0.0888423] yes=163,no=164,missing=164
							163:leaf=-0.0144786
							164:leaf=0.0095873
						82:[D_KEYWORD_MACRO_MEAN_COEC<0.0961583] yes=165,no=166,missing=166
							165:leaf=0.0365419
							166:leaf=0.00645225
				20:[U_KW_LEN<115] yes=41,no=42,missing=42
					41:[C_D_U_PUBLISHER_CITY_COEC<0.0967505] yes=83,no=84,missing=83
						83:[KW_REL<1.30362e-05] yes=167,no=168,missing=168
							167:leaf=-0.0122084
							168:leaf=0.00707372
						84:[WORD_COUNT<4328] yes=169,no=170,missing=170
							169:leaf=0.0159141
							170:leaf=0.0442027
					42:[KW_REL<0.00202548] yes=85,no=86,missing=86
						85:[C_D_U_TITLEMD5_CATEGORY_MACRO_MEAN_COEC<0.125795] yes=171,no=172,missing=172
							171:leaf=0.0161653
							172:leaf=0.0357459
						86:[CAT_REL<0.540623] yes=173,no=174,missing=174
							173:leaf=0.0356199
							174:leaf=0.0570336
			10:[D_KEYWORD_MICRO_MAX_COEC<0.213152] yes=21,no=22,missing=22
				21:[C_D_U_TITLEMD5_CATEGORY_MACRO_MEAN_COEC<0.1347] yes=43,no=44,missing=44
					43:[U_AGE_2<0.999999] yes=87,no=88,missing=88
						87:[D_KEYWORD_MICRO_MEAN_COEC<0.0860679] yes=175,no=176,missing=176
							175:leaf=-0.0238243
							176:leaf=0.00373905
						88:[U_CAT_LEN<7] yes=177,no=178,missing=178
							177:leaf=0.0147268
							178:leaf=0.0357957
					44:[U_KW_LEN<67] yes=89,no=90,missing=90
						89:[C_D_U_CATEGORY_GENDER_MICRO_MAX_COEC<0.104673] yes=179,no=180,missing=179
							179:leaf=0.0180262
							180:leaf=0.0522515
						90:[CAT_REL<0.33003] yes=181,no=182,missing=182
							181:leaf=0.0305767
							182:leaf=0.0471214
				22:[D_KEYWORD_MICRO_MEAN_COEC<0.0760069] yes=45,no=46,missing=46
					45:[WORD_COUNT<1369] yes=91,no=92,missing=92
						91:[C_D_U_CATEGORY_GENDER_MACRO_MEAN_COEC<0.0718969] yes=183,no=184,missing=184
							183:leaf=-0.0551369
							184:leaf=0.041968
						92:[CAT_REL<0.256409] yes=185,no=186,missing=186
							185:leaf=-0.15708
							186:leaf=-0.0462166
					46:[C_D_U_TITLEMD5_CATEGORY_MACRO_MEAN_COEC<0.207423] yes=93,no=94,missing=94
						93:[WORD_COUNT<1014] yes=187,no=188,missing=188
							187:leaf=0.0138886
							188:leaf=0.0439324
						94:[U_AGE_2<0.999999] yes=189,no=190,missing=190
							189:leaf=0.0502721
							190:leaf=0.0656057
	2:[C_D_U_TITLEMD5_CATEGORY_MACRO_MEAN_COEC<0.0939584] yes=5,no=6,missing=6
		5:[C_D_U_TITLEMD5_CATEGORY_MACRO_MEAN_COEC<0.062372] yes=11,no=12,missing=12
			11:[C_D_U_TITLEMD5_CATEGORY_MACRO_MEAN_COEC<0.0469128] yes=23,no=24,missing=24
				23:[CAT_REL<0.146377] yes=47,no=48,missing=48
					47:[CAT_REL<0.043099] yes=95,no=96,missing=96
						95:[D_KEYWORD_MICRO_MEAN_COEC<0.109942] yes=191,no=192,missing=192
							191:leaf=-0.0790872
							192:leaf=0.0311597
						96:[D_CATEGORY_MICRO_MEAN_COEC<0.0643925] yes=193,no=194,missing=194
							193:leaf=-0.0444234
							194:leaf=-0.0650717
					48:[U_CAT_LEN<14] yes=97,no=98,missing=98
						97:[D_TITLEMD5_COEC<0.0736517] yes=195,no=196,missing=196
							195:leaf=-0.0542738
							196:leaf=-0.0267488
						98:[CAT_REL<0.868659] yes=197,no=198,missing=198
							197:leaf=-0.0327907
							198:leaf=0.0643589
				24:[CAT_REL<0.195914] yes=49,no=50,missing=50
					49:[KW_REL<0.000834335] yes=99,no=100,missing=100
						99:[C_D_U_TITLEMD5_CATEGORY_MACRO_MAX_COEC<0.0301673] yes=199,no=200,missing=200
							199:leaf=-0.0492907
							200:leaf=-0.0679229
						100:[D_CATEGORY_MACRO_MAX_COEC<0.0529358] yes=201,no=202,missing=201
							201:leaf=-0.00682318
							202:leaf=-0.0375122
					50:[U_CAT_LEN<10] yes=101,no=102,missing=102
						101:[U_CAT_LEN<7] yes=203,no=204,missing=204
							203:leaf=-0.0556596
							204:leaf=-0.0339949
						102:[WORD_COUNT<2069] yes=205,no=206,missing=206
							205:leaf=-0.0245056
							206:leaf=-0.00417237
			12:[CAT_REL<0.076851] yes=25,no=26,missing=26
				25:[C_D_U_CATEGORY_AGE_MACRO_MAX_COEC<0.109446] yes=51,no=52,missing=52
					51:[D_CATEGORY_MICRO_MEAN_COEC<0.0643925] yes=103,no=104,missing=104
						103:[D_KEYWORD_MICRO_MEAN_COEC<0.0722175] yes=207,no=208,missing=208
							207:leaf=-0.0329553
							208:leaf=0.00116061
						104:[CAT_REL<0.034721] yes=209,no=210,missing=210
							209:leaf=-0.0529921
							210:leaf=-0.0301464
					52:[KW_REL<0.000864024] yes=105,no=106,missing=106
						105:[D_KEYWORD_MACRO_MEAN_COEC<0.0670504] yes=211,no=212,missing=212
							211:leaf=-0.106771
							212:leaf=0.00596734
						106:[D_KEYWORD_MACRO_MEAN_COEC<0.0607105] yes=213,no=214,missing=214
							213:leaf=-0.164328
							214:leaf=0.0460563
				26:[WORD_COUNT<1578] yes=53,no=54,missing=54
					53:[CAT_REL<0.296423] yes=107,no=108,missing=108
						107:[C_D_U_CATEGORY_AGE_MACRO_MEAN_COEC<0.083478] yes=215,no=216,missing=216
							215:leaf=-0.0147525
							216:leaf=-0.0415789
						108:[U_CAT_LEN<10] yes=217,no=218,missing=218
							217:leaf=-0.0218883
							218:leaf=-0.0020835
					54:[U_CAT_LEN<14] yes=109,no=110,missing=110
						109:[KW_REL<0.00445794] yes=219,no=220,missing=220
							219:leaf=-0.0115213
							220:leaf=0.00736005
						110:[D_CATEGORY_MICRO_MAX_COEC<0.0961039] yes=221,no=222,missing=222
							221:leaf=0.018186
							222:leaf=-0.00778613
		6:[C_D_U_TITLEMD5_CATEGORY_MACRO_MEAN_COEC<0.138856] yes=13,no=14,missing=14
			13:[KW_REL<0.00324174] yes=27,no=28,missing=28
				27:[U_CAT_LEN<15] yes=55,no=56,missing=56
					55:[CAT_REL<0.026698] yes=111,no=112,missing=112
						111:[D_KEYWORD_MICRO_MEAN_COEC<0.0842452] yes=223,no=224,missing=224
							223:leaf=-0.0510958
							224:leaf=-0.0132739
						112:[U_CAT_LEN<8] yes=225,no=226,missing=226
							225:leaf=-0.0099462
							226:leaf=0.00853281
					56:[CAT_REL<0.034721] yes=113,no=114,missing=114
						113:[D_KEYWORD_MICRO_MEAN_COEC<0.0784922] yes=227,no=228,missing=228
							227:leaf=-0.0651209
							228:leaf=0.00686725
						114:[D_CATEGORY_MICRO_MEAN_COEC<0.0935532] yes=229,no=230,missing=230
							229:leaf=0.032842
							230:leaf=0.0142611
				28:[U_CAT_LEN<14] yes=57,no=58,missing=58
					57:[CAT_REL<0.285388] yes=115,no=116,missing=116
						115:[D_KEYWORD_MACRO_MEAN_COEC<0.0622356] yes=231,no=232,missing=232
							231:leaf=-0.0310411
							232:leaf=0.0157019
						116:[U_CAT_LEN<8] yes=233,no=234,missing=234
							233:leaf=0.0165413
							234:leaf=0.0370323
					58:[CAT_REL<0.177508] yes=117,no=118,missing=118
						117:[WORD_COUNT<2041] yes=235,no=236,missing=236
							235:leaf=0.0161901
							236:leaf=0.0402515
						118:[C_D_U_TITLEMD5_AGE_COEC<0.164998] yes=237,no=238,missing=238
							237:leaf=0.0517218
							238:leaf=0.00510025
			14:[C_D_U_TITLEMD5_CATEGORY_MICRO_MAX_COEC<0.46639] yes=29,no=30,missing=30
				29:[KW_REL<0.000582023] yes=59,no=60,missing=60
					59:[C_D_U_TITLEMD5_CATEGORY_MACRO_MEAN_COEC<0.197115] yes=119,no=120,missing=120
						119:[CAT_REL<0.187619] yes=239,no=240,missing=240
							239:leaf=0.0035032
							240:leaf=0.0246471
						120:[D_KEYWORD_MICRO_MEAN_COEC<0.0874835] yes=241,no=242,missing=242
							241:leaf=-0.0198868
							242:leaf=0.0485253
					60:[C_D_U_TITLEMD5_CATEGORY_MACRO_MEAN_COEC<0.185823] yes=121,no=122,missing=122
						121:[D_TITLEMD5_COEC<0.178169] yes=243,no=244,missing=244
							243:leaf=0.0428036
							244:leaf=0.0216854
						122:[D_KEYWORD_MACRO_MEAN_COEC<0.0807624] yes=245,no=246,missing=246
							245:leaf=0.0186653
							246:leaf=0.0634198
				30:[D_KEYWORD_MACRO_MEAN_COEC<0.170195] yes=61,no=62,missing=62
					61:[KW_REL<0.00445794] yes=123,no=124,missing=124
						123:[D_KEYWORD_MICRO_MEAN_COEC<0.0956269] yes=247,no=248,missing=248
							247:leaf=-0.040043
							248:leaf=0.00307325
						124:[CAT_REL<0.116994] yes=249,no=250,missing=250
							249:leaf=-0.061213
							250:leaf=0.00644743
					62:[DAY_OF_WEEK<0.999999] yes=125,no=126,missing=126
						125:[C_D_U_PUBLISHER_GENDER_COEC<0.0731012] yes=251,no=252,missing=251
							251:leaf=-0.166188
							252:leaf=0.113962
						126:[DAY_OF_WEEK<5] yes=253,no=254,missing=254
							253:leaf=-0.0536924
							254:leaf=0.0523241
booster[10]:
0:[U_KW_LEN<200] yes=1,no=2,missing=1
	1:[D_TITLEMD5_COEC<0.0772845] yes=3,no=4,missing=3
		3:[C_D_U_TITLEMD5_CATEGORY_MACRO_MEAN_COEC<0.0436741] yes=7,no=8,missing=8
			7:[D_KEYWORD_MACRO_MEAN_COEC<0.045037] yes=15,no=16,missing=16
				15:[TIME_OF_DAY<10] yes=31,no=32,missing=32
					31:[U_KW_LEN<25] yes=63,no=64,missing=64
						63:[C_D_U_PUBLISHER_GENDER_COEC<0.0575052] yes=127,no=128,missing=127
							127:leaf=-0.126553
							128:leaf=-0.0569297
						64:[D_CATEGORY_MACRO_MEAN_COEC<0.0774278] yes=129,no=130,missing=130
							129:leaf=-0.0410764
							130:leaf=-0.0807743
					32:[CAT_REL<0.099999] yes=65,no=66,missing=66
						65:[C_D_U_CATEGORY_GENDER_MICRO_MEAN_COEC<0.049505] yes=131,no=132,missing=132
							131:leaf=-0.0802677
							132:leaf=-0.113288
						66:[C_D_U_TITLEMD5_GENDER_COEC<0.0218833] yes=133,no=134,missing=133
							133:leaf=-0.0772472
							134:leaf=-0.0338438
				16:[CAT_REL<0.278383] yes=33,no=34,missing=34
					33:[D_KEYWORD_MACRO_MEAN_COEC<0.092498] yes=67,no=68,missing=68
						67:[U_CAT_LEN<4] yes=135,no=136,missing=136
							135:leaf=-0.0645941
							136:leaf=-0.0463296
						68:[D_TITLEMD5_COEC<0.0614282] yes=137,no=138,missing=137
							137:leaf=0.0431409
							138:leaf=-0.149799
					34:[C_D_U_CATEGORY_CITY_MICRO_MAX_COEC<0.0935218] yes=69,no=70,missing=70
						69:[D_CATEGORY_MICRO_MEAN_COEC<0.0964151] yes=139,no=140,missing=140
							139:leaf=-0.0366732
							140:leaf=-0.121538
						70:[DAY_OF_WEEK<5] yes=141,no=142,missing=142
							141:leaf=-0.0262855
							142:leaf=0.0485303
			8:[C_D_U_CATEGORY_CITY_MACRO_MAX_COEC<0.0448991] yes=17,no=18,missing=18
				17:[C_D_U_TITLEMD5_GENDER_COEC<0.0335873] yes=35,no=36,missing=36
					35:[C_D_U_PUBLISHER_CITY_COEC<0.150127] yes=71,no=72,missing=71
						71:[D_KEYWORD_MACRO_MEAN_COEC<0.0716832] yes=143,no=144,missing=144
							143:leaf=-0.0715362
							144:leaf=0.016615
						72:[WORD_COUNT<3566] yes=145,no=146,missing=146
							145:leaf=-0.0457221
							146:leaf=0.135844
					36:[WORD_COUNT<6027] yes=73,no=74,missing=74
						73:[U_KW_LEN<197] yes=147,no=148,missing=148
							147:leaf=-0.040657
							148:leaf=0.0671103
						74:[C_D_U_CATEGORY_GENDER_MICRO_MEAN_COEC<0.0579524] yes=149,no=150,missing=150
							149:leaf=0.0383471
							150:leaf=-0.0378498
				18:[U_KW_LEN<123] yes=37,no=38,missing=38
					37:[WORD_COUNT<3031] yes=75,no=76,missing=76
						75:[D_KEYWORD_MACRO_MEAN_COEC<0.0777326] yes=151,no=152,missing=152
							151:leaf=-0.0296025
							152:leaf=-0.00710099
						76:[WORD_COUNT<3398] yes=153,no=154,missing=154
							153:leaf=0.00429817
							154:leaf=-0.0182898
					38:[C_D_U_TITLEMD5_CATEGORY_MACRO_MEAN_COEC<0.0631437] yes=77,no=78,missing=78
						77:[C_D_U_CATEGORY_CITY_MACRO_MAX_COEC<0.126514] yes=155,no=156,missing=155
							155:leaf=-0.0196887
							156:leaf=0.0605665
						78:[KW_REL<0.000784137] yes=157,no=158,missing=158
							157:leaf=-0.0121491
							158:leaf=0.013891
		4:[C_D_U_TITLEMD5_GENDER_COEC<0.12874] yes=9,no=10,missing=9
			9:[C_D_U_TITLEMD5_CATEGORY_MACRO_MEAN_COEC<0.103845] yes=19,no=20,missing=19
				19:[C_D_U_CATEGORY_CITY_MACRO_MAX_COEC<0.109915] yes=39,no=40,missing=39
					39:[TIME_OF_DAY<17] yes=79,no=80,missing=80
						79:[TIME_OF_DAY<13] yes=159,no=160,missing=160
							159:leaf=-0.00491494
							160:leaf=-0.0186348
						80:[C_D_U_CATEGORY_GENDER_MICRO_MEAN_COEC<0.0907117] yes=161,no=162,missing=161
							161:leaf=0.000715531
							162:leaf=0.0238366
					40:[CAT_REL<0.195875] yes=81,no=82,missing=82
						81:[C_D_U_TITLEMD5_GENDER_COEC<0.105772] yes=163,no=164,missing=163
							163:leaf=0.00405346
							164:leaf=0.0276091
						82:[C_D_U_TITLEMD5_CATEGORY_MACRO_MEAN_COEC<0.0551559] yes=165,no=166,missing=166
							165:leaf=-0.165496
							166:leaf=0.0469717
				20:[U_KW_LEN<115] yes=41,no=42,missing=42
					41:[IMAGE_COUNT<3] yes=83,no=84,missing=84
						83:[C_D_U_TITLEMD5_CATEGORY_MICRO_MEAN_COEC<0.210646] yes=167,no=168,missing=168
							167:leaf=0.00338745
							168:leaf=-0.0409965
						84:[WORD_COUNT<799] yes=169,no=170,missing=170
							169:leaf=-0.0122123
							170:leaf=0.037237
					42:[CAT_REL<0.124999] yes=85,no=86,missing=86
						85:[WORD_COUNT<2325] yes=171,no=172,missing=172
							171:leaf=-0.00541174
							172:leaf=0.017787
						86:[C_D_U_TITLEMD5_CATEGORY_MICRO_MAX_COEC<0.230662] yes=173,no=174,missing=174
							173:leaf=0.0314075
							174:leaf=-0.00110296
			10:[D_KEYWORD_MACRO_MEAN_COEC<0.0852412] yes=21,no=22,missing=22
				21:[D_KEYWORD_MACRO_MEAN_COEC<0.0572805] yes=43,no=44,missing=44
					43:[CAT_REL<0.299999] yes=87,no=88,missing=88
						87:[C_D_U_TITLEMD5_CATEGORY_MICRO_MAX_COEC<0.218579] yes=175,no=176,missing=176
							175:leaf=-0.101042
							176:leaf=-0.0526958
						88:[TIME_OF_DAY<18] yes=177,no=178,missing=178
							177:leaf=-0.0363056
							178:leaf=0.0327319
					44:[C_D_U_CATEGORY_GENDER_MACRO_MEAN_COEC<0.0570142] yes=89,no=90,missing=90
						89:[C_D_U_PUBLISHER_GENDER_COEC<0.069859] yes=179,no=180,missing=180
							179:leaf=-0.0375984
							180:leaf=-0.131902
						90:[C_D_U_TITLEMD5_CATEGORY_MACRO_MEAN_COEC<0.141873] yes=181,no=182,missing=182
							181:leaf=-0.000914735
							182:leaf=0.0167696
				22:[C_D_U_TITLEMD5_CATEGORY_MACRO_MEAN_COEC<0.176258] yes=45,no=46,missing=45
					45:[WORD_COUNT<1200] yes=91,no=92,missing=92
						91:[U_KW_LEN<130] yes=183,no=184,missing=184
							183:leaf=0.00630414
							184:leaf=0.0269302
						92:[U_AGE_2<0.999999] yes=185,no=186,missing=186
							185:leaf=0.0203145
							186:leaf=0.0344851
					46:[KW_REL<2.55585e-05] yes=93,no=94,missing=94
						93:[C_D_U_TITLEMD5_CATEGORY_MICRO_MEAN_COEC<0.231548] yes=187,no=188,missing=188
							187:leaf=0.0247186
							188:leaf=0.0417373
						94:[C_D_U_TITLEMD5_CATEGORY_MACRO_MEAN_COEC<0.235276] yes=189,no=190,missing=190
							189:leaf=0.0445045
							190:leaf=0.0644295
	2:[C_D_U_TITLEMD5_CATEGORY_MACRO_MEAN_COEC<0.0750108] yes=5,no=6,missing=6
		5:[C_D_U_TITLEMD5_CATEGORY_MACRO_MEAN_COEC<0.0488774] yes=11,no=12,missing=12
			11:[KW_REL<0.00113112] yes=23,no=24,missing=24
				23:[D_PUBLISHER_COEC<0.0222634] yes=47,no=48,missing=48
					47:[D_KEYWORD_MACRO_MEAN_COEC<0.0633005] yes=95,no=96,missing=96
						95:[IMAGE_COUNT<15] yes=191,no=192,missing=192
							191:leaf=-0.0960765
							192:leaf=-0.0177778
						96:[C_D_U_TITLEMD5_CATEGORY_MACRO_MAX_COEC<0.0394105] yes=193,no=194,missing=194
							193:leaf=-0.0632783
							194:leaf=0.228676
					48:[U_CAT_LEN<12] yes=97,no=98,missing=98
						97:[D_KEYWORD_MACRO_MEAN_COEC<0.0920844] yes=195,no=196,missing=196
							195:leaf=-0.0642376
							196:leaf=-0.0013008
						98:[CAT_REL<0.270026] yes=197,no=198,missing=198
							197:leaf=-0.0554859
							198:leaf=-0.0369753
				24:[CAT_REL<0.219154] yes=49,no=50,missing=50
					49:[U_CAT_LEN<13] yes=99,no=100,missing=100
						99:[C_D_U_TITLEMD5_CATEGORY_MICRO_MAX_COEC<0.0656598] yes=199,no=200,missing=200
							199:leaf=-0.0654621
							200:leaf=-0.0484086
						100:[C_D_U_CATEGORY_CITY_MICRO_MAX_COEC<0.114363] yes=201,no=202,missing=202
							201:leaf=-0.0415307
							202:leaf=0.0127611
					50:[C_D_U_TITLEMD5_AGE_COEC<0.0654285] yes=101,no=102,missing=102
						101:[U_CAT_LEN<11] yes=203,no=204,missing=204
							203:leaf=-0.0487723
							204:leaf=-0.0287094
						102:[C_D_U_PUBLISHER_AGE_COEC<0.0594911] yes=205,no=206,missing=206
							205:leaf=-0.0311441
							206:leaf=-0.00134202
			12:[CAT_REL<0.130997] yes=25,no=26,missing=26
				25:[CAT_REL<0.060567] yes=51,no=52,missing=52
					51:[D_CATEGORY_MICRO_MAX_COEC<0.0637585] yes=103,no=104,missing=103
						103:[C_D_U_PUBLISHER_GENDER_COEC<0.0752129] yes=207,no=208,missing=207
							207:leaf=-0.0406312
							208:leaf=-0.00793572
						104:[D_CATEGORY_MICRO_MAX_COEC<0.0726489] yes=209,no=210,missing=210
							209:leaf=-0.0650835
							210:leaf=-0.0417425
					52:[WORD_COUNT<2283] yes=105,no=106,missing=106
						105:[C_D_U_CATEGORY_AGE_MACRO_MEAN_COEC<0.054041] yes=211,no=212,missing=212
							211:leaf=0.0119514
							212:leaf=-0.0410746
						106:[U_CAT_LEN<16] yes=213,no=214,missing=214
							213:leaf=-0.0253889
							214:leaf=-0.00461536
				26:[U_CAT_LEN<16] yes=53,no=54,missing=54
					53:[WORD_COUNT<2367] yes=107,no=108,missing=108
						107:[KW_REL<0.00469241] yes=215,no=216,missing=216
							215:leaf=-0.0322772
							216:leaf=-0.0142395
						108:[U_CAT_LEN<8] yes=217,no=218,missing=218
							217:leaf=-0.0330893
							218:leaf=-0.0070871
					54:[D_CATEGORY_MACRO_MAX_COEC<0.0960146] yes=109,no=110,missing=110
						109:[U_CAT_LEN<19] yes=219,no=220,missing=220
							219:leaf=-0.00324341
							220:leaf=0.0163407
						110:[CAT_REL<0.319633] yes=221,no=222,missing=222
							221:leaf=-0.0433071
							222:leaf=-0.00496743
		6:[C_D_U_TITLEMD5_CATEGORY_MACRO_MEAN_COEC<0.110936] yes=13,no=14,missing=14
			13:[CAT_REL<0.219154] yes=27,no=28,missing=28
				27:[WORD_COUNT<2426] yes=55,no=56,missing=56
					55:[U_CAT_LEN<17] yes=111,no=112,missing=112
						111:[D_CATEGORY_MICRO_MEAN_COEC<0.0929903] yes=223,no=224,missing=223
							223:leaf=-0.0158334
							224:leaf=-0.0413857
						112:[D_TITLEMD5_COEC<0.107275] yes=225,no=226,missing=226
							225:leaf=0.0153535
							226:leaf=-0.00823536
					56:[CAT_REL<0.0310923] yes=113,no=114,missing=114
						113:[C_D_U_PUBLISHER_CITY_COEC<0.0982944] yes=227,no=228,missing=228
							227:leaf=-0.0299825
							228:leaf=-0.00115368
						114:[U_CAT_LEN<11] yes=229,no=230,missing=230
							229:leaf=-0.00549823
							230:leaf=0.0156769
				28:[WORD_COUNT<1578] yes=57,no=58,missing=58
					57:[U_CAT_LEN<15] yes=115,no=116,missing=116
						115:[CAT_REL<0.364899] yes=231,no=232,missing=232
							231:leaf=-0.0152833
							232:leaf=0.00112833
						116:[D_CATEGORY_MACRO_MAX_COEC<0.0960146] yes=233,no=234,missing=234
							233:leaf=0.0227385
							234:leaf=0.000959716
					58:[U_CAT_LEN<10] yes=117,no=118,missing=118
						117:[C_D_U_TITLEMD5_CATEGORY_MACRO_MAX_COEC<0.0513371] yes=235,no=236,missing=236
							235:leaf=-0.00447292
							236:leaf=0.0125656
						118:[D_CATEGORY_MACRO_MAX_COEC<0.0916623] yes=237,no=238,missing=238
							237:leaf=0.0305987
							238:leaf=0.00847295
			14:[CAT_REL<0.197317] yes=29,no=30,missing=30
				29:[KW_REL<0.000368331] yes=59,no=60,missing=60
					59:[D_KEYWORD_MACRO_MEAN_COEC<0.0806746] yes=119,no=120,missing=120
						119:[C_D_U_PUBLISHER_AGE_COEC<0.0900205] yes=239,no=240,missing=240
							239:leaf=-0.0621751
							240:leaf=-0.0178555
						120:[C_D_U_CATEGORY_AGE_MACRO_MAX_COEC<0.0865167] yes=241,no=242,missing=242
							241:leaf=0.0125203
							242:leaf=-0.013815
					60:[C_D_U_PUBLISHER_GENDER_COEC<0.071814] yes=121,no=122,missing=122
						121:[D_KEYWORD_MACRO_MEAN_COEC<0.0739498] yes=243,no=244,missing=244
							243:leaf=-0.0321284
							244:leaf=0.00409856
						122:[U_CAT_LEN<8] yes=245,no=246,missing=246
							245:leaf=0.00170596
							246:leaf=0.0263658
				30:[C_D_U_TITLEMD5_GENDER_COEC<0.0225347] yes=61,no=62,missing=61
					61:[U_CAT_LEN<16] yes=123,no=124,missing=124
						123:[CAT_REL<0.414194] yes=247,no=248,missing=248
							247:leaf=-0.0270645
							248:leaf=-0.00107911
						124:[KW_REL<0.00511654] yes=249,no=250,missing=250
							249:leaf=0.00594393
							250:leaf=0.0383052
					62:[U_CAT_LEN<11] yes=125,no=126,missing=126
						125:[C_D_U_TITLEMD5_CATEGORY_MACRO_MAX_COEC<0.0778717] yes=251,no=252,missing=252
							251:leaf=0.0158419
							252:leaf=0.0346046
						126:[C_D_U_TITLEMD5_CATEGORY_MACRO_MEAN_COEC<0.158294] yes=253,no=254,missing=254
							253:leaf=0.0364917
							254:leaf=0.054591
booster[11]:
0:[U_KW_LEN<200] yes=1,no=2,missing=1
	1:[D_TITLEMD5_COEC<0.0776838] yes=3,no=4,missing=3
		3:[D_TITLEMD5_COEC<0.0511422] yes=7,no=8,missing=8
			7:[C_D_U_CATEGORY_CITY_MACRO_MEAN_COEC<0.063393] yes=15,no=16,missing=16
				15:[D_PUBLISHER_COEC<0.0493568] yes=31,no=32,missing=31
					31:[U_KW_LEN<193] yes=63,no=64,missing=64
						63:[C_D_U_CATEGORY_GENDER_MACRO_MEAN_COEC<0.0631484] yes=127,no=128,missing=128
							127:leaf=-0.0627643
							128:leaf=-0.0904027
						64:[C_D_U_TITLEMD5_CATEGORY_MACRO_MAX_COEC<0.0279078] yes=129,no=130,missing=130
							129:leaf=-7.96478e-05
							130:leaf=0.222801
					32:[IMAGE_COUNT<2] yes=65,no=66,missing=66
						65:[TIME_OF_DAY<22] yes=131,no=132,missing=132
							131:leaf=-0.0511974
							132:leaf=0.0343109
						66:[WORD_COUNT<1133] yes=133,no=134,missing=134
							133:leaf=-0.091
							134:leaf=-0.0107453
				16:[C_D_U_TITLEMD5_CATEGORY_MACRO_MEAN_COEC<0.0440733] yes=33,no=34,missing=34
					33:[CAT_REL<0.666666] yes=67,no=68,missing=68
						67:[C_D_U_CATEGORY_CITY_MICRO_MAX_COEC<0.0947583] yes=135,no=136,missing=136
							135:leaf=-0.0512526
							136:leaf=-0.0218836
						68:[U_KW_LEN<41] yes=137,no=138,missing=138
							137:leaf=-0.0528556
							138:leaf=-0.00352773
					34:[C_D_U_PUBLISHER_CITY_COEC<0.136233] yes=69,no=70,missing=69
						69:[DAY_OF_WEEK<2] yes=139,no=140,missing=140
							139:leaf=-0.0393281
							140:leaf=-0.0215857
						70:[C_D_U_TITLEMD5_CATEGORY_MACRO_MAX_COEC<0.0246996] yes=141,no=142,missing=142
							141:leaf=-0.152667
							142:leaf=0.0244195
			8:[IMAGE_COUNT<2] yes=17,no=18,missing=18
				17:[C_D_U_TITLEMD5_CATEGORY_MACRO_MEAN_COEC<0.0639846] yes=35,no=36,missing=36
					35:[C_D_U_CATEGORY_GENDER_MICRO_MEAN_COEC<0.0618361] yes=71,no=72,missing=71
						71:[U_CAT_LEN<10] yes=143,no=144,missing=144
							143:leaf=-0.0619283
							144:leaf=0.159291
						72:[IMAGE_COUNT<0.999999] yes=145,no=146,missing=146
							145:leaf=-0.120627
							146:leaf=-0.0263147
					36:[U_KW_LEN<137] yes=73,no=74,missing=74
						73:[TIME_OF_DAY<18] yes=147,no=148,missing=148
							147:leaf=-0.0209089
							148:leaf=0.00313441
						74:[CAT_REL<0.297523] yes=149,no=150,missing=150
							149:leaf=-0.0143675
							150:leaf=0.0197681
				18:[KW_REL<0.000524362] yes=37,no=38,missing=38
					37:[D_PUBLISHER_COEC<0.0512498] yes=75,no=76,missing=75
						75:[C_D_U_PUBLISHER_GENDER_COEC<0.0825866] yes=151,no=152,missing=151
							151:leaf=-0.0860613
							152:leaf=0.185226
						76:[WORD_COUNT<5009] yes=153,no=154,missing=154
							153:leaf=-0.0132633
							154:leaf=0.0254941
					38:[D_CATEGORY_MICRO_MAX_COEC<0.0891593] yes=77,no=78,missing=78
						77:[U_KW_LEN<120] yes=155,no=156,missing=156
							155:leaf=0.016811
							156:leaf=0.0447627
						78:[C_D_U_CATEGORY_CITY_MICRO_MEAN_COEC<0.0842287] yes=157,no=158,missing=158
							157:leaf=-0.157358
							158:leaf=-0.000967138
		4:[C_D_U_TITLEMD5_GENDER_COEC<0.128948] yes=9,no=10,missing=9
			9:[C_D_U_TITLEMD5_CATEGORY_MACRO_MEAN_COEC<0.101604] yes=19,no=20,missing=19
				19:[U_KW_LEN<124] yes=39,no=40,missing=40
					39:[C_D_U_TITLEMD5_CATEGORY_MACRO_MEAN_COEC<0.0919146] yes=79,no=80,missing=80
						79:[IMAGE_COUNT<0.999999] yes=159,no=160,missing=160
							159:leaf=-0.119724
							160:leaf=-0.0178752
						80:[TIME_OF_DAY<17] yes=161,no=162,missing=162
							161:leaf=-0.00730885
							162:leaf=0.00827715
					40:[CAT_REL<0.079004] yes=81,no=82,missing=82
						81:[D_KEYWORD_MACRO_MEAN_COEC<0.0801553] yes=163,no=164,missing=164
							163:leaf=-0.0266065
							164:leaf=0.00996009
						82:[WORD_COUNT<2944] yes=165,no=166,missing=166
							165:leaf=0.00485548
							166:leaf=0.0240843
				20:[U_KW_LEN<36] yes=41,no=42,missing=42
					41:[C_D_U_CATEGORY_GENDER_MACRO_MEAN_COEC<0.0657821] yes=83,no=84,missing=84
						83:[TIME_OF_DAY<20] yes=167,no=168,missing=168
							167:leaf=-0.0377571
							168:leaf=0.0660926
						84:[CAT_REL<0.666666] yes=169,no=170,missing=170
							169:leaf=0.00458013
							170:leaf=-0.0175535
					42:[CAT_REL<0.240556] yes=85,no=86,missing=86
						85:[C_D_U_PUBLISHER_GENDER_COEC<0.107715] yes=171,no=172,missing=171
							171:leaf=0.000670408
							172:leaf=0.0233355
						86:[KW_REL<3.37905e-05] yes=173,no=174,missing=174
							173:leaf=0.00356777
							174:leaf=0.0226434
			10:[D_KEYWORD_MACRO_MAX_COEC<0.0321816] yes=21,no=22,missing=22
				21:[D_KEYWORD_MACRO_MEAN_COEC<0.0621364] yes=43,no=44,missing=44
					43:[C_D_U_CATEGORY_CITY_MACRO_MAX_COEC<0.0592184] yes=87,no=88,missing=87
						87:[C_D_U_CATEGORY_CITY_MICRO_MAX_COEC<0.0713215] yes=175,no=176,missing=176
							175:leaf=-0.0526641
							176:leaf=-0.17367
						88:[TIME_OF_DAY<2] yes=177,no=178,missing=178
							177:leaf=0.0473027
							178:leaf=-0.0164184
					44:[U_KW_LEN<98] yes=89,no=90,missing=90
						89:[U_AGE_2<0.999999] yes=179,no=180,missing=180
							179:leaf=-0.000739011
							180:leaf=0.0164482
						90:[KW_REL<0.000952583] yes=181,no=182,missing=182
							181:leaf=0.011647
							182:leaf=0.033392
				22:[C_D_U_TITLEMD5_CATEGORY_MACRO_MEAN_COEC<0.189859] yes=45,no=46,missing=45
					45:[WORD_COUNT<1278] yes=91,no=92,missing=92
						91:[CAT_REL<0.079004] yes=183,no=184,missing=184
							183:leaf=0.00762038
							184:leaf=0.0242458
						92:[C_D_U_TITLEMD5_CATEGORY_MICRO_MEAN_COEC<0.15988] yes=185,no=186,missing=186
							185:leaf=0.0195787
							186:leaf=0.0369686
					46:[KW_REL<8.11149e-06] yes=93,no=94,missing=94
						93:[C_D_U_TITLEMD5_GENDER_COEC<0.155334] yes=187,no=188,missing=188
							187:leaf=-0.0479065
							188:leaf=0.0322809
						94:[C_D_U_TITLEMD5_CATEGORY_MACRO_MEAN_COEC<0.238998] yes=189,no=190,missing=190
							189:leaf=0.0447559
							190:leaf=0.0610066
	2:[C_D_U_TITLEMD5_CATEGORY_MACRO_MEAN_COEC<0.0924562] yes=5,no=6,missing=6
		5:[C_D_U_TITLEMD5_CATEGORY_MACRO_MEAN_COEC<0.0603585] yes=11,no=12,missing=12
			11:[KW_REL<0.00118078] yes=23,no=24,missing=24
				23:[C_D_U_TITLEMD5_CATEGORY_MACRO_MEAN_COEC<0.0342485] yes=47,no=48,missing=48
					47:[D_PUBLISHER_COEC<0.0451468] yes=95,no=96,missing=96
						95:[C_D_U_TITLEMD5_GENDER_COEC<0.0226343] yes=191,no=192,missing=191
							191:leaf=-0.0852674
							192:leaf=-0.0623393
						96:[D_TITLEMD5_COEC<0.138568] yes=193,no=194,missing=194
							193:leaf=-0.0609801
							194:leaf=-0.0250436
					48:[CAT_REL<0.056062] yes=97,no=98,missing=98
						97:[C_D_U_CATEGORY_AGE_MICRO_MAX_COEC<0.109364] yes=195,no=196,missing=195
							195:leaf=-0.0569395
							196:leaf=0.0458962
						98:[D_CATEGORY_MICRO_MAX_COEC<0.0983997] yes=197,no=198,missing=198
							197:leaf=-0.0333918
							198:leaf=-0.0556538
				24:[CAT_REL<0.224648] yes=49,no=50,missing=50
					49:[C_D_U_TITLEMD5_CATEGORY_MICRO_MAX_COEC<0.0661956] yes=99,no=100,missing=100
						99:[D_KEYWORD_MACRO_MEAN_COEC<0.0900502] yes=199,no=200,missing=200
							199:leaf=-0.052689
							200:leaf=0.0607224
						100:[D_CATEGORY_MACRO_MAX_COEC<0.0553504] yes=201,no=202,missing=202
							201:leaf=-0.00451465
							202:leaf=-0.0330027
					50:[U_CAT_LEN<15] yes=101,no=102,missing=102
						101:[D_TITLEMD5_COEC<0.0376944] yes=203,no=204,missing=204
							203:leaf=-0.0396183
							204:leaf=-0.0207233
						102:[CAT_REL<0.669136] yes=205,no=206,missing=206
							205:leaf=-0.0117212
							206:leaf=0.0255345
			12:[KW_REL<0.000760026] yes=25,no=26,missing=26
				25:[CAT_REL<0.266603] yes=51,no=52,missing=52
					51:[WORD_COUNT<2949] yes=103,no=104,missing=104
						103:[D_PUBLISHER_COEC<0.0900528] yes=207,no=208,missing=208
							207:leaf=-0.0426383
							208:leaf=-0.0230234
						104:[CAT_REL<0.019192] yes=209,no=210,missing=210
							209:leaf=-0.0466606
							210:leaf=-0.015001
					52:[WORD_COUNT<4890] yes=105,no=106,missing=106
						105:[U_CAT_LEN<7] yes=211,no=212,missing=212
							211:leaf=-0.0430644
							212:leaf=-0.0115288
						106:[D_KEYWORD_MICRO_MAX_COEC<0.0832302] yes=213,no=214,missing=214
							213:leaf=0.0755973
							214:leaf=0.0128165
				26:[U_CAT_LEN<9] yes=53,no=54,missing=54
					53:[CAT_REL<0.278271] yes=107,no=108,missing=108
						107:[WORD_COUNT<1865] yes=215,no=216,missing=216
							215:leaf=-0.0422634
							216:leaf=-0.0270439
						108:[C_D_U_TITLEMD5_CATEGORY_MACRO_MAX_COEC<0.0545852] yes=217,no=218,missing=218
							217:leaf=-0.0161614
							218:leaf=0.00284463
					54:[D_TITLEMD5_COEC<0.0940432] yes=109,no=110,missing=110
						109:[C_D_U_TITLEMD5_CATEGORY_MACRO_MEAN_COEC<0.0737146] yes=219,no=220,missing=220
							219:leaf=-0.00704855
							220:leaf=0.0149304
						110:[WORD_COUNT<2982] yes=221,no=222,missing=222
							221:leaf=-0.0196347
							222:leaf=-0.00264162
		6:[C_D_U_TITLEMD5_CATEGORY_MACRO_MEAN_COEC<0.142006] yes=13,no=14,missing=14
			13:[KW_REL<0.00200016] yes=27,no=28,missing=28
				27:[D_KEYWORD_MACRO_MEAN_COEC<0.0612049] yes=55,no=56,missing=56
					55:[CAT_REL<0.098086] yes=111,no=112,missing=112
						111:[D_KEYWORD_MACRO_MEAN_COEC<0.0521987] yes=223,no=224,missing=224
							223:leaf=-0.125224
							224:leaf=-0.0724438
						112:[D_KEYWORD_MACRO_MEAN_COEC<0.0536538] yes=225,no=226,missing=226
							225:leaf=-0.059529
							226:leaf=-0.025834
					56:[U_CAT_LEN<16] yes=113,no=114,missing=114
						113:[CAT_REL<0.049925] yes=227,no=228,missing=228
							227:leaf=-0.0143712
							228:leaf=0.00440108
						114:[D_CATEGORY_MICRO_MEAN_COEC<0.0933691] yes=229,no=230,missing=230
							229:leaf=0.0280689
							230:leaf=0.0107517
				28:[CAT_REL<0.049925] yes=57,no=58,missing=58
					57:[WORD_COUNT<2091] yes=115,no=116,missing=116
						115:[D_PUBLISHER_COEC<0.0797787] yes=231,no=232,missing=232
							231:leaf=-0.0565739
							232:leaf=-0.0106566
						116:[D_KEYWORD_MACRO_MEAN_COEC<0.0646737] yes=233,no=234,missing=234
							233:leaf=-0.0454758
							234:leaf=0.014405
					58:[U_CAT_LEN<12] yes=117,no=118,missing=118
						117:[CAT_REL<0.322326] yes=235,no=236,missing=236
							235:leaf=0.00853261
							236:leaf=0.0235382
						118:[C_D_U_TITLEMD5_CATEGORY_MICRO_MAX_COEC<0.28082] yes=237,no=238,missing=238
							237:leaf=0.0328737
							238:leaf=-0.0183891
			14:[D_KEYWORD_MACRO_MEAN_COEC<0.0720933] yes=29,no=30,missing=30
				29:[KW_REL<0.00249417] yes=59,no=60,missing=60
					59:[C_D_U_TITLEMD5_GENDER_COEC<0.233656] yes=119,no=120,missing=119
						119:[CAT_REL<0.039482] yes=239,no=240,missing=240
							239:leaf=-0.0941533
							240:leaf=-0.0168051
						120:[DAY_OF_WEEK<2] yes=241,no=242,missing=242
							241:leaf=-0.0419883
							242:leaf=-0.0781028
					60:[C_D_U_TITLEMD5_CATEGORY_MICRO_MAX_COEC<0.266585] yes=121,no=122,missing=122
						121:[CAT_REL<0.039482] yes=243,no=244,missing=244
							243:leaf=-0.0749474
							244:leaf=0.0449274
						122:[KW_REL<0.00612653] yes=245,no=246,missing=246
							245:leaf=-0.0225935
							246:leaf=0.00706735
				30:[KW_REL<0.00057457] yes=61,no=62,missing=62
					61:[C_D_U_TITLEMD5_CATEGORY_MACRO_MEAN_COEC<0.186014] yes=123,no=124,missing=124
						123:[CAT_REL<0.3057] yes=247,no=248,missing=248
							247:leaf=0.00674935
							248:leaf=0.0248415
						124:[D_KEYWORD_MICRO_MEAN_COEC<0.0874011] yes=249,no=250,missing=250
							249:leaf=-0.029017
							250:leaf=0.0368247
					62:[U_CAT_LEN<9] yes=125,no=126,missing=126
						125:[CAT_REL<0.45786] yes=251,no=252,missing=252
							251:leaf=0.0202422
							252:leaf=0.0414746
						126:[CAT_REL<0.371012] yes=253,no=254,missing=254
							253:leaf=0.0393008
							254:leaf=0.0556642
booster[12]:
0:[U_KW_LEN<200] yes=1,no=2,missing=1
	1:[D_TITLEMD5_COEC<0.0793751] yes=3,no=4,missing=3
		3:[C_D_U_TITLEMD5_CATEGORY_MACRO_MEAN_COEC<0.0437638] yes=7,no=8,missing=8
			7:[D_KEYWORD_MACRO_MEAN_COEC<0.0486764] yes=15,no=16,missing=16
				15:[C_D_U_TITLEMD5_CATEGORY_MICRO_MAX_COEC<0.028257] yes=31,no=32,missing=32
					31:[D_KEYWORD_MACRO_MEAN_COEC<0.0352629] yes=63,no=64,missing=64
						63:[U_CAT_LEN<4] yes=127,no=128,missing=128
							127:leaf=-0.0854277
							128:leaf=-0.0603294
						64:[C_D_U_TITLEMD5_GENDER_COEC<0.0409851] yes=129,no=130,missing=129
							129:leaf=-0.0540939
							130:leaf=-0.127936
					32:[C_D_U_CATEGORY_CITY_MACRO_MEAN_COEC<0.0180082] yes=65,no=66,missing=65
						65:[C_D_U_PUBLISHER_CITY_COEC<3.62634] yes=131,no=132,missing=132
							131:leaf=0.0234404
							132:leaf=-0.121824
						66:[C_D_U_CATEGORY_CITY_MICRO_MEAN_COEC<0.0995959] yes=133,no=134,missing=134
							133:leaf=-0.0491929
							134:leaf=0.01112
				16:[CAT_REL<0.264943] yes=33,no=34,missing=34
					33:[U_KW_LEN<188] yes=67,no=68,missing=68
						67:[IMAGE_COUNT<2] yes=135,no=136,missing=136
							135:leaf=-0.0505315
							136:leaf=-0.0220053
						68:[U_GENDER<4] yes=137,no=138,missing=138
							137:leaf=-0.0468973
							138:leaf=0.00929724
					34:[U_KW_LEN<42] yes=69,no=70,missing=70
						69:[D_CATEGORY_MACRO_MAX_COEC<0.0723466] yes=139,no=140,missing=140
							139:leaf=-0.0279719
							140:leaf=-0.0620317
						70:[C_D_U_CATEGORY_CITY_MICRO_MEAN_COEC<0.0936147] yes=141,no=142,missing=142
							141:leaf=-0.021905
							142:leaf=0.0192372
			8:[C_D_U_CATEGORY_CITY_MACRO_MEAN_COEC<0.0576613] yes=17,no=18,missing=18
				17:[C_D_U_TITLEMD5_GENDER_COEC<0.0206443] yes=35,no=36,missing=36
					35:[D_KEYWORD_MICRO_MEAN_COEC<0.103032] yes=71,no=72,missing=72
						71:[DAY_OF_WEEK<4] yes=143,no=144,missing=144
							143:leaf=-0.0459682
							144:leaf=-0.0774407
						72:[D_PUBLISHER_COEC<0.073632] yes=145,no=146,missing=146
							145:leaf=-0.130578
							146:leaf=0.147925
					36:[D_PUBLISHER_COEC<0.0921023] yes=73,no=74,missing=74
						73:[DAY_OF_WEEK<3] yes=147,no=148,missing=148
							147:leaf=-0.00996385
							148:leaf=-0.034335
						74:[C_D_U_TITLEMD5_CATEGORY_MICRO_MEAN_COEC<0.0738563] yes=149,no=150,missing=150
							149:leaf=-0.0218592
							150:leaf=-0.0678145
				18:[U_KW_LEN<124] yes=37,no=38,missing=38
					37:[WORD_COUNT<3020] yes=75,no=76,missing=76
						75:[D_CATEGORY_MICRO_MEAN_COEC<0.0564428] yes=151,no=152,missing=151
							151:leaf=0.0447553
							152:leaf=-0.0229718
						76:[TIME_OF_DAY<17] yes=153,no=154,missing=154
							153:leaf=-0.0155153
							154:leaf=0.0149806
					38:[CAT_REL<0.369519] yes=77,no=78,missing=78
						77:[C_D_U_PUBLISHER_CITY_COEC<0.0679773] yes=155,no=156,missing=155
							155:leaf=-0.0240715
							156:leaf=-0.00157555
						78:[WORD_COUNT<1804] yes=157,no=158,missing=158
							157:leaf=-0.00430961
							158:leaf=0.0246289
		4:[C_D_U_TITLEMD5_GENDER_COEC<0.121367] yes=9,no=10,missing=9
			9:[U_KW_LEN<125] yes=19,no=20,missing=20
				19:[D_KEYWORD_MICRO_MEAN_COEC<0.0782991] yes=39,no=40,missing=40
					39:[C_D_U_TITLEMD5_CATEGORY_MACRO_MEAN_COEC<0.0786373] yes=79,no=80,missing=80
						79:[U_KW_LEN<110] yes=159,no=160,missing=160
							159:leaf=-0.0319976
							160:leaf=-0.0776578
						80:[IMAGE_COUNT<2] yes=161,no=162,missing=162
							161:leaf=-0.012641
							162:leaf=0.0156087
					40:[WORD_COUNT<2198] yes=81,no=82,missing=82
						81:[TIME_OF_DAY<13] yes=163,no=164,missing=164
							163:leaf=0.00119344
							164:leaf=-0.012555
						82:[C_D_U_PUBLISHER_CITY_COEC<0.0980993] yes=165,no=166,missing=165
							165:leaf=0.00250038
							166:leaf=0.0196632
				20:[CAT_REL<0.078405] yes=41,no=42,missing=42
					41:[D_KEYWORD_MACRO_MEAN_COEC<0.0782443] yes=83,no=84,missing=84
						83:[IMAGE_COUNT<3] yes=167,no=168,missing=168
							167:leaf=-0.0281399
							168:leaf=0.0249912
						84:[C_D_U_CATEGORY_CITY_MICRO_MAX_COEC<0.0693347] yes=169,no=170,missing=170
							169:leaf=-0.0158854
							170:leaf=0.0135742
					42:[C_D_U_TITLEMD5_CATEGORY_MACRO_MEAN_COEC<0.102038] yes=85,no=86,missing=86
						85:[D_CATEGORY_MICRO_MEAN_COEC<0.0650175] yes=171,no=172,missing=172
							171:leaf=0.0315454
							172:leaf=0.00707981
						86:[C_D_U_TITLEMD5_GENDER_COEC<0.0817777] yes=173,no=174,missing=173
							173:leaf=0.00486362
							174:leaf=0.0264247
			10:[C_D_U_TITLEMD5_CATEGORY_MACRO_MEAN_COEC<0.133764] yes=21,no=22,missing=22
				21:[C_D_U_CATEGORY_CITY_MICRO_MEAN_COEC<0.061015] yes=43,no=44,missing=44
					43:[D_KEYWORD_MACRO_MAX_COEC<0.0300493] yes=87,no=88,missing=88
						87:[KW_REL<0.00054337] yes=175,no=176,missing=176
							175:leaf=-0.0584121
							176:leaf=-0.0207538
						88:[D_PUBLISHER_COEC<0.0952272] yes=177,no=178,missing=178
							177:leaf=-0.0415747
							178:leaf=0.0268558
					44:[U_AGE_2<0.999999] yes=89,no=90,missing=90
						89:[U_KW_LEN<97] yes=179,no=180,missing=180
							179:leaf=-0.010422
							180:leaf=0.00727764
						90:[D_PUBLISHER_COEC<0.0542423] yes=181,no=182,missing=182
							181:leaf=-0.0398262
							182:leaf=0.0168722
				22:[D_KEYWORD_MACRO_MAX_COEC<0.0331137] yes=45,no=46,missing=46
					45:[TIME_OF_DAY<17] yes=91,no=92,missing=92
						91:[D_PUBLISHER_COEC<0.0560206] yes=183,no=184,missing=184
							183:leaf=-0.0410545
							184:leaf=0.013135
						92:[D_KEYWORD_MACRO_MAX_COEC<0.0174869] yes=185,no=186,missing=186
							185:leaf=0.0103628
							186:leaf=0.0379208
					46:[WORD_COUNT<1359] yes=93,no=94,missing=94
						93:[CAT_REL<0.102069] yes=187,no=188,missing=188
							187:leaf=0.0120983
							188:leaf=0.0300273
						94:[U_AGE_2<0.999999] yes=189,no=190,missing=190
							189:leaf=0.0294178
							190:leaf=0.04361
	2:[C_D_U_TITLEMD5_CATEGORY_MACRO_MEAN_COEC<0.0767718] yes=5,no=6,missing=6
		5:[C_D_U_TITLEMD5_CATEGORY_MACRO_MEAN_COEC<0.0477552] yes=11,no=12,missing=12
			11:[KW_REL<0.00472987] yes=23,no=24,missing=24
				23:[D_PUBLISHER_COEC<0.022532] yes=47,no=48,missing=48
					47:[C_D_U_CATEGORY_CITY_MACRO_MAX_COEC<0.13164] yes=95,no=96,missing=96
						95:[D_KEYWORD_MICRO_MEAN_COEC<0.122896] yes=191,no=192,missing=192
							191:leaf=-0.0829352
							192:leaf=0.0814377
						96:[KW_REL<0.00103987] yes=193,no=194,missing=194
							193:leaf=-0.0528157
							194:leaf=0.0539256
					48:[D_TITLEMD5_COEC<0.110713] yes=97,no=98,missing=98
						97:[C_D_U_TITLEMD5_CATEGORY_MACRO_MEAN_COEC<0.0328078] yes=195,no=196,missing=196
							195:leaf=-0.0541388
							196:leaf=-0.0358961
						98:[D_KEYWORD_MACRO_MEAN_COEC<0.0733558] yes=197,no=198,missing=198
							197:leaf=-0.0292955
							198:leaf=0.0361116
				24:[C_D_U_TITLEMD5_AGE_COEC<0.0902697] yes=49,no=50,missing=50
					49:[CAT_REL<0.507831] yes=99,no=100,missing=100
						99:[U_CAT_LEN<10] yes=199,no=200,missing=200
							199:leaf=-0.0582201
							200:leaf=-0.0285095
						100:[C_D_U_CATEGORY_CITY_MACRO_MEAN_COEC<0.0814024] yes=201,no=202,missing=202
							201:leaf=-0.0249267
							202:leaf=0.0175375
					50:[D_KEYWORD_MICRO_MEAN_COEC<0.0990916] yes=101,no=102,missing=102
						101:[CAT_REL<0.374616] yes=203,no=204,missing=204
							203:leaf=-0.0143165
							204:leaf=0.0119587
						102:[C_D_U_PUBLISHER_CITY_COEC<0.0731886] yes=205,no=206,missing=206
							205:leaf=0.0361327
							206:leaf=0.104689
			12:[CAT_REL<0.090489] yes=25,no=26,missing=26
				25:[C_D_U_TITLEMD5_CATEGORY_MACRO_MAX_COEC<0.0317443] yes=51,no=52,missing=52
					51:[C_D_U_TITLEMD5_CATEGORY_MACRO_MEAN_COEC<0.0651739] yes=103,no=104,missing=104
						103:[D_CATEGORY_MICRO_MAX_COEC<0.0639097] yes=207,no=208,missing=207
							207:leaf=-0.0174728
							208:leaf=-0.0394399
						104:[WORD_COUNT<2367] yes=209,no=210,missing=210
							209:leaf=-0.0266652
							210:leaf=-0.00479646
					52:[C_D_U_CATEGORY_GENDER_MACRO_MAX_COEC<0.0735697] yes=105,no=106,missing=106
						105:[D_CATEGORY_MICRO_MAX_COEC<0.0646427] yes=211,no=212,missing=212
							211:leaf=-0.0310972
							212:leaf=-0.0634178
						106:[D_CATEGORY_MACRO_MAX_COEC<0.106439] yes=213,no=214,missing=214
							213:leaf=-0.0372072
							214:leaf=0.0347152
				26:[U_CAT_LEN<16] yes=53,no=54,missing=54
					53:[WORD_COUNT<1274] yes=107,no=108,missing=108
						107:[KW_REL<0.000275138] yes=215,no=216,missing=216
							215:leaf=-0.0496649
							216:leaf=-0.0280841
						108:[CAT_REL<0.361545] yes=217,no=218,missing=218
							217:leaf=-0.0181601
							218:leaf=-0.00168519
					54:[WORD_COUNT<1320] yes=109,no=110,missing=110
						109:[CAT_REL<0.304453] yes=219,no=220,missing=220
							219:leaf=-0.0258264
							220:leaf=-0.00518388
						110:[D_CATEGORY_MICRO_MEAN_COEC<0.0959412] yes=221,no=222,missing=222
							221:leaf=0.00990768
							222:leaf=-0.0151749
		6:[C_D_U_TITLEMD5_CATEGORY_MACRO_MEAN_COEC<0.121283] yes=13,no=14,missing=14
			13:[KW_REL<0.00268525] yes=27,no=28,missing=28
				27:[U_CAT_LEN<9] yes=55,no=56,missing=56
					55:[CAT_REL<0.278305] yes=111,no=112,missing=112
						111:[WORD_COUNT<2699] yes=223,no=224,missing=224
							223:leaf=-0.0300741
							224:leaf=-0.00956908
						112:[U_CAT_LEN<7] yes=225,no=226,missing=226
							225:leaf=-0.0174586
							226:leaf=-5.40513e-05
					56:[CAT_REL<0.0276402] yes=113,no=114,missing=114
						113:[D_KEYWORD_MICRO_MEAN_COEC<0.0865695] yes=227,no=228,missing=228
							227:leaf=-0.0454922
							228:leaf=-0.00706473
						114:[D_CATEGORY_MICRO_MEAN_COEC<0.0926183] yes=229,no=230,missing=230
							229:leaf=0.00794703
							230:leaf=-0.00815817
				28:[U_CAT_LEN<17] yes=57,no=58,missing=58
					57:[CAT_REL<0.294165] yes=115,no=116,missing=116
						115:[C_D_U_PUBLISHER_GENDER_COEC<0.0775846] yes=231,no=232,missing=232
							231:leaf=-0.00851537
							232:leaf=0.00887313
						116:[WORD_COUNT<1463] yes=233,no=234,missing=234
							233:leaf=0.00697776
							234:leaf=0.023426
					58:[D_TITLEMD5_COEC<0.124452] yes=117,no=118,missing=118
						117:[C_D_U_TITLEMD5_CATEGORY_MACRO_MEAN_COEC<0.101234] yes=235,no=236,missing=236
							235:leaf=0.0273343
							236:leaf=0.0508642
						118:[C_D_U_TITLEMD5_CATEGORY_MACRO_MEAN_COEC<0.105611] yes=237,no=238,missing=238
							237:leaf=-0.0200279
							238:leaf=0.018673
			14:[KW_REL<0.00107588] yes=29,no=30,missing=30
				29:[D_KEYWORD_MACRO_MEAN_COEC<0.0768035] yes=59,no=60,missing=60
					59:[C_D_U_TITLEMD5_CATEGORY_MICRO_MAX_COEC<0.231955] yes=119,no=120,missing=120
						119:[CAT_REL<0.055865] yes=239,no=240,missing=240
							239:leaf=-0.0600259
							240:leaf=0.00537968
						120:[C_D_U_TITLEMD5_GENDER_COEC<0.213814] yes=241,no=242,missing=241
							241:leaf=-0.0424126
							242:leaf=-0.0772042
					60:[C_D_U_TITLEMD5_CATEGORY_MACRO_MEAN_COEC<0.17612] yes=121,no=122,missing=122
						121:[U_CAT_LEN<14] yes=243,no=244,missing=244
							243:leaf=0.00541407
							244:leaf=0.0247386
						122:[D_PUBLISHER_COEC<0.0697548] yes=245,no=246,missing=246
							245:leaf=-0.0270338
							246:leaf=0.0351706
				30:[D_KEYWORD_MACRO_MEAN_COEC<0.0639786] yes=61,no=62,missing=62
					61:[KW_REL<0.00472987] yes=123,no=124,missing=124
						123:[D_KEYWORD_MACRO_MEAN_COEC<0.0523831] yes=247,no=248,missing=248
							247:leaf=-0.0598908
							248:leaf=-0.0162081
						124:[C_D_U_TITLEMD5_CATEGORY_MICRO_MAX_COEC<0.265125] yes=249,no=250,missing=250
							249:leaf=0.0279847
							250:leaf=-0.00187297
					62:[CAT_REL<0.062471] yes=125,no=126,missing=126
						125:[D_KEYWORD_MACRO_MEAN_COEC<0.0839884] yes=251,no=252,missing=252
							251:leaf=-0.0161535
							252:leaf=0.0193913
						126:[U_CAT_LEN<11] yes=253,no=254,missing=254
							253:leaf=0.0277895
							254:leaf=0.0420383
booster[13]:
0:[U_KW_LEN<200] yes=1,no=2,missing=1
	1:[C_D_U_TITLEMD5_GENDER_COEC<0.0815233] yes=3,no=4,missing=3
		3:[D_TITLEMD5_COEC<0.05047] yes=7,no=8,missing=8
			7:[D_TITLEMD5_COEC<0.0354671] yes=15,no=16,missing=16
				15:[D_KEYWORD_MACRO_MEAN_COEC<0.0605471] yes=31,no=32,missing=32
					31:[TIME_OF_DAY<10] yes=63,no=64,missing=64
						63:[DAY_OF_WEEK<5] yes=127,no=128,missing=128
							127:leaf=-0.025514
							128:leaf=-0.0550388
						64:[C_D_U_PUBLISHER_CITY_COEC<0.0897581] yes=129,no=130,missing=130
							129:leaf=-0.0548822
							130:leaf=-0.0322473
					32:[TIME_OF_DAY<13] yes=65,no=66,missing=66
						65:[C_D_U_CATEGORY_CITY_MICRO_MAX_COEC<0.0959763] yes=131,no=132,missing=132
							131:leaf=-0.0188443
							132:leaf=0.0256651
						66:[D_KEYWORD_MICRO_MEAN_COEC<0.137852] yes=133,no=134,missing=134
							133:leaf=-0.0437184
							134:leaf=0.161653
				16:[C_D_U_TITLEMD5_GENDER_COEC<0.0548055] yes=33,no=34,missing=34
					33:[C_D_U_CATEGORY_CITY_MICRO_MAX_COEC<0.0635644] yes=67,no=68,missing=67
						67:[TIME_OF_DAY<2] yes=135,no=136,missing=136
							135:leaf=0.0426741
							136:leaf=-0.0419117
						68:[C_D_U_TITLEMD5_CATEGORY_MICRO_MAX_COEC<0.0666179] yes=137,no=138,missing=138
							137:leaf=-0.0268228
							138:leaf=-0.00993672
					34:[D_KEYWORD_MICRO_MAX_COEC<0.121467] yes=69,no=70,missing=70
						69:[C_D_U_PUBLISHER_CITY_COEC<0.101071] yes=139,no=140,missing=139
							139:leaf=-0.0421269
							140:leaf=0.00788842
						70:[C_D_U_CATEGORY_CITY_MACRO_MAX_COEC<0.0643608] yes=141,no=142,missing=142
							141:leaf=-0.0104754
							142:leaf=-0.101778
			8:[C_D_U_TITLEMD5_CATEGORY_MACRO_MEAN_COEC<0.065325] yes=17,no=18,missing=18
				17:[CAT_REL<0.538393] yes=35,no=36,missing=36
					35:[C_D_U_CATEGORY_CITY_MACRO_MEAN_COEC<0.0741891] yes=71,no=72,missing=72
						71:[C_D_U_PUBLISHER_GENDER_COEC<0.0601869] yes=143,no=144,missing=143
							143:leaf=-0.0486122
							144:leaf=-0.0284078
						72:[C_D_U_CATEGORY_CITY_MACRO_MEAN_COEC<0.120548] yes=145,no=146,missing=145
							145:leaf=-0.020216
							146:leaf=0.0302709
					36:[U_KW_LEN<93] yes=73,no=74,missing=74
						73:[WORD_COUNT<2325] yes=147,no=148,missing=148
							147:leaf=-0.0369858
							148:leaf=0.00514533
						74:[D_CATEGORY_MICRO_MEAN_COEC<0.104572] yes=149,no=150,missing=150
							149:leaf=0.0259033
							150:leaf=-0.158215
				18:[U_KW_LEN<114] yes=37,no=38,missing=38
					37:[IMAGE_COUNT<2] yes=75,no=76,missing=76
						75:[C_D_U_CATEGORY_GENDER_MICRO_MAX_COEC<0.0654684] yes=151,no=152,missing=152
							151:leaf=-0.02337
							152:leaf=-0.0122192
						76:[WORD_COUNT<6027] yes=153,no=154,missing=154
							153:leaf=-0.00366092
							154:leaf=0.0373982
					38:[CAT_REL<0.199999] yes=77,no=78,missing=78
						77:[C_D_U_TITLEMD5_CATEGORY_MACRO_MAX_COEC<0.0352398] yes=155,no=156,missing=156
							155:leaf=0.00228222
							156:leaf=-0.0250833
						78:[C_D_U_PUBLISHER_GENDER_COEC<0.0897983] yes=157,no=158,missing=157
							157:leaf=0.00432238
							158:leaf=0.0322103
		4:[C_D_U_TITLEMD5_CATEGORY_MACRO_MEAN_COEC<0.131179] yes=9,no=10,missing=9
			9:[U_GENDER<2] yes=19,no=20,missing=19
				19:[C_D_U_TITLEMD5_CATEGORY_MACRO_MEAN_COEC<0.0884483] yes=39,no=40,missing=40
					39:[C_D_U_TITLEMD5_CATEGORY_MACRO_MEAN_COEC<0.0697319] yes=79,no=80,missing=80
						79:[D_KEYWORD_MACRO_MEAN_COEC<0.0509504] yes=159,no=160,missing=160
							159:leaf=-0.0801326
							160:leaf=-0.0243277
						80:[U_KW_LEN<123] yes=161,no=162,missing=162
							161:leaf=-0.016784
							162:leaf=0.00252539
					40:[D_TITLEMD5_COEC<0.163111] yes=81,no=82,missing=82
						81:[U_KW_LEN<92] yes=163,no=164,missing=164
							163:leaf=-0.0021496
							164:leaf=0.0108051
						82:[C_D_U_PUBLISHER_GENDER_COEC<0.0752505] yes=165,no=166,missing=166
							165:leaf=-0.0282423
							166:leaf=0.0235214
				20:[C_D_U_CATEGORY_GENDER_MICRO_MEAN_COEC<0.0779924] yes=41,no=42,missing=42
					41:[C_D_U_TITLEMD5_CATEGORY_MACRO_MEAN_COEC<0.110495] yes=83,no=84,missing=84
						83:[D_KEYWORD_MICRO_MEAN_COEC<0.111338] yes=167,no=168,missing=168
							167:leaf=-0.0132738
							168:leaf=0.0666494
						84:[TIME_OF_DAY<11] yes=169,no=170,missing=170
							169:leaf=0.0344104
							170:leaf=0.00942881
					42:[WORD_COUNT<1145] yes=85,no=86,missing=86
						85:[D_TITLEMD5_COEC<0.173312] yes=171,no=172,missing=172
							171:leaf=0.00826282
							172:leaf=0.0553106
						86:[TIME_OF_DAY<18] yes=173,no=174,missing=174
							173:leaf=0.0321211
							174:leaf=0.0608681
			10:[U_KW_LEN<41] yes=21,no=22,missing=22
				21:[U_GENDER<2] yes=43,no=44,missing=43
					43:[C_D_U_PUBLISHER_CITY_COEC<0.0969368] yes=87,no=88,missing=87
						87:[C_D_U_CATEGORY_GENDER_MACRO_MEAN_COEC<0.0612718] yes=175,no=176,missing=175
							175:leaf=-0.0640146
							176:leaf=-0.00520979
						88:[C_D_U_TITLEMD5_CATEGORY_MICRO_MEAN_COEC<0.200774] yes=177,no=178,missing=178
							177:leaf=0.00576245
							178:leaf=0.0242977
					44:[C_D_U_CATEGORY_GENDER_MACRO_MAX_COEC<0.0809441] yes=89,no=90,missing=90
						89:[WORD_COUNT<3737] yes=179,no=180,missing=180
							179:leaf=0.0217569
							180:leaf=-0.200241
						90:[C_D_U_CATEGORY_CITY_MACRO_MAX_COEC<0.0346767] yes=181,no=182,missing=182
							181:leaf=-0.104754
							182:leaf=0.0512622
				22:[D_KEYWORD_MACRO_MEAN_COEC<0.0710894] yes=45,no=46,missing=46
					45:[CAT_REL<0.355301] yes=91,no=92,missing=92
						91:[D_PUBLISHER_COEC<0.0658322] yes=183,no=184,missing=184
							183:leaf=-0.0533017
							184:leaf=-0.00879352
						92:[KW_REL<0.000367533] yes=185,no=186,missing=186
							185:leaf=-0.0327069
							186:leaf=0.0257608
					46:[KW_REL<0.000367533] yes=93,no=94,missing=94
						93:[C_D_U_TITLEMD5_CATEGORY_MACRO_MEAN_COEC<0.18762] yes=187,no=188,missing=188
							187:leaf=0.0151379
							188:leaf=0.0314722
						94:[CAT_REL<0.218627] yes=189,no=190,missing=190
							189:leaf=0.0264839
							190:leaf=0.0396324
	2:[C_D_U_TITLEMD5_CATEGORY_MACRO_MEAN_COEC<0.095337] yes=5,no=6,missing=6
		5:[C_D_U_TITLEMD5_CATEGORY_MACRO_MEAN_COEC<0.0577454] yes=11,no=12,missing=12
			11:[CAT_REL<0.069615] yes=23,no=24,missing=24
				23:[C_D_U_TITLEMD5_CATEGORY_MICRO_MAX_COEC<0.0582892] yes=47,no=48,missing=48
					47:[D_KEYWORD_MACRO_MEAN_COEC<0.0872897] yes=95,no=96,missing=96
						95:[C_D_U_PUBLISHER_AGE_COEC<0.0981492] yes=191,no=192,missing=192
							191:leaf=-0.0702159
							192:leaf=-0.0310447
						96:[TIME_OF_DAY<11] yes=193,no=194,missing=194
							193:leaf=0.101113
							194:leaf=-0.0444156
					48:[D_CATEGORY_MICRO_MEAN_COEC<0.0641472] yes=97,no=98,missing=97
						97:[CAT_REL<0.026698] yes=195,no=196,missing=196
							195:leaf=-0.0494096
							196:leaf=-0.0183494
						98:[C_D_U_CATEGORY_CITY_MACRO_MAX_COEC<0.0773706] yes=197,no=198,missing=198
							197:leaf=-0.0590494
							198:leaf=-0.0360318
				24:[U_CAT_LEN<11] yes=49,no=50,missing=50
					49:[CAT_REL<0.488518] yes=99,no=100,missing=100
						99:[C_D_U_TITLEMD5_CATEGORY_MACRO_MEAN_COEC<0.0329747] yes=199,no=200,missing=200
							199:leaf=-0.0564704
							200:leaf=-0.036906
						100:[KW_REL<0.00800197] yes=201,no=202,missing=202
							201:leaf=-0.0308474
							202:leaf=-0.000523847
					50:[KW_REL<0.00157249] yes=101,no=102,missing=102
						101:[C_D_U_TITLEMD5_CATEGORY_MACRO_MEAN_COEC<0.0329747] yes=203,no=204,missing=204
							203:leaf=-0.0453896
							204:leaf=-0.0251227
						102:[D_CATEGORY_MICRO_MAX_COEC<0.0399735] yes=205,no=206,missing=206
							205:leaf=0.0630817
							206:leaf=-0.0175998
			12:[CAT_REL<0.22034] yes=25,no=26,missing=26
				25:[WORD_COUNT<1634] yes=51,no=52,missing=52
					51:[C_D_U_CATEGORY_AGE_MICRO_MEAN_COEC<0.0831179] yes=103,no=104,missing=104
						103:[CAT_REL<0.035778] yes=207,no=208,missing=208
							207:leaf=-0.0425928
							208:leaf=-0.0155979
						104:[D_KEYWORD_MICRO_MAX_COEC<0.237555] yes=209,no=210,missing=210
							209:leaf=-0.0398348
							210:leaf=0.0460601
					52:[U_CAT_LEN<11] yes=105,no=106,missing=106
						105:[U_CAT_LEN<8] yes=211,no=212,missing=212
							211:leaf=-0.032179
							212:leaf=-0.0168766
						106:[CAT_REL<0.035778] yes=213,no=214,missing=214
							213:leaf=-0.0268713
							214:leaf=-0.00144459
				26:[U_CAT_LEN<15] yes=53,no=54,missing=54
					53:[WORD_COUNT<1408] yes=107,no=108,missing=108
						107:[D_CATEGORY_MACRO_MAX_COEC<0.0967279] yes=215,no=216,missing=216
							215:leaf=-0.0121676
							216:leaf=-0.0282643
						108:[U_CAT_LEN<8] yes=217,no=218,missing=218
							217:leaf=-0.0151309
							218:leaf=0.00428639
					54:[D_KEYWORD_MACRO_MEAN_COEC<0.0827945] yes=109,no=110,missing=110
						109:[WORD_COUNT<2693] yes=219,no=220,missing=220
							219:leaf=0.0128599
							220:leaf=0.0317534
						110:[D_CATEGORY_MICRO_MEAN_COEC<0.0957253] yes=221,no=222,missing=222
							221:leaf=0.00720203
							222:leaf=-0.0124079
		6:[CAT_REL<0.361357] yes=13,no=14,missing=14
			13:[U_CAT_LEN<16] yes=27,no=28,missing=28
				27:[C_D_U_PUBLISHER_GENDER_COEC<0.0720189] yes=55,no=56,missing=56
					55:[C_D_U_TITLEMD5_CATEGORY_MICRO_MAX_COEC<0.214274] yes=111,no=112,missing=112
						111:[CAT_REL<0.097807] yes=223,no=224,missing=224
							223:leaf=-0.0276291
							224:leaf=0.0033073
						112:[D_PUBLISHER_COEC<0.0629166] yes=225,no=226,missing=226
							225:leaf=-0.0466118
							226:leaf=-0.013395
					56:[C_D_U_TITLEMD5_CATEGORY_MACRO_MEAN_COEC<0.158664] yes=113,no=114,missing=114
						113:[D_CATEGORY_MICRO_MEAN_COEC<0.0936347] yes=227,no=228,missing=227
							227:leaf=0.0116371
							228:leaf=-0.00978299
						114:[U_CAT_LEN<8] yes=229,no=230,missing=230
							229:leaf=0.00862514
							230:leaf=0.0295069
				28:[C_D_U_TITLEMD5_CATEGORY_MACRO_MEAN_COEC<0.132836] yes=57,no=58,missing=58
					57:[D_TITLEMD5_COEC<0.120171] yes=115,no=116,missing=116
						115:[WORD_COUNT<1578] yes=231,no=232,missing=232
							231:leaf=0.0213822
							232:leaf=0.0408054
						116:[C_D_U_TITLEMD5_CATEGORY_MACRO_MEAN_COEC<0.108143] yes=233,no=234,missing=234
							233:leaf=-0.0107731
							234:leaf=0.0188653
					58:[D_PUBLISHER_COEC<0.0569041] yes=117,no=118,missing=118
						117:[KW_REL<0.00133558] yes=235,no=236,missing=236
							235:leaf=-0.058079
							236:leaf=-0.00322689
						118:[C_D_U_TITLEMD5_GENDER_COEC<0.296997] yes=237,no=238,missing=238
							237:leaf=0.0397433
							238:leaf=0.00592342
			14:[U_CAT_LEN<8] yes=29,no=30,missing=30
				29:[C_D_U_TITLEMD5_CATEGORY_MACRO_MAX_COEC<0.0750491] yes=59,no=60,missing=60
					59:[U_CAT_LEN<6] yes=119,no=120,missing=120
						119:[C_D_U_CATEGORY_AGE_MICRO_MEAN_COEC<0.0948179] yes=239,no=240,missing=240
							239:leaf=-0.00637365
							240:leaf=-0.0339175
						120:[WORD_COUNT<1450] yes=241,no=242,missing=242
							241:leaf=-0.00617509
							242:leaf=0.0136844
					60:[C_D_U_TITLEMD5_AGE_COEC<0.0229364] yes=121,no=122,missing=121
						121:[C_D_U_PUBLISHER_AGE_COEC<0.0582824] yes=243,no=244,missing=243
							243:leaf=-0.0571154
							244:leaf=-0.0140511
						122:[KW_REL<0.00166116] yes=245,no=246,missing=246
							245:leaf=0.00988325
							246:leaf=0.0283263
				30:[C_D_U_TITLEMD5_CATEGORY_MACRO_MEAN_COEC<0.145363] yes=61,no=62,missing=62
					61:[C_D_U_TITLEMD5_AGE_COEC<0.191901] yes=123,no=124,missing=124
						123:[WORD_COUNT<1219] yes=247,no=248,missing=248
							247:leaf=0.0175383
							248:leaf=0.0322576
						124:[D_PUBLISHER_COEC<0.0624708] yes=249,no=250,missing=250
							249:leaf=-0.0531148
							250:leaf=-0.00354093
					62:[D_PUBLISHER_COEC<0.0611842] yes=125,no=126,missing=126
						125:[KW_REL<0.00247656] yes=251,no=252,missing=252
							251:leaf=-0.0241204
							252:leaf=0.0201705
						126:[C_D_U_TITLEMD5_AGE_COEC<0.0794301] yes=253,no=254,missing=253
							253:leaf=0.0123503
							254:leaf=0.0468585
booster[14]:
0:[U_KW_LEN<200] yes=1,no=2,missing=1
	1:[D_TITLEMD5_COEC<0.0794086] yes=3,no=4,missing=3
		3:[D_TITLEMD5_COEC<0.0364483] yes=7,no=8,missing=8
			7:[KW_REL<0.00601737] yes=15,no=16,missing=16
				15:[D_KEYWORD_MACRO_MAX_COEC<0.0080821] yes=31,no=32,missing=32
					31:[D_TITLEMD5_COEC<0.0216741] yes=63,no=64,missing=64
						63:[C_D_U_PUBLISHER_CITY_COEC<0.114288] yes=127,no=128,missing=127
							127:leaf=-0.0662204
							128:leaf=-0.00345047
						64:[TIME_OF_DAY<17] yes=129,no=130,missing=130
							129:leaf=-0.0496482
							130:leaf=0.022978
					32:[C_D_U_TITLEMD5_CATEGORY_MICRO_MEAN_COEC<0.036933] yes=65,no=66,missing=66
						65:[TIME_OF_DAY<10] yes=131,no=132,missing=132
							131:leaf=-0.0323382
							132:leaf=-0.0522732
						66:[C_D_U_CATEGORY_GENDER_MACRO_MAX_COEC<0.0845805] yes=133,no=134,missing=133
							133:leaf=-0.025769
							134:leaf=-0.0503229
				16:[U_KW_LEN<77] yes=33,no=34,missing=34
					33:[C_D_U_PUBLISHER_CITY_COEC<0.0608655] yes=67,no=68,missing=67
						67:[WORD_COUNT<4328] yes=135,no=136,missing=136
							135:leaf=-0.0672521
							136:leaf=-0.00296565
						68:[D_CATEGORY_MACRO_MAX_COEC<0.071473] yes=137,no=138,missing=137
							137:leaf=0.00227265
							138:leaf=-0.0419325
					34:[D_KEYWORD_MICRO_MEAN_COEC<0.0817674] yes=69,no=70,missing=70
						69:[D_CATEGORY_MACRO_MEAN_COEC<0.0676831] yes=139,no=140,missing=140
							139:leaf=0.0064319
							140:leaf=-0.0323199
						70:[DAY_OF_WEEK<6] yes=141,no=142,missing=142
							141:leaf=0.066832
							142:leaf=-0.059089
			8:[C_D_U_TITLEMD5_CATEGORY_MACRO_MEAN_COEC<0.0559351] yes=17,no=18,missing=18
				17:[CAT_REL<0.262984] yes=35,no=36,missing=36
					35:[U_CAT_LEN<7] yes=71,no=72,missing=72
						71:[C_D_U_PUBLISHER_CITY_COEC<0.105331] yes=143,no=144,missing=143
							143:leaf=-0.0388171
							144:leaf=-0.00802206
						72:[C_D_U_CATEGORY_CITY_MICRO_MEAN_COEC<0.063748] yes=145,no=146,missing=145
							145:leaf=-0.0475649
							146:leaf=-0.00343396
					36:[D_KEYWORD_MACRO_MEAN_COEC<0.0739266] yes=73,no=74,missing=74
						73:[U_KW_LEN<48] yes=147,no=148,missing=148
							147:leaf=-0.0378917
							148:leaf=-0.0126517
						74:[C_D_U_TITLEMD5_CATEGORY_MICRO_MAX_COEC<0.0472723] yes=149,no=150,missing=150
							149:leaf=0.0566002
							150:leaf=-0.0085741
				18:[U_KW_LEN<124] yes=37,no=38,missing=38
					37:[WORD_COUNT<2982] yes=75,no=76,missing=76
						75:[C_D_U_CATEGORY_GENDER_MICRO_MAX_COEC<0.0667997] yes=151,no=152,missing=152
							151:leaf=-0.0296115
							152:leaf=-0.0138613
						76:[TIME_OF_DAY<17] yes=153,no=154,missing=154
							153:leaf=-0.00969087
							154:leaf=0.0104912
					38:[KW_REL<0.00238595] yes=77,no=78,missing=78
						77:[C_D_U_PUBLISHER_CITY_COEC<0.0680196] yes=155,no=156,missing=155
							155:leaf=-0.0215844
							156:leaf=0.00250021
						78:[D_CATEGORY_MACRO_MAX_COEC<0.067811] yes=157,no=158,missing=158
							157:leaf=0.0340638
							158:leaf=0.00766567
		4:[C_D_U_TITLEMD5_CATEGORY_MACRO_MEAN_COEC<0.124607] yes=9,no=10,missing=9
			9:[C_D_U_TITLEMD5_GENDER_COEC<0.154316] yes=19,no=20,missing=19
				19:[U_GENDER<2] yes=39,no=40,missing=39
					39:[U_AGE_1<0.999999] yes=79,no=80,missing=80
						79:[C_D_U_CATEGORY_GENDER_MICRO_MAX_COEC<0.0641483] yes=159,no=160,missing=160
							159:leaf=-0.0163858
							160:leaf=9.78108e-05
						80:[C_D_U_CATEGORY_CITY_MICRO_MAX_COEC<0.0966595] yes=161,no=162,missing=162
							161:leaf=-0.0317461
							162:leaf=0.00921265
					40:[C_D_U_CATEGORY_GENDER_MICRO_MEAN_COEC<0.0779182] yes=81,no=82,missing=82
						81:[C_D_U_TITLEMD5_CATEGORY_MACRO_MEAN_COEC<0.0802195] yes=163,no=164,missing=164
							163:leaf=-0.0316679
							164:leaf=0.00669434
						82:[D_CATEGORY_MICRO_MEAN_COEC<0.0856778] yes=165,no=166,missing=165
							165:leaf=0.0438168
							166:leaf=0.0214664
				20:[C_D_U_PUBLISHER_GENDER_COEC<0.0747239] yes=41,no=42,missing=42
					41:[C_D_U_CATEGORY_CITY_MACRO_MEAN_COEC<0.0602929] yes=83,no=84,missing=83
						83:[TIME_OF_DAY<17] yes=167,no=168,missing=168
							167:leaf=-0.0555934
							168:leaf=-0.158986
						84:[C_D_U_TITLEMD5_CATEGORY_MACRO_MEAN_COEC<0.109201] yes=169,no=170,missing=170
							169:leaf=-0.0265541
							170:leaf=0.00804213
					42:[C_D_U_CATEGORY_GENDER_MACRO_MEAN_COEC<0.0522378] yes=85,no=86,missing=86
						85:[C_D_U_PUBLISHER_CITY_COEC<0.0767517] yes=171,no=172,missing=172
							171:leaf=0.00725778
							172:leaf=-0.0713756
						86:[U_AGE_2<0.999999] yes=173,no=174,missing=174
							173:leaf=0.0129607
							174:leaf=0.0291289
			10:[U_KW_LEN<94] yes=21,no=22,missing=22
				21:[C_D_U_PUBLISHER_CITY_COEC<0.0719584] yes=43,no=44,missing=43
					43:[D_PUBLISHER_COEC<0.0497616] yes=87,no=88,missing=88
						87:[D_KEYWORD_MICRO_MEAN_COEC<0.0728445] yes=175,no=176,missing=176
							175:leaf=-0.0210156
							176:leaf=-0.08979
						88:[D_CATEGORY_MICRO_MEAN_COEC<0.0603931] yes=177,no=178,missing=177
							177:leaf=-0.0586078
							178:leaf=0.000164594
					44:[U_AGE_2<0.999999] yes=89,no=90,missing=90
						89:[U_KW_LEN<24] yes=179,no=180,missing=180
							179:leaf=-0.00633766
							180:leaf=0.0121838
						90:[C_D_U_TITLEMD5_GENDER_COEC<0.168556] yes=181,no=182,missing=182
							181:leaf=0.0161851
							182:leaf=0.0322495
				22:[CAT_REL<0.249999] yes=45,no=46,missing=46
					45:[D_KEYWORD_MACRO_MEAN_COEC<0.069662] yes=91,no=92,missing=92
						91:[CAT_REL<0.214562] yes=183,no=184,missing=184
							183:leaf=-0.0444282
							184:leaf=0.0151466
						92:[D_KEYWORD_MICRO_MAX_COEC<0.223721] yes=185,no=186,missing=186
							185:leaf=0.0188801
							186:leaf=0.0391517
					46:[C_D_U_PUBLISHER_GENDER_COEC<0.060823] yes=93,no=94,missing=93
						93:[KW_REL<0.000914083] yes=187,no=188,missing=188
							187:leaf=-0.0404463
							188:leaf=0.0131985
						94:[C_D_U_TITLEMD5_CATEGORY_MACRO_MAX_COEC<0.105533] yes=189,no=190,missing=190
							189:leaf=0.0300494
							190:leaf=0.0453669
	2:[C_D_U_TITLEMD5_CATEGORY_MACRO_MEAN_COEC<0.0732269] yes=5,no=6,missing=6
		5:[C_D_U_TITLEMD5_CATEGORY_MACRO_MEAN_COEC<0.0403057] yes=11,no=12,missing=12
			11:[D_TITLEMD5_COEC<0.108444] yes=23,no=24,missing=24
				23:[KW_REL<0.00134407] yes=47,no=48,missing=48
					47:[D_PUBLISHER_COEC<0.0242307] yes=95,no=96,missing=95
						95:[TIME_OF_DAY<3] yes=191,no=192,missing=192
							191:leaf=-0.0398782
							192:leaf=-0.0791562
						96:[U_CAT_LEN<14] yes=193,no=194,missing=194
							193:leaf=-0.0517548
							194:leaf=-0.0376399
					48:[C_D_U_CATEGORY_CITY_MICRO_MEAN_COEC<0.13164] yes=97,no=98,missing=98
						97:[CAT_REL<0.665845] yes=195,no=196,missing=196
							195:leaf=-0.0372314
							196:leaf=-0.0118655
						98:[C_D_U_CATEGORY_AGE_MACRO_MEAN_COEC<0.0822774] yes=197,no=198,missing=198
							197:leaf=0.00758962
							198:leaf=0.0552961
				24:[D_KEYWORD_MACRO_MEAN_COEC<0.0735456] yes=49,no=50,missing=50
					49:[D_PUBLISHER_COEC<0.0433939] yes=99,no=100,missing=100
						99:[KW_REL<0.0087433] yes=199,no=200,missing=200
							199:leaf=-0.0656407
							200:leaf=0.000531632
						100:[KW_REL<0.00588373] yes=201,no=202,missing=202
							201:leaf=-0.0184649
							202:leaf=0.011079
					50:[D_KEYWORD_MICRO_MEAN_COEC<0.12771] yes=101,no=102,missing=102
						101:[D_PUBLISHER_COEC<0.0622642] yes=203,no=204,missing=203
							203:leaf=-0.00398927
							204:leaf=0.0488379
						102:[DAY_OF_WEEK<5] yes=205,no=206,missing=206
							205:leaf=0.0641925
							206:leaf=0.147411
			12:[KW_REL<0.0019263] yes=25,no=26,missing=26
				25:[U_CAT_LEN<19] yes=51,no=52,missing=52
					51:[KW_REL<0.000494398] yes=103,no=104,missing=104
						103:[D_KEYWORD_MACRO_MEAN_COEC<0.0791176] yes=207,no=208,missing=208
							207:leaf=-0.0316074
							208:leaf=-0.0501015
						104:[U_CAT_LEN<8] yes=209,no=210,missing=210
							209:leaf=-0.0383371
							210:leaf=-0.0202774
					52:[WORD_COUNT<2950] yes=105,no=106,missing=106
						105:[D_TITLEMD5_COEC<0.0729493] yes=211,no=212,missing=212
							211:leaf=-0.00256298
							212:leaf=-0.0255152
						106:[CAT_REL<0.147093] yes=213,no=214,missing=214
							213:leaf=-0.00279128
							214:leaf=0.0267995
				26:[CAT_REL<0.211267] yes=53,no=54,missing=54
					53:[D_CATEGORY_MACRO_MEAN_COEC<0.0588429] yes=107,no=108,missing=107
						107:[CAT_REL<0.048501] yes=215,no=216,missing=216
							215:leaf=-0.00835004
							216:leaf=0.0293376
						108:[WORD_COUNT<2367] yes=217,no=218,missing=218
							217:leaf=-0.0295394
							218:leaf=-0.0133084
					54:[U_CAT_LEN<15] yes=109,no=110,missing=110
						109:[WORD_COUNT<2367] yes=219,no=220,missing=220
							219:leaf=-0.0155393
							220:leaf=-0.000428855
						110:[C_D_U_CATEGORY_CITY_MICRO_MAX_COEC<0.115479] yes=221,no=222,missing=222
							221:leaf=0.00800455
							222:leaf=0.0470224
		6:[C_D_U_TITLEMD5_CATEGORY_MACRO_MEAN_COEC<0.108773] yes=13,no=14,missing=14
			13:[D_TITLEMD5_COEC<0.111629] yes=27,no=28,missing=28
				27:[U_CAT_LEN<10] yes=55,no=56,missing=56
					55:[CAT_REL<0.492106] yes=111,no=112,missing=112
						111:[U_CAT_LEN<7] yes=223,no=224,missing=224
							223:leaf=-0.0264447
							224:leaf=-0.00726859
						112:[U_CAT_LEN<8] yes=225,no=226,missing=226
							225:leaf=0.000626997
							226:leaf=0.0148032
					56:[WORD_COUNT<1580] yes=113,no=114,missing=114
						113:[U_CAT_LEN<17] yes=227,no=228,missing=228
							227:leaf=-0.00513756
							228:leaf=0.0122011
						114:[CAT_REL<0.118079] yes=229,no=230,missing=230
							229:leaf=0.00142759
							230:leaf=0.0193192
				28:[C_D_U_TITLEMD5_CATEGORY_MACRO_MEAN_COEC<0.0977385] yes=57,no=58,missing=58
					57:[D_PUBLISHER_COEC<0.0828639] yes=115,no=116,missing=116
						115:[CAT_REL<0.043861] yes=231,no=232,missing=232
							231:leaf=-0.0660561
							232:leaf=-0.0341495
						116:[WORD_COUNT<2524] yes=233,no=234,missing=234
							233:leaf=-0.0282456
							234:leaf=-0.00471763
					58:[D_TITLEMD5_COEC<0.122965] yes=117,no=118,missing=118
						117:[U_CAT_LEN<11] yes=235,no=236,missing=236
							235:leaf=-0.0167446
							236:leaf=0.00560636
						118:[D_KEYWORD_MACRO_MEAN_COEC<0.0665588] yes=237,no=238,missing=238
							237:leaf=-0.0506966
							238:leaf=-0.0180645
			14:[KW_REL<0.000675846] yes=29,no=30,missing=30
				29:[D_KEYWORD_MACRO_MEAN_COEC<0.0761892] yes=59,no=60,missing=60
					59:[C_D_U_TITLEMD5_CATEGORY_MICRO_MAX_COEC<0.25076] yes=119,no=120,missing=120
						119:[CAT_REL<0.088392] yes=239,no=240,missing=240
							239:leaf=-0.0459677
							240:leaf=-0.00424564
						120:[DAY_OF_WEEK<0.999999] yes=241,no=242,missing=242
							241:leaf=-0.0225822
							242:leaf=-0.0595266
					60:[C_D_U_TITLEMD5_CATEGORY_MACRO_MEAN_COEC<0.175445] yes=121,no=122,missing=122
						121:[D_CATEGORY_MICRO_MEAN_COEC<0.0942297] yes=243,no=244,missing=244
							243:leaf=0.010519
							244:leaf=-0.00367132
						122:[D_KEYWORD_MACRO_MEAN_COEC<0.104472] yes=245,no=246,missing=246
							245:leaf=-0.00958764
							246:leaf=0.027326
				30:[D_KEYWORD_MACRO_MEAN_COEC<0.0632687] yes=61,no=62,missing=62
					61:[KW_REL<0.00625065] yes=123,no=124,missing=124
						123:[D_KEYWORD_MACRO_MEAN_COEC<0.0540339] yes=247,no=248,missing=248
							247:leaf=-0.0493855
							248:leaf=-0.0113277
						124:[CAT_REL<0.084452] yes=249,no=250,missing=250
							249:leaf=-0.0556584
							250:leaf=0.0170555
					62:[CAT_REL<0.199916] yes=125,no=126,missing=126
						125:[WORD_COUNT<768] yes=251,no=252,missing=252
							251:leaf=-0.0170121
							252:leaf=0.0172423
						126:[U_CAT_LEN<8] yes=253,no=254,missing=254
							253:leaf=0.0158391
							254:leaf=0.0322539
booster[15]:
0:[U_KW_LEN<200] yes=1,no=2,missing=1
	1:[D_KEYWORD_MACRO_MEAN_COEC<0.0830913] yes=3,no=4,missing=4
		3:[D_TITLEMD5_COEC<0.069264] yes=7,no=8,missing=7
			7:[D_TITLEMD5_COEC<0.0339916] yes=15,no=16,missing=16
				15:[TIME_OF_DAY<9] yes=31,no=32,missing=32
					31:[C_D_U_CATEGORY_GENDER_MACRO_MAX_COEC<0.0631565] yes=63,no=64,missing=64
						63:[U_KW_LEN<49] yes=127,no=128,missing=128
							127:leaf=-0.0581589
							128:leaf=-0.0206389
						64:[D_CATEGORY_MICRO_MEAN_COEC<0.0770588] yes=129,no=130,missing=129
							129:leaf=0.00591144
							130:leaf=-0.0332178
					32:[C_D_U_PUBLISHER_CITY_COEC<0.0895526] yes=65,no=66,missing=66
						65:[KW_REL<0.0067087] yes=131,no=132,missing=132
							131:leaf=-0.0496397
							132:leaf=-0.0314413
						66:[C_D_U_CATEGORY_CITY_MICRO_MEAN_COEC<0.117793] yes=133,no=134,missing=133
							133:leaf=-0.0289395
							134:leaf=0.0338958
				16:[IMAGE_COUNT<2] yes=33,no=34,missing=34
					33:[C_D_U_CATEGORY_CITY_MACRO_MEAN_COEC<0.0545346] yes=67,no=68,missing=67
						67:[D_KEYWORD_MICRO_MAX_COEC<0.0733131] yes=135,no=136,missing=136
							135:leaf=-0.0117766
							136:leaf=-0.0404692
						68:[TIME_OF_DAY<18] yes=137,no=138,missing=138
							137:leaf=-0.0195003
							138:leaf=0.00369803
					34:[D_PUBLISHER_COEC<0.035094] yes=69,no=70,missing=69
						69:[WORD_COUNT<1444] yes=139,no=140,missing=140
							139:leaf=0.0357052
							140:leaf=-0.10653
						70:[KW_REL<0.000183269] yes=141,no=142,missing=142
							141:leaf=-0.00514625
							142:leaf=0.0225437
			8:[KW_REL<0.000904531] yes=17,no=18,missing=18
				17:[C_D_U_CATEGORY_GENDER_MACRO_MAX_COEC<0.094599] yes=35,no=36,missing=36
					35:[U_AGE_2<0.999999] yes=71,no=72,missing=72
						71:[C_D_U_CATEGORY_GENDER_MICRO_MEAN_COEC<0.0684982] yes=143,no=144,missing=144
							143:leaf=-0.025781
							144:leaf=-0.0114292
						72:[TIME_OF_DAY<18] yes=145,no=146,missing=146
							145:leaf=-0.00641321
							146:leaf=0.0194673
					36:[DAY_OF_WEEK<3] yes=73,no=74,missing=74
						73:[C_D_U_CATEGORY_CITY_MACRO_MAX_COEC<0.149561] yes=147,no=148,missing=147
							147:leaf=-0.00906176
							148:leaf=0.0934301
						74:[TIME_OF_DAY<17] yes=149,no=150,missing=150
							149:leaf=0.0151276
							150:leaf=0.042094
				18:[CAT_REL<0.138685] yes=37,no=38,missing=38
					37:[D_PUBLISHER_COEC<0.0915076] yes=75,no=76,missing=76
						75:[IMAGE_COUNT<2] yes=151,no=152,missing=152
							151:leaf=-0.0235249
							152:leaf=0.0145197
						76:[KW_REL<0.00434125] yes=153,no=154,missing=154
							153:leaf=0.0189079
							154:leaf=-0.0165721
					38:[U_KW_LEN<79] yes=77,no=78,missing=78
						77:[IMAGE_COUNT<3] yes=155,no=156,missing=156
							155:leaf=-0.00466482
							156:leaf=0.0373575
						78:[CAT_REL<0.666666] yes=157,no=158,missing=158
							157:leaf=0.0120686
							158:leaf=0.0320903
		4:[C_D_U_TITLEMD5_CATEGORY_MICRO_MEAN_COEC<0.173197] yes=9,no=10,missing=9
			9:[WORD_COUNT<1201] yes=19,no=20,missing=20
				19:[D_CATEGORY_MACRO_MEAN_COEC<0.0876558] yes=39,no=40,missing=39
					39:[C_D_U_CATEGORY_GENDER_MICRO_MEAN_COEC<0.0628815] yes=79,no=80,missing=80
						79:[C_D_U_PUBLISHER_CITY_COEC<0.0847278] yes=159,no=160,missing=159
							159:leaf=-0.0545513
							160:leaf=-0.0129281
						80:[D_KEYWORD_MICRO_MEAN_COEC<0.0870313] yes=161,no=162,missing=162
							161:leaf=-0.00410839
							162:leaf=0.0154798
					40:[C_D_U_TITLEMD5_GENDER_COEC<0.17902] yes=81,no=82,missing=82
						81:[KW_REL<1.88498e-05] yes=163,no=164,missing=164
							163:leaf=-0.021403
							164:leaf=-0.00162502
						82:[TIME_OF_DAY<16] yes=165,no=166,missing=166
							165:leaf=0.0126513
							166:leaf=0.0466921
				20:[C_D_U_CATEGORY_GENDER_MICRO_MAX_COEC<0.104343] yes=41,no=42,missing=41
					41:[C_D_U_PUBLISHER_CITY_COEC<0.0979948] yes=83,no=84,missing=83
						83:[D_KEYWORD_MACRO_MEAN_COEC<0.120412] yes=167,no=168,missing=168
							167:leaf=0.0044837
							168:leaf=0.024142
						84:[D_CATEGORY_MACRO_MAX_COEC<0.0903777] yes=169,no=170,missing=170
							169:leaf=0.0210198
							170:leaf=0.00598383
					42:[WORD_COUNT<3737] yes=85,no=86,missing=86
						85:[D_CATEGORY_MACRO_MEAN_COEC<0.0964807] yes=171,no=172,missing=172
							171:leaf=0.045805
							172:leaf=0.0184944
						86:[C_D_U_TITLEMD5_CATEGORY_MICRO_MAX_COEC<0.191298] yes=173,no=174,missing=173
							173:leaf=0.0517007
							174:leaf=-0.00487631
			10:[WORD_COUNT<1137] yes=21,no=22,missing=22
				21:[C_D_U_CATEGORY_CITY_MICRO_MAX_COEC<0.0960748] yes=43,no=44,missing=44
					43:[KW_REL<0.0012833] yes=87,no=88,missing=88
						87:[D_CAT_LEN<2] yes=175,no=176,missing=176
							175:leaf=-0.00392371
							176:leaf=0.0478764
						88:[U_KW_LEN<112] yes=177,no=178,missing=178
							177:leaf=0.012969
							178:leaf=0.0415844
					44:[C_D_U_CATEGORY_CITY_MICRO_MEAN_COEC<0.0893846] yes=89,no=90,missing=89
						89:[C_D_U_CATEGORY_CITY_MACRO_MEAN_COEC<0.077691] yes=179,no=180,missing=179
							179:leaf=0.118815
							180:leaf=0.0722537
						90:[C_D_U_TITLEMD5_CATEGORY_MACRO_MEAN_COEC<0.193853] yes=181,no=182,missing=182
							181:leaf=0.0171282
							182:leaf=0.0296071
				22:[U_KW_LEN<34] yes=45,no=46,missing=46
					45:[D_KEYWORD_MACRO_MEAN_COEC<0.091095] yes=91,no=92,missing=92
						91:[TIME_OF_DAY<3] yes=183,no=184,missing=184
							183:leaf=-0.217565
							184:leaf=-0.027178
						92:[TIME_OF_DAY<22] yes=185,no=186,missing=186
							185:leaf=0.0182179
							186:leaf=-0.121219
					46:[C_D_U_TITLEMD5_CATEGORY_MACRO_MEAN_COEC<0.189296] yes=93,no=94,missing=94
						93:[KW_REL<0.000213803] yes=187,no=188,missing=188
							187:leaf=0.0162978
							188:leaf=0.0341024
						94:[D_PUBLISHER_COEC<0.0623528] yes=189,no=190,missing=190
							189:leaf=-0.0423644
							190:leaf=0.0425432
	2:[C_D_U_TITLEMD5_CATEGORY_MACRO_MEAN_COEC<0.0835478] yes=5,no=6,missing=6
		5:[C_D_U_TITLEMD5_CATEGORY_MACRO_MEAN_COEC<0.044001] yes=11,no=12,missing=12
			11:[CAT_REL<0.077107] yes=23,no=24,missing=24
				23:[D_KEYWORD_MICRO_MAX_COEC<0.190409] yes=47,no=48,missing=48
					47:[D_TITLEMD5_COEC<0.0239394] yes=95,no=96,missing=96
						95:[D_CATEGORY_MACRO_MAX_COEC<0.103486] yes=191,no=192,missing=192
							191:leaf=-0.0702458
							192:leaf=0.0344254
						96:[IMAGE_COUNT<3] yes=193,no=194,missing=194
							193:leaf=-0.0499886
							194:leaf=-0.0165671
					48:[U_AGE_1<0.999999] yes=97,no=98,missing=98
						97:[KW_REL<0.00163398] yes=195,no=196,missing=196
							195:leaf=-0.0387994
							196:leaf=0.0815208
						98:[C_D_U_CATEGORY_GENDER_MACRO_MAX_COEC<0.0527761] yes=197,no=198,missing=198
							197:leaf=-0.117441
							198:leaf=0.238795
				24:[KW_REL<0.00396737] yes=49,no=50,missing=50
					49:[D_KEYWORD_MACRO_MEAN_COEC<0.0885828] yes=99,no=100,missing=100
						99:[U_CAT_LEN<12] yes=199,no=200,missing=200
							199:leaf=-0.0441351
							200:leaf=-0.0278933
						100:[CAT_REL<0.784374] yes=201,no=202,missing=202
							201:leaf=0.00403861
							202:leaf=0.102124
					50:[C_D_U_PUBLISHER_CITY_COEC<0.0597009] yes=101,no=102,missing=101
						101:[D_CATEGORY_MICRO_MAX_COEC<0.0398507] yes=203,no=204,missing=204
							203:leaf=0.0734738
							204:leaf=-0.0298663
						102:[D_KEYWORD_MICRO_MEAN_COEC<0.0773986] yes=205,no=206,missing=206
							205:leaf=-0.0154871
							206:leaf=0.0129927
			12:[CAT_REL<0.126109] yes=25,no=26,missing=26
				25:[D_CATEGORY_MICRO_MEAN_COEC<0.0640271] yes=51,no=52,missing=51
					51:[C_D_U_PUBLISHER_GENDER_COEC<0.0808749] yes=103,no=104,missing=103
						103:[CAT_REL<0.019162] yes=207,no=208,missing=208
							207:leaf=-0.0404222
							208:leaf=-0.0101762
						104:[U_CAT_LEN<12] yes=209,no=210,missing=210
							209:leaf=-0.00386711
							210:leaf=0.0219637
					52:[D_CATEGORY_MACRO_MAX_COEC<0.0726375] yes=105,no=106,missing=106
						105:[CAT_REL<0.072226] yes=211,no=212,missing=212
							211:leaf=-0.0461094
							212:leaf=-0.0285122
						106:[C_D_U_CATEGORY_AGE_MACRO_MAX_COEC<0.109478] yes=213,no=214,missing=214
							213:leaf=-0.0213892
							214:leaf=0.0403788
				26:[U_CAT_LEN<9] yes=53,no=54,missing=54
					53:[CAT_REL<0.460492] yes=107,no=108,missing=108
						107:[U_CAT_LEN<7] yes=215,no=216,missing=216
							215:leaf=-0.0394434
							216:leaf=-0.0214438
						108:[TIME_OF_DAY<13] yes=217,no=218,missing=218
							217:leaf=-0.0166823
							218:leaf=0.00101865
					54:[D_CATEGORY_MACRO_MAX_COEC<0.0963548] yes=109,no=110,missing=110
						109:[WORD_COUNT<2792] yes=219,no=220,missing=220
							219:leaf=-0.00532859
							220:leaf=0.0089311
						110:[CAT_REL<0.359303] yes=221,no=222,missing=222
							221:leaf=-0.0382605
							222:leaf=-0.00701989
		6:[C_D_U_TITLEMD5_CATEGORY_MACRO_MEAN_COEC<0.134131] yes=13,no=14,missing=14
			13:[KW_REL<0.00396737] yes=27,no=28,missing=28
				27:[U_CAT_LEN<14] yes=55,no=56,missing=56
					55:[WORD_COUNT<2792] yes=111,no=112,missing=112
						111:[CAT_REL<0.359303] yes=223,no=224,missing=224
							223:leaf=-0.0110813
							224:leaf=0.00429028
						112:[D_KEYWORD_MACRO_MEAN_COEC<0.0575317] yes=225,no=226,missing=226
							225:leaf=-0.0356436
							226:leaf=0.00924177
					56:[D_TITLEMD5_COEC<0.148004] yes=113,no=114,missing=114
						113:[C_D_U_TITLEMD5_CATEGORY_MACRO_MEAN_COEC<0.109306] yes=227,no=228,missing=228
							227:leaf=0.00722863
							228:leaf=0.0217385
						114:[D_TITLEMD5_COEC<0.165915] yes=229,no=230,missing=230
							229:leaf=-0.00893272
							230:leaf=-0.0381237
				28:[WORD_COUNT<1420] yes=57,no=58,missing=58
					57:[CAT_REL<0.043268] yes=115,no=116,missing=116
						115:[C_D_U_TITLEMD5_CATEGORY_MACRO_MEAN_COEC<0.11334] yes=231,no=232,missing=232
							231:leaf=-0.0500169
							232:leaf=-0.00882513
						116:[C_D_U_TITLEMD5_CATEGORY_MACRO_MEAN_COEC<0.103611] yes=233,no=234,missing=234
							233:leaf=-0.00011169
							234:leaf=0.0152947
					58:[C_D_U_TITLEMD5_AGE_COEC<0.0228008] yes=117,no=118,missing=117
						117:[D_KEYWORD_MICRO_MEAN_COEC<0.0836703] yes=235,no=236,missing=236
							235:leaf=-0.0359515
							236:leaf=0.0235364
						118:[C_D_U_TITLEMD5_CATEGORY_MACRO_MEAN_COEC<0.105523] yes=237,no=238,missing=238
							237:leaf=0.0166792
							238:leaf=0.0309588
			14:[D_PUBLISHER_COEC<0.0585034] yes=29,no=30,missing=30
				29:[C_D_U_TITLEMD5_CATEGORY_MICRO_MAX_COEC<0.21998] yes=59,no=60,missing=60
					59:[WORD_COUNT<2055] yes=119,no=120,missing=120
						119:[D_KEYWORD_MACRO_MAX_COEC<0.0199894] yes=239,no=240,missing=240
							239:leaf=-0.0376846
							240:leaf=0.00898805
						120:[KW_REL<0.000621066] yes=241,no=242,missing=242
							241:leaf=-0.0211544
							242:leaf=0.0343315
					60:[KW_REL<0.00170291] yes=121,no=122,missing=122
						121:[D_KEYWORD_MICRO_MEAN_COEC<0.144022] yes=243,no=244,missing=244
							243:leaf=-0.0521454
							244:leaf=0.0156594
						122:[CAT_REL<0.253581] yes=245,no=246,missing=246
							245:leaf=-0.0435325
							246:leaf=-0.00918687
				30:[CAT_REL<0.236194] yes=61,no=62,missing=62
					61:[D_CATEGORY_MACRO_MEAN_COEC<0.0959707] yes=123,no=124,missing=124
						123:[U_CAT_LEN<8] yes=247,no=248,missing=248
							247:leaf=-0.00103737
							248:leaf=0.0237557
						124:[C_D_U_CATEGORY_AGE_MACRO_MAX_COEC<0.109478] yes=249,no=250,missing=249
							249:leaf=-0.00631643
							250:leaf=0.0290318
					62:[U_CAT_LEN<14] yes=125,no=126,missing=126
						125:[C_D_U_TITLEMD5_CATEGORY_MICRO_MAX_COEC<0.455998] yes=251,no=252,missing=252
							251:leaf=0.0259658
							252:leaf=-0.0113592
						126:[D_CATEGORY_MICRO_MAX_COEC<0.095745] yes=253,no=254,missing=254
							253:leaf=0.0486434
							254:leaf=0.0355255
booster[16]:
0:[U_KW_LEN<200] yes=1,no=2,missing=1
	1:[D_TITLEMD5_COEC<0.0721857] yes=3,no=4,missing=3
		3:[D_TITLEMD5_COEC<0.0419503] yes=7,no=8,missing=8
			7:[D_KEYWORD_MACRO_MAX_COEC<0.00746471] yes=15,no=16,missing=16
				15:[D_KEYWORD_MICRO_MAX_COEC<0.177385] yes=31,no=32,missing=32
					31:[TIME_OF_DAY<12] yes=63,no=64,missing=64
						63:[U_CAT_LEN<4] yes=127,no=128,missing=128
							127:leaf=-0.053167
							128:leaf=-0.0200936
						64:[DAY_OF_WEEK<6] yes=129,no=130,missing=130
							129:leaf=-0.0674676
							130:leaf=-0.0128429
					32:[D_CATEGORY_MICRO_MAX_COEC<0.0779296] yes=65,no=66,missing=65
						65:[D_KEYWORD_MICRO_MEAN_COEC<0.0601209] yes=131,no=132,missing=132
							131:leaf=0.03266
							132:leaf=-0.126061
						66:[C_D_U_CATEGORY_GENDER_MACRO_MEAN_COEC<0.0797707] yes=133,no=134,missing=134
							133:leaf=0.269065
							134:leaf=-0.0157963
				16:[IMAGE_COUNT<0.999999] yes=33,no=34,missing=34
					33:[C_D_U_TITLEMD5_CATEGORY_MACRO_MAX_COEC<0.0217096] yes=67,no=68,missing=67
						67:[C_D_U_CATEGORY_CITY_MICRO_MEAN_COEC<0.112174] yes=135,no=136,missing=135
							135:leaf=-0.0845483
							136:leaf=0.0528237
						68:[C_D_U_CATEGORY_CITY_MICRO_MAX_COEC<0.0723121] yes=137,no=138,missing=138
							137:leaf=-0.0688517
							138:leaf=0.127958
					34:[C_D_U_PUBLISHER_CITY_COEC<0.0891228] yes=69,no=70,missing=70
						69:[KW_REL<0.00384401] yes=139,no=140,missing=140
							139:leaf=-0.0349032
							140:leaf=-0.0205557
						70:[D_KEYWORD_MACRO_MEAN_COEC<0.0515159] yes=141,no=142,missing=142
							141:leaf=-0.0287443
							142:leaf=-0.00903086
			8:[C_D_U_PUBLISHER_GENDER_COEC<0.0447785] yes=17,no=18,missing=17
				17:[C_D_U_CATEGORY_CITY_MACRO_MAX_COEC<0.0635434] yes=35,no=36,missing=36
					35:[C_D_U_TITLEMD5_CATEGORY_MACRO_MEAN_COEC<0.0703095] yes=71,no=72,missing=71
						71:[D_KEYWORD_MICRO_MEAN_COEC<0.0555731] yes=143,no=144,missing=144
							143:leaf=-0.0198083
							144:leaf=-0.0697887
						72:[C_D_U_TITLEMD5_GENDER_COEC<0.0894409] yes=145,no=146,missing=146
							145:leaf=0.00909699
							146:leaf=-0.160011
					36:[C_D_U_TITLEMD5_CATEGORY_MACRO_MAX_COEC<0.0228064] yes=73,no=74,missing=74
						73:[U_KW_LEN<189] yes=147,no=148,missing=148
							147:leaf=-0.0538992
							148:leaf=0.0502982
						74:[C_D_U_TITLEMD5_GENDER_COEC<0.0546452] yes=149,no=150,missing=149
							149:leaf=0.000951591
							150:leaf=-0.0378464
				18:[WORD_COUNT<2935] yes=37,no=38,missing=38
					37:[D_KEYWORD_MICRO_MEAN_COEC<0.0685916] yes=75,no=76,missing=76
						75:[C_D_U_CATEGORY_CITY_MACRO_MAX_COEC<0.0416657] yes=151,no=152,missing=152
							151:leaf=-0.047824
							152:leaf=-0.0220248
						76:[C_D_U_PUBLISHER_CITY_COEC<0.0758303] yes=153,no=154,missing=153
							153:leaf=-0.0182642
							154:leaf=-0.00533751
					38:[TIME_OF_DAY<17] yes=77,no=78,missing=78
						77:[IMAGE_COUNT<2] yes=155,no=156,missing=156
							155:leaf=-0.0112845
							156:leaf=0.011008
						78:[D_KEYWORD_MICRO_MEAN_COEC<0.0700385] yes=157,no=158,missing=158
							157:leaf=0.0335872
							158:leaf=-0.00853057
		4:[C_D_U_TITLEMD5_GENDER_COEC<0.118478] yes=9,no=10,missing=9
			9:[U_KW_LEN<127] yes=19,no=20,missing=20
				19:[IMAGE_COUNT<2] yes=39,no=40,missing=40
					39:[U_AGE_1<0.999999] yes=79,no=80,missing=80
						79:[CAT_REL<0.304596] yes=159,no=160,missing=160
							159:leaf=-0.00775934
							160:leaf=0.00282726
						80:[TIME_OF_DAY<18] yes=161,no=162,missing=162
							161:leaf=-0.0305463
							162:leaf=0.0233889
					40:[C_D_U_PUBLISHER_GENDER_COEC<0.0633983] yes=81,no=82,missing=82
						81:[C_D_U_PUBLISHER_GENDER_COEC<0.0329491] yes=163,no=164,missing=164
							163:leaf=-0.079719
							164:leaf=0.0344382
						82:[C_D_U_PUBLISHER_GENDER_COEC<0.115203] yes=165,no=166,missing=165
							165:leaf=0.00412645
							166:leaf=0.0595116
				20:[CAT_REL<0.076258] yes=41,no=42,missing=42
					41:[D_CATEGORY_MICRO_MEAN_COEC<0.0705305] yes=83,no=84,missing=84
						83:[C_D_U_TITLEMD5_CATEGORY_MACRO_MEAN_COEC<0.0760278] yes=167,no=168,missing=168
							167:leaf=-0.0566905
							168:leaf=-0.0188795
						84:[D_PUBLISHER_COEC<0.0901155] yes=169,no=170,missing=170
							169:leaf=-0.0101737
							170:leaf=0.0139372
					42:[C_D_U_TITLEMD5_GENDER_COEC<0.0818507] yes=85,no=86,missing=85
						85:[C_D_U_CATEGORY_CITY_MICRO_MEAN_COEC<0.0419373] yes=171,no=172,missing=172
							171:leaf=-0.0570531
							172:leaf=0.00439591
						86:[C_D_U_TITLEMD5_CATEGORY_MACRO_MEAN_COEC<0.12259] yes=173,no=174,missing=174
							173:leaf=0.0139279
							174:leaf=0.032549
			10:[C_D_U_TITLEMD5_CATEGORY_MACRO_MEAN_COEC<0.14081] yes=21,no=22,missing=22
				21:[IMAGE_COUNT<3] yes=43,no=44,missing=44
					43:[D_KEYWORD_MACRO_MEAN_COEC<0.0706839] yes=87,no=88,missing=88
						87:[CAT_REL<0.106154] yes=175,no=176,missing=176
							175:leaf=-0.047417
							176:leaf=-0.00987229
						88:[CAT_REL<0.076258] yes=177,no=178,missing=178
							177:leaf=-0.00304488
							178:leaf=0.00981995
					44:[D_PUBLISHER_COEC<0.110775] yes=89,no=90,missing=90
						89:[KW_REL<0.000654507] yes=179,no=180,missing=180
							179:leaf=0.00279307
							180:leaf=0.0418372
						90:[D_KEYWORD_MICRO_MEAN_COEC<0.116831] yes=181,no=182,missing=182
							181:leaf=0.0614615
							182:leaf=-0.0564787
				22:[U_KW_LEN<62] yes=45,no=46,missing=46
					45:[TIME_OF_DAY<17] yes=91,no=92,missing=92
						91:[C_D_U_CATEGORY_CITY_MICRO_MAX_COEC<0.0618237] yes=183,no=184,missing=184
							183:leaf=-0.0163579
							184:leaf=0.0102043
						92:[TIME_OF_DAY<22] yes=185,no=186,missing=186
							185:leaf=0.0294496
							186:leaf=-0.0125165
					46:[CAT_REL<0.363635] yes=93,no=94,missing=94
						93:[WORD_COUNT<1443] yes=187,no=188,missing=188
							187:leaf=0.0109425
							188:leaf=0.0253707
						94:[C_D_U_CATEGORY_GENDER_MICRO_MAX_COEC<0.107809] yes=189,no=190,missing=190
							189:leaf=0.0309763
							190:leaf=0.0645422
	2:[C_D_U_TITLEMD5_CATEGORY_MACRO_MEAN_COEC<0.0711351] yes=5,no=6,missing=6
		5:[KW_REL<0.000629686] yes=11,no=12,missing=12
			11:[D_KEYWORD_MACRO_MEAN_COEC<0.047851] yes=23,no=24,missing=24
				23:[C_D_U_TITLEMD5_CATEGORY_MICRO_MEAN_COEC<0.0271728] yes=47,no=48,missing=48
					47:[D_PUBLISHER_COEC<0.0494062] yes=95,no=96,missing=95
						95:[C_D_U_CATEGORY_CITY_MICRO_MAX_COEC<0.104253] yes=191,no=192,missing=192
							191:leaf=-0.0774136
							192:leaf=-0.0354642
						96:[C_D_U_PUBLISHER_AGE_COEC<0.172665] yes=193,no=194,missing=194
							193:leaf=-0.0556194
							194:leaf=0.157666
					48:[U_CAT_LEN<12] yes=97,no=98,missing=98
						97:[C_D_U_CATEGORY_GENDER_MICRO_MAX_COEC<0.0717171] yes=195,no=196,missing=196
							195:leaf=-0.0430381
							196:leaf=-0.0670373
						98:[CAT_REL<0.029872] yes=197,no=198,missing=198
							197:leaf=-0.0632863
							198:leaf=-0.0238492
				24:[CAT_REL<0.253968] yes=49,no=50,missing=50
					49:[C_D_U_CATEGORY_AGE_MICRO_MAX_COEC<0.100913] yes=99,no=100,missing=100
						99:[C_D_U_TITLEMD5_CATEGORY_MACRO_MEAN_COEC<0.0402654] yes=199,no=200,missing=200
							199:leaf=-0.0470907
							200:leaf=-0.0291922
						100:[DAY_OF_WEEK<3] yes=201,no=202,missing=202
							201:leaf=-0.0682295
							202:leaf=0.00118771
					50:[U_CAT_LEN<14] yes=101,no=102,missing=102
						101:[D_CATEGORY_MACRO_MAX_COEC<0.0985893] yes=203,no=204,missing=204
							203:leaf=-0.0214522
							204:leaf=-0.0403089
						102:[WORD_COUNT<1395] yes=205,no=206,missing=206
							205:leaf=-0.0173307
							206:leaf=0.00372592
			12:[U_CAT_LEN<10] yes=25,no=26,missing=26
				25:[CAT_REL<0.466628] yes=51,no=52,missing=52
					51:[C_D_U_TITLEMD5_CATEGORY_MICRO_MAX_COEC<0.0593917] yes=103,no=104,missing=104
						103:[D_PUBLISHER_COEC<0.0517977] yes=207,no=208,missing=208
							207:leaf=-0.0648577
							208:leaf=-0.0432439
						104:[C_D_U_CATEGORY_GENDER_MACRO_MAX_COEC<0.0534375] yes=209,no=210,missing=209
							209:leaf=-0.00615274
							210:leaf=-0.0292306
					52:[C_D_U_CATEGORY_CITY_MACRO_MEAN_COEC<0.0791415] yes=105,no=106,missing=106
						105:[D_TITLEMD5_COEC<0.0257782] yes=211,no=212,missing=212
							211:leaf=-0.0461285
							212:leaf=-0.0115064
						106:[TIME_OF_DAY<21] yes=213,no=214,missing=214
							213:leaf=-0.000777271
							214:leaf=0.121578
				26:[CAT_REL<0.147723] yes=53,no=54,missing=54
					53:[C_D_U_TITLEMD5_CATEGORY_MICRO_MAX_COEC<0.0725679] yes=107,no=108,missing=108
						107:[C_D_U_CATEGORY_GENDER_MICRO_MEAN_COEC<0.101817] yes=215,no=216,missing=216
							215:leaf=-0.0367849
							216:leaf=0.0520362
						108:[D_CATEGORY_MACRO_MEAN_COEC<0.0588086] yes=217,no=218,missing=218
							217:leaf=0.00805606
							218:leaf=-0.0186101
					54:[C_D_U_CATEGORY_CITY_MICRO_MEAN_COEC<0.131305] yes=109,no=110,missing=110
						109:[D_TITLEMD5_COEC<0.0391626] yes=219,no=220,missing=220
							219:leaf=-0.021495
							220:leaf=-0.00568724
						110:[U_CAT_LEN<15] yes=221,no=222,missing=222
							221:leaf=0.0170957
							222:leaf=0.0499982
		6:[C_D_U_TITLEMD5_CATEGORY_MACRO_MEAN_COEC<0.10429] yes=13,no=14,missing=14
			13:[D_TITLEMD5_COEC<0.105064] yes=27,no=28,missing=28
				27:[U_CAT_LEN<11] yes=55,no=56,missing=56
					55:[CAT_REL<0.142788] yes=111,no=112,missing=112
						111:[C_D_U_CATEGORY_CITY_MACRO_MAX_COEC<0.188141] yes=223,no=224,missing=224
							223:leaf=-0.0181765
							224:leaf=0.0347836
						112:[WORD_COUNT<1395] yes=225,no=226,missing=226
							225:leaf=-0.012829
							226:leaf=0.00212471
					56:[U_CAT_LEN<19] yes=113,no=114,missing=114
						113:[C_D_U_TITLEMD5_CATEGORY_MACRO_MEAN_COEC<0.0917669] yes=227,no=228,missing=228
							227:leaf=0.00274283
							228:leaf=0.0185213
						114:[D_TITLEMD5_COEC<0.0887563] yes=229,no=230,missing=230
							229:leaf=0.035974
							230:leaf=0.0197292
				28:[C_D_U_TITLEMD5_CATEGORY_MACRO_MEAN_COEC<0.0917669] yes=57,no=58,missing=58
					57:[CAT_REL<0.056996] yes=115,no=116,missing=116
						115:[WORD_COUNT<2430] yes=231,no=232,missing=232
							231:leaf=-0.0532261
							232:leaf=-0.0227488
						116:[D_CATEGORY_MICRO_MEAN_COEC<0.0961039] yes=233,no=234,missing=234
							233:leaf=-0.0176368
							234:leaf=-0.0371475
					58:[D_TITLEMD5_COEC<0.118082] yes=117,no=118,missing=118
						117:[WORD_COUNT<2470] yes=235,no=236,missing=236
							235:leaf=-0.0102351
							236:leaf=0.00829046
						118:[C_D_U_CATEGORY_AGE_MACRO_MAX_COEC<0.109463] yes=237,no=238,missing=237
							237:leaf=-0.0219703
							238:leaf=0.0317603
			14:[U_CAT_LEN<8] yes=29,no=30,missing=30
				29:[CAT_REL<0.372422] yes=59,no=60,missing=60
					59:[D_KEYWORD_MACRO_MEAN_COEC<0.0683099] yes=119,no=120,missing=120
						119:[C_D_U_TITLEMD5_CATEGORY_MACRO_MAX_COEC<0.075016] yes=239,no=240,missing=240
							239:leaf=-0.026833
							240:leaf=-0.0637291
						120:[C_D_U_TITLEMD5_CATEGORY_MACRO_MEAN_COEC<0.212768] yes=241,no=242,missing=242
							241:leaf=-0.00685601
							242:leaf=0.0217513
					60:[C_D_U_TITLEMD5_GENDER_COEC<0.042746] yes=121,no=122,missing=122
						121:[C_D_U_CATEGORY_GENDER_MACRO_MEAN_COEC<0.0696757] yes=243,no=244,missing=244
							243:leaf=0.00245447
							244:leaf=-0.0388564
						122:[C_D_U_TITLEMD5_CATEGORY_MACRO_MEAN_COEC<0.176429] yes=245,no=246,missing=246
							245:leaf=0.00757421
							246:leaf=0.025658
				30:[CAT_REL<0.190451] yes=61,no=62,missing=62
					61:[D_CATEGORY_MACRO_MAX_COEC<0.0929903] yes=123,no=124,missing=123
						123:[D_KEYWORD_MACRO_MEAN_COEC<0.0689892] yes=247,no=248,missing=248
							247:leaf=-0.0200027
							248:leaf=0.015702
						124:[C_D_U_CATEGORY_AGE_MACRO_MAX_COEC<0.109463] yes=249,no=250,missing=250
							249:leaf=-0.0161876
							250:leaf=0.0314855
					62:[C_D_U_TITLEMD5_GENDER_COEC<0.0239672] yes=125,no=126,missing=125
						125:[KW_REL<0.00575583] yes=251,no=252,missing=252
							251:leaf=-0.0164787
							252:leaf=0.00511085
						126:[C_D_U_TITLEMD5_CATEGORY_MACRO_MEAN_COEC<0.167552] yes=253,no=254,missing=254
							253:leaf=0.0198268
							254:leaf=0.0354612
booster[17]:
0:[U_KW_LEN<200] yes=1,no=2,missing=1
	1:[C_D_U_TITLEMD5_GENDER_COEC<0.0815569] yes=3,no=4,missing=3
		3:[C_D_U_TITLEMD5_GENDER_COEC<0.0321944] yes=7,no=8,missing=8
			7:[D_KEYWORD_MACRO_MEAN_COEC<0.0605624] yes=15,no=16,missing=16
				15:[KW_REL<0.00307243] yes=31,no=32,missing=32
					31:[D_CATEGORY_MICRO_MEAN_COEC<0.0788058] yes=63,no=64,missing=64
						63:[C_D_U_CATEGORY_CITY_MACRO_MEAN_COEC<0.0746673] yes=127,no=128,missing=128
							127:leaf=-0.0396569
							128:leaf=-0.0150525
						64:[C_D_U_TITLEMD5_CATEGORY_MICRO_MAX_COEC<0.0253535] yes=129,no=130,missing=130
							129:leaf=-0.073282
							130:leaf=-0.0364866
					32:[TIME_OF_DAY<10] yes=65,no=66,missing=66
						65:[U_KW_LEN<124] yes=131,no=132,missing=132
							131:leaf=-0.0223532
							132:leaf=0.0379423
						66:[D_KEYWORD_MACRO_MEAN_COEC<0.0497669] yes=133,no=134,missing=134
							133:leaf=-0.046513
							134:leaf=-0.0200598
				16:[IMAGE_COUNT<0.999999] yes=33,no=34,missing=34
					33:[D_KEYWORD_MACRO_MAX_COEC<0.0182625] yes=67,no=68,missing=68
						67:[U_GENDER<2] yes=135,no=136,missing=136
							135:leaf=0.095992
							136:leaf=-0.0919064
						68:[C_D_U_CATEGORY_CITY_MICRO_MEAN_COEC<0.122146] yes=137,no=138,missing=138
							137:leaf=-0.119393
							138:leaf=0.0804159
					34:[C_D_U_CATEGORY_GENDER_MICRO_MAX_COEC<0.0941705] yes=69,no=70,missing=70
						69:[CAT_REL<0.666666] yes=139,no=140,missing=140
							139:leaf=-0.0231174
							140:leaf=0.00581461
						70:[D_CATEGORY_MICRO_MAX_COEC<0.0993079] yes=141,no=142,missing=141
							141:leaf=0.0388443
							142:leaf=-0.0347654
			8:[C_D_U_CATEGORY_CITY_MACRO_MAX_COEC<0.116416] yes=17,no=18,missing=17
				17:[C_D_U_TITLEMD5_CATEGORY_MACRO_MEAN_COEC<0.0629891] yes=35,no=36,missing=36
					35:[CAT_REL<0.142856] yes=71,no=72,missing=72
						71:[D_KEYWORD_MACRO_MAX_COEC<0.0146077] yes=143,no=144,missing=144
							143:leaf=-0.0399564
							144:leaf=-0.0210747
						72:[D_KEYWORD_MACRO_MEAN_COEC<0.0884398] yes=145,no=146,missing=146
							145:leaf=-0.0152321
							146:leaf=0.0332939
					36:[U_KW_LEN<98] yes=73,no=74,missing=74
						73:[WORD_COUNT<2980] yes=147,no=148,missing=148
							147:leaf=-0.0143032
							148:leaf=-0.00481921
						74:[KW_REL<0.00110074] yes=149,no=150,missing=150
							149:leaf=-0.00495914
							150:leaf=0.00944104
				18:[CAT_REL<0.430656] yes=37,no=38,missing=38
					37:[DAY_OF_WEEK<6] yes=75,no=76,missing=76
						75:[D_TITLEMD5_COEC<0.0619848] yes=151,no=152,missing=151
							151:leaf=-0.0167378
							152:leaf=0.0353092
						76:[D_KEYWORD_MICRO_MAX_COEC<0.09813] yes=153,no=154,missing=154
							153:leaf=0.012594
							154:leaf=-0.0909336
					38:[TIME_OF_DAY<4] yes=77,no=78,missing=78
						77:[DAY_OF_WEEK<5] yes=155,no=156,missing=156
							155:leaf=-0.152751
							156:leaf=0.119929
						78:[U_AGE_1<0.999999] yes=157,no=158,missing=158
							157:leaf=0.0607334
							158:leaf=0.181292
		4:[C_D_U_TITLEMD5_CATEGORY_MACRO_MEAN_COEC<0.118938] yes=9,no=10,missing=9
			9:[TIME_OF_DAY<17] yes=19,no=20,missing=20
				19:[D_KEYWORD_MICRO_MEAN_COEC<0.0868744] yes=39,no=40,missing=40
					39:[IMAGE_COUNT<2] yes=79,no=80,missing=80
						79:[U_AGE_1<0.999999] yes=159,no=160,missing=160
							159:leaf=-0.00661773
							160:leaf=-0.0309395
						80:[CAT_REL<0.087557] yes=161,no=162,missing=162
							161:leaf=0.00525468
							162:leaf=0.0298996
					40:[TIME_OF_DAY<13] yes=81,no=82,missing=82
						81:[D_KEYWORD_MICRO_MAX_COEC<0.224098] yes=163,no=164,missing=164
							163:leaf=0.00873199
							164:leaf=0.0398731
						82:[DAY_OF_WEEK<4] yes=165,no=166,missing=166
							165:leaf=0.00270957
							166:leaf=-0.0155013
				20:[C_D_U_TITLEMD5_CATEGORY_MACRO_MEAN_COEC<0.0977618] yes=41,no=42,missing=42
					41:[C_D_U_PUBLISHER_GENDER_COEC<0.114395] yes=83,no=84,missing=84
						83:[C_D_U_CATEGORY_CITY_MACRO_MEAN_COEC<0.104562] yes=167,no=168,missing=167
							167:leaf=-0.00828183
							168:leaf=0.0372722
						84:[C_D_U_TITLEMD5_CATEGORY_MACRO_MAX_COEC<0.0230996] yes=169,no=170,missing=170
							169:leaf=-0.0641985
							170:leaf=0.0528534
					42:[C_D_U_CATEGORY_GENDER_MACRO_MAX_COEC<0.0960102] yes=85,no=86,missing=85
						85:[U_AGE_2<0.999999] yes=171,no=172,missing=172
							171:leaf=0.00869296
							172:leaf=0.0226758
						86:[DAY_OF_WEEK<3] yes=173,no=174,missing=174
							173:leaf=0.0233097
							174:leaf=0.0488425
			10:[U_KW_LEN<95] yes=21,no=22,missing=22
				21:[U_GENDER<2] yes=43,no=44,missing=43
					43:[U_KW_LEN<27] yes=87,no=88,missing=88
						87:[D_KEYWORD_MACRO_MEAN_COEC<0.123686] yes=175,no=176,missing=176
							175:leaf=-0.0112103
							176:leaf=0.0119471
						88:[C_D_U_PUBLISHER_GENDER_COEC<0.0563638] yes=177,no=178,missing=178
							177:leaf=-0.0317383
							178:leaf=0.0100102
					44:[C_D_U_CATEGORY_GENDER_MACRO_MAX_COEC<0.0809597] yes=89,no=90,missing=89
						89:[C_D_U_PUBLISHER_GENDER_COEC<0.101243] yes=179,no=180,missing=180
							179:leaf=-0.00496383
							180:leaf=0.026975
						90:[D_CATEGORY_MACRO_MEAN_COEC<0.0888881] yes=181,no=182,missing=182
							181:leaf=0.0579111
							182:leaf=0.0273263
				22:[KW_REL<0.000613677] yes=45,no=46,missing=46
					45:[D_KEYWORD_MACRO_MEAN_COEC<0.0761229] yes=91,no=92,missing=92
						91:[D_CATEGORY_MACRO_MEAN_COEC<0.063339] yes=183,no=184,missing=184
							183:leaf=-0.083434
							184:leaf=-0.0131401
						92:[C_D_U_TITLEMD5_CATEGORY_MACRO_MEAN_COEC<0.235145] yes=185,no=186,missing=186
							185:leaf=0.0148001
							186:leaf=0.0412754
					46:[CAT_REL<0.655171] yes=93,no=94,missing=94
						93:[C_D_U_PUBLISHER_GENDER_COEC<0.0701282] yes=187,no=188,missing=188
							187:leaf=0.00581224
							188:leaf=0.0265675
						94:[KW_REL<0.00070738] yes=189,no=190,missing=190
							189:leaf=-0.0925738
							190:leaf=0.0451094
	2:[C_D_U_TITLEMD5_CATEGORY_MACRO_MEAN_COEC<0.0878189] yes=5,no=6,missing=6
		5:[C_D_U_TITLEMD5_CATEGORY_MACRO_MEAN_COEC<0.0510727] yes=11,no=12,missing=12
			11:[CAT_REL<0.090682] yes=23,no=24,missing=24
				23:[D_PUBLISHER_COEC<0.0262475] yes=47,no=48,missing=48
					47:[D_CATEGORY_MACRO_MAX_COEC<0.0909269] yes=95,no=96,missing=96
						95:[CAT_REL<0.0074] yes=191,no=192,missing=192
							191:leaf=-0.0794805
							192:leaf=-0.056149
						96:[U_CAT_LEN<10] yes=193,no=194,missing=194
							193:leaf=-0.0965454
							194:leaf=0.0544435
					48:[IMAGE_COUNT<3] yes=97,no=98,missing=98
						97:[D_CATEGORY_MICRO_MAX_COEC<0.0637958] yes=195,no=196,missing=195
							195:leaf=-0.0286364
							196:leaf=-0.0457849
						98:[C_D_U_PUBLISHER_CITY_COEC<0.0839671] yes=197,no=198,missing=197
							197:leaf=-0.0196977
							198:leaf=0.0178553
				24:[C_D_U_PUBLISHER_CITY_COEC<0.055319] yes=49,no=50,missing=50
					49:[D_CATEGORY_MICRO_MAX_COEC<0.0603931] yes=99,no=100,missing=100
						99:[D_CATEGORY_MACRO_MAX_COEC<0.0468657] yes=199,no=200,missing=200
							199:leaf=0.0283614
							200:leaf=-0.0235541
						100:[D_PUBLISHER_COEC<0.0262475] yes=201,no=202,missing=202
							201:leaf=-0.0612792
							202:leaf=-0.0305215
					50:[D_TITLEMD5_COEC<0.109214] yes=101,no=102,missing=102
						101:[KW_REL<0.000827814] yes=203,no=204,missing=204
							203:leaf=-0.0307585
							204:leaf=-0.0145651
						102:[D_KEYWORD_MACRO_MEAN_COEC<0.0605265] yes=205,no=206,missing=206
							205:leaf=-0.00761982
							206:leaf=0.0277573
			12:[KW_REL<0.00376157] yes=25,no=26,missing=26
				25:[D_TITLEMD5_COEC<0.0909081] yes=51,no=52,missing=52
					51:[C_D_U_TITLEMD5_CATEGORY_MACRO_MEAN_COEC<0.0676802] yes=103,no=104,missing=104
						103:[D_TITLEMD5_COEC<0.0648635] yes=207,no=208,missing=208
							207:leaf=-0.0075246
							208:leaf=-0.0223919
						104:[U_CAT_LEN<10] yes=209,no=210,missing=210
							209:leaf=-0.0135094
							210:leaf=0.00401621
					52:[C_D_U_PUBLISHER_CITY_COEC<0.0865066] yes=105,no=106,missing=105
						105:[KW_REL<0.000276224] yes=211,no=212,missing=212
							211:leaf=-0.0460029
							212:leaf=-0.0250319
						106:[D_CATEGORY_MICRO_MEAN_COEC<0.0602451] yes=213,no=214,missing=213
							213:leaf=0.0450376
							214:leaf=-0.0158454
				26:[CAT_REL<0.167997] yes=53,no=54,missing=54
					53:[D_CATEGORY_MACRO_MAX_COEC<0.0601491] yes=107,no=108,missing=107
						107:[KW_REL<0.00638467] yes=215,no=216,missing=216
							215:leaf=0.000318692
							216:leaf=0.0284537
						108:[CAT_REL<0.038012] yes=217,no=218,missing=218
							217:leaf=-0.03925
							218:leaf=-0.00757667
					54:[U_CAT_LEN<13] yes=109,no=110,missing=110
						109:[WORD_COUNT<2935] yes=219,no=220,missing=220
							219:leaf=-0.00403556
							220:leaf=0.00949721
						110:[WORD_COUNT<2511] yes=221,no=222,missing=222
							221:leaf=0.0087491
							222:leaf=0.0226553
		6:[CAT_REL<0.048954] yes=13,no=14,missing=14
			13:[D_KEYWORD_MACRO_MEAN_COEC<0.0778561] yes=27,no=28,missing=28
				27:[D_TITLEMD5_COEC<0.1138] yes=55,no=56,missing=56
					55:[D_CATEGORY_MICRO_MAX_COEC<0.0630236] yes=111,no=112,missing=111
						111:[D_KEYWORD_MACRO_MEAN_COEC<0.0526742] yes=223,no=224,missing=224
							223:leaf=-0.113899
							224:leaf=0.0141168
						112:[CAT_REL<0.0074] yes=225,no=226,missing=226
							225:leaf=-0.059962
							226:leaf=-0.0193855
					56:[WORD_COUNT<3732] yes=113,no=114,missing=114
						113:[CAT_REL<0.029982] yes=227,no=228,missing=228
							227:leaf=-0.0722826
							228:leaf=-0.0380724
						114:[D_KEYWORD_MACRO_MEAN_COEC<0.0605265] yes=229,no=230,missing=230
							229:leaf=-0.0758892
							230:leaf=-0.015292
				28:[D_CATEGORY_MICRO_MEAN_COEC<0.0628375] yes=57,no=58,missing=57
					57:[U_CAT_LEN<12] yes=115,no=116,missing=116
						115:[C_D_U_TITLEMD5_CATEGORY_MICRO_MAX_COEC<0.145397] yes=231,no=232,missing=232
							231:leaf=-0.0149371
							232:leaf=0.0195297
						116:[D_KEYWORD_MICRO_MAX_COEC<0.20294] yes=233,no=234,missing=234
							233:leaf=0.0435741
							234:leaf=-0.132376
					58:[WORD_COUNT<995] yes=117,no=118,missing=118
						117:[D_PUBLISHER_COEC<0.125342] yes=235,no=236,missing=236
							235:leaf=-0.0219503
							236:leaf=-0.067062
						118:[CAT_REL<0.01922] yes=237,no=238,missing=238
							237:leaf=-0.0125136
							238:leaf=0.00545908
			14:[C_D_U_TITLEMD5_CATEGORY_MACRO_MEAN_COEC<0.161241] yes=29,no=30,missing=30
				29:[D_CATEGORY_MICRO_MEAN_COEC<0.0938186] yes=59,no=60,missing=60
					59:[C_D_U_TITLEMD5_CATEGORY_MICRO_MAX_COEC<0.265951] yes=119,no=120,missing=120
						119:[U_CAT_LEN<12] yes=239,no=240,missing=240
							239:leaf=0.00814935
							240:leaf=0.0217867
						120:[D_KEYWORD_MACRO_MEAN_COEC<0.0806984] yes=241,no=242,missing=242
							241:leaf=-0.0335551
							242:leaf=-0.00202633
					60:[CAT_REL<0.372804] yes=121,no=122,missing=122
						121:[WORD_COUNT<2325] yes=243,no=244,missing=244
							243:leaf=-0.016104
							244:leaf=0.00321052
						122:[WORD_COUNT<1130] yes=245,no=246,missing=246
							245:leaf=-0.00120297
							246:leaf=0.0166561
				30:[D_PUBLISHER_COEC<0.0723241] yes=61,no=62,missing=62
					61:[C_D_U_TITLEMD5_CATEGORY_MICRO_MAX_COEC<0.28228] yes=123,no=124,missing=124
						123:[KW_REL<0.00223753] yes=247,no=248,missing=248
							247:leaf=-0.00275386
							248:leaf=0.0330632
						124:[U_CAT_LEN<17] yes=249,no=250,missing=250
							249:leaf=-0.0206968
							250:leaf=0.0102638
					62:[KW_REL<0.000421679] yes=125,no=126,missing=126
						125:[D_KEYWORD_MACRO_MEAN_COEC<0.0884552] yes=251,no=252,missing=252
							251:leaf=-0.0317102
							252:leaf=0.0165413
						126:[WORD_COUNT<819] yes=253,no=254,missing=254
							253:leaf=0.0103216
							254:leaf=0.0355835
booster[18]:
0:[U_KW_LEN<200] yes=1,no=2,missing=1
	1:[D_KEYWORD_MACRO_MEAN_COEC<0.081109] yes=3,no=4,missing=4
		3:[D_TITLEMD5_COEC<0.0559521] yes=7,no=8,missing=8
			7:[D_KEYWORD_MACRO_MEAN_COEC<0.0343299] yes=15,no=16,missing=16
				15:[D_KEYWORD_MICRO_MAX_COEC<0.17779] yes=31,no=32,missing=32
					31:[KW_REL<0.00806889] yes=63,no=64,missing=64
						63:[C_D_U_TITLEMD5_CATEGORY_MACRO_MEAN_COEC<0.0182757] yes=127,no=128,missing=127
							127:leaf=-0.0517557
							128:leaf=-0.0161605
						64:[D_CATEGORY_MACRO_MAX_COEC<0.0624064] yes=129,no=130,missing=130
							129:leaf=0.0773985
							130:leaf=-0.0574421
					32:[DAY_OF_WEEK<6] yes=65,no=66,missing=66
						65:[C_D_U_CATEGORY_CITY_MICRO_MEAN_COEC<0.0247444] yes=131,no=132,missing=132
							131:leaf=0.12118
							132:leaf=-0.112984
						66:[C_D_U_CATEGORY_GENDER_MICRO_MEAN_COEC<0.0612863] yes=133,no=134,missing=134
							133:leaf=-0.111915
							134:leaf=0.285487
				16:[IMAGE_COUNT<3] yes=33,no=34,missing=34
					33:[C_D_U_PUBLISHER_CITY_COEC<0.0898856] yes=67,no=68,missing=67
						67:[C_D_U_CATEGORY_GENDER_MICRO_MAX_COEC<0.0217161] yes=135,no=136,missing=135
							135:leaf=0.0169791
							136:leaf=-0.0257172
						68:[U_KW_LEN<174] yes=137,no=138,missing=138
							137:leaf=-0.0142743
							138:leaf=0.0233446
					34:[CAT_REL<0.283982] yes=69,no=70,missing=70
						69:[D_PUBLISHER_COEC<0.0459] yes=139,no=140,missing=140
							139:leaf=-0.0436783
							140:leaf=-0.0033439
						70:[TIME_OF_DAY<12] yes=141,no=142,missing=142
							141:leaf=0.0531062
							142:leaf=0.00353755
			8:[IMAGE_COUNT<2] yes=17,no=18,missing=18
				17:[CAT_REL<0.264699] yes=35,no=36,missing=36
					35:[U_AGE_2<0.999999] yes=71,no=72,missing=72
						71:[D_CATEGORY_MICRO_MAX_COEC<0.0312557] yes=143,no=144,missing=144
							143:leaf=0.0363399
							144:leaf=-0.0169764
						72:[D_PUBLISHER_COEC<0.0923849] yes=145,no=146,missing=146
							145:leaf=-0.00672061
							146:leaf=0.0103239
					36:[KW_REL<0.00138084] yes=73,no=74,missing=74
						73:[C_D_U_CATEGORY_CITY_MACRO_MAX_COEC<0.0695731] yes=147,no=148,missing=148
							147:leaf=-0.0234174
							148:leaf=-0.0034392
						74:[U_KW_LEN<88] yes=149,no=150,missing=150
							149:leaf=-0.00393911
							150:leaf=0.0145226
				18:[D_CATEGORY_MICRO_MEAN_COEC<0.0884632] yes=37,no=38,missing=38
					37:[CAT_REL<0.166666] yes=75,no=76,missing=76
						75:[C_D_U_PUBLISHER_GENDER_COEC<0.0339906] yes=151,no=152,missing=151
							151:leaf=-0.0780197
							152:leaf=0.0100219
						76:[U_KW_LEN<51] yes=153,no=154,missing=154
							153:leaf=0.00995085
							154:leaf=0.0407417
					38:[C_D_U_CATEGORY_CITY_MACRO_MEAN_COEC<0.0906951] yes=77,no=78,missing=78
						77:[C_D_U_TITLEMD5_GENDER_COEC<0.106762] yes=155,no=156,missing=155
							155:leaf=-0.0552754
							156:leaf=0.0115293
						78:[C_D_U_CATEGORY_GENDER_MACRO_MAX_COEC<0.0851527] yes=157,no=158,missing=158
							157:leaf=-0.0801405
							158:leaf=0.00958212
		4:[C_D_U_TITLEMD5_GENDER_COEC<0.157534] yes=9,no=10,missing=10
			9:[WORD_COUNT<1219] yes=19,no=20,missing=20
				19:[D_CATEGORY_MACRO_MEAN_COEC<0.0878612] yes=39,no=40,missing=40
					39:[C_D_U_CATEGORY_CITY_MACRO_MEAN_COEC<0.0585407] yes=79,no=80,missing=80
						79:[C_D_U_TITLEMD5_CATEGORY_MACRO_MEAN_COEC<0.09088] yes=159,no=160,missing=160
							159:leaf=-0.0885675
							160:leaf=-0.0118261
						80:[TIME_OF_DAY<13] yes=161,no=162,missing=162
							161:leaf=0.013357
							162:leaf=-0.000939776
					40:[WORD_COUNT<1034] yes=81,no=82,missing=82
						81:[KW_REL<1.9506e-05] yes=163,no=164,missing=164
							163:leaf=-0.0265214
							164:leaf=-0.00704983
						82:[D_TITLEMD5_COEC<0.0881537] yes=165,no=166,missing=166
							165:leaf=-0.0580992
							166:leaf=0.00672778
				20:[CAT_REL<0.246752] yes=41,no=42,missing=42
					41:[D_KEYWORD_MACRO_MAX_COEC<0.0285592] yes=83,no=84,missing=84
						83:[WORD_COUNT<2096] yes=167,no=168,missing=168
							167:leaf=-0.00822487
							168:leaf=0.00726633
						84:[WORD_COUNT<3909] yes=169,no=170,missing=170
							169:leaf=0.00751639
							170:leaf=0.0332021
					42:[U_KW_LEN<39] yes=85,no=86,missing=86
						85:[WORD_COUNT<1318] yes=171,no=172,missing=172
							171:leaf=0.035899
							172:leaf=-0.00304199
						86:[U_AGE_1<0.999999] yes=173,no=174,missing=174
							173:leaf=0.0215786
							174:leaf=-0.0141922
			10:[WORD_COUNT<1444] yes=21,no=22,missing=22
				21:[D_KEYWORD_MACRO_MAX_COEC<0.0431079] yes=43,no=44,missing=44
					43:[D_KEYWORD_MICRO_MEAN_COEC<0.130915] yes=87,no=88,missing=88
						87:[D_KEYWORD_MICRO_MAX_COEC<0.244896] yes=175,no=176,missing=176
							175:leaf=0.00718455
							176:leaf=-0.0630895
						88:[C_D_U_TITLEMD5_GENDER_COEC<0.187616] yes=177,no=178,missing=178
							177:leaf=-0.0597919
							178:leaf=-0.00552708
					44:[C_D_U_TITLEMD5_CATEGORY_MACRO_MEAN_COEC<0.193953] yes=89,no=90,missing=90
						89:[CAT_REL<0.075113] yes=179,no=180,missing=180
							179:leaf=-0.00613966
							180:leaf=0.0176675
						90:[U_AGE_2<0.999999] yes=181,no=182,missing=182
							181:leaf=0.0153527
							182:leaf=0.0327568
				22:[U_AGE_2<0.999999] yes=45,no=46,missing=46
					45:[C_D_U_TITLEMD5_CATEGORY_MICRO_MEAN_COEC<0.16853] yes=91,no=92,missing=92
						91:[DAY_OF_WEEK<0.999999] yes=183,no=184,missing=184
							183:leaf=-0.0569823
							184:leaf=0.00244893
						92:[CAT_REL<0.199999] yes=185,no=186,missing=186
							185:leaf=0.0160987
							186:leaf=0.0318549
					46:[C_D_U_TITLEMD5_CATEGORY_MACRO_MEAN_COEC<0.166703] yes=93,no=94,missing=94
						93:[KW_REL<0.0177145] yes=187,no=188,missing=188
							187:leaf=0.022303
							188:leaf=-0.0891062
						94:[D_KEYWORD_MICRO_MEAN_COEC<0.0741293] yes=189,no=190,missing=190
							189:leaf=-0.0191355
							190:leaf=0.0359837
	2:[C_D_U_TITLEMD5_CATEGORY_MACRO_MEAN_COEC<0.100759] yes=5,no=6,missing=6
		5:[C_D_U_TITLEMD5_CATEGORY_MACRO_MEAN_COEC<0.0624863] yes=11,no=12,missing=12
			11:[CAT_REL<0.068902] yes=23,no=24,missing=24
				23:[CAT_REL<0.019563] yes=47,no=48,missing=48
					47:[D_PUBLISHER_COEC<0.0904754] yes=95,no=96,missing=96
						95:[C_D_U_TITLEMD5_CATEGORY_MICRO_MAX_COEC<0.0702191] yes=191,no=192,missing=192
							191:leaf=-0.0604401
							192:leaf=-0.0427349
						96:[D_KEYWORD_MICRO_MAX_COEC<0.151797] yes=193,no=194,missing=194
							193:leaf=-0.0305914
							194:leaf=0.0736016
					48:[D_CATEGORY_MACRO_MEAN_COEC<0.0396386] yes=97,no=98,missing=98
						97:[D_TITLEMD5_COEC<0.0260187] yes=195,no=196,missing=195
							195:leaf=-0.0387796
							196:leaf=0.0292198
						98:[C_D_U_CATEGORY_CITY_MACRO_MEAN_COEC<0.07738] yes=197,no=198,missing=198
							197:leaf=-0.0393779
							198:leaf=-0.0199062
				24:[U_CAT_LEN<12] yes=49,no=50,missing=50
					49:[CAT_REL<0.485614] yes=99,no=100,missing=100
						99:[C_D_U_TITLEMD5_CATEGORY_MICRO_MAX_COEC<0.0570563] yes=199,no=200,missing=200
							199:leaf=-0.0408596
							200:leaf=-0.0225385
						100:[D_KEYWORD_MACRO_MEAN_COEC<0.0597462] yes=201,no=202,missing=202
							201:leaf=-0.0201076
							202:leaf=0.00158035
					50:[KW_REL<0.00472389] yes=101,no=102,missing=102
						101:[D_TITLEMD5_COEC<0.0260187] yes=203,no=204,missing=204
							203:leaf=-0.0311735
							204:leaf=-0.0131219
						102:[C_D_U_CATEGORY_GENDER_MACRO_MAX_COEC<0.0446093] yes=205,no=206,missing=206
							205:leaf=0.0380415
							206:leaf=-0.00309428
			12:[KW_REL<0.00054357] yes=25,no=26,missing=26
				25:[WORD_COUNT<1274] yes=51,no=52,missing=52
					51:[CAT_REL<0.338156] yes=103,no=104,missing=104
						103:[D_CATEGORY_MACRO_MAX_COEC<0.096517] yes=207,no=208,missing=208
							207:leaf=-0.026569
							208:leaf=-0.0491638
						104:[TIME_OF_DAY<17] yes=209,no=210,missing=210
							209:leaf=-0.0188681
							210:leaf=0.00144331
					52:[D_PUBLISHER_COEC<0.0909336] yes=105,no=106,missing=106
						105:[CAT_REL<0.097746] yes=211,no=212,missing=212
							211:leaf=-0.0298279
							212:leaf=-0.0112792
						106:[D_KEYWORD_MACRO_MAX_COEC<0.014581] yes=213,no=214,missing=214
							213:leaf=0.0222641
							214:leaf=-0.00385123
				26:[D_TITLEMD5_COEC<0.107313] yes=53,no=54,missing=54
					53:[U_CAT_LEN<18] yes=107,no=108,missing=108
						107:[C_D_U_PUBLISHER_CITY_COEC<0.0823706] yes=215,no=216,missing=215
							215:leaf=-0.00530396
							216:leaf=0.00584832
						108:[C_D_U_TITLEMD5_CATEGORY_MACRO_MEAN_COEC<0.0874548] yes=217,no=218,missing=218
							217:leaf=0.0137423
							218:leaf=0.0314535
					54:[D_PUBLISHER_COEC<0.0806577] yes=109,no=110,missing=110
						109:[CAT_REL<0.050129] yes=219,no=220,missing=220
							219:leaf=-0.0545008
							220:leaf=-0.0215067
						110:[WORD_COUNT<5637] yes=221,no=222,missing=222
							221:leaf=-0.0113032
							222:leaf=0.025872
		6:[KW_REL<0.00161891] yes=13,no=14,missing=14
			13:[D_KEYWORD_MACRO_MEAN_COEC<0.068644] yes=27,no=28,missing=28
				27:[D_KEYWORD_MACRO_MEAN_COEC<0.0584924] yes=55,no=56,missing=56
					55:[CAT_REL<0.097746] yes=111,no=112,missing=112
						111:[TIME_OF_DAY<22] yes=223,no=224,missing=224
							223:leaf=-0.0851181
							224:leaf=0.0533865
						112:[C_D_U_CATEGORY_GENDER_MACRO_MEAN_COEC<0.0830674] yes=225,no=226,missing=226
							225:leaf=-0.0321272
							226:leaf=-0.066765
					56:[CAT_REL<0.097746] yes=113,no=114,missing=114
						113:[WORD_COUNT<5154] yes=227,no=228,missing=228
							227:leaf=-0.0573323
							228:leaf=0.0158396
						114:[C_D_U_TITLEMD5_GENDER_COEC<0.232518] yes=229,no=230,missing=229
							229:leaf=-0.00280801
							230:leaf=-0.0550474
				28:[C_D_U_TITLEMD5_CATEGORY_MACRO_MEAN_COEC<0.196166] yes=57,no=58,missing=58
					57:[U_CAT_LEN<7] yes=115,no=116,missing=116
						115:[WORD_COUNT<1219] yes=231,no=232,missing=232
							231:leaf=-0.0259951
							232:leaf=-0.00758162
						116:[U_CAT_LEN<17] yes=233,no=234,missing=234
							233:leaf=0.00439676
							234:leaf=0.0202115
					58:[D_KEYWORD_MACRO_MEAN_COEC<0.100528] yes=117,no=118,missing=118
						117:[D_PUBLISHER_COEC<0.0634781] yes=235,no=236,missing=236
							235:leaf=-0.048674
							236:leaf=-0.00485368
						118:[C_D_U_TITLEMD5_CATEGORY_MACRO_MEAN_COEC<0.212466] yes=237,no=238,missing=238
							237:leaf=0.0209105
							238:leaf=0.0402296
			14:[D_KEYWORD_MACRO_MEAN_COEC<0.0621484] yes=29,no=30,missing=30
				29:[KW_REL<0.00549484] yes=59,no=60,missing=60
					59:[D_KEYWORD_MACRO_MEAN_COEC<0.0539454] yes=119,no=120,missing=120
						119:[C_D_U_CATEGORY_GENDER_MACRO_MAX_COEC<0.0630421] yes=239,no=240,missing=240
							239:leaf=-0.0144101
							240:leaf=-0.0640751
						120:[WORD_COUNT<1804] yes=241,no=242,missing=242
							241:leaf=-0.031831
							242:leaf=-0.002795
					60:[CAT_REL<0.064129] yes=121,no=122,missing=122
						121:[CAT_REL<0.030412] yes=243,no=244,missing=244
							243:leaf=-0.0866846
							244:leaf=-0.0333527
						122:[D_PUBLISHER_COEC<0.0553862] yes=245,no=246,missing=246
							245:leaf=-0.0120284
							246:leaf=0.0171586
				30:[WORD_COUNT<849] yes=61,no=62,missing=62
					61:[CAT_REL<0.324471] yes=123,no=124,missing=124
						123:[D_CATEGORY_MICRO_MAX_COEC<0.0946629] yes=247,no=248,missing=248
							247:leaf=-0.00237649
							248:leaf=-0.0359191
						124:[D_CATEGORY_MACRO_MAX_COEC<0.104815] yes=249,no=250,missing=250
							249:leaf=0.0132981
							250:leaf=-0.0173982
					62:[CAT_REL<0.080163] yes=125,no=126,missing=126
						125:[D_CATEGORY_MICRO_MEAN_COEC<0.0867144] yes=251,no=252,missing=252
							251:leaf=0.00148224
							252:leaf=0.0262722
						126:[U_CAT_LEN<10] yes=253,no=254,missing=254
							253:leaf=0.0162214
							254:leaf=0.0291711
booster[19]:
0:[U_KW_LEN<200] yes=1,no=2,missing=1
	1:[C_D_U_TITLEMD5_CATEGORY_MACRO_MEAN_COEC<0.0773858] yes=3,no=4,missing=4
		3:[C_D_U_TITLEMD5_CATEGORY_MACRO_MEAN_COEC<0.04293] yes=7,no=8,missing=8
			7:[CAT_REL<0.219533] yes=15,no=16,missing=16
				15:[KW_REL<0.00399094] yes=31,no=32,missing=32
					31:[CAT_REL<0.214789] yes=63,no=64,missing=64
						63:[C_D_U_TITLEMD5_CATEGORY_MICRO_MEAN_COEC<0.021074] yes=127,no=128,missing=128
							127:leaf=-0.0437756
							128:leaf=-0.0306146
						64:[C_D_U_TITLEMD5_GENDER_COEC<0.124926] yes=129,no=130,missing=129
							129:leaf=-0.111902
							130:leaf=0.19581
					32:[U_CAT_LEN<5] yes=65,no=66,missing=66
						65:[C_D_U_CATEGORY_GENDER_MICRO_MAX_COEC<0.062574] yes=131,no=132,missing=132
							131:leaf=-0.0612669
							132:leaf=-0.0213445
						66:[C_D_U_CATEGORY_CITY_MICRO_MAX_COEC<0.0884131] yes=133,no=134,missing=134
							133:leaf=0.0093153
							134:leaf=-0.101976
				16:[U_KW_LEN<41] yes=33,no=34,missing=34
					33:[U_CAT_LEN<4] yes=67,no=68,missing=68
						67:[C_D_U_PUBLISHER_GENDER_COEC<0.0445898] yes=135,no=136,missing=135
							135:leaf=-0.0615823
							136:leaf=-0.0277646
						68:[TIME_OF_DAY<16] yes=137,no=138,missing=138
							137:leaf=-0.120715
							138:leaf=0.29622
					34:[D_KEYWORD_MACRO_MEAN_COEC<0.0670533] yes=69,no=70,missing=70
						69:[D_CATEGORY_MACRO_MEAN_COEC<0.0715378] yes=139,no=140,missing=140
							139:leaf=-0.00359898
							140:leaf=-0.0277821
						70:[WORD_COUNT<2700] yes=141,no=142,missing=142
							141:leaf=-0.00112698
							142:leaf=0.0716958
			8:[C_D_U_CATEGORY_GENDER_MICRO_MEAN_COEC<0.0731559] yes=17,no=18,missing=18
				17:[CAT_REL<0.637074] yes=35,no=36,missing=36
					35:[U_KW_LEN<186] yes=71,no=72,missing=72
						71:[TIME_OF_DAY<0.999999] yes=143,no=144,missing=144
							143:leaf=0.0407431
							144:leaf=-0.0233477
						72:[TIME_OF_DAY<19] yes=145,no=146,missing=146
							145:leaf=-0.00184032
							146:leaf=0.116641
					36:[U_KW_LEN<18] yes=73,no=74,missing=74
						73:[C_D_U_CATEGORY_CITY_MACRO_MAX_COEC<0.0625356] yes=147,no=148,missing=148
							147:leaf=0.0131999
							148:leaf=-0.0658285
						74:[D_KEYWORD_MICRO_MAX_COEC<0.113148] yes=149,no=150,missing=150
							149:leaf=0.00644496
							150:leaf=0.0510879
				18:[U_GENDER<2] yes=37,no=38,missing=37
					37:[U_KW_LEN<123] yes=75,no=76,missing=76
						75:[D_KEYWORD_MACRO_MEAN_COEC<0.0871436] yes=151,no=152,missing=152
							151:leaf=-0.0162771
							152:leaf=0.00605687
						76:[C_D_U_CATEGORY_GENDER_MACRO_MEAN_COEC<0.0848751] yes=153,no=154,missing=153
							153:leaf=0.00737172
							154:leaf=-0.0117491
					38:[D_CATEGORY_MACRO_MEAN_COEC<0.0935895] yes=77,no=78,missing=77
						77:[U_KW_LEN<18] yes=155,no=156,missing=156
							155:leaf=0.0961595
							156:leaf=0.0249478
						78:[CAT_REL<0.499999] yes=157,no=158,missing=158
							157:leaf=-0.0327735
							158:leaf=0.056058
		4:[C_D_U_TITLEMD5_GENDER_COEC<0.118459] yes=9,no=10,missing=9
			9:[U_KW_LEN<53] yes=19,no=20,missing=20
				19:[TIME_OF_DAY<17] yes=39,no=40,missing=40
					39:[D_CATEGORY_MICRO_MEAN_COEC<0.0649342] yes=79,no=80,missing=80
						79:[DAY_OF_WEEK<3] yes=159,no=160,missing=160
							159:leaf=0.018008
							160:leaf=-0.0253098
						80:[DAY_OF_WEEK<5] yes=161,no=162,missing=162
							161:leaf=-0.00890797
							162:leaf=0.00557655
					40:[C_D_U_TITLEMD5_GENDER_COEC<0.0187174] yes=81,no=82,missing=81
						81:[WORD_COUNT<3273] yes=163,no=164,missing=164
							163:leaf=-0.0646292
							164:leaf=0.00843348
						82:[U_AGE_2<0.999999] yes=165,no=166,missing=166
							165:leaf=-0.000584112
							166:leaf=0.0162596
				20:[WORD_COUNT<2367] yes=41,no=42,missing=42
					41:[CAT_REL<0.140685] yes=83,no=84,missing=84
						83:[C_D_U_TITLEMD5_CATEGORY_MACRO_MAX_COEC<0.0580293] yes=167,no=168,missing=168
							167:leaf=-0.00460646
							168:leaf=-0.0242622
						84:[C_D_U_PUBLISHER_CITY_COEC<0.0626909] yes=169,no=170,missing=170
							169:leaf=-0.00795033
							170:leaf=0.00781467
					42:[C_D_U_PUBLISHER_GENDER_COEC<0.0663087] yes=85,no=86,missing=85
						85:[CAT_REL<0.464566] yes=171,no=172,missing=172
							171:leaf=-0.0126985
							172:leaf=0.0259092
						86:[C_D_U_PUBLISHER_GENDER_COEC<0.0967518] yes=173,no=174,missing=174
							173:leaf=0.0137202
							174:leaf=0.0297929
			10:[D_KEYWORD_MICRO_MAX_COEC<0.208027] yes=21,no=22,missing=22
				21:[U_GENDER<2] yes=43,no=44,missing=43
					43:[C_D_U_CATEGORY_CITY_MACRO_MEAN_COEC<0.105847] yes=87,no=88,missing=88
						87:[C_D_U_TITLEMD5_CATEGORY_MICRO_MAX_COEC<0.136505] yes=175,no=176,missing=176
							175:leaf=-0.0102698
							176:leaf=0.00577774
						88:[WORD_COUNT<3737] yes=177,no=178,missing=178
							177:leaf=0.0153168
							178:leaf=0.0406828
					44:[C_D_U_CATEGORY_CITY_MACRO_MEAN_COEC<0.07048] yes=89,no=90,missing=90
						89:[D_TITLEMD5_COEC<0.101647] yes=179,no=180,missing=180
							179:leaf=-0.0414082
							180:leaf=0.0062963
						90:[WORD_COUNT<1014] yes=181,no=182,missing=182
							181:leaf=0.0118722
							182:leaf=0.0279485
				22:[U_AGE_2<0.999999] yes=45,no=46,missing=46
					45:[C_D_U_PUBLISHER_GENDER_COEC<0.0712496] yes=91,no=92,missing=92
						91:[C_D_U_CATEGORY_CITY_MACRO_MAX_COEC<0.0645072] yes=183,no=184,missing=183
							183:leaf=-0.14917
							184:leaf=-0.0135425
						92:[CAT_REL<0.061254] yes=185,no=186,missing=186
							185:leaf=0.00997618
							186:leaf=0.0307878
					46:[C_D_U_TITLEMD5_CATEGORY_MACRO_MEAN_COEC<0.2343] yes=93,no=94,missing=94
						93:[WORD_COUNT<1137] yes=187,no=188,missing=188
							187:leaf=0.0108568
							188:leaf=0.0327544
						94:[D_KEYWORD_MACRO_MAX_COEC<0.0191177] yes=189,no=190,missing=190
							189:leaf=-0.123791
							190:leaf=0.039612
	2:[C_D_U_TITLEMD5_CATEGORY_MACRO_MEAN_COEC<0.100882] yes=5,no=6,missing=6
		5:[C_D_U_TITLEMD5_CATEGORY_MACRO_MEAN_COEC<0.0653543] yes=11,no=12,missing=12
			11:[CAT_REL<0.269118] yes=23,no=24,missing=24
				23:[C_D_U_TITLEMD5_CATEGORY_MACRO_MEAN_COEC<0.035714] yes=47,no=48,missing=48
					47:[C_D_U_PUBLISHER_CITY_COEC<0.039485] yes=95,no=96,missing=96
						95:[C_D_U_PUBLISHER_AGE_COEC<0.152316] yes=191,no=192,missing=192
							191:leaf=-0.0504127
							192:leaf=0.119853
						96:[KW_REL<0.00062807] yes=193,no=194,missing=194
							193:leaf=-0.0437813
							194:leaf=-0.0253327
					48:[WORD_COUNT<2700] yes=97,no=98,missing=98
						97:[D_CATEGORY_MACRO_MAX_COEC<0.0537827] yes=195,no=196,missing=196
							195:leaf=-0.00245085
							196:leaf=-0.0250834
						98:[U_CAT_LEN<16] yes=197,no=198,missing=198
							197:leaf=-0.0148311
							198:leaf=0.00223457
				24:[KW_REL<0.00616085] yes=49,no=50,missing=50
					49:[D_TITLEMD5_COEC<0.0263148] yes=99,no=100,missing=100
						99:[D_KEYWORD_MACRO_MEAN_COEC<0.0696979] yes=199,no=200,missing=200
							199:leaf=-0.0374748
							200:leaf=0.00971014
						100:[U_CAT_LEN<10] yes=201,no=202,missing=202
							201:leaf=-0.0193484
							202:leaf=-0.00516545
					50:[D_CATEGORY_MACRO_MEAN_COEC<0.0399735] yes=101,no=102,missing=102
						101:[U_GENDER<2] yes=203,no=204,missing=204
							203:leaf=0.0407775
							204:leaf=0.150895
						102:[D_KEYWORD_MICRO_MEAN_COEC<0.0805204] yes=205,no=206,missing=206
							205:leaf=-0.0030132
							206:leaf=0.0217015
			12:[D_TITLEMD5_COEC<0.0982613] yes=25,no=26,missing=26
				25:[U_CAT_LEN<9] yes=51,no=52,missing=52
					51:[CAT_REL<0.291416] yes=103,no=104,missing=104
						103:[U_CAT_LEN<7] yes=207,no=208,missing=208
							207:leaf=-0.0265841
							208:leaf=-0.0121463
						104:[WORD_COUNT<3104] yes=209,no=210,missing=210
							209:leaf=-0.00737734
							210:leaf=0.0110475
					52:[WORD_COUNT<2945] yes=105,no=106,missing=106
						105:[C_D_U_TITLEMD5_CATEGORY_MACRO_MEAN_COEC<0.0835012] yes=211,no=212,missing=212
							211:leaf=-0.00370083
							212:leaf=0.010499
						106:[CAT_REL<0.117533] yes=213,no=214,missing=214
							213:leaf=0.00319362
							214:leaf=0.0191355
				26:[D_PUBLISHER_COEC<0.0807618] yes=53,no=54,missing=54
					53:[CAT_REL<0.069389] yes=107,no=108,missing=108
						107:[WORD_COUNT<2945] yes=215,no=216,missing=216
							215:leaf=-0.0506308
							216:leaf=-0.0194539
						108:[D_CATEGORY_MICRO_MAX_COEC<0.0828041] yes=217,no=218,missing=218
							217:leaf=-0.00906382
							218:leaf=-0.0220464
					54:[WORD_COUNT<1867] yes=109,no=110,missing=110
						109:[D_CATEGORY_MICRO_MEAN_COEC<0.0680682] yes=219,no=220,missing=219
							219:leaf=0.00689201
							220:leaf=-0.0179252
						110:[D_KEYWORD_MICRO_MEAN_COEC<0.108437] yes=221,no=222,missing=222
							221:leaf=0.00414654
							222:leaf=-0.0274183
		6:[KW_REL<0.000502486] yes=13,no=14,missing=14
			13:[CAT_REL<0.184947] yes=27,no=28,missing=28
				27:[C_D_U_CATEGORY_AGE_MACRO_MAX_COEC<0.0865493] yes=55,no=56,missing=56
					55:[D_KEYWORD_MICRO_MEAN_COEC<0.0756712] yes=111,no=112,missing=112
						111:[CAT_REL<0.056011] yes=223,no=224,missing=224
							223:leaf=-0.0654364
							224:leaf=-0.0277278
						112:[CAT_REL<0.019442] yes=225,no=226,missing=226
							225:leaf=-0.00898838
							226:leaf=0.0123189
					56:[WORD_COUNT<2792] yes=113,no=114,missing=114
						113:[C_D_U_TITLEMD5_CATEGORY_MICRO_MEAN_COEC<0.163038] yes=227,no=228,missing=228
							227:leaf=-0.0293725
							228:leaf=-0.0133807
						114:[D_KEYWORD_MACRO_MAX_COEC<0.0383391] yes=229,no=230,missing=230
							229:leaf=-0.00766628
							230:leaf=0.0146255
				28:[C_D_U_PUBLISHER_GENDER_COEC<0.0665344] yes=57,no=58,missing=57
					57:[WORD_COUNT<3519] yes=115,no=116,missing=116
						115:[C_D_U_TITLEMD5_CATEGORY_MICRO_MAX_COEC<0.21285] yes=231,no=232,missing=232
							231:leaf=-0.0139127
							232:leaf=-0.0425201
						116:[D_KEYWORD_MICRO_MEAN_COEC<0.0865871] yes=233,no=234,missing=234
							233:leaf=-0.0358795
							234:leaf=0.0452978
					58:[U_CAT_LEN<14] yes=117,no=118,missing=118
						117:[D_KEYWORD_MACRO_MEAN_COEC<0.169845] yes=235,no=236,missing=236
							235:leaf=0.0017421
							236:leaf=0.0307771
						118:[C_D_U_TITLEMD5_CATEGORY_MACRO_MAX_COEC<0.0663984] yes=237,no=238,missing=238
							237:leaf=0.013839
							238:leaf=0.0281149
			14:[D_PUBLISHER_COEC<0.0504206] yes=29,no=30,missing=30
				29:[CAT_REL<0.030606] yes=59,no=60,missing=60
					59:[C_D_U_CATEGORY_GENDER_MACRO_MAX_COEC<0.0865364] yes=119,no=120,missing=120
						119:[C_D_U_TITLEMD5_CATEGORY_MICRO_MEAN_COEC<0.101176] yes=239,no=240,missing=240
							239:leaf=-0.0242033
							240:leaf=-0.123324
						120:[D_CATEGORY_MACRO_MEAN_COEC<0.0853735] yes=241,no=242,missing=241
							241:leaf=0.0915055
							242:leaf=-0.132647
					60:[D_PUBLISHER_COEC<0.0462655] yes=121,no=122,missing=122
						121:[D_CATEGORY_MICRO_MAX_COEC<0.0815332] yes=243,no=244,missing=244
							243:leaf=-0.0255191
							244:leaf=-0.0626261
						122:[C_D_U_TITLEMD5_GENDER_COEC<0.278302] yes=245,no=246,missing=246
							245:leaf=-0.00421183
							246:leaf=-0.043935
				30:[CAT_REL<0.036323] yes=61,no=62,missing=62
					61:[D_KEYWORD_MACRO_MEAN_COEC<0.0779558] yes=123,no=124,missing=124
						123:[D_TITLEMD5_COEC<0.126433] yes=247,no=248,missing=248
							247:leaf=-0.0148379
							248:leaf=-0.0580175
						124:[D_CATEGORY_MACRO_MEAN_COEC<0.063962] yes=249,no=250,missing=249
							249:leaf=0.0259896
							250:leaf=-0.00339459
					62:[C_D_U_TITLEMD5_CATEGORY_MACRO_MEAN_COEC<0.168224] yes=125,no=126,missing=126
						125:[D_TITLEMD5_COEC<0.122223] yes=251,no=252,missing=252
							251:leaf=0.0204714
							252:leaf=0.00822134
						126:[D_KEYWORD_MACRO_MEAN_COEC<0.0808584] yes=253,no=254,missing=254
							253:leaf=0.0015408
							254:leaf=0.0316636
booster[20]:
0:[U_KW_LEN<200] yes=1,no=2,missing=1
	1:[D_KEYWORD_MACRO_MEAN_COEC<0.0813507] yes=3,no=4,missing=4
		3:[C_D_U_TITLEMD5_CATEGORY_MACRO_MEAN_COEC<0.0630283] yes=7,no=8,missing=8
			7:[C_D_U_PUBLISHER_GENDER_COEC<0.0448658] yes=15,no=16,missing=15
				15:[U_KW_LEN<88] yes=31,no=32,missing=32
					31:[D_KEYWORD_MACRO_MAX_COEC<0.0394766] yes=63,no=64,missing=64
						63:[C_D_U_CATEGORY_CITY_MACRO_MEAN_COEC<0.0960053] yes=127,no=128,missing=127
							127:leaf=-0.0491934
							128:leaf=0.00457013
						64:[U_GENDER<4] yes=129,no=130,missing=130
							129:leaf=0.143839
							130:leaf=-0.0958392
					32:[D_KEYWORD_MICRO_MAX_COEC<0.10025] yes=65,no=66,missing=66
						65:[D_TITLEMD5_COEC<0.0626876] yes=131,no=132,missing=131
							131:leaf=0.00330337
							132:leaf=-0.0768502
						66:[DAY_OF_WEEK<3] yes=133,no=134,missing=134
							133:leaf=-0.0707186
							134:leaf=-0.0221496
				16:[IMAGE_COUNT<2] yes=33,no=34,missing=34
					33:[C_D_U_CATEGORY_CITY_MACRO_MEAN_COEC<0.0419373] yes=67,no=68,missing=68
						67:[DAY_OF_WEEK<0.999999] yes=135,no=136,missing=136
							135:leaf=-0.0763992
							136:leaf=-0.033702
						68:[CAT_REL<0.541672] yes=137,no=138,missing=138
							137:leaf=-0.0182305
							138:leaf=-0.00341758
					34:[D_KEYWORD_MACRO_MAX_COEC<0.0286107] yes=69,no=70,missing=70
						69:[TIME_OF_DAY<11] yes=139,no=140,missing=140
							139:leaf=0.0229598
							140:leaf=-0.00285229
						70:[D_CATEGORY_MICRO_MEAN_COEC<0.0830965] yes=141,no=142,missing=141
							141:leaf=-0.141835
							142:leaf=-0.000658784
			8:[U_KW_LEN<125] yes=17,no=18,missing=18
				17:[TIME_OF_DAY<18] yes=35,no=36,missing=36
					35:[C_D_U_CATEGORY_CITY_MACRO_MEAN_COEC<0.0705768] yes=71,no=72,missing=71
						71:[D_KEYWORD_MACRO_MEAN_COEC<0.0467534] yes=143,no=144,missing=144
							143:leaf=-0.0340751
							144:leaf=-0.0117082
						72:[C_D_U_CATEGORY_GENDER_MICRO_MAX_COEC<0.104446] yes=145,no=146,missing=146
							145:leaf=-0.00444805
							146:leaf=0.0238362
					36:[U_GENDER<4] yes=73,no=74,missing=74
						73:[C_D_U_CATEGORY_CITY_MACRO_MAX_COEC<0.106478] yes=147,no=148,missing=147
							147:leaf=0.0175378
							148:leaf=0.0731268
						74:[C_D_U_CATEGORY_GENDER_MACRO_MEAN_COEC<0.0614782] yes=149,no=150,missing=150
							149:leaf=-0.0489336
							150:leaf=0.00465415
				18:[CAT_REL<0.076922] yes=37,no=38,missing=38
					37:[D_PUBLISHER_COEC<0.0924138] yes=75,no=76,missing=76
						75:[D_KEYWORD_MICRO_MAX_COEC<0.106501] yes=151,no=152,missing=152
							151:leaf=-0.00999262
							152:leaf=-0.0392045
						76:[D_CATEGORY_MACRO_MAX_COEC<0.104816] yes=153,no=154,missing=154
							153:leaf=-0.00654724
							154:leaf=0.0500516
					38:[IMAGE_COUNT<3] yes=77,no=78,missing=78
						77:[D_CATEGORY_MICRO_MAX_COEC<0.0651239] yes=155,no=156,missing=156
							155:leaf=0.0237874
							156:leaf=0.00505027
						78:[U_GENDER<4] yes=157,no=158,missing=158
							157:leaf=0.0468642
							158:leaf=0.0119815
		4:[C_D_U_TITLEMD5_GENDER_COEC<0.160218] yes=9,no=10,missing=10
			9:[WORD_COUNT<1014] yes=19,no=20,missing=20
				19:[D_CATEGORY_MACRO_MEAN_COEC<0.0878743] yes=39,no=40,missing=40
					39:[D_KEYWORD_MACRO_MAX_COEC<0.0344638] yes=79,no=80,missing=80
						79:[D_KEYWORD_MACRO_MEAN_COEC<0.116497] yes=159,no=160,missing=160
							159:leaf=-0.00102071
							160:leaf=-0.0636435
						80:[D_KEYWORD_MICRO_MEAN_COEC<0.0781545] yes=161,no=162,missing=162
							161:leaf=-0.0492177
							162:leaf=0.0161705
					40:[KW_REL<1.95306e-05] yes=81,no=82,missing=82
						81:[C_D_U_CATEGORY_CITY_MACRO_MEAN_COEC<0.0999386] yes=163,no=164,missing=163
							163:leaf=-0.0320954
							164:leaf=-0.010696
						82:[C_D_U_CATEGORY_CITY_MACRO_MAX_COEC<0.0834077] yes=165,no=166,missing=165
							165:leaf=-0.0411421
							166:leaf=-0.00179784
				20:[C_D_U_CATEGORY_CITY_MACRO_MEAN_COEC<0.0999386] yes=41,no=42,missing=41
					41:[CAT_REL<0.230408] yes=83,no=84,missing=84
						83:[D_CATEGORY_MACRO_MAX_COEC<0.0913643] yes=167,no=168,missing=167
							167:leaf=0.00457022
							168:leaf=-0.00741026
						84:[IMAGE_COUNT<2] yes=169,no=170,missing=170
							169:leaf=0.0107095
							170:leaf=0.0333536
					42:[DAY_OF_WEEK<3] yes=85,no=86,missing=86
						85:[C_D_U_TITLEMD5_CATEGORY_MICRO_MEAN_COEC<0.082252] yes=171,no=172,missing=172
							171:leaf=-0.0493944
							172:leaf=0.00834164
						86:[C_D_U_PUBLISHER_CITY_COEC<0.0419732] yes=173,no=174,missing=174
							173:leaf=-0.00797309
							174:leaf=0.030734
			10:[U_AGE_2<0.999999] yes=21,no=22,missing=22
				21:[C_D_U_TITLEMD5_CATEGORY_MICRO_MEAN_COEC<0.173708] yes=43,no=44,missing=44
					43:[D_KEYWORD_MACRO_MEAN_COEC<0.0944457] yes=87,no=88,missing=88
						87:[D_KEYWORD_MICRO_MAX_COEC<0.166326] yes=175,no=176,missing=176
							175:leaf=-0.0227359
							176:leaf=-0.129208
						88:[D_TITLEMD5_COEC<0.162671] yes=177,no=178,missing=177
							177:leaf=0.0189134
							178:leaf=-0.0101674
					44:[WORD_COUNT<723] yes=89,no=90,missing=90
						89:[WORD_COUNT<630] yes=179,no=180,missing=180
							179:leaf=0.00201698
							180:leaf=-0.0519269
						90:[C_D_U_PUBLISHER_CITY_COEC<0.142419] yes=181,no=182,missing=181
							181:leaf=0.0104094
							182:leaf=0.0243623
				22:[WORD_COUNT<1510] yes=45,no=46,missing=46
					45:[TIME_OF_DAY<16] yes=91,no=92,missing=92
						91:[D_CATEGORY_MICRO_MAX_COEC<0.0765016] yes=183,no=184,missing=184
							183:leaf=-0.0173768
							184:leaf=0.0132378
						92:[C_D_U_CATEGORY_GENDER_MICRO_MEAN_COEC<0.0642197] yes=185,no=186,missing=186
							185:leaf=-0.0731729
							186:leaf=0.0326794
					46:[C_D_U_CATEGORY_CITY_MICRO_MAX_COEC<0.0514763] yes=93,no=94,missing=93
						93:[D_KEYWORD_MICRO_MEAN_COEC<0.0750674] yes=187,no=188,missing=188
							187:leaf=-0.214086
							188:leaf=-0.00923455
						94:[C_D_U_TITLEMD5_CATEGORY_MACRO_MEAN_COEC<0.165031] yes=189,no=190,missing=190
							189:leaf=0.0192379
							190:leaf=0.0323301
	2:[C_D_U_TITLEMD5_CATEGORY_MACRO_MEAN_COEC<0.0809623] yes=5,no=6,missing=6
		5:[KW_REL<0.000725904] yes=11,no=12,missing=12
			11:[C_D_U_TITLEMD5_CATEGORY_MACRO_MEAN_COEC<0.0344757] yes=23,no=24,missing=24
				23:[D_PUBLISHER_COEC<0.0280229] yes=47,no=48,missing=48
					47:[IMAGE_COUNT<14] yes=95,no=96,missing=96
						95:[CAT_REL<0.008662] yes=191,no=192,missing=192
							191:leaf=-0.0810997
							192:leaf=-0.0592449
						96:[C_D_U_CATEGORY_AGE_MACRO_MAX_COEC<0.0466122] yes=193,no=194,missing=194
							193:leaf=0.191008
							194:leaf=-0.000302718
					48:[D_KEYWORD_MACRO_MEAN_COEC<0.0962226] yes=97,no=98,missing=98
						97:[IMAGE_COUNT<2] yes=195,no=196,missing=196
							195:leaf=-0.0367238
							196:leaf=-0.00666235
						98:[CAT_REL<0.786984] yes=197,no=198,missing=198
							197:leaf=0.01417
							198:leaf=0.160669
				24:[C_D_U_CATEGORY_AGE_MACRO_MAX_COEC<0.101344] yes=49,no=50,missing=50
					49:[CAT_REL<0.229246] yes=99,no=100,missing=100
						99:[C_D_U_TITLEMD5_CATEGORY_MACRO_MAX_COEC<0.0374543] yes=199,no=200,missing=200
							199:leaf=-0.0182427
							200:leaf=-0.0356074
						100:[U_CAT_LEN<17] yes=201,no=202,missing=202
							201:leaf=-0.00978137
							202:leaf=0.0109094
					50:[D_KEYWORD_MICRO_MEAN_COEC<0.101163] yes=101,no=102,missing=102
						101:[C_D_U_CATEGORY_CITY_MACRO_MAX_COEC<0.122252] yes=203,no=204,missing=203
							203:leaf=-0.0317664
							204:leaf=0.0129853
						102:[D_CATEGORY_MICRO_MEAN_COEC<0.102635] yes=205,no=206,missing=206
							205:leaf=-0.0318417
							206:leaf=-0.0627704
			12:[C_D_U_PUBLISHER_CITY_COEC<0.0822022] yes=25,no=26,missing=25
				25:[C_D_U_TITLEMD5_CATEGORY_MACRO_MEAN_COEC<0.0344757] yes=51,no=52,missing=52
					51:[C_D_U_TITLEMD5_AGE_COEC<0.0849239] yes=103,no=104,missing=104
						103:[C_D_U_CATEGORY_AGE_MICRO_MEAN_COEC<0.0608978] yes=207,no=208,missing=207
							207:leaf=-0.00724269
							208:leaf=-0.0321649
						104:[IMAGE_COUNT<0.999999] yes=209,no=210,missing=210
							209:leaf=-0.0647001
							210:leaf=0.000466456
					52:[WORD_COUNT<2792] yes=105,no=106,missing=106
						105:[CAT_REL<0.294128] yes=211,no=212,missing=212
							211:leaf=-0.0182948
							212:leaf=-0.0061946
						106:[U_CAT_LEN<19] yes=213,no=214,missing=214
							213:leaf=-0.0046645
							214:leaf=0.0178018
				26:[CAT_REL<0.070514] yes=53,no=54,missing=54
					53:[C_D_U_CATEGORY_GENDER_MICRO_MEAN_COEC<0.0888822] yes=107,no=108,missing=108
						107:[D_CATEGORY_MICRO_MAX_COEC<0.06481] yes=215,no=216,missing=216
							215:leaf=0.00185555
							216:leaf=-0.0250478
						108:[WORD_COUNT<1274] yes=217,no=218,missing=218
							217:leaf=-0.0523484
							218:leaf=0.0257621
					54:[WORD_COUNT<1870] yes=109,no=110,missing=110
						109:[CAT_REL<0.786984] yes=219,no=220,missing=220
							219:leaf=-0.00499326
							220:leaf=0.03004
						110:[C_D_U_TITLEMD5_CATEGORY_MACRO_MEAN_COEC<0.0591068] yes=221,no=222,missing=222
							221:leaf=0.000494352
							222:leaf=0.0128123
		6:[C_D_U_TITLEMD5_CATEGORY_MACRO_MEAN_COEC<0.127209] yes=13,no=14,missing=14
			13:[D_TITLEMD5_COEC<0.122435] yes=27,no=28,missing=28
				27:[U_CAT_LEN<9] yes=55,no=56,missing=56
					55:[WORD_COUNT<2792] yes=111,no=112,missing=112
						111:[CAT_REL<0.249265] yes=223,no=224,missing=224
							223:leaf=-0.0186491
							224:leaf=-0.0036726
						112:[C_D_U_PUBLISHER_AGE_COEC<0.0633474] yes=225,no=226,missing=225
							225:leaf=-0.012466
							226:leaf=0.00749998
					56:[C_D_U_TITLEMD5_CATEGORY_MACRO_MEAN_COEC<0.102387] yes=113,no=114,missing=114
						113:[D_TITLEMD5_COEC<0.102749] yes=227,no=228,missing=228
							227:leaf=0.0100118
							228:leaf=-0.00676042
						114:[C_D_U_TITLEMD5_CATEGORY_MICRO_MEAN_COEC<0.0983036] yes=229,no=230,missing=230
							229:leaf=-0.0486397
							230:leaf=0.0185543
				28:[C_D_U_TITLEMD5_CATEGORY_MACRO_MEAN_COEC<0.115068] yes=57,no=58,missing=58
					57:[D_KEYWORD_MACRO_MEAN_COEC<0.0651774] yes=115,no=116,missing=116
						115:[CAT_REL<0.092523] yes=231,no=232,missing=232
							231:leaf=-0.0702921
							232:leaf=-0.0292898
						116:[TIME_OF_DAY<17] yes=233,no=234,missing=234
							233:leaf=-0.0164315
							234:leaf=-0.000619786
					58:[D_TITLEMD5_COEC<0.141265] yes=117,no=118,missing=118
						117:[U_CAT_LEN<10] yes=235,no=236,missing=236
							235:leaf=-0.0120357
							236:leaf=0.010976
						118:[C_D_U_TITLEMD5_CATEGORY_MACRO_MAX_COEC<0.0582503] yes=237,no=238,missing=238
							237:leaf=-0.0115686
							238:leaf=-0.0330565
			14:[U_CAT_LEN<9] yes=29,no=30,missing=30
				29:[CAT_REL<0.466628] yes=59,no=60,missing=60
					59:[D_KEYWORD_MACRO_MEAN_COEC<0.0695471] yes=119,no=120,missing=120
						119:[WORD_COUNT<2549] yes=239,no=240,missing=240
							239:leaf=-0.0427222
							240:leaf=-0.0138211
						120:[WORD_COUNT<1194] yes=241,no=242,missing=242
							241:leaf=-0.00826461
							242:leaf=0.00619344
					60:[KW_REL<0.00164309] yes=121,no=122,missing=122
						121:[C_D_U_TITLEMD5_GENDER_COEC<0.171282] yes=243,no=244,missing=243
							243:leaf=7.25651e-05
							244:leaf=0.0193348
						122:[C_D_U_TITLEMD5_CATEGORY_MICRO_MAX_COEC<0.309202] yes=245,no=246,missing=246
							245:leaf=0.0250417
							246:leaf=-0.00540369
				30:[C_D_U_TITLEMD5_CATEGORY_MICRO_MAX_COEC<0.44637] yes=61,no=62,missing=62
					61:[C_D_U_TITLEMD5_CATEGORY_MACRO_MEAN_COEC<0.212322] yes=123,no=124,missing=124
						123:[KW_REL<0.00156052] yes=247,no=248,missing=248
							247:leaf=0.0102381
							248:leaf=0.023532
						124:[D_KEYWORD_MACRO_MEAN_COEC<0.0925665] yes=249,no=250,missing=250
							249:leaf=0.0126505
							250:leaf=0.0469786
					62:[D_KEYWORD_MACRO_MEAN_COEC<0.169882] yes=125,no=126,missing=126
						125:[CAT_REL<0.334684] yes=251,no=252,missing=252
							251:leaf=-0.0273918
							252:leaf=-0.00294618
						126:[D_CATEGORY_MACRO_MEAN_COEC<0.0767585] yes=253,no=254,missing=254
							253:leaf=0.0863371
							254:leaf=-0.002631
booster[21]:
0:[U_KW_LEN<200] yes=1,no=2,missing=1
	1:[D_KEYWORD_MACRO_MEAN_COEC<0.0771408] yes=3,no=4,missing=4
		3:[C_D_U_TITLEMD5_CATEGORY_MACRO_MEAN_COEC<0.0522877] yes=7,no=8,missing=8
			7:[WORD_COUNT<2325] yes=15,no=16,missing=16
				15:[C_D_U_PUBLISHER_GENDER_COEC<0.044971] yes=31,no=32,missing=32
					31:[D_KEYWORD_MACRO_MEAN_COEC<0.0679413] yes=63,no=64,missing=64
						63:[TIME_OF_DAY<21] yes=127,no=128,missing=128
							127:leaf=-0.0469461
							128:leaf=0.0799874
						64:[D_KEYWORD_MICRO_MAX_COEC<0.124256] yes=129,no=130,missing=130
							129:leaf=-0.0196928
							130:leaf=0.0756813
					32:[IMAGE_COUNT<2] yes=65,no=66,missing=66
						65:[C_D_U_TITLEMD5_GENDER_COEC<0.0923274] yes=131,no=132,missing=132
							131:leaf=-0.0264577
							132:leaf=-0.00873304
						66:[C_D_U_CATEGORY_CITY_MACRO_MAX_COEC<0.0363524] yes=133,no=134,missing=134
							133:leaf=0.0869117
							134:leaf=-0.000906802
				16:[KW_REL<0.00322454] yes=33,no=34,missing=34
					33:[C_D_U_TITLEMD5_CATEGORY_MACRO_MEAN_COEC<0.0402248] yes=67,no=68,missing=68
						67:[D_CATEGORY_MICRO_MEAN_COEC<0.101879] yes=135,no=136,missing=136
							135:leaf=-0.0243775
							136:leaf=-0.0947727
						68:[KW_REL<0.00263586] yes=137,no=138,missing=138
							137:leaf=-0.000575276
							138:leaf=-0.0837669
					34:[U_KW_LEN<91] yes=69,no=70,missing=70
						69:[D_KEYWORD_MICRO_MEAN_COEC<0.06944] yes=139,no=140,missing=140
							139:leaf=0.00287773
							140:leaf=-0.0316349
						70:[D_KEYWORD_MICRO_MEAN_COEC<0.0666177] yes=141,no=142,missing=142
							141:leaf=-0.0184156
							142:leaf=0.0245836
			8:[TIME_OF_DAY<18] yes=17,no=18,missing=18
				17:[CAT_REL<0.199999] yes=35,no=36,missing=36
					35:[C_D_U_CATEGORY_GENDER_MACRO_MAX_COEC<0.0738044] yes=71,no=72,missing=72
						71:[C_D_U_TITLEMD5_CATEGORY_MACRO_MAX_COEC<0.0579544] yes=143,no=144,missing=143
							143:leaf=-0.0118614
							144:leaf=-0.0307279
						72:[U_AGE_2<0.999999] yes=145,no=146,missing=146
							145:leaf=-0.0101874
							146:leaf=0.00624238
					36:[KW_REL<0.000678355] yes=73,no=74,missing=74
						73:[D_PUBLISHER_COEC<0.0673296] yes=147,no=148,missing=148
							147:leaf=-0.025208
							148:leaf=-0.00319106
						74:[U_KW_LEN<65] yes=149,no=150,missing=150
							149:leaf=-0.0068239
							150:leaf=0.00869023
				18:[WORD_COUNT<1486] yes=37,no=38,missing=38
					37:[D_PUBLISHER_COEC<0.0638764] yes=75,no=76,missing=75
						75:[D_TITLEMD5_COEC<0.129702] yes=151,no=152,missing=152
							151:leaf=-0.0275161
							152:leaf=-0.139905
						76:[WORD_COUNT<630] yes=153,no=154,missing=154
							153:leaf=0.0462658
							154:leaf=-0.00434135
					38:[C_D_U_CATEGORY_CITY_MICRO_MAX_COEC<0.0609667] yes=77,no=78,missing=78
						77:[CAT_REL<0.151214] yes=155,no=156,missing=156
							155:leaf=-0.0226929
							156:leaf=0.0206134
						78:[D_CATEGORY_MICRO_MAX_COEC<0.0618769] yes=157,no=158,missing=157
							157:leaf=0.0618971
							158:leaf=0.0167119
		4:[U_GENDER<2] yes=9,no=10,missing=9
			9:[C_D_U_TITLEMD5_CATEGORY_MACRO_MEAN_COEC<0.167143] yes=19,no=20,missing=19
				19:[U_AGE_1<0.999999] yes=39,no=40,missing=40
					39:[C_D_U_CATEGORY_CITY_MACRO_MAX_COEC<0.105729] yes=79,no=80,missing=79
						79:[C_D_U_TITLEMD5_CATEGORY_MICRO_MAX_COEC<0.136214] yes=159,no=160,missing=160
							159:leaf=-0.0058101
							160:leaf=0.00399154
						80:[TIME_OF_DAY<15] yes=161,no=162,missing=162
							161:leaf=0.0108912
							162:leaf=0.0274701
					40:[C_D_U_CATEGORY_CITY_MACRO_MEAN_COEC<0.0818449] yes=81,no=82,missing=82
						81:[C_D_U_CATEGORY_GENDER_MICRO_MEAN_COEC<0.0886199] yes=163,no=164,missing=164
							163:leaf=-0.0256125
							164:leaf=-0.0904506
						82:[TIME_OF_DAY<3] yes=165,no=166,missing=166
							165:leaf=0.041161
							166:leaf=-0.0105096
				20:[KW_REL<0.000554611] yes=41,no=42,missing=42
					41:[C_D_U_PUBLISHER_CITY_COEC<0.163598] yes=83,no=84,missing=84
						83:[C_D_U_TITLEMD5_GENDER_COEC<0.0757938] yes=167,no=168,missing=167
							167:leaf=-0.0584236
							168:leaf=0.00555815
						84:[WORD_COUNT<3844] yes=169,no=170,missing=170
							169:leaf=0.0234869
							170:leaf=-0.269119
					42:[C_D_U_TITLEMD5_CATEGORY_MICRO_MAX_COEC<0.464058] yes=85,no=86,missing=86
						85:[U_KW_LEN<116] yes=171,no=172,missing=172
							171:leaf=0.017449
							172:leaf=0.0336296
						86:[WORD_COUNT<3653] yes=173,no=174,missing=174
							173:leaf=-0.0174923
							174:leaf=-0.159525
			10:[C_D_U_CATEGORY_GENDER_MICRO_MAX_COEC<0.079069] yes=21,no=22,missing=21
				21:[D_TITLEMD5_COEC<0.0967785] yes=43,no=44,missing=44
					43:[D_KEYWORD_MICRO_MEAN_COEC<0.109096] yes=87,no=88,missing=88
						87:[U_KW_LEN<197] yes=175,no=176,missing=176
							175:leaf=-0.0386389
							176:leaf=0.10782
						88:[CAT_REL<0.181935] yes=177,no=178,missing=178
							177:leaf=-0.175597
							178:leaf=0.0981328
					44:[D_KEYWORD_MACRO_MAX_COEC<0.0225206] yes=89,no=90,missing=90
						89:[D_CATEGORY_MICRO_MEAN_COEC<0.0651167] yes=179,no=180,missing=180
							179:leaf=0.0321358
							180:leaf=-0.0193167
						90:[U_KW_LEN<188] yes=181,no=182,missing=182
							181:leaf=0.014933
							182:leaf=0.0482189
				22:[CAT_REL<0.499999] yes=45,no=46,missing=46
					45:[D_CATEGORY_MACRO_MAX_COEC<0.0910924] yes=91,no=92,missing=92
						91:[IMAGE_COUNT<0.999999] yes=183,no=184,missing=184
							183:leaf=-0.200291
							184:leaf=0.0328771
						92:[C_D_U_TITLEMD5_CATEGORY_MICRO_MEAN_COEC<0.144825] yes=185,no=186,missing=186
							185:leaf=-0.00361681
							186:leaf=0.0235968
					46:[U_KW_LEN<158] yes=93,no=94,missing=94
						93:[DAY_OF_WEEK<2] yes=187,no=188,missing=188
							187:leaf=0.0279213
							188:leaf=0.0640344
						94:[D_KEYWORD_MICRO_MEAN_COEC<0.0869516] yes=189,no=190,missing=190
							189:leaf=-0.182714
							190:leaf=0.0288541
	2:[C_D_U_TITLEMD5_CATEGORY_MACRO_MEAN_COEC<0.0734642] yes=5,no=6,missing=6
		5:[U_CAT_LEN<14] yes=11,no=12,missing=12
			11:[C_D_U_TITLEMD5_CATEGORY_MACRO_MEAN_COEC<0.0405712] yes=23,no=24,missing=24
				23:[C_D_U_TITLEMD5_AGE_COEC<0.124298] yes=47,no=48,missing=48
					47:[CAT_REL<0.585163] yes=95,no=96,missing=96
						95:[C_D_U_TITLEMD5_CATEGORY_MACRO_MEAN_COEC<0.0235992] yes=191,no=192,missing=192
							191:leaf=-0.0411327
							192:leaf=-0.0252902
						96:[D_KEYWORD_MACRO_MEAN_COEC<0.0578227] yes=193,no=194,missing=194
							193:leaf=-0.0276075
							194:leaf=0.00228836
					48:[D_KEYWORD_MACRO_MEAN_COEC<0.0736626] yes=97,no=98,missing=98
						97:[KW_REL<0.00585688] yes=195,no=196,missing=196
							195:leaf=-0.021713
							196:leaf=0.0062267
						98:[C_D_U_PUBLISHER_AGE_COEC<0.0631445] yes=197,no=198,missing=198
							197:leaf=-0.00424635
							198:leaf=0.0615636
				24:[CAT_REL<0.359192] yes=49,no=50,missing=50
					49:[WORD_COUNT<2336] yes=99,no=100,missing=100
						99:[D_CATEGORY_MACRO_MAX_COEC<0.0556856] yes=199,no=200,missing=200
							199:leaf=0.00122991
							200:leaf=-0.0229518
						100:[CAT_REL<0.064718] yes=201,no=202,missing=202
							201:leaf=-0.025693
							202:leaf=-0.00816127
					50:[WORD_COUNT<1216] yes=101,no=102,missing=102
						101:[TIME_OF_DAY<10] yes=203,no=204,missing=204
							203:leaf=-0.00374558
							204:leaf=-0.0198352
						102:[U_CAT_LEN<8] yes=205,no=206,missing=206
							205:leaf=-0.0102403
							206:leaf=0.00449002
			12:[C_D_U_CATEGORY_CITY_MICRO_MEAN_COEC<0.114779] yes=25,no=26,missing=26
				25:[CAT_REL<0.916909] yes=51,no=52,missing=52
					51:[CAT_REL<0.037023] yes=103,no=104,missing=104
						103:[C_D_U_TITLEMD5_CATEGORY_MACRO_MAX_COEC<0.043032] yes=207,no=208,missing=208
							207:leaf=-0.0278207
							208:leaf=-0.0699848
						104:[KW_REL<0.00459059] yes=209,no=210,missing=210
							209:leaf=-0.00856057
							210:leaf=0.00321104
					52:[C_D_U_CATEGORY_AGE_MACRO_MAX_COEC<0.086247] yes=105,no=106,missing=106
						105:[D_KEYWORD_MACRO_MAX_COEC<0.0234842] yes=211,no=212,missing=212
							211:leaf=0.0495324
							212:leaf=-0.102769
						106:[D_KEYWORD_MACRO_MEAN_COEC<0.0447249] yes=213,no=214,missing=214
							213:leaf=0.0105769
							214:leaf=0.128159
				26:[C_D_U_TITLEMD5_CATEGORY_MICRO_MEAN_COEC<0.0813814] yes=53,no=54,missing=54
					53:[WORD_COUNT<2168] yes=107,no=108,missing=108
						107:[KW_REL<0.000149597] yes=215,no=216,missing=216
							215:leaf=-0.044041
							216:leaf=0.0267201
						108:[C_D_U_PUBLISHER_AGE_COEC<0.0531997] yes=217,no=218,missing=217
							217:leaf=0.0210366
							218:leaf=0.0550518
					54:[TIME_OF_DAY<12] yes=109,no=110,missing=110
						109:[D_TITLEMD5_COEC<0.0670322] yes=219,no=220,missing=220
							219:leaf=0.0614314
							220:leaf=-0.0215617
						110:[D_KEYWORD_MICRO_MEAN_COEC<0.0874147] yes=221,no=222,missing=222
							221:leaf=0.0378249
							222:leaf=-0.0259266
		6:[U_CAT_LEN<17] yes=13,no=14,missing=14
			13:[CAT_REL<0.359192] yes=27,no=28,missing=28
				27:[C_D_U_PUBLISHER_GENDER_COEC<0.0761282] yes=55,no=56,missing=56
					55:[CAT_REL<0.056988] yes=111,no=112,missing=112
						111:[D_CATEGORY_MACRO_MAX_COEC<0.0859803] yes=223,no=224,missing=224
							223:leaf=-0.0329122
							224:leaf=-0.0042091
						112:[C_D_U_TITLEMD5_GENDER_COEC<0.0427696] yes=225,no=226,missing=225
							225:leaf=-0.0329843
							226:leaf=-0.00628532
					56:[D_CATEGORY_MACRO_MEAN_COEC<0.0931065] yes=113,no=114,missing=113
						113:[CAT_REL<0.083145] yes=227,no=228,missing=228
							227:leaf=-0.00293482
							228:leaf=0.0108159
						114:[C_D_U_CATEGORY_AGE_MACRO_MAX_COEC<0.109478] yes=229,no=230,missing=230
							229:leaf=-0.0101456
							230:leaf=0.0220558
				28:[U_CAT_LEN<8] yes=57,no=58,missing=58
					57:[C_D_U_TITLEMD5_CATEGORY_MACRO_MAX_COEC<0.0663242] yes=115,no=116,missing=116
						115:[C_D_U_CATEGORY_AGE_MACRO_MAX_COEC<0.0953088] yes=231,no=232,missing=232
							231:leaf=-0.0051778
							232:leaf=-0.0251545
						116:[C_D_U_TITLEMD5_AGE_COEC<0.0252441] yes=233,no=234,missing=234
							233:leaf=-0.029888
							234:leaf=0.00783024
					58:[D_PUBLISHER_COEC<0.0464119] yes=117,no=118,missing=118
						117:[KW_REL<0.00541247] yes=235,no=236,missing=236
							235:leaf=-0.0457064
							236:leaf=-0.00907808
						118:[C_D_U_TITLEMD5_CATEGORY_MACRO_MEAN_COEC<0.133028] yes=237,no=238,missing=238
							237:leaf=0.0112215
							238:leaf=0.0235145
			14:[CAT_REL<0.204698] yes=29,no=30,missing=30
				29:[D_CATEGORY_MACRO_MEAN_COEC<0.0639514] yes=59,no=60,missing=59
					59:[D_KEYWORD_MACRO_MEAN_COEC<0.0698594] yes=119,no=120,missing=120
						119:[KW_REL<0.00261899] yes=239,no=240,missing=240
							239:leaf=-0.0121556
							240:leaf=0.024919
						120:[D_KEYWORD_MICRO_MEAN_COEC<0.0636164] yes=241,no=242,missing=242
							241:leaf=-0.0526565
							242:leaf=0.0429815
					60:[CAT_REL<0.027968] yes=121,no=122,missing=122
						121:[D_KEYWORD_MICRO_MAX_COEC<0.118949] yes=243,no=244,missing=244
							243:leaf=-0.0413128
							244:leaf=-0.00733864
						122:[WORD_COUNT<2700] yes=245,no=246,missing=246
							245:leaf=0.00762275
							246:leaf=0.022116
				30:[D_CATEGORY_MICRO_MEAN_COEC<0.0959707] yes=61,no=62,missing=62
					61:[WORD_COUNT<768] yes=123,no=124,missing=124
						123:[CAT_REL<0.475838] yes=247,no=248,missing=248
							247:leaf=0.00262548
							248:leaf=0.0334734
						124:[C_D_U_TITLEMD5_CATEGORY_MACRO_MEAN_COEC<0.124732] yes=249,no=250,missing=250
							249:leaf=0.0278707
							250:leaf=0.0417738
					62:[C_D_U_TITLEMD5_CATEGORY_MACRO_MAX_COEC<0.0663242] yes=125,no=126,missing=126
						125:[TIME_OF_DAY<17] yes=251,no=252,missing=252
							251:leaf=0.00261248
							252:leaf=0.0213561
						126:[D_PUBLISHER_COEC<0.0635013] yes=253,no=254,missing=254
							253:leaf=-0.0165347
							254:leaf=0.0293704
booster[22]:
0:[U_KW_LEN<200] yes=1,no=2,missing=1
	1:[C_D_U_TITLEMD5_CATEGORY_MACRO_MEAN_COEC<0.0812759] yes=3,no=4,missing=4
		3:[D_KEYWORD_MACRO_MEAN_COEC<0.0464766] yes=7,no=8,missing=8
			7:[D_KEYWORD_MICRO_MAX_COEC<0.0969791] yes=15,no=16,missing=16
				15:[C_D_U_PUBLISHER_CITY_COEC<0.142342] yes=31,no=32,missing=31
					31:[D_KEYWORD_MACRO_MEAN_COEC<0.0354864] yes=63,no=64,missing=64
						63:[C_D_U_CATEGORY_CITY_MICRO_MAX_COEC<0.0768719] yes=127,no=128,missing=128
							127:leaf=-0.0443407
							128:leaf=-0.00224089
						64:[D_CATEGORY_MACRO_MEAN_COEC<0.0508159] yes=129,no=130,missing=130
							129:leaf=0.00847438
							130:leaf=-0.0211115
					32:[C_D_U_PUBLISHER_GENDER_COEC<0.0539934] yes=65,no=66,missing=66
						65:[KW_REL<0.00393191] yes=131,no=132,missing=132
							131:leaf=0.196985
							132:leaf=-0.119654
						66:[D_CATEGORY_MICRO_MAX_COEC<0.063366] yes=133,no=134,missing=134
							133:leaf=0.0737129
							134:leaf=-0.0637003
				16:[TIME_OF_DAY<10] yes=33,no=34,missing=34
					33:[U_KW_LEN<25] yes=67,no=68,missing=68
						67:[D_KEYWORD_MICRO_MEAN_COEC<0.0984016] yes=135,no=136,missing=136
							135:leaf=-0.100568
							136:leaf=0.190733
						68:[KW_REL<0.00924868] yes=137,no=138,missing=138
							137:leaf=-0.028399
							138:leaf=0.0613323
					34:[CAT_REL<0.117224] yes=69,no=70,missing=70
						69:[D_TITLEMD5_COEC<0.0373062] yes=139,no=140,missing=140
							139:leaf=-0.0632656
							140:leaf=-0.113991
						70:[C_D_U_CATEGORY_CITY_MICRO_MEAN_COEC<0.0587187] yes=141,no=142,missing=142
							141:leaf=0.0167322
							142:leaf=-0.0577927
			8:[IMAGE_COUNT<3] yes=17,no=18,missing=18
				17:[CAT_REL<0.274703] yes=35,no=36,missing=36
					35:[U_CAT_LEN<6] yes=71,no=72,missing=72
						71:[U_AGE_1<0.999999] yes=143,no=144,missing=144
							143:leaf=-0.018365
							144:leaf=-0.0459373
						72:[TIME_OF_DAY<0.999999] yes=145,no=146,missing=146
							145:leaf=0.0757785
							146:leaf=-0.00560517
					36:[C_D_U_PUBLISHER_GENDER_COEC<0.0867871] yes=73,no=74,missing=73
						73:[D_CATEGORY_MICRO_MAX_COEC<0.0625774] yes=147,no=148,missing=148
							147:leaf=0.0156225
							148:leaf=-0.0110967
						74:[WORD_COUNT<2325] yes=149,no=150,missing=150
							149:leaf=-0.00194333
							150:leaf=0.0224371
				18:[C_D_U_CATEGORY_CITY_MACRO_MEAN_COEC<0.11135] yes=37,no=38,missing=38
					37:[CAT_REL<0.081163] yes=75,no=76,missing=76
						75:[D_KEYWORD_MICRO_MAX_COEC<0.133837] yes=151,no=152,missing=152
							151:leaf=-0.0211551
							152:leaf=0.0219903
						76:[D_CATEGORY_MACRO_MEAN_COEC<0.104504] yes=153,no=154,missing=154
							153:leaf=0.0133777
							154:leaf=-0.107381
					38:[U_AGE_1<0.999999] yes=77,no=78,missing=78
						77:[C_D_U_PUBLISHER_CITY_COEC<0.173043] yes=155,no=156,missing=155
							155:leaf=0.0439592
							156:leaf=-0.0972924
						78:[D_CATEGORY_MACRO_MAX_COEC<0.0685168] yes=157,no=158,missing=157
							157:leaf=-0.153934
							158:leaf=0.139265
		4:[U_KW_LEN<115] yes=9,no=10,missing=10
			9:[TIME_OF_DAY<17] yes=19,no=20,missing=20
				19:[TIME_OF_DAY<13] yes=39,no=40,missing=40
					39:[D_KEYWORD_MACRO_MEAN_COEC<0.0864168] yes=79,no=80,missing=80
						79:[D_KEYWORD_MACRO_MEAN_COEC<0.0515821] yes=159,no=160,missing=160
							159:leaf=-0.0277027
							160:leaf=-0.002358
						80:[IMAGE_COUNT<2] yes=161,no=162,missing=162
							161:leaf=0.00531498
							162:leaf=0.0266972
					40:[DAY_OF_WEEK<5] yes=81,no=82,missing=82
						81:[DAY_OF_WEEK<4] yes=163,no=164,missing=164
							163:leaf=-0.00157159
							164:leaf=-0.0294549
						82:[D_KEYWORD_MACRO_MEAN_COEC<0.0626134] yes=165,no=166,missing=166
							165:leaf=-0.0208795
							166:leaf=0.00724479
				20:[C_D_U_CATEGORY_CITY_MACRO_MAX_COEC<0.104552] yes=41,no=42,missing=41
					41:[U_AGE_2<0.999999] yes=83,no=84,missing=84
						83:[U_GENDER<2] yes=167,no=168,missing=167
							167:leaf=0.00102988
							168:leaf=0.0538358
						84:[C_D_U_TITLEMD5_CATEGORY_MACRO_MEAN_COEC<0.110195] yes=169,no=170,missing=170
							169:leaf=-0.00727721
							170:leaf=0.0200967
					42:[U_KW_LEN<35] yes=85,no=86,missing=86
						85:[C_D_U_TITLEMD5_CATEGORY_MICRO_MEAN_COEC<0.092921] yes=171,no=172,missing=172
							171:leaf=-0.163329
							172:leaf=0.0225457
						86:[TIME_OF_DAY<22] yes=173,no=174,missing=174
							173:leaf=0.0517325
							174:leaf=-0.0122673
			10:[CAT_REL<0.218018] yes=21,no=22,missing=22
				21:[U_CAT_LEN<6] yes=43,no=44,missing=44
					43:[WORD_COUNT<1274] yes=87,no=88,missing=88
						87:[C_D_U_TITLEMD5_CATEGORY_MACRO_MEAN_COEC<0.107456] yes=175,no=176,missing=176
							175:leaf=-0.0356358
							176:leaf=-0.0073957
						88:[D_KEYWORD_MACRO_MEAN_COEC<0.0680973] yes=177,no=178,missing=178
							177:leaf=-0.0216786
							178:leaf=0.00744268
					44:[C_D_U_PUBLISHER_GENDER_COEC<0.0825335] yes=89,no=90,missing=89
						89:[WORD_COUNT<516] yes=179,no=180,missing=180
							179:leaf=0.0813452
							180:leaf=-0.00163256
						90:[C_D_U_TITLEMD5_CATEGORY_MICRO_MAX_COEC<0.103496] yes=181,no=182,missing=182
							181:leaf=-0.187719
							182:leaf=0.0160604
				22:[C_D_U_TITLEMD5_CATEGORY_MACRO_MEAN_COEC<0.147904] yes=45,no=46,missing=46
					45:[C_D_U_TITLEMD5_GENDER_COEC<0.267033] yes=91,no=92,missing=92
						91:[C_D_U_CATEGORY_CITY_MACRO_MAX_COEC<0.218187] yes=183,no=184,missing=184
							183:leaf=0.01205
							184:leaf=0.0941317
						92:[C_D_U_PUBLISHER_CITY_COEC<0.0817062] yes=185,no=186,missing=186
							185:leaf=-0.0283751
							186:leaf=-0.169726
					46:[D_KEYWORD_MACRO_MEAN_COEC<0.0717527] yes=93,no=94,missing=94
						93:[D_CATEGORY_MICRO_MAX_COEC<0.0659076] yes=187,no=188,missing=188
							187:leaf=0.0295054
							188:leaf=-0.0158882
						94:[D_PUBLISHER_COEC<0.0595673] yes=189,no=190,missing=190
							189:leaf=-0.0221307
							190:leaf=0.0302677
	2:[C_D_U_TITLEMD5_CATEGORY_MACRO_MEAN_COEC<0.092833] yes=5,no=6,missing=6
		5:[C_D_U_TITLEMD5_CATEGORY_MACRO_MEAN_COEC<0.050588] yes=11,no=12,missing=12
			11:[D_PUBLISHER_COEC<0.0541913] yes=23,no=24,missing=24
				23:[D_PUBLISHER_COEC<0.0286741] yes=47,no=48,missing=48
					47:[D_KEYWORD_MICRO_MAX_COEC<0.217384] yes=95,no=96,missing=96
						95:[KW_REL<0.00796596] yes=191,no=192,missing=192
							191:leaf=-0.0494237
							192:leaf=-0.0183717
						96:[C_D_U_CATEGORY_GENDER_MACRO_MEAN_COEC<0.0660001] yes=193,no=194,missing=194
							193:leaf=-0.0844056
							194:leaf=0.112075
					48:[U_CAT_LEN<14] yes=97,no=98,missing=98
						97:[D_CATEGORY_MICRO_MEAN_COEC<0.0600305] yes=195,no=196,missing=195
							195:leaf=-0.0105285
							196:leaf=-0.0299878
						98:[C_D_U_CATEGORY_AGE_MICRO_MAX_COEC<0.067688] yes=197,no=198,missing=198
							197:leaf=-0.000506155
							198:leaf=-0.0196603
				24:[D_TITLEMD5_COEC<0.110065] yes=49,no=50,missing=50
					49:[IMAGE_COUNT<2] yes=99,no=100,missing=100
						99:[KW_REL<0.00133627] yes=199,no=200,missing=200
							199:leaf=-0.0249162
							200:leaf=-0.0123057
						100:[CAT_REL<0.594138] yes=201,no=202,missing=202
							201:leaf=0.00335785
							202:leaf=0.0441741
					50:[D_KEYWORD_MICRO_MEAN_COEC<0.0991714] yes=101,no=102,missing=102
						101:[IMAGE_COUNT<0.999999] yes=203,no=204,missing=204
							203:leaf=-0.0590429
							204:leaf=0.00833579
						102:[D_KEYWORD_MICRO_MEAN_COEC<0.12832] yes=205,no=206,missing=206
							205:leaf=0.044354
							206:leaf=0.115234
			12:[D_TITLEMD5_COEC<0.0891722] yes=25,no=26,missing=26
				25:[C_D_U_TITLEMD5_CATEGORY_MACRO_MEAN_COEC<0.0678354] yes=51,no=52,missing=52
					51:[D_TITLEMD5_COEC<0.0655751] yes=103,no=104,missing=104
						103:[U_CAT_LEN<8] yes=207,no=208,missing=208
							207:leaf=-0.0185382
							208:leaf=0.00342301
						104:[U_CAT_LEN<12] yes=209,no=210,missing=210
							209:leaf=-0.0225674
							210:leaf=-0.00976954
					52:[U_CAT_LEN<10] yes=105,no=106,missing=106
						105:[C_D_U_TITLEMD5_CATEGORY_MACRO_MEAN_COEC<0.0790183] yes=211,no=212,missing=212
							211:leaf=-0.0112201
							212:leaf=0.00174441
						106:[WORD_COUNT<1274] yes=213,no=214,missing=214
							213:leaf=-0.00302965
							214:leaf=0.0125955
				26:[WORD_COUNT<2424] yes=53,no=54,missing=54
					53:[D_CATEGORY_MACRO_MEAN_COEC<0.0588204] yes=107,no=108,missing=107
						107:[D_KEYWORD_MICRO_MEAN_COEC<0.0663687] yes=215,no=216,missing=216
							215:leaf=-0.0300212
							216:leaf=0.0326894
						108:[CAT_REL<0.170504] yes=217,no=218,missing=218
							217:leaf=-0.0250004
							218:leaf=-0.0106232
					54:[D_KEYWORD_MACRO_MEAN_COEC<0.0640525] yes=109,no=110,missing=110
						109:[CAT_REL<0.033571] yes=219,no=220,missing=220
							219:leaf=-0.0598461
							220:leaf=-0.0136995
						110:[D_KEYWORD_MICRO_MEAN_COEC<0.106718] yes=221,no=222,missing=222
							221:leaf=0.000765234
							222:leaf=-0.0262003
		6:[U_CAT_LEN<14] yes=13,no=14,missing=14
			13:[C_D_U_TITLEMD5_AGE_COEC<0.0526574] yes=27,no=28,missing=27
				27:[CAT_REL<0.223538] yes=55,no=56,missing=56
					55:[C_D_U_TITLEMD5_CATEGORY_MICRO_MEAN_COEC<0.0730495] yes=111,no=112,missing=112
						111:[C_D_U_CATEGORY_CITY_MACRO_MAX_COEC<0.124223] yes=223,no=224,missing=224
							223:leaf=-0.145241
							224:leaf=0.0857262
						112:[C_D_U_CATEGORY_GENDER_MACRO_MAX_COEC<0.10946] yes=225,no=226,missing=226
							225:leaf=-0.0541808
							226:leaf=0.0191682
					56:[D_KEYWORD_MICRO_MEAN_COEC<0.109035] yes=113,no=114,missing=114
						113:[C_D_U_CATEGORY_AGE_MACRO_MEAN_COEC<0.0826788] yes=227,no=228,missing=228
							227:leaf=-0.0114311
							228:leaf=-0.0355248
						114:[KW_REL<0.00223259] yes=229,no=230,missing=230
							229:leaf=0.000471482
							230:leaf=0.0479001
				28:[CAT_REL<0.372422] yes=57,no=58,missing=58
					57:[U_CAT_LEN<7] yes=115,no=116,missing=116
						115:[C_D_U_TITLEMD5_CATEGORY_MACRO_MEAN_COEC<0.167603] yes=231,no=232,missing=232
							231:leaf=-0.01773
							232:leaf=-0.000787635
						116:[WORD_COUNT<2325] yes=233,no=234,missing=234
							233:leaf=-0.000549114
							234:leaf=0.0110048
					58:[WORD_COUNT<1201] yes=117,no=118,missing=118
						117:[C_D_U_TITLEMD5_CATEGORY_MACRO_MEAN_COEC<0.183075] yes=235,no=236,missing=236
							235:leaf=0.00134174
							236:leaf=0.0188115
						118:[TIME_OF_DAY<17] yes=237,no=238,missing=238
							237:leaf=0.0138429
							238:leaf=0.0278641
			14:[CAT_REL<0.255908] yes=29,no=30,missing=30
				29:[D_CATEGORY_MICRO_MEAN_COEC<0.0925038] yes=59,no=60,missing=59
					59:[CAT_REL<0.063132] yes=119,no=120,missing=120
						119:[D_CATEGORY_MICRO_MAX_COEC<0.0638916] yes=239,no=240,missing=239
							239:leaf=0.025107
							240:leaf=-0.00529058
						120:[D_KEYWORD_MACRO_MEAN_COEC<0.0612261] yes=241,no=242,missing=242
							241:leaf=-0.0134885
							242:leaf=0.0198718
					60:[C_D_U_CATEGORY_AGE_MICRO_MAX_COEC<0.109478] yes=121,no=122,missing=122
						121:[C_D_U_TITLEMD5_CATEGORY_MACRO_MEAN_COEC<0.167603] yes=243,no=244,missing=244
							243:leaf=-0.00927794
							244:leaf=0.0150452
						122:[CAT_REL<0.009305] yes=245,no=246,missing=246
							245:leaf=-0.0455034
							246:leaf=0.0354752
				30:[D_CATEGORY_MACRO_MAX_COEC<0.0960626] yes=61,no=62,missing=62
					61:[C_D_U_TITLEMD5_GENDER_COEC<0.0611752] yes=123,no=124,missing=123
						123:[C_D_U_TITLEMD5_CATEGORY_MICRO_MEAN_COEC<0.0651795] yes=247,no=248,missing=248
							247:leaf=-0.173158
							248:leaf=0.00554763
						124:[WORD_COUNT<1201] yes=249,no=250,missing=250
							249:leaf=0.0185396
							250:leaf=0.0324029
					62:[C_D_U_TITLEMD5_CATEGORY_MACRO_MAX_COEC<0.0843535] yes=125,no=126,missing=126
						125:[C_D_U_TITLEMD5_GENDER_COEC<0.132176] yes=251,no=252,missing=252
							251:leaf=0.000478303
							252:leaf=0.0144494
						126:[D_PUBLISHER_COEC<0.0597502] yes=253,no=254,missing=254
							253:leaf=-0.0280822
							254:leaf=0.0290648
booster[23]:
0:[U_KW_LEN<200] yes=1,no=2,missing=1
	1:[C_D_U_TITLEMD5_GENDER_COEC<0.0925774] yes=3,no=4,missing=3
		3:[C_D_U_TITLEMD5_GENDER_COEC<0.0355266] yes=7,no=8,missing=8
			7:[D_KEYWORD_MICRO_MEAN_COEC<0.100508] yes=15,no=16,missing=16
				15:[U_KW_LEN<96] yes=31,no=32,missing=32
					31:[C_D_U_TITLEMD5_CATEGORY_MACRO_MAX_COEC<0.0196266] yes=63,no=64,missing=64
						63:[IMAGE_COUNT<3] yes=127,no=128,missing=128
							127:leaf=-0.0342698
							128:leaf=-0.00309776
						64:[C_D_U_CATEGORY_GENDER_MACRO_MEAN_COEC<0.0627276] yes=129,no=130,missing=130
							129:leaf=-0.0315707
							130:leaf=-0.00844079
					32:[CAT_REL<0.999999] yes=65,no=66,missing=66
						65:[TIME_OF_DAY<9] yes=131,no=132,missing=132
							131:leaf=0.00294457
							132:leaf=-0.0189857
						66:[C_D_U_PUBLISHER_GENDER_COEC<0.0539645] yes=133,no=134,missing=134
							133:leaf=-0.125858
							134:leaf=0.23781
				16:[C_D_U_CATEGORY_GENDER_MACRO_MAX_COEC<0.0880146] yes=33,no=34,missing=33
					33:[C_D_U_CATEGORY_CITY_MACRO_MAX_COEC<0.0716338] yes=67,no=68,missing=68
						67:[TIME_OF_DAY<16] yes=135,no=136,missing=136
							135:leaf=0.0521289
							136:leaf=-0.0869157
						68:[WORD_COUNT<1848] yes=137,no=138,missing=138
							137:leaf=-0.0195982
							138:leaf=-0.0946815
					34:[U_KW_LEN<16] yes=69,no=70,missing=70
						69:[D_KEYWORD_MICRO_MAX_COEC<0.147905] yes=139,no=140,missing=140
							139:leaf=-0.10618
							140:leaf=0.0668814
						70:[D_KEYWORD_MACRO_MAX_COEC<0.030728] yes=141,no=142,missing=142
							141:leaf=0.0784981
							142:leaf=0.0170698
			8:[WORD_COUNT<2368] yes=17,no=18,missing=18
				17:[C_D_U_TITLEMD5_CATEGORY_MICRO_MAX_COEC<0.105383] yes=35,no=36,missing=36
					35:[TIME_OF_DAY<13] yes=71,no=72,missing=72
						71:[D_KEYWORD_MACRO_MAX_COEC<0.035273] yes=143,no=144,missing=144
							143:leaf=-0.00889161
							144:leaf=0.0150707
						72:[C_D_U_CATEGORY_CITY_MICRO_MAX_COEC<0.0672833] yes=145,no=146,missing=145
							145:leaf=-0.0344369
							146:leaf=-0.0151172
					36:[C_D_U_PUBLISHER_CITY_COEC<3.62634] yes=73,no=74,missing=74
						73:[KW_REL<0.000239713] yes=147,no=148,missing=148
							147:leaf=-0.00668498
							148:leaf=0.00337115
						74:[C_D_U_CATEGORY_CITY_MICRO_MAX_COEC<0.218187] yes=149,no=150,missing=150
							149:leaf=-0.055733
							150:leaf=0.0692219
				18:[CAT_REL<0.221751] yes=37,no=38,missing=38
					37:[U_GENDER<4] yes=75,no=76,missing=76
						75:[TIME_OF_DAY<16] yes=151,no=152,missing=152
							151:leaf=-0.00327612
							152:leaf=0.0120043
						76:[U_CAT_LEN<6] yes=153,no=154,missing=154
							153:leaf=-0.0124147
							154:leaf=0.00910377
					38:[D_PUBLISHER_COEC<0.0831831] yes=77,no=78,missing=77
						77:[D_CATEGORY_MACRO_MEAN_COEC<0.0630236] yes=155,no=156,missing=156
							155:leaf=0.0305256
							156:leaf=0.000356897
						78:[D_CATEGORY_MACRO_MAX_COEC<0.0637943] yes=157,no=158,missing=158
							157:leaf=-0.0257923
							158:leaf=0.0259982
		4:[C_D_U_TITLEMD5_CATEGORY_MACRO_MEAN_COEC<0.116886] yes=9,no=10,missing=10
			9:[CAT_REL<0.076875] yes=19,no=20,missing=20
				19:[WORD_COUNT<2982] yes=39,no=40,missing=40
					39:[U_KW_LEN<19] yes=79,no=80,missing=80
						79:[C_D_U_PUBLISHER_CITY_COEC<0.0579093] yes=159,no=160,missing=160
							159:leaf=0.0347872
							160:leaf=-0.00649016
						80:[C_D_U_CATEGORY_GENDER_MACRO_MAX_COEC<0.0604648] yes=161,no=162,missing=161
							161:leaf=0.00829881
							162:leaf=-0.0200611
					40:[D_KEYWORD_MACRO_MEAN_COEC<0.0686116] yes=81,no=82,missing=82
						81:[C_D_U_TITLEMD5_CATEGORY_MICRO_MAX_COEC<0.177378] yes=163,no=164,missing=164
							163:leaf=-0.0146623
							164:leaf=-0.12719
						82:[TIME_OF_DAY<9] yes=165,no=166,missing=166
							165:leaf=-0.0043671
							166:leaf=0.0165173
				20:[C_D_U_TITLEMD5_CATEGORY_MACRO_MEAN_COEC<0.0590336] yes=41,no=42,missing=42
					41:[C_D_U_TITLEMD5_CATEGORY_MACRO_MAX_COEC<0.0163674] yes=83,no=84,missing=84
						83:[D_CATEGORY_MICRO_MAX_COEC<0.0710817] yes=167,no=168,missing=168
							167:leaf=0.0782539
							168:leaf=-0.0275592
						84:[C_D_U_CATEGORY_CITY_MICRO_MEAN_COEC<0.0834523] yes=169,no=170,missing=170
							169:leaf=-0.0620059
							170:leaf=-0.00552067
					42:[IMAGE_COUNT<3] yes=85,no=86,missing=86
						85:[U_KW_LEN<127] yes=171,no=172,missing=172
							171:leaf=-0.00421579
							172:leaf=0.00826423
						86:[D_KEYWORD_MICRO_MEAN_COEC<0.100508] yes=173,no=174,missing=174
							173:leaf=0.033951
							174:leaf=0.001313
			10:[U_KW_LEN<96] yes=21,no=22,missing=22
				21:[C_D_U_CATEGORY_GENDER_MICRO_MAX_COEC<0.0985018] yes=43,no=44,missing=44
					43:[U_AGE_2<0.999999] yes=87,no=88,missing=88
						87:[U_GENDER<2] yes=175,no=176,missing=176
							175:leaf=-0.0171806
							176:leaf=-0.000492275
						88:[D_CATEGORY_MACRO_MAX_COEC<0.0892691] yes=177,no=178,missing=178
							177:leaf=0.0106392
							178:leaf=-0.00254366
					44:[WORD_COUNT<3732] yes=89,no=90,missing=90
						89:[D_CATEGORY_MICRO_MEAN_COEC<0.0917837] yes=179,no=180,missing=180
							179:leaf=0.0298716
							180:leaf=0.00827296
						90:[D_CATEGORY_MICRO_MAX_COEC<0.0979999] yes=181,no=182,missing=181
							181:leaf=-0.0127617
							182:leaf=0.0390169
				22:[KW_REL<0.000848332] yes=45,no=46,missing=46
					45:[C_D_U_CATEGORY_CITY_MACRO_MEAN_COEC<0.0634522] yes=91,no=92,missing=92
						91:[D_PUBLISHER_COEC<0.0558494] yes=183,no=184,missing=184
							183:leaf=-0.114943
							184:leaf=-0.00992688
						92:[C_D_U_TITLEMD5_CATEGORY_MACRO_MEAN_COEC<0.237697] yes=185,no=186,missing=186
							185:leaf=0.00845511
							186:leaf=0.0303299
					46:[C_D_U_TITLEMD5_CATEGORY_MICRO_MAX_COEC<0.443331] yes=93,no=94,missing=94
						93:[CAT_REL<0.649503] yes=187,no=188,missing=188
							187:leaf=0.0181244
							188:leaf=0.0357593
						94:[C_D_U_PUBLISHER_CITY_COEC<0.0758958] yes=189,no=190,missing=189
							189:leaf=-0.00317048
							190:leaf=-0.0718438
	2:[C_D_U_TITLEMD5_CATEGORY_MACRO_MEAN_COEC<0.0971209] yes=5,no=6,missing=6
		5:[C_D_U_TITLEMD5_CATEGORY_MACRO_MEAN_COEC<0.0636332] yes=11,no=12,missing=12
			11:[CAT_REL<0.253366] yes=23,no=24,missing=24
				23:[C_D_U_TITLEMD5_CATEGORY_MACRO_MEAN_COEC<0.035089] yes=47,no=48,missing=48
					47:[TIME_OF_DAY<2] yes=95,no=96,missing=96
						95:[D_KEYWORD_MACRO_MEAN_COEC<0.0818072] yes=191,no=192,missing=192
							191:leaf=0.00322685
							192:leaf=0.110593
						96:[C_D_U_PUBLISHER_CITY_COEC<0.0584619] yes=193,no=194,missing=194
							193:leaf=-0.0372989
							194:leaf=-0.0227978
					48:[D_CATEGORY_MACRO_MAX_COEC<0.0473635] yes=97,no=98,missing=98
						97:[CAT_REL<0.028762] yes=195,no=196,missing=196
							195:leaf=-0.0176549
							196:leaf=0.015306
						98:[WORD_COUNT<1804] yes=197,no=198,missing=198
							197:leaf=-0.0239018
							198:leaf=-0.012142
				24:[KW_REL<0.00612115] yes=49,no=50,missing=50
					49:[D_KEYWORD_MACRO_MEAN_COEC<0.0457426] yes=99,no=100,missing=100
						99:[D_CATEGORY_MICRO_MEAN_COEC<0.0605655] yes=199,no=200,missing=200
							199:leaf=0.00879861
							200:leaf=-0.0332854
						100:[U_CAT_LEN<7] yes=201,no=202,missing=202
							201:leaf=-0.0323267
							202:leaf=-0.00559295
					50:[C_D_U_CATEGORY_CITY_MACRO_MEAN_COEC<0.133952] yes=101,no=102,missing=102
						101:[C_D_U_CATEGORY_GENDER_MACRO_MAX_COEC<0.0470315] yes=203,no=204,missing=204
							203:leaf=0.0497897
							204:leaf=0.000255968
						102:[D_KEYWORD_MACRO_MAX_COEC<0.0130588] yes=205,no=206,missing=206
							205:leaf=0.0894499
							206:leaf=0.0426763
			12:[D_TITLEMD5_COEC<0.0879031] yes=25,no=26,missing=26
				25:[U_CAT_LEN<14] yes=51,no=52,missing=52
					51:[C_D_U_TITLEMD5_CATEGORY_MACRO_MEAN_COEC<0.0788372] yes=103,no=104,missing=104
						103:[D_TITLEMD5_COEC<0.0782844] yes=207,no=208,missing=208
							207:leaf=-0.000343077
							208:leaf=-0.0116296
						104:[C_D_U_TITLEMD5_AGE_COEC<0.0368072] yes=209,no=210,missing=209
							209:leaf=-0.0326086
							210:leaf=0.00796183
					52:[C_D_U_CATEGORY_CITY_MACRO_MAX_COEC<0.113639] yes=105,no=106,missing=105
						105:[U_CAT_LEN<19] yes=211,no=212,missing=212
							211:leaf=0.0073131
							212:leaf=0.0214085
						106:[C_D_U_TITLEMD5_CATEGORY_MACRO_MEAN_COEC<0.0731685] yes=213,no=214,missing=214
							213:leaf=0.0239704
							214:leaf=0.0530426
				26:[WORD_COUNT<1408] yes=53,no=54,missing=54
					53:[CAT_REL<0.291182] yes=107,no=108,missing=108
						107:[D_CATEGORY_MICRO_MEAN_COEC<0.0785244] yes=215,no=216,missing=216
							215:leaf=-0.0122683
							216:leaf=-0.0290177
						108:[U_CAT_LEN<10] yes=217,no=218,missing=218
							217:leaf=-0.0225512
							218:leaf=-0.00292268
					54:[C_D_U_TITLEMD5_CATEGORY_MACRO_MEAN_COEC<0.0820808] yes=109,no=110,missing=110
						109:[D_CATEGORY_MACRO_MEAN_COEC<0.0642864] yes=219,no=220,missing=219
							219:leaf=0.00327125
							220:leaf=-0.0159908
						110:[U_CAT_LEN<14] yes=221,no=222,missing=222
							221:leaf=-0.00646484
							222:leaf=0.00860651
		6:[KW_REL<0.000367269] yes=13,no=14,missing=14
			13:[D_KEYWORD_MACRO_MEAN_COEC<0.0788599] yes=27,no=28,missing=28
				27:[C_D_U_TITLEMD5_CATEGORY_MICRO_MAX_COEC<0.207062] yes=55,no=56,missing=56
					55:[C_D_U_PUBLISHER_GENDER_COEC<0.0944244] yes=111,no=112,missing=111
						111:[CAT_REL<0.018856] yes=223,no=224,missing=224
							223:leaf=-0.0645116
							224:leaf=-0.0163077
						112:[C_D_U_CATEGORY_AGE_MACRO_MAX_COEC<0.0710709] yes=225,no=226,missing=226
							225:leaf=0.0278408
							226:leaf=-0.00472595
					56:[WORD_COUNT<4890] yes=113,no=114,missing=114
						113:[C_D_U_TITLEMD5_GENDER_COEC<0.231779] yes=227,no=228,missing=227
							227:leaf=-0.0382544
							228:leaf=-0.072506
						114:[D_TITLEMD5_COEC<0.153984] yes=229,no=230,missing=230
							229:leaf=-0.0666063
							230:leaf=0.0540151
				28:[CAT_REL<0.13573] yes=57,no=58,missing=58
					57:[D_CATEGORY_MICRO_MEAN_COEC<0.0923101] yes=115,no=116,missing=115
						115:[D_CATEGORY_MACRO_MAX_COEC<0.0687413] yes=231,no=232,missing=231
							231:leaf=0.0112041
							232:leaf=-0.00908413
						116:[C_D_U_CATEGORY_AGE_MICRO_MAX_COEC<0.109478] yes=233,no=234,missing=234
							233:leaf=-0.0321613
							234:leaf=-0.00102164
					58:[C_D_U_TITLEMD5_CATEGORY_MACRO_MEAN_COEC<0.193274] yes=117,no=118,missing=118
						117:[D_CATEGORY_MACRO_MEAN_COEC<0.0812614] yes=235,no=236,missing=236
							235:leaf=0.0215527
							236:leaf=-0.00182723
						118:[C_D_U_TITLEMD5_CATEGORY_MICRO_MAX_COEC<0.446087] yes=237,no=238,missing=238
							237:leaf=0.0221825
							238:leaf=-0.0309934
			14:[C_D_U_PUBLISHER_GENDER_COEC<0.0713254] yes=29,no=30,missing=29
				29:[C_D_U_TITLEMD5_CATEGORY_MICRO_MAX_COEC<0.214274] yes=59,no=60,missing=60
					59:[CAT_REL<0.0989947] yes=119,no=120,missing=120
						119:[D_KEYWORD_MICRO_MEAN_COEC<0.0893811] yes=239,no=240,missing=240
							239:leaf=-0.0244699
							240:leaf=0.00837891
						120:[C_D_U_TITLEMD5_CATEGORY_MACRO_MEAN_COEC<0.135405] yes=241,no=242,missing=242
							241:leaf=0.00405372
							242:leaf=0.02249
					60:[D_PUBLISHER_COEC<0.062038] yes=121,no=122,missing=122
						121:[CAT_REL<0.197305] yes=243,no=244,missing=244
							243:leaf=-0.0459876
							244:leaf=-0.0197153
						122:[C_D_U_TITLEMD5_CATEGORY_MACRO_MEAN_COEC<0.168829] yes=245,no=246,missing=246
							245:leaf=-0.0161076
							246:leaf=0.00247009
				30:[C_D_U_TITLEMD5_CATEGORY_MACRO_MEAN_COEC<0.174076] yes=61,no=62,missing=62
					61:[D_CATEGORY_MACRO_MAX_COEC<0.0925025] yes=123,no=124,missing=123
						123:[CAT_REL<0.04982] yes=247,no=248,missing=248
							247:leaf=-0.00180408
							248:leaf=0.0144886
						124:[C_D_U_CATEGORY_GENDER_MACRO_MEAN_COEC<0.10529] yes=249,no=250,missing=250
							249:leaf=-0.00327907
							250:leaf=0.0164515
					62:[D_KEYWORD_MACRO_MEAN_COEC<0.0827598] yes=125,no=126,missing=126
						125:[C_D_U_TITLEMD5_CATEGORY_MICRO_MAX_COEC<0.312551] yes=251,no=252,missing=252
							251:leaf=0.0256389
							252:leaf=-0.0216962
						126:[D_PUBLISHER_COEC<0.111223] yes=253,no=254,missing=254
							253:leaf=0.0356548
							254:leaf=0.01963
booster[24]:
0:[U_KW_LEN<200] yes=1,no=2,missing=1
	1:[C_D_U_TITLEMD5_GENDER_COEC<0.0716165] yes=3,no=4,missing=3
		3:[IMAGE_COUNT<0.999999] yes=7,no=8,missing=8
			7:[C_D_U_TITLEMD5_CATEGORY_MICRO_MEAN_COEC<0.0868122] yes=15,no=16,missing=15
				15:[C_D_U_TITLEMD5_GENDER_COEC<0.0642894] yes=31,no=32,missing=32
					31:[C_D_U_TITLEMD5_CATEGORY_MACRO_MAX_COEC<0.0659751] yes=63,no=64,missing=63
						63:[WORD_COUNT<3273] yes=127,no=128,missing=128
							127:leaf=-0.0321518
							128:leaf=-0.121579
						64:[C_D_U_CATEGORY_CITY_MICRO_MAX_COEC<0.0714396] yes=129,no=130,missing=130
							129:leaf=0.123228
							130:leaf=-0.102366
					32:[C_D_U_PUBLISHER_GENDER_COEC<0.116628] yes=65,no=66,missing=65
						65:[C_D_U_PUBLISHER_CITY_COEC<0.0597169] yes=131,no=132,missing=131
							131:leaf=-0.0657182
							132:leaf=-0.130342
						66:[WORD_COUNT<1099] yes=133,no=134,missing=134
							133:leaf=0.179268
							134:leaf=-0.128963
				16:[WORD_COUNT<4981] yes=33,no=34,missing=34
					33:[U_AGE_2<0.999999] yes=67,no=68,missing=68
						67:[C_D_U_CATEGORY_GENDER_MACRO_MAX_COEC<0.0716362] yes=135,no=136,missing=136
							135:leaf=-0.154231
							136:leaf=-0.0481094
						68:[C_D_U_CATEGORY_GENDER_MICRO_MAX_COEC<0.0549739] yes=137,no=138,missing=138
							137:leaf=-0.0396528
							138:leaf=-0.180645
					34:[C_D_U_PUBLISHER_CITY_COEC<0.0650958] yes=69,no=70,missing=70
						69:leaf=-0.160073
						70:[C_D_U_TITLEMD5_CATEGORY_MACRO_MEAN_COEC<0.275448] yes=139,no=140,missing=140
							139:leaf=0.0378954
							140:leaf=0.193686
			8:[D_PUBLISHER_COEC<0.0367047] yes=17,no=18,missing=17
				17:[D_KEYWORD_MICRO_MEAN_COEC<0.0912415] yes=35,no=36,missing=36
					35:[D_KEYWORD_MICRO_MAX_COEC<0.110536] yes=71,no=72,missing=72
						71:[D_TITLEMD5_COEC<0.0679986] yes=141,no=142,missing=142
							141:leaf=-0.0194426
							142:leaf=-0.0528793
						72:[C_D_U_PUBLISHER_GENDER_COEC<0.0716702] yes=143,no=144,missing=143
							143:leaf=-0.0544064
							144:leaf=0.218792
					36:[C_D_U_PUBLISHER_CITY_COEC<0.150923] yes=73,no=74,missing=74
						73:[C_D_U_TITLEMD5_GENDER_COEC<0.0551177] yes=145,no=146,missing=145
							145:leaf=-0.0328773
							146:leaf=0.114783
						74:[C_D_U_CATEGORY_CITY_MACRO_MAX_COEC<0.0887881] yes=147,no=148,missing=147
							147:leaf=0.146652
							148:leaf=-0.103758
				18:[IMAGE_COUNT<2] yes=37,no=38,missing=38
					37:[C_D_U_TITLEMD5_GENDER_COEC<0.0223173] yes=75,no=76,missing=76
						75:[C_D_U_PUBLISHER_CITY_COEC<0.0923545] yes=149,no=150,missing=150
							149:leaf=-0.0224904
							150:leaf=0.00156994
						76:[CAT_REL<0.499999] yes=151,no=152,missing=152
							151:leaf=-0.00893925
							152:leaf=0.00282353
					38:[KW_REL<0.00228301] yes=77,no=78,missing=78
						77:[C_D_U_CATEGORY_GENDER_MICRO_MAX_COEC<0.0603932] yes=153,no=154,missing=154
							153:leaf=0.0288325
							154:leaf=-0.00456515
						78:[C_D_U_CATEGORY_CITY_MACRO_MAX_COEC<0.0612069] yes=155,no=156,missing=156
							155:leaf=-0.0265471
							156:leaf=0.0326297
		4:[U_GENDER<2] yes=9,no=10,missing=9
			9:[U_AGE_1<0.999999] yes=19,no=20,missing=20
				19:[C_D_U_TITLEMD5_CATEGORY_MACRO_MEAN_COEC<0.112518] yes=39,no=40,missing=40
					39:[U_KW_LEN<125] yes=79,no=80,missing=80
						79:[C_D_U_TITLEMD5_CATEGORY_MICRO_MAX_COEC<0.161632] yes=157,no=158,missing=158
							157:leaf=-0.00619015
							158:leaf=-0.0310544
						80:[CAT_REL<0.076922] yes=159,no=160,missing=160
							159:leaf=-0.00842915
							160:leaf=0.00632317
					40:[U_KW_LEN<58] yes=81,no=82,missing=82
						81:[C_D_U_CATEGORY_GENDER_MICRO_MAX_COEC<0.0992123] yes=161,no=162,missing=162
							161:leaf=-0.000521268
							162:leaf=0.0161149
						82:[KW_REL<0.000542076] yes=163,no=164,missing=164
							163:leaf=0.00328014
							164:leaf=0.0144037
				20:[IMAGE_COUNT<2] yes=41,no=42,missing=42
					41:[D_CATEGORY_MICRO_MAX_COEC<0.0609039] yes=83,no=84,missing=83
						83:[TIME_OF_DAY<19] yes=165,no=166,missing=166
							165:leaf=-0.0799638
							166:leaf=0.0788214
						84:[C_D_U_PUBLISHER_CITY_COEC<0.11686] yes=167,no=168,missing=167
							167:leaf=-0.0196202
							168:leaf=0.00461685
					42:[C_D_U_TITLEMD5_CATEGORY_MACRO_MEAN_COEC<0.0647812] yes=85,no=86,missing=86
						85:[C_D_U_PUBLISHER_CITY_COEC<0.05173] yes=169,no=170,missing=170
							169:leaf=0.0806377
							170:leaf=-0.167619
						86:[C_D_U_TITLEMD5_GENDER_COEC<0.131671] yes=171,no=172,missing=172
							171:leaf=0.0278197
							172:leaf=-0.0187701
			10:[C_D_U_CATEGORY_GENDER_MICRO_MEAN_COEC<0.0791852] yes=21,no=22,missing=22
				21:[TIME_OF_DAY<17] yes=43,no=44,missing=44
					43:[C_D_U_TITLEMD5_CATEGORY_MACRO_MEAN_COEC<0.111394] yes=87,no=88,missing=88
						87:[C_D_U_TITLEMD5_CATEGORY_MICRO_MAX_COEC<0.188108] yes=173,no=174,missing=174
							173:leaf=-0.00885689
							174:leaf=-0.126616
						88:[WORD_COUNT<4981] yes=175,no=176,missing=176
							175:leaf=0.00828667
							176:leaf=-0.0483923
					44:[C_D_U_TITLEMD5_GENDER_COEC<0.0735553] yes=89,no=90,missing=90
						89:[D_KEYWORD_MICRO_MEAN_COEC<0.0637099] yes=177,no=178,missing=178
							177:leaf=0.0416003
							178:leaf=-0.159927
						90:[CAT_REL<0.409337] yes=179,no=180,missing=180
							179:leaf=0.0171601
							180:leaf=0.0525248
				22:[C_D_U_CATEGORY_GENDER_MACRO_MEAN_COEC<0.10346] yes=45,no=46,missing=45
					45:[CAT_REL<0.166666] yes=91,no=92,missing=92
						91:[D_KEYWORD_MICRO_MEAN_COEC<0.065853] yes=181,no=182,missing=182
							181:leaf=-0.0844961
							182:leaf=0.024999
						92:[C_D_U_TITLEMD5_CATEGORY_MICRO_MEAN_COEC<0.0513002] yes=183,no=184,missing=184
							183:leaf=-0.0833494
							184:leaf=0.0407744
					46:[CAT_REL<0.399999] yes=93,no=94,missing=94
						93:[D_TITLEMD5_COEC<0.152096] yes=185,no=186,missing=186
							185:leaf=-0.0041503
							186:leaf=0.0210513
						94:[U_KW_LEN<197] yes=187,no=188,missing=188
							187:leaf=0.0409042
							188:leaf=-0.152089
	2:[C_D_U_TITLEMD5_CATEGORY_MACRO_MEAN_COEC<0.107017] yes=5,no=6,missing=6
		5:[CAT_REL<0.044642] yes=11,no=12,missing=12
			11:[D_CATEGORY_MACRO_MAX_COEC<0.100484] yes=23,no=24,missing=24
				23:[C_D_U_PUBLISHER_AGE_COEC<0.0800156] yes=47,no=48,missing=48
					47:[C_D_U_TITLEMD5_GENDER_COEC<0.02458] yes=95,no=96,missing=96
						95:[C_D_U_TITLEMD5_CATEGORY_MACRO_MAX_COEC<0.0416019] yes=189,no=190,missing=190
							189:leaf=-0.0499888
							190:leaf=-0.0949711
						96:[IMAGE_COUNT<3] yes=191,no=192,missing=192
							191:leaf=-0.0321603
							192:leaf=0.00146404
					48:[D_CATEGORY_MICRO_MAX_COEC<0.0632114] yes=97,no=98,missing=98
						97:[D_KEYWORD_MICRO_MEAN_COEC<0.0749958] yes=193,no=194,missing=194
							193:leaf=-0.0134169
							194:leaf=0.0164212
						98:[C_D_U_TITLEMD5_CATEGORY_MACRO_MAX_COEC<0.0444248] yes=195,no=196,missing=196
							195:leaf=-0.0136368
							196:leaf=-0.0323247
				24:[KW_REL<0.01713] yes=49,no=50,missing=50
					49:[D_KEYWORD_MICRO_MEAN_COEC<0.116533] yes=99,no=100,missing=100
						99:[C_D_U_TITLEMD5_CATEGORY_MACRO_MAX_COEC<0.0501852] yes=197,no=198,missing=198
							197:leaf=0.0126259
							198:leaf=-0.0241795
						100:[U_CAT_LEN<12] yes=199,no=200,missing=200
							199:leaf=0.0293298
							200:leaf=0.111738
					50:[TIME_OF_DAY<17] yes=101,no=102,missing=102
						101:[C_D_U_PUBLISHER_GENDER_COEC<0.0880811] yes=201,no=202,missing=201
							201:leaf=0.0687868
							202:leaf=0.00784024
						102:[C_D_U_TITLEMD5_CATEGORY_MACRO_MEAN_COEC<0.0743492] yes=203,no=204,missing=204
							203:leaf=-0.178267
							204:leaf=0.0709639
			12:[U_CAT_LEN<17] yes=25,no=26,missing=26
				25:[C_D_U_TITLEMD5_CATEGORY_MACRO_MEAN_COEC<0.0602358] yes=51,no=52,missing=52
					51:[C_D_U_CATEGORY_AGE_MICRO_MAX_COEC<0.0563789] yes=103,no=104,missing=104
						103:[U_AGE_1<0.999999] yes=205,no=206,missing=206
							205:leaf=0.0306142
							206:leaf=-0.00844331
						104:[C_D_U_PUBLISHER_CITY_COEC<0.0675558] yes=207,no=208,missing=207
							207:leaf=-0.0195631
							208:leaf=-0.0084373
					52:[WORD_COUNT<2700] yes=105,no=106,missing=106
						105:[KW_REL<0.00616679] yes=209,no=210,missing=210
							209:leaf=-0.00862119
							210:leaf=0.00472335
						106:[C_D_U_PUBLISHER_GENDER_COEC<0.0625212] yes=211,no=212,missing=211
							211:leaf=-0.00499182
							212:leaf=0.00815195
				26:[D_CATEGORY_MICRO_MEAN_COEC<0.0959813] yes=53,no=54,missing=54
					53:[C_D_U_PUBLISHER_CITY_COEC<0.0765857] yes=107,no=108,missing=107
						107:[C_D_U_CATEGORY_AGE_MICRO_MAX_COEC<0.0563789] yes=213,no=214,missing=214
							213:leaf=0.0409917
							214:leaf=0.00285008
						108:[CAT_REL<0.162904] yes=215,no=216,missing=216
							215:leaf=0.00919999
							216:leaf=0.0208541
					54:[C_D_U_CATEGORY_CITY_MICRO_MAX_COEC<0.129894] yes=109,no=110,missing=110
						109:[C_D_U_TITLEMD5_CATEGORY_MACRO_MAX_COEC<0.0367764] yes=217,no=218,missing=218
							217:leaf=-0.0192942
							218:leaf=0.00176739
						110:[C_D_U_CATEGORY_GENDER_MACRO_MAX_COEC<0.104625] yes=219,no=220,missing=220
							219:leaf=0.0228648
							220:leaf=0.0796636
		6:[KW_REL<0.00141847] yes=13,no=14,missing=14
			13:[D_KEYWORD_MACRO_MEAN_COEC<0.0741069] yes=27,no=28,missing=28
				27:[C_D_U_TITLEMD5_CATEGORY_MICRO_MAX_COEC<0.212823] yes=55,no=56,missing=56
					55:[CAT_REL<0.089697] yes=111,no=112,missing=112
						111:[WORD_COUNT<4270] yes=221,no=222,missing=222
							221:leaf=-0.051957
							222:leaf=0.0158511
						112:[D_KEYWORD_MACRO_MEAN_COEC<0.0599466] yes=223,no=224,missing=224
							223:leaf=-0.0381147
							224:leaf=0.00533284
					56:[C_D_U_TITLEMD5_GENDER_COEC<0.214265] yes=113,no=114,missing=113
						113:[C_D_U_CATEGORY_AGE_MICRO_MAX_COEC<0.0728294] yes=225,no=226,missing=226
							225:leaf=-0.0135479
							226:leaf=-0.0387362
						114:[D_CATEGORY_MICRO_MAX_COEC<0.0892785] yes=227,no=228,missing=228
							227:leaf=-0.0481541
							228:leaf=-0.0898887
				28:[C_D_U_TITLEMD5_CATEGORY_MACRO_MEAN_COEC<0.194492] yes=57,no=58,missing=58
					57:[D_CATEGORY_MICRO_MAX_COEC<0.0679162] yes=115,no=116,missing=116
						115:[C_D_U_PUBLISHER_AGE_COEC<0.072173] yes=229,no=230,missing=229
							229:leaf=-0.0118046
							230:leaf=0.0215667
						116:[CAT_REL<0.018551] yes=231,no=232,missing=232
							231:leaf=-0.0197172
							232:leaf=0.00198663
					58:[D_KEYWORD_MACRO_MEAN_COEC<0.108097] yes=117,no=118,missing=118
						117:[WORD_COUNT<2367] yes=233,no=234,missing=234
							233:leaf=-0.0174216
							234:leaf=0.0156258
						118:[C_D_U_TITLEMD5_CATEGORY_MICRO_MEAN_COEC<0.243713] yes=235,no=236,missing=236
							235:leaf=0.0126619
							236:leaf=0.0294172
			14:[C_D_U_TITLEMD5_AGE_COEC<0.283681] yes=29,no=30,missing=30
				29:[WORD_COUNT<2055] yes=59,no=60,missing=60
					59:[CAT_REL<0.189544] yes=119,no=120,missing=120
						119:[D_CATEGORY_MACRO_MAX_COEC<0.062044] yes=237,no=238,missing=237
							237:leaf=0.0212151
							238:leaf=-0.0020156
						120:[D_KEYWORD_MACRO_MEAN_COEC<0.067694] yes=239,no=240,missing=240
							239:leaf=-0.00668154
							240:leaf=0.0148328
					60:[C_D_U_TITLEMD5_CATEGORY_MACRO_MEAN_COEC<0.167397] yes=121,no=122,missing=122
						121:[C_D_U_TITLEMD5_AGE_COEC<0.165199] yes=241,no=242,missing=242
							241:leaf=0.0200552
							242:leaf=-0.00234914
						122:[DAY_OF_WEEK<6] yes=243,no=244,missing=244
							243:leaf=0.0387641
							244:leaf=0.00211101
				30:[C_D_U_TITLEMD5_CATEGORY_MACRO_MEAN_COEC<0.213229] yes=61,no=62,missing=62
					61:[D_KEYWORD_MICRO_MEAN_COEC<0.0851429] yes=123,no=124,missing=124
						123:[KW_REL<0.0118009] yes=245,no=246,missing=246
							245:leaf=-0.0617756
							246:leaf=-0.0165886
						124:[C_D_U_PUBLISHER_GENDER_COEC<0.0782041] yes=247,no=248,missing=248
							247:leaf=-0.0478453
							248:leaf=0.0106016
					62:[CAT_REL<0.077606] yes=125,no=126,missing=126
						125:[D_KEYWORD_MICRO_MEAN_COEC<0.0779485] yes=249,no=250,missing=250
							249:leaf=-0.157981
							250:leaf=-0.0393593
						126:[D_KEYWORD_MACRO_MEAN_COEC<0.135597] yes=251,no=252,missing=252
							251:leaf=-0.00582442
							252:leaf=0.0404992
booster[25]:
0:[U_KW_LEN<200] yes=1,no=2,missing=1
	1:[D_KEYWORD_MACRO_MEAN_COEC<0.0865623] yes=3,no=4,missing=4
		3:[D_PUBLISHER_COEC<0.036129] yes=7,no=8,missing=7
			7:[C_D_U_TITLEMD5_GENDER_COEC<0.0757945] yes=15,no=16,missing=16
				15:[C_D_U_CATEGORY_CITY_MICRO_MAX_COEC<0.124376] yes=31,no=32,missing=32
					31:[D_KEYWORD_MICRO_MAX_COEC<0.09916] yes=63,no=64,missing=64
						63:[WORD_COUNT<3732] yes=127,no=128,missing=128
							127:leaf=-0.00580169
							128:leaf=-0.0375054
						64:[TIME_OF_DAY<10] yes=129,no=130,missing=130
							129:leaf=-0.0175894
							130:leaf=-0.0528242
					32:[C_D_U_TITLEMD5_CATEGORY_MACRO_MAX_COEC<0.0195579] yes=65,no=66,missing=65
						65:[D_KEYWORD_MACRO_MAX_COEC<0.0121372] yes=131,no=132,missing=132
							131:leaf=-0.0416706
							132:leaf=0.14609
						66:leaf=-0.146483
				16:[KW_REL<0.000603343] yes=33,no=34,missing=34
					33:[U_AGE_1<0.999999] yes=67,no=68,missing=68
						67:[D_KEYWORD_MICRO_MAX_COEC<0.117638] yes=133,no=134,missing=134
							133:leaf=-0.0734911
							134:leaf=-0.122084
						68:[DAY_OF_WEEK<3] yes=135,no=136,missing=136
							135:leaf=0.138346
							136:leaf=-0.110609
					34:[IMAGE_COUNT<4] yes=69,no=70,missing=70
						69:[D_KEYWORD_MACRO_MEAN_COEC<0.0467874] yes=137,no=138,missing=138
							137:leaf=-0.0731477
							138:leaf=-0.0110614
						70:[D_KEYWORD_MACRO_MAX_COEC<0.0206538] yes=139,no=140,missing=140
							139:leaf=0.0182381
							140:leaf=0.296594
			8:[IMAGE_COUNT<3] yes=17,no=18,missing=18
				17:[D_CATEGORY_MACRO_MEAN_COEC<0.0602097] yes=35,no=36,missing=36
					35:[U_GENDER<4] yes=71,no=72,missing=72
						71:[D_TITLEMD5_COEC<2.42837] yes=141,no=142,missing=142
							141:leaf=-0.013123
							142:leaf=0.0712636
						72:[U_KW_LEN<99] yes=143,no=144,missing=144
							143:leaf=-0.0365555
							144:leaf=-0.0084542
					36:[TIME_OF_DAY<17] yes=73,no=74,missing=74
						73:[TIME_OF_DAY<13] yes=145,no=146,missing=146
							145:leaf=-0.0019478
							146:leaf=-0.0111212
						74:[C_D_U_TITLEMD5_CATEGORY_MACRO_MEAN_COEC<0.0983649] yes=147,no=148,missing=148
							147:leaf=-0.00353946
							148:leaf=0.0123123
				18:[D_PUBLISHER_COEC<0.0730436] yes=37,no=38,missing=38
					37:[D_CATEGORY_MICRO_MAX_COEC<0.0658948] yes=75,no=76,missing=76
						75:[D_KEYWORD_MACRO_MAX_COEC<0.0137265] yes=149,no=150,missing=150
							149:leaf=0.0133623
							150:leaf=0.046444
						76:[C_D_U_CATEGORY_CITY_MACRO_MAX_COEC<0.11535] yes=151,no=152,missing=151
							151:leaf=0.0122249
							152:leaf=0.0674015
					38:[CAT_REL<0.036299] yes=77,no=78,missing=78
						77:[D_KEYWORD_MACRO_MAX_COEC<0.02244] yes=153,no=154,missing=154
							153:leaf=-0.0102122
							154:leaf=0.00862942
						78:[C_D_U_TITLEMD5_GENDER_COEC<0.0815848] yes=155,no=156,missing=155
							155:leaf=0.00495598
							156:leaf=0.0285649
		4:[WORD_COUNT<1521] yes=9,no=10,missing=10
			9:[C_D_U_PUBLISHER_CITY_COEC<0.143048] yes=19,no=20,missing=19
				19:[D_CATEGORY_MACRO_MEAN_COEC<0.0879932] yes=39,no=40,missing=39
					39:[IMAGE_COUNT<2] yes=79,no=80,missing=80
						79:[D_KEYWORD_MICRO_MAX_COEC<0.137564] yes=157,no=158,missing=158
							157:leaf=0.00897607
							158:leaf=-0.00374909
						80:[D_PUBLISHER_COEC<0.112414] yes=159,no=160,missing=160
							159:leaf=0.0178167
							160:leaf=0.0586986
					40:[C_D_U_TITLEMD5_GENDER_COEC<0.186759] yes=81,no=82,missing=82
						81:[CAT_REL<0.199999] yes=161,no=162,missing=162
							161:leaf=-0.0191538
							162:leaf=0.00123309
						82:[WORD_COUNT<1137] yes=163,no=164,missing=164
							163:leaf=0.00306509
							164:leaf=0.0266512
				20:[C_D_U_TITLEMD5_CATEGORY_MACRO_MEAN_COEC<0.193609] yes=41,no=42,missing=42
					41:[C_D_U_TITLEMD5_CATEGORY_MACRO_MEAN_COEC<0.0497222] yes=83,no=84,missing=84
						83:leaf=-0.167533
						84:[D_PUBLISHER_COEC<0.0960983] yes=165,no=166,missing=166
							165:leaf=0.0316306
							166:leaf=0.00394289
					42:[D_KEYWORD_MACRO_MAX_COEC<0.0222664] yes=85,no=86,missing=86
						85:[C_D_U_CATEGORY_CITY_MACRO_MAX_COEC<0.0783401] yes=167,no=168,missing=168
							167:leaf=0.0397263
							168:leaf=-0.0562461
						86:[C_D_U_CATEGORY_CITY_MACRO_MAX_COEC<0.035628] yes=169,no=170,missing=170
							169:leaf=-0.018341
							170:leaf=0.0226287
			10:[C_D_U_CATEGORY_GENDER_MICRO_MEAN_COEC<0.0636105] yes=21,no=22,missing=21
				21:[C_D_U_PUBLISHER_GENDER_COEC<0.0918196] yes=43,no=44,missing=43
					43:[C_D_U_TITLEMD5_GENDER_COEC<0.121076] yes=87,no=88,missing=87
						87:[C_D_U_CATEGORY_CITY_MACRO_MEAN_COEC<0.0925309] yes=171,no=172,missing=171
							171:leaf=-0.0716998
							172:leaf=0.072704
						88:[WORD_COUNT<2497] yes=173,no=174,missing=174
							173:leaf=-0.00248537
							174:leaf=-0.199502
					44:[C_D_U_TITLEMD5_CATEGORY_MACRO_MAX_COEC<0.145766] yes=89,no=90,missing=89
						89:[C_D_U_PUBLISHER_CITY_COEC<0.149633] yes=175,no=176,missing=176
							175:leaf=-0.00452039
							176:leaf=0.0602259
						90:[C_D_U_TITLEMD5_CATEGORY_MACRO_MAX_COEC<0.228844] yes=177,no=178,missing=178
							177:leaf=-0.273654
							178:leaf=-0.0157852
				22:[D_KEYWORD_MACRO_MEAN_COEC<0.119904] yes=45,no=46,missing=46
					45:[C_D_U_PUBLISHER_CITY_COEC<0.113889] yes=91,no=92,missing=91
						91:[WORD_COUNT<4574] yes=179,no=180,missing=180
							179:leaf=0.00727947
							180:leaf=-0.0125738
						92:[D_TITLEMD5_COEC<0.124561] yes=181,no=182,missing=181
							181:leaf=0.0311581
							182:leaf=0.0127527
					46:[D_CATEGORY_MACRO_MAX_COEC<0.0966906] yes=93,no=94,missing=94
						93:[WORD_COUNT<1804] yes=183,no=184,missing=184
							183:leaf=0.0353291
							184:leaf=0.016705
						94:[D_KEYWORD_MICRO_MEAN_COEC<0.117976] yes=185,no=186,missing=186
							185:leaf=0.0322913
							186:leaf=0.000177211
	2:[C_D_U_TITLEMD5_CATEGORY_MACRO_MEAN_COEC<0.0789677] yes=5,no=6,missing=6
		5:[KW_REL<0.000922307] yes=11,no=12,missing=12
			11:[D_KEYWORD_MACRO_MEAN_COEC<0.0483298] yes=23,no=24,missing=24
				23:[D_KEYWORD_MACRO_MEAN_COEC<0.0367016] yes=47,no=48,missing=48
					47:[C_D_U_PUBLISHER_AGE_COEC<0.172665] yes=95,no=96,missing=95
						95:[D_KEYWORD_MICRO_MAX_COEC<0.172643] yes=187,no=188,missing=188
							187:leaf=-0.0461571
							188:leaf=0.0528254
						96:[C_D_U_PUBLISHER_CITY_COEC<0.149437] yes=189,no=190,missing=190
							189:leaf=0.289591
							190:leaf=-0.00584037
					48:[WORD_COUNT<6140] yes=97,no=98,missing=98
						97:[D_CATEGORY_MICRO_MAX_COEC<0.0648466] yes=191,no=192,missing=191
							191:leaf=-0.0162454
							192:leaf=-0.0342586
						98:[C_D_U_PUBLISHER_CITY_COEC<0.0970387] yes=193,no=194,missing=193
							193:leaf=-0.0114119
							194:leaf=0.044443
				24:[D_CATEGORY_MICRO_MEAN_COEC<0.0980702] yes=49,no=50,missing=50
					49:[CAT_REL<0.275241] yes=99,no=100,missing=100
						99:[D_TITLEMD5_COEC<0.090092] yes=195,no=196,missing=195
							195:leaf=-0.0117906
							196:leaf=-0.0267079
						100:[U_CAT_LEN<7] yes=197,no=198,missing=198
							197:leaf=-0.0259492
							198:leaf=0.000863767
					50:[D_KEYWORD_MACRO_MEAN_COEC<0.082424] yes=101,no=102,missing=102
						101:[DAY_OF_WEEK<3] yes=199,no=200,missing=200
							199:leaf=-0.0217032
							200:leaf=0.0169309
						102:[CAT_REL<0.468214] yes=201,no=202,missing=202
							201:leaf=-0.0473312
							202:leaf=-0.0169841
			12:[C_D_U_PUBLISHER_CITY_COEC<0.0721046] yes=25,no=26,missing=25
				25:[U_CAT_LEN<11] yes=51,no=52,missing=52
					51:[D_PUBLISHER_COEC<0.0292082] yes=103,no=104,missing=104
						103:[C_D_U_PUBLISHER_AGE_COEC<0.0553664] yes=203,no=204,missing=204
							203:leaf=-0.0524797
							204:leaf=0.0931797
						104:[CAT_REL<0.480924] yes=205,no=206,missing=206
							205:leaf=-0.0186932
							206:leaf=-0.00478916
					52:[D_CATEGORY_MACRO_MAX_COEC<0.0553504] yes=105,no=106,missing=105
						105:[KW_REL<0.00739503] yes=207,no=208,missing=208
							207:leaf=0.0054908
							208:leaf=0.0357388
						106:[C_D_U_CATEGORY_CITY_MICRO_MEAN_COEC<0.0764322] yes=209,no=210,missing=210
							209:leaf=-0.0122682
							210:leaf=-0.000894746
				26:[IMAGE_COUNT<2] yes=53,no=54,missing=54
					53:[CAT_REL<0.302215] yes=107,no=108,missing=108
						107:[D_CATEGORY_MICRO_MEAN_COEC<0.0641719] yes=211,no=212,missing=211
							211:leaf=0.0120289
							212:leaf=-0.00675343
						108:[KW_REL<0.00739503] yes=213,no=214,missing=214
							213:leaf=0.00249466
							214:leaf=0.0151781
					54:[D_CATEGORY_MACRO_MEAN_COEC<0.0940906] yes=109,no=110,missing=109
						109:[C_D_U_CATEGORY_CITY_MICRO_MEAN_COEC<0.104344] yes=215,no=216,missing=215
							215:leaf=0.0210285
							216:leaf=0.0626071
						110:[CAT_REL<0.562942] yes=217,no=218,missing=218
							217:leaf=-0.0222152
							218:leaf=0.0381104
		6:[U_CAT_LEN<17] yes=13,no=14,missing=14
			13:[CAT_REL<0.275241] yes=27,no=28,missing=28
				27:[C_D_U_TITLEMD5_AGE_COEC<0.0448747] yes=55,no=56,missing=55
					55:[CAT_REL<0.097395] yes=111,no=112,missing=112
						111:[C_D_U_CATEGORY_GENDER_MICRO_MEAN_COEC<0.0908953] yes=219,no=220,missing=220
							219:leaf=-0.0643714
							220:leaf=0.0062541
						112:[D_KEYWORD_MICRO_MEAN_COEC<0.104279] yes=221,no=222,missing=222
							221:leaf=-0.0346836
							222:leaf=0.00440658
					56:[D_CATEGORY_MACRO_MAX_COEC<0.0644581] yes=113,no=114,missing=113
						113:[U_CAT_LEN<8] yes=223,no=224,missing=224
							223:leaf=-0.00895869
							224:leaf=0.0151253
						114:[WORD_COUNT<1248] yes=225,no=226,missing=226
							225:leaf=-0.0114961
							226:leaf=0.000192511
				28:[WORD_COUNT<1359] yes=57,no=58,missing=58
					57:[D_KEYWORD_MACRO_MEAN_COEC<0.059788] yes=115,no=116,missing=116
						115:[KW_REL<0.0087433] yes=227,no=228,missing=228
							227:leaf=-0.0401409
							228:leaf=-0.00090243
						116:[C_D_U_TITLEMD5_CATEGORY_MACRO_MAX_COEC<0.0723081] yes=229,no=230,missing=230
							229:leaf=-0.00232276
							230:leaf=0.00691233
					58:[C_D_U_PUBLISHER_GENDER_COEC<0.081776] yes=117,no=118,missing=117
						117:[D_KEYWORD_MACRO_MEAN_COEC<0.0514207] yes=231,no=232,missing=232
							231:leaf=-0.0282735
							232:leaf=0.00662679
						118:[D_KEYWORD_MICRO_MAX_COEC<0.216165] yes=233,no=234,missing=234
							233:leaf=0.0153998
							234:leaf=0.0417111
			14:[CAT_REL<0.206144] yes=29,no=30,missing=30
				29:[C_D_U_PUBLISHER_GENDER_COEC<0.0712662] yes=59,no=60,missing=59
					59:[CAT_REL<0.037248] yes=119,no=120,missing=120
						119:[D_KEYWORD_MICRO_MEAN_COEC<0.0744282] yes=235,no=236,missing=236
							235:leaf=-0.0680605
							236:leaf=-0.0185098
						120:[C_D_U_TITLEMD5_GENDER_COEC<0.231793] yes=237,no=238,missing=238
							237:leaf=0.00204691
							238:leaf=-0.0497359
					60:[D_CATEGORY_MACRO_MAX_COEC<0.0637958] yes=121,no=122,missing=121
						121:[D_KEYWORD_MICRO_MAX_COEC<0.0937141] yes=239,no=240,missing=240
							239:leaf=-0.0114181
							240:leaf=0.0314209
						122:[CAT_REL<0.019433] yes=241,no=242,missing=242
							241:leaf=-0.0175924
							242:leaf=0.0120347
				30:[D_CATEGORY_MACRO_MEAN_COEC<0.0860134] yes=61,no=62,missing=62
					61:[D_PUBLISHER_COEC<0.0437603] yes=123,no=124,missing=124
						123:[KW_REL<0.00156001] yes=243,no=244,missing=244
							243:leaf=-0.0696409
							244:leaf=-0.00513567
						124:[C_D_U_TITLEMD5_CATEGORY_MACRO_MEAN_COEC<0.0989438] yes=245,no=246,missing=246
							245:leaf=0.0216571
							246:leaf=0.0334862
					62:[C_D_U_TITLEMD5_CATEGORY_MACRO_MAX_COEC<0.0660957] yes=125,no=126,missing=126
						125:[TIME_OF_DAY<14] yes=247,no=248,missing=248
							247:leaf=0.00539299
							248:leaf=0.0193716
						126:[D_PUBLISHER_COEC<0.0720615] yes=249,no=250,missing=250
							249:leaf=0.00216572
							250:leaf=0.0277402
booster[26]:
0:[U_KW_LEN<200] yes=1,no=2,missing=1
	1:[C_D_U_TITLEMD5_GENDER_COEC<0.0715824] yes=3,no=4,missing=4
		3:[C_D_U_CATEGORY_CITY_MACRO_MEAN_COEC<0.112655] yes=7,no=8,missing=7
			7:[C_D_U_TITLEMD5_CATEGORY_MACRO_MEAN_COEC<0.0442801] yes=15,no=16,missing=16
				15:[KW_REL<0.000457252] yes=31,no=32,missing=32
					31:[D_KEYWORD_MICRO_MAX_COEC<0.139856] yes=63,no=64,missing=64
						63:[D_KEYWORD_MICRO_MEAN_COEC<0.116639] yes=127,no=128,missing=128
							127:leaf=-0.0227617
							128:leaf=0.0994627
						64:[C_D_U_PUBLISHER_CITY_COEC<0.0593393] yes=129,no=130,missing=130
							129:leaf=-0.0955013
							130:leaf=-0.0382652
					32:[C_D_U_PUBLISHER_CITY_COEC<0.0628367] yes=65,no=66,missing=65
						65:[D_CATEGORY_MACRO_MAX_COEC<0.0384103] yes=131,no=132,missing=131
							131:leaf=0.00513527
							132:leaf=-0.0238581
						66:[D_PUBLISHER_COEC<0.0581544] yes=133,no=134,missing=134
							133:leaf=0.0488416
							134:leaf=-0.00578452
				16:[C_D_U_TITLEMD5_GENDER_COEC<0.0223479] yes=33,no=34,missing=34
					33:[C_D_U_PUBLISHER_GENDER_COEC<0.104173] yes=67,no=68,missing=68
						67:[C_D_U_CATEGORY_GENDER_MICRO_MAX_COEC<0.0939196] yes=135,no=136,missing=136
							135:leaf=-0.0238168
							136:leaf=0.0141333
						68:[C_D_U_CATEGORY_GENDER_MACRO_MAX_COEC<0.0665686] yes=137,no=138,missing=138
							137:leaf=-0.00973306
							138:leaf=0.0514545
					34:[C_D_U_CATEGORY_CITY_MICRO_MEAN_COEC<0.10314] yes=69,no=70,missing=70
						69:[D_PUBLISHER_COEC<0.114417] yes=139,no=140,missing=140
							139:leaf=-0.0036041
							140:leaf=-0.0305499
						70:[TIME_OF_DAY<3] yes=141,no=142,missing=142
							141:leaf=-0.130054
							142:leaf=-0.0270105
			8:[DAY_OF_WEEK<6] yes=17,no=18,missing=18
				17:[KW_REL<0.000658323] yes=35,no=36,missing=36
					35:[DAY_OF_WEEK<4] yes=71,no=72,missing=72
						71:[CAT_REL<0.562043] yes=143,no=144,missing=144
							143:leaf=0.00546587
							144:leaf=-0.11
						72:[C_D_U_TITLEMD5_CATEGORY_MACRO_MAX_COEC<0.0353287] yes=145,no=146,missing=145
							145:leaf=0.0175197
							146:leaf=0.0982806
					36:[C_D_U_TITLEMD5_CATEGORY_MICRO_MAX_COEC<0.0289654] yes=73,no=74,missing=74
						73:[CAT_REL<0.212208] yes=147,no=148,missing=148
							147:leaf=-0.0743607
							148:leaf=0.142627
						74:[C_D_U_CATEGORY_GENDER_MACRO_MAX_COEC<0.118195] yes=149,no=150,missing=150
							149:leaf=0.0243794
							150:leaf=0.118108
				18:[C_D_U_TITLEMD5_GENDER_COEC<0.0581938] yes=37,no=38,missing=38
					37:[TIME_OF_DAY<8] yes=75,no=76,missing=76
						75:[D_PUBLISHER_COEC<0.0609955] yes=151,no=152,missing=152
							151:leaf=-0.0617848
							152:leaf=0.110883
						76:[D_PUBLISHER_COEC<0.0581544] yes=153,no=154,missing=154
							153:leaf=0.0355988
							154:leaf=-0.0920795
					38:[CAT_REL<0.343054] yes=77,no=78,missing=78
						77:leaf=-0.163886
						78:[WORD_COUNT<3181] yes=155,no=156,missing=156
							155:leaf=-0.0975871
							156:leaf=0.173002
		4:[IMAGE_COUNT<0.999999] yes=9,no=10,missing=10
			9:[C_D_U_TITLEMD5_CATEGORY_MICRO_MAX_COEC<0.209701] yes=19,no=20,missing=20
				19:[C_D_U_TITLEMD5_CATEGORY_MICRO_MAX_COEC<0.0972667] yes=39,no=40,missing=40
					39:[U_CAT_LEN<8] yes=79,no=80,missing=80
						79:[C_D_U_TITLEMD5_GENDER_COEC<0.0738549] yes=157,no=158,missing=158
							157:leaf=0.0385235
							158:leaf=-0.100519
						80:[D_KEYWORD_MICRO_MAX_COEC<0.0879259] yes=159,no=160,missing=160
							159:leaf=0.191382
							160:leaf=-0.0937687
					40:[KW_REL<0.0012695] yes=81,no=82,missing=82
						81:[D_KEYWORD_MACRO_MAX_COEC<0.0255723] yes=161,no=162,missing=162
							161:leaf=-0.108062
							162:leaf=-0.0349042
						82:[C_D_U_TITLEMD5_CATEGORY_MICRO_MEAN_COEC<0.102198] yes=163,no=164,missing=164
							163:leaf=0.0621919
							164:leaf=-0.0342756
				20:[WORD_COUNT<5034] yes=41,no=42,missing=42
					41:[D_KEYWORD_MACRO_MAX_COEC<0.00747876] yes=83,no=84,missing=84
						83:[D_CAT_LEN<2] yes=165,no=166,missing=166
							165:leaf=-0.128345
							166:leaf=0.23308
						84:[U_KW_LEN<119] yes=167,no=168,missing=168
							167:leaf=-0.114768
							168:leaf=-0.221742
					42:[C_D_U_PUBLISHER_CITY_COEC<0.0555386] yes=85,no=86,missing=85
						85:leaf=0.00594022
						86:[C_D_U_PUBLISHER_CITY_COEC<0.0628367] yes=169,no=170,missing=170
							169:leaf=0.177531
							170:leaf=0.0901993
			10:[U_AGE_2<0.999999] yes=21,no=22,missing=22
				21:[C_D_U_CATEGORY_CITY_MACRO_MAX_COEC<0.101373] yes=43,no=44,missing=43
					43:[CAT_REL<0.499999] yes=87,no=88,missing=88
						87:[DAY_OF_WEEK<5] yes=171,no=172,missing=172
							171:leaf=-0.00658455
							172:leaf=0.0020381
						88:[U_KW_LEN<9] yes=173,no=174,missing=174
							173:leaf=-0.0529332
							174:leaf=0.0100447
					44:[WORD_COUNT<4328] yes=89,no=90,missing=90
						89:[D_CATEGORY_MICRO_MAX_COEC<0.103981] yes=175,no=176,missing=176
							175:leaf=0.0122565
							176:leaf=-0.00152973
						90:[D_CATEGORY_MICRO_MAX_COEC<0.0982084] yes=177,no=178,missing=178
							177:leaf=-0.00502499
							178:leaf=0.039362
				22:[D_KEYWORD_MICRO_MAX_COEC<0.20607] yes=45,no=46,missing=46
					45:[TIME_OF_DAY<17] yes=91,no=92,missing=92
						91:[TIME_OF_DAY<13] yes=179,no=180,missing=180
							179:leaf=0.00607541
							180:leaf=-0.00296342
						92:[WORD_COUNT<3737] yes=181,no=182,missing=182
							181:leaf=0.0110874
							182:leaf=0.0266731
					46:[D_PUBLISHER_COEC<0.0368499] yes=93,no=94,missing=93
						93:leaf=-0.163833
						94:[C_D_U_TITLEMD5_CATEGORY_MACRO_MEAN_COEC<0.234309] yes=183,no=184,missing=184
							183:leaf=0.0169117
							184:leaf=0.0301616
	2:[C_D_U_PUBLISHER_GENDER_COEC<0.0815496] yes=5,no=6,missing=6
		5:[CAT_REL<0.091017] yes=11,no=12,missing=12
			11:[D_KEYWORD_MICRO_MEAN_COEC<0.075651] yes=23,no=24,missing=24
				23:[KW_REL<0.00292906] yes=47,no=48,missing=48
					47:[C_D_U_CATEGORY_GENDER_MICRO_MAX_COEC<0.058896] yes=95,no=96,missing=95
						95:[D_PUBLISHER_COEC<0.0291385] yes=185,no=186,missing=186
							185:leaf=-0.0506932
							186:leaf=-0.0119962
						96:[D_CATEGORY_MICRO_MEAN_COEC<0.0747413] yes=187,no=188,missing=188
							187:leaf=-0.0415649
							188:leaf=-0.0228347
					48:[C_D_U_PUBLISHER_GENDER_COEC<0.0623287] yes=97,no=98,missing=98
						97:[C_D_U_TITLEMD5_CATEGORY_MACRO_MAX_COEC<0.0530672] yes=189,no=190,missing=190
							189:leaf=-0.024237
							190:leaf=-0.0579369
						98:[C_D_U_TITLEMD5_CATEGORY_MICRO_MAX_COEC<0.110603] yes=191,no=192,missing=192
							191:leaf=-0.0237128
							192:leaf=-0.00161341
				24:[KW_REL<0.000410886] yes=49,no=50,missing=50
					49:[C_D_U_CATEGORY_AGE_MACRO_MEAN_COEC<0.0994445] yes=99,no=100,missing=100
						99:[D_CATEGORY_MACRO_MEAN_COEC<0.100934] yes=193,no=194,missing=194
							193:leaf=-0.0264095
							194:leaf=0.0859461
						100:[C_D_U_CATEGORY_GENDER_MICRO_MEAN_COEC<0.104242] yes=195,no=196,missing=195
							195:leaf=-0.0717041
							196:leaf=-0.00619395
					50:[D_CATEGORY_MICRO_MEAN_COEC<0.0859327] yes=101,no=102,missing=102
						101:[D_CATEGORY_MICRO_MEAN_COEC<0.0641424] yes=197,no=198,missing=198
							197:leaf=0.00863315
							198:leaf=-0.0169614
						102:[KW_REL<0.00203197] yes=199,no=200,missing=200
							199:leaf=-0.000489333
							200:leaf=0.035818
			12:[C_D_U_TITLEMD5_GENDER_COEC<0.0233115] yes=25,no=26,missing=26
				25:[C_D_U_CATEGORY_AGE_MICRO_MAX_COEC<0.0573329] yes=51,no=52,missing=52
					51:[TIME_OF_DAY<3] yes=103,no=104,missing=104
						103:[U_CAT_LEN<9] yes=201,no=202,missing=202
							201:leaf=-0.0863743
							202:leaf=0.135076
						104:[KW_REL<0.00250157] yes=203,no=204,missing=204
							203:leaf=-0.0068462
							204:leaf=0.0331788
					52:[KW_REL<0.00328746] yes=105,no=106,missing=106
						105:[IMAGE_COUNT<2] yes=205,no=206,missing=206
							205:leaf=-0.0299437
							206:leaf=0.0058121
						106:[C_D_U_CATEGORY_CITY_MACRO_MEAN_COEC<0.122252] yes=207,no=208,missing=208
							207:leaf=-0.0136326
							208:leaf=0.02781
				26:[KW_REL<0.00434131] yes=53,no=54,missing=54
					53:[D_PUBLISHER_COEC<0.0291385] yes=107,no=108,missing=108
						107:[C_D_U_TITLEMD5_CATEGORY_MACRO_MEAN_COEC<0.0730551] yes=209,no=210,missing=210
							209:leaf=-0.0466908
							210:leaf=-0.0850474
						108:[U_CAT_LEN<7] yes=211,no=212,missing=212
							211:leaf=-0.0190172
							212:leaf=-0.00325184
					54:[CAT_REL<0.358127] yes=109,no=110,missing=110
						109:[D_CATEGORY_MACRO_MAX_COEC<0.056018] yes=213,no=214,missing=214
							213:leaf=0.0262037
							214:leaf=-0.00123535
						110:[U_CAT_LEN<9] yes=215,no=216,missing=216
							215:leaf=0.0021096
							216:leaf=0.0156385
		6:[C_D_U_TITLEMD5_CATEGORY_MACRO_MEAN_COEC<0.166537] yes=13,no=14,missing=14
			13:[D_CATEGORY_MICRO_MEAN_COEC<0.0929806] yes=27,no=28,missing=27
				27:[CAT_REL<0.056094] yes=55,no=56,missing=56
					55:[D_CATEGORY_MICRO_MAX_COEC<0.0636289] yes=111,no=112,missing=111
						111:[D_KEYWORD_MACRO_MEAN_COEC<0.0689975] yes=217,no=218,missing=218
							217:leaf=-0.0101313
							218:leaf=0.018652
						112:[D_KEYWORD_MICRO_MEAN_COEC<0.0792752] yes=219,no=220,missing=220
							219:leaf=-0.0243233
							220:leaf=-0.00424647
					56:[U_CAT_LEN<9] yes=113,no=114,missing=114
						113:[C_D_U_TITLEMD5_AGE_COEC<0.0700527] yes=221,no=222,missing=221
							221:leaf=-0.0123836
							222:leaf=0.00185136
						114:[WORD_COUNT<763] yes=223,no=224,missing=224
							223:leaf=-0.00569139
							224:leaf=0.0127248
				28:[CAT_REL<0.477542] yes=57,no=58,missing=58
					57:[C_D_U_CATEGORY_AGE_MACRO_MAX_COEC<0.109478] yes=115,no=116,missing=116
						115:[CAT_REL<0.190339] yes=225,no=226,missing=226
							225:leaf=-0.0203323
							226:leaf=-0.00564831
						116:[CAT_REL<0.018878] yes=227,no=228,missing=228
							227:leaf=-0.0043359
							228:leaf=0.0309101
					58:[U_CAT_LEN<7] yes=117,no=118,missing=118
						117:[C_D_U_TITLEMD5_GENDER_COEC<0.151866] yes=229,no=230,missing=229
							229:leaf=-0.022109
							230:leaf=0.0217939
						118:[KW_REL<0.00669793] yes=231,no=232,missing=232
							231:leaf=0.00961405
							232:leaf=0.0463682
			14:[DAY_OF_WEEK<0.999999] yes=29,no=30,missing=30
				29:[U_CAT_LEN<10] yes=59,no=60,missing=60
					59:[U_CAT_LEN<7] yes=119,no=120,missing=120
						119:[D_CATEGORY_MACRO_MAX_COEC<0.0837762] yes=233,no=234,missing=234
							233:leaf=0.0133103
							234:leaf=-0.0112619
						120:[CAT_REL<0.632105] yes=235,no=236,missing=236
							235:leaf=0.0204084
							236:leaf=0.0521888
					60:[D_KEYWORD_MACRO_MEAN_COEC<0.0829418] yes=121,no=122,missing=122
						121:[D_CATEGORY_MACRO_MEAN_COEC<0.0617824] yes=237,no=238,missing=238
							237:leaf=0.112201
							238:leaf=-0.0235788
						122:[KW_REL<0.00380035] yes=239,no=240,missing=240
							239:leaf=0.038113
							240:leaf=0.0668304
				30:[D_PUBLISHER_COEC<0.134592] yes=61,no=62,missing=62
					61:[C_D_U_TITLEMD5_CATEGORY_MICRO_MAX_COEC<0.469682] yes=123,no=124,missing=124
						123:[U_CAT_LEN<10] yes=241,no=242,missing=242
							241:leaf=0.0118821
							242:leaf=0.0272312
						124:[KW_REL<0.00669793] yes=243,no=244,missing=244
							243:leaf=-0.028081
							244:leaf=0.01173
					62:[C_D_U_TITLEMD5_CATEGORY_MICRO_MEAN_COEC<0.245176] yes=125,no=126,missing=126
						125:[TIME_OF_DAY<11] yes=245,no=246,missing=246
							245:leaf=-0.0123043
							246:leaf=0.00431105
						126:[WORD_COUNT<1920] yes=247,no=248,missing=248
							247:leaf=0.0208037
							248:leaf=0.0444888
booster[27]:
0:[U_KW_LEN<200] yes=1,no=2,missing=1
	1:[C_D_U_TITLEMD5_CATEGORY_MACRO_MEAN_COEC<0.0813543] yes=3,no=4,missing=4
		3:[CAT_REL<0.22292] yes=7,no=8,missing=8
			7:[U_CAT_LEN<6] yes=15,no=16,missing=16
				15:[C_D_U_CATEGORY_GENDER_MACRO_MAX_COEC<0.0720505] yes=31,no=32,missing=32
					31:[D_CATEGORY_MICRO_MAX_COEC<0.0673021] yes=63,no=64,missing=64
						63:[WORD_COUNT<2481] yes=127,no=128,missing=128
							127:leaf=-0.0264342
							128:leaf=-0.00844302
						64:[U_KW_LEN<14] yes=129,no=130,missing=130
							129:leaf=0.0572111
							130:leaf=-0.0392986
					32:[U_KW_LEN<3] yes=65,no=66,missing=66
						65:[DAY_OF_WEEK<5] yes=131,no=132,missing=132
							131:leaf=-0.0339745
							132:leaf=0.134366
						66:[D_PUBLISHER_COEC<0.0470816] yes=133,no=134,missing=133
							133:leaf=-0.0460446
							134:leaf=-0.00908893
				16:[C_D_U_CATEGORY_CITY_MICRO_MAX_COEC<0.0415666] yes=33,no=34,missing=34
					33:[DAY_OF_WEEK<0.999999] yes=67,no=68,missing=68
						67:[U_CAT_LEN<10] yes=135,no=136,missing=136
							135:leaf=-0.105675
							136:leaf=0.173803
						68:[D_CATEGORY_MACRO_MAX_COEC<0.0757678] yes=137,no=138,missing=138
							137:leaf=-0.0361134
							138:leaf=0.0478417
					34:[C_D_U_PUBLISHER_CITY_COEC<0.0756335] yes=69,no=70,missing=70
						69:[DAY_OF_WEEK<3] yes=139,no=140,missing=140
							139:leaf=-0.0238538
							140:leaf=0.000805726
						70:[C_D_U_CATEGORY_CITY_MACRO_MAX_COEC<0.0522789] yes=141,no=142,missing=141
							141:leaf=0.0432572
							142:leaf=0.00431725
			8:[U_KW_LEN<41] yes=17,no=18,missing=18
				17:[D_KEYWORD_MACRO_MEAN_COEC<0.10026] yes=35,no=36,missing=36
					35:[TIME_OF_DAY<18] yes=71,no=72,missing=72
						71:[D_PUBLISHER_COEC<0.101997] yes=143,no=144,missing=143
							143:leaf=-0.0224699
							144:leaf=0.0217036
						72:[D_KEYWORD_MICRO_MEAN_COEC<0.0754866] yes=145,no=146,missing=146
							145:leaf=0.0455067
							146:leaf=-0.0477475
					36:[D_CATEGORY_MACRO_MEAN_COEC<0.0795358] yes=73,no=74,missing=74
						73:[C_D_U_TITLEMD5_CATEGORY_MACRO_MAX_COEC<0.0702947] yes=147,no=148,missing=148
							147:leaf=-0.164099
							148:leaf=0.0918562
						74:[KW_REL<4.06274e-06] yes=149,no=150,missing=150
							149:leaf=0.130816
							150:leaf=0.0314744
				18:[CAT_REL<0.629286] yes=37,no=38,missing=38
					37:[C_D_U_CATEGORY_GENDER_MICRO_MAX_COEC<0.0920569] yes=75,no=76,missing=76
						75:[U_KW_LEN<98] yes=151,no=152,missing=152
							151:leaf=-0.0155792
							152:leaf=-0.00138174
						76:[U_CAT_LEN<3] yes=153,no=154,missing=154
							153:leaf=0.0923108
							154:leaf=-0.000136981
					38:[WORD_COUNT<3009] yes=77,no=78,missing=78
						77:[U_GENDER<2] yes=155,no=156,missing=156
							155:leaf=-0.0106569
							156:leaf=0.0191156
						78:[C_D_U_CATEGORY_CITY_MICRO_MAX_COEC<0.107531] yes=157,no=158,missing=158
							157:leaf=0.0340731
							158:leaf=0.11649
		4:[C_D_U_CATEGORY_CITY_MACRO_MEAN_COEC<0.0605586] yes=9,no=10,missing=10
			9:[C_D_U_PUBLISHER_CITY_COEC<0.104221] yes=19,no=20,missing=19
				19:[CAT_REL<0.192876] yes=39,no=40,missing=40
					39:[C_D_U_CATEGORY_CITY_MICRO_MAX_COEC<0.0619675] yes=79,no=80,missing=80
						79:[C_D_U_PUBLISHER_GENDER_COEC<0.0456772] yes=159,no=160,missing=159
							159:leaf=-0.0379474
							160:leaf=-0.0122021
						80:[D_KEYWORD_MICRO_MEAN_COEC<0.074854] yes=161,no=162,missing=162
							161:leaf=-0.063547
							162:leaf=0.0193344
					40:[D_CATEGORY_MACRO_MAX_COEC<0.0629749] yes=81,no=82,missing=82
						81:[U_KW_LEN<62] yes=163,no=164,missing=164
							163:leaf=-0.00513704
							164:leaf=0.0342181
						82:[D_PUBLISHER_COEC<0.0933634] yes=165,no=166,missing=166
							165:leaf=-0.020123
							166:leaf=0.0103856
				20:[C_D_U_CATEGORY_GENDER_MACRO_MEAN_COEC<0.0497396] yes=41,no=42,missing=42
					41:[D_KEYWORD_MICRO_MEAN_COEC<0.108892] yes=83,no=84,missing=84
						83:[C_D_U_TITLEMD5_CATEGORY_MICRO_MEAN_COEC<0.164577] yes=167,no=168,missing=167
							167:leaf=-0.0154655
							168:leaf=0.0390197
						84:[U_CAT_LEN<6] yes=169,no=170,missing=170
							169:leaf=-0.0660445
							170:leaf=0.047264
					42:[D_CATEGORY_MICRO_MAX_COEC<0.063873] yes=85,no=86,missing=86
						85:[D_KEYWORD_MICRO_MEAN_COEC<0.0657739] yes=171,no=172,missing=172
							171:leaf=-0.050599
							172:leaf=0.0456391
						86:[C_D_U_CATEGORY_CITY_MACRO_MAX_COEC<0.034558] yes=173,no=174,missing=174
							173:leaf=-0.0244902
							174:leaf=0.011645
			10:[IMAGE_COUNT<0.999999] yes=21,no=22,missing=22
				21:[D_TITLEMD5_COEC<0.212081] yes=43,no=44,missing=44
					43:[C_D_U_CATEGORY_CITY_MICRO_MEAN_COEC<0.0614358] yes=87,no=88,missing=88
						87:[C_D_U_PUBLISHER_GENDER_COEC<0.0639725] yes=175,no=176,missing=176
							175:leaf=0.182768
							176:leaf=-0.0830534
						88:[U_KW_LEN<52] yes=177,no=178,missing=178
							177:leaf=-0.0917283
							178:leaf=-0.0410254
					44:[D_KEYWORD_MICRO_MEAN_COEC<0.126034] yes=89,no=90,missing=90
						89:[C_D_U_TITLEMD5_GENDER_COEC<0.121442] yes=179,no=180,missing=179
							179:leaf=-0.157836
							180:leaf=-0.216237
						90:[TIME_OF_DAY<4] yes=181,no=182,missing=182
							181:leaf=0.130607
							182:leaf=-0.0804962
				22:[U_KW_LEN<130] yes=45,no=46,missing=46
					45:[C_D_U_PUBLISHER_CITY_COEC<0.152331] yes=91,no=92,missing=92
						91:[U_GENDER<2] yes=183,no=184,missing=183
							183:leaf=-7.42126e-05
							184:leaf=0.0103235
						92:[TIME_OF_DAY<16] yes=185,no=186,missing=186
							185:leaf=0.0108902
							186:leaf=0.0250837
					46:[CAT_REL<0.51282] yes=93,no=94,missing=94
						93:[CAT_REL<0.063078] yes=187,no=188,missing=188
							187:leaf=-0.00146247
							188:leaf=0.0100539
						94:[C_D_U_TITLEMD5_CATEGORY_MACRO_MAX_COEC<0.0702947] yes=189,no=190,missing=190
							189:leaf=0.00754903
							190:leaf=0.0271173
	2:[C_D_U_TITLEMD5_CATEGORY_MACRO_MEAN_COEC<0.114688] yes=5,no=6,missing=6
		5:[C_D_U_CATEGORY_CITY_MACRO_MAX_COEC<0.123392] yes=11,no=12,missing=12
			11:[CAT_REL<0.028593] yes=23,no=24,missing=24
				23:[D_KEYWORD_MICRO_MEAN_COEC<0.0892772] yes=47,no=48,missing=48
					47:[CAT_REL<0.009853] yes=95,no=96,missing=96
						95:[C_D_U_TITLEMD5_AGE_COEC<0.0242537] yes=191,no=192,missing=192
							191:leaf=-0.0578319
							192:leaf=-0.0324453
						96:[C_D_U_CATEGORY_GENDER_MACRO_MAX_COEC<0.0981632] yes=193,no=194,missing=194
							193:leaf=-0.0223546
							194:leaf=0.0236373
					48:[WORD_COUNT<949] yes=97,no=98,missing=98
						97:[C_D_U_PUBLISHER_CITY_COEC<0.100875] yes=195,no=196,missing=196
							195:leaf=-0.0358851
							196:leaf=-0.0716705
						98:[D_CATEGORY_MICRO_MAX_COEC<0.0626602] yes=197,no=198,missing=198
							197:leaf=0.0210296
							198:leaf=-0.00773719
				24:[WORD_COUNT<2921] yes=49,no=50,missing=50
					49:[KW_REL<0.0055783] yes=99,no=100,missing=100
						99:[C_D_U_PUBLISHER_CITY_COEC<0.0836393] yes=199,no=200,missing=199
							199:leaf=-0.0120757
							200:leaf=-0.0032761
						100:[D_CATEGORY_MACRO_MAX_COEC<0.057912] yes=201,no=202,missing=202
							201:leaf=0.0303955
							202:leaf=-2.57677e-05
					50:[C_D_U_TITLEMD5_CATEGORY_MACRO_MEAN_COEC<0.0413881] yes=101,no=102,missing=102
						101:[C_D_U_CATEGORY_AGE_MICRO_MEAN_COEC<0.0673858] yes=203,no=204,missing=204
							203:leaf=0.00449506
							204:leaf=-0.0176242
						102:[U_CAT_LEN<8] yes=205,no=206,missing=206
							205:leaf=-0.00836978
							206:leaf=0.00748193
			12:[U_CAT_LEN<13] yes=25,no=26,missing=26
				25:[KW_REL<0.00720835] yes=51,no=52,missing=52
					51:[D_TITLEMD5_COEC<0.124725] yes=103,no=104,missing=103
						103:[C_D_U_TITLEMD5_CATEGORY_MACRO_MEAN_COEC<0.0817187] yes=207,no=208,missing=208
							207:leaf=0.00148438
							208:leaf=0.0204874
						104:[C_D_U_CATEGORY_AGE_MACRO_MEAN_COEC<0.0956381] yes=209,no=210,missing=210
							209:leaf=-0.04793
							210:leaf=-0.00276504
					52:[C_D_U_CATEGORY_CITY_MICRO_MEAN_COEC<0.178748] yes=105,no=106,missing=105
						105:[C_D_U_PUBLISHER_CITY_COEC<0.0925141] yes=211,no=212,missing=211
							211:leaf=0.0131902
							212:leaf=0.0409791
						106:[C_D_U_CATEGORY_GENDER_MICRO_MAX_COEC<0.0999507] yes=213,no=214,missing=214
							213:leaf=0.0556988
							214:leaf=-0.0672863
				26:[C_D_U_CATEGORY_CITY_MACRO_MAX_COEC<0.204225] yes=53,no=54,missing=54
					53:[TIME_OF_DAY<8] yes=107,no=108,missing=108
						107:[D_KEYWORD_MACRO_MAX_COEC<0.0221291] yes=215,no=216,missing=216
							215:leaf=0.020536
							216:leaf=-0.0103115
						108:[CAT_REL<0.657531] yes=217,no=218,missing=218
							217:leaf=0.027853
							218:leaf=0.0646641
					54:[D_CATEGORY_MICRO_MEAN_COEC<0.0933001] yes=109,no=110,missing=109
						109:[CAT_REL<0.274874] yes=219,no=220,missing=220
							219:leaf=0.040707
							220:leaf=0.0700659
						110:[DAY_OF_WEEK<2] yes=221,no=222,missing=222
							221:leaf=-0.024962
							222:leaf=0.0395966
		6:[U_CAT_LEN<10] yes=13,no=14,missing=14
			13:[U_CAT_LEN<7] yes=27,no=28,missing=28
				27:[CAT_REL<0.667531] yes=55,no=56,missing=56
					55:[D_KEYWORD_MACRO_MEAN_COEC<0.0690148] yes=111,no=112,missing=112
						111:[C_D_U_TITLEMD5_CATEGORY_MICRO_MAX_COEC<0.309932] yes=223,no=224,missing=224
							223:leaf=-0.0214162
							224:leaf=-0.0573864
						112:[WORD_COUNT<1451] yes=225,no=226,missing=226
							225:leaf=-0.0132435
							226:leaf=-0.00146034
					56:[C_D_U_CATEGORY_AGE_MACRO_MEAN_COEC<0.0917947] yes=113,no=114,missing=114
						113:[C_D_U_CATEGORY_CITY_MACRO_MAX_COEC<0.053594] yes=227,no=228,missing=228
							227:leaf=-0.0478206
							228:leaf=0.0202936
						114:[U_CAT_LEN<5] yes=229,no=230,missing=230
							229:leaf=-0.0367372
							230:leaf=0.00794333
				28:[CAT_REL<0.526766] yes=57,no=58,missing=58
					57:[C_D_U_TITLEMD5_AGE_COEC<0.0773048] yes=115,no=116,missing=115
						115:[C_D_U_CATEGORY_AGE_MICRO_MEAN_COEC<0.0824535] yes=231,no=232,missing=231
							231:leaf=-0.022552
							232:leaf=-0.0463023
						116:[WORD_COUNT<1213] yes=233,no=234,missing=234
							233:leaf=-0.00479172
							234:leaf=0.00587701
					58:[C_D_U_PUBLISHER_GENDER_COEC<0.0564728] yes=117,no=118,missing=117
						117:[C_D_U_TITLEMD5_GENDER_COEC<0.272805] yes=235,no=236,missing=236
							235:leaf=-0.00284055
							236:leaf=-0.0546896
						118:[WORD_COUNT<1508] yes=237,no=238,missing=238
							237:leaf=0.011627
							238:leaf=0.0237893
			14:[D_PUBLISHER_COEC<0.0542655] yes=29,no=30,missing=30
				29:[CAT_REL<0.111021] yes=59,no=60,missing=60
					59:[C_D_U_TITLEMD5_AGE_COEC<0.118977] yes=119,no=120,missing=120
						119:[C_D_U_CATEGORY_GENDER_MICRO_MEAN_COEC<0.0365111] yes=239,no=240,missing=240
							239:leaf=0.078927
							240:leaf=-0.0339452
						120:[C_D_U_TITLEMD5_AGE_COEC<0.149892] yes=241,no=242,missing=241
							241:leaf=-0.111964
							242:leaf=-0.057713
					60:[C_D_U_CATEGORY_GENDER_MICRO_MEAN_COEC<0.0595476] yes=121,no=122,missing=122
						121:[D_KEYWORD_MACRO_MEAN_COEC<0.0862284] yes=243,no=244,missing=244
							243:leaf=0.0249388
							244:leaf=-0.191326
						122:[D_KEYWORD_MICRO_MAX_COEC<0.10323] yes=245,no=246,missing=246
							245:leaf=-0.0330743
							246:leaf=-0.00775918
				30:[KW_REL<0.0038705] yes=61,no=62,missing=62
					61:[D_KEYWORD_MACRO_MEAN_COEC<0.0744369] yes=123,no=124,missing=124
						123:[C_D_U_TITLEMD5_GENDER_COEC<0.192396] yes=247,no=248,missing=247
							247:leaf=-0.00143781
							248:leaf=-0.0373661
						124:[C_D_U_TITLEMD5_CATEGORY_MACRO_MEAN_COEC<0.183722] yes=249,no=250,missing=250
							249:leaf=0.00760534
							250:leaf=0.02216
					62:[WORD_COUNT<2367] yes=125,no=126,missing=126
						125:[DAY_OF_WEEK<6] yes=251,no=252,missing=252
							251:leaf=0.0182491
							252:leaf=-0.00264959
						126:[C_D_U_TITLEMD5_CATEGORY_MICRO_MAX_COEC<0.265187] yes=253,no=254,missing=254
							253:leaf=0.0376729
							254:leaf=0.00723549
booster[28]:
0:[U_KW_LEN<200] yes=1,no=2,missing=1
	1:[C_D_U_TITLEMD5_CATEGORY_MACRO_MEAN_COEC<0.0792964] yes=3,no=4,missing=4
		3:[U_KW_LEN<123] yes=7,no=8,missing=8
			7:[CAT_REL<0.328939] yes=15,no=16,missing=16
				15:[C_D_U_CATEGORY_CITY_MACRO_MAX_COEC<0.101832] yes=31,no=32,missing=31
					31:[U_AGE_1<0.999999] yes=63,no=64,missing=64
						63:[C_D_U_TITLEMD5_CATEGORY_MICRO_MEAN_COEC<0.022042] yes=127,no=128,missing=128
							127:leaf=-0.0260269
							128:leaf=-0.0128887
						64:[C_D_U_CATEGORY_GENDER_MICRO_MEAN_COEC<0.0886113] yes=129,no=130,missing=129
							129:leaf=-0.0481642
							130:leaf=0.0042575
					32:[U_KW_LEN<105] yes=65,no=66,missing=66
						65:[TIME_OF_DAY<12] yes=131,no=132,missing=132
							131:leaf=-0.0130201
							132:leaf=0.0404119
						66:[D_CATEGORY_MACRO_MAX_COEC<0.0622663] yes=133,no=134,missing=134
							133:leaf=0.0874557
							134:leaf=-0.0859615
				16:[D_KEYWORD_MICRO_MEAN_COEC<0.111025] yes=33,no=34,missing=34
					33:[C_D_U_PUBLISHER_GENDER_COEC<0.073918] yes=67,no=68,missing=67
						67:[D_KEYWORD_MICRO_MAX_COEC<0.134991] yes=135,no=136,missing=136
							135:leaf=-0.00851717
							136:leaf=-0.038669
						68:[DAY_OF_WEEK<4] yes=137,no=138,missing=138
							137:leaf=0.0122755
							138:leaf=-0.0086868
					34:[C_D_U_CATEGORY_GENDER_MICRO_MEAN_COEC<0.0886113] yes=69,no=70,missing=70
						69:[TIME_OF_DAY<11] yes=139,no=140,missing=140
							139:leaf=0.0373602
							140:leaf=-0.0702228
						70:[D_CATEGORY_MICRO_MAX_COEC<0.0980219] yes=141,no=142,missing=142
							141:leaf=0.105889
							142:leaf=-0.00853059
			8:[WORD_COUNT<1274] yes=17,no=18,missing=18
				17:[CAT_REL<0.999999] yes=35,no=36,missing=36
					35:[TIME_OF_DAY<9] yes=71,no=72,missing=72
						71:[IMAGE_COUNT<4] yes=143,no=144,missing=144
							143:leaf=-0.00647033
							144:leaf=0.130089
						72:[D_KEYWORD_MACRO_MEAN_COEC<0.0517337] yes=145,no=146,missing=146
							145:leaf=-0.0660601
							146:leaf=-0.0234347
					36:[C_D_U_PUBLISHER_CITY_COEC<0.0748062] yes=73,no=74,missing=74
						73:leaf=0.124377
						74:[D_KEYWORD_MACRO_MEAN_COEC<0.0618454] yes=147,no=148,missing=148
							147:leaf=0.288667
							148:leaf=0.196347
				18:[C_D_U_PUBLISHER_CITY_COEC<0.0624648] yes=37,no=38,missing=37
					37:[DAY_OF_WEEK<3] yes=75,no=76,missing=76
						75:[TIME_OF_DAY<19] yes=149,no=150,missing=150
							149:leaf=-0.0245348
							150:leaf=0.0379343
						76:[CAT_REL<0.590458] yes=151,no=152,missing=152
							151:leaf=-0.00419065
							152:leaf=0.035058
					38:[D_KEYWORD_MICRO_MAX_COEC<0.0989157] yes=77,no=78,missing=78
						77:[U_KW_LEN<194] yes=153,no=154,missing=154
							153:leaf=-0.00541164
							154:leaf=0.0331139
						78:[TIME_OF_DAY<20] yes=155,no=156,missing=156
							155:leaf=0.0110477
							156:leaf=0.0681192
		4:[KW_REL<0.000591709] yes=9,no=10,missing=10
			9:[C_D_U_CATEGORY_CITY_MACRO_MEAN_COEC<0.0606901] yes=19,no=20,missing=20
				19:[DAY_OF_WEEK<3] yes=39,no=40,missing=40
					39:[U_AGE_1<0.999999] yes=79,no=80,missing=80
						79:[WORD_COUNT<2313] yes=157,no=158,missing=158
							157:leaf=-0.0185226
							158:leaf=0.0086115
						80:[C_D_U_CATEGORY_GENDER_MACRO_MAX_COEC<0.0378112] yes=159,no=160,missing=160
							159:leaf=0.177343
							160:leaf=-0.0357153
					40:[C_D_U_TITLEMD5_GENDER_COEC<0.0243777] yes=81,no=82,missing=81
						81:[D_KEYWORD_MICRO_MAX_COEC<0.147772] yes=161,no=162,missing=162
							161:leaf=-0.0478024
							162:leaf=0.0229959
						82:[U_GENDER<2] yes=163,no=164,missing=163
							163:leaf=-0.0137975
							164:leaf=0.00921519
				20:[TIME_OF_DAY<17] yes=41,no=42,missing=42
					41:[TIME_OF_DAY<13] yes=83,no=84,missing=84
						83:[IMAGE_COUNT<2] yes=165,no=166,missing=166
							165:leaf=0.00116689
							166:leaf=0.0142136
						84:[DAY_OF_WEEK<5] yes=167,no=168,missing=168
							167:leaf=-0.00958088
							168:leaf=0.00428982
					42:[D_KEYWORD_MICRO_MEAN_COEC<0.0638002] yes=85,no=86,missing=86
						85:[WORD_COUNT<3076] yes=169,no=170,missing=170
							169:leaf=0.0163803
							170:leaf=0.0684637
						86:[TIME_OF_DAY<22] yes=171,no=172,missing=172
							171:leaf=0.00850306
							172:leaf=-0.0161034
			10:[D_KEYWORD_MICRO_MEAN_COEC<0.0857324] yes=21,no=22,missing=22
				21:[CAT_REL<0.058709] yes=43,no=44,missing=44
					43:[D_KEYWORD_MACRO_MEAN_COEC<0.0565995] yes=87,no=88,missing=88
						87:[C_D_U_CATEGORY_CITY_MICRO_MAX_COEC<0.0747567] yes=173,no=174,missing=174
							173:leaf=-0.0518047
							174:leaf=-0.145352
						88:[TIME_OF_DAY<5] yes=175,no=176,missing=176
							175:leaf=0.0114832
							176:leaf=-0.016358
					44:[D_CATEGORY_MICRO_MAX_COEC<0.0662777] yes=89,no=90,missing=90
						89:[U_KW_LEN<169] yes=177,no=178,missing=178
							177:leaf=0.0119727
							178:leaf=0.0402703
						90:[C_D_U_TITLEMD5_CATEGORY_MICRO_MAX_COEC<0.260986] yes=179,no=180,missing=180
							179:leaf=0.00288333
							180:leaf=-0.0226986
				22:[C_D_U_TITLEMD5_CATEGORY_MACRO_MEAN_COEC<0.234841] yes=45,no=46,missing=45
					45:[WORD_COUNT<1486] yes=91,no=92,missing=92
						91:[IMAGE_COUNT<0.999999] yes=181,no=182,missing=182
							181:leaf=-0.110735
							182:leaf=0.00442135
						92:[U_KW_LEN<51] yes=183,no=184,missing=184
							183:leaf=0.00315574
							184:leaf=0.0176881
					46:[IMAGE_COUNT<0.999999] yes=93,no=94,missing=94
						93:leaf=-0.192686
						94:[C_D_U_CATEGORY_GENDER_MICRO_MAX_COEC<0.102614] yes=185,no=186,missing=186
							185:leaf=0.0346514
							186:leaf=0.0727665
	2:[C_D_U_PUBLISHER_GENDER_COEC<0.0708983] yes=5,no=6,missing=6
		5:[CAT_REL<0.146097] yes=11,no=12,missing=12
			11:[CAT_REL<0.030736] yes=23,no=24,missing=24
				23:[C_D_U_TITLEMD5_GENDER_COEC<0.161213] yes=47,no=48,missing=47
					47:[D_CATEGORY_MACRO_MAX_COEC<0.0900994] yes=95,no=96,missing=96
						95:[WORD_COUNT<2837] yes=187,no=188,missing=188
							187:leaf=-0.0364385
							188:leaf=-0.0187516
						96:[KW_REL<0.00238652] yes=189,no=190,missing=190
							189:leaf=-0.00179529
							190:leaf=0.0636095
					48:[D_KEYWORD_MICRO_MEAN_COEC<0.0957496] yes=97,no=98,missing=98
						97:[C_D_U_TITLEMD5_CATEGORY_MICRO_MAX_COEC<0.132245] yes=191,no=192,missing=192
							191:leaf=-0.0261587
							192:leaf=-0.0873145
						98:[C_D_U_TITLEMD5_CATEGORY_MICRO_MAX_COEC<0.318061] yes=193,no=194,missing=194
							193:leaf=0.00675033
							194:leaf=-0.199875
				24:[D_CATEGORY_MICRO_MAX_COEC<0.0604462] yes=49,no=50,missing=50
					49:[D_CATEGORY_MACRO_MAX_COEC<0.0537921] yes=99,no=100,missing=100
						99:[D_PUBLISHER_COEC<0.0291994] yes=195,no=196,missing=196
							195:leaf=-0.0313158
							196:leaf=0.0270577
						100:[D_KEYWORD_MICRO_MEAN_COEC<0.0679409] yes=197,no=198,missing=198
							197:leaf=-0.0309957
							198:leaf=0.0174315
					50:[D_KEYWORD_MICRO_MEAN_COEC<0.0728435] yes=101,no=102,missing=102
						101:[C_D_U_CATEGORY_CITY_MICRO_MAX_COEC<0.0764766] yes=199,no=200,missing=200
							199:leaf=-0.0257449
							200:leaf=-0.00885971
						102:[D_CATEGORY_MICRO_MEAN_COEC<0.0645621] yes=201,no=202,missing=202
							201:leaf=0.0105628
							202:leaf=-0.0122605
			12:[C_D_U_PUBLISHER_GENDER_COEC<0.0443061] yes=25,no=26,missing=26
				25:[D_CATEGORY_MACRO_MEAN_COEC<0.0370258] yes=51,no=52,missing=52
					51:[TIME_OF_DAY<12] yes=103,no=104,missing=104
						103:[U_CAT_LEN<10] yes=203,no=204,missing=204
							203:leaf=-0.00363214
							204:leaf=0.0952676
						104:[C_D_U_PUBLISHER_CITY_COEC<0.0217448] yes=205,no=206,missing=206
							205:leaf=-0.0598774
							206:leaf=0.0228085
					52:[D_PUBLISHER_COEC<0.0291994] yes=105,no=106,missing=106
						105:[C_D_U_CATEGORY_CITY_MICRO_MAX_COEC<0.124555] yes=207,no=208,missing=208
							207:leaf=-0.041293
							208:leaf=0.0196242
						106:[KW_REL<0.0322843] yes=209,no=210,missing=210
							209:leaf=-0.0176235
							210:leaf=0.0200698
				26:[U_CAT_LEN<17] yes=53,no=54,missing=54
					53:[WORD_COUNT<951] yes=107,no=108,missing=108
						107:[C_D_U_TITLEMD5_AGE_COEC<0.181505] yes=211,no=212,missing=211
							211:leaf=-0.0138703
							212:leaf=-0.0397052
						108:[D_KEYWORD_MACRO_MEAN_COEC<0.0604833] yes=213,no=214,missing=214
							213:leaf=-0.00895937
							214:leaf=0.000961242
					54:[D_CATEGORY_MICRO_MEAN_COEC<0.0858674] yes=109,no=110,missing=110
						109:[CAT_REL<0.252475] yes=215,no=216,missing=216
							215:leaf=0.00673754
							216:leaf=0.020007
						110:[WORD_COUNT<1989] yes=217,no=218,missing=218
							217:leaf=-0.00577316
							218:leaf=0.0109754
		6:[C_D_U_TITLEMD5_CATEGORY_MACRO_MEAN_COEC<0.148339] yes=13,no=14,missing=14
			13:[D_CATEGORY_MICRO_MEAN_COEC<0.0923781] yes=27,no=28,missing=27
				27:[CAT_REL<0.112902] yes=55,no=56,missing=56
					55:[D_CATEGORY_MICRO_MEAN_COEC<0.0645621] yes=111,no=112,missing=111
						111:[U_CAT_LEN<9] yes=219,no=220,missing=220
							219:leaf=-0.00757639
							220:leaf=0.0136288
						112:[CAT_REL<0.019749] yes=221,no=222,missing=222
							221:leaf=-0.0218506
							222:leaf=-0.00411315
					56:[WORD_COUNT<2837] yes=113,no=114,missing=114
						113:[D_KEYWORD_MACRO_MEAN_COEC<0.0648439] yes=223,no=224,missing=224
							223:leaf=-0.00555193
							224:leaf=0.00664652
						114:[D_KEYWORD_MACRO_MEAN_COEC<0.0527704] yes=225,no=226,missing=226
							225:leaf=-0.00126073
							226:leaf=0.0173084
				28:[CAT_REL<0.500746] yes=57,no=58,missing=58
					57:[C_D_U_CATEGORY_AGE_MICRO_MEAN_COEC<0.109478] yes=115,no=116,missing=116
						115:[CAT_REL<0.205368] yes=227,no=228,missing=228
							227:leaf=-0.0196687
							228:leaf=-0.00822697
						116:[D_TITLEMD5_COEC<0.125886] yes=229,no=230,missing=229
							229:leaf=0.0344265
							230:leaf=0.00282555
					58:[KW_REL<0.00238652] yes=117,no=118,missing=118
						117:[C_D_U_TITLEMD5_GENDER_COEC<0.133834] yes=231,no=232,missing=232
							231:leaf=-5.53948e-05
							232:leaf=0.0178316
						118:[WORD_COUNT<713] yes=233,no=234,missing=234
							233:leaf=-0.00364396
							234:leaf=0.0250529
			14:[U_CAT_LEN<9] yes=29,no=30,missing=30
				29:[C_D_U_TITLEMD5_CATEGORY_MACRO_MEAN_COEC<0.212381] yes=59,no=60,missing=60
					59:[D_TITLEMD5_COEC<0.165278] yes=119,no=120,missing=120
						119:[U_CAT_LEN<6] yes=235,no=236,missing=236
							235:leaf=-0.00402893
							236:leaf=0.0137423
						120:[D_KEYWORD_MACRO_MEAN_COEC<0.135889] yes=237,no=238,missing=238
							237:leaf=-0.00239827
							238:leaf=-0.0155405
					60:[D_KEYWORD_MACRO_MEAN_COEC<0.0899422] yes=121,no=122,missing=122
						121:[C_D_U_TITLEMD5_CATEGORY_MICRO_MAX_COEC<0.318061] yes=239,no=240,missing=240
							239:leaf=0.0248687
							240:leaf=-0.0388658
						122:[C_D_U_TITLEMD5_CATEGORY_MACRO_MEAN_COEC<0.247907] yes=241,no=242,missing=242
							241:leaf=0.0146637
							242:leaf=0.0346231
				30:[D_PUBLISHER_COEC<0.132643] yes=61,no=62,missing=62
					61:[D_KEYWORD_MACRO_MEAN_COEC<0.0808237] yes=123,no=124,missing=124
						123:[C_D_U_TITLEMD5_CATEGORY_MICRO_MAX_COEC<0.276174] yes=243,no=244,missing=244
							243:leaf=0.0229268
							244:leaf=-0.0180397
						124:[KW_REL<0.00121694] yes=245,no=246,missing=246
							245:leaf=0.0154315
							246:leaf=0.0274149
					62:[C_D_U_TITLEMD5_CATEGORY_MACRO_MEAN_COEC<0.212381] yes=125,no=126,missing=126
						125:[TIME_OF_DAY<10] yes=247,no=248,missing=248
							247:leaf=-0.0112251
							248:leaf=0.00768015
						126:[C_D_U_TITLEMD5_CATEGORY_MICRO_MAX_COEC<0.276174] yes=249,no=250,missing=250
							249:leaf=0.0110431
							250:leaf=0.0341674
booster[29]:
0:[U_KW_LEN<200] yes=1,no=2,missing=1
	1:[D_KEYWORD_MACRO_MEAN_COEC<0.0858715] yes=3,no=4,missing=4
		3:[IMAGE_COUNT<0.999999] yes=7,no=8,missing=8
			7:[D_TITLEMD5_COEC<0.141602] yes=15,no=16,missing=15
				15:[D_KEYWORD_MICRO_MEAN_COEC<0.0625242] yes=31,no=32,missing=32
					31:[U_KW_LEN<182] yes=63,no=64,missing=64
						63:[U_CAT_LEN<0.999999] yes=127,no=128,missing=128
							127:leaf=-0.0242211
							128:leaf=-0.115438
						64:[D_KEYWORD_MACRO_MEAN_COEC<0.0565668] yes=129,no=130,missing=130
							129:leaf=-0.130164
							130:leaf=0.186632
					32:[D_KEYWORD_MACRO_MAX_COEC<0.0288421] yes=65,no=66,missing=66
						65:[U_KW_LEN<16] yes=131,no=132,missing=132
							131:leaf=-0.0734808
							132:leaf=-0.0197133
						66:[TIME_OF_DAY<9] yes=133,no=134,missing=134
							133:leaf=-0.0177168
							134:leaf=-0.155824
				16:[WORD_COUNT<5034] yes=33,no=34,missing=34
					33:[D_KEYWORD_MACRO_MAX_COEC<0.0146741] yes=67,no=68,missing=68
						67:[D_KEYWORD_MACRO_MEAN_COEC<0.0690107] yes=135,no=136,missing=136
							135:leaf=-0.130705
							136:leaf=0.0872336
						68:[D_KEYWORD_MACRO_MEAN_COEC<0.0844536] yes=137,no=138,missing=138
							137:leaf=-0.180539
							138:leaf=0.0714017
					34:[D_PUBLISHER_COEC<0.0630468] yes=69,no=70,missing=70
						69:leaf=-0.0256311
						70:[U_GENDER<2] yes=139,no=140,missing=139
							139:leaf=0.096374
							140:leaf=0.171485
			8:[C_D_U_CATEGORY_CITY_MACRO_MAX_COEC<0.117287] yes=17,no=18,missing=17
				17:[WORD_COUNT<2948] yes=35,no=36,missing=36
					35:[C_D_U_TITLEMD5_CATEGORY_MICRO_MAX_COEC<0.102455] yes=71,no=72,missing=72
						71:[TIME_OF_DAY<12] yes=141,no=142,missing=142
							141:leaf=-0.00505209
							142:leaf=-0.0155144
						72:[WORD_COUNT<725] yes=143,no=144,missing=144
							143:leaf=0.0111754
							144:leaf=-0.00390876
					36:[D_KEYWORD_MACRO_MAX_COEC<0.00754547] yes=73,no=74,missing=74
						73:[D_CATEGORY_MICRO_MEAN_COEC<0.0676952] yes=145,no=146,missing=146
							145:leaf=-0.0178022
							146:leaf=-0.0550754
						74:[CAT_REL<0.615384] yes=147,no=148,missing=148
							147:leaf=0.00112508
							148:leaf=0.0169074
				18:[DAY_OF_WEEK<0.999999] yes=37,no=38,missing=38
					37:[C_D_U_TITLEMD5_CATEGORY_MACRO_MAX_COEC<0.127041] yes=75,no=76,missing=75
						75:[C_D_U_CATEGORY_CITY_MICRO_MAX_COEC<0.160997] yes=149,no=150,missing=150
							149:leaf=0.0273302
							150:leaf=0.0857296
						76:leaf=-0.203836
					38:[CAT_REL<0.666666] yes=77,no=78,missing=78
						77:[KW_REL<0.0154003] yes=151,no=152,missing=152
							151:leaf=0.0121558
							152:leaf=-0.103722
						78:[U_KW_LEN<35] yes=153,no=154,missing=154
							153:leaf=-0.0612693
							154:leaf=0.0722977
		4:[WORD_COUNT<1221] yes=9,no=10,missing=10
			9:[C_D_U_TITLEMD5_GENDER_COEC<0.189203] yes=19,no=20,missing=20
				19:[TIME_OF_DAY<12] yes=39,no=40,missing=40
					39:[D_KEYWORD_MICRO_MEAN_COEC<0.126757] yes=79,no=80,missing=80
						79:[WORD_COUNT<1197] yes=155,no=156,missing=156
							155:leaf=0.00611303
							156:leaf=-0.0426365
						80:[C_D_U_CATEGORY_GENDER_MACRO_MEAN_COEC<0.080236] yes=157,no=158,missing=157
							157:leaf=-0.0566711
							158:leaf=-0.0119013
					40:[TIME_OF_DAY<17] yes=81,no=82,missing=82
						81:[DAY_OF_WEEK<4] yes=159,no=160,missing=160
							159:leaf=-0.00740776
							160:leaf=-0.0290318
						82:[C_D_U_CATEGORY_GENDER_MACRO_MEAN_COEC<0.0786678] yes=161,no=162,missing=162
							161:leaf=0.016242
							162:leaf=-0.00586439
				20:[D_KEYWORD_MICRO_MEAN_COEC<0.0803475] yes=41,no=42,missing=42
					41:[DAY_OF_WEEK<4] yes=83,no=84,missing=84
						83:[C_D_U_TITLEMD5_CATEGORY_MACRO_MEAN_COEC<0.275945] yes=163,no=164,missing=163
							163:leaf=-0.126191
							164:leaf=-0.306488
						84:[D_KEYWORD_MICRO_MEAN_COEC<0.0720673] yes=165,no=166,missing=166
							165:leaf=-0.00302848
							166:leaf=-0.119392
					42:[WORD_COUNT<1137] yes=85,no=86,missing=86
						85:[C_D_U_TITLEMD5_CATEGORY_MICRO_MEAN_COEC<0.228371] yes=167,no=168,missing=168
							167:leaf=6.24021e-05
							168:leaf=0.0132323
						86:[TIME_OF_DAY<11] yes=169,no=170,missing=170
							169:leaf=-0.130106
							170:leaf=0.0543735
			10:[DAY_OF_WEEK<3] yes=21,no=22,missing=22
				21:[C_D_U_CATEGORY_CITY_MACRO_MAX_COEC<0.106478] yes=43,no=44,missing=43
					43:[D_CATEGORY_MACRO_MAX_COEC<0.09153] yes=87,no=88,missing=87
						87:[C_D_U_CATEGORY_CITY_MICRO_MEAN_COEC<0.0865264] yes=171,no=172,missing=171
							171:leaf=0.000471859
							172:leaf=0.019024
						88:[CAT_REL<0.301048] yes=173,no=174,missing=174
							173:leaf=-0.01437
							174:leaf=0.00748731
					44:[TIME_OF_DAY<7] yes=89,no=90,missing=90
						89:[C_D_U_TITLEMD5_GENDER_COEC<0.214196] yes=175,no=176,missing=176
							175:leaf=-0.0152147
							176:leaf=0.0760761
						90:[D_KEYWORD_MACRO_MAX_COEC<0.0328617] yes=177,no=178,missing=178
							177:leaf=0.00845467
							178:leaf=0.0305226
				22:[D_CATEGORY_MACRO_MEAN_COEC<0.0993752] yes=45,no=46,missing=45
					45:[C_D_U_TITLEMD5_GENDER_COEC<0.214196] yes=91,no=92,missing=92
						91:[WORD_COUNT<1313] yes=179,no=180,missing=180
							179:leaf=0.0240914
							180:leaf=0.00623174
						92:[D_PUBLISHER_COEC<0.0498955] yes=181,no=182,missing=181
							181:leaf=-0.167191
							182:leaf=0.0247827
					46:[WORD_COUNT<4328] yes=93,no=94,missing=94
						93:[C_D_U_CATEGORY_GENDER_MACRO_MAX_COEC<0.11874] yes=183,no=184,missing=184
							183:leaf=-0.109592
							184:leaf=0.012879
						94:[D_KEYWORD_MICRO_MAX_COEC<0.136958] yes=185,no=186,missing=186
							185:leaf=0.0527084
							186:leaf=0.016156
	2:[C_D_U_TITLEMD5_CATEGORY_MACRO_MEAN_COEC<0.120096] yes=5,no=6,missing=6
		5:[KW_REL<0.000412162] yes=11,no=12,missing=12
			11:[C_D_U_PUBLISHER_CITY_COEC<0.0922511] yes=23,no=24,missing=23
				23:[CAT_REL<0.267923] yes=47,no=48,missing=48
					47:[C_D_U_TITLEMD5_AGE_COEC<0.0239475] yes=95,no=96,missing=95
						95:[C_D_U_PUBLISHER_AGE_COEC<0.0974167] yes=187,no=188,missing=188
							187:leaf=-0.0406391
							188:leaf=0.0386198
						96:[C_D_U_CATEGORY_AGE_MICRO_MEAN_COEC<0.0995821] yes=189,no=190,missing=190
							189:leaf=-0.0157415
							190:leaf=-0.0335055
					48:[U_CAT_LEN<11] yes=97,no=98,missing=98
						97:[D_KEYWORD_MICRO_MAX_COEC<0.114403] yes=191,no=192,missing=192
							191:leaf=-0.00860121
							192:leaf=-0.0240091
						98:[WORD_COUNT<3703] yes=193,no=194,missing=194
							193:leaf=-0.00509234
							194:leaf=0.019492
				24:[WORD_COUNT<1272] yes=49,no=50,missing=50
					49:[C_D_U_TITLEMD5_AGE_COEC<0.101444] yes=99,no=100,missing=100
						99:[CAT_REL<0.452241] yes=195,no=196,missing=196
							195:leaf=-0.025897
							196:leaf=-0.00345371
						100:[U_CAT_LEN<17] yes=197,no=198,missing=198
							197:leaf=-0.0106007
							198:leaf=0.0112955
					50:[D_CATEGORY_MICRO_MEAN_COEC<0.0925808] yes=101,no=102,missing=102
						101:[C_D_U_PUBLISHER_GENDER_COEC<0.108284] yes=199,no=200,missing=200
							199:leaf=0.00108412
							200:leaf=0.0165301
						102:[CAT_REL<0.226597] yes=201,no=202,missing=202
							201:leaf=-0.0221404
							202:leaf=-0.000306657
			12:[C_D_U_PUBLISHER_CITY_COEC<0.084619] yes=25,no=26,missing=25
				25:[C_D_U_TITLEMD5_GENDER_COEC<0.0243316] yes=51,no=52,missing=52
					51:[D_KEYWORD_MICRO_MEAN_COEC<0.103081] yes=103,no=104,missing=104
						103:[C_D_U_TITLEMD5_CATEGORY_MACRO_MEAN_COEC<0.0714036] yes=203,no=204,missing=204
							203:leaf=-0.0160493
							204:leaf=-0.0349288
						104:[IMAGE_COUNT<2] yes=205,no=206,missing=206
							205:leaf=0.0189322
							206:leaf=0.110796
					52:[CAT_REL<0.274108] yes=105,no=106,missing=106
						105:[D_CATEGORY_MACRO_MEAN_COEC<0.0639514] yes=207,no=208,missing=207
							207:leaf=0.0058212
							208:leaf=-0.00836757
						106:[WORD_COUNT<1037] yes=209,no=210,missing=210
							209:leaf=-0.00879935
							210:leaf=0.00377434
				26:[D_TITLEMD5_COEC<0.121595] yes=53,no=54,missing=53
					53:[C_D_U_CATEGORY_CITY_MACRO_MAX_COEC<0.128011] yes=107,no=108,missing=108
						107:[WORD_COUNT<1714] yes=211,no=212,missing=212
							211:leaf=4.94041e-05
							212:leaf=0.00814171
						108:[D_CATEGORY_MICRO_MEAN_COEC<0.0925808] yes=213,no=214,missing=213
							213:leaf=0.0336199
							214:leaf=0.0148852
					54:[D_TITLEMD5_COEC<0.141419] yes=109,no=110,missing=110
						109:[D_PUBLISHER_COEC<0.151508] yes=215,no=216,missing=216
							215:leaf=-0.00467824
							216:leaf=-0.0409881
						110:[WORD_COUNT<1204] yes=217,no=218,missing=218
							217:leaf=-0.0356108
							218:leaf=-0.015706
		6:[U_CAT_LEN<12] yes=13,no=14,missing=14
			13:[TIME_OF_DAY<17] yes=27,no=28,missing=28
				27:[D_PUBLISHER_COEC<0.0584286] yes=55,no=56,missing=56
					55:[C_D_U_TITLEMD5_CATEGORY_MICRO_MAX_COEC<0.211788] yes=111,no=112,missing=112
						111:[WORD_COUNT<4890] yes=219,no=220,missing=220
							219:leaf=-0.00844144
							220:leaf=0.0414916
						112:[D_CATEGORY_MACRO_MEAN_COEC<0.0777816] yes=221,no=222,missing=221
							221:leaf=-0.0224082
							222:leaf=-0.0495314
					56:[U_CAT_LEN<7] yes=113,no=114,missing=114
						113:[C_D_U_TITLEMD5_CATEGORY_MICRO_MEAN_COEC<0.0969834] yes=223,no=224,missing=224
							223:leaf=-0.131363
							224:leaf=-0.00737625
						114:[D_TITLEMD5_COEC<0.137742] yes=225,no=226,missing=226
							225:leaf=0.01255
							226:leaf=0.000159011
				28:[KW_REL<0.00126708] yes=57,no=58,missing=58
					57:[D_KEYWORD_MICRO_MEAN_COEC<0.110082] yes=115,no=116,missing=116
						115:[D_CATEGORY_MACRO_MEAN_COEC<0.0960146] yes=227,no=228,missing=228
							227:leaf=0.00667095
							228:leaf=-0.023654
						116:[CAT_REL<0.120815] yes=229,no=230,missing=230
							229:leaf=-0.0021244
							230:leaf=0.0162291
					58:[C_D_U_PUBLISHER_GENDER_COEC<0.0714083] yes=117,no=118,missing=118
						117:[TIME_OF_DAY<23] yes=231,no=232,missing=232
							231:leaf=0.00603288
							232:leaf=-0.0651245
						118:[C_D_U_TITLEMD5_CATEGORY_MACRO_MEAN_COEC<0.173394] yes=233,no=234,missing=234
							233:leaf=0.0178719
							234:leaf=0.0342917
			14:[D_KEYWORD_MICRO_MEAN_COEC<0.127496] yes=29,no=30,missing=30
				29:[C_D_U_TITLEMD5_GENDER_COEC<0.276799] yes=59,no=60,missing=60
					59:[KW_REL<0.00441252] yes=119,no=120,missing=120
						119:[D_KEYWORD_MACRO_MEAN_COEC<0.0807568] yes=235,no=236,missing=236
							235:leaf=-0.00139233
							236:leaf=0.01517
						120:[WORD_COUNT<2700] yes=237,no=238,missing=238
							237:leaf=0.0202126
							238:leaf=0.0389512
					60:[D_KEYWORD_MACRO_MEAN_COEC<0.149141] yes=121,no=122,missing=122
						121:[CAT_REL<0.050427] yes=239,no=240,missing=240
							239:leaf=-0.110824
							240:leaf=-0.0159764
						122:[WORD_COUNT<1831] yes=241,no=242,missing=242
							241:leaf=0.0437563
							242:leaf=-0.0848299
				30:[C_D_U_TITLEMD5_CATEGORY_MACRO_MEAN_COEC<0.193416] yes=61,no=62,missing=62
					61:[DAY_OF_WEEK<2] yes=123,no=124,missing=124
						123:[D_PUBLISHER_COEC<0.12455] yes=243,no=244,missing=244
							243:leaf=0.0232193
							244:leaf=-0.00602553
						124:[D_CATEGORY_MICRO_MAX_COEC<0.0828083] yes=245,no=246,missing=245
							245:leaf=-0.0620998
							246:leaf=-0.0100505
					62:[D_CATEGORY_MACRO_MEAN_COEC<0.0765299] yes=125,no=126,missing=126
						125:[C_D_U_TITLEMD5_CATEGORY_MACRO_MEAN_COEC<0.249825] yes=247,no=248,missing=248
							247:leaf=0.0387525
							248:leaf=0.0833778
						126:[D_CATEGORY_MACRO_MEAN_COEC<0.0777816] yes=249,no=250,missing=250
							249:leaf=-0.0196459
							250:leaf=0.0224679
booster[30]:
0:[U_KW_LEN<200] yes=1,no=2,missing=1
	1:[C_D_U_PUBLISHER_GENDER_COEC<0.0880497] yes=3,no=4,missing=3
		3:[D_KEYWORD_MACRO_MEAN_COEC<0.118671] yes=7,no=8,missing=8
			7:[IMAGE_COUNT<2] yes=15,no=16,missing=16
				15:[C_D_U_TITLEMD5_CATEGORY_MACRO_MEAN_COEC<0.0628519] yes=31,no=32,missing=32
					31:[U_KW_LEN<40] yes=63,no=64,missing=64
						63:[C_D_U_CATEGORY_CITY_MICRO_MAX_COEC<0.0624823] yes=127,no=128,missing=127
							127:leaf=-0.0410005
							128:leaf=-0.0148837
						64:[CAT_REL<0.499999] yes=129,no=130,missing=130
							129:leaf=-0.0114777
							130:leaf=0.00291124
					32:[KW_REL<0.00108531] yes=65,no=66,missing=66
						65:[C_D_U_TITLEMD5_CATEGORY_MICRO_MAX_COEC<0.215657] yes=131,no=132,missing=131
							131:leaf=-0.00504023
							132:leaf=-0.0253004
						66:[CAT_REL<0.05936] yes=133,no=134,missing=134
							133:leaf=-0.0153121
							134:leaf=0.00442877
				16:[C_D_U_PUBLISHER_GENDER_COEC<0.0344825] yes=33,no=34,missing=33
					33:[U_CAT_LEN<3] yes=67,no=68,missing=68
						67:[C_D_U_CATEGORY_CITY_MACRO_MAX_COEC<0.0152277] yes=135,no=136,missing=136
							135:leaf=-0.0852578
							136:leaf=-0.0369489
						68:[WORD_COUNT<1137] yes=137,no=138,missing=138
							137:leaf=0.144051
							138:leaf=-0.00846305
					34:[D_CATEGORY_MICRO_MAX_COEC<0.0674014] yes=69,no=70,missing=70
						69:[D_KEYWORD_MICRO_MEAN_COEC<0.0756574] yes=139,no=140,missing=140
							139:leaf=0.0314102
							140:leaf=0.00189539
						70:[KW_REL<0.0008969] yes=141,no=142,missing=142
							141:leaf=-0.000520601
							142:leaf=0.0176782
			8:[D_KEYWORD_MICRO_MEAN_COEC<0.0809816] yes=17,no=18,missing=18
				17:[U_CAT_LEN<6] yes=35,no=36,missing=36
					35:[C_D_U_CATEGORY_CITY_MACRO_MAX_COEC<0.101918] yes=71,no=72,missing=72
						71:[C_D_U_TITLEMD5_CATEGORY_MACRO_MAX_COEC<0.119085] yes=143,no=144,missing=143
							143:leaf=-0.103998
							144:leaf=-0.24938
						72:[C_D_U_TITLEMD5_CATEGORY_MACRO_MAX_COEC<0.225905] yes=145,no=146,missing=145
							145:leaf=-0.18304
							146:leaf=0.129652
					36:[C_D_U_PUBLISHER_CITY_COEC<0.0732011] yes=73,no=74,missing=74
						73:[WORD_COUNT<1812] yes=147,no=148,missing=148
							147:leaf=0.130992
							148:leaf=-0.104214
						74:leaf=-0.22689
				18:[D_TITLEMD5_COEC<0.131434] yes=37,no=38,missing=38
					37:[D_TITLEMD5_COEC<0.04936] yes=75,no=76,missing=76
						75:[D_KEYWORD_MICRO_MEAN_COEC<0.125086] yes=149,no=150,missing=150
							149:leaf=0.205335
							150:leaf=-0.132612
						76:[WORD_COUNT<2367] yes=151,no=152,missing=152
							151:leaf=-0.110908
							152:leaf=0.0397434
					38:[WORD_COUNT<2594] yes=77,no=78,missing=78
						77:[D_KEYWORD_MACRO_MAX_COEC<0.0365554] yes=153,no=154,missing=154
							153:leaf=0.0273854
							154:leaf=0.0118393
						78:[CAT_REL<0.269148] yes=155,no=156,missing=156
							155:leaf=-0.0410242
							156:leaf=0.0561337
		4:[U_GENDER<2] yes=9,no=10,missing=9
			9:[U_AGE_1<0.999999] yes=19,no=20,missing=20
				19:[C_D_U_CATEGORY_CITY_MICRO_MAX_COEC<0.0528833] yes=39,no=40,missing=39
					39:[D_KEYWORD_MACRO_MEAN_COEC<0.0649902] yes=79,no=80,missing=80
						79:[C_D_U_CATEGORY_GENDER_MACRO_MEAN_COEC<0.0851623] yes=157,no=158,missing=157
							157:leaf=-0.0281683
							158:leaf=-0.13698
						80:[TIME_OF_DAY<19] yes=159,no=160,missing=160
							159:leaf=-0.00772256
							160:leaf=0.0436364
					40:[C_D_U_CATEGORY_GENDER_MACRO_MAX_COEC<0.0836942] yes=81,no=82,missing=82
						81:[D_KEYWORD_MICRO_MEAN_COEC<0.102507] yes=161,no=162,missing=162
							161:leaf=0.005263
							162:leaf=0.0146837
						82:[C_D_U_CATEGORY_GENDER_MACRO_MAX_COEC<0.0996499] yes=163,no=164,missing=164
							163:leaf=-0.00230695
							164:leaf=0.0108757
				20:[C_D_U_TITLEMD5_GENDER_COEC<3.90951] yes=41,no=42,missing=42
					41:[TIME_OF_DAY<13] yes=83,no=84,missing=84
						83:[U_CAT_LEN<8] yes=165,no=166,missing=166
							165:leaf=-0.00362552
							166:leaf=-0.0972983
						84:[D_KEYWORD_MICRO_MAX_COEC<0.136789] yes=167,no=168,missing=168
							167:leaf=-0.0439582
							168:leaf=-0.0026713
					42:[C_D_U_CATEGORY_GENDER_MACRO_MEAN_COEC<0.052488] yes=85,no=86,missing=85
						85:[TIME_OF_DAY<11] yes=169,no=170,missing=170
							169:leaf=-0.0142924
							170:leaf=0.22685
						86:[C_D_U_CATEGORY_CITY_MACRO_MAX_COEC<0.0843254] yes=171,no=172,missing=172
							171:leaf=-0.0782469
							172:leaf=0.151697
			10:[CAT_REL<0.377597] yes=21,no=22,missing=22
				21:[C_D_U_CATEGORY_CITY_MICRO_MEAN_COEC<0.117016] yes=43,no=44,missing=43
					43:[U_KW_LEN<172] yes=87,no=88,missing=88
						87:[TIME_OF_DAY<18] yes=173,no=174,missing=174
							173:leaf=0.00638191
							174:leaf=0.0288955
						88:[C_D_U_PUBLISHER_CITY_COEC<0.0818888] yes=175,no=176,missing=176
							175:leaf=-0.0222789
							176:leaf=0.0339268
					44:[DAY_OF_WEEK<2] yes=89,no=90,missing=90
						89:[D_KEYWORD_MICRO_MAX_COEC<0.095735] yes=177,no=178,missing=178
							177:leaf=0.109361
							178:leaf=-0.0401301
						90:[C_D_U_TITLEMD5_GENDER_COEC<0.0695544] yes=179,no=180,missing=180
							179:leaf=0.11016
							180:leaf=0.0399367
				22:[C_D_U_TITLEMD5_GENDER_COEC<0.0224595] yes=45,no=46,missing=46
					45:[TIME_OF_DAY<19] yes=91,no=92,missing=92
						91:[C_D_U_TITLEMD5_CATEGORY_MACRO_MEAN_COEC<0.0535178] yes=181,no=182,missing=182
							181:leaf=-0.069493
							182:leaf=0.0120018
						92:[C_D_U_TITLEMD5_CATEGORY_MACRO_MAX_COEC<0.0213342] yes=183,no=184,missing=184
							183:leaf=0.210277
							184:leaf=-0.155313
					46:[C_D_U_PUBLISHER_CITY_COEC<0.113514] yes=93,no=94,missing=94
						93:[U_KW_LEN<186] yes=185,no=186,missing=186
							185:leaf=0.0381886
							186:leaf=-0.0173809
						94:[C_D_U_TITLEMD5_CATEGORY_MACRO_MEAN_COEC<0.20524] yes=187,no=188,missing=188
							187:leaf=-0.00407387
							188:leaf=0.0379968
	2:[D_KEYWORD_MACRO_MEAN_COEC<0.0649081] yes=5,no=6,missing=6
		5:[CAT_REL<0.071711] yes=11,no=12,missing=12
			11:[C_D_U_TITLEMD5_CATEGORY_MACRO_MAX_COEC<0.0428398] yes=23,no=24,missing=24
				23:[C_D_U_CATEGORY_CITY_MICRO_MEAN_COEC<0.048347] yes=47,no=48,missing=47
					47:[D_TITLEMD5_COEC<0.0277653] yes=95,no=96,missing=96
						95:[D_PUBLISHER_COEC<0.0662186] yes=189,no=190,missing=189
							189:leaf=-0.0422512
							190:leaf=-0.00848624
						96:[U_CAT_LEN<11] yes=191,no=192,missing=192
							191:leaf=-0.0137919
							192:leaf=0.0152811
					48:[C_D_U_TITLEMD5_AGE_COEC<0.112489] yes=97,no=98,missing=97
						97:[C_D_U_TITLEMD5_CATEGORY_MACRO_MEAN_COEC<0.0547409] yes=193,no=194,missing=194
							193:leaf=-0.0248063
							194:leaf=-0.0113479
						98:[C_D_U_TITLEMD5_CATEGORY_MACRO_MAX_COEC<0.0292508] yes=195,no=196,missing=196
							195:leaf=-0.0265991
							196:leaf=-0.0633089
				24:[D_CATEGORY_MACRO_MAX_COEC<0.0871739] yes=49,no=50,missing=49
					49:[D_CATEGORY_MICRO_MAX_COEC<0.0608038] yes=99,no=100,missing=100
						99:[CAT_REL<0.009367] yes=197,no=198,missing=198
							197:leaf=-0.0532176
							198:leaf=-0.0010534
						100:[KW_REL<0.0100711] yes=199,no=200,missing=200
							199:leaf=-0.0542539
							200:leaf=-0.0230793
					50:[C_D_U_TITLEMD5_AGE_COEC<0.044766] yes=101,no=102,missing=101
						101:[C_D_U_TITLEMD5_CATEGORY_MACRO_MEAN_COEC<0.0574334] yes=201,no=202,missing=202
							201:leaf=0.0165557
							202:leaf=-0.147675
						102:[C_D_U_PUBLISHER_GENDER_COEC<0.095518] yes=203,no=204,missing=204
							203:leaf=0.0270431
							204:leaf=-0.0693272
			12:[U_CAT_LEN<17] yes=25,no=26,missing=26
				25:[WORD_COUNT<2020] yes=51,no=52,missing=52
					51:[IMAGE_COUNT<0.999999] yes=103,no=104,missing=104
						103:[KW_REL<0.0175315] yes=205,no=206,missing=206
							205:leaf=-0.0615263
							206:leaf=-0.011645
						104:[KW_REL<0.00818408] yes=207,no=208,missing=208
							207:leaf=-0.0152868
							208:leaf=-0.00225453
					52:[CAT_REL<0.375854] yes=105,no=106,missing=106
						105:[D_CATEGORY_MACRO_MAX_COEC<0.0601491] yes=209,no=210,missing=210
							209:leaf=0.0111313
							210:leaf=-0.00867643
						106:[KW_REL<0.00619818] yes=211,no=212,missing=212
							211:leaf=-0.00127537
							212:leaf=0.0144037
				26:[C_D_U_CATEGORY_AGE_MACRO_MEAN_COEC<0.0573439] yes=53,no=54,missing=54
					53:[U_CAT_LEN<19] yes=107,no=108,missing=108
						107:[CAT_REL<0.199108] yes=213,no=214,missing=214
							213:leaf=0.0234479
							214:leaf=0.0825465
						108:[C_D_U_TITLEMD5_CATEGORY_MICRO_MAX_COEC<0.105817] yes=215,no=216,missing=216
							215:leaf=-0.00388067
							216:leaf=0.0353857
					54:[C_D_U_CATEGORY_CITY_MACRO_MEAN_COEC<0.0563994] yes=109,no=110,missing=110
						109:[D_CATEGORY_MICRO_MEAN_COEC<0.0604984] yes=217,no=218,missing=218
							217:leaf=0.0463506
							218:leaf=-0.0290861
						110:[CAT_REL<0.177278] yes=219,no=220,missing=220
							219:leaf=-0.00269583
							220:leaf=0.0101864
		6:[KW_REL<0.00313961] yes=13,no=14,missing=14
			13:[C_D_U_TITLEMD5_CATEGORY_MACRO_MEAN_COEC<0.14465] yes=27,no=28,missing=28
				27:[D_CATEGORY_MICRO_MEAN_COEC<0.0961039] yes=55,no=56,missing=55
					55:[CAT_REL<0.098657] yes=111,no=112,missing=112
						111:[D_KEYWORD_MICRO_MEAN_COEC<0.0792493] yes=221,no=222,missing=222
							221:leaf=-0.0178261
							222:leaf=-0.00172533
						112:[U_CAT_LEN<13] yes=223,no=224,missing=224
							223:leaf=0.00056252
							224:leaf=0.00889194
					56:[C_D_U_CATEGORY_CITY_MACRO_MAX_COEC<0.104344] yes=113,no=114,missing=114
						113:[CAT_REL<0.365017] yes=225,no=226,missing=226
							225:leaf=-0.0184949
							226:leaf=-0.00372552
						114:[DAY_OF_WEEK<3] yes=227,no=228,missing=228
							227:leaf=-0.00513881
							228:leaf=0.0130151
				28:[D_KEYWORD_MICRO_MEAN_COEC<0.0792493] yes=57,no=58,missing=58
					57:[CAT_REL<0.199108] yes=115,no=116,missing=116
						115:[D_TITLEMD5_COEC<0.184589] yes=229,no=230,missing=230
							229:leaf=-0.0308076
							230:leaf=-0.0704004
						116:[C_D_U_TITLEMD5_CATEGORY_MICRO_MAX_COEC<0.218464] yes=231,no=232,missing=232
							231:leaf=0.0233583
							232:leaf=-0.0220562
					58:[C_D_U_TITLEMD5_CATEGORY_MACRO_MEAN_COEC<0.210183] yes=117,no=118,missing=118
						117:[D_TITLEMD5_COEC<0.175943] yes=233,no=234,missing=234
							233:leaf=0.0115254
							234:leaf=-0.00107352
						118:[D_KEYWORD_MICRO_MAX_COEC<0.166844] yes=235,no=236,missing=236
							235:leaf=-0.0137271
							236:leaf=0.0239474
			14:[WORD_COUNT<1403] yes=29,no=30,missing=30
				29:[CAT_REL<0.494165] yes=59,no=60,missing=60
					59:[C_D_U_TITLEMD5_CATEGORY_MACRO_MEAN_COEC<0.11619] yes=119,no=120,missing=120
						119:[U_CAT_LEN<10] yes=237,no=238,missing=238
							237:leaf=-0.0164781
							238:leaf=-0.00213948
						120:[DAY_OF_WEEK<6] yes=239,no=240,missing=240
							239:leaf=0.00865998
							240:leaf=-0.0141132
					60:[D_CATEGORY_MACRO_MAX_COEC<0.0851828] yes=121,no=122,missing=122
						121:[C_D_U_TITLEMD5_CATEGORY_MACRO_MEAN_COEC<0.137101] yes=241,no=242,missing=242
							241:leaf=0.00508918
							242:leaf=0.0188433
						122:[IMAGE_COUNT<4] yes=243,no=244,missing=244
							243:leaf=0.0224878
							244:leaf=0.068565
				30:[C_D_U_TITLEMD5_CATEGORY_MACRO_MEAN_COEC<0.111722] yes=61,no=62,missing=62
					61:[U_CAT_LEN<12] yes=123,no=124,missing=124
						123:[IMAGE_COUNT<3] yes=245,no=246,missing=246
							245:leaf=0.000899608
							246:leaf=0.0238751
						124:[KW_REL<0.00619818] yes=247,no=248,missing=248
							247:leaf=0.00735594
							248:leaf=0.0187607
					62:[C_D_U_TITLEMD5_GENDER_COEC<0.281249] yes=125,no=126,missing=126
						125:[U_CAT_LEN<13] yes=249,no=250,missing=250
							249:leaf=0.0151152
							250:leaf=0.0271305
						126:[U_CAT_LEN<15] yes=251,no=252,missing=252
							251:leaf=-0.0280969
							252:leaf=0.0066091
booster[31]:
0:[U_KW_LEN<200] yes=1,no=2,missing=1
	1:[TIME_OF_DAY<17] yes=3,no=4,missing=4
		3:[TIME_OF_DAY<13] yes=7,no=8,missing=8
			7:[IMAGE_COUNT<2] yes=15,no=16,missing=16
				15:[D_KEYWORD_MACRO_MEAN_COEC<0.0599508] yes=31,no=32,missing=32
					31:[KW_REL<0.00258706] yes=63,no=64,missing=64
						63:[C_D_U_PUBLISHER_GENDER_COEC<0.0625111] yes=127,no=128,missing=127
							127:leaf=-0.0216779
							128:leaf=-0.00993599
						64:[D_TITLEMD5_COEC<0.142099] yes=129,no=130,missing=129
							129:leaf=0.00448927
							130:leaf=-0.0535992
					32:[CAT_REL<0.333332] yes=65,no=66,missing=66
						65:[D_KEYWORD_MICRO_MAX_COEC<0.221689] yes=131,no=132,missing=132
							131:leaf=-0.00143198
							132:leaf=0.0147103
						66:[U_KW_LEN<18] yes=133,no=134,missing=134
							133:leaf=-0.011667
							134:leaf=0.00851086
				16:[D_PUBLISHER_COEC<0.111111] yes=33,no=34,missing=33
					33:[KW_REL<0.000725016] yes=67,no=68,missing=68
						67:[C_D_U_CATEGORY_CITY_MICRO_MEAN_COEC<0.105485] yes=135,no=136,missing=135
							135:leaf=0.00270281
							136:leaf=0.0241925
						68:[C_D_U_CATEGORY_CITY_MACRO_MAX_COEC<0.0582726] yes=137,no=138,missing=138
							137:leaf=-0.00425186
							138:leaf=0.024424
					34:[D_CATEGORY_MACRO_MEAN_COEC<0.0701983] yes=69,no=70,missing=70
						69:[D_KEYWORD_MICRO_MAX_COEC<0.103925] yes=139,no=140,missing=140
							139:leaf=-0.027754
							140:leaf=0.0649639
						70:[C_D_U_CATEGORY_CITY_MACRO_MAX_COEC<0.0766803] yes=141,no=142,missing=142
							141:leaf=-0.0450333
							142:leaf=0.0267144
			8:[DAY_OF_WEEK<5] yes=17,no=18,missing=18
				17:[DAY_OF_WEEK<4] yes=35,no=36,missing=36
					35:[C_D_U_TITLEMD5_CATEGORY_MACRO_MEAN_COEC<0.164966] yes=71,no=72,missing=72
						71:[U_KW_LEN<32] yes=143,no=144,missing=144
							143:leaf=-0.0275262
							144:leaf=-0.00424521
						72:[D_TITLEMD5_COEC<2.42837] yes=145,no=146,missing=146
							145:leaf=0.00462439
							146:leaf=0.128813
					36:[D_PUBLISHER_COEC<0.0610769] yes=73,no=74,missing=74
						73:[WORD_COUNT<799] yes=147,no=148,missing=148
							147:leaf=0.0475576
							148:leaf=-0.012652
						74:[C_D_U_CATEGORY_GENDER_MICRO_MAX_COEC<0.0954653] yes=149,no=150,missing=149
							149:leaf=-0.0389463
							150:leaf=0.000755083
				18:[D_KEYWORD_MACRO_MEAN_COEC<0.13247] yes=37,no=38,missing=38
					37:[U_AGE_1<0.999999] yes=75,no=76,missing=76
						75:[U_CAT_LEN<7] yes=151,no=152,missing=152
							151:leaf=0.00320386
							152:leaf=0.0247515
						76:[U_KW_LEN<187] yes=153,no=154,missing=154
							153:leaf=-0.0156431
							154:leaf=-0.133774
					38:[C_D_U_CATEGORY_GENDER_MACRO_MEAN_COEC<0.0893011] yes=77,no=78,missing=77
						77:[C_D_U_CATEGORY_GENDER_MACRO_MAX_COEC<0.0665686] yes=155,no=156,missing=155
							155:leaf=-0.203813
							156:leaf=0.0296878
						78:[C_D_U_TITLEMD5_CATEGORY_MACRO_MAX_COEC<0.111202] yes=157,no=158,missing=158
							157:leaf=0.0302954
							158:leaf=0.0823136
		4:[C_D_U_CATEGORY_CITY_MICRO_MAX_COEC<0.0899354] yes=9,no=10,missing=9
			9:[C_D_U_CATEGORY_GENDER_MACRO_MEAN_COEC<0.0581668] yes=19,no=20,missing=20
				19:[D_PUBLISHER_COEC<0.117898] yes=39,no=40,missing=39
					39:[CAT_REL<0.133037] yes=79,no=80,missing=80
						79:[U_KW_LEN<197] yes=159,no=160,missing=160
							159:leaf=-0.0327344
							160:leaf=0.11634
						80:[DAY_OF_WEEK<4] yes=161,no=162,missing=162
							161:leaf=-0.0416887
							162:leaf=0.036264
					40:[C_D_U_PUBLISHER_GENDER_COEC<0.109957] yes=81,no=82,missing=81
						81:leaf=-0.208249
						82:[C_D_U_TITLEMD5_CATEGORY_MACRO_MEAN_COEC<0.124221] yes=163,no=164,missing=164
							163:leaf=-0.0737052
							164:leaf=0.0661318
				20:[D_KEYWORD_MICRO_MEAN_COEC<0.0688768] yes=41,no=42,missing=42
					41:[D_CATEGORY_MICRO_MAX_COEC<0.0770588] yes=83,no=84,missing=83
						83:[C_D_U_TITLEMD5_CATEGORY_MICRO_MEAN_COEC<0.0601275] yes=165,no=166,missing=165
							165:leaf=0.0313545
							166:leaf=0.00586209
						84:[D_KEYWORD_MACRO_MAX_COEC<0.0285428] yes=167,no=168,missing=168
							167:leaf=-0.0414195
							168:leaf=0.0212971
					42:[C_D_U_TITLEMD5_CATEGORY_MICRO_MAX_COEC<0.0983707] yes=85,no=86,missing=86
						85:[CAT_REL<0.499999] yes=169,no=170,missing=170
							169:leaf=-0.0214428
							170:leaf=0.0124754
						86:[C_D_U_TITLEMD5_GENDER_COEC<3.29691] yes=171,no=172,missing=172
							171:leaf=0.00352677
							172:leaf=-0.126781
			10:[D_CATEGORY_MICRO_MAX_COEC<0.065917] yes=21,no=22,missing=22
				21:[C_D_U_TITLEMD5_CATEGORY_MACRO_MAX_COEC<0.055679] yes=43,no=44,missing=43
					43:[TIME_OF_DAY<18] yes=87,no=88,missing=88
						87:[C_D_U_CATEGORY_CITY_MICRO_MEAN_COEC<0.0909821] yes=173,no=174,missing=174
							173:leaf=0.152843
							174:leaf=-0.0259291
						88:[D_TITLEMD5_COEC<0.0627685] yes=175,no=176,missing=176
							175:leaf=0.16477
							176:leaf=0.0798487
					44:[C_D_U_TITLEMD5_CATEGORY_MACRO_MEAN_COEC<0.124221] yes=89,no=90,missing=90
						89:leaf=-0.196082
						90:[U_KW_LEN<45] yes=177,no=178,missing=178
							177:leaf=-0.188754
							178:leaf=0.0657982
				22:[DAY_OF_WEEK<2] yes=45,no=46,missing=46
					45:[CAT_REL<0.999999] yes=91,no=92,missing=92
						91:[C_D_U_PUBLISHER_CITY_COEC<0.172284] yes=179,no=180,missing=179
							179:leaf=0.00164941
							180:leaf=0.0372092
						92:[U_KW_LEN<14] yes=181,no=182,missing=182
							181:leaf=-0.150168
							182:leaf=-0.013579
					46:[TIME_OF_DAY<22] yes=93,no=94,missing=94
						93:[D_TITLEMD5_COEC<0.0740525] yes=183,no=184,missing=184
							183:leaf=-0.006967
							184:leaf=0.0228183
						94:[C_D_U_CATEGORY_CITY_MICRO_MAX_COEC<0.112466] yes=185,no=186,missing=186
							185:leaf=-0.0282618
							186:leaf=0.0590355
	2:[C_D_U_PUBLISHER_GENDER_COEC<0.0816647] yes=5,no=6,missing=5
		5:[CAT_REL<0.195466] yes=11,no=12,missing=12
			11:[CAT_REL<0.020765] yes=23,no=24,missing=24
				23:[C_D_U_CATEGORY_CITY_MACRO_MAX_COEC<0.0901471] yes=47,no=48,missing=48
					47:[D_CATEGORY_MICRO_MAX_COEC<0.060688] yes=95,no=96,missing=96
						95:[D_KEYWORD_MACRO_MEAN_COEC<0.0590211] yes=187,no=188,missing=188
							187:leaf=-0.0310493
							188:leaf=0.0154956
						96:[IMAGE_COUNT<3] yes=189,no=190,missing=190
							189:leaf=-0.0348056
							190:leaf=-0.00050499
					48:[DAY_OF_WEEK<3] yes=97,no=98,missing=98
						97:[D_TITLEMD5_COEC<0.154702] yes=191,no=192,missing=192
							191:leaf=0.0195668
							192:leaf=-0.0485539
						98:[D_KEYWORD_MICRO_MAX_COEC<0.215152] yes=193,no=194,missing=194
							193:leaf=-0.0254907
							194:leaf=0.0297947
				24:[D_CATEGORY_MICRO_MEAN_COEC<0.0595845] yes=49,no=50,missing=50
					49:[D_CATEGORY_MACRO_MAX_COEC<0.0553622] yes=99,no=100,missing=100
						99:[U_CAT_LEN<8] yes=195,no=196,missing=196
							195:leaf=-0.0240782
							196:leaf=0.0243194
						100:[D_KEYWORD_MACRO_MAX_COEC<0.0222146] yes=197,no=198,missing=198
							197:leaf=-0.0239131
							198:leaf=0.0230404
					50:[C_D_U_TITLEMD5_GENDER_COEC<0.0254227] yes=101,no=102,missing=101
						101:[TIME_OF_DAY<6] yes=199,no=200,missing=200
							199:leaf=-0.0106926
							200:leaf=-0.0314274
						102:[WORD_COUNT<2325] yes=201,no=202,missing=202
							201:leaf=-0.0127343
							202:leaf=-0.00268255
			12:[D_PUBLISHER_COEC<0.0439266] yes=25,no=26,missing=26
				25:[D_CATEGORY_MACRO_MAX_COEC<0.0464355] yes=51,no=52,missing=52
					51:[TIME_OF_DAY<12] yes=103,no=104,missing=104
						103:[C_D_U_CATEGORY_GENDER_MICRO_MEAN_COEC<0.0581979] yes=203,no=204,missing=204
							203:leaf=0.0557678
							204:leaf=-0.00428658
						104:[KW_REL<0.0170628] yes=205,no=206,missing=206
							205:leaf=-0.0177526
							206:leaf=0.0639795
					52:[C_D_U_PUBLISHER_AGE_COEC<0.0308687] yes=105,no=106,missing=106
						105:[D_KEYWORD_MICRO_MEAN_COEC<0.112504] yes=207,no=208,missing=208
							207:leaf=-0.0351357
							208:leaf=0.029431
						106:[C_D_U_CATEGORY_CITY_MACRO_MAX_COEC<0.0526405] yes=209,no=210,missing=210
							209:leaf=-0.0565019
							210:leaf=-0.0134036
				26:[U_CAT_LEN<19] yes=53,no=54,missing=54
					53:[KW_REL<0.00586986] yes=107,no=108,missing=108
						107:[D_KEYWORD_MACRO_MEAN_COEC<0.0590211] yes=211,no=212,missing=212
							211:leaf=-0.0112207
							212:leaf=-0.00118718
						108:[CAT_REL<0.394254] yes=213,no=214,missing=214
							213:leaf=-0.0010862
							214:leaf=0.0109076
					54:[D_CATEGORY_MICRO_MAX_COEC<0.0883492] yes=109,no=110,missing=110
						109:[D_TITLEMD5_COEC<0.0277768] yes=215,no=216,missing=216
							215:leaf=-0.00710062
							216:leaf=0.0213028
						110:[C_D_U_TITLEMD5_CATEGORY_MACRO_MEAN_COEC<0.0854005] yes=217,no=218,missing=218
							217:leaf=-0.00451818
							218:leaf=0.0134645
		6:[WORD_COUNT<1219] yes=13,no=14,missing=14
			13:[C_D_U_TITLEMD5_CATEGORY_MACRO_MEAN_COEC<0.182552] yes=27,no=28,missing=28
				27:[D_CATEGORY_MICRO_MAX_COEC<0.0677451] yes=55,no=56,missing=55
					55:[D_KEYWORD_MICRO_MEAN_COEC<0.0778544] yes=111,no=112,missing=112
						111:[CAT_REL<0.081263] yes=219,no=220,missing=220
							219:leaf=-0.0207342
							220:leaf=0.00623539
						112:[U_CAT_LEN<8] yes=221,no=222,missing=222
							221:leaf=-0.00322531
							222:leaf=0.0204907
					56:[CAT_REL<0.244994] yes=113,no=114,missing=114
						113:[DAY_OF_WEEK<0.999999] yes=223,no=224,missing=224
							223:leaf=0.000908022
							224:leaf=-0.0149978
						114:[U_CAT_LEN<12] yes=225,no=226,missing=226
							225:leaf=-0.00656063
							226:leaf=0.00371199
				28:[DAY_OF_WEEK<0.999999] yes=57,no=58,missing=58
					57:[D_KEYWORD_MACRO_MEAN_COEC<0.0820071] yes=115,no=116,missing=116
						115:[C_D_U_CATEGORY_AGE_MACRO_MAX_COEC<0.0652411] yes=227,no=228,missing=228
							227:leaf=0.0816619
							228:leaf=-0.0753162
						116:[U_CAT_LEN<6] yes=229,no=230,missing=230
							229:leaf=-0.0168651
							230:leaf=0.0287081
					58:[CAT_REL<0.141154] yes=117,no=118,missing=118
						117:[D_CATEGORY_MACRO_MAX_COEC<0.0763313] yes=231,no=232,missing=232
							231:leaf=0.0131274
							232:leaf=-0.0282765
						118:[C_D_U_TITLEMD5_GENDER_COEC<0.214265] yes=233,no=234,missing=233
							233:leaf=0.000841908
							234:leaf=0.0154431
			14:[CAT_REL<0.221972] yes=29,no=30,missing=30
				29:[D_CATEGORY_MICRO_MEAN_COEC<0.0646592] yes=59,no=60,missing=59
					59:[U_CAT_LEN<10] yes=119,no=120,missing=120
						119:[D_KEYWORD_MACRO_MEAN_COEC<0.0525873] yes=235,no=236,missing=236
							235:leaf=-0.027202
							236:leaf=0.00461699
						120:[DAY_OF_WEEK<3] yes=237,no=238,missing=238
							237:leaf=0.0357398
							238:leaf=0.0158607
					60:[CAT_REL<0.020765] yes=121,no=122,missing=122
						121:[D_KEYWORD_MICRO_MEAN_COEC<0.0778544] yes=239,no=240,missing=240
							239:leaf=-0.0322518
							240:leaf=-0.00966804
						122:[D_KEYWORD_MACRO_MEAN_COEC<0.0655726] yes=241,no=242,missing=242
							241:leaf=-0.00993101
							242:leaf=0.00421146
				30:[D_CATEGORY_MACRO_MEAN_COEC<0.0957253] yes=61,no=62,missing=62
					61:[U_CAT_LEN<11] yes=123,no=124,missing=124
						123:[C_D_U_TITLEMD5_CATEGORY_MACRO_MAX_COEC<0.0487153] yes=243,no=244,missing=244
							243:leaf=0.00172579
							244:leaf=0.0131661
						124:[C_D_U_TITLEMD5_GENDER_COEC<0.0430233] yes=245,no=246,missing=246
							245:leaf=0.000481147
							246:leaf=0.019549
					62:[C_D_U_TITLEMD5_GENDER_COEC<0.168752] yes=125,no=126,missing=125
						125:[CAT_REL<0.44534] yes=247,no=248,missing=248
							247:leaf=-0.00385325
							248:leaf=0.00936228
						126:[D_PUBLISHER_COEC<0.114276] yes=249,no=250,missing=250
							249:leaf=0.024599
							250:leaf=-0.000497532
booster[32]:
0:[U_KW_LEN<200] yes=1,no=2,missing=1
	1:[D_KEYWORD_MICRO_MEAN_COEC<0.0776207] yes=3,no=4,missing=4
		3:[IMAGE_COUNT<2] yes=7,no=8,missing=8
			7:[WORD_COUNT<638] yes=15,no=16,missing=16
				15:[D_TITLEMD5_COEC<0.0984379] yes=31,no=32,missing=32
					31:[C_D_U_TITLEMD5_CATEGORY_MICRO_MEAN_COEC<0.0600028] yes=63,no=64,missing=63
						63:[C_D_U_CATEGORY_CITY_MICRO_MAX_COEC<0.0964563] yes=127,no=128,missing=128
							127:leaf=0.0129855
							128:leaf=-0.110569
						64:[C_D_U_CATEGORY_GENDER_MACRO_MEAN_COEC<0.0738327] yes=129,no=130,missing=130
							129:leaf=-0.0420304
							130:leaf=-0.00251823
					32:[C_D_U_TITLEMD5_CATEGORY_MICRO_MAX_COEC<0.163637] yes=65,no=66,missing=65
						65:[C_D_U_CATEGORY_GENDER_MACRO_MAX_COEC<0.0792368] yes=131,no=132,missing=132
							131:leaf=0.0535133
							132:leaf=-0.0468606
						66:[D_KEYWORD_MICRO_MAX_COEC<0.0928894] yes=133,no=134,missing=134
							133:leaf=-0.157492
							134:leaf=-0.00955423
				16:[U_AGE_1<0.999999] yes=33,no=34,missing=34
					33:[D_KEYWORD_MACRO_MEAN_COEC<0.0469863] yes=67,no=68,missing=68
						67:[C_D_U_TITLEMD5_GENDER_COEC<0.102632] yes=135,no=136,missing=136
							135:leaf=-0.0114318
							136:leaf=-0.0483741
						68:[CAT_REL<0.666666] yes=137,no=138,missing=138
							137:leaf=-0.00460284
							138:leaf=0.00775278
					34:[D_TITLEMD5_COEC<3.90951] yes=69,no=70,missing=70
						69:[D_CATEGORY_MACRO_MAX_COEC<0.0290861] yes=139,no=140,missing=140
							139:leaf=0.0454067
							140:leaf=-0.0270456
						70:[D_CATEGORY_MACRO_MAX_COEC<0.0375869] yes=141,no=142,missing=142
							141:leaf=0.13667
							142:leaf=-0.0197298
			8:[C_D_U_PUBLISHER_GENDER_COEC<0.0354697] yes=17,no=18,missing=18
				17:[U_KW_LEN<58] yes=35,no=36,missing=36
					35:[DAY_OF_WEEK<3] yes=71,no=72,missing=72
						71:[D_KEYWORD_MICRO_MEAN_COEC<0.064966] yes=143,no=144,missing=144
							143:leaf=0.0565788
							144:leaf=-0.044011
						72:[D_KEYWORD_MICRO_MAX_COEC<0.0787801] yes=145,no=146,missing=146
							145:leaf=-0.031515
							146:leaf=-0.0834736
					36:[D_KEYWORD_MICRO_MAX_COEC<0.0928894] yes=73,no=74,missing=74
						73:[D_KEYWORD_MICRO_MEAN_COEC<0.0682238] yes=147,no=148,missing=148
							147:leaf=-0.000340929
							148:leaf=0.0970676
						74:[U_KW_LEN<65] yes=149,no=150,missing=150
							149:leaf=0.114986
							150:leaf=-0.047539
				18:[D_CATEGORY_MICRO_MEAN_COEC<0.0720543] yes=37,no=38,missing=38
					37:[D_KEYWORD_MACRO_MAX_COEC<0.0141858] yes=75,no=76,missing=76
						75:[D_CATEGORY_MICRO_MEAN_COEC<0.0617444] yes=151,no=152,missing=152
							151:leaf=0.0304276
							152:leaf=-0.00361253
						76:[D_KEYWORD_MICRO_MEAN_COEC<0.0667988] yes=153,no=154,missing=154
							153:leaf=0.0499104
							154:leaf=0.0223354
					38:[D_KEYWORD_MICRO_MAX_COEC<0.0966529] yes=77,no=78,missing=78
						77:[C_D_U_PUBLISHER_GENDER_COEC<0.0591716] yes=155,no=156,missing=156
							155:leaf=0.018826
							156:leaf=-0.029006
						78:[C_D_U_TITLEMD5_CATEGORY_MICRO_MEAN_COEC<0.149252] yes=157,no=158,missing=157
							157:leaf=0.010982
							158:leaf=-0.109248
		4:[U_GENDER<2] yes=9,no=10,missing=9
			9:[KW_REL<0.000468775] yes=19,no=20,missing=20
				19:[C_D_U_TITLEMD5_CATEGORY_MACRO_MEAN_COEC<0.150987] yes=39,no=40,missing=40
					39:[TIME_OF_DAY<18] yes=79,no=80,missing=80
						79:[DAY_OF_WEEK<5] yes=159,no=160,missing=160
							159:leaf=-0.009302
							160:leaf=0.00149269
						80:[D_KEYWORD_MACRO_MEAN_COEC<0.128949] yes=161,no=162,missing=162
							161:leaf=0.0089255
							162:leaf=-0.0759169
					40:[C_D_U_CATEGORY_GENDER_MICRO_MAX_COEC<0.100422] yes=81,no=82,missing=82
						81:[D_CATEGORY_MACRO_MAX_COEC<0.0879123] yes=163,no=164,missing=164
							163:leaf=0.00318748
							164:leaf=-0.00574951
						82:[WORD_COUNT<3752] yes=165,no=166,missing=166
							165:leaf=0.00802601
							166:leaf=0.0349478
				20:[D_PUBLISHER_COEC<0.0714274] yes=41,no=42,missing=41
					41:[D_CATEGORY_MICRO_MAX_COEC<0.0963829] yes=83,no=84,missing=83
						83:[CAT_REL<0.666666] yes=167,no=168,missing=168
							167:leaf=-0.00943589
							168:leaf=0.0106107
						84:[C_D_U_TITLEMD5_CATEGORY_MACRO_MAX_COEC<0.0295066] yes=169,no=170,missing=169
							169:leaf=-0.0233099
							170:leaf=0.0206204
					42:[CAT_REL<0.103302] yes=85,no=86,missing=86
						85:[WORD_COUNT<4328] yes=171,no=172,missing=172
							171:leaf=-0.00414575
							172:leaf=0.0217514
						86:[C_D_U_TITLEMD5_CATEGORY_MACRO_MEAN_COEC<0.192729] yes=173,no=174,missing=174
							173:leaf=0.00867231
							174:leaf=0.0233556
			10:[D_KEYWORD_MACRO_MEAN_COEC<0.0549587] yes=21,no=22,missing=22
				21:[D_KEYWORD_MACRO_MAX_COEC<0.0251102] yes=43,no=44,missing=44
					43:[C_D_U_PUBLISHER_CITY_COEC<3.62634] yes=87,no=88,missing=88
						87:[TIME_OF_DAY<9] yes=175,no=176,missing=176
							175:leaf=-0.128446
							176:leaf=-0.0463186
						88:[D_KEYWORD_MICRO_MEAN_COEC<0.0900608] yes=177,no=178,missing=178
							177:leaf=-0.0453774
							178:leaf=0.305368
					44:[C_D_U_CATEGORY_CITY_MACRO_MAX_COEC<0.0870881] yes=89,no=90,missing=90
						89:leaf=0.0478094
						90:leaf=0.304291
				22:[C_D_U_CATEGORY_GENDER_MICRO_MEAN_COEC<0.0738816] yes=45,no=46,missing=45
					45:[C_D_U_TITLEMD5_CATEGORY_MACRO_MEAN_COEC<0.123453] yes=91,no=92,missing=92
						91:[D_CATEGORY_MICRO_MEAN_COEC<0.0720543] yes=179,no=180,missing=180
							179:leaf=0.00802044
							180:leaf=-0.0154918
						92:[IMAGE_COUNT<0.999999] yes=181,no=182,missing=182
							181:leaf=-0.17888
							182:leaf=0.0105633
					46:[D_CATEGORY_MICRO_MAX_COEC<0.0892266] yes=93,no=94,missing=94
						93:[U_AGE_1<0.999999] yes=183,no=184,missing=184
							183:leaf=0.0236423
							184:leaf=0.0540587
						94:[CAT_REL<0.240505] yes=185,no=186,missing=186
							185:leaf=0.00409879
							186:leaf=0.0249228
	2:[C_D_U_TITLEMD5_CATEGORY_MACRO_MEAN_COEC<0.068475] yes=5,no=6,missing=6
		5:[U_CAT_LEN<10] yes=11,no=12,missing=12
			11:[CAT_REL<0.588359] yes=23,no=24,missing=24
				23:[C_D_U_TITLEMD5_CATEGORY_MICRO_MAX_COEC<0.0561527] yes=47,no=48,missing=48
					47:[C_D_U_TITLEMD5_AGE_COEC<0.165345] yes=95,no=96,missing=96
						95:[TIME_OF_DAY<12] yes=187,no=188,missing=188
							187:leaf=-0.0239587
							188:leaf=-0.0395036
						96:[C_D_U_PUBLISHER_AGE_COEC<0.142665] yes=189,no=190,missing=190
							189:leaf=-0.00916497
							190:leaf=0.0765364
					48:[C_D_U_CATEGORY_AGE_MICRO_MEAN_COEC<0.10146] yes=97,no=98,missing=98
						97:[D_CATEGORY_MACRO_MAX_COEC<0.0690457] yes=191,no=192,missing=192
							191:leaf=-0.00524683
							192:leaf=-0.0155192
						98:[DAY_OF_WEEK<4] yes=193,no=194,missing=194
							193:leaf=-0.0465817
							194:leaf=0.0285255
				24:[C_D_U_CATEGORY_CITY_MACRO_MAX_COEC<0.0420152] yes=49,no=50,missing=50
					49:[TIME_OF_DAY<16] yes=99,no=100,missing=100
						99:[C_D_U_CATEGORY_GENDER_MACRO_MAX_COEC<0.0539021] yes=195,no=196,missing=196
							195:leaf=-0.026194
							196:leaf=-0.0990435
						100:[WORD_COUNT<849] yes=197,no=198,missing=198
							197:leaf=-0.131948
							198:leaf=0.0744854
					50:[D_KEYWORD_MICRO_MEAN_COEC<0.0743105] yes=101,no=102,missing=102
						101:[TIME_OF_DAY<6] yes=199,no=200,missing=200
							199:leaf=-0.0272149
							200:leaf=-0.00125675
						102:[U_CAT_LEN<7] yes=201,no=202,missing=202
							201:leaf=-0.00122285
							202:leaf=0.0283282
			12:[D_TITLEMD5_COEC<0.0737186] yes=25,no=26,missing=25
				25:[C_D_U_CATEGORY_CITY_MICRO_MEAN_COEC<0.114669] yes=51,no=52,missing=52
					51:[C_D_U_TITLEMD5_CATEGORY_MACRO_MEAN_COEC<0.0363392] yes=103,no=104,missing=104
						103:[U_GENDER<4] yes=203,no=204,missing=204
							203:leaf=-0.0167065
							204:leaf=-0.000265744
						104:[D_CATEGORY_MACRO_MEAN_COEC<0.0586842] yes=205,no=206,missing=206
							205:leaf=0.0197674
							206:leaf=-0.00106865
					52:[D_CATEGORY_MACRO_MEAN_COEC<0.0996204] yes=105,no=106,missing=105
						105:[CAT_REL<0.070932] yes=207,no=208,missing=208
							207:leaf=-0.0101996
							208:leaf=0.0290915
						106:[C_D_U_CATEGORY_GENDER_MACRO_MAX_COEC<0.104222] yes=209,no=210,missing=210
							209:leaf=-0.0242811
							210:leaf=0.0333892
				26:[D_CATEGORY_MACRO_MEAN_COEC<0.0964936] yes=53,no=54,missing=54
					53:[CAT_REL<0.042953] yes=107,no=108,missing=108
						107:[C_D_U_PUBLISHER_CITY_COEC<0.0235017] yes=211,no=212,missing=211
							211:leaf=-0.0769723
							212:leaf=-0.0240619
						108:[C_D_U_TITLEMD5_CATEGORY_MICRO_MEAN_COEC<0.0818722] yes=213,no=214,missing=214
							213:leaf=-0.00425048
							214:leaf=-0.0139489
					54:[C_D_U_CATEGORY_AGE_MACRO_MAX_COEC<0.10938] yes=109,no=110,missing=109
						109:[C_D_U_CATEGORY_CITY_MACRO_MEAN_COEC<0.0824568] yes=215,no=216,missing=216
							215:leaf=-0.0896914
							216:leaf=-0.0309539
						110:[CAT_REL<0.038498] yes=217,no=218,missing=218
							217:leaf=-0.0365918
							218:leaf=0.0634098
		6:[TIME_OF_DAY<17] yes=13,no=14,missing=14
			13:[U_CAT_LEN<16] yes=27,no=28,missing=28
				27:[WORD_COUNT<2344] yes=55,no=56,missing=56
					55:[CAT_REL<0.251649] yes=111,no=112,missing=112
						111:[D_CATEGORY_MACRO_MAX_COEC<0.0617824] yes=219,no=220,missing=219
							219:leaf=0.00710305
							220:leaf=-0.0088349
						112:[D_KEYWORD_MACRO_MEAN_COEC<0.0590718] yes=221,no=222,missing=222
							221:leaf=-0.0169536
							222:leaf=0.000654337
					56:[U_CAT_LEN<7] yes=113,no=114,missing=114
						113:[C_D_U_TITLEMD5_GENDER_COEC<0.27149] yes=223,no=224,missing=223
							223:leaf=-0.00760678
							224:leaf=-0.0666305
						114:[KW_REL<0.00394032] yes=225,no=226,missing=226
							225:leaf=0.00231264
							226:leaf=0.0120065
				28:[KW_REL<0.00678174] yes=57,no=58,missing=58
					57:[WORD_COUNT<2344] yes=115,no=116,missing=116
						115:[C_D_U_PUBLISHER_GENDER_COEC<0.0693215] yes=227,no=228,missing=227
							227:leaf=-0.00745445
							228:leaf=0.00571668
						116:[CAT_REL<0.019479] yes=229,no=230,missing=230
							229:leaf=-0.0135641
							230:leaf=0.0137732
					58:[WORD_COUNT<2950] yes=117,no=118,missing=118
						117:[CAT_REL<0.189205] yes=231,no=232,missing=232
							231:leaf=0.00510765
							232:leaf=0.0224419
						118:[C_D_U_PUBLISHER_CITY_COEC<0.0712349] yes=233,no=234,missing=234
							233:leaf=0.0201901
							234:leaf=0.0384038
			14:[U_CAT_LEN<14] yes=29,no=30,missing=30
				29:[WORD_COUNT<725] yes=59,no=60,missing=60
					59:[D_CATEGORY_MICRO_MAX_COEC<0.103952] yes=119,no=120,missing=120
						119:[D_KEYWORD_MACRO_MAX_COEC<0.0694429] yes=235,no=236,missing=236
							235:leaf=-0.000755423
							236:leaf=-0.0434504
						120:[KW_REL<0.00183692] yes=237,no=238,missing=238
							237:leaf=-0.0401167
							238:leaf=-0.00564161
					60:[C_D_U_CATEGORY_GENDER_MICRO_MAX_COEC<0.103621] yes=121,no=122,missing=122
						121:[CAT_REL<0.189205] yes=239,no=240,missing=240
							239:leaf=0.00273731
							240:leaf=0.0114627
						122:[DAY_OF_WEEK<3] yes=241,no=242,missing=242
							241:leaf=0.0173564
							242:leaf=0.0387462
				30:[D_KEYWORD_MACRO_MEAN_COEC<0.0511495] yes=61,no=62,missing=62
					61:[C_D_U_CATEGORY_AGE_MACRO_MEAN_COEC<0.0626088] yes=123,no=124,missing=124
						123:[WORD_COUNT<1804] yes=243,no=244,missing=244
							243:leaf=-0.0549557
							244:leaf=0.0236073
						124:[D_PUBLISHER_COEC<0.0935569] yes=245,no=246,missing=246
							245:leaf=-0.0622317
							246:leaf=0.0101857
					62:[C_D_U_TITLEMD5_CATEGORY_MACRO_MEAN_COEC<0.140701] yes=125,no=126,missing=126
						125:[C_D_U_TITLEMD5_AGE_COEC<0.14803] yes=247,no=248,missing=248
							247:leaf=0.0159423
							248:leaf=-0.00250818
						126:[IMAGE_COUNT<0.999999] yes=249,no=250,missing=250
							249:leaf=-0.0844353
							250:leaf=0.026563
booster[33]:
0:[U_KW_LEN<200] yes=1,no=2,missing=1
	1:[IMAGE_COUNT<0.999999] yes=3,no=4,missing=4
		3:[C_D_U_TITLEMD5_CATEGORY_MICRO_MAX_COEC<0.20945] yes=7,no=8,missing=7
			7:[D_KEYWORD_MICRO_MEAN_COEC<0.0896053] yes=15,no=16,missing=16
				15:[C_D_U_TITLEMD5_GENDER_COEC<0.157205] yes=31,no=32,missing=32
					31:[D_KEYWORD_MICRO_MEAN_COEC<0.065013] yes=63,no=64,missing=64
						63:[U_KW_LEN<169] yes=127,no=128,missing=128
							127:leaf=-0.0845413
							128:leaf=0.0471437
						64:[U_KW_LEN<16] yes=129,no=130,missing=130
							129:leaf=-0.0670005
							130:leaf=-0.0121621
					32:[C_D_U_CATEGORY_GENDER_MACRO_MEAN_COEC<0.0253877] yes=65,no=66,missing=66
						65:[U_GENDER<2] yes=131,no=132,missing=132
							131:leaf=0.255388
							132:leaf=-0.0414144
						66:[D_KEYWORD_MACRO_MEAN_COEC<0.0833905] yes=133,no=134,missing=134
							133:leaf=-0.0920987
							134:leaf=-0.00295797
				16:[WORD_COUNT<723] yes=33,no=34,missing=34
					33:[D_PUBLISHER_COEC<0.074432] yes=67,no=68,missing=68
						67:leaf=-0.162871
						68:[TIME_OF_DAY<10] yes=135,no=136,missing=136
							135:leaf=-0.0735847
							136:leaf=0.139416
					34:[TIME_OF_DAY<19] yes=69,no=70,missing=70
						69:[C_D_U_CATEGORY_GENDER_MICRO_MAX_COEC<0.109597] yes=137,no=138,missing=138
							137:leaf=-0.147161
							138:leaf=0.0516467
						70:[C_D_U_TITLEMD5_CATEGORY_MACRO_MAX_COEC<0.0462543] yes=139,no=140,missing=140
							139:leaf=0.0339675
							140:leaf=-0.196025
			8:[C_D_U_TITLEMD5_CATEGORY_MACRO_MAX_COEC<0.0733204] yes=17,no=18,missing=18
				17:[TIME_OF_DAY<18] yes=35,no=36,missing=36
					35:[D_PUBLISHER_COEC<0.104173] yes=71,no=72,missing=72
						71:leaf=-0.182776
						72:leaf=-0.0348086
					36:[KW_REL<0.00731693] yes=73,no=74,missing=74
						73:leaf=-0.172201
						74:leaf=0.0771431
				18:[U_KW_LEN<47] yes=37,no=38,missing=38
					37:[C_D_U_TITLEMD5_GENDER_COEC<0.0808778] yes=75,no=76,missing=75
						75:leaf=-0.133742
						76:leaf=-0.179555
					38:[WORD_COUNT<1407] yes=77,no=78,missing=78
						77:[C_D_U_CATEGORY_GENDER_MACRO_MEAN_COEC<0.0925645] yes=141,no=142,missing=142
							141:leaf=-0.172638
							142:leaf=0.0722136
						78:[C_D_U_CATEGORY_CITY_MICRO_MEAN_COEC<0.0655003] yes=143,no=144,missing=144
							143:leaf=0.0504362
							144:leaf=-0.0681327
		4:[C_D_U_TITLEMD5_GENDER_COEC<0.0719606] yes=9,no=10,missing=10
			9:[C_D_U_CATEGORY_CITY_MACRO_MAX_COEC<0.118279] yes=19,no=20,missing=20
				19:[DAY_OF_WEEK<6] yes=39,no=40,missing=40
					39:[TIME_OF_DAY<9] yes=79,no=80,missing=80
						79:[U_KW_LEN<126] yes=145,no=146,missing=146
							145:leaf=-0.00262314
							146:leaf=0.0138377
						80:[WORD_COUNT<1252] yes=147,no=148,missing=148
							147:leaf=-0.0161951
							148:leaf=-0.00482285
					40:[D_CATEGORY_MICRO_MEAN_COEC<0.0862041] yes=81,no=82,missing=82
						81:[C_D_U_CATEGORY_GENDER_MACRO_MAX_COEC<0.0842119] yes=149,no=150,missing=150
							149:leaf=-0.0147498
							150:leaf=-0.0496789
						82:[U_KW_LEN<74] yes=151,no=152,missing=152
							151:leaf=0.0340485
							152:leaf=-0.0131649
				20:[D_KEYWORD_MICRO_MEAN_COEC<0.0681471] yes=41,no=42,missing=42
					41:[U_KW_LEN<187] yes=83,no=84,missing=84
						83:[D_KEYWORD_MICRO_MEAN_COEC<0.0638557] yes=153,no=154,missing=154
							153:leaf=0.0125763
							154:leaf=-0.0531581
						84:[D_KEYWORD_MICRO_MAX_COEC<0.112623] yes=155,no=156,missing=156
							155:leaf=0.146905
							156:leaf=-0.138305
					42:[D_KEYWORD_MACRO_MEAN_COEC<0.0498248] yes=85,no=86,missing=86
						85:[C_D_U_PUBLISHER_CITY_COEC<0.0284268] yes=157,no=158,missing=158
							157:leaf=0.0307741
							158:leaf=-0.136531
						86:[D_KEYWORD_MACRO_MAX_COEC<0.0456909] yes=159,no=160,missing=160
							159:leaf=0.0391649
							160:leaf=-0.105536
			10:[U_AGE_2<0.999999] yes=21,no=22,missing=22
				21:[C_D_U_CATEGORY_GENDER_MACRO_MEAN_COEC<0.0641558] yes=43,no=44,missing=44
					43:[D_CATEGORY_MICRO_MAX_COEC<0.0639556] yes=87,no=88,missing=88
						87:[TIME_OF_DAY<18] yes=161,no=162,missing=162
							161:leaf=-0.00893973
							162:leaf=0.023789
						88:[U_KW_LEN<86] yes=163,no=164,missing=164
							163:leaf=-0.0361117
							164:leaf=-0.0115025
					44:[U_GENDER<2] yes=89,no=90,missing=90
						89:[D_CATEGORY_MICRO_MAX_COEC<0.0639556] yes=165,no=166,missing=166
							165:leaf=-0.0869786
							166:leaf=-0.0115276
						90:[D_CATEGORY_MACRO_MAX_COEC<0.0714233] yes=167,no=168,missing=168
							167:leaf=0.0073335
							168:leaf=-0.000612204
				22:[D_KEYWORD_MICRO_MAX_COEC<0.221582] yes=45,no=46,missing=46
					45:[IMAGE_COUNT<3] yes=91,no=92,missing=92
						91:[C_D_U_PUBLISHER_CITY_COEC<0.0851423] yes=169,no=170,missing=169
							169:leaf=-0.000525787
							170:leaf=0.00608802
						92:[D_CATEGORY_MICRO_MAX_COEC<0.0881289] yes=171,no=172,missing=172
							171:leaf=0.0219336
							172:leaf=0.00607687
					46:[C_D_U_CATEGORY_GENDER_MACRO_MAX_COEC<0.0399702] yes=93,no=94,missing=94
						93:leaf=-0.164731
						94:[D_PUBLISHER_COEC<0.143578] yes=173,no=174,missing=174
							173:leaf=0.0258545
							174:leaf=0.00488695
	2:[C_D_U_TITLEMD5_GENDER_COEC<0.0440935] yes=5,no=6,missing=6
		5:[CAT_REL<0.657531] yes=11,no=12,missing=12
			11:[U_CAT_LEN<8] yes=23,no=24,missing=24
				23:[C_D_U_TITLEMD5_CATEGORY_MACRO_MEAN_COEC<0.0233097] yes=47,no=48,missing=48
					47:[WORD_COUNT<3752] yes=95,no=96,missing=96
						95:[D_KEYWORD_MACRO_MEAN_COEC<0.0663409] yes=175,no=176,missing=176
							175:leaf=-0.0481551
							176:leaf=-0.0184261
						96:[KW_REL<0.0315394] yes=177,no=178,missing=178
							177:leaf=-0.0163536
							178:leaf=0.169646
					48:[D_CATEGORY_MACRO_MAX_COEC<0.0683763] yes=97,no=98,missing=98
						97:[D_KEYWORD_MICRO_MEAN_COEC<0.065777] yes=179,no=180,missing=180
							179:leaf=-0.0283521
							180:leaf=-0.0029525
						98:[C_D_U_TITLEMD5_CATEGORY_MACRO_MEAN_COEC<0.0554145] yes=181,no=182,missing=182
							181:leaf=-0.0212808
							182:leaf=-0.0361668
				24:[D_CATEGORY_MICRO_MAX_COEC<0.0638647] yes=49,no=50,missing=49
					49:[CAT_REL<0.040746] yes=99,no=100,missing=100
						99:[C_D_U_TITLEMD5_GENDER_COEC<0.0374232] yes=183,no=184,missing=184
							183:leaf=-0.0257246
							184:leaf=0.00837319
						100:[C_D_U_CATEGORY_AGE_MACRO_MAX_COEC<0.052336] yes=185,no=186,missing=186
							185:leaf=0.0280791
							186:leaf=-0.00435841
					50:[C_D_U_CATEGORY_CITY_MICRO_MAX_COEC<0.0621165] yes=101,no=102,missing=102
						101:[CAT_REL<0.131681] yes=187,no=188,missing=188
							187:leaf=-0.0539463
							188:leaf=-0.0255416
						102:[C_D_U_TITLEMD5_CATEGORY_MACRO_MEAN_COEC<0.0233097] yes=189,no=190,missing=190
							189:leaf=-0.0187336
							190:leaf=-0.0084816
			12:[C_D_U_CATEGORY_CITY_MICRO_MAX_COEC<0.081929] yes=25,no=26,missing=26
				25:[KW_REL<0.00894401] yes=51,no=52,missing=52
					51:[C_D_U_PUBLISHER_CITY_COEC<0.0843563] yes=103,no=104,missing=103
						103:[IMAGE_COUNT<3] yes=191,no=192,missing=192
							191:leaf=-0.0388908
							192:leaf=0.00551843
						104:[U_AGE_1<0.999999] yes=193,no=194,missing=194
							193:leaf=-0.00745324
							194:leaf=0.0976513
					52:[C_D_U_CATEGORY_AGE_MICRO_MEAN_COEC<0.0768837] yes=105,no=106,missing=106
						105:[CAT_REL<0.939768] yes=195,no=196,missing=196
							195:leaf=0.0151631
							196:leaf=0.0821573
						106:[D_PUBLISHER_COEC<0.0649144] yes=197,no=198,missing=198
							197:leaf=-0.0583264
							198:leaf=0.00234303
				26:[C_D_U_CATEGORY_AGE_MICRO_MEAN_COEC<0.105539] yes=53,no=54,missing=54
					53:[U_CAT_LEN<15] yes=107,no=108,missing=108
						107:[CAT_REL<0.778669] yes=199,no=200,missing=200
							199:leaf=-0.0046856
							200:leaf=0.0241808
						108:[U_GENDER<2] yes=201,no=202,missing=201
							201:leaf=0.0587709
							202:leaf=-0.00422705
					54:[C_D_U_CATEGORY_CITY_MICRO_MAX_COEC<0.11437] yes=109,no=110,missing=110
						109:[U_CAT_LEN<10] yes=203,no=204,missing=204
							203:leaf=0.0059827
							204:leaf=-0.0605438
						110:[D_PUBLISHER_COEC<0.0633068] yes=205,no=206,missing=206
							205:leaf=-0.0399152
							206:leaf=0.0972593
		6:[CAT_REL<0.360677] yes=13,no=14,missing=14
			13:[U_CAT_LEN<19] yes=27,no=28,missing=28
				27:[C_D_U_TITLEMD5_CATEGORY_MACRO_MEAN_COEC<0.103473] yes=55,no=56,missing=56
					55:[D_CATEGORY_MACRO_MAX_COEC<0.0926493] yes=111,no=112,missing=111
						111:[CAT_REL<0.085624] yes=207,no=208,missing=208
							207:leaf=-0.0098353
							208:leaf=-0.000953155
						112:[C_D_U_CATEGORY_AGE_MACRO_MAX_COEC<0.109478] yes=209,no=210,missing=210
							209:leaf=-0.0177999
							210:leaf=0.024147
					56:[D_TITLEMD5_COEC<0.117454] yes=113,no=114,missing=114
						113:[C_D_U_TITLEMD5_CATEGORY_MICRO_MAX_COEC<0.263455] yes=211,no=212,missing=212
							211:leaf=0.0135431
							212:leaf=-0.0275105
						114:[C_D_U_TITLEMD5_CATEGORY_MACRO_MEAN_COEC<0.137897] yes=213,no=214,missing=214
							213:leaf=-0.00444531
							214:leaf=0.0040817
				28:[U_GENDER<4] yes=57,no=58,missing=58
					57:[CAT_REL<0.131681] yes=115,no=116,missing=116
						115:[DAY_OF_WEEK<3] yes=215,no=216,missing=216
							215:leaf=0.0167012
							216:leaf=0.00230965
						116:[C_D_U_CATEGORY_CITY_MICRO_MEAN_COEC<0.052019] yes=217,no=218,missing=218
							217:leaf=-0.0148765
							218:leaf=0.0213525
					58:[U_CAT_LEN<29] yes=117,no=118,missing=118
						117:[TIME_OF_DAY<10] yes=219,no=220,missing=220
							219:leaf=-0.00223021
							220:leaf=0.0116305
						118:[D_TITLEMD5_COEC<0.130556] yes=221,no=222,missing=221
							221:leaf=-0.115676
							222:leaf=-0.226082
			14:[U_CAT_LEN<8] yes=29,no=30,missing=30
				29:[TIME_OF_DAY<17] yes=59,no=60,missing=60
					59:[CAT_REL<0.657531] yes=119,no=120,missing=120
						119:[D_CATEGORY_MACRO_MAX_COEC<0.0898593] yes=223,no=224,missing=224
							223:leaf=-0.00298563
							224:leaf=-0.0150236
						120:[C_D_U_CATEGORY_CITY_MICRO_MAX_COEC<0.0316427] yes=225,no=226,missing=226
							225:leaf=-0.0609873
							226:leaf=0.00542639
					60:[C_D_U_CATEGORY_CITY_MACRO_MAX_COEC<0.0491861] yes=121,no=122,missing=122
						121:[D_KEYWORD_MICRO_MEAN_COEC<0.0572181] yes=227,no=228,missing=228
							227:leaf=0.109701
							228:leaf=-0.0459671
						122:[DAY_OF_WEEK<0.999999] yes=229,no=230,missing=230
							229:leaf=-0.0073423
							230:leaf=0.0136646
				30:[WORD_COUNT<1282] yes=61,no=62,missing=62
					61:[IMAGE_COUNT<2] yes=123,no=124,missing=124
						123:[C_D_U_TITLEMD5_CATEGORY_MACRO_MEAN_COEC<0.175119] yes=231,no=232,missing=232
							231:leaf=-0.000388528
							232:leaf=0.0126824
						124:[CAT_REL<0.589722] yes=233,no=234,missing=234
							233:leaf=0.0125388
							234:leaf=0.0323673
					62:[C_D_U_CATEGORY_CITY_MICRO_MAX_COEC<0.0693128] yes=125,no=126,missing=126
						125:[C_D_U_TITLEMD5_CATEGORY_MACRO_MEAN_COEC<0.12722] yes=235,no=236,missing=236
							235:leaf=-0.000957801
							236:leaf=0.0195011
						126:[KW_REL<0.00577112] yes=237,no=238,missing=238
							237:leaf=0.0112711
							238:leaf=0.021356
booster[34]:
0:[U_KW_LEN<200] yes=1,no=2,missing=1
	1:[C_D_U_TITLEMD5_CATEGORY_MACRO_MEAN_COEC<0.110571] yes=3,no=4,missing=4
		3:[WORD_COUNT<2367] yes=7,no=8,missing=8
			7:[TIME_OF_DAY<12] yes=15,no=16,missing=16
				15:[KW_REL<0.000826456] yes=31,no=32,missing=32
					31:[DAY_OF_WEEK<3] yes=63,no=64,missing=64
						63:[C_D_U_CATEGORY_CITY_MACRO_MEAN_COEC<0.0744563] yes=127,no=128,missing=128
							127:leaf=-0.0260077
							128:leaf=-0.00937207
						64:[D_KEYWORD_MICRO_MAX_COEC<0.162954] yes=129,no=130,missing=130
							129:leaf=-0.00307855
							130:leaf=-0.0352559
					32:[C_D_U_PUBLISHER_CITY_COEC<0.0624971] yes=65,no=66,missing=65
						65:[KW_REL<0.00983249] yes=131,no=132,missing=132
							131:leaf=-0.0106916
							132:leaf=0.00889406
						66:[C_D_U_CATEGORY_GENDER_MACRO_MAX_COEC<0.0837167] yes=133,no=134,missing=133
							133:leaf=0.0122166
							134:leaf=-0.00273536
				16:[DAY_OF_WEEK<5] yes=33,no=34,missing=34
					33:[TIME_OF_DAY<18] yes=67,no=68,missing=68
						67:[DAY_OF_WEEK<4] yes=135,no=136,missing=136
							135:leaf=-0.011171
							136:leaf=-0.0308171
						68:[D_TITLEMD5_COEC<0.0849617] yes=137,no=138,missing=137
							137:leaf=0.0164595
							138:leaf=-0.00602213
					34:[DAY_OF_WEEK<6] yes=69,no=70,missing=70
						69:[U_CAT_LEN<7] yes=139,no=140,missing=140
							139:leaf=0.00451335
							140:leaf=0.0463505
						70:[D_KEYWORD_MICRO_MEAN_COEC<0.105796] yes=141,no=142,missing=142
							141:leaf=-0.0144714
							142:leaf=0.0176311
			8:[C_D_U_TITLEMD5_CATEGORY_MICRO_MAX_COEC<0.169575] yes=17,no=18,missing=18
				17:[C_D_U_PUBLISHER_GENDER_COEC<0.0450955] yes=35,no=36,missing=35
					35:[D_KEYWORD_MICRO_MAX_COEC<0.117166] yes=71,no=72,missing=72
						71:[U_KW_LEN<47] yes=143,no=144,missing=144
							143:leaf=-0.0359398
							144:leaf=-0.00109622
						72:[U_CAT_LEN<8] yes=145,no=146,missing=146
							145:leaf=-0.0510045
							146:leaf=0.0586569
					36:[CAT_REL<0.42857] yes=73,no=74,missing=74
						73:[U_CAT_LEN<7] yes=147,no=148,missing=148
							147:leaf=-0.000865515
							148:leaf=0.0131466
						74:[DAY_OF_WEEK<6] yes=149,no=150,missing=150
							149:leaf=0.0138728
							150:leaf=-0.0152826
				18:[U_KW_LEN<143] yes=37,no=38,missing=38
					37:[DAY_OF_WEEK<6] yes=75,no=76,missing=76
						75:[D_TITLEMD5_COEC<0.0535366] yes=151,no=152,missing=152
							151:leaf=-0.0896096
							152:leaf=-0.0184673
						76:[D_PUBLISHER_COEC<0.0883764] yes=153,no=154,missing=154
							153:leaf=-0.141071
							154:leaf=-0.0390896
					38:[KW_REL<0.000285932] yes=77,no=78,missing=78
						77:[TIME_OF_DAY<11] yes=155,no=156,missing=156
							155:leaf=-0.00692471
							156:leaf=-0.104009
						78:[C_D_U_TITLEMD5_CATEGORY_MACRO_MEAN_COEC<0.0580331] yes=157,no=158,missing=158
							157:leaf=0.0815374
							158:leaf=-0.00148166
		4:[U_KW_LEN<130] yes=9,no=10,missing=10
			9:[C_D_U_CATEGORY_CITY_MICRO_MAX_COEC<0.100362] yes=19,no=20,missing=20
				19:[U_AGE_2<0.999999] yes=39,no=40,missing=40
					39:[C_D_U_CATEGORY_GENDER_MACRO_MEAN_COEC<0.061587] yes=79,no=80,missing=80
						79:[DAY_OF_WEEK<3] yes=159,no=160,missing=160
							159:leaf=0.0139616
							160:leaf=-0.023955
						80:[C_D_U_CATEGORY_GENDER_MACRO_MAX_COEC<0.0845633] yes=161,no=162,missing=162
							161:leaf=8.4196e-05
							162:leaf=-0.00828156
					40:[D_CATEGORY_MACRO_MAX_COEC<0.0917875] yes=81,no=82,missing=82
						81:[D_TITLEMD5_COEC<0.0255453] yes=163,no=164,missing=163
							163:leaf=-0.0362703
							164:leaf=0.00558948
						82:[WORD_COUNT<1516] yes=165,no=166,missing=166
							165:leaf=-0.0191143
							166:leaf=0.0018169
				20:[WORD_COUNT<4262] yes=41,no=42,missing=42
					41:[C_D_U_PUBLISHER_CITY_COEC<0.136144] yes=83,no=84,missing=84
						83:[D_CATEGORY_MACRO_MEAN_COEC<0.104218] yes=167,no=168,missing=167
							167:leaf=0.0066264
							168:leaf=-0.00769326
						84:[TIME_OF_DAY<16] yes=169,no=170,missing=170
							169:leaf=0.00688774
							170:leaf=0.0244352
					42:[D_CATEGORY_MICRO_MEAN_COEC<0.0983745] yes=85,no=86,missing=85
						85:[C_D_U_TITLEMD5_GENDER_COEC<0.0809499] yes=171,no=172,missing=171
							171:leaf=-0.0752564
							172:leaf=-0.0115063
						86:[KW_REL<0.0182095] yes=173,no=174,missing=174
							173:leaf=0.0379421
							174:leaf=-0.101327
			10:[CAT_REL<0.499999] yes=21,no=22,missing=22
				21:[D_KEYWORD_MACRO_MAX_COEC<0.0100396] yes=43,no=44,missing=44
					43:[C_D_U_TITLEMD5_CATEGORY_MACRO_MEAN_COEC<0.23047] yes=87,no=88,missing=88
						87:[D_KEYWORD_MACRO_MEAN_COEC<0.0610217] yes=175,no=176,missing=176
							175:leaf=-0.167661
							176:leaf=0.0461687
						88:[D_TITLEMD5_COEC<0.226565] yes=177,no=178,missing=178
							177:leaf=0.12713
							178:leaf=-0.0849897
					44:[C_D_U_PUBLISHER_CITY_COEC<0.225467] yes=89,no=90,missing=89
						89:[U_KW_LEN<180] yes=179,no=180,missing=180
							179:leaf=0.0035729
							180:leaf=0.0122402
						90:[D_KEYWORD_MACRO_MEAN_COEC<0.0629407] yes=181,no=182,missing=182
							181:leaf=-0.182924
							182:leaf=0.0412233
				22:[D_KEYWORD_MACRO_MAX_COEC<0.0241749] yes=45,no=46,missing=46
					45:[C_D_U_CATEGORY_CITY_MACRO_MEAN_COEC<0.0514657] yes=91,no=92,missing=92
						91:[TIME_OF_DAY<7] yes=183,no=184,missing=184
							183:leaf=-0.262439
							184:leaf=-0.0458199
						92:[CAT_REL<0.999999] yes=185,no=186,missing=186
							185:leaf=0.00867835
							186:leaf=0.12004
					46:[KW_REL<0.00221842] yes=93,no=94,missing=94
						93:[C_D_U_TITLEMD5_CATEGORY_MICRO_MEAN_COEC<0.143677] yes=187,no=188,missing=188
							187:leaf=-0.00686696
							188:leaf=0.0226306
						94:[C_D_U_CATEGORY_GENDER_MACRO_MAX_COEC<0.064647] yes=189,no=190,missing=190
							189:leaf=-0.037503
							190:leaf=0.0385035
	2:[U_CAT_LEN<7] yes=5,no=6,missing=6
		5:[C_D_U_TITLEMD5_CATEGORY_MACRO_MAX_COEC<0.0541318] yes=11,no=12,missing=12
			11:[C_D_U_PUBLISHER_CITY_COEC<0.0408101] yes=23,no=24,missing=24
				23:[C_D_U_CATEGORY_CITY_MACRO_MEAN_COEC<0.0302387] yes=47,no=48,missing=47
					47:[C_D_U_TITLEMD5_CATEGORY_MACRO_MEAN_COEC<0.114934] yes=95,no=96,missing=96
						95:[WORD_COUNT<4544] yes=191,no=192,missing=192
							191:leaf=-0.0859228
							192:leaf=-0.00152157
						96:[WORD_COUNT<3520] yes=193,no=194,missing=194
							193:leaf=-0.0340025
							194:leaf=0.103781
					48:[D_CATEGORY_MICRO_MAX_COEC<0.0686788] yes=97,no=98,missing=98
						97:[U_CAT_LEN<5] yes=195,no=196,missing=196
							195:leaf=0.0395307
							196:leaf=-0.0188561
						98:[TIME_OF_DAY<6] yes=197,no=198,missing=198
							197:leaf=-0.0634136
							198:leaf=-0.028003
				24:[DAY_OF_WEEK<2] yes=49,no=50,missing=50
					49:[U_CAT_LEN<6] yes=99,no=100,missing=100
						99:[TIME_OF_DAY<20] yes=199,no=200,missing=200
							199:leaf=-0.0353769
							200:leaf=0.0466059
						100:[C_D_U_TITLEMD5_CATEGORY_MICRO_MEAN_COEC<0.0619602] yes=201,no=202,missing=202
							201:leaf=-0.0371686
							202:leaf=-0.0132729
					50:[C_D_U_CATEGORY_CITY_MICRO_MEAN_COEC<0.204225] yes=101,no=102,missing=101
						101:[U_CAT_LEN<4] yes=203,no=204,missing=204
							203:leaf=0.0180943
							204:leaf=-0.0152635
						102:[U_GENDER<2] yes=205,no=206,missing=205
							205:leaf=0.0657999
							206:leaf=-0.0758937
			12:[CAT_REL<0.651256] yes=25,no=26,missing=26
				25:[C_D_U_TITLEMD5_GENDER_COEC<0.2785] yes=51,no=52,missing=52
					51:[C_D_U_TITLEMD5_CATEGORY_MICRO_MEAN_COEC<0.245239] yes=103,no=104,missing=104
						103:[WORD_COUNT<1420] yes=207,no=208,missing=208
							207:leaf=-0.0142464
							208:leaf=-0.00493707
						104:[D_KEYWORD_MACRO_MAX_COEC<0.0139217] yes=209,no=210,missing=210
							209:leaf=-0.0988497
							210:leaf=0.0174721
					52:[D_KEYWORD_MACRO_MEAN_COEC<0.113958] yes=105,no=106,missing=106
						105:[CAT_REL<0.188969] yes=211,no=212,missing=212
							211:leaf=-0.117865
							212:leaf=-0.049885
						106:[C_D_U_CATEGORY_AGE_MACRO_MAX_COEC<0.0958075] yes=213,no=214,missing=214
							213:leaf=-0.0245654
							214:leaf=0.0382037
				26:[DAY_OF_WEEK<2] yes=53,no=54,missing=54
					53:[D_CATEGORY_MACRO_MEAN_COEC<0.0701805] yes=107,no=108,missing=108
						107:[C_D_U_PUBLISHER_GENDER_COEC<0.0453065] yes=215,no=216,missing=216
							215:leaf=-0.20172
							216:leaf=0.0521129
						108:[U_AGE_2<0.999999] yes=217,no=218,missing=218
							217:leaf=-0.0289259
							218:leaf=0.000793713
					54:[C_D_U_CATEGORY_CITY_MACRO_MEAN_COEC<0.0644635] yes=109,no=110,missing=110
						109:[KW_REL<0.0148685] yes=219,no=220,missing=220
							219:leaf=-0.0325626
							220:leaf=0.018043
						110:[C_D_U_CATEGORY_AGE_MACRO_MAX_COEC<0.0918975] yes=221,no=222,missing=222
							221:leaf=0.0194758
							222:leaf=-0.000398879
		6:[C_D_U_PUBLISHER_GENDER_COEC<0.078013] yes=13,no=14,missing=14
			13:[CAT_REL<0.188969] yes=27,no=28,missing=28
				27:[CAT_REL<0.028374] yes=55,no=56,missing=56
					55:[IMAGE_COUNT<3] yes=111,no=112,missing=112
						111:[D_CATEGORY_MICRO_MAX_COEC<0.0608149] yes=223,no=224,missing=223
							223:leaf=-0.00964371
							224:leaf=-0.0294058
						112:[D_PUBLISHER_COEC<0.0310811] yes=225,no=226,missing=226
							225:leaf=-0.0409544
							226:leaf=0.0180712
					56:[C_D_U_CATEGORY_GENDER_MICRO_MEAN_COEC<0.0570292] yes=113,no=114,missing=114
						113:[C_D_U_CATEGORY_AGE_MACRO_MAX_COEC<0.0563837] yes=227,no=228,missing=228
							227:leaf=0.0227384
							228:leaf=-0.0115985
						114:[KW_REL<0.000415578] yes=229,no=230,missing=230
							229:leaf=-0.0184396
							230:leaf=-0.0063553
				28:[C_D_U_PUBLISHER_GENDER_COEC<0.0453065] yes=57,no=58,missing=58
					57:[C_D_U_CATEGORY_AGE_MICRO_MEAN_COEC<0.0576282] yes=115,no=116,missing=116
						115:[TIME_OF_DAY<11] yes=231,no=232,missing=232
							231:leaf=0.0392428
							232:leaf=0.00233973
						116:[D_PUBLISHER_COEC<0.0310811] yes=233,no=234,missing=234
							233:leaf=-0.0308845
							234:leaf=-0.0102751
					58:[C_D_U_CATEGORY_CITY_MICRO_MEAN_COEC<0.131386] yes=117,no=118,missing=118
						117:[C_D_U_TITLEMD5_GENDER_COEC<0.2785] yes=235,no=236,missing=235
							235:leaf=0.00137967
							236:leaf=-0.0245403
						118:[DAY_OF_WEEK<2] yes=237,no=238,missing=238
							237:leaf=0.0109544
							238:leaf=0.0308251
			14:[D_CATEGORY_MICRO_MEAN_COEC<0.0923832] yes=29,no=30,missing=29
				29:[CAT_REL<0.028374] yes=59,no=60,missing=60
					59:[D_CATEGORY_MICRO_MAX_COEC<0.0608149] yes=119,no=120,missing=119
						119:[C_D_U_TITLEMD5_AGE_COEC<0.0364563] yes=239,no=240,missing=240
							239:leaf=-0.0376593
							240:leaf=0.0169958
						120:[C_D_U_TITLEMD5_CATEGORY_MICRO_MAX_COEC<0.138429] yes=241,no=242,missing=242
							241:leaf=-0.0238881
							242:leaf=-0.00491204
					60:[C_D_U_CATEGORY_GENDER_MACRO_MEAN_COEC<0.0910707] yes=121,no=122,missing=122
						121:[D_CATEGORY_MACRO_MEAN_COEC<0.0646342] yes=243,no=244,missing=244
							243:leaf=0.0183689
							244:leaf=0.00485806
						122:[WORD_COUNT<995] yes=245,no=246,missing=246
							245:leaf=-0.00280474
							246:leaf=0.0230357
				30:[CAT_REL<0.457951] yes=61,no=62,missing=62
					61:[C_D_U_CATEGORY_CITY_MACRO_MEAN_COEC<0.106298] yes=123,no=124,missing=124
						123:[C_D_U_TITLEMD5_CATEGORY_MACRO_MEAN_COEC<0.173735] yes=247,no=248,missing=248
							247:leaf=-0.00977791
							248:leaf=0.00478381
						124:[C_D_U_CATEGORY_AGE_MICRO_MAX_COEC<0.109478] yes=249,no=250,missing=250
							249:leaf=0.00356462
							250:leaf=0.0173918
					62:[CAT_REL<0.916316] yes=125,no=126,missing=126
						125:[C_D_U_TITLEMD5_GENDER_COEC<0.157758] yes=251,no=252,missing=252
							251:leaf=0.0038867
							252:leaf=0.018141
						126:[D_TITLEMD5_COEC<0.0499904] yes=253,no=254,missing=254
							253:leaf=0.114249
							254:leaf=0.0494362
booster[35]:
0:[U_KW_LEN<200] yes=1,no=2,missing=1
	1:[IMAGE_COUNT<0.999999] yes=3,no=4,missing=4
		3:[C_D_U_TITLEMD5_CATEGORY_MICRO_MAX_COEC<0.207903] yes=7,no=8,missing=7
			7:[U_KW_LEN<17] yes=15,no=16,missing=16
				15:[C_D_U_TITLEMD5_GENDER_COEC<0.12169] yes=31,no=32,missing=31
					31:[C_D_U_TITLEMD5_CATEGORY_MACRO_MAX_COEC<0.0504786] yes=63,no=64,missing=64
						63:[C_D_U_CATEGORY_CITY_MACRO_MAX_COEC<0.0781777] yes=125,no=126,missing=125
							125:leaf=-0.119522
							126:leaf=-0.0497727
						64:[C_D_U_CATEGORY_CITY_MICRO_MAX_COEC<0.0745385] yes=127,no=128,missing=128
							127:leaf=0.0135368
							128:leaf=-0.0927764
					32:leaf=-0.181748
				16:[U_KW_LEN<18] yes=33,no=34,missing=34
					33:[C_D_U_CATEGORY_CITY_MACRO_MAX_COEC<0.0641338] yes=65,no=66,missing=66
						65:[C_D_U_PUBLISHER_CITY_COEC<0.0684477] yes=129,no=130,missing=130
							129:leaf=0.230637
							130:leaf=-0.119726
						66:[D_TITLEMD5_COEC<0.116591] yes=131,no=132,missing=131
							131:leaf=-0.100695
							132:leaf=0.110683
					34:[WORD_COUNT<584] yes=67,no=68,missing=68
						67:[D_TITLEMD5_COEC<0.0594816] yes=133,no=134,missing=133
							133:leaf=-0.122579
							134:leaf=-0.16893
						68:[D_KEYWORD_MICRO_MAX_COEC<0.222785] yes=135,no=136,missing=136
							135:leaf=-0.0326749
							136:leaf=0.153497
			8:[CAT_REL<0.333332] yes=17,no=18,missing=18
				17:[U_KW_LEN<193] yes=35,no=36,missing=36
					35:[TIME_OF_DAY<17] yes=69,no=70,missing=70
						69:[D_KEYWORD_MACRO_MEAN_COEC<0.070342] yes=137,no=138,missing=138
							137:leaf=-0.151224
							138:leaf=-0.191579
						70:[WORD_COUNT<799] yes=139,no=140,missing=140
							139:leaf=0.0417867
							140:leaf=-0.158261
					36:[C_D_U_TITLEMD5_CATEGORY_MACRO_MAX_COEC<0.21416] yes=71,no=72,missing=72
						71:leaf=-0.054035
						72:leaf=0.185125
				18:[D_KEYWORD_MICRO_MAX_COEC<0.127912] yes=37,no=38,missing=38
					37:[WORD_COUNT<5034] yes=73,no=74,missing=74
						73:[DAY_OF_WEEK<6] yes=141,no=142,missing=142
							141:leaf=-0.158786
							142:leaf=-0.0321046
						74:[C_D_U_TITLEMD5_GENDER_COEC<3.90951] yes=143,no=144,missing=144
							143:leaf=-0.0173921
							144:leaf=0.174481
					38:[D_PUBLISHER_COEC<0.0844542] yes=75,no=76,missing=76
						75:[CAT_REL<0.373983] yes=145,no=146,missing=146
							145:leaf=0.091727
							146:leaf=-0.163626
						76:[KW_REL<0.00152098] yes=147,no=148,missing=148
							147:leaf=0.131497
							148:leaf=-0.173981
		4:[TIME_OF_DAY<17] yes=9,no=10,missing=10
			9:[TIME_OF_DAY<13] yes=19,no=20,missing=20
				19:[IMAGE_COUNT<2] yes=39,no=40,missing=40
					39:[D_KEYWORD_MACRO_MEAN_COEC<0.0629903] yes=77,no=78,missing=78
						77:[KW_REL<0.00152098] yes=149,no=150,missing=150
							149:leaf=-0.0125562
							150:leaf=0.00250976
						78:[U_KW_LEN<185] yes=151,no=152,missing=152
							151:leaf=0.0012675
							152:leaf=0.0140457
					40:[D_PUBLISHER_COEC<0.110851] yes=79,no=80,missing=79
						79:[KW_REL<0.000635364] yes=153,no=154,missing=154
							153:leaf=0.00566926
							154:leaf=0.0177651
						80:[DAY_OF_WEEK<4] yes=155,no=156,missing=156
							155:leaf=-0.00762507
							156:leaf=0.0444918
				20:[DAY_OF_WEEK<5] yes=41,no=42,missing=42
					41:[DAY_OF_WEEK<4] yes=81,no=82,missing=82
						81:[U_CAT_LEN<0.999999] yes=157,no=158,missing=158
							157:leaf=0.00637052
							158:leaf=-0.00535498
						82:[D_KEYWORD_MACRO_MEAN_COEC<0.0629903] yes=159,no=160,missing=160
							159:leaf=-0.00549661
							160:leaf=-0.0314463
					42:[DAY_OF_WEEK<6] yes=83,no=84,missing=84
						83:[C_D_U_CATEGORY_GENDER_MICRO_MAX_COEC<0.0815714] yes=161,no=162,missing=161
							161:leaf=0.00279514
							162:leaf=0.0220298
						84:[U_AGE_1<0.999999] yes=163,no=164,missing=164
							163:leaf=-0.00178756
							164:leaf=-0.0350755
			10:[C_D_U_CATEGORY_CITY_MACRO_MAX_COEC<0.104253] yes=21,no=22,missing=21
				21:[CAT_REL<0.499999] yes=43,no=44,missing=44
					43:[DAY_OF_WEEK<4] yes=85,no=86,missing=86
						85:[C_D_U_CATEGORY_GENDER_MACRO_MEAN_COEC<0.0640459] yes=165,no=166,missing=166
							165:leaf=-0.0196379
							166:leaf=0.00177143
						86:[C_D_U_CATEGORY_GENDER_MACRO_MEAN_COEC<0.0945917] yes=167,no=168,missing=168
							167:leaf=0.003598
							168:leaf=0.0243306
					44:[D_CATEGORY_MICRO_MAX_COEC<0.104257] yes=87,no=88,missing=88
						87:[U_KW_LEN<131] yes=169,no=170,missing=170
							169:leaf=0.0103529
							170:leaf=0.0344489
						88:[C_D_U_TITLEMD5_CATEGORY_MICRO_MEAN_COEC<0.111753] yes=171,no=172,missing=172
							171:leaf=-0.174376
							172:leaf=-0.0140322
				22:[U_KW_LEN<41] yes=45,no=46,missing=46
					45:[C_D_U_TITLEMD5_CATEGORY_MACRO_MAX_COEC<0.092485] yes=89,no=90,missing=90
						89:[C_D_U_CATEGORY_GENDER_MICRO_MAX_COEC<0.118836] yes=173,no=174,missing=174
							173:leaf=-0.0656311
							174:leaf=0.0412918
						90:[C_D_U_TITLEMD5_GENDER_COEC<0.0887443] yes=175,no=176,missing=175
							175:leaf=-0.023957
							176:leaf=0.0206909
					46:[C_D_U_TITLEMD5_CATEGORY_MACRO_MAX_COEC<0.21416] yes=91,no=92,missing=92
						91:[D_KEYWORD_MICRO_MEAN_COEC<0.0817343] yes=177,no=178,missing=178
							177:leaf=0.00316392
							178:leaf=0.0330371
						92:[D_KEYWORD_MACRO_MEAN_COEC<0.0673839] yes=179,no=180,missing=180
							179:leaf=0.0740047
							180:leaf=-0.318204
	2:[C_D_U_TITLEMD5_CATEGORY_MACRO_MEAN_COEC<0.114695] yes=5,no=6,missing=6
		5:[C_D_U_CATEGORY_CITY_MACRO_MEAN_COEC<0.132161] yes=11,no=12,missing=12
			11:[WORD_COUNT<2959] yes=23,no=24,missing=24
				23:[IMAGE_COUNT<2] yes=47,no=48,missing=48
					47:[CAT_REL<0.035652] yes=93,no=94,missing=94
						93:[C_D_U_TITLEMD5_CATEGORY_MACRO_MAX_COEC<0.0508813] yes=181,no=182,missing=182
							181:leaf=-0.0138848
							182:leaf=-0.0357551
						94:[KW_REL<0.00511186] yes=183,no=184,missing=184
							183:leaf=-0.00679746
							184:leaf=0.000572239
					48:[D_CATEGORY_MICRO_MEAN_COEC<0.0937159] yes=95,no=96,missing=96
						95:[KW_REL<0.00155234] yes=185,no=186,missing=186
							185:leaf=0.0091609
							186:leaf=0.0258709
						96:[CAT_REL<0.441115] yes=187,no=188,missing=188
							187:leaf=-0.0219066
							188:leaf=0.0170127
				24:[D_KEYWORD_MACRO_MEAN_COEC<0.0511291] yes=49,no=50,missing=50
					49:[KW_REL<0.0041969] yes=97,no=98,missing=98
						97:[C_D_U_CATEGORY_AGE_MICRO_MEAN_COEC<0.087803] yes=189,no=190,missing=190
							189:leaf=-0.0149476
							190:leaf=-0.0422462
						98:[C_D_U_CATEGORY_AGE_MACRO_MEAN_COEC<0.0840301] yes=191,no=192,missing=192
							191:leaf=0.00924521
							192:leaf=-0.0422686
					50:[U_CAT_LEN<19] yes=99,no=100,missing=100
						99:[CAT_REL<0.371645] yes=193,no=194,missing=194
							193:leaf=0.0015867
							194:leaf=0.0113012
						100:[CAT_REL<0.150004] yes=195,no=196,missing=196
							195:leaf=0.00957085
							196:leaf=0.0207033
			12:[C_D_U_CATEGORY_CITY_MACRO_MEAN_COEC<0.196833] yes=25,no=26,missing=25
				25:[U_CAT_LEN<16] yes=51,no=52,missing=52
					51:[C_D_U_PUBLISHER_CITY_COEC<0.0257847] yes=101,no=102,missing=101
						101:[D_KEYWORD_MICRO_MAX_COEC<0.111099] yes=197,no=198,missing=198
							197:leaf=0.0129332
							198:leaf=-0.0128628
						102:[KW_REL<0.000539112] yes=199,no=200,missing=200
							199:leaf=-0.00470152
							200:leaf=0.0191875
					52:[C_D_U_TITLEMD5_CATEGORY_MICRO_MEAN_COEC<0.1511] yes=103,no=104,missing=104
						103:[CAT_REL<0.371645] yes=201,no=202,missing=202
							201:leaf=0.0317672
							202:leaf=0.0124798
						104:[C_D_U_TITLEMD5_CATEGORY_MACRO_MAX_COEC<0.045535] yes=203,no=204,missing=204
							203:leaf=-0.16824
							204:leaf=-0.0164422
				26:[D_CATEGORY_MACRO_MEAN_COEC<0.0771934] yes=53,no=54,missing=54
					53:[CAT_REL<0.118077] yes=105,no=106,missing=106
						105:[C_D_U_CATEGORY_GENDER_MICRO_MEAN_COEC<0.0812741] yes=205,no=206,missing=206
							205:leaf=0.0122239
							206:leaf=0.134894
						106:[CAT_REL<0.590004] yes=207,no=208,missing=208
							207:leaf=0.0579093
							208:leaf=-0.00955674
					54:[D_CATEGORY_MICRO_MAX_COEC<0.078023] yes=107,no=108,missing=108
						107:[C_D_U_CATEGORY_AGE_MACRO_MEAN_COEC<0.0760355] yes=209,no=210,missing=210
							209:leaf=0.0328238
							210:leaf=-0.0567245
						108:[D_CATEGORY_MICRO_MAX_COEC<0.0980076] yes=211,no=212,missing=212
							211:leaf=0.0292793
							212:leaf=0.00683235
		6:[U_CAT_LEN<14] yes=13,no=14,missing=14
			13:[D_TITLEMD5_COEC<0.12208] yes=27,no=28,missing=28
				27:[C_D_U_TITLEMD5_CATEGORY_MICRO_MEAN_COEC<0.110665] yes=55,no=56,missing=56
					55:[C_D_U_TITLEMD5_CATEGORY_MICRO_MEAN_COEC<0.0949883] yes=109,no=110,missing=110
						109:[C_D_U_PUBLISHER_AGE_COEC<0.0617595] yes=213,no=214,missing=214
							213:leaf=-0.0370753
							214:leaf=-0.0884198
						110:[C_D_U_CATEGORY_CITY_MICRO_MEAN_COEC<0.0765013] yes=215,no=216,missing=215
							215:leaf=-0.00348652
							216:leaf=-0.0423221
					56:[U_CAT_LEN<8] yes=111,no=112,missing=112
						111:[C_D_U_PUBLISHER_CITY_COEC<0.0534999] yes=217,no=218,missing=218
							217:leaf=-0.0157325
							218:leaf=0.00569545
						112:[WORD_COUNT<1963] yes=219,no=220,missing=220
							219:leaf=0.0111542
							220:leaf=0.0257207
				28:[C_D_U_TITLEMD5_CATEGORY_MACRO_MEAN_COEC<0.15175] yes=57,no=58,missing=58
					57:[D_TITLEMD5_COEC<0.153803] yes=113,no=114,missing=114
						113:[C_D_U_TITLEMD5_CATEGORY_MACRO_MEAN_COEC<0.129001] yes=221,no=222,missing=222
							221:leaf=-0.00487591
							222:leaf=0.00518327
						114:[C_D_U_TITLEMD5_CATEGORY_MACRO_MAX_COEC<0.0904486] yes=223,no=224,missing=224
							223:leaf=-0.0139243
							224:leaf=-0.0393694
					58:[D_TITLEMD5_COEC<0.166109] yes=115,no=116,missing=116
						115:[U_CAT_LEN<7] yes=225,no=226,missing=226
							225:leaf=0.000558339
							226:leaf=0.0165768
						116:[C_D_U_TITLEMD5_CATEGORY_MACRO_MEAN_COEC<0.210095] yes=227,no=228,missing=228
							227:leaf=-0.00214112
							228:leaf=0.011362
			14:[TIME_OF_DAY<14] yes=29,no=30,missing=30
				29:[C_D_U_TITLEMD5_CATEGORY_MICRO_MAX_COEC<0.451117] yes=59,no=60,missing=60
					59:[D_KEYWORD_MICRO_MEAN_COEC<0.127318] yes=117,no=118,missing=118
						117:[C_D_U_TITLEMD5_CATEGORY_MACRO_MEAN_COEC<0.15743] yes=229,no=230,missing=230
							229:leaf=0.00811676
							230:leaf=0.0196012
						118:[C_D_U_TITLEMD5_CATEGORY_MACRO_MEAN_COEC<0.168315] yes=231,no=232,missing=232
							231:leaf=-0.0132869
							232:leaf=0.0109386
					60:[WORD_COUNT<1836] yes=119,no=120,missing=120
						119:[D_KEYWORD_MICRO_MAX_COEC<0.235513] yes=233,no=234,missing=234
							233:leaf=-0.0170902
							234:leaf=-0.0678998
						120:[D_KEYWORD_MACRO_MEAN_COEC<0.135782] yes=235,no=236,missing=236
							235:leaf=0.00202787
							236:leaf=-0.108182
				30:[D_PUBLISHER_COEC<0.0598607] yes=61,no=62,missing=62
					61:[CAT_REL<0.056165] yes=121,no=122,missing=122
						121:[D_TITLEMD5_COEC<0.147965] yes=237,no=238,missing=238
							237:leaf=-0.0296854
							238:leaf=-0.165153
						122:[D_CATEGORY_MICRO_MEAN_COEC<0.0657676] yes=239,no=240,missing=240
							239:leaf=0.018603
							240:leaf=-0.0115338
					62:[D_KEYWORD_MICRO_MEAN_COEC<0.133135] yes=123,no=124,missing=124
						123:[WORD_COUNT<584] yes=241,no=242,missing=242
							241:leaf=-0.00360108
							242:leaf=0.0213142
						124:[D_PUBLISHER_COEC<0.0837572] yes=243,no=244,missing=244
							243:leaf=-0.0586429
							244:leaf=0.00847797
booster[36]:
0:[U_KW_LEN<200] yes=1,no=2,missing=1
	1:[IMAGE_COUNT<0.999999] yes=3,no=4,missing=4
		3:[C_D_U_CATEGORY_GENDER_MACRO_MEAN_COEC<0.0670871] yes=7,no=8,missing=7
			7:[D_PUBLISHER_COEC<0.110225] yes=15,no=16,missing=15
				15:[WORD_COUNT<6027] yes=31,no=32,missing=32
					31:[C_D_U_CATEGORY_GENDER_MACRO_MEAN_COEC<0.0513129] yes=63,no=64,missing=64
						63:[D_KEYWORD_MICRO_MEAN_COEC<0.0794052] yes=125,no=126,missing=126
							125:leaf=-0.0709439
							126:leaf=0.228972
						64:[C_D_U_TITLEMD5_CATEGORY_MICRO_MEAN_COEC<0.131045] yes=127,no=128,missing=128
							127:leaf=-0.0999861
							128:leaf=-0.0409486
					32:[KW_REL<0.00893408] yes=65,no=66,missing=66
						65:leaf=-0.154067
						66:[C_D_U_PUBLISHER_CITY_COEC<0.066551] yes=129,no=130,missing=130
							129:leaf=0.141385
							130:leaf=-0.0408417
				16:[DAY_OF_WEEK<5] yes=33,no=34,missing=34
					33:leaf=-0.130664
					34:[C_D_U_TITLEMD5_CATEGORY_MICRO_MAX_COEC<0.0831358] yes=67,no=68,missing=67
						67:[C_D_U_CATEGORY_CITY_MICRO_MAX_COEC<0.0683628] yes=131,no=132,missing=132
							131:leaf=0.140117
							132:leaf=0.33501
						68:leaf=-0.142998
			8:[C_D_U_TITLEMD5_CATEGORY_MACRO_MEAN_COEC<0.128254] yes=17,no=18,missing=18
				17:[C_D_U_PUBLISHER_GENDER_COEC<0.103065] yes=35,no=36,missing=36
					35:[WORD_COUNT<4328] yes=69,no=70,missing=70
						69:[U_KW_LEN<151] yes=133,no=134,missing=134
							133:leaf=-0.0211992
							134:leaf=0.0240573
						70:leaf=-0.138465
					36:[C_D_U_PUBLISHER_GENDER_COEC<0.125638] yes=71,no=72,missing=71
						71:[C_D_U_TITLEMD5_CATEGORY_MICRO_MEAN_COEC<0.158582] yes=135,no=136,missing=136
							135:leaf=-0.113411
							136:leaf=0.135549
						72:[C_D_U_PUBLISHER_CITY_COEC<0.116151] yes=137,no=138,missing=138
							137:leaf=0.158866
							138:leaf=-0.135027
				18:[C_D_U_TITLEMD5_CATEGORY_MICRO_MAX_COEC<0.154401] yes=37,no=38,missing=38
					37:[U_KW_LEN<129] yes=73,no=74,missing=74
						73:leaf=-0.186078
						74:leaf=-0.0785113
					38:[D_TITLEMD5_COEC<0.138073] yes=75,no=76,missing=76
						75:[C_D_U_TITLEMD5_GENDER_COEC<0.128907] yes=139,no=140,missing=139
							139:leaf=-0.0833322
							140:leaf=0.0751311
						76:[U_CAT_LEN<4] yes=141,no=142,missing=142
							141:leaf=-0.133744
							142:leaf=-0.0561424
		4:[TIME_OF_DAY<18] yes=9,no=10,missing=10
			9:[TIME_OF_DAY<13] yes=19,no=20,missing=20
				19:[D_KEYWORD_MACRO_MEAN_COEC<0.0602448] yes=39,no=40,missing=40
					39:[IMAGE_COUNT<3] yes=77,no=78,missing=78
						77:[C_D_U_TITLEMD5_GENDER_COEC<0.109682] yes=143,no=144,missing=143
							143:leaf=-0.00688014
							144:leaf=-0.0288545
						78:[D_KEYWORD_MICRO_MEAN_COEC<0.0728516] yes=145,no=146,missing=146
							145:leaf=0.0240313
							146:leaf=-0.0077012
					40:[CAT_REL<0.333332] yes=79,no=80,missing=80
						79:[D_KEYWORD_MICRO_MAX_COEC<0.0810957] yes=147,no=148,missing=148
							147:leaf=0.0295795
							148:leaf=0.000598435
						80:[KW_REL<0.00513529] yes=149,no=150,missing=150
							149:leaf=0.0042359
							150:leaf=0.0141828
				20:[DAY_OF_WEEK<5] yes=41,no=42,missing=42
					41:[TIME_OF_DAY<15] yes=81,no=82,missing=82
						81:[DAY_OF_WEEK<4] yes=151,no=152,missing=152
							151:leaf=-0.0063185
							152:leaf=-0.030117
						82:[C_D_U_TITLEMD5_CATEGORY_MICRO_MAX_COEC<0.116335] yes=153,no=154,missing=154
							153:leaf=-0.0113787
							154:leaf=0.000922887
					42:[DAY_OF_WEEK<6] yes=83,no=84,missing=84
						83:[C_D_U_CATEGORY_CITY_MICRO_MAX_COEC<0.082549] yes=155,no=156,missing=155
							155:leaf=0.00115757
							156:leaf=0.0202133
						84:[C_D_U_TITLEMD5_CATEGORY_MACRO_MAX_COEC<0.0237526] yes=157,no=158,missing=158
							157:leaf=-0.0308257
							158:leaf=0.000810808
			10:[DAY_OF_WEEK<5] yes=21,no=22,missing=22
				21:[D_CATEGORY_MICRO_MEAN_COEC<0.0655334] yes=43,no=44,missing=43
					43:[C_D_U_CATEGORY_CITY_MACRO_MAX_COEC<0.0702624] yes=85,no=86,missing=85
						85:[D_KEYWORD_MICRO_MEAN_COEC<0.0609518] yes=159,no=160,missing=160
							159:leaf=-0.0172927
							160:leaf=0.0226467
						86:[D_TITLEMD5_COEC<0.0652914] yes=161,no=162,missing=162
							161:leaf=0.126606
							162:leaf=0.0600628
					44:[C_D_U_CATEGORY_GENDER_MICRO_MEAN_COEC<0.0643345] yes=87,no=88,missing=88
						87:[D_KEYWORD_MACRO_MEAN_COEC<0.0923098] yes=163,no=164,missing=164
							163:leaf=-0.0614331
							164:leaf=0.0221872
						88:[CAT_REL<0.612308] yes=165,no=166,missing=166
							165:leaf=0.00824428
							166:leaf=0.0305673
				22:[U_CAT_LEN<4] yes=45,no=46,missing=46
					45:[C_D_U_CATEGORY_GENDER_MACRO_MEAN_COEC<0.0944108] yes=89,no=90,missing=89
						89:[C_D_U_CATEGORY_GENDER_MACRO_MAX_COEC<0.084085] yes=167,no=168,missing=168
							167:leaf=-0.0102495
							168:leaf=-0.0453295
						90:[U_KW_LEN<53] yes=169,no=170,missing=170
							169:leaf=0.0275599
							170:leaf=-0.0224063
					46:[C_D_U_CATEGORY_CITY_MICRO_MAX_COEC<0.0176647] yes=91,no=92,missing=91
						91:[D_KEYWORD_MICRO_MAX_COEC<0.221111] yes=171,no=172,missing=172
							171:leaf=-0.153143
							172:leaf=0.0808664
						92:[U_KW_LEN<108] yes=173,no=174,missing=174
							173:leaf=0.0308109
							174:leaf=0.00455816
	2:[IMAGE_COUNT<0.999999] yes=5,no=6,missing=6
		5:[KW_REL<0.016905] yes=11,no=12,missing=12
			11:[C_D_U_TITLEMD5_GENDER_COEC<0.183042] yes=23,no=24,missing=23
				23:[D_KEYWORD_MACRO_MEAN_COEC<0.0777842] yes=47,no=48,missing=48
					47:[D_KEYWORD_MICRO_MAX_COEC<0.234394] yes=93,no=94,missing=94
						93:[KW_REL<0.00921373] yes=175,no=176,missing=176
							175:leaf=-0.0538
							176:leaf=-0.0267972
						94:[D_KEYWORD_MICRO_MEAN_COEC<0.0774871] yes=177,no=178,missing=178
							177:leaf=-0.16245
							178:leaf=0.271049
					48:[DAY_OF_WEEK<6] yes=95,no=96,missing=96
						95:[KW_REL<0.00733177] yes=179,no=180,missing=180
							179:leaf=-0.0178601
							180:leaf=0.0218746
						96:[C_D_U_PUBLISHER_CITY_COEC<0.0511039] yes=181,no=182,missing=182
							181:leaf=-0.137749
							182:leaf=-0.0480441
				24:[KW_REL<0.00733177] yes=49,no=50,missing=50
					49:[C_D_U_CATEGORY_AGE_MICRO_MEAN_COEC<0.0643575] yes=97,no=98,missing=98
						97:[CAT_REL<0.144192] yes=183,no=184,missing=184
							183:leaf=-0.234081
							184:leaf=-0.0448815
						98:[C_D_U_TITLEMD5_CATEGORY_MICRO_MAX_COEC<0.17123] yes=185,no=186,missing=186
							185:leaf=-0.0663368
							186:leaf=-0.152617
					50:[C_D_U_TITLEMD5_CATEGORY_MACRO_MEAN_COEC<0.194329] yes=99,no=100,missing=100
						99:[D_KEYWORD_MICRO_MAX_COEC<0.0897204] yes=187,no=188,missing=188
							187:leaf=-0.0214671
							188:leaf=-0.112518
						100:[D_KEYWORD_MACRO_MEAN_COEC<0.0704578] yes=189,no=190,missing=190
							189:leaf=-0.0574653
							190:leaf=0.0428631
			12:[D_KEYWORD_MACRO_MEAN_COEC<0.065661] yes=25,no=26,missing=26
				25:[D_TITLEMD5_COEC<0.119825] yes=51,no=52,missing=52
					51:[WORD_COUNT<1115] yes=101,no=102,missing=102
						101:[C_D_U_TITLEMD5_CATEGORY_MACRO_MAX_COEC<0.0227229] yes=191,no=192,missing=192
							191:leaf=-0.000227885
							192:leaf=-0.116466
						102:[C_D_U_CATEGORY_AGE_MACRO_MAX_COEC<0.0708136] yes=193,no=194,missing=194
							193:leaf=0.0214481
							194:leaf=-0.0152372
					52:[C_D_U_TITLEMD5_CATEGORY_MACRO_MAX_COEC<0.17244] yes=103,no=104,missing=104
						103:[C_D_U_CATEGORY_AGE_MICRO_MEAN_COEC<0.065827] yes=195,no=196,missing=196
							195:leaf=-0.0288567
							196:leaf=-0.102866
						104:[C_D_U_CATEGORY_GENDER_MACRO_MEAN_COEC<0.0644532] yes=197,no=198,missing=198
							197:leaf=-0.0761915
							198:leaf=0.0807197
				26:[CAT_REL<0.049468] yes=53,no=54,missing=54
					53:[D_KEYWORD_MACRO_MEAN_COEC<0.0682018] yes=105,no=106,missing=106
						105:[C_D_U_TITLEMD5_CATEGORY_MACRO_MAX_COEC<0.0339626] yes=199,no=200,missing=200
							199:leaf=0.0706505
							200:leaf=-0.0990612
						106:leaf=-0.15597
					54:[D_KEYWORD_MICRO_MEAN_COEC<0.0672893] yes=107,no=108,missing=108
						107:[D_CATEGORY_MACRO_MAX_COEC<0.0706448] yes=201,no=202,missing=202
							201:leaf=0.068996
							202:leaf=-0.163445
						108:[C_D_U_TITLEMD5_CATEGORY_MICRO_MAX_COEC<0.190162] yes=203,no=204,missing=204
							203:leaf=0.0239157
							204:leaf=-0.0501581
		6:[U_CAT_LEN<17] yes=13,no=14,missing=14
			13:[TIME_OF_DAY<17] yes=27,no=28,missing=28
				27:[CAT_REL<0.360162] yes=55,no=56,missing=56
					55:[C_D_U_PUBLISHER_AGE_COEC<0.0921463] yes=109,no=110,missing=110
						109:[C_D_U_TITLEMD5_GENDER_COEC<0.0254566] yes=205,no=206,missing=205
							205:leaf=-0.0189795
							206:leaf=-0.00568738
						110:[D_CATEGORY_MACRO_MAX_COEC<0.0820031] yes=207,no=208,missing=207
							207:leaf=0.00571853
							208:leaf=-0.00521984
					56:[U_CAT_LEN<8] yes=111,no=112,missing=112
						111:[C_D_U_PUBLISHER_CITY_COEC<0.0898011] yes=209,no=210,missing=209
							209:leaf=-0.00779006
							210:leaf=0.001605
						112:[WORD_COUNT<952] yes=211,no=212,missing=212
							211:leaf=-0.00324245
							212:leaf=0.00638707
				28:[C_D_U_TITLEMD5_CATEGORY_MACRO_MEAN_COEC<0.0703346] yes=57,no=58,missing=58
					57:[WORD_COUNT<2833] yes=113,no=114,missing=114
						113:[D_KEYWORD_MICRO_MEAN_COEC<0.163567] yes=213,no=214,missing=214
							213:leaf=-0.00685037
							214:leaf=0.13317
						114:[KW_REL<0.0317857] yes=215,no=216,missing=216
							215:leaf=0.00308392
							216:leaf=0.0702946
					58:[D_CATEGORY_MICRO_MAX_COEC<0.091182] yes=115,no=116,missing=115
						115:[CAT_REL<0.144192] yes=217,no=218,missing=218
							217:leaf=0.00495479
							218:leaf=0.0150125
						116:[C_D_U_CATEGORY_GENDER_MICRO_MAX_COEC<0.10286] yes=219,no=220,missing=220
							219:leaf=-0.000244049
							220:leaf=0.0187711
			14:[C_D_U_TITLEMD5_CATEGORY_MACRO_MEAN_COEC<0.110604] yes=29,no=30,missing=30
				29:[C_D_U_CATEGORY_CITY_MICRO_MEAN_COEC<0.132333] yes=59,no=60,missing=60
					59:[D_TITLEMD5_COEC<0.119825] yes=117,no=118,missing=117
						117:[C_D_U_TITLEMD5_CATEGORY_MACRO_MEAN_COEC<0.0852674] yes=221,no=222,missing=222
							221:leaf=0.00254381
							222:leaf=0.0120214
						118:[CAT_REL<0.226101] yes=223,no=224,missing=224
							223:leaf=-0.0138188
							224:leaf=0.00351407
					60:[C_D_U_CATEGORY_AGE_MACRO_MEAN_COEC<0.0795958] yes=119,no=120,missing=119
						119:[D_KEYWORD_MICRO_MEAN_COEC<0.0791101] yes=225,no=226,missing=226
							225:leaf=0.0303701
							226:leaf=0.0647749
						120:[D_PUBLISHER_COEC<0.0734804] yes=227,no=228,missing=228
							227:leaf=0.00242579
							228:leaf=0.0284507
				30:[D_TITLEMD5_COEC<0.136028] yes=61,no=62,missing=62
					61:[C_D_U_TITLEMD5_AGE_COEC<0.19971] yes=121,no=122,missing=121
						121:[C_D_U_CATEGORY_AGE_MICRO_MEAN_COEC<0.0988495] yes=229,no=230,missing=229
							229:leaf=0.0259053
							230:leaf=0.0087785
						122:[WORD_COUNT<2833] yes=231,no=232,missing=232
							231:leaf=-0.0289964
							232:leaf=-0.112547
					62:[C_D_U_TITLEMD5_CATEGORY_MACRO_MEAN_COEC<0.13443] yes=123,no=124,missing=124
						123:[D_TITLEMD5_COEC<0.151374] yes=233,no=234,missing=234
							233:leaf=0.00666559
							234:leaf=-0.0184878
						124:[D_TITLEMD5_COEC<0.164947] yes=235,no=236,missing=236
							235:leaf=0.0239966
							236:leaf=0.0109478
booster[37]:
0:[U_KW_LEN<200] yes=1,no=2,missing=1
	1:[C_D_U_PUBLISHER_CITY_COEC<0.142662] yes=3,no=4,missing=3
		3:[WORD_COUNT<3012] yes=7,no=8,missing=8
			7:[C_D_U_CATEGORY_CITY_MACRO_MEAN_COEC<0.0410627] yes=15,no=16,missing=16
				15:[D_KEYWORD_MACRO_MEAN_COEC<0.0619647] yes=31,no=32,missing=32
					31:[C_D_U_PUBLISHER_CITY_COEC<0.136451] yes=63,no=64,missing=64
						63:[U_CAT_LEN<4] yes=127,no=128,missing=128
							127:leaf=-0.030111
							128:leaf=-0.00479901
						64:[C_D_U_TITLEMD5_CATEGORY_MICRO_MEAN_COEC<0.0908824] yes=129,no=130,missing=129
							129:leaf=-0.0751258
							130:leaf=0.00431042
					32:[D_KEYWORD_MICRO_MEAN_COEC<0.0639613] yes=65,no=66,missing=66
						65:[C_D_U_CATEGORY_CITY_MICRO_MEAN_COEC<0.0255466] yes=131,no=132,missing=132
							131:leaf=-0.167195
							132:leaf=-0.0294939
						66:[D_KEYWORD_MACRO_MAX_COEC<0.0240005] yes=133,no=134,missing=134
							133:leaf=0.00318906
							134:leaf=-0.0128485
				16:[IMAGE_COUNT<2] yes=33,no=34,missing=34
					33:[D_KEYWORD_MICRO_MAX_COEC<0.221687] yes=67,no=68,missing=68
						67:[D_CATEGORY_MACRO_MEAN_COEC<0.0916123] yes=135,no=136,missing=135
							135:leaf=-0.00123078
							136:leaf=-0.00744375
						68:[D_KEYWORD_MICRO_MEAN_COEC<0.076093] yes=137,no=138,missing=138
							137:leaf=-0.0274636
							138:leaf=0.014669
					34:[D_PUBLISHER_COEC<0.11108] yes=69,no=70,missing=69
						69:[TIME_OF_DAY<10] yes=139,no=140,missing=140
							139:leaf=0.0130585
							140:leaf=-0.000457047
						70:[DAY_OF_WEEK<4] yes=141,no=142,missing=142
							141:leaf=0.00315627
							142:leaf=0.0398331
			8:[D_CATEGORY_MICRO_MEAN_COEC<0.0984295] yes=17,no=18,missing=17
				17:[CAT_REL<0.270715] yes=35,no=36,missing=36
					35:[TIME_OF_DAY<0.999999] yes=71,no=72,missing=72
						71:[D_KEYWORD_MICRO_MAX_COEC<0.0792231] yes=143,no=144,missing=144
							143:leaf=-0.0748682
							144:leaf=0.0376936
						72:[WORD_COUNT<3398] yes=145,no=146,missing=146
							145:leaf=0.0073134
							146:leaf=-0.00254852
					36:[U_KW_LEN<47] yes=73,no=74,missing=74
						73:[C_D_U_TITLEMD5_CATEGORY_MICRO_MEAN_COEC<0.141829] yes=147,no=148,missing=148
							147:leaf=0.00199882
							148:leaf=-0.0340503
						74:[D_CATEGORY_MICRO_MEAN_COEC<0.0605625] yes=149,no=150,missing=150
							149:leaf=0.0548999
							150:leaf=0.0112058
				18:[DAY_OF_WEEK<4] yes=37,no=38,missing=38
					37:[D_PUBLISHER_COEC<0.100158] yes=75,no=76,missing=76
						75:[CAT_REL<0.199999] yes=151,no=152,missing=152
							151:leaf=-0.031344
							152:leaf=0.00503862
						76:[D_KEYWORD_MACRO_MAX_COEC<0.0222424] yes=153,no=154,missing=154
							153:leaf=-0.00627926
							154:leaf=0.0309322
					38:[C_D_U_TITLEMD5_GENDER_COEC<0.0636888] yes=77,no=78,missing=78
						77:[D_KEYWORD_MACRO_MEAN_COEC<0.0657088] yes=155,no=156,missing=156
							155:leaf=-0.0324421
							156:leaf=-0.160357
						78:[D_PUBLISHER_COEC<0.0766228] yes=157,no=158,missing=158
							157:leaf=-0.128789
							158:leaf=0.0350299
		4:[DAY_OF_WEEK<4] yes=9,no=10,missing=10
			9:[C_D_U_CATEGORY_GENDER_MACRO_MEAN_COEC<0.0968059] yes=19,no=20,missing=19
				19:[WORD_COUNT<8043] yes=39,no=40,missing=40
					39:[CAT_REL<0.391484] yes=79,no=80,missing=80
						79:[D_KEYWORD_MACRO_MEAN_COEC<0.0352887] yes=159,no=160,missing=160
							159:leaf=0.151915
							160:leaf=0.0159078
						80:[C_D_U_TITLEMD5_CATEGORY_MICRO_MEAN_COEC<0.0774325] yes=161,no=162,missing=162
							161:leaf=0.0715591
							162:leaf=0.0288936
					40:[D_KEYWORD_MICRO_MAX_COEC<0.107835] yes=81,no=82,missing=82
						81:[U_GENDER<2] yes=163,no=164,missing=164
							163:leaf=0.0777821
							164:leaf=-0.165663
						82:leaf=-0.202875
				20:[C_D_U_CATEGORY_GENDER_MICRO_MAX_COEC<0.100288] yes=41,no=42,missing=42
					41:[CAT_REL<0.506493] yes=83,no=84,missing=84
						83:[D_KEYWORD_MICRO_MAX_COEC<0.163056] yes=165,no=166,missing=166
							165:leaf=0.00817378
							166:leaf=-0.0206509
						84:[D_CATEGORY_MICRO_MAX_COEC<0.102559] yes=167,no=168,missing=168
							167:leaf=0.0511094
							168:leaf=-0.142991
					42:[U_KW_LEN<17] yes=85,no=86,missing=86
						85:[C_D_U_TITLEMD5_CATEGORY_MACRO_MEAN_COEC<0.15707] yes=169,no=170,missing=170
							169:leaf=0.0739962
							170:leaf=0.0208
						86:[TIME_OF_DAY<21] yes=171,no=172,missing=172
							171:leaf=0.00266966
							172:leaf=-0.114972
			10:[D_KEYWORD_MICRO_MAX_COEC<0.0816578] yes=21,no=22,missing=22
				21:[D_KEYWORD_MICRO_MEAN_COEC<0.0710186] yes=43,no=44,missing=44
					43:[C_D_U_PUBLISHER_GENDER_COEC<0.145863] yes=87,no=88,missing=88
						87:[U_KW_LEN<138] yes=173,no=174,missing=174
							173:leaf=-0.0980009
							174:leaf=0.00138412
						88:[D_KEYWORD_MACRO_MEAN_COEC<0.0469877] yes=175,no=176,missing=176
							175:leaf=0.261825
							176:leaf=0.0898127
					44:[WORD_COUNT<2072] yes=89,no=90,missing=90
						89:[D_CATEGORY_MACRO_MAX_COEC<0.0624525] yes=177,no=178,missing=178
							177:leaf=0.252686
							178:leaf=0.0133464
						90:[C_D_U_TITLEMD5_GENDER_COEC<0.0774517] yes=179,no=180,missing=179
							179:leaf=-0.138006
							180:leaf=0.0505823
				22:[D_PUBLISHER_COEC<0.151743] yes=45,no=46,missing=46
					45:[C_D_U_CATEGORY_GENDER_MICRO_MAX_COEC<0.0990855] yes=91,no=92,missing=91
						91:[D_CATEGORY_MICRO_MAX_COEC<0.0877045] yes=181,no=182,missing=182
							181:leaf=0.00964015
							182:leaf=-0.0093715
						92:[U_KW_LEN<77] yes=183,no=184,missing=184
							183:leaf=0.0579739
							184:leaf=-0.0232026
					46:[D_CATEGORY_MACRO_MAX_COEC<0.0975195] yes=93,no=94,missing=94
						93:[C_D_U_TITLEMD5_CATEGORY_MACRO_MAX_COEC<0.0612433] yes=185,no=186,missing=186
							185:leaf=-0.0553523
							186:leaf=-0.00217308
						94:[C_D_U_TITLEMD5_CATEGORY_MACRO_MEAN_COEC<0.212773] yes=187,no=188,missing=188
							187:leaf=-0.314899
							188:leaf=-0.105687
	2:[D_KEYWORD_MACRO_MEAN_COEC<0.0580281] yes=5,no=6,missing=6
		5:[C_D_U_TITLEMD5_GENDER_COEC<0.123923] yes=11,no=12,missing=11
			11:[D_TITLEMD5_COEC<0.0260678] yes=23,no=24,missing=24
				23:[C_D_U_CATEGORY_AGE_MICRO_MEAN_COEC<0.0682687] yes=47,no=48,missing=47
					47:[CAT_REL<0.078196] yes=95,no=96,missing=96
						95:[D_CATEGORY_MACRO_MEAN_COEC<0.0691501] yes=189,no=190,missing=189
							189:leaf=-0.0299899
							190:leaf=0.168164
						96:[C_D_U_CATEGORY_AGE_MICRO_MAX_COEC<0.0577828] yes=191,no=192,missing=192
							191:leaf=0.0201558
							192:leaf=-0.00917945
					48:[TIME_OF_DAY<20] yes=97,no=98,missing=98
						97:[IMAGE_COUNT<3] yes=193,no=194,missing=194
							193:leaf=-0.0304599
							194:leaf=0.000555083
						98:[C_D_U_CATEGORY_CITY_MICRO_MAX_COEC<0.10055] yes=195,no=196,missing=196
							195:leaf=0.00342661
							196:leaf=0.129102
				24:[D_CATEGORY_MACRO_MAX_COEC<0.0537869] yes=49,no=50,missing=50
					49:[CAT_REL<0.0280699] yes=99,no=100,missing=100
						99:[D_KEYWORD_MACRO_MEAN_COEC<0.0384411] yes=197,no=198,missing=198
							197:leaf=-0.0556672
							198:leaf=-0.00787896
						100:[C_D_U_CATEGORY_AGE_MICRO_MEAN_COEC<0.0579222] yes=199,no=200,missing=200
							199:leaf=0.0293797
							200:leaf=0.00257831
					50:[CAT_REL<0.270151] yes=101,no=102,missing=102
						101:[D_TITLEMD5_COEC<0.0764584] yes=201,no=202,missing=201
							201:leaf=-0.00690849
							202:leaf=-0.0225985
						102:[C_D_U_CATEGORY_CITY_MACRO_MEAN_COEC<0.0682421] yes=203,no=204,missing=204
							203:leaf=-0.00885666
							204:leaf=0.00378096
			12:[D_CATEGORY_MICRO_MEAN_COEC<0.0644222] yes=25,no=26,missing=25
				25:[TIME_OF_DAY<18] yes=51,no=52,missing=52
					51:[KW_REL<0.0045208] yes=103,no=104,missing=104
						103:[CAT_REL<0.048557] yes=205,no=206,missing=206
							205:leaf=-0.0657664
							206:leaf=-0.0267702
						104:[U_CAT_LEN<12] yes=207,no=208,missing=208
							207:leaf=-0.0287318
							208:leaf=0.0103652
					52:[C_D_U_TITLEMD5_AGE_COEC<0.11449] yes=105,no=106,missing=105
						105:[C_D_U_TITLEMD5_CATEGORY_MACRO_MAX_COEC<0.0375845] yes=209,no=210,missing=210
							209:leaf=-0.124223
							210:leaf=-0.0217598
						106:[C_D_U_TITLEMD5_CATEGORY_MACRO_MEAN_COEC<0.156442] yes=211,no=212,missing=212
							211:leaf=0.013538
							212:leaf=0.052876
				26:[D_KEYWORD_MACRO_MEAN_COEC<0.050946] yes=53,no=54,missing=54
					53:[CAT_REL<0.18765] yes=107,no=108,missing=108
						107:[U_CAT_LEN<18] yes=213,no=214,missing=214
							213:leaf=-0.102991
							214:leaf=-0.0290971
						108:[WORD_COUNT<4462] yes=215,no=216,missing=216
							215:leaf=-0.0534464
							216:leaf=-0.00956193
					54:[CAT_REL<0.145112] yes=109,no=110,missing=110
						109:[C_D_U_CATEGORY_GENDER_MACRO_MAX_COEC<0.0880078] yes=217,no=218,missing=218
							217:leaf=-0.0573036
							218:leaf=0.0309482
						110:[D_CATEGORY_MICRO_MEAN_COEC<0.0785969] yes=219,no=220,missing=220
							219:leaf=-0.0198089
							220:leaf=-0.0433241
		6:[TIME_OF_DAY<17] yes=13,no=14,missing=14
			13:[WORD_COUNT<2325] yes=27,no=28,missing=28
				27:[CAT_REL<0.169708] yes=55,no=56,missing=56
					55:[D_CATEGORY_MACRO_MEAN_COEC<0.059096] yes=111,no=112,missing=111
						111:[D_KEYWORD_MICRO_MEAN_COEC<0.0636589] yes=221,no=222,missing=222
							221:leaf=-0.0299351
							222:leaf=0.0176699
						112:[C_D_U_PUBLISHER_AGE_COEC<0.0855185] yes=223,no=224,missing=224
							223:leaf=-0.013933
							224:leaf=-0.00533499
					56:[D_CATEGORY_MACRO_MEAN_COEC<0.0964936] yes=113,no=114,missing=114
						113:[U_CAT_LEN<11] yes=225,no=226,missing=226
							225:leaf=-0.00184532
							226:leaf=0.00499363
						114:[CAT_REL<0.555878] yes=227,no=228,missing=228
							227:leaf=-0.00766816
							228:leaf=0.0067016
				28:[CAT_REL<0.019922] yes=57,no=58,missing=58
					57:[KW_REL<0.00280474] yes=115,no=116,missing=116
						115:[D_TITLEMD5_COEC<0.161529] yes=229,no=230,missing=229
							229:leaf=-0.011443
							230:leaf=-0.0299847
						116:[C_D_U_PUBLISHER_AGE_COEC<0.143474] yes=231,no=232,missing=231
							231:leaf=-0.0073259
							232:leaf=0.044322
					58:[U_CAT_LEN<13] yes=117,no=118,missing=118
						117:[C_D_U_TITLEMD5_CATEGORY_MACRO_MEAN_COEC<0.110849] yes=233,no=234,missing=234
							233:leaf=-0.00110516
							234:leaf=0.00717104
						118:[C_D_U_PUBLISHER_CITY_COEC<0.0872955] yes=235,no=236,missing=236
							235:leaf=0.00601921
							236:leaf=0.0133943
			14:[C_D_U_TITLEMD5_CATEGORY_MACRO_MEAN_COEC<0.0865294] yes=29,no=30,missing=30
				29:[D_CATEGORY_MICRO_MAX_COEC<0.078158] yes=59,no=60,missing=59
					59:[C_D_U_CATEGORY_GENDER_MICRO_MEAN_COEC<0.074836] yes=119,no=120,missing=120
						119:[C_D_U_CATEGORY_AGE_MACRO_MEAN_COEC<0.0696829] yes=237,no=238,missing=238
							237:leaf=0.00825502
							238:leaf=-0.00363207
						120:[C_D_U_TITLEMD5_CATEGORY_MICRO_MAX_COEC<0.0864389] yes=239,no=240,missing=240
							239:leaf=0.00192391
							240:leaf=0.0233943
					60:[C_D_U_CATEGORY_CITY_MICRO_MAX_COEC<0.0778058] yes=121,no=122,missing=122
						121:[D_CATEGORY_MACRO_MEAN_COEC<0.0975857] yes=241,no=242,missing=242
							241:leaf=-0.0250204
							242:leaf=-0.0921749
						122:[CAT_REL<0.757785] yes=243,no=244,missing=244
							243:leaf=-0.00231071
							244:leaf=0.0321223
				30:[WORD_COUNT<1219] yes=61,no=62,missing=62
					61:[CAT_REL<0.254058] yes=123,no=124,missing=124
						123:[D_CATEGORY_MICRO_MAX_COEC<0.0674693] yes=245,no=246,missing=246
							245:leaf=0.0163799
							246:leaf=-0.0045124
						124:[D_CATEGORY_MICRO_MAX_COEC<0.0919765] yes=247,no=248,missing=248
							247:leaf=0.0176037
							248:leaf=0.0034703
					62:[CAT_REL<0.038098] yes=125,no=126,missing=126
						125:[DAY_OF_WEEK<5] yes=249,no=250,missing=250
							249:leaf=0.00649864
							250:leaf=-0.0158765
						126:[D_CATEGORY_MACRO_MAX_COEC<0.0912859] yes=251,no=252,missing=252
							251:leaf=0.0175907
							252:leaf=0.00891379
booster[38]:
0:[U_KW_LEN<200] yes=1,no=2,missing=1
	1:[C_D_U_TITLEMD5_CATEGORY_MACRO_MEAN_COEC<0.119109] yes=3,no=4,missing=4
		3:[U_GENDER<2] yes=7,no=8,missing=7
			7:[U_KW_LEN<39] yes=15,no=16,missing=16
				15:[C_D_U_PUBLISHER_GENDER_COEC<0.103661] yes=31,no=32,missing=31
					31:[C_D_U_CATEGORY_CITY_MICRO_MAX_COEC<0.0653298] yes=63,no=64,missing=63
						63:[WORD_COUNT<2792] yes=127,no=128,missing=128
							127:leaf=-0.030107
							128:leaf=-0.00938865
						64:[D_KEYWORD_MICRO_MEAN_COEC<0.119296] yes=129,no=130,missing=130
							129:leaf=-0.0101043
							130:leaf=0.0297866
					32:[D_KEYWORD_MICRO_MEAN_COEC<0.101671] yes=65,no=66,missing=66
						65:[D_TITLEMD5_COEC<0.0559261] yes=131,no=132,missing=131
							131:leaf=-0.0337237
							132:leaf=0.0224563
						66:[C_D_U_TITLEMD5_CATEGORY_MICRO_MAX_COEC<0.107482] yes=133,no=134,missing=134
							133:leaf=-0.0422213
							134:leaf=0.00266161
				16:[U_CAT_LEN<2] yes=33,no=34,missing=34
					33:[C_D_U_CATEGORY_GENDER_MACRO_MEAN_COEC<0.0767162] yes=67,no=68,missing=68
						67:[CAT_REL<0.541195] yes=135,no=136,missing=136
							135:leaf=-0.0313584
							136:leaf=0.0353004
						68:[D_CATEGORY_MICRO_MEAN_COEC<0.0735987] yes=137,no=138,missing=138
							137:leaf=0.170765
							138:leaf=0.0490873
					34:[CAT_REL<0.243901] yes=69,no=70,missing=70
						69:[C_D_U_TITLEMD5_CATEGORY_MACRO_MAX_COEC<0.0431363] yes=139,no=140,missing=140
							139:leaf=-0.0028059
							140:leaf=-0.0129213
						70:[D_CATEGORY_MACRO_MEAN_COEC<0.062419] yes=141,no=142,missing=142
							141:leaf=0.0221571
							142:leaf=-0.000279594
			8:[C_D_U_CATEGORY_GENDER_MACRO_MEAN_COEC<0.078512] yes=17,no=18,missing=17
				17:[D_CATEGORY_MICRO_MAX_COEC<0.0652181] yes=35,no=36,missing=36
					35:[TIME_OF_DAY<5] yes=71,no=72,missing=72
						71:[D_CATEGORY_MACRO_MAX_COEC<0.0385197] yes=143,no=144,missing=144
							143:leaf=-0.0612362
							144:leaf=0.0729005
						72:[U_CAT_LEN<3] yes=145,no=146,missing=146
							145:leaf=0.0364541
							146:leaf=-0.0133062
					36:[D_KEYWORD_MACRO_MAX_COEC<0.0409765] yes=73,no=74,missing=74
						73:[U_AGE_1<0.999999] yes=147,no=148,missing=148
							147:leaf=-0.00737739
							148:leaf=-0.039226
						74:[C_D_U_PUBLISHER_GENDER_COEC<0.120315] yes=149,no=150,missing=150
							149:leaf=0.0546572
							150:leaf=-0.0845729
				18:[DAY_OF_WEEK<3] yes=37,no=38,missing=38
					37:[D_CATEGORY_MICRO_MEAN_COEC<0.0761979] yes=75,no=76,missing=76
						75:[U_KW_LEN<64] yes=151,no=152,missing=152
							151:leaf=-0.016319
							152:leaf=0.0594086
						76:[KW_REL<0.00189] yes=153,no=154,missing=154
							153:leaf=-0.014013
							154:leaf=0.018476
					38:[U_KW_LEN<51] yes=77,no=78,missing=78
						77:[C_D_U_TITLEMD5_GENDER_COEC<0.0638331] yes=155,no=156,missing=156
							155:leaf=0.112734
							156:leaf=0.0401842
						78:[KW_REL<0.00121755] yes=157,no=158,missing=158
							157:leaf=0.0056796
							158:leaf=0.0404294
		4:[CAT_REL<0.074849] yes=9,no=10,missing=10
			9:[C_D_U_TITLEMD5_CATEGORY_MACRO_MAX_COEC<0.0751532] yes=19,no=20,missing=19
				19:[D_TITLEMD5_COEC<0.114623] yes=39,no=40,missing=40
					39:[D_KEYWORD_MACRO_MEAN_COEC<0.0705287] yes=79,no=80,missing=80
						79:[WORD_COUNT<799] yes=159,no=160,missing=160
							159:leaf=0.0309992
							160:leaf=-0.000317392
						80:[WORD_COUNT<824] yes=161,no=162,missing=162
							161:leaf=-0.020023
							162:leaf=-0.00273128
					40:[C_D_U_CATEGORY_CITY_MACRO_MAX_COEC<0.0239702] yes=81,no=82,missing=81
						81:[D_PUBLISHER_COEC<0.0613549] yes=163,no=164,missing=163
							163:leaf=-0.0713346
							164:leaf=-0.00976302
						82:[C_D_U_CATEGORY_GENDER_MACRO_MAX_COEC<0.038391] yes=165,no=166,missing=166
							165:leaf=0.0746798
							166:leaf=0.00620625
				20:[D_KEYWORD_MACRO_MEAN_COEC<0.0895131] yes=41,no=42,missing=42
					41:[C_D_U_PUBLISHER_CITY_COEC<0.0974012] yes=83,no=84,missing=83
						83:[KW_REL<0.0117103] yes=167,no=168,missing=168
							167:leaf=-0.021382
							168:leaf=-0.0912179
						84:[D_KEYWORD_MACRO_MEAN_COEC<0.0791473] yes=169,no=170,missing=170
							169:leaf=0.0224255
							170:leaf=-0.012625
					42:[D_TITLEMD5_COEC<0.13448] yes=85,no=86,missing=86
						85:[D_KEYWORD_MACRO_MAX_COEC<0.0501386] yes=171,no=172,missing=172
							171:leaf=0.0166866
							172:leaf=-0.0501769
						86:[U_AGE_1<0.999999] yes=173,no=174,missing=174
							173:leaf=-0.00399676
							174:leaf=-0.0360067
			10:[U_KW_LEN<33] yes=21,no=22,missing=22
				21:[CAT_REL<0.330898] yes=43,no=44,missing=44
					43:[D_CATEGORY_MICRO_MAX_COEC<0.0978351] yes=87,no=88,missing=88
						87:[C_D_U_CATEGORY_CITY_MACRO_MAX_COEC<0.0925138] yes=175,no=176,missing=176
							175:leaf=-0.0702261
							176:leaf=-0.238927
						88:[C_D_U_CATEGORY_CITY_MACRO_MEAN_COEC<0.110364] yes=177,no=178,missing=178
							177:leaf=0.0131401
							178:leaf=-0.259765
					44:[U_KW_LEN<9] yes=89,no=90,missing=90
						89:[C_D_U_CATEGORY_GENDER_MACRO_MAX_COEC<0.0606267] yes=179,no=180,missing=180
							179:leaf=0.0498956
							180:leaf=-0.0493006
						90:[D_CATEGORY_MICRO_MAX_COEC<0.0769267] yes=181,no=182,missing=182
							181:leaf=0.00829268
							182:leaf=-0.0118849
				22:[CAT_REL<0.999999] yes=45,no=46,missing=46
					45:[D_PUBLISHER_COEC<0.0613549] yes=91,no=92,missing=92
						91:[KW_REL<0.00083178] yes=183,no=184,missing=184
							183:leaf=-0.0317829
							184:leaf=0.000733775
						92:[U_AGE_1<0.999999] yes=185,no=186,missing=186
							185:leaf=0.00850876
							186:leaf=-0.00663288
					46:[C_D_U_PUBLISHER_CITY_COEC<0.0596408] yes=93,no=94,missing=93
						93:[KW_REL<0.00938033] yes=187,no=188,missing=188
							187:leaf=-0.105291
							188:leaf=0.0338329
						94:[C_D_U_TITLEMD5_GENDER_COEC<0.103843] yes=189,no=190,missing=190
							189:leaf=0.0876626
							190:leaf=0.0385928
	2:[U_CAT_LEN<7] yes=5,no=6,missing=6
		5:[CAT_REL<0.631989] yes=11,no=12,missing=12
			11:[D_KEYWORD_MACRO_MEAN_COEC<0.0678281] yes=23,no=24,missing=24
				23:[C_D_U_TITLEMD5_GENDER_COEC<0.164332] yes=47,no=48,missing=47
					47:[C_D_U_TITLEMD5_GENDER_COEC<0.0444732] yes=95,no=96,missing=96
						95:[D_TITLEMD5_COEC<0.20707] yes=191,no=192,missing=192
							191:leaf=-0.0313178
							192:leaf=0.0220422
						96:[CAT_REL<0.245694] yes=193,no=194,missing=194
							193:leaf=-0.0224644
							194:leaf=-0.0113727
					48:[C_D_U_CATEGORY_AGE_MACRO_MAX_COEC<0.109441] yes=97,no=98,missing=98
						97:[CAT_REL<0.209631] yes=195,no=196,missing=196
							195:leaf=-0.0854855
							196:leaf=-0.0436885
						98:leaf=0.151612
				24:[WORD_COUNT<1212] yes=49,no=50,missing=50
					49:[C_D_U_TITLEMD5_GENDER_COEC<0.0635873] yes=99,no=100,missing=100
						99:[C_D_U_PUBLISHER_CITY_COEC<0.0940787] yes=197,no=198,missing=197
							197:leaf=-0.053506
							198:leaf=-0.00954917
						100:[U_CAT_LEN<5] yes=199,no=200,missing=200
							199:leaf=-0.0280651
							200:leaf=-0.0118341
					50:[C_D_U_TITLEMD5_CATEGORY_MACRO_MEAN_COEC<0.167546] yes=101,no=102,missing=102
						101:[C_D_U_CATEGORY_CITY_MACRO_MAX_COEC<0.104383] yes=201,no=202,missing=202
							201:leaf=-0.00963229
							202:leaf=0.00771137
						102:[KW_REL<0.000456699] yes=203,no=204,missing=204
							203:leaf=-0.00897444
							204:leaf=0.0104383
			12:[DAY_OF_WEEK<0.999999] yes=25,no=26,missing=26
				25:[C_D_U_TITLEMD5_CATEGORY_MICRO_MAX_COEC<0.224171] yes=51,no=52,missing=52
					51:[KW_REL<0.00477372] yes=103,no=104,missing=104
						103:[C_D_U_CATEGORY_GENDER_MACRO_MEAN_COEC<0.0948295] yes=205,no=206,missing=206
							205:leaf=-0.0163562
							206:leaf=-0.0649527
						104:[C_D_U_CATEGORY_GENDER_MACRO_MAX_COEC<0.0976116] yes=207,no=208,missing=208
							207:leaf=-0.0133065
							208:leaf=0.0847241
					52:[C_D_U_PUBLISHER_AGE_COEC<0.0493307] yes=105,no=106,missing=105
						105:[D_KEYWORD_MICRO_MAX_COEC<0.133997] yes=209,no=210,missing=210
							209:leaf=-0.17929
							210:leaf=-0.00283758
						106:[C_D_U_TITLEMD5_CATEGORY_MICRO_MEAN_COEC<0.0435201] yes=211,no=212,missing=212
							211:leaf=0.21049
							212:leaf=0.0272802
				26:[C_D_U_CATEGORY_CITY_MICRO_MAX_COEC<0.0504183] yes=53,no=54,missing=54
					53:[C_D_U_CATEGORY_AGE_MACRO_MAX_COEC<0.0630684] yes=107,no=108,missing=108
						107:[D_KEYWORD_MICRO_MAX_COEC<0.0916069] yes=213,no=214,missing=214
							213:leaf=-0.0751267
							214:leaf=0.0775447
						108:[C_D_U_PUBLISHER_AGE_COEC<0.0670893] yes=215,no=216,missing=215
							215:leaf=-0.112017
							216:leaf=-0.0568801
					54:[KW_REL<0.0119501] yes=109,no=110,missing=110
						109:[IMAGE_COUNT<0.999999] yes=217,no=218,missing=218
							217:leaf=-0.0794818
							218:leaf=0.0057676
						110:[CAT_REL<0.687837] yes=219,no=220,missing=220
							219:leaf=-0.0116436
							220:leaf=0.0316347
		6:[C_D_U_TITLEMD5_CATEGORY_MACRO_MEAN_COEC<0.125776] yes=13,no=14,missing=14
			13:[D_TITLEMD5_COEC<0.12616] yes=27,no=28,missing=27
				27:[C_D_U_TITLEMD5_CATEGORY_MACRO_MEAN_COEC<0.0976003] yes=55,no=56,missing=56
					55:[WORD_COUNT<2948] yes=111,no=112,missing=112
						111:[IMAGE_COUNT<2] yes=221,no=222,missing=222
							221:leaf=-0.00449538
							222:leaf=0.0101346
						112:[D_KEYWORD_MACRO_MEAN_COEC<0.0376239] yes=223,no=224,missing=224
							223:leaf=-0.0249222
							224:leaf=0.00339112
					56:[D_TITLEMD5_COEC<0.113223] yes=113,no=114,missing=114
						113:[C_D_U_TITLEMD5_CATEGORY_MICRO_MEAN_COEC<0.0946374] yes=225,no=226,missing=226
							225:leaf=-0.0393397
							226:leaf=0.0113612
						114:[C_D_U_TITLEMD5_CATEGORY_MACRO_MEAN_COEC<0.108869] yes=227,no=228,missing=228
							227:leaf=-0.00671474
							228:leaf=0.0066853
				28:[D_KEYWORD_MICRO_MAX_COEC<0.126001] yes=57,no=58,missing=58
					57:[CAT_REL<0.05668] yes=115,no=116,missing=116
						115:[D_PUBLISHER_COEC<0.0980659] yes=229,no=230,missing=230
							229:leaf=-0.0473063
							230:leaf=-0.0175923
						116:[KW_REL<0.00425331] yes=231,no=232,missing=232
							231:leaf=-0.0204248
							232:leaf=-0.00504275
					58:[D_KEYWORD_MICRO_MAX_COEC<0.141285] yes=117,no=118,missing=118
						117:[D_TITLEMD5_COEC<0.146641] yes=233,no=234,missing=234
							233:leaf=-0.000377691
							234:leaf=-0.028265
						118:[WORD_COUNT<1122] yes=235,no=236,missing=236
							235:leaf=-0.0323277
							236:leaf=-0.0101499
			14:[D_TITLEMD5_COEC<0.141836] yes=29,no=30,missing=30
				29:[C_D_U_TITLEMD5_CATEGORY_MICRO_MAX_COEC<0.263029] yes=59,no=60,missing=60
					59:[D_CATEGORY_MACRO_MAX_COEC<0.0966906] yes=119,no=120,missing=119
						119:[C_D_U_TITLEMD5_CATEGORY_MICRO_MAX_COEC<0.189675] yes=237,no=238,missing=238
							237:leaf=0.0156137
							238:leaf=0.027586
						120:[D_KEYWORD_MACRO_MAX_COEC<0.047209] yes=239,no=240,missing=240
							239:leaf=0.00755174
							240:leaf=-0.0130194
					60:[C_D_U_CATEGORY_GENDER_MACRO_MEAN_COEC<0.0608995] yes=121,no=122,missing=122
						121:[TIME_OF_DAY<9] yes=241,no=242,missing=242
							241:leaf=-0.00844592
							242:leaf=0.0367791
						122:[C_D_U_TITLEMD5_CATEGORY_MICRO_MEAN_COEC<0.127193] yes=243,no=244,missing=244
							243:leaf=-0.0391683
							244:leaf=-0.0100108
				30:[C_D_U_TITLEMD5_CATEGORY_MACRO_MEAN_COEC<0.14442] yes=61,no=62,missing=62
					61:[D_TITLEMD5_COEC<0.160779] yes=123,no=124,missing=124
						123:[WORD_COUNT<1212] yes=245,no=246,missing=246
							245:leaf=-0.0126923
							246:leaf=0.00340195
						124:[C_D_U_TITLEMD5_CATEGORY_MACRO_MAX_COEC<0.0833998] yes=247,no=248,missing=248
							247:leaf=-0.0151477
							248:leaf=-0.0451614
					62:[DAY_OF_WEEK<0.999999] yes=125,no=126,missing=126
						125:[D_KEYWORD_MICRO_MEAN_COEC<0.0892617] yes=249,no=250,missing=250
							249:leaf=-0.0069748
							250:leaf=0.0205097
						126:[D_TITLEMD5_COEC<0.165768] yes=251,no=252,missing=252
							251:leaf=0.0127238
							252:leaf=0.000657857
booster[39]:
0:[U_KW_LEN<200] yes=1,no=2,missing=1
	1:[TIME_OF_DAY<17] yes=3,no=4,missing=4
		3:[TIME_OF_DAY<13] yes=7,no=8,missing=8
			7:[C_D_U_PUBLISHER_GENDER_COEC<0.0592377] yes=15,no=16,missing=15
				15:[D_CATEGORY_MACRO_MEAN_COEC<0.103999] yes=31,no=32,missing=31
					31:[D_KEYWORD_MICRO_MAX_COEC<0.0917566] yes=61,no=62,missing=62
						61:[TIME_OF_DAY<10] yes=121,no=122,missing=122
							121:leaf=0.010175
							122:leaf=-0.0167594
						62:[C_D_U_CATEGORY_CITY_MACRO_MAX_COEC<0.0945926] yes=123,no=124,missing=124
							123:leaf=-0.0129265
							124:leaf=0.0131357
					32:[C_D_U_TITLEMD5_GENDER_COEC<0.0891712] yes=63,no=64,missing=63
						63:[DAY_OF_WEEK<6] yes=125,no=126,missing=126
							125:leaf=-0.152602
							126:leaf=0.062064
						64:[WORD_COUNT<5773] yes=127,no=128,missing=128
							127:leaf=-0.0689334
							128:leaf=0.195614
				16:[CAT_REL<0.333332] yes=33,no=34,missing=34
					33:[D_KEYWORD_MICRO_MEAN_COEC<0.0837005] yes=65,no=66,missing=66
						65:[WORD_COUNT<630] yes=129,no=130,missing=130
							129:leaf=0.0219725
							130:leaf=-0.00327077
						66:[D_KEYWORD_MICRO_MAX_COEC<0.244205] yes=131,no=132,missing=132
							131:leaf=0.00254641
							132:leaf=0.0266794
					34:[CAT_REL<0.340531] yes=67,no=68,missing=68
						67:[D_CATEGORY_MACRO_MAX_COEC<0.088982] yes=133,no=134,missing=134
							133:leaf=0.010094
							134:leaf=0.0547071
						68:[KW_REL<0.00480994] yes=135,no=136,missing=136
							135:leaf=0.00184441
							136:leaf=0.013566
			8:[DAY_OF_WEEK<5] yes=17,no=18,missing=18
				17:[DAY_OF_WEEK<4] yes=35,no=36,missing=36
					35:[C_D_U_TITLEMD5_CATEGORY_MACRO_MEAN_COEC<0.153749] yes=69,no=70,missing=70
						69:[U_KW_LEN<31] yes=137,no=138,missing=138
							137:leaf=-0.0215237
							138:leaf=-0.00378889
						70:[D_TITLEMD5_COEC<2.42837] yes=139,no=140,missing=140
							139:leaf=0.00242984
							140:leaf=0.106667
					36:[D_PUBLISHER_COEC<0.0610769] yes=71,no=72,missing=72
						71:[WORD_COUNT<1099] yes=141,no=142,missing=142
							141:leaf=0.0344482
							142:leaf=-0.0106537
						72:[C_D_U_CATEGORY_GENDER_MACRO_MEAN_COEC<0.0952627] yes=143,no=144,missing=143
							143:leaf=-0.0300805
							144:leaf=0.0048222
				18:[DAY_OF_WEEK<6] yes=37,no=38,missing=38
					37:[C_D_U_CATEGORY_GENDER_MICRO_MEAN_COEC<0.0891716] yes=73,no=74,missing=73
						73:[C_D_U_TITLEMD5_CATEGORY_MACRO_MAX_COEC<0.0481967] yes=145,no=146,missing=146
							145:leaf=0.0160033
							146:leaf=0.000373749
						74:[U_KW_LEN<142] yes=147,no=148,missing=148
							147:leaf=0.0380446
							148:leaf=-6.97196e-05
					38:[C_D_U_TITLEMD5_CATEGORY_MICRO_MAX_COEC<0.0628804] yes=75,no=76,missing=76
						75:[IMAGE_COUNT<5] yes=149,no=150,missing=150
							149:leaf=-0.0359742
							150:leaf=0.170761
						76:[U_AGE_1<0.999999] yes=151,no=152,missing=152
							151:leaf=-0.000209271
							152:leaf=-0.0350736
		4:[C_D_U_CATEGORY_CITY_MACRO_MAX_COEC<0.149561] yes=9,no=10,missing=9
			9:[C_D_U_CATEGORY_GENDER_MACRO_MEAN_COEC<0.0594791] yes=19,no=20,missing=20
				19:[D_KEYWORD_MACRO_MEAN_COEC<0.0775541] yes=39,no=40,missing=40
					39:[CAT_REL<0.132479] yes=77,no=78,missing=78
						77:[C_D_U_PUBLISHER_CITY_COEC<0.0695165] yes=153,no=154,missing=153
							153:leaf=-0.0123228
							154:leaf=-0.043981
						78:[U_GENDER<2] yes=155,no=156,missing=156
							155:leaf=0.0790262
							156:leaf=-0.0113543
					40:[D_TITLEMD5_COEC<0.210277] yes=79,no=80,missing=80
						79:[U_GENDER<2] yes=157,no=158,missing=158
							157:leaf=-0.0238741
							158:leaf=0.0270484
						80:[C_D_U_CATEGORY_GENDER_MACRO_MAX_COEC<0.0515951] yes=159,no=160,missing=160
							159:leaf=-0.150763
							160:leaf=-0.232765
				20:[D_KEYWORD_MICRO_MEAN_COEC<0.0657131] yes=41,no=42,missing=42
					41:[D_PUBLISHER_COEC<0.100677] yes=81,no=82,missing=81
						81:[U_KW_LEN<16] yes=161,no=162,missing=162
							161:leaf=0.028799
							162:leaf=0.00335216
						82:[C_D_U_CATEGORY_CITY_MICRO_MAX_COEC<0.0737213] yes=163,no=164,missing=164
							163:leaf=0.107256
							164:leaf=-0.069684
					42:[D_PUBLISHER_COEC<0.0720598] yes=83,no=84,missing=83
						83:[D_KEYWORD_MACRO_MAX_COEC<0.0179415] yes=165,no=166,missing=166
							165:leaf=-0.012392
							166:leaf=0.00234416
						84:[WORD_COUNT<2200] yes=167,no=168,missing=168
							167:leaf=0.0032272
							168:leaf=0.0124262
			10:[D_CATEGORY_MICRO_MAX_COEC<0.0613068] yes=21,no=22,missing=22
				21:leaf=-0.193829
				22:[KW_REL<0.0150633] yes=43,no=44,missing=44
					43:[CAT_REL<0.333332] yes=85,no=86,missing=86
						85:[D_PUBLISHER_COEC<0.0469001] yes=169,no=170,missing=170
							169:leaf=-0.147991
							170:leaf=0.0560523
						86:[D_CATEGORY_MACRO_MAX_COEC<0.0699787] yes=171,no=172,missing=172
							171:leaf=-0.144877
							172:leaf=0.0315387
					44:[C_D_U_TITLEMD5_CATEGORY_MICRO_MAX_COEC<0.069115] yes=87,no=88,missing=88
						87:leaf=-0.0928475
						88:leaf=-0.209972
	2:[D_PUBLISHER_COEC<0.0527463] yes=5,no=6,missing=5
		5:[D_PUBLISHER_COEC<0.0324725] yes=11,no=12,missing=12
			11:[C_D_U_TITLEMD5_CATEGORY_MICRO_MAX_COEC<0.129408] yes=23,no=24,missing=24
				23:[U_CAT_LEN<22] yes=45,no=46,missing=46
					45:[TIME_OF_DAY<3] yes=89,no=90,missing=90
						89:[U_CAT_LEN<10] yes=173,no=174,missing=174
							173:leaf=-0.0311199
							174:leaf=0.0308543
						90:[C_D_U_CATEGORY_CITY_MICRO_MEAN_COEC<0.114268] yes=175,no=176,missing=176
							175:leaf=-0.025926
							176:leaf=0.0190632
					46:[TIME_OF_DAY<18] yes=91,no=92,missing=92
						91:[D_CATEGORY_MICRO_MEAN_COEC<0.0942601] yes=177,no=178,missing=177
							177:leaf=0.0530157
							178:leaf=-0.132802
						92:[CAT_REL<0.601045] yes=179,no=180,missing=180
							179:leaf=-0.0835526
							180:leaf=0.12934
				24:[C_D_U_TITLEMD5_CATEGORY_MACRO_MEAN_COEC<0.181585] yes=47,no=48,missing=48
					47:[KW_REL<0.0320455] yes=93,no=94,missing=94
						93:[C_D_U_TITLEMD5_CATEGORY_MACRO_MEAN_COEC<0.0523305] yes=181,no=182,missing=182
							181:leaf=-0.0185022
							182:leaf=-0.0610055
						94:[C_D_U_TITLEMD5_CATEGORY_MICRO_MAX_COEC<0.176543] yes=183,no=184,missing=184
							183:leaf=0.0768917
							184:leaf=-0.0281218
					48:[D_KEYWORD_MICRO_MAX_COEC<0.105477] yes=95,no=96,missing=96
						95:[D_TITLEMD5_COEC<0.0965563] yes=185,no=186,missing=186
							185:leaf=-0.153108
							186:leaf=0.0188043
						96:[C_D_U_PUBLISHER_CITY_COEC<0.0240998] yes=187,no=188,missing=188
							187:leaf=-0.0725518
							188:leaf=-0.0141269
			12:[C_D_U_TITLEMD5_CATEGORY_MICRO_MAX_COEC<0.187128] yes=25,no=26,missing=26
				25:[C_D_U_CATEGORY_CITY_MICRO_MAX_COEC<0.0745835] yes=49,no=50,missing=49
					49:[C_D_U_CATEGORY_GENDER_MACRO_MAX_COEC<0.0476294] yes=97,no=98,missing=98
						97:[KW_REL<0.000549116] yes=189,no=190,missing=190
							189:leaf=-0.0186169
							190:leaf=0.016244
						98:[CAT_REL<0.093108] yes=191,no=192,missing=192
							191:leaf=-0.0257142
							192:leaf=-0.0100517
					50:[D_CATEGORY_MICRO_MAX_COEC<0.0764791] yes=99,no=100,missing=100
						99:[C_D_U_PUBLISHER_AGE_COEC<0.0291918] yes=193,no=194,missing=194
							193:leaf=-0.059412
							194:leaf=0.0111203
						100:[C_D_U_TITLEMD5_CATEGORY_MACRO_MAX_COEC<0.0222688] yes=195,no=196,missing=196
							195:leaf=-0.01027
							196:leaf=-0.000351488
				26:[D_KEYWORD_MICRO_MAX_COEC<0.103375] yes=51,no=52,missing=52
					51:[KW_REL<0.000365998] yes=101,no=102,missing=102
						101:[C_D_U_TITLEMD5_CATEGORY_MACRO_MAX_COEC<0.0624664] yes=197,no=198,missing=198
							197:leaf=-0.109448
							198:leaf=-0.0539946
						102:[C_D_U_CATEGORY_AGE_MACRO_MAX_COEC<0.0612199] yes=199,no=200,missing=200
							199:leaf=-0.00241773
							200:leaf=-0.0347359
					52:[C_D_U_CATEGORY_AGE_MACRO_MEAN_COEC<0.0837634] yes=103,no=104,missing=103
						103:[CAT_REL<0.125089] yes=201,no=202,missing=202
							201:leaf=-0.0388595
							202:leaf=-0.00166346
						104:[C_D_U_TITLEMD5_CATEGORY_MACRO_MEAN_COEC<0.0758079] yes=203,no=204,missing=204
							203:leaf=0.017246
							204:leaf=-0.0339772
		6:[KW_REL<0.00327943] yes=13,no=14,missing=14
			13:[D_KEYWORD_MICRO_MEAN_COEC<0.0774745] yes=27,no=28,missing=28
				27:[CAT_REL<0.112342] yes=53,no=54,missing=54
					53:[IMAGE_COUNT<2] yes=105,no=106,missing=106
						105:[C_D_U_TITLEMD5_CATEGORY_MACRO_MAX_COEC<0.0489126] yes=205,no=206,missing=206
							205:leaf=-0.0138207
							206:leaf=-0.0324344
						106:[WORD_COUNT<3732] yes=207,no=208,missing=208
							207:leaf=0.0243609
							208:leaf=-0.00384309
					54:[C_D_U_TITLEMD5_GENDER_COEC<0.0257295] yes=107,no=108,missing=107
						107:[C_D_U_CATEGORY_AGE_MICRO_MAX_COEC<0.0579524] yes=209,no=210,missing=210
							209:leaf=0.0180096
							210:leaf=-0.0172634
						108:[C_D_U_TITLEMD5_CATEGORY_MICRO_MAX_COEC<0.263224] yes=211,no=212,missing=212
							211:leaf=-0.000133566
							212:leaf=-0.0273911
				28:[D_CATEGORY_MICRO_MEAN_COEC<0.0680403] yes=55,no=56,missing=55
					55:[DAY_OF_WEEK<4] yes=109,no=110,missing=110
						109:[KW_REL<0.000454418] yes=213,no=214,missing=214
							213:leaf=0.00749616
							214:leaf=0.0292266
						110:[IMAGE_COUNT<0.999999] yes=215,no=216,missing=216
							215:leaf=-0.0468539
							216:leaf=0.00965332
					56:[WORD_COUNT<995] yes=111,no=112,missing=112
						111:[C_D_U_TITLEMD5_CATEGORY_MACRO_MEAN_COEC<0.154059] yes=217,no=218,missing=218
							217:leaf=-0.0121311
							218:leaf=0.00249301
						112:[KW_REL<0.000549116] yes=219,no=220,missing=220
							219:leaf=-0.00361674
							220:leaf=0.00316601
			14:[D_KEYWORD_MICRO_MEAN_COEC<0.0774745] yes=29,no=30,missing=30
				29:[KW_REL<0.0215182] yes=57,no=58,missing=58
					57:[D_CATEGORY_MACRO_MAX_COEC<0.063674] yes=113,no=114,missing=113
						113:[C_D_U_TITLEMD5_CATEGORY_MICRO_MAX_COEC<0.118991] yes=221,no=222,missing=222
							221:leaf=-0.000219255
							222:leaf=0.0154415
						114:[CAT_REL<0.042808] yes=223,no=224,missing=224
							223:leaf=-0.0198332
							224:leaf=-0.00143393
					58:[WORD_COUNT<1357] yes=115,no=116,missing=116
						115:[TIME_OF_DAY<3] yes=225,no=226,missing=226
							225:leaf=0.0278494
							226:leaf=-0.00253138
						116:[C_D_U_PUBLISHER_AGE_COEC<0.0596075] yes=227,no=228,missing=228
							227:leaf=-0.00180175
							228:leaf=0.0202931
				30:[DAY_OF_WEEK<5] yes=59,no=60,missing=60
					59:[WORD_COUNT<630] yes=117,no=118,missing=118
						117:[D_KEYWORD_MACRO_MAX_COEC<0.0416794] yes=229,no=230,missing=230
							229:leaf=-0.00584248
							230:leaf=-0.0345464
						118:[TIME_OF_DAY<15] yes=231,no=232,missing=232
							231:leaf=0.0106388
							232:leaf=0.0222127
					60:[D_CATEGORY_MICRO_MEAN_COEC<0.0796501] yes=119,no=120,missing=119
						119:[C_D_U_PUBLISHER_GENDER_COEC<0.143349] yes=233,no=234,missing=233
							233:leaf=0.0130381
							234:leaf=0.0389635
						120:[CAT_REL<0.314926] yes=235,no=236,missing=236
							235:leaf=-0.0160436
							236:leaf=0.00457048
booster[40]:
0:[U_KW_LEN<200] yes=1,no=2,missing=1
	1:[WORD_COUNT<2325] yes=3,no=4,missing=4
		3:[IMAGE_COUNT<3] yes=7,no=8,missing=8
			7:[C_D_U_PUBLISHER_CITY_COEC<0.14587] yes=15,no=16,missing=15
				15:[D_CATEGORY_MACRO_MEAN_COEC<0.103996] yes=31,no=32,missing=31
					31:[U_GENDER<2] yes=63,no=64,missing=63
						63:[C_D_U_CATEGORY_GENDER_MACRO_MAX_COEC<0.0844498] yes=127,no=128,missing=127
							127:leaf=-0.00203942
							128:leaf=-0.00670307
						64:[C_D_U_CATEGORY_GENDER_MACRO_MEAN_COEC<0.0786977] yes=129,no=130,missing=129
							129:leaf=-0.00267126
							130:leaf=0.0126593
					32:[D_TITLEMD5_COEC<0.155322] yes=65,no=66,missing=66
						65:[C_D_U_CATEGORY_CITY_MACRO_MEAN_COEC<0.0867127] yes=131,no=132,missing=132
							131:leaf=-0.0729891
							132:leaf=-0.0216814
						66:[C_D_U_TITLEMD5_CATEGORY_MICRO_MAX_COEC<0.154875] yes=133,no=134,missing=134
							133:leaf=0.0436423
							134:leaf=-0.00523675
				16:[D_CATEGORY_MACRO_MAX_COEC<0.0900076] yes=33,no=34,missing=33
					33:[DAY_OF_WEEK<6] yes=67,no=68,missing=68
						67:[C_D_U_CATEGORY_CITY_MACRO_MAX_COEC<0.22147] yes=135,no=136,missing=136
							135:leaf=0.0140958
							136:leaf=0.0668753
						68:[D_KEYWORD_MICRO_MEAN_COEC<0.0801863] yes=137,no=138,missing=138
							137:leaf=0.0072917
							138:leaf=-0.0299405
					34:[C_D_U_CATEGORY_GENDER_MACRO_MEAN_COEC<0.0945729] yes=69,no=70,missing=70
						69:[D_TITLEMD5_COEC<0.128994] yes=139,no=140,missing=139
							139:leaf=-0.0746054
							140:leaf=-0.00648254
						70:[U_KW_LEN<18] yes=141,no=142,missing=142
							141:leaf=0.0148377
							142:leaf=-0.000791547
			8:[D_PUBLISHER_COEC<0.11229] yes=17,no=18,missing=17
				17:[C_D_U_CATEGORY_CITY_MICRO_MAX_COEC<0.127122] yes=35,no=36,missing=35
					35:[CAT_REL<0.0752547] yes=71,no=72,missing=72
						71:[WORD_COUNT<1804] yes=143,no=144,missing=144
							143:leaf=0.00503817
							144:leaf=-0.0183536
						72:[TIME_OF_DAY<19] yes=145,no=146,missing=146
							145:leaf=0.0099448
							146:leaf=0.0529332
					36:[KW_REL<0.000251648] yes=73,no=74,missing=74
						73:[C_D_U_TITLEMD5_CATEGORY_MICRO_MAX_COEC<0.0804723] yes=147,no=148,missing=148
							147:leaf=0.13856
							148:leaf=0.0344192
						74:[D_TITLEMD5_COEC<0.0765085] yes=149,no=150,missing=149
							149:leaf=-0.164957
							150:leaf=0.0117825
				18:[C_D_U_CATEGORY_CITY_MACRO_MAX_COEC<0.104642] yes=37,no=38,missing=38
					37:[D_TITLEMD5_COEC<0.0805642] yes=75,no=76,missing=76
						75:[D_CATEGORY_MICRO_MAX_COEC<0.0609039] yes=151,no=152,missing=152
							151:leaf=0.156325
							152:leaf=-0.150039
						76:[C_D_U_CATEGORY_CITY_MICRO_MEAN_COEC<0.0668713] yes=153,no=154,missing=154
							153:leaf=0.00416129
							154:leaf=0.0380335
					38:[U_KW_LEN<99] yes=77,no=78,missing=78
						77:[C_D_U_PUBLISHER_GENDER_COEC<0.108468] yes=155,no=156,missing=156
							155:leaf=-0.240983
							156:leaf=-0.0391979
						78:[C_D_U_TITLEMD5_CATEGORY_MACRO_MAX_COEC<0.0757352] yes=157,no=158,missing=158
							157:leaf=0.0604307
							158:leaf=-0.0839952
		4:[D_CATEGORY_MICRO_MEAN_COEC<0.10014] yes=9,no=10,missing=9
			9:[CAT_REL<0.142856] yes=19,no=20,missing=20
				19:[U_AGE_2<0.999999] yes=39,no=40,missing=40
					39:[C_D_U_CATEGORY_CITY_MACRO_MAX_COEC<0.0416657] yes=79,no=80,missing=79
						79:[KW_REL<2.61062e-05] yes=159,no=160,missing=160
							159:leaf=-0.00746066
							160:leaf=-0.0438723
						80:[WORD_COUNT<2481] yes=161,no=162,missing=162
							161:leaf=0.00884146
							162:leaf=-0.00476195
					40:[C_D_U_TITLEMD5_GENDER_COEC<0.267033] yes=81,no=82,missing=82
						81:[TIME_OF_DAY<0.999999] yes=163,no=164,missing=164
							163:leaf=0.0461761
							164:leaf=0.00465925
						82:[D_CATEGORY_MACRO_MAX_COEC<0.0880172] yes=165,no=166,missing=165
							165:leaf=-0.0803571
							166:leaf=0.0515251
				20:[D_CATEGORY_MICRO_MEAN_COEC<0.0626481] yes=41,no=42,missing=42
					41:[KW_REL<3.30126e-06] yes=83,no=84,missing=84
						83:[D_PUBLISHER_COEC<0.0548723] yes=167,no=168,missing=168
							167:leaf=-0.0692934
							168:leaf=0.00567052
						84:[C_D_U_CATEGORY_GENDER_MICRO_MAX_COEC<0.0673243] yes=169,no=170,missing=170
							169:leaf=0.028352
							170:leaf=0.194564
					42:[C_D_U_PUBLISHER_GENDER_COEC<0.0690701] yes=85,no=86,missing=86
						85:[C_D_U_CATEGORY_CITY_MACRO_MAX_COEC<0.0923865] yes=171,no=172,missing=172
							171:leaf=-0.0032257
							172:leaf=0.0171053
						86:[U_KW_LEN<159] yes=173,no=174,missing=174
							173:leaf=0.00634289
							174:leaf=0.0176625
			10:[DAY_OF_WEEK<4] yes=21,no=22,missing=22
				21:[D_PUBLISHER_COEC<0.0592125] yes=43,no=44,missing=44
					43:[C_D_U_PUBLISHER_CITY_COEC<0.0542253] yes=87,no=88,missing=87
						87:[KW_REL<0.00505905] yes=175,no=176,missing=176
							175:leaf=-0.0543307
							176:leaf=0.151575
						88:[D_TITLEMD5_COEC<0.186181] yes=177,no=178,missing=177
							177:leaf=-0.17104
							178:leaf=0.0738278
					44:[D_KEYWORD_MACRO_MAX_COEC<0.0360042] yes=89,no=90,missing=90
						89:[C_D_U_TITLEMD5_CATEGORY_MACRO_MEAN_COEC<0.0833736] yes=179,no=180,missing=180
							179:leaf=0.0176136
							180:leaf=-0.0047448
						90:[TIME_OF_DAY<6] yes=181,no=182,missing=182
							181:leaf=-0.0624175
							182:leaf=0.0241544
				22:[C_D_U_TITLEMD5_CATEGORY_MICRO_MAX_COEC<0.0982598] yes=45,no=46,missing=46
					45:[KW_REL<0.00161006] yes=91,no=92,missing=92
						91:[U_KW_LEN<9] yes=183,no=184,missing=184
							183:leaf=-0.160891
							184:leaf=0.0141681
						92:[D_KEYWORD_MICRO_MEAN_COEC<0.0757016] yes=185,no=186,missing=186
							185:leaf=0.0494827
							186:leaf=-0.12344
					46:[C_D_U_TITLEMD5_CATEGORY_MACRO_MEAN_COEC<0.0749307] yes=93,no=94,missing=94
						93:[U_CAT_LEN<4] yes=187,no=188,missing=188
							187:leaf=-0.0601857
							188:leaf=0.105602
						94:[D_PUBLISHER_COEC<0.0823626] yes=189,no=190,missing=190
							189:leaf=-0.00672149
							190:leaf=0.0321674
	2:[U_CAT_LEN<7] yes=5,no=6,missing=6
		5:[CAT_REL<0.494273] yes=11,no=12,missing=12
			11:[D_KEYWORD_MACRO_MEAN_COEC<0.0690451] yes=23,no=24,missing=24
				23:[D_CATEGORY_MACRO_MAX_COEC<0.0689752] yes=47,no=48,missing=48
					47:[C_D_U_CATEGORY_AGE_MACRO_MAX_COEC<0.0711162] yes=95,no=96,missing=96
						95:[C_D_U_CATEGORY_GENDER_MICRO_MAX_COEC<0.0668825] yes=191,no=192,missing=192
							191:leaf=-0.0155143
							192:leaf=0.00160149
						96:[C_D_U_CATEGORY_GENDER_MACRO_MAX_COEC<0.0742584] yes=193,no=194,missing=194
							193:leaf=-0.0556897
							194:leaf=0.106746
					48:[D_TITLEMD5_COEC<0.108813] yes=97,no=98,missing=97
						97:[C_D_U_CATEGORY_GENDER_MACRO_MAX_COEC<0.0715611] yes=195,no=196,missing=195
							195:leaf=-0.0366929
							196:leaf=-0.018657
						98:[D_KEYWORD_MACRO_MAX_COEC<0.0191931] yes=197,no=198,missing=198
							197:leaf=-0.0613006
							198:leaf=-0.0236431
				24:[C_D_U_CATEGORY_CITY_MACRO_MEAN_COEC<0.105947] yes=49,no=50,missing=50
					49:[C_D_U_TITLEMD5_CATEGORY_MACRO_MEAN_COEC<0.137637] yes=99,no=100,missing=100
						99:[WORD_COUNT<1870] yes=199,no=200,missing=200
							199:leaf=-0.0172433
							200:leaf=-0.00761599
						100:[D_TITLEMD5_COEC<0.14272] yes=201,no=202,missing=202
							201:leaf=0.00462977
							202:leaf=-0.00754668
					50:[DAY_OF_WEEK<2] yes=101,no=102,missing=102
						101:[C_D_U_CATEGORY_GENDER_MACRO_MAX_COEC<0.118841] yes=203,no=204,missing=204
							203:leaf=-0.00651283
							204:leaf=-0.0776023
						102:[C_D_U_CATEGORY_CITY_MICRO_MAX_COEC<0.218729] yes=205,no=206,missing=205
							205:leaf=0.00707568
							206:leaf=0.0455409
			12:[DAY_OF_WEEK<2] yes=25,no=26,missing=26
				25:[D_CATEGORY_MICRO_MAX_COEC<0.0717075] yes=51,no=52,missing=52
					51:[C_D_U_TITLEMD5_GENDER_COEC<0.0804187] yes=103,no=104,missing=104
						103:[C_D_U_CATEGORY_AGE_MICRO_MAX_COEC<0.0569794] yes=207,no=208,missing=208
							207:leaf=0.134374
							208:leaf=-0.0121329
						104:[D_PUBLISHER_COEC<0.0613598] yes=209,no=210,missing=210
							209:leaf=0.060109
							210:leaf=0.0162366
					52:[KW_REL<0.00807854] yes=105,no=106,missing=106
						105:[C_D_U_TITLEMD5_AGE_COEC<0.0745765] yes=211,no=212,missing=211
							211:leaf=-0.0473574
							212:leaf=-0.0155874
						106:[C_D_U_CATEGORY_GENDER_MACRO_MEAN_COEC<0.0869768] yes=213,no=214,missing=214
							213:leaf=-0.0047684
							214:leaf=0.0539432
				26:[C_D_U_CATEGORY_CITY_MACRO_MAX_COEC<0.0426295] yes=53,no=54,missing=54
					53:[D_CATEGORY_MACRO_MAX_COEC<0.0685168] yes=107,no=108,missing=108
						107:[D_KEYWORD_MACRO_MEAN_COEC<0.0526426] yes=215,no=216,missing=216
							215:leaf=-0.0981517
							216:leaf=0.0154152
						108:[CAT_REL<0.532776] yes=217,no=218,missing=218
							217:leaf=0.0295543
							218:leaf=-0.0864654
					54:[CAT_REL<0.696438] yes=109,no=110,missing=110
						109:[TIME_OF_DAY<18] yes=219,no=220,missing=220
							219:leaf=-0.00394302
							220:leaf=0.0224298
						110:[D_CATEGORY_MICRO_MAX_COEC<0.102794] yes=221,no=222,missing=222
							221:leaf=0.0155408
							222:leaf=-0.0115648
		6:[CAT_REL<0.020657] yes=13,no=14,missing=14
			13:[D_KEYWORD_MICRO_MEAN_COEC<0.0912249] yes=27,no=28,missing=28
				27:[C_D_U_TITLEMD5_GENDER_COEC<0.163891] yes=55,no=56,missing=55
					55:[C_D_U_PUBLISHER_AGE_COEC<0.143821] yes=111,no=112,missing=112
						111:[C_D_U_CATEGORY_GENDER_MICRO_MAX_COEC<0.0362335] yes=223,no=224,missing=223
							223:leaf=0.00329693
							224:leaf=-0.0208699
						112:[C_D_U_CATEGORY_AGE_MICRO_MEAN_COEC<0.0737092] yes=225,no=226,missing=225
							225:leaf=0.0424942
							226:leaf=-0.0185903
					56:[C_D_U_CATEGORY_GENDER_MACRO_MEAN_COEC<0.0807901] yes=113,no=114,missing=114
						113:[C_D_U_CATEGORY_AGE_MICRO_MEAN_COEC<0.0798918] yes=227,no=228,missing=228
							227:leaf=-0.0572683
							228:leaf=-0.155301
						114:[KW_REL<0.000360029] yes=229,no=230,missing=230
							229:leaf=0.0395076
							230:leaf=-0.0406188
				28:[WORD_COUNT<630] yes=57,no=58,missing=58
					57:[C_D_U_TITLEMD5_CATEGORY_MACRO_MEAN_COEC<0.126599] yes=115,no=116,missing=116
						115:[C_D_U_CATEGORY_AGE_MACRO_MAX_COEC<0.0814638] yes=231,no=232,missing=231
							231:leaf=-0.11746
							232:leaf=-0.0309841
						116:[D_KEYWORD_MACRO_MAX_COEC<0.0355111] yes=233,no=234,missing=234
							233:leaf=-0.201947
							234:leaf=-0.114305
					58:[D_CATEGORY_MICRO_MEAN_COEC<0.0676831] yes=117,no=118,missing=117
						117:[U_CAT_LEN<14] yes=235,no=236,missing=236
							235:leaf=0.00453438
							236:leaf=0.0233718
						118:[TIME_OF_DAY<8] yes=237,no=238,missing=238
							237:leaf=-0.0192279
							238:leaf=-0.000885926
			14:[C_D_U_TITLEMD5_CATEGORY_MACRO_MEAN_COEC<0.120766] yes=29,no=30,missing=30
				29:[WORD_COUNT<1420] yes=59,no=60,missing=60
					59:[D_CATEGORY_MICRO_MAX_COEC<0.0771495] yes=119,no=120,missing=120
						119:[D_KEYWORD_MICRO_MEAN_COEC<0.069444] yes=239,no=240,missing=240
							239:leaf=-0.00848048
							240:leaf=0.00363401
						120:[CAT_REL<0.341075] yes=241,no=242,missing=242
							241:leaf=-0.0124852
							242:leaf=-0.0017935
					60:[D_PUBLISHER_COEC<0.0901278] yes=121,no=122,missing=122
						121:[D_CATEGORY_MACRO_MAX_COEC<0.0535386] yes=243,no=244,missing=244
							243:leaf=0.0119416
							244:leaf=-0.000804163
						122:[D_TITLEMD5_COEC<0.121613] yes=245,no=246,missing=245
							245:leaf=0.00877636
							246:leaf=-0.00365118
				30:[D_TITLEMD5_COEC<0.14272] yes=61,no=62,missing=62
					61:[C_D_U_TITLEMD5_CATEGORY_MICRO_MAX_COEC<0.26442] yes=123,no=124,missing=124
						123:[D_CATEGORY_MACRO_MEAN_COEC<0.0964151] yes=247,no=248,missing=248
							247:leaf=0.0160105
							248:leaf=0.00230062
						124:[KW_REL<0.000147167] yes=249,no=250,missing=250
							249:leaf=-0.0654267
							250:leaf=-0.00981507
					62:[C_D_U_TITLEMD5_CATEGORY_MACRO_MEAN_COEC<0.152492] yes=125,no=126,missing=126
						125:[D_TITLEMD5_COEC<0.170754] yes=251,no=252,missing=252
							251:leaf=-0.000339312
							252:leaf=-0.0193442
						126:[DAY_OF_WEEK<0.999999] yes=253,no=254,missing=254
							253:leaf=0.0187595
							254:leaf=0.00511974
booster[41]:
0:[U_KW_LEN<200] yes=1,no=2,missing=1
	1:[IMAGE_COUNT<0.999999] yes=3,no=4,missing=4
		3:[U_KW_LEN<155] yes=7,no=8,missing=8
			7:[C_D_U_CATEGORY_GENDER_MICRO_MEAN_COEC<0.0753278] yes=15,no=16,missing=16
				15:[D_PUBLISHER_COEC<0.108783] yes=31,no=32,missing=31
					31:[C_D_U_CATEGORY_CITY_MICRO_MEAN_COEC<0.0572737] yes=63,no=64,missing=64
						63:[D_KEYWORD_MICRO_MEAN_COEC<0.0815886] yes=127,no=128,missing=128
							127:leaf=-0.109104
							128:leaf=0.0715798
						64:[D_CATEGORY_MICRO_MEAN_COEC<0.0510499] yes=129,no=130,missing=130
							129:leaf=0.285441
							130:leaf=-0.0216251
					32:[C_D_U_TITLEMD5_GENDER_COEC<0.0843577] yes=65,no=66,missing=65
						65:[U_GENDER<4] yes=131,no=132,missing=132
							131:leaf=0.138387
							132:leaf=-0.00295775
						66:[C_D_U_TITLEMD5_CATEGORY_MACRO_MAX_COEC<0.0389785] yes=133,no=134,missing=134
							133:leaf=0.00712259
							134:leaf=-0.166181
				16:[CAT_REL<0.163792] yes=33,no=34,missing=34
					33:[C_D_U_TITLEMD5_CATEGORY_MICRO_MAX_COEC<0.118429] yes=67,no=68,missing=67
						67:[D_KEYWORD_MACRO_MEAN_COEC<0.0781628] yes=135,no=136,missing=136
							135:leaf=-0.0475531
							136:leaf=-0.158301
						68:[C_D_U_CATEGORY_CITY_MICRO_MAX_COEC<0.0802089] yes=137,no=138,missing=138
							137:leaf=-0.167256
							138:leaf=0.0972926
					34:[D_KEYWORD_MICRO_MEAN_COEC<0.103545] yes=69,no=70,missing=70
						69:[C_D_U_CATEGORY_GENDER_MICRO_MAX_COEC<0.108931] yes=139,no=140,missing=140
							139:leaf=-0.0695607
							140:leaf=0.0794816
						70:[D_CATEGORY_MICRO_MAX_COEC<0.0803376] yes=141,no=142,missing=142
							141:leaf=0.0160157
							142:leaf=-0.168733
			8:[D_CATEGORY_MICRO_MEAN_COEC<0.0760413] yes=17,no=18,missing=18
				17:[TIME_OF_DAY<12] yes=35,no=36,missing=36
					35:[D_PUBLISHER_COEC<0.110607] yes=71,no=72,missing=71
						71:[WORD_COUNT<3398] yes=143,no=144,missing=144
							143:leaf=-0.0115728
							144:leaf=-0.150078
						72:[C_D_U_PUBLISHER_CITY_COEC<0.149633] yes=145,no=146,missing=145
							145:leaf=0.0396961
							146:leaf=0.223005
					36:[WORD_COUNT<723] yes=73,no=74,missing=74
						73:[D_KEYWORD_MICRO_MAX_COEC<0.0788898] yes=147,no=148,missing=148
							147:leaf=0.243586
							148:leaf=-0.113441
						74:[D_KEYWORD_MICRO_MEAN_COEC<0.060646] yes=149,no=150,missing=150
							149:leaf=0.00412767
							150:leaf=-0.158872
				18:[C_D_U_TITLEMD5_CATEGORY_MICRO_MAX_COEC<0.110188] yes=37,no=38,missing=38
					37:[D_PUBLISHER_COEC<0.0952637] yes=75,no=76,missing=76
						75:[C_D_U_CATEGORY_CITY_MACRO_MEAN_COEC<0.0733882] yes=151,no=152,missing=152
							151:leaf=-0.0250569
							152:leaf=0.138076
						76:[D_CATEGORY_MACRO_MEAN_COEC<0.103316] yes=153,no=154,missing=154
							153:leaf=-0.129861
							154:leaf=0.110614
					38:[CAT_REL<0.51399] yes=77,no=78,missing=78
						77:[KW_REL<0.00467228] yes=155,no=156,missing=156
							155:leaf=-0.117306
							156:leaf=0.0272554
						78:[C_D_U_TITLEMD5_GENDER_COEC<0.0231804] yes=157,no=158,missing=158
							157:leaf=0.178505
							158:leaf=0.0197053
		4:[U_GENDER<2] yes=9,no=10,missing=9
			9:[U_KW_LEN<125] yes=19,no=20,missing=20
				19:[C_D_U_TITLEMD5_CATEGORY_MACRO_MEAN_COEC<0.0972978] yes=39,no=40,missing=40
					39:[D_CATEGORY_MACRO_MEAN_COEC<0.104218] yes=79,no=80,missing=80
						79:[DAY_OF_WEEK<4] yes=159,no=160,missing=160
							159:leaf=-0.00262914
							160:leaf=-0.00939988
						80:[CAT_REL<0.475429] yes=161,no=162,missing=162
							161:leaf=-0.017703
							162:leaf=-0.0801379
					40:[TIME_OF_DAY<17] yes=81,no=82,missing=82
						81:[C_D_U_CATEGORY_GENDER_MICRO_MAX_COEC<0.0637867] yes=163,no=164,missing=164
							163:leaf=-0.0116629
							164:leaf=-0.000711983
						82:[TIME_OF_DAY<22] yes=165,no=166,missing=166
							165:leaf=0.00604412
							166:leaf=-0.0205107
				20:[CAT_REL<0.657234] yes=41,no=42,missing=42
					41:[D_CATEGORY_MACRO_MAX_COEC<0.0667818] yes=83,no=84,missing=83
						83:[CAT_REL<0.199999] yes=167,no=168,missing=168
							167:leaf=0.00211975
							168:leaf=0.021772
						84:[C_D_U_CATEGORY_CITY_MACRO_MEAN_COEC<0.22147] yes=169,no=170,missing=170
							169:leaf=-6.4468e-05
							170:leaf=0.0643993
					42:[C_D_U_TITLEMD5_CATEGORY_MICRO_MEAN_COEC<0.0568625] yes=85,no=86,missing=86
						85:[D_CATEGORY_MICRO_MAX_COEC<0.0656725] yes=171,no=172,missing=172
							171:leaf=0.101887
							172:leaf=0.0381749
						86:[D_KEYWORD_MACRO_MEAN_COEC<0.0469863] yes=173,no=174,missing=174
							173:leaf=-0.15979
							174:leaf=0.0157142
			10:[C_D_U_CATEGORY_GENDER_MICRO_MEAN_COEC<0.0788778] yes=21,no=22,missing=21
				21:[CAT_REL<0.0402573] yes=43,no=44,missing=44
					43:[C_D_U_TITLEMD5_GENDER_COEC<0.0361018] yes=87,no=88,missing=87
						87:[C_D_U_CATEGORY_CITY_MACRO_MAX_COEC<0.0870147] yes=175,no=176,missing=175
							175:leaf=-0.0241549
							176:leaf=0.104195
						88:[D_KEYWORD_MACRO_MEAN_COEC<0.0591127] yes=177,no=178,missing=178
							177:leaf=0.0257395
							178:leaf=0.00523372
					44:[D_CATEGORY_MICRO_MEAN_COEC<0.0624982] yes=89,no=90,missing=90
						89:[KW_REL<1.48237e-05] yes=179,no=180,missing=180
							179:leaf=-0.0392533
							180:leaf=0.0367681
						90:[U_CAT_LEN<6] yes=181,no=182,missing=182
							181:leaf=-0.0125241
							182:leaf=0.00681851
				22:[CAT_REL<0.399999] yes=45,no=46,missing=46
					45:[D_CATEGORY_MICRO_MAX_COEC<0.0863758] yes=91,no=92,missing=92
						91:[D_TITLEMD5_COEC<0.074741] yes=183,no=184,missing=183
							183:leaf=-0.00328571
							184:leaf=0.0298989
						92:[C_D_U_CATEGORY_CITY_MICRO_MEAN_COEC<0.11606] yes=185,no=186,missing=186
							185:leaf=0.00240904
							186:leaf=0.0304299
					46:[U_KW_LEN<187] yes=93,no=94,missing=94
						93:[TIME_OF_DAY<4] yes=187,no=188,missing=188
							187:leaf=-0.014405
							188:leaf=0.0350838
						94:[DAY_OF_WEEK<2] yes=189,no=190,missing=190
							189:leaf=0.055914
							190:leaf=-0.0763528
	2:[IMAGE_COUNT<0.999999] yes=5,no=6,missing=6
		5:[KW_REL<0.0122729] yes=11,no=12,missing=12
			11:[D_KEYWORD_MICRO_MAX_COEC<0.107686] yes=23,no=24,missing=24
				23:[D_TITLEMD5_COEC<0.105144] yes=47,no=48,missing=48
					47:[KW_REL<0.00210162] yes=95,no=96,missing=96
						95:[C_D_U_PUBLISHER_AGE_COEC<0.0948465] yes=191,no=192,missing=191
							191:leaf=-0.0961823
							192:leaf=-0.0449203
						96:[C_D_U_TITLEMD5_CATEGORY_MICRO_MEAN_COEC<0.0545463] yes=193,no=194,missing=194
							193:leaf=-0.0141571
							194:leaf=-0.0575978
					48:[KW_REL<0.00718719] yes=97,no=98,missing=98
						97:[C_D_U_TITLEMD5_CATEGORY_MICRO_MEAN_COEC<0.123626] yes=195,no=196,missing=196
							195:leaf=-0.0873849
							196:leaf=-0.128264
						98:[C_D_U_CATEGORY_CITY_MICRO_MEAN_COEC<0.0682076] yes=197,no=198,missing=198
							197:leaf=-0.0865502
							198:leaf=-0.0228246
				24:[D_TITLEMD5_COEC<0.168722] yes=49,no=50,missing=49
					49:[D_KEYWORD_MICRO_MAX_COEC<0.236433] yes=99,no=100,missing=100
						99:[C_D_U_TITLEMD5_AGE_COEC<0.181505] yes=199,no=200,missing=199
							199:leaf=-0.0216487
							200:leaf=-0.101987
						100:[CAT_REL<0.44193] yes=201,no=202,missing=202
							201:leaf=0.179536
							202:leaf=-0.138754
					50:[KW_REL<0.00282246] yes=101,no=102,missing=102
						101:[C_D_U_TITLEMD5_CATEGORY_MACRO_MAX_COEC<0.0392182] yes=203,no=204,missing=204
							203:leaf=0.0336221
							204:leaf=-0.143969
						102:[D_KEYWORD_MACRO_MEAN_COEC<0.0708351] yes=205,no=206,missing=206
							205:leaf=-0.10197
							206:leaf=-0.041089
			12:[U_CAT_LEN<10] yes=25,no=26,missing=26
				25:[TIME_OF_DAY<6] yes=51,no=52,missing=52
					51:[KW_REL<0.0316075] yes=103,no=104,missing=104
						103:[WORD_COUNT<2427] yes=207,no=208,missing=208
							207:leaf=-0.0661111
							208:leaf=-0.168247
						104:[C_D_U_TITLEMD5_AGE_COEC<0.0915748] yes=209,no=210,missing=210
							209:leaf=-0.0761713
							210:leaf=0.146529
					52:[CAT_REL<0.139973] yes=105,no=106,missing=106
						105:[C_D_U_TITLEMD5_GENDER_COEC<0.0980211] yes=211,no=212,missing=212
							211:leaf=-0.0263205
							212:leaf=-0.10904
						106:[D_KEYWORD_MACRO_MEAN_COEC<0.0377024] yes=213,no=214,missing=214
							213:leaf=0.201103
							214:leaf=-0.0102766
				26:[C_D_U_CATEGORY_CITY_MICRO_MAX_COEC<0.0670587] yes=53,no=54,missing=53
					53:[C_D_U_PUBLISHER_CITY_COEC<0.0402425] yes=107,no=108,missing=108
						107:[WORD_COUNT<1814] yes=215,no=216,missing=216
							215:leaf=-0.130986
							216:leaf=-0.0254448
						108:[C_D_U_PUBLISHER_GENDER_COEC<0.0598502] yes=217,no=218,missing=218
							217:leaf=0.03972
							218:leaf=-0.0132801
					54:[WORD_COUNT<1753] yes=109,no=110,missing=110
						109:[D_KEYWORD_MACRO_MEAN_COEC<0.0729189] yes=219,no=220,missing=220
							219:leaf=-0.0223213
							220:leaf=0.0321654
						110:[TIME_OF_DAY<9] yes=221,no=222,missing=222
							221:leaf=-0.012187
							222:leaf=0.0389923
		6:[C_D_U_CATEGORY_CITY_MICRO_MAX_COEC<0.125017] yes=13,no=14,missing=14
			13:[C_D_U_PUBLISHER_CITY_COEC<0.0542049] yes=27,no=28,missing=27
				27:[D_PUBLISHER_COEC<0.0313416] yes=55,no=56,missing=55
					55:[TIME_OF_DAY<3] yes=111,no=112,missing=112
						111:[C_D_U_CATEGORY_GENDER_MICRO_MEAN_COEC<0.0671269] yes=223,no=224,missing=224
							223:leaf=0.0456751
							224:leaf=-0.018166
						112:[KW_REL<0.00236028] yes=225,no=226,missing=226
							225:leaf=-0.0350796
							226:leaf=-0.0163283
					56:[D_CATEGORY_MICRO_MEAN_COEC<0.0396386] yes=113,no=114,missing=114
						113:[CAT_REL<0.020058] yes=227,no=228,missing=228
							227:leaf=0.00265435
							228:leaf=0.0348172
						114:[C_D_U_CATEGORY_CITY_MICRO_MEAN_COEC<0.0516037] yes=229,no=230,missing=230
							229:leaf=-0.0157229
							230:leaf=-0.00532269
				28:[U_CAT_LEN<17] yes=57,no=58,missing=58
					57:[TIME_OF_DAY<17] yes=115,no=116,missing=116
						115:[D_CATEGORY_MICRO_MAX_COEC<0.067972] yes=231,no=232,missing=232
							231:leaf=0.00454215
							232:leaf=-0.00234369
						116:[C_D_U_TITLEMD5_CATEGORY_MACRO_MEAN_COEC<0.0694941] yes=233,no=234,missing=234
							233:leaf=-0.00146006
							234:leaf=0.00723991
					58:[CAT_REL<0.155485] yes=117,no=118,missing=118
						117:[D_CATEGORY_MICRO_MAX_COEC<0.0641286] yes=235,no=236,missing=236
							235:leaf=0.0143858
							236:leaf=-0.000591255
						118:[D_CATEGORY_MICRO_MEAN_COEC<0.080015] yes=237,no=238,missing=238
							237:leaf=0.0155554
							238:leaf=0.00731177
			14:[C_D_U_CATEGORY_CITY_MACRO_MAX_COEC<0.204225] yes=29,no=30,missing=29
				29:[CAT_REL<0.030631] yes=59,no=60,missing=60
					59:[D_KEYWORD_MACRO_MEAN_COEC<0.101817] yes=119,no=120,missing=120
						119:[C_D_U_TITLEMD5_AGE_COEC<0.0874768] yes=239,no=240,missing=240
							239:leaf=-0.0255641
							240:leaf=0.0155394
						120:[D_PUBLISHER_COEC<0.0960294] yes=241,no=242,missing=241
							241:leaf=-0.038051
							242:leaf=-0.00566342
					60:[C_D_U_CATEGORY_GENDER_MICRO_MEAN_COEC<0.104481] yes=121,no=122,missing=122
						121:[C_D_U_CATEGORY_AGE_MICRO_MAX_COEC<0.0906396] yes=243,no=244,missing=244
							243:leaf=0.0169641
							244:leaf=0.00294391
						122:[D_KEYWORD_MICRO_MEAN_COEC<0.142228] yes=245,no=246,missing=246
							245:leaf=0.0329646
							246:leaf=-0.0235674
				30:[D_CATEGORY_MICRO_MAX_COEC<0.0923256] yes=61,no=62,missing=62
					61:[CAT_REL<0.116839] yes=123,no=124,missing=124
						123:[C_D_U_TITLEMD5_AGE_COEC<0.0495571] yes=247,no=248,missing=247
							247:leaf=-0.0387329
							248:leaf=0.0235714
						124:[D_KEYWORD_MICRO_MEAN_COEC<0.0620503] yes=249,no=250,missing=250
							249:leaf=0.0786778
							250:leaf=0.0384106
					62:[C_D_U_PUBLISHER_CITY_COEC<0.0969696] yes=125,no=126,missing=125
						125:[CAT_REL<0.116839] yes=251,no=252,missing=252
							251:leaf=0.0539481
							252:leaf=0.0170681
						126:[WORD_COUNT<5126] yes=253,no=254,missing=254
							253:leaf=0.00381285
							254:leaf=-0.136985
booster[42]:
0:[U_KW_LEN<200] yes=1,no=2,missing=1
	1:[IMAGE_COUNT<3] yes=3,no=4,missing=4
		3:[C_D_U_PUBLISHER_CITY_COEC<0.15181] yes=7,no=8,missing=7
			7:[WORD_COUNT<2325] yes=15,no=16,missing=16
				15:[D_KEYWORD_MACRO_MEAN_COEC<0.173405] yes=31,no=32,missing=32
					31:[KW_REL<0.00409697] yes=63,no=64,missing=64
						63:[U_GENDER<2] yes=127,no=128,missing=127
							127:leaf=-0.00438307
							128:leaf=0.00331191
						64:[U_KW_LEN<32] yes=129,no=130,missing=130
							129:leaf=-0.0106087
							130:leaf=0.00441014
					32:[C_D_U_TITLEMD5_CATEGORY_MACRO_MEAN_COEC<0.276032] yes=65,no=66,missing=66
						65:[C_D_U_TITLEMD5_CATEGORY_MICRO_MAX_COEC<0.130313] yes=131,no=132,missing=132
							131:leaf=0.108098
							132:leaf=-0.00240911
						66:[C_D_U_CATEGORY_GENDER_MACRO_MEAN_COEC<0.0893017] yes=133,no=134,missing=133
							133:leaf=0.0112766
							134:leaf=0.0505406
				16:[C_D_U_TITLEMD5_GENDER_COEC<0.0215486] yes=33,no=34,missing=34
					33:[KW_REL<0.0204531] yes=67,no=68,missing=68
						67:[D_CATEGORY_MACRO_MEAN_COEC<0.079407] yes=135,no=136,missing=136
							135:leaf=-0.00904487
							136:leaf=-0.0334395
						68:[D_PUBLISHER_COEC<0.0640213] yes=137,no=138,missing=138
							137:leaf=-0.0023879
							138:leaf=0.0581075
					34:[C_D_U_CATEGORY_GENDER_MACRO_MAX_COEC<0.0257621] yes=69,no=70,missing=70
						69:[D_CATEGORY_MICRO_MAX_COEC<0.0260726] yes=139,no=140,missing=140
							139:leaf=0.0244715
							140:leaf=0.156278
						70:[C_D_U_CATEGORY_CITY_MACRO_MAX_COEC<0.0478746] yes=141,no=142,missing=141
							141:leaf=-0.0114721
							142:leaf=0.00344421
			8:[C_D_U_TITLEMD5_CATEGORY_MACRO_MEAN_COEC<0.212475] yes=17,no=18,missing=18
				17:[WORD_COUNT<761] yes=35,no=36,missing=36
					35:[C_D_U_CATEGORY_CITY_MICRO_MEAN_COEC<0.106382] yes=71,no=72,missing=72
						71:[C_D_U_TITLEMD5_GENDER_COEC<0.230931] yes=143,no=144,missing=143
							143:leaf=-0.0240808
							144:leaf=0.0416176
						72:[C_D_U_TITLEMD5_CATEGORY_MICRO_MEAN_COEC<0.0567455] yes=145,no=146,missing=146
							145:leaf=0.147548
							146:leaf=0.00797574
					36:[D_KEYWORD_MICRO_MAX_COEC<0.074073] yes=73,no=74,missing=74
						73:[C_D_U_PUBLISHER_GENDER_COEC<0.0499441] yes=147,no=148,missing=148
							147:leaf=0.195038
							148:leaf=0.0433631
						74:[C_D_U_PUBLISHER_GENDER_COEC<0.0763295] yes=149,no=150,missing=149
							149:leaf=-0.0135856
							150:leaf=0.00864723
				18:[C_D_U_CATEGORY_CITY_MACRO_MAX_COEC<0.0630186] yes=37,no=38,missing=37
					37:[C_D_U_CATEGORY_CITY_MACRO_MEAN_COEC<0.0255466] yes=75,no=76,missing=76
						75:[D_KEYWORD_MICRO_MAX_COEC<0.177662] yes=151,no=152,missing=152
							151:leaf=-0.00787473
							152:leaf=0.10339
						76:[D_CATEGORY_MACRO_MAX_COEC<0.0859456] yes=153,no=154,missing=153
							153:leaf=0.051281
							154:leaf=-0.0507552
					38:[C_D_U_CATEGORY_CITY_MICRO_MAX_COEC<0.0639412] yes=77,no=78,missing=78
						77:[D_CATEGORY_MACRO_MAX_COEC<0.0599968] yes=155,no=156,missing=156
							155:leaf=0.0368388
							156:leaf=-0.165243
						78:[C_D_U_PUBLISHER_GENDER_COEC<0.0351741] yes=157,no=158,missing=157
							157:leaf=-0.162787
							158:leaf=0.0123674
		4:[D_PUBLISHER_COEC<0.111496] yes=9,no=10,missing=9
			9:[D_PUBLISHER_COEC<0.0366181] yes=19,no=20,missing=19
				19:[KW_REL<0.0101635] yes=39,no=40,missing=40
					39:[U_CAT_LEN<3] yes=79,no=80,missing=80
						79:[D_CATEGORY_MACRO_MAX_COEC<0.0522032] yes=159,no=160,missing=159
							159:leaf=-0.0325644
							160:leaf=-0.106976
						80:[WORD_COUNT<1210] yes=161,no=162,missing=162
							161:leaf=0.113829
							162:leaf=-0.0105716
					40:[D_TITLEMD5_COEC<0.0260055] yes=81,no=82,missing=82
						81:[U_KW_LEN<17] yes=163,no=164,missing=164
							163:leaf=-0.108709
							164:leaf=0.190475
						82:leaf=-0.131676
				20:[D_PUBLISHER_COEC<0.088234] yes=41,no=42,missing=42
					41:[IMAGE_COUNT<5] yes=83,no=84,missing=84
						83:[C_D_U_CATEGORY_GENDER_MICRO_MEAN_COEC<0.0541101] yes=165,no=166,missing=166
							165:leaf=0.0297417
							166:leaf=0.010705
						84:[C_D_U_TITLEMD5_GENDER_COEC<0.072098] yes=167,no=168,missing=167
							167:leaf=0.0151104
							168:leaf=-0.0623566
					42:[TIME_OF_DAY<10] yes=85,no=86,missing=86
						85:[D_KEYWORD_MICRO_MAX_COEC<0.103478] yes=169,no=170,missing=170
							169:leaf=-0.01682
							170:leaf=0.015504
						86:[CAT_REL<0.230677] yes=171,no=172,missing=172
							171:leaf=-0.0101668
							172:leaf=0.0111722
			10:[D_KEYWORD_MACRO_MAX_COEC<0.0219465] yes=21,no=22,missing=22
				21:[TIME_OF_DAY<21] yes=43,no=44,missing=44
					43:[C_D_U_CATEGORY_GENDER_MACRO_MAX_COEC<0.0640393] yes=87,no=88,missing=88
						87:[C_D_U_TITLEMD5_CATEGORY_MACRO_MAX_COEC<0.0626021] yes=173,no=174,missing=173
							173:leaf=0.0128128
							174:leaf=0.22402
						88:[C_D_U_CATEGORY_CITY_MACRO_MAX_COEC<0.101931] yes=175,no=176,missing=175
							175:leaf=-0.135913
							176:leaf=-0.0063187
					44:[TIME_OF_DAY<22] yes=89,no=90,missing=90
						89:leaf=0.162374
						90:[D_KEYWORD_MICRO_MEAN_COEC<0.0958906] yes=177,no=178,missing=178
							177:leaf=-0.159633
							178:leaf=0.153634
				22:[D_CATEGORY_MICRO_MEAN_COEC<0.0695713] yes=45,no=46,missing=46
					45:[C_D_U_PUBLISHER_GENDER_COEC<0.105124] yes=91,no=92,missing=92
						91:leaf=-0.180572
						92:[C_D_U_TITLEMD5_CATEGORY_MICRO_MEAN_COEC<0.0985138] yes=179,no=180,missing=180
							179:leaf=-0.0402972
							180:leaf=0.0549531
					46:[D_KEYWORD_MICRO_MAX_COEC<0.122651] yes=93,no=94,missing=94
						93:[U_AGE_2<0.999999] yes=181,no=182,missing=182
							181:leaf=-0.199064
							182:leaf=0.0155833
						94:[TIME_OF_DAY<16] yes=183,no=184,missing=184
							183:leaf=0.021747
							184:leaf=0.0567532
	2:[U_CAT_LEN<11] yes=5,no=6,missing=6
		5:[IMAGE_COUNT<0.999999] yes=11,no=12,missing=12
			11:[KW_REL<0.0118009] yes=23,no=24,missing=24
				23:[D_KEYWORD_MICRO_MAX_COEC<0.100166] yes=47,no=48,missing=48
					47:[C_D_U_TITLEMD5_AGE_COEC<0.267661] yes=95,no=96,missing=95
						95:[C_D_U_CATEGORY_CITY_MICRO_MAX_COEC<0.0774969] yes=185,no=186,missing=186
							185:leaf=-0.0576109
							186:leaf=-0.103021
						96:leaf=-0.19297
					48:[C_D_U_TITLEMD5_CATEGORY_MACRO_MAX_COEC<0.0863909] yes=97,no=98,missing=98
						97:[C_D_U_CATEGORY_CITY_MACRO_MAX_COEC<0.0489542] yes=187,no=188,missing=187
							187:leaf=-0.0901453
							188:leaf=-0.0309026
						98:[C_D_U_CATEGORY_AGE_MICRO_MEAN_COEC<0.0689908] yes=189,no=190,missing=190
							189:leaf=-0.0224294
							190:leaf=-0.0987958
				24:[CAT_REL<0.092143] yes=49,no=50,missing=50
					49:[C_D_U_PUBLISHER_AGE_COEC<0.0879528] yes=99,no=100,missing=100
						99:[C_D_U_TITLEMD5_CATEGORY_MACRO_MAX_COEC<0.0248808] yes=191,no=192,missing=192
							191:leaf=-0.0298764
							192:leaf=-0.140624
						100:[CAT_REL<0.043946] yes=193,no=194,missing=194
							193:leaf=-0.123161
							194:leaf=0.0860224
					50:[D_PUBLISHER_COEC<0.0470901] yes=101,no=102,missing=101
						101:[D_CATEGORY_MICRO_MAX_COEC<0.0369733] yes=195,no=196,missing=196
							195:leaf=0.183341
							196:leaf=-0.0910961
						102:[U_CAT_LEN<9] yes=197,no=198,missing=198
							197:leaf=-0.0178408
							198:leaf=0.0109342
			12:[CAT_REL<0.585163] yes=25,no=26,missing=26
				25:[C_D_U_PUBLISHER_CITY_COEC<0.0540685] yes=51,no=52,missing=52
					51:[D_PUBLISHER_COEC<0.0336566] yes=103,no=104,missing=104
						103:[C_D_U_PUBLISHER_AGE_COEC<0.141338] yes=199,no=200,missing=200
							199:leaf=-0.0346347
							200:leaf=0.107946
						104:[C_D_U_CATEGORY_CITY_MICRO_MAX_COEC<0.0629279] yes=201,no=202,missing=202
							201:leaf=-0.0179305
							202:leaf=-0.0075939
					52:[D_CATEGORY_MICRO_MEAN_COEC<0.0680133] yes=105,no=106,missing=105
						105:[D_KEYWORD_MACRO_MEAN_COEC<0.0692433] yes=203,no=204,missing=204
							203:leaf=-0.00123943
							204:leaf=0.0092041
						106:[WORD_COUNT<1419] yes=205,no=206,missing=206
							205:leaf=-0.00795307
							206:leaf=-0.00195102
				26:[C_D_U_CATEGORY_CITY_MACRO_MAX_COEC<0.0489542] yes=53,no=54,missing=54
					53:[C_D_U_TITLEMD5_CATEGORY_MACRO_MAX_COEC<0.10187] yes=107,no=108,missing=108
						107:[TIME_OF_DAY<16] yes=207,no=208,missing=208
							207:leaf=-0.054858
							208:leaf=-0.00401813
						108:[DAY_OF_WEEK<0.999999] yes=209,no=210,missing=210
							209:leaf=0.0599161
							210:leaf=-0.0177179
					54:[IMAGE_COUNT<3] yes=109,no=110,missing=110
						109:[KW_REL<0.00742425] yes=211,no=212,missing=212
							211:leaf=0.00140706
							212:leaf=0.0126597
						110:[D_PUBLISHER_COEC<0.0898749] yes=213,no=214,missing=214
							213:leaf=0.0257891
							214:leaf=0.00688257
		6:[KW_REL<0.00446227] yes=13,no=14,missing=14
			13:[D_KEYWORD_MICRO_MEAN_COEC<0.0727801] yes=27,no=28,missing=28
				27:[CAT_REL<0.092143] yes=55,no=56,missing=56
					55:[IMAGE_COUNT<2] yes=111,no=112,missing=112
						111:[C_D_U_TITLEMD5_CATEGORY_MACRO_MAX_COEC<0.035805] yes=215,no=216,missing=216
							215:leaf=-0.0135979
							216:leaf=-0.0333885
						112:[D_PUBLISHER_COEC<0.090511] yes=217,no=218,missing=218
							217:leaf=0.0096608
							218:leaf=0.0518913
					56:[C_D_U_TITLEMD5_GENDER_COEC<0.231708] yes=113,no=114,missing=114
						113:[D_PUBLISHER_COEC<0.0928199] yes=219,no=220,missing=220
							219:leaf=-0.00423918
							220:leaf=0.0071416
						114:[D_TITLEMD5_COEC<2.85086] yes=221,no=222,missing=222
							221:leaf=-0.034991
							222:leaf=-0.00535331
				28:[D_CATEGORY_MICRO_MAX_COEC<0.0640242] yes=57,no=58,missing=58
					57:[D_PUBLISHER_COEC<0.0336566] yes=115,no=116,missing=115
						115:[U_GENDER<2] yes=223,no=224,missing=224
							223:leaf=-0.0565117
							224:leaf=-0.00860608
						116:[D_CATEGORY_MICRO_MEAN_COEC<0.0605845] yes=225,no=226,missing=226
							225:leaf=0.0262333
							226:leaf=0.0125845
					58:[CAT_REL<0.019611] yes=117,no=118,missing=118
						117:[DAY_OF_WEEK<3] yes=227,no=228,missing=228
							227:leaf=-0.00539507
							228:leaf=-0.0258789
						118:[C_D_U_TITLEMD5_CATEGORY_MACRO_MEAN_COEC<0.151802] yes=229,no=230,missing=230
							229:leaf=0.000551351
							230:leaf=0.00920616
			14:[KW_REL<0.0315643] yes=29,no=30,missing=30
				29:[D_KEYWORD_MICRO_MEAN_COEC<0.0821517] yes=59,no=60,missing=60
					59:[D_CATEGORY_MACRO_MAX_COEC<0.0638199] yes=119,no=120,missing=119
						119:[WORD_COUNT<906] yes=231,no=232,missing=232
							231:leaf=-0.0203752
							232:leaf=0.0140736
						120:[C_D_U_PUBLISHER_GENDER_COEC<0.0610878] yes=233,no=234,missing=234
							233:leaf=-0.00667405
							234:leaf=0.00372026
					60:[DAY_OF_WEEK<5] yes=121,no=122,missing=122
						121:[WORD_COUNT<676] yes=235,no=236,missing=236
							235:leaf=-0.0101523
							236:leaf=0.0194115
						122:[D_CATEGORY_MICRO_MAX_COEC<0.0823635] yes=237,no=238,missing=237
							237:leaf=0.0189574
							238:leaf=-0.00819378
				30:[D_KEYWORD_MACRO_MAX_COEC<0.0162377] yes=61,no=62,missing=62
					61:[D_KEYWORD_MICRO_MAX_COEC<0.0827786] yes=123,no=124,missing=124
						123:[D_CATEGORY_MACRO_MEAN_COEC<0.0656697] yes=239,no=240,missing=240
							239:leaf=-0.00430124
							240:leaf=0.0665365
						124:[CAT_REL<0.071652] yes=241,no=242,missing=242
							241:leaf=-0.023047
							242:leaf=0.0561853
					62:[D_PUBLISHER_COEC<0.0783807] yes=125,no=126,missing=126
						125:[D_KEYWORD_MACRO_MAX_COEC<0.0280661] yes=243,no=244,missing=244
							243:leaf=0.00654716
							244:leaf=0.0341977
						126:[WORD_COUNT<2351] yes=245,no=246,missing=246
							245:leaf=0.0222767
							246:leaf=0.0462643
booster[43]:
0:[U_KW_LEN<200] yes=1,no=2,missing=1
	1:[C_D_U_CATEGORY_CITY_MACRO_MAX_COEC<0.157576] yes=3,no=4,missing=3
		3:[TIME_OF_DAY<18] yes=7,no=8,missing=8
			7:[TIME_OF_DAY<13] yes=15,no=16,missing=16
				15:[KW_REL<0.000888806] yes=31,no=32,missing=32
					31:[D_KEYWORD_MACRO_MEAN_COEC<0.0874115] yes=63,no=64,missing=64
						63:[D_CATEGORY_MICRO_MEAN_COEC<0.031423] yes=125,no=126,missing=125
							125:leaf=0.021187
							126:leaf=-0.00484254
						64:[D_CATEGORY_MACRO_MEAN_COEC<0.0879932] yes=127,no=128,missing=128
							127:leaf=0.00825022
							128:leaf=-0.00128698
					32:[U_KW_LEN<180] yes=65,no=66,missing=66
						65:[CAT_REL<0.666666] yes=129,no=130,missing=130
							129:leaf=0.00130384
							130:leaf=0.0134107
						66:[D_CATEGORY_MACRO_MAX_COEC<0.0768241] yes=131,no=132,missing=131
							131:leaf=0.0262734
							132:leaf=0.00254791
				16:[DAY_OF_WEEK<5] yes=33,no=34,missing=34
					33:[DAY_OF_WEEK<4] yes=67,no=68,missing=68
						67:[DAY_OF_WEEK<0.999999] yes=133,no=134,missing=134
							133:leaf=-0.00967578
							134:leaf=0.000575302
						68:[D_KEYWORD_MACRO_MEAN_COEC<0.0600087] yes=135,no=136,missing=136
							135:leaf=0.00175513
							136:leaf=-0.0189599
					34:[DAY_OF_WEEK<6] yes=69,no=70,missing=70
						69:[D_CATEGORY_MICRO_MAX_COEC<0.0820296] yes=137,no=138,missing=137
							137:leaf=0.00121599
							138:leaf=0.0174368
						70:[C_D_U_CATEGORY_CITY_MACRO_MEAN_COEC<0.110744] yes=139,no=140,missing=140
							139:leaf=-0.00107825
							140:leaf=-0.0457707
			8:[IMAGE_COUNT<12] yes=17,no=18,missing=18
				17:[C_D_U_CATEGORY_CITY_MICRO_MAX_COEC<0.10525] yes=35,no=36,missing=36
					35:[D_CATEGORY_MACRO_MAX_COEC<0.0771218] yes=71,no=72,missing=72
						71:[C_D_U_CATEGORY_CITY_MICRO_MAX_COEC<0.0681908] yes=141,no=142,missing=142
							141:leaf=0.00287269
							142:leaf=0.0148392
						72:[WORD_COUNT<1649] yes=143,no=144,missing=144
							143:leaf=-0.00718519
							144:leaf=0.00701423
					36:[U_KW_LEN<45] yes=73,no=74,missing=74
						73:[C_D_U_CATEGORY_CITY_MICRO_MEAN_COEC<0.112268] yes=145,no=146,missing=145
							145:leaf=0.0250209
							146:leaf=-0.0280658
						74:[U_KW_LEN<142] yes=147,no=148,missing=148
							147:leaf=0.0438543
							148:leaf=0.00454806
				18:[C_D_U_CATEGORY_GENDER_MICRO_MAX_COEC<0.076902] yes=37,no=38,missing=38
					37:[C_D_U_PUBLISHER_GENDER_COEC<0.0903919] yes=75,no=76,missing=76
						75:leaf=-0.123047
						76:leaf=0.112703
					38:[KW_REL<0.00420159] yes=77,no=78,missing=78
						77:[C_D_U_TITLEMD5_GENDER_COEC<0.0752464] yes=149,no=150,missing=150
							149:leaf=-0.143064
							150:leaf=-0.214269
						78:leaf=0.0371258
		4:[DAY_OF_WEEK<0.999999] yes=9,no=10,missing=10
			9:[C_D_U_TITLEMD5_CATEGORY_MACRO_MAX_COEC<0.085978] yes=19,no=20,missing=19
				19:[C_D_U_TITLEMD5_CATEGORY_MICRO_MAX_COEC<0.0932603] yes=39,no=40,missing=40
					39:[C_D_U_PUBLISHER_GENDER_COEC<0.0593392] yes=79,no=80,missing=80
						79:[C_D_U_PUBLISHER_CITY_COEC<0.116975] yes=151,no=152,missing=152
							151:leaf=0.195323
							152:leaf=-0.137741
						80:[C_D_U_TITLEMD5_CATEGORY_MACRO_MAX_COEC<0.0534819] yes=153,no=154,missing=154
							153:leaf=-0.155941
							154:leaf=-0.0768293
					40:[C_D_U_TITLEMD5_CATEGORY_MICRO_MAX_COEC<0.101223] yes=81,no=82,missing=81
						81:[TIME_OF_DAY<19] yes=155,no=156,missing=156
							155:leaf=0.115774
							156:leaf=-0.195634
						82:[D_KEYWORD_MICRO_MEAN_COEC<0.0783184] yes=157,no=158,missing=158
							157:leaf=-0.0636325
							158:leaf=0.0745209
				20:[C_D_U_PUBLISHER_CITY_COEC<3.62634] yes=41,no=42,missing=42
					41:[KW_REL<0.00221464] yes=83,no=84,missing=84
						83:[C_D_U_CATEGORY_GENDER_MICRO_MEAN_COEC<0.0746268] yes=159,no=160,missing=160
							159:leaf=-0.239881
							160:leaf=0.0474184
						84:leaf=-0.255465
					42:leaf=-0.26474
			10:[TIME_OF_DAY<15] yes=21,no=22,missing=22
				21:[D_CATEGORY_MACRO_MEAN_COEC<0.0734836] yes=43,no=44,missing=44
					43:[D_KEYWORD_MACRO_MEAN_COEC<0.0643251] yes=85,no=86,missing=86
						85:[KW_REL<0.00355581] yes=161,no=162,missing=162
							161:leaf=-0.138229
							162:leaf=-0.0142949
						86:[C_D_U_PUBLISHER_GENDER_COEC<0.0806222] yes=163,no=164,missing=164
							163:leaf=0.0395536
							164:leaf=-0.0464463
					44:[CAT_REL<0.063118] yes=87,no=88,missing=88
						87:[TIME_OF_DAY<4] yes=165,no=166,missing=166
							165:leaf=-0.0758821
							166:leaf=0.00392005
						88:[C_D_U_PUBLISHER_CITY_COEC<0.226322] yes=167,no=168,missing=168
							167:leaf=0.0014579
							168:leaf=0.0530209
				22:[C_D_U_CATEGORY_GENDER_MACRO_MEAN_COEC<0.062077] yes=45,no=46,missing=46
					45:[D_CATEGORY_MACRO_MAX_COEC<0.0724137] yes=89,no=90,missing=90
						89:[D_KEYWORD_MICRO_MAX_COEC<0.120167] yes=169,no=170,missing=170
							169:leaf=-0.173156
							170:leaf=0.0108228
						90:leaf=0.11632
					46:[C_D_U_CATEGORY_GENDER_MACRO_MEAN_COEC<0.0704164] yes=91,no=92,missing=92
						91:[C_D_U_CATEGORY_GENDER_MACRO_MAX_COEC<0.0685108] yes=171,no=172,missing=172
							171:leaf=0.0331244
							172:leaf=0.144682
						92:[KW_REL<0.000386091] yes=173,no=174,missing=174
							173:leaf=0.0428964
							174:leaf=-0.00359284
	2:[C_D_U_TITLEMD5_AGE_COEC<0.0377797] yes=5,no=6,missing=6
		5:[D_KEYWORD_MICRO_MEAN_COEC<0.104703] yes=11,no=12,missing=12
			11:[U_GENDER<4] yes=23,no=24,missing=24
				23:[C_D_U_CATEGORY_CITY_MICRO_MAX_COEC<0.126713] yes=47,no=48,missing=47
					47:[C_D_U_TITLEMD5_CATEGORY_MACRO_MEAN_COEC<0.0727024] yes=93,no=94,missing=94
						93:[C_D_U_TITLEMD5_CATEGORY_MACRO_MEAN_COEC<0.0230803] yes=175,no=176,missing=176
							175:leaf=-0.0195369
							176:leaf=-0.00671675
						94:[CAT_REL<0.072301] yes=177,no=178,missing=178
							177:leaf=-0.0580312
							178:leaf=-0.0219276
					48:[KW_REL<0.00105039] yes=95,no=96,missing=96
						95:[CAT_REL<0.253461] yes=179,no=180,missing=180
							179:leaf=-0.0817194
							180:leaf=0.0058837
						96:[C_D_U_CATEGORY_GENDER_MACRO_MAX_COEC<0.0841222] yes=181,no=182,missing=182
							181:leaf=0.0126383
							182:leaf=0.0490388
				24:[U_CAT_LEN<10] yes=49,no=50,missing=50
					49:[D_KEYWORD_MACRO_MEAN_COEC<0.0608334] yes=97,no=98,missing=98
						97:[C_D_U_PUBLISHER_GENDER_COEC<0.086713] yes=183,no=184,missing=183
							183:leaf=-0.0272339
							184:leaf=0.00400495
						98:[KW_REL<0.00225312] yes=185,no=186,missing=186
							185:leaf=-0.013824
							186:leaf=0.0104726
					50:[TIME_OF_DAY<3] yes=99,no=100,missing=100
						99:[C_D_U_CATEGORY_AGE_MICRO_MAX_COEC<0.0628382] yes=187,no=188,missing=187
							187:leaf=0.0943968
							188:leaf=0.0191911
						100:[CAT_REL<0.784374] yes=189,no=190,missing=190
							189:leaf=-0.0037009
							190:leaf=0.0369797
			12:[U_GENDER<2] yes=25,no=26,missing=26
				25:[CAT_REL<0.784374] yes=51,no=52,missing=52
					51:[D_CATEGORY_MACRO_MEAN_COEC<0.0967279] yes=101,no=102,missing=101
						101:[KW_REL<0.000674339] yes=191,no=192,missing=192
							191:leaf=-0.0194122
							192:leaf=0.0335482
						102:[D_KEYWORD_MICRO_MAX_COEC<0.143334] yes=193,no=194,missing=194
							193:leaf=-0.0147406
							194:leaf=-0.0619521
					52:[C_D_U_CATEGORY_AGE_MACRO_MAX_COEC<0.105358] yes=103,no=104,missing=104
						103:[D_CATEGORY_MICRO_MEAN_COEC<0.0882465] yes=195,no=196,missing=196
							195:leaf=-0.142024
							196:leaf=0.120673
						104:[D_KEYWORD_MACRO_MAX_COEC<0.0328209] yes=197,no=198,missing=198
							197:leaf=-0.135836
							198:leaf=0.014034
				26:[KW_REL<0.000285299] yes=53,no=54,missing=54
					53:[DAY_OF_WEEK<4] yes=105,no=106,missing=106
						105:[TIME_OF_DAY<19] yes=199,no=200,missing=200
							199:leaf=-0.0577529
							200:leaf=0.057454
						106:[D_KEYWORD_MACRO_MAX_COEC<0.0225976] yes=201,no=202,missing=202
							201:leaf=0.0819395
							202:leaf=-0.0079534
					54:[C_D_U_TITLEMD5_CATEGORY_MICRO_MEAN_COEC<0.0503639] yes=107,no=108,missing=108
						107:[KW_REL<0.0047399] yes=203,no=204,missing=204
							203:leaf=0.0499281
							204:leaf=0.115484
						108:[C_D_U_TITLEMD5_CATEGORY_MACRO_MAX_COEC<0.0400784] yes=205,no=206,missing=206
							205:leaf=-0.0117102
							206:leaf=0.032348
		6:[WORD_COUNT<760] yes=13,no=14,missing=14
			13:[CAT_REL<0.192185] yes=27,no=28,missing=28
				27:[D_CATEGORY_MACRO_MEAN_COEC<0.0784735] yes=55,no=56,missing=55
					55:[D_KEYWORD_MACRO_MEAN_COEC<0.083546] yes=109,no=110,missing=110
						109:[C_D_U_CATEGORY_GENDER_MICRO_MAX_COEC<0.0749273] yes=207,no=208,missing=208
							207:leaf=-0.0191708
							208:leaf=0.00629982
						110:[U_CAT_LEN<12] yes=209,no=210,missing=210
							209:leaf=-0.00336457
							210:leaf=0.0208299
					56:[CAT_REL<0.105089] yes=111,no=112,missing=112
						111:[D_CATEGORY_MICRO_MAX_COEC<0.102819] yes=211,no=212,missing=212
							211:leaf=-0.03486
							212:leaf=-0.072265
						112:[D_CATEGORY_MICRO_MAX_COEC<0.0856778] yes=213,no=214,missing=214
							213:leaf=-0.00740983
							214:leaf=-0.0225944
				28:[D_KEYWORD_MACRO_MEAN_COEC<0.125192] yes=57,no=58,missing=58
					57:[D_CATEGORY_MICRO_MEAN_COEC<0.0977255] yes=113,no=114,missing=114
						113:[IMAGE_COUNT<2] yes=215,no=216,missing=216
							215:leaf=-0.00643034
							216:leaf=0.0178292
						114:[C_D_U_TITLEMD5_CATEGORY_MACRO_MAX_COEC<0.0565627] yes=217,no=218,missing=218
							217:leaf=-0.0253485
							218:leaf=-0.0091761
					58:[KW_REL<0.00440705] yes=115,no=116,missing=116
						115:[C_D_U_PUBLISHER_GENDER_COEC<0.0723112] yes=219,no=220,missing=220
							219:leaf=-0.0268742
							220:leaf=0.0096644
						116:[D_CATEGORY_MICRO_MAX_COEC<0.105188] yes=221,no=222,missing=222
							221:leaf=-0.0110031
							222:leaf=-0.171287
			14:[U_CAT_LEN<19] yes=29,no=30,missing=30
				29:[CAT_REL<0.284463] yes=59,no=60,missing=60
					59:[C_D_U_PUBLISHER_CITY_COEC<0.0954311] yes=117,no=118,missing=118
						117:[D_CATEGORY_MACRO_MEAN_COEC<0.0641047] yes=223,no=224,missing=223
							223:leaf=0.00511466
							224:leaf=-0.00452458
						118:[D_CATEGORY_MICRO_MEAN_COEC<0.06875] yes=225,no=226,missing=225
							225:leaf=0.0104422
							226:leaf=0.00154912
					60:[TIME_OF_DAY<15] yes=119,no=120,missing=120
						119:[KW_REL<0.0066966] yes=227,no=228,missing=228
							227:leaf=0.000522161
							228:leaf=0.00824265
						120:[C_D_U_PUBLISHER_CITY_COEC<0.0720894] yes=229,no=230,missing=229
							229:leaf=0.00368222
							230:leaf=0.0105272
				30:[CAT_REL<0.194397] yes=61,no=62,missing=62
					61:[U_GENDER<2] yes=121,no=122,missing=122
						121:[C_D_U_CATEGORY_GENDER_MICRO_MAX_COEC<0.0682139] yes=231,no=232,missing=231
							231:leaf=0.0233281
							232:leaf=0.00926143
						122:[U_CAT_LEN<28] yes=233,no=234,missing=234
							233:leaf=0.0027516
							234:leaf=-0.0428501
					62:[D_CATEGORY_MACRO_MAX_COEC<0.0959813] yes=123,no=124,missing=124
						123:[C_D_U_PUBLISHER_CITY_COEC<0.0569613] yes=235,no=236,missing=235
							235:leaf=0.00823219
							236:leaf=0.0206559
						124:[U_CAT_LEN<28] yes=237,no=238,missing=238
							237:leaf=0.00821408
							238:leaf=-0.0677695
booster[44]:
0:[U_KW_LEN<200] yes=1,no=2,missing=1
	1:[U_GENDER<2] yes=3,no=4,missing=3
		3:[U_AGE_1<0.999999] yes=7,no=8,missing=8
			7:[D_PUBLISHER_COEC<0.0371667] yes=15,no=16,missing=15
				15:[D_TITLEMD5_COEC<0.0655626] yes=31,no=32,missing=32
					31:[C_D_U_TITLEMD5_GENDER_COEC<0.0411522] yes=63,no=64,missing=63
						63:[C_D_U_TITLEMD5_CATEGORY_MICRO_MAX_COEC<0.086848] yes=127,no=128,missing=127
							127:leaf=-0.0121511
							128:leaf=-0.0948947
						64:[WORD_COUNT<5126] yes=129,no=130,missing=130
							129:leaf=0.0320132
							130:leaf=-0.123189
					32:[KW_REL<0.00834097] yes=65,no=66,missing=66
						65:[TIME_OF_DAY<10] yes=131,no=132,missing=132
							131:leaf=-0.0287154
							132:leaf=-0.0704674
						66:[CAT_REL<0.333332] yes=133,no=134,missing=134
							133:leaf=-0.0612867
							134:leaf=0.0421075
				16:[TIME_OF_DAY<17] yes=33,no=34,missing=34
					33:[TIME_OF_DAY<13] yes=67,no=68,missing=68
						67:[C_D_U_CATEGORY_GENDER_MICRO_MAX_COEC<0.063769] yes=135,no=136,missing=136
							135:leaf=-0.00712842
							136:leaf=0.00178324
						68:[DAY_OF_WEEK<5] yes=137,no=138,missing=138
							137:leaf=-0.00734563
							138:leaf=0.00326941
					34:[D_CATEGORY_MICRO_MAX_COEC<0.0635253] yes=69,no=70,missing=70
						69:[D_CATEGORY_MACRO_MEAN_COEC<0.0598721] yes=139,no=140,missing=140
							139:leaf=-0.000629015
							140:leaf=0.0190213
						70:[C_D_U_CATEGORY_GENDER_MACRO_MEAN_COEC<0.0666687] yes=141,no=142,missing=142
							141:leaf=-0.0130163
							142:leaf=0.00394805
			8:[D_TITLEMD5_COEC<1.94774] yes=17,no=18,missing=18
				17:[U_CAT_LEN<8] yes=35,no=36,missing=36
					35:[U_KW_LEN<158] yes=71,no=72,missing=72
						71:[U_CAT_LEN<3] yes=143,no=144,missing=144
							143:leaf=-0.00783411
							144:leaf=-0.0196717
						72:[U_KW_LEN<189] yes=145,no=146,missing=146
							145:leaf=0.0241813
							146:leaf=-0.0375111
					36:[D_KEYWORD_MICRO_MAX_COEC<0.073668] yes=73,no=74,missing=74
						73:[D_PUBLISHER_COEC<0.0610088] yes=147,no=148,missing=148
							147:leaf=0.214244
							148:leaf=-0.116904
						74:[C_D_U_TITLEMD5_CATEGORY_MACRO_MEAN_COEC<0.123861] yes=149,no=150,missing=150
							149:leaf=-0.0882612
							150:leaf=-0.2586
				18:[DAY_OF_WEEK<3] yes=37,no=38,missing=38
					37:[U_CAT_LEN<2] yes=75,no=76,missing=76
						75:[TIME_OF_DAY<12] yes=151,no=152,missing=152
							151:leaf=-0.0212739
							152:leaf=0.158141
						76:[D_KEYWORD_MICRO_MAX_COEC<0.122886] yes=153,no=154,missing=154
							153:leaf=-0.134761
							154:leaf=0.102017
					38:[CAT_REL<0.474375] yes=77,no=78,missing=78
						77:[IMAGE_COUNT<0.999999] yes=155,no=156,missing=156
							155:leaf=0.161728
							156:leaf=-0.0915685
						78:[C_D_U_CATEGORY_GENDER_MACRO_MEAN_COEC<0.0699937] yes=157,no=158,missing=158
							157:leaf=0.172247
							158:leaf=0.0354411
		4:[C_D_U_CATEGORY_GENDER_MICRO_MEAN_COEC<0.078844] yes=9,no=10,missing=10
			9:[C_D_U_CATEGORY_GENDER_MACRO_MEAN_COEC<0.0782249] yes=19,no=20,missing=20
				19:[D_CATEGORY_MICRO_MAX_COEC<0.0645415] yes=39,no=40,missing=40
					39:[WORD_COUNT<2700] yes=79,no=80,missing=80
						79:[D_PUBLISHER_COEC<0.0744226] yes=159,no=160,missing=160
							159:leaf=-0.018248
							160:leaf=0.014509
						80:[KW_REL<0.00296957] yes=161,no=162,missing=162
							161:leaf=0.0124861
							162:leaf=0.0640939
					40:[C_D_U_TITLEMD5_CATEGORY_MACRO_MEAN_COEC<0.215471] yes=81,no=82,missing=82
						81:[DAY_OF_WEEK<3] yes=163,no=164,missing=164
							163:leaf=-0.0154503
							164:leaf=-0.000491704
						82:[D_PUBLISHER_COEC<0.0584436] yes=165,no=166,missing=166
							165:leaf=0.0298236
							166:leaf=0.00250305
				20:[C_D_U_TITLEMD5_CATEGORY_MACRO_MAX_COEC<0.0349725] yes=41,no=42,missing=42
					41:[C_D_U_TITLEMD5_CATEGORY_MACRO_MEAN_COEC<0.0834425] yes=83,no=84,missing=84
						83:leaf=-0.147202
						84:[C_D_U_TITLEMD5_CATEGORY_MICRO_MEAN_COEC<0.0894003] yes=167,no=168,missing=168
							167:leaf=0.159594
							168:leaf=0.0904524
					42:[C_D_U_TITLEMD5_GENDER_COEC<0.116609] yes=85,no=86,missing=85
						85:leaf=-0.174414
						86:leaf=-0.269833
			10:[C_D_U_CATEGORY_GENDER_MACRO_MEAN_COEC<0.103372] yes=21,no=22,missing=21
				21:[C_D_U_TITLEMD5_CATEGORY_MICRO_MAX_COEC<0.0832435] yes=43,no=44,missing=44
					43:[U_KW_LEN<132] yes=87,no=88,missing=88
						87:[KW_REL<0.00440934] yes=169,no=170,missing=170
							169:leaf=0.0579181
							170:leaf=-0.0346183
						88:[CAT_REL<0.213578] yes=171,no=172,missing=172
							171:leaf=0.0321646
							172:leaf=-0.0700448
					44:[D_TITLEMD5_COEC<0.0744056] yes=89,no=90,missing=89
						89:[TIME_OF_DAY<7] yes=173,no=174,missing=174
							173:leaf=-0.0700266
							174:leaf=0.00128161
						90:[D_KEYWORD_MICRO_MAX_COEC<0.0822502] yes=175,no=176,missing=176
							175:leaf=-0.181385
							176:leaf=0.0173319
				22:[CAT_REL<0.285713] yes=45,no=46,missing=46
					45:[U_KW_LEN<35] yes=91,no=92,missing=92
						91:[TIME_OF_DAY<22] yes=177,no=178,missing=178
							177:leaf=0.0120535
							178:leaf=-0.212686
						92:[C_D_U_TITLEMD5_CATEGORY_MICRO_MAX_COEC<0.116744] yes=179,no=180,missing=179
							179:leaf=-0.0496556
							180:leaf=-0.00433116
					46:[D_CATEGORY_MACRO_MEAN_COEC<0.0797634] yes=93,no=94,missing=94
						93:[CAT_REL<0.29978] yes=181,no=182,missing=182
							181:leaf=0.199881
							182:leaf=-0.228792
						94:[U_KW_LEN<14] yes=183,no=184,missing=184
							183:leaf=0.100782
							184:leaf=0.0136018
	2:[C_D_U_CATEGORY_CITY_MACRO_MEAN_COEC<0.105642] yes=5,no=6,missing=6
		5:[D_CATEGORY_MACRO_MEAN_COEC<0.0964103] yes=11,no=12,missing=12
			11:[D_KEYWORD_MACRO_MEAN_COEC<0.0653743] yes=23,no=24,missing=24
				23:[C_D_U_TITLEMD5_GENDER_COEC<0.164909] yes=47,no=48,missing=47
					47:[CAT_REL<0.118249] yes=95,no=96,missing=96
						95:[C_D_U_TITLEMD5_CATEGORY_MACRO_MAX_COEC<0.0420719] yes=185,no=186,missing=186
							185:leaf=-0.00681642
							186:leaf=-0.0267629
						96:[U_GENDER<2] yes=187,no=188,missing=187
							187:leaf=4.68853e-06
							188:leaf=-0.0121906
					48:[D_TITLEMD5_COEC<0.176063] yes=97,no=98,missing=98
						97:[C_D_U_TITLEMD5_CATEGORY_MACRO_MEAN_COEC<0.0622938] yes=189,no=190,missing=190
							189:leaf=0.00761799
							190:leaf=-0.0312231
						98:[D_CATEGORY_MICRO_MEAN_COEC<0.0646045] yes=191,no=192,missing=192
							191:leaf=0.010759
							192:leaf=-0.018214
				24:[CAT_REL<0.030299] yes=49,no=50,missing=50
					49:[D_KEYWORD_MICRO_MEAN_COEC<0.0959256] yes=99,no=100,missing=100
						99:[WORD_COUNT<2443] yes=193,no=194,missing=194
							193:leaf=-0.0201398
							194:leaf=-0.00386659
						100:[DAY_OF_WEEK<5] yes=195,no=196,missing=196
							195:leaf=0.00521311
							196:leaf=-0.0155895
					50:[WORD_COUNT<1867] yes=101,no=102,missing=102
						101:[C_D_U_TITLEMD5_CATEGORY_MACRO_MEAN_COEC<0.119504] yes=197,no=198,missing=198
							197:leaf=-0.00114254
							198:leaf=0.00495507
						102:[KW_REL<0.00124834] yes=199,no=200,missing=200
							199:leaf=0.00241302
							200:leaf=0.00876341
			12:[CAT_REL<0.454718] yes=25,no=26,missing=26
				25:[C_D_U_TITLEMD5_CATEGORY_MACRO_MEAN_COEC<0.0892833] yes=51,no=52,missing=52
					51:[D_KEYWORD_MACRO_MEAN_COEC<0.0860501] yes=103,no=104,missing=104
						103:[CAT_REL<0.063226] yes=201,no=202,missing=202
							201:leaf=0.0215331
							202:leaf=-0.0125039
						104:[C_D_U_CATEGORY_CITY_MICRO_MAX_COEC<0.0797228] yes=203,no=204,missing=204
							203:leaf=-0.0678525
							204:leaf=-0.0272427
					52:[CAT_REL<0.183732] yes=105,no=106,missing=106
						105:[DAY_OF_WEEK<3] yes=205,no=206,missing=206
							205:leaf=-0.0206037
							206:leaf=-0.000402283
						106:[C_D_U_TITLEMD5_CATEGORY_MICRO_MAX_COEC<0.310073] yes=207,no=208,missing=208
							207:leaf=-0.00279364
							208:leaf=-0.0289635
				26:[KW_REL<0.00283745] yes=53,no=54,missing=54
					53:[D_KEYWORD_MICRO_MEAN_COEC<0.110201] yes=107,no=108,missing=108
						107:[IMAGE_COUNT<2] yes=209,no=210,missing=210
							209:leaf=-0.00935732
							210:leaf=0.0131471
						108:[C_D_U_TITLEMD5_CATEGORY_MICRO_MEAN_COEC<0.0430417] yes=211,no=212,missing=212
							211:leaf=0.0741152
							212:leaf=0.00573263
					54:[D_KEYWORD_MICRO_MEAN_COEC<0.092399] yes=109,no=110,missing=110
						109:[CAT_REL<0.916909] yes=213,no=214,missing=214
							213:leaf=-0.000428087
							214:leaf=0.0653981
						110:[C_D_U_TITLEMD5_CATEGORY_MACRO_MAX_COEC<0.0286052] yes=215,no=216,missing=216
							215:leaf=0.0757493
							216:leaf=0.0195233
		6:[C_D_U_CATEGORY_CITY_MACRO_MAX_COEC<0.197513] yes=13,no=14,missing=13
			13:[WORD_COUNT<995] yes=27,no=28,missing=28
				27:[C_D_U_TITLEMD5_CATEGORY_MACRO_MAX_COEC<0.0497594] yes=55,no=56,missing=56
					55:[C_D_U_CATEGORY_GENDER_MICRO_MAX_COEC<0.101734] yes=111,no=112,missing=111
						111:[C_D_U_PUBLISHER_AGE_COEC<0.0904335] yes=217,no=218,missing=217
							217:leaf=-0.0127
							218:leaf=0.00400255
						112:[KW_REL<0.00539317] yes=219,no=220,missing=220
							219:leaf=-0.0287803
							220:leaf=0.0147823
					56:[CAT_REL<0.128631] yes=113,no=114,missing=114
						113:[C_D_U_CATEGORY_AGE_MACRO_MEAN_COEC<0.101356] yes=221,no=222,missing=221
							221:leaf=-0.000609924
							222:leaf=-0.0507338
						114:[TIME_OF_DAY<13] yes=223,no=224,missing=224
							223:leaf=0.000480802
							224:leaf=0.0124685
				28:[C_D_U_CATEGORY_GENDER_MICRO_MAX_COEC<0.104341] yes=57,no=58,missing=57
					57:[D_CATEGORY_MICRO_MAX_COEC<0.0925945] yes=115,no=116,missing=115
						115:[C_D_U_CATEGORY_AGE_MICRO_MEAN_COEC<0.0946921] yes=225,no=226,missing=225
							225:leaf=0.0120357
							226:leaf=0.0430382
						116:[C_D_U_TITLEMD5_CATEGORY_MACRO_MEAN_COEC<0.0782334] yes=227,no=228,missing=228
							227:leaf=-0.0081739
							228:leaf=0.00528321
					58:[CAT_REL<0.009817] yes=117,no=118,missing=118
						117:[D_TITLEMD5_COEC<0.0899709] yes=229,no=230,missing=229
							229:leaf=-0.0701986
							230:leaf=-0.0103288
						118:[TIME_OF_DAY<7] yes=231,no=232,missing=232
							231:leaf=0.00444407
							232:leaf=0.0240846
			14:[U_CAT_LEN<16] yes=29,no=30,missing=30
				29:[DAY_OF_WEEK<0.999999] yes=59,no=60,missing=60
					59:[CAT_REL<0.057349] yes=119,no=120,missing=120
						119:[C_D_U_CATEGORY_AGE_MICRO_MEAN_COEC<0.0674539] yes=233,no=234,missing=234
							233:leaf=0.0258557
							234:leaf=-0.0903618
						120:[TIME_OF_DAY<5] yes=235,no=236,missing=236
							235:leaf=-0.0516034
							236:leaf=0.020858
					60:[C_D_U_TITLEMD5_CATEGORY_MACRO_MAX_COEC<0.00997722] yes=121,no=122,missing=122
						121:[CAT_REL<0.587356] yes=237,no=238,missing=238
							237:leaf=0.0713142
							238:leaf=-0.00568282
						122:[C_D_U_TITLEMD5_CATEGORY_MACRO_MAX_COEC<0.0278408] yes=239,no=240,missing=240
							239:leaf=0.00150025
							240:leaf=0.0255566
				30:[C_D_U_CATEGORY_GENDER_MACRO_MEAN_COEC<0.0750615] yes=61,no=62,missing=62
					61:[C_D_U_CATEGORY_AGE_MICRO_MAX_COEC<0.0720854] yes=123,no=124,missing=124
						123:[CAT_REL<0.427699] yes=241,no=242,missing=242
							241:leaf=0.0249071
							242:leaf=0.108847
						124:[U_CAT_LEN<17] yes=243,no=244,missing=244
							243:leaf=0.0127561
							244:leaf=0.0958579
					62:[D_TITLEMD5_COEC<0.13556] yes=125,no=126,missing=126
						125:[D_KEYWORD_MACRO_MEAN_COEC<0.104329] yes=245,no=246,missing=246
							245:leaf=0.0226664
							246:leaf=-0.0698782
						126:[KW_REL<2.90909e-05] yes=247,no=248,missing=248
							247:leaf=-0.125578
							248:leaf=0.0571996
booster[45]:
0:[U_KW_LEN<200] yes=1,no=2,missing=1
	1:[U_KW_LEN<186] yes=3,no=4,missing=4
		3:[U_GENDER<2] yes=7,no=8,missing=7
			7:[C_D_U_PUBLISHER_CITY_COEC<0.142595] yes=15,no=16,missing=15
				15:[U_AGE_1<0.999999] yes=31,no=32,missing=32
					31:[C_D_U_CATEGORY_CITY_MICRO_MEAN_COEC<0.0513327] yes=63,no=64,missing=64
						63:[U_CAT_LEN<7] yes=127,no=128,missing=128
							127:leaf=-0.00750338
							128:leaf=-0.0416235
						64:[C_D_U_CATEGORY_GENDER_MACRO_MAX_COEC<0.0841454] yes=129,no=130,missing=130
							129:leaf=0.000749187
							130:leaf=-0.00283395
					32:[D_TITLEMD5_COEC<3.90951] yes=65,no=66,missing=66
						65:[U_CAT_LEN<8] yes=131,no=132,missing=132
							131:leaf=-0.0100144
							132:leaf=-0.0855652
						66:[D_CATEGORY_MACRO_MAX_COEC<0.0235746] yes=133,no=134,missing=134
							133:leaf=-0.0894343
							134:leaf=0.0989594
				16:[WORD_COUNT<723] yes=33,no=34,missing=34
					33:[D_KEYWORD_MICRO_MEAN_COEC<0.0910856] yes=67,no=68,missing=68
						67:[C_D_U_TITLEMD5_CATEGORY_MACRO_MAX_COEC<0.0411949] yes=135,no=136,missing=136
							135:leaf=-0.0693581
							136:leaf=0.035889
						68:[D_CATEGORY_MACRO_MEAN_COEC<0.0765831] yes=137,no=138,missing=137
							137:leaf=-0.163945
							138:leaf=-0.0141985
					34:[IMAGE_COUNT<0.999999] yes=69,no=70,missing=70
						69:[C_D_U_TITLEMD5_CATEGORY_MACRO_MEAN_COEC<0.173694] yes=139,no=140,missing=139
							139:leaf=-0.150706
							140:leaf=-0.0851931
						70:[D_KEYWORD_MACRO_MEAN_COEC<0.0679677] yes=141,no=142,missing=142
							141:leaf=-0.00593661
							142:leaf=0.00941249
			8:[C_D_U_CATEGORY_GENDER_MICRO_MAX_COEC<0.0791012] yes=17,no=18,missing=18
				17:[U_KW_LEN<59] yes=35,no=36,missing=36
					35:[DAY_OF_WEEK<6] yes=71,no=72,missing=72
						71:[D_CATEGORY_MICRO_MAX_COEC<0.0787525] yes=143,no=144,missing=144
							143:leaf=0.0128427
							144:leaf=-0.0149545
						72:[TIME_OF_DAY<3] yes=145,no=146,missing=146
							145:leaf=0.072171
							146:leaf=-0.0396203
					36:[DAY_OF_WEEK<3] yes=73,no=74,missing=74
						73:[CAT_REL<0.666666] yes=147,no=148,missing=148
							147:leaf=-0.0269069
							148:leaf=0.034702
						74:[U_KW_LEN<81] yes=149,no=150,missing=150
							149:leaf=-0.0200843
							150:leaf=0.00697794
				18:[C_D_U_TITLEMD5_GENDER_COEC<0.101186] yes=37,no=38,missing=38
					37:[D_CATEGORY_MICRO_MAX_COEC<0.0787525] yes=75,no=76,missing=75
						75:[D_TITLEMD5_COEC<0.0483656] yes=151,no=152,missing=152
							151:leaf=0.130873
							152:leaf=0.0411384
						76:[C_D_U_TITLEMD5_CATEGORY_MACRO_MEAN_COEC<0.151752] yes=153,no=154,missing=153
							153:leaf=0.0164905
							154:leaf=0.0782516
					38:[CAT_REL<0.368752] yes=77,no=78,missing=78
						77:[C_D_U_CATEGORY_GENDER_MICRO_MEAN_COEC<0.103599] yes=155,no=156,missing=156
							155:leaf=0.0101939
							156:leaf=-0.00612184
						78:[C_D_U_CATEGORY_CITY_MACRO_MEAN_COEC<0.0520418] yes=157,no=158,missing=158
							157:leaf=-0.0898754
							158:leaf=0.0240215
		4:[D_CATEGORY_MACRO_MEAN_COEC<0.0768241] yes=9,no=10,missing=10
			9:[TIME_OF_DAY<14] yes=19,no=20,missing=20
				19:[D_CATEGORY_MICRO_MAX_COEC<0.0735268] yes=39,no=40,missing=40
					39:[C_D_U_CATEGORY_CITY_MACRO_MAX_COEC<0.0713805] yes=79,no=80,missing=80
						79:[TIME_OF_DAY<8] yes=159,no=160,missing=160
							159:leaf=0.00546757
							160:leaf=0.0434175
						80:[C_D_U_CATEGORY_GENDER_MACRO_MEAN_COEC<0.0673149] yes=161,no=162,missing=162
							161:leaf=0.0384695
							162:leaf=-0.0295801
					40:[C_D_U_CATEGORY_GENDER_MACRO_MAX_COEC<0.073791] yes=81,no=82,missing=82
						81:[U_CAT_LEN<5] yes=163,no=164,missing=164
							163:leaf=-0.060472
							164:leaf=0.0816582
						82:[C_D_U_CATEGORY_CITY_MACRO_MAX_COEC<0.0818707] yes=165,no=166,missing=166
							165:leaf=0.00900165
							166:leaf=0.0806368
				20:[TIME_OF_DAY<19] yes=41,no=42,missing=42
					41:[CAT_REL<0.113635] yes=83,no=84,missing=84
						83:[DAY_OF_WEEK<0.999999] yes=167,no=168,missing=168
							167:leaf=0.0266762
							168:leaf=-0.0495816
						84:[C_D_U_CATEGORY_GENDER_MICRO_MEAN_COEC<0.0592396] yes=169,no=170,missing=170
							169:leaf=-0.117221
							170:leaf=0.00635154
					42:[C_D_U_TITLEMD5_CATEGORY_MACRO_MAX_COEC<0.0339358] yes=85,no=86,missing=86
						85:[C_D_U_TITLEMD5_GENDER_COEC<0.140983] yes=171,no=172,missing=172
							171:leaf=0.102286
							172:leaf=-0.137049
						86:[C_D_U_TITLEMD5_CATEGORY_MICRO_MAX_COEC<0.301219] yes=173,no=174,missing=174
							173:leaf=0.00492108
							174:leaf=-0.215302
			10:[C_D_U_TITLEMD5_CATEGORY_MACRO_MEAN_COEC<0.0545799] yes=21,no=22,missing=22
				21:[TIME_OF_DAY<2] yes=43,no=44,missing=44
					43:[C_D_U_TITLEMD5_CATEGORY_MICRO_MAX_COEC<0.0568062] yes=87,no=88,missing=88
						87:[C_D_U_CATEGORY_GENDER_MACRO_MEAN_COEC<0.0837349] yes=175,no=176,missing=176
							175:leaf=0.273117
							176:leaf=0.115081
						88:[C_D_U_PUBLISHER_GENDER_COEC<0.0888129] yes=177,no=178,missing=178
							177:leaf=-0.146221
							178:leaf=0.123525
					44:[C_D_U_CATEGORY_CITY_MICRO_MAX_COEC<0.025197] yes=89,no=90,missing=90
						89:[C_D_U_CATEGORY_GENDER_MACRO_MEAN_COEC<0.0997998] yes=179,no=180,missing=180
							179:leaf=-0.116413
							180:leaf=0.292714
						90:[U_KW_LEN<193] yes=181,no=182,missing=182
							181:leaf=-0.0185137
							182:leaf=-0.0582276
				22:[U_KW_LEN<197] yes=45,no=46,missing=46
					45:[TIME_OF_DAY<9] yes=91,no=92,missing=92
						91:[C_D_U_PUBLISHER_GENDER_COEC<0.0564565] yes=183,no=184,missing=184
							183:leaf=-0.0896802
							184:leaf=-0.00102692
						92:[U_CAT_LEN<11] yes=185,no=186,missing=186
							185:leaf=0.014516
							186:leaf=-0.193019
					46:[C_D_U_TITLEMD5_CATEGORY_MICRO_MEAN_COEC<0.172559] yes=93,no=94,missing=94
						93:[CAT_REL<0.223494] yes=187,no=188,missing=188
							187:leaf=-0.0450801
							188:leaf=-0.00274803
						94:[D_CATEGORY_MACRO_MAX_COEC<0.103838] yes=189,no=190,missing=190
							189:leaf=0.0222708
							190:leaf=-0.0341819
	2:[U_CAT_LEN<14] yes=5,no=6,missing=6
		5:[IMAGE_COUNT<0.999999] yes=11,no=12,missing=12
			11:[KW_REL<0.0114375] yes=23,no=24,missing=24
				23:[D_KEYWORD_MICRO_MAX_COEC<0.107651] yes=47,no=48,missing=48
					47:[C_D_U_CATEGORY_CITY_MICRO_MEAN_COEC<0.067629] yes=95,no=96,missing=96
						95:[C_D_U_TITLEMD5_CATEGORY_MACRO_MAX_COEC<0.0287226] yes=191,no=192,missing=192
							191:leaf=-0.0529633
							192:leaf=-0.109608
						96:[C_D_U_TITLEMD5_GENDER_COEC<0.190555] yes=193,no=194,missing=193
							193:leaf=-0.0412729
							194:leaf=-0.144603
					48:[C_D_U_TITLEMD5_CATEGORY_MACRO_MAX_COEC<0.0863909] yes=97,no=98,missing=98
						97:[D_KEYWORD_MICRO_MAX_COEC<0.236433] yes=195,no=196,missing=196
							195:leaf=-0.023981
							196:leaf=0.101611
						98:[C_D_U_TITLEMD5_AGE_COEC<0.0664557] yes=197,no=198,missing=197
							197:leaf=-0.162483
							198:leaf=-0.0512937
				24:[U_CAT_LEN<10] yes=49,no=50,missing=50
					49:[CAT_REL<0.155955] yes=99,no=100,missing=100
						99:[D_KEYWORD_MACRO_MAX_COEC<0.0293091] yes=199,no=200,missing=200
							199:leaf=-0.0832847
							200:leaf=0.122746
						100:[TIME_OF_DAY<6] yes=201,no=202,missing=202
							201:leaf=-0.0626429
							202:leaf=-0.00819905
					50:[C_D_U_PUBLISHER_GENDER_COEC<0.102159] yes=101,no=102,missing=102
						101:[CAT_REL<0.751659] yes=203,no=204,missing=204
							203:leaf=0.00285823
							204:leaf=0.0587591
						102:[TIME_OF_DAY<11] yes=205,no=206,missing=206
							205:leaf=-0.160654
							206:leaf=-0.052806
			12:[U_CAT_LEN<7] yes=25,no=26,missing=26
				25:[C_D_U_TITLEMD5_CATEGORY_MACRO_MAX_COEC<0.049703] yes=51,no=52,missing=52
					51:[U_CAT_LEN<4] yes=103,no=104,missing=104
						103:[CAT_REL<0.751659] yes=207,no=208,missing=208
							207:leaf=0.00187919
							208:leaf=0.0558927
						104:[D_CATEGORY_MACRO_MAX_COEC<0.0668057] yes=209,no=210,missing=209
							209:leaf=-0.00599588
							210:leaf=-0.0155123
					52:[DAY_OF_WEEK<0.999999] yes=105,no=106,missing=106
						105:[C_D_U_TITLEMD5_CATEGORY_MACRO_MEAN_COEC<0.160036] yes=211,no=212,missing=212
							211:leaf=-0.0215964
							212:leaf=-0.0022629
						106:[TIME_OF_DAY<17] yes=213,no=214,missing=214
							213:leaf=-0.00445461
							214:leaf=0.00539132
				26:[C_D_U_TITLEMD5_GENDER_COEC<0.0257358] yes=53,no=54,missing=54
					53:[D_KEYWORD_MICRO_MEAN_COEC<0.108374] yes=107,no=108,missing=108
						107:[KW_REL<0.00895432] yes=215,no=216,missing=216
							215:leaf=-0.0142194
							216:leaf=0.00208079
						108:[D_CATEGORY_MACRO_MEAN_COEC<0.102983] yes=217,no=218,missing=217
							217:leaf=0.0336914
							218:leaf=-0.0183009
					54:[CAT_REL<0.282199] yes=109,no=110,missing=110
						109:[D_CATEGORY_MACRO_MAX_COEC<0.0529582] yes=219,no=220,missing=220
							219:leaf=0.0103686
							220:leaf=-0.00274746
						110:[WORD_COUNT<1508] yes=221,no=222,missing=222
							221:leaf=-0.00083749
							222:leaf=0.00545041
		6:[CAT_REL<0.916909] yes=13,no=14,missing=14
			13:[C_D_U_CATEGORY_CITY_MICRO_MEAN_COEC<0.113639] yes=27,no=28,missing=28
				27:[U_CAT_LEN<22] yes=55,no=56,missing=56
					55:[C_D_U_TITLEMD5_GENDER_COEC<0.0439688] yes=111,no=112,missing=112
						111:[U_GENDER<2] yes=223,no=224,missing=223
							223:leaf=-0.00387513
							224:leaf=-0.0179528
						112:[TIME_OF_DAY<13] yes=225,no=226,missing=226
							225:leaf=6.34164e-05
							226:leaf=0.00621705
					56:[U_GENDER<2] yes=113,no=114,missing=114
						113:[CAT_REL<0.260573] yes=227,no=228,missing=228
							227:leaf=0.0166531
							228:leaf=0.0325733
						114:[CAT_REL<0.181251] yes=229,no=230,missing=230
							229:leaf=-0.00364404
							230:leaf=0.0152139
				28:[D_CATEGORY_MICRO_MAX_COEC<0.0929818] yes=57,no=58,missing=58
					57:[CAT_REL<0.055631] yes=115,no=116,missing=116
						115:[C_D_U_TITLEMD5_CATEGORY_MACRO_MEAN_COEC<0.0558759] yes=231,no=232,missing=232
							231:leaf=-0.059221
							232:leaf=0.00928146
						116:[C_D_U_CATEGORY_CITY_MACRO_MEAN_COEC<0.189089] yes=233,no=234,missing=234
							233:leaf=0.0196714
							234:leaf=0.0333231
					58:[C_D_U_CATEGORY_GENDER_MACRO_MAX_COEC<0.109723] yes=117,no=118,missing=118
						117:[CAT_REL<0.20104] yes=235,no=236,missing=236
							235:leaf=-0.0111091
							236:leaf=0.00828573
						118:[CAT_REL<0.030205] yes=237,no=238,missing=238
							237:leaf=-0.000626992
							238:leaf=0.0284964
			14:[C_D_U_PUBLISHER_CITY_COEC<0.125887] yes=29,no=30,missing=30
				29:[D_TITLEMD5_COEC<0.0717307] yes=59,no=60,missing=60
					59:[C_D_U_CATEGORY_GENDER_MICRO_MAX_COEC<0.0863033] yes=119,no=120,missing=120
						119:[D_KEYWORD_MICRO_MAX_COEC<0.105203] yes=239,no=240,missing=240
							239:leaf=-0.107479
							240:leaf=0.06254
						120:[D_KEYWORD_MICRO_MEAN_COEC<0.124024] yes=241,no=242,missing=242
							241:leaf=0.107788
							242:leaf=-0.162133
					60:[D_KEYWORD_MACRO_MEAN_COEC<0.0480506] yes=121,no=122,missing=122
						121:[D_PUBLISHER_COEC<0.0579775] yes=243,no=244,missing=244
							243:leaf=0.0640782
							244:leaf=-0.10454
						122:[C_D_U_TITLEMD5_GENDER_COEC<0.0683141] yes=245,no=246,missing=245
							245:leaf=0.0874009
							246:leaf=0.0465571
				30:[C_D_U_TITLEMD5_CATEGORY_MACRO_MAX_COEC<0.1023] yes=61,no=62,missing=62
					61:[D_KEYWORD_MICRO_MAX_COEC<0.15725] yes=123,no=124,missing=124
						123:leaf=-0.171653
						124:leaf=0.0433516
					62:[D_TITLEMD5_COEC<0.128095] yes=125,no=126,missing=126
						125:[C_D_U_TITLEMD5_CATEGORY_MICRO_MAX_COEC<0.147225] yes=247,no=248,missing=248
							247:leaf=0.0296854
							248:leaf=0.125112
						126:[D_KEYWORD_MICRO_MEAN_COEC<0.124024] yes=249,no=250,missing=250
							249:leaf=-0.0284499
							250:leaf=0.0255693
booster[46]:
0:[U_KW_LEN<200] yes=1,no=2,missing=1
	1:[D_PUBLISHER_COEC<0.0369168] yes=3,no=4,missing=4
		3:[C_D_U_TITLEMD5_GENDER_COEC<0.0766605] yes=7,no=8,missing=8
			7:[D_KEYWORD_MICRO_MEAN_COEC<0.0650317] yes=15,no=16,missing=16
				15:[WORD_COUNT<3813] yes=31,no=32,missing=32
					31:[WORD_COUNT<2207] yes=63,no=64,missing=64
						63:[C_D_U_TITLEMD5_CATEGORY_MACRO_MAX_COEC<0.0115087] yes=127,no=128,missing=127
							127:leaf=-0.0385922
							128:leaf=0.0153598
						64:[D_KEYWORD_MACRO_MEAN_COEC<0.035268] yes=129,no=130,missing=130
							129:leaf=-0.000943954
							130:leaf=0.0609679
					32:[C_D_U_TITLEMD5_CATEGORY_MACRO_MAX_COEC<0.10388] yes=65,no=66,missing=65
						65:[C_D_U_TITLEMD5_CATEGORY_MICRO_MEAN_COEC<0.0250787] yes=131,no=132,missing=131
							131:leaf=-0.0219274
							132:leaf=-0.123031
						66:[C_D_U_PUBLISHER_CITY_COEC<0.0285485] yes=133,no=134,missing=133
							133:leaf=-0.122542
							134:leaf=0.227658
				16:[C_D_U_PUBLISHER_CITY_COEC<0.226805] yes=33,no=34,missing=34
					33:[C_D_U_CATEGORY_CITY_MICRO_MAX_COEC<0.118401] yes=67,no=68,missing=67
						67:[D_KEYWORD_MICRO_MAX_COEC<0.144198] yes=135,no=136,missing=136
							135:leaf=-0.0205999
							136:leaf=-0.0896972
						68:[C_D_U_TITLEMD5_CATEGORY_MICRO_MEAN_COEC<0.0375827] yes=137,no=138,missing=138
							137:leaf=0.154968
							138:leaf=-0.137812
					34:[C_D_U_CATEGORY_CITY_MACRO_MAX_COEC<0.0721308] yes=69,no=70,missing=69
						69:[C_D_U_CATEGORY_CITY_MACRO_MAX_COEC<0.03627] yes=139,no=140,missing=140
							139:leaf=-0.0217345
							140:leaf=0.104585
						70:[C_D_U_CATEGORY_GENDER_MICRO_MAX_COEC<0.0970147] yes=141,no=142,missing=142
							141:leaf=-0.073059
							142:leaf=0.115603
			8:[WORD_COUNT<2982] yes=17,no=18,missing=18
				17:[KW_REL<0.000889821] yes=35,no=36,missing=36
					35:[C_D_U_TITLEMD5_CATEGORY_MACRO_MAX_COEC<0.0256891] yes=71,no=72,missing=71
						71:[WORD_COUNT<906] yes=143,no=144,missing=144
							143:leaf=0.0109408
							144:leaf=-0.0668901
						72:[TIME_OF_DAY<23] yes=145,no=146,missing=146
							145:leaf=-0.137153
							146:leaf=0.0789684
					36:[D_KEYWORD_MICRO_MAX_COEC<0.0838047] yes=73,no=74,missing=74
						73:[TIME_OF_DAY<3] yes=147,no=148,missing=148
							147:leaf=0.283726
							148:leaf=0.00222628
						74:[C_D_U_CATEGORY_CITY_MACRO_MEAN_COEC<0.0712566] yes=149,no=150,missing=149
							149:leaf=-0.0830737
							150:leaf=-0.010502
				18:[U_AGE_1<0.999999] yes=37,no=38,missing=38
					37:[KW_REL<0.000462627] yes=75,no=76,missing=76
						75:[U_AGE_2<0.999999] yes=151,no=152,missing=152
							151:leaf=-0.0169941
							152:leaf=-0.0994159
						76:[U_GENDER<2] yes=153,no=154,missing=153
							153:leaf=-0.00399819
							154:leaf=0.0974126
					38:[D_CATEGORY_MACRO_MAX_COEC<0.0258183] yes=77,no=78,missing=78
						77:leaf=-0.122773
						78:[D_TITLEMD5_COEC<0.0263] yes=155,no=156,missing=156
							155:leaf=0.253296
							156:leaf=0.0515378
		4:[CAT_REL<0.499999] yes=9,no=10,missing=10
			9:[C_D_U_TITLEMD5_CATEGORY_MACRO_MEAN_COEC<0.153367] yes=19,no=20,missing=20
				19:[U_CAT_LEN<6] yes=39,no=40,missing=40
					39:[D_TITLEMD5_COEC<0.139876] yes=79,no=80,missing=79
						79:[C_D_U_TITLEMD5_CATEGORY_MACRO_MEAN_COEC<0.1258] yes=157,no=158,missing=158
							157:leaf=-0.00429648
							158:leaf=0.00577741
						80:[WORD_COUNT<1482] yes=159,no=160,missing=160
							159:leaf=-0.0188722
							160:leaf=-0.00704974
					40:[DAY_OF_WEEK<3] yes=81,no=82,missing=82
						81:[U_KW_LEN<63] yes=161,no=162,missing=162
							161:leaf=0.124734
							162:leaf=-0.00372288
						82:[TIME_OF_DAY<0.999999] yes=163,no=164,missing=164
							163:leaf=0.053131
							164:leaf=0.00710194
				20:[C_D_U_PUBLISHER_CITY_COEC<0.172597] yes=41,no=42,missing=41
					41:[U_AGE_2<0.999999] yes=83,no=84,missing=84
						83:[C_D_U_CATEGORY_CITY_MICRO_MAX_COEC<0.100456] yes=165,no=166,missing=166
							165:leaf=-0.0023191
							166:leaf=0.00730233
						84:[D_CATEGORY_MACRO_MAX_COEC<0.0895818] yes=167,no=168,missing=168
							167:leaf=0.00615017
							168:leaf=-0.00154651
					42:[WORD_COUNT<4301] yes=85,no=86,missing=86
						85:[C_D_U_CATEGORY_CITY_MACRO_MAX_COEC<0.10108] yes=169,no=170,missing=170
							169:leaf=0.0228203
							170:leaf=0.00574918
						86:[D_PUBLISHER_COEC<0.100173] yes=171,no=172,missing=172
							171:leaf=-0.0773023
							172:leaf=0.0282294
			10:[U_KW_LEN<19] yes=21,no=22,missing=22
				21:[C_D_U_PUBLISHER_CITY_COEC<0.0968325] yes=43,no=44,missing=43
					43:[TIME_OF_DAY<20] yes=87,no=88,missing=88
						87:[C_D_U_CATEGORY_GENDER_MICRO_MAX_COEC<0.0701299] yes=173,no=174,missing=174
							173:leaf=-0.0357078
							174:leaf=-0.0128161
						88:[C_D_U_CATEGORY_CITY_MACRO_MAX_COEC<0.0710813] yes=175,no=176,missing=176
							175:leaf=0.0921285
							176:leaf=-0.147431
					44:[D_CATEGORY_MACRO_MEAN_COEC<0.0720011] yes=89,no=90,missing=90
						89:[C_D_U_CATEGORY_GENDER_MICRO_MEAN_COEC<0.0683526] yes=177,no=178,missing=178
							177:leaf=-0.00396655
							178:leaf=0.0597303
						90:[D_KEYWORD_MICRO_MEAN_COEC<0.0865014] yes=179,no=180,missing=180
							179:leaf=-0.0466541
							180:leaf=0.00913177
				22:[D_CATEGORY_MACRO_MAX_COEC<0.0623721] yes=45,no=46,missing=46
					45:[U_KW_LEN<28] yes=91,no=92,missing=92
						91:[C_D_U_CATEGORY_GENDER_MICRO_MAX_COEC<0.0613302] yes=181,no=182,missing=182
							181:leaf=0.133905
							182:leaf=0.0234221
						92:[C_D_U_CATEGORY_CITY_MACRO_MAX_COEC<0.0691657] yes=183,no=184,missing=184
							183:leaf=0.031518
							184:leaf=-0.0751959
					46:[C_D_U_CATEGORY_CITY_MICRO_MAX_COEC<0.0524083] yes=93,no=94,missing=94
						93:[C_D_U_TITLEMD5_CATEGORY_MACRO_MAX_COEC<0.129106] yes=185,no=186,missing=186
							185:leaf=-0.0302138
							186:leaf=0.0281317
						94:[CAT_REL<0.999999] yes=187,no=188,missing=188
							187:leaf=0.00514877
							188:leaf=0.021182
	2:[WORD_COUNT<2950] yes=5,no=6,missing=6
		5:[C_D_U_TITLEMD5_CATEGORY_MACRO_MEAN_COEC<0.13753] yes=11,no=12,missing=12
			11:[IMAGE_COUNT<2] yes=23,no=24,missing=24
				23:[C_D_U_TITLEMD5_AGE_COEC<0.157329] yes=47,no=48,missing=47
					47:[C_D_U_PUBLISHER_CITY_COEC<0.0944266] yes=95,no=96,missing=96
						95:[CAT_REL<0.134598] yes=189,no=190,missing=190
							189:leaf=-0.00963835
							190:leaf=-0.00256651
						96:[D_TITLEMD5_COEC<0.141317] yes=191,no=192,missing=191
							191:leaf=0.0021783
							192:leaf=-0.0126258
					48:[D_KEYWORD_MACRO_MEAN_COEC<0.0796098] yes=97,no=98,missing=98
						97:[C_D_U_TITLEMD5_CATEGORY_MICRO_MAX_COEC<0.247649] yes=193,no=194,missing=194
							193:leaf=-0.0212137
							194:leaf=-0.0425439
						98:[KW_REL<0.00806289] yes=195,no=196,missing=196
							195:leaf=-0.0137174
							196:leaf=0.0183342
				24:[D_CATEGORY_MACRO_MEAN_COEC<0.0936984] yes=49,no=50,missing=49
					49:[KW_REL<0.00110316] yes=99,no=100,missing=100
						99:[DAY_OF_WEEK<3] yes=197,no=198,missing=198
							197:leaf=0.0252714
							198:leaf=-0.00127897
						100:[C_D_U_CATEGORY_CITY_MACRO_MAX_COEC<0.0722618] yes=199,no=200,missing=199
							199:leaf=0.00941866
							200:leaf=0.024671
					50:[CAT_REL<0.588965] yes=101,no=102,missing=102
						101:[D_CATEGORY_MACRO_MAX_COEC<0.106444] yes=201,no=202,missing=202
							201:leaf=-0.0132593
							202:leaf=0.01667
						102:[D_KEYWORD_MICRO_MAX_COEC<0.143259] yes=203,no=204,missing=204
							203:leaf=0.0182487
							204:leaf=0.0531884
			12:[C_D_U_TITLEMD5_GENDER_COEC<0.279329] yes=25,no=26,missing=26
				25:[D_PUBLISHER_COEC<0.124147] yes=51,no=52,missing=52
					51:[C_D_U_TITLEMD5_AGE_COEC<0.091715] yes=103,no=104,missing=103
						103:[CAT_REL<0.111248] yes=205,no=206,missing=206
							205:leaf=-0.041502
							206:leaf=-0.00739787
						104:[U_CAT_LEN<10] yes=207,no=208,missing=208
							207:leaf=0.00340998
							208:leaf=0.011487
					52:[C_D_U_TITLEMD5_CATEGORY_MICRO_MEAN_COEC<0.24399] yes=105,no=106,missing=106
						105:[D_TITLEMD5_COEC<0.143546] yes=209,no=210,missing=210
							209:leaf=0.0197894
							210:leaf=-0.00884057
						106:[D_KEYWORD_MICRO_MEAN_COEC<0.127933] yes=211,no=212,missing=212
							211:leaf=0.0263932
							212:leaf=0.00863938
				26:[D_KEYWORD_MACRO_MEAN_COEC<0.152156] yes=53,no=54,missing=54
					53:[C_D_U_TITLEMD5_CATEGORY_MACRO_MEAN_COEC<0.210151] yes=107,no=108,missing=108
						107:[C_D_U_TITLEMD5_AGE_COEC<0.27149] yes=213,no=214,missing=213
							213:leaf=-0.0221878
							214:leaf=-0.0485347
						108:[KW_REL<0.00110316] yes=215,no=216,missing=216
							215:leaf=-0.0306211
							216:leaf=-0.00773525
					54:[D_CATEGORY_MICRO_MAX_COEC<0.0762307] yes=109,no=110,missing=110
						109:[D_PUBLISHER_COEC<0.0725485] yes=217,no=218,missing=218
							217:leaf=-0.115126
							218:leaf=0.0675079
						110:[D_CATEGORY_MICRO_MEAN_COEC<0.0887002] yes=219,no=220,missing=219
							219:leaf=-0.0275642
							220:leaf=0.0308765
		6:[D_KEYWORD_MACRO_MEAN_COEC<0.0514712] yes=13,no=14,missing=14
			13:[KW_REL<0.00669948] yes=27,no=28,missing=28
				27:[C_D_U_TITLEMD5_CATEGORY_MACRO_MEAN_COEC<0.0818198] yes=55,no=56,missing=56
					55:[D_KEYWORD_MACRO_MEAN_COEC<0.0389145] yes=111,no=112,missing=112
						111:[D_CATEGORY_MICRO_MEAN_COEC<0.0785082] yes=221,no=222,missing=222
							221:leaf=-0.0154839
							222:leaf=-0.0449762
						112:[C_D_U_CATEGORY_AGE_MICRO_MAX_COEC<0.0581781] yes=223,no=224,missing=224
							223:leaf=0.013863
							224:leaf=-0.00721211
					56:[D_KEYWORD_MICRO_MEAN_COEC<0.0637534] yes=113,no=114,missing=114
						113:[D_KEYWORD_MICRO_MAX_COEC<0.163616] yes=225,no=226,missing=226
							225:leaf=-0.0159398
							226:leaf=0.141477
						114:[D_KEYWORD_MACRO_MEAN_COEC<0.0485445] yes=227,no=228,missing=228
							227:leaf=-0.074219
							228:leaf=-0.0391341
				28:[WORD_COUNT<6093] yes=57,no=58,missing=58
					57:[D_KEYWORD_MACRO_MAX_COEC<0.0175928] yes=115,no=116,missing=116
						115:[D_TITLEMD5_COEC<0.22401] yes=229,no=230,missing=229
							229:leaf=0.00864562
							230:leaf=-0.0949063
						116:[C_D_U_TITLEMD5_GENDER_COEC<0.0730674] yes=231,no=232,missing=231
							231:leaf=-0.0111822
							232:leaf=-0.106429
					58:[D_CATEGORY_MACRO_MAX_COEC<0.0333631] yes=117,no=118,missing=118
						117:[C_D_U_PUBLISHER_AGE_COEC<0.0820988] yes=233,no=234,missing=234
							233:leaf=0.141145
							234:leaf=0.0278217
						118:[D_KEYWORD_MACRO_MEAN_COEC<0.0389145] yes=235,no=236,missing=236
							235:leaf=-0.102437
							236:leaf=0.0303799
			14:[C_D_U_TITLEMD5_CATEGORY_MACRO_MEAN_COEC<0.0674448] yes=29,no=30,missing=30
				29:[CAT_REL<0.507833] yes=59,no=60,missing=60
					59:[WORD_COUNT<5645] yes=119,no=120,missing=120
						119:[D_CATEGORY_MICRO_MAX_COEC<0.0964807] yes=237,no=238,missing=238
							237:leaf=0.00249731
							238:leaf=-0.0205567
						120:[D_PUBLISHER_COEC<0.0932562] yes=239,no=240,missing=239
							239:leaf=-0.0132549
							240:leaf=0.0167486
					60:[C_D_U_PUBLISHER_GENDER_COEC<0.0682351] yes=121,no=122,missing=121
						121:[C_D_U_CATEGORY_GENDER_MACRO_MAX_COEC<0.0470635] yes=241,no=242,missing=242
							241:leaf=0.13565
							242:leaf=0.00116312
						122:[TIME_OF_DAY<23] yes=243,no=244,missing=244
							243:leaf=0.025015
							244:leaf=0.17127
				30:[D_TITLEMD5_COEC<0.0830776] yes=61,no=62,missing=62
					61:[C_D_U_TITLEMD5_CATEGORY_MICRO_MEAN_COEC<0.0651156] yes=123,no=124,missing=124
						123:[C_D_U_TITLEMD5_CATEGORY_MACRO_MAX_COEC<0.0436823] yes=245,no=246,missing=246
							245:leaf=-0.0144926
							246:leaf=-0.0897413
						124:[D_CATEGORY_MICRO_MAX_COEC<0.060689] yes=247,no=248,missing=248
							247:leaf=0.0367475
							248:leaf=0.0137711
					62:[C_D_U_TITLEMD5_CATEGORY_MACRO_MEAN_COEC<0.0936732] yes=125,no=126,missing=126
						125:[D_KEYWORD_MICRO_MEAN_COEC<0.107086] yes=249,no=250,missing=250
							249:leaf=0.000647853
							250:leaf=-0.0262621
						126:[D_TITLEMD5_COEC<0.114519] yes=251,no=252,missing=252
							251:leaf=0.0131031
							252:leaf=0.00377716
booster[47]:
0:[U_KW_LEN<200] yes=1,no=2,missing=1
	1:[IMAGE_COUNT<0.999999] yes=3,no=4,missing=4
		3:[C_D_U_TITLEMD5_CATEGORY_MACRO_MEAN_COEC<0.130055] yes=7,no=8,missing=7
			7:[KW_REL<0.00126618] yes=15,no=16,missing=16
				15:[C_D_U_TITLEMD5_GENDER_COEC<0.152882] yes=31,no=32,missing=31
					31:[C_D_U_CATEGORY_CITY_MICRO_MEAN_COEC<0.10096] yes=63,no=64,missing=64
						63:[U_AGE_2<0.999999] yes=123,no=124,missing=124
							123:leaf=-0.0113842
							124:leaf=-0.0573757
						64:[U_CAT_LEN<0.999999] yes=125,no=126,missing=126
							125:leaf=0.000266522
							126:leaf=-0.14463
					32:leaf=-0.162464
				16:[KW_REL<0.00178654] yes=33,no=34,missing=34
					33:[C_D_U_TITLEMD5_CATEGORY_MICRO_MAX_COEC<0.0923631] yes=65,no=66,missing=66
						65:[C_D_U_TITLEMD5_GENDER_COEC<0.087365] yes=127,no=128,missing=127
							127:leaf=-0.123945
							128:leaf=0.0925064
						66:[C_D_U_TITLEMD5_CATEGORY_MACRO_MAX_COEC<0.0639715] yes=129,no=130,missing=130
							129:leaf=0.107519
							130:leaf=-0.156405
					34:[CAT_REL<0.19276] yes=67,no=68,missing=68
						67:[C_D_U_PUBLISHER_CITY_COEC<0.11638] yes=131,no=132,missing=132
							131:leaf=-0.0735254
							132:leaf=0.0529291
						68:[D_PUBLISHER_COEC<0.073144] yes=133,no=134,missing=133
							133:leaf=-0.0355029
							134:leaf=0.00867333
			8:[C_D_U_TITLEMD5_CATEGORY_MACRO_MAX_COEC<0.075715] yes=17,no=18,missing=18
				17:[U_KW_LEN<183] yes=35,no=36,missing=36
					35:leaf=-0.187084
					36:[D_TITLEMD5_COEC<0.138393] yes=69,no=70,missing=70
						69:leaf=0.0628365
						70:leaf=-0.180893
				18:[D_TITLEMD5_COEC<0.138393] yes=37,no=38,missing=38
					37:[U_KW_LEN<32] yes=71,no=72,missing=72
						71:[DAY_OF_WEEK<0.999999] yes=135,no=136,missing=136
							135:leaf=0.081173
							136:leaf=-0.156177
						72:[CAT_REL<0.499999] yes=137,no=138,missing=138
							137:leaf=-0.0756122
							138:leaf=0.0566099
					38:[WORD_COUNT<5063] yes=73,no=74,missing=74
						73:[C_D_U_PUBLISHER_CITY_COEC<0.0629406] yes=139,no=140,missing=140
							139:leaf=-0.160174
							140:leaf=-0.0758486
						74:[C_D_U_TITLEMD5_CATEGORY_MACRO_MAX_COEC<0.101099] yes=141,no=142,missing=142
							141:leaf=0.163096
							142:leaf=0.0258707
		4:[C_D_U_CATEGORY_CITY_MACRO_MAX_COEC<0.111862] yes=9,no=10,missing=10
			9:[TIME_OF_DAY<0.999999] yes=19,no=20,missing=20
				19:[D_PUBLISHER_COEC<0.056787] yes=39,no=40,missing=39
					39:[D_KEYWORD_MACRO_MAX_COEC<0.0150278] yes=75,no=76,missing=76
						75:[C_D_U_PUBLISHER_CITY_COEC<0.0464726] yes=143,no=144,missing=143
							143:leaf=-0.0589832
							144:leaf=0.0756415
						76:[WORD_COUNT<3926] yes=145,no=146,missing=146
							145:leaf=-0.0865415
							146:leaf=0.0219825
					40:[D_KEYWORD_MACRO_MAX_COEC<0.0121652] yes=77,no=78,missing=78
						77:[D_KEYWORD_MACRO_MAX_COEC<0.00761886] yes=147,no=148,missing=148
							147:leaf=-0.0811011
							148:leaf=0.0861471
						78:[U_CAT_LEN<7] yes=149,no=150,missing=150
							149:leaf=0.0109853
							150:leaf=0.0541249
				20:[TIME_OF_DAY<17] yes=41,no=42,missing=42
					41:[TIME_OF_DAY<13] yes=79,no=80,missing=80
						79:[KW_REL<0.00340455] yes=151,no=152,missing=152
							151:leaf=-0.000944485
							152:leaf=0.0055206
						80:[DAY_OF_WEEK<5] yes=153,no=154,missing=154
							153:leaf=-0.00698232
							154:leaf=0.00201638
					42:[D_CATEGORY_MACRO_MAX_COEC<0.0763285] yes=81,no=82,missing=82
						81:[C_D_U_TITLEMD5_GENDER_COEC<0.272547] yes=155,no=156,missing=155
							155:leaf=0.00701251
							156:leaf=-0.0714928
						82:[C_D_U_CATEGORY_CITY_MICRO_MEAN_COEC<0.0871738] yes=157,no=158,missing=158
							157:leaf=-0.00612324
							158:leaf=0.00533162
			10:[DAY_OF_WEEK<6] yes=21,no=22,missing=22
				21:[C_D_U_TITLEMD5_CATEGORY_MACRO_MAX_COEC<0.0741799] yes=43,no=44,missing=43
					43:[CAT_REL<0.230768] yes=83,no=84,missing=84
						83:[TIME_OF_DAY<23] yes=159,no=160,missing=160
							159:leaf=0.0114415
							160:leaf=0.0739559
						84:[U_AGE_1<0.999999] yes=161,no=162,missing=162
							161:leaf=0.0208777
							162:leaf=0.0804554
					44:[C_D_U_TITLEMD5_GENDER_COEC<0.0574679] yes=85,no=86,missing=85
						85:[C_D_U_PUBLISHER_GENDER_COEC<0.102427] yes=163,no=164,missing=164
							163:leaf=0.0528464
							164:leaf=-0.105091
						86:[C_D_U_TITLEMD5_CATEGORY_MICRO_MEAN_COEC<0.0851248] yes=165,no=166,missing=166
							165:leaf=-0.0722793
							166:leaf=-0.000417193
				22:[U_KW_LEN<28] yes=45,no=46,missing=46
					45:[D_CATEGORY_MICRO_MEAN_COEC<0.0625052] yes=87,no=88,missing=88
						87:[C_D_U_CATEGORY_CITY_MICRO_MAX_COEC<0.128333] yes=167,no=168,missing=168
							167:leaf=0.173063
							168:leaf=-0.144472
						88:[C_D_U_PUBLISHER_GENDER_COEC<0.146931] yes=169,no=170,missing=169
							169:leaf=-0.0518729
							170:leaf=-0.233878
					46:[D_PUBLISHER_COEC<0.0664733] yes=89,no=90,missing=89
						89:[D_KEYWORD_MICRO_MAX_COEC<0.190142] yes=171,no=172,missing=172
							171:leaf=-0.0855069
							172:leaf=0.147031
						90:[TIME_OF_DAY<13] yes=173,no=174,missing=174
							173:leaf=0.0357637
							174:leaf=-0.0191218
	2:[U_CAT_LEN<8] yes=5,no=6,missing=6
		5:[D_KEYWORD_MICRO_MEAN_COEC<0.084574] yes=11,no=12,missing=12
			11:[CAT_REL<0.373513] yes=23,no=24,missing=24
				23:[IMAGE_COUNT<0.999999] yes=47,no=48,missing=48
					47:[CAT_REL<0.341743] yes=91,no=92,missing=92
						91:[D_KEYWORD_MICRO_MEAN_COEC<0.083179] yes=175,no=176,missing=176
							175:leaf=-0.0804926
							176:leaf=0.0233871
						92:[D_KEYWORD_MACRO_MEAN_COEC<0.0560014] yes=177,no=178,missing=178
							177:leaf=0.154232
							178:leaf=-0.00864227
					48:[C_D_U_TITLEMD5_GENDER_COEC<0.0254313] yes=93,no=94,missing=93
						93:[D_CATEGORY_MICRO_MEAN_COEC<0.0775708] yes=179,no=180,missing=179
							179:leaf=-0.0160924
							180:leaf=-0.0500167
						94:[DAY_OF_WEEK<0.999999] yes=181,no=182,missing=182
							181:leaf=-0.0202352
							182:leaf=-0.00888385
				24:[TIME_OF_DAY<18] yes=49,no=50,missing=50
					49:[C_D_U_CATEGORY_AGE_MACRO_MAX_COEC<0.101348] yes=95,no=96,missing=96
						95:[C_D_U_CATEGORY_CITY_MACRO_MAX_COEC<0.0420147] yes=183,no=184,missing=184
							183:leaf=-0.0309104
							184:leaf=-0.0033446
						96:[D_CATEGORY_MICRO_MAX_COEC<0.102114] yes=185,no=186,missing=186
							185:leaf=-0.0760231
							186:leaf=-0.0237457
					50:[IMAGE_COUNT<4] yes=97,no=98,missing=98
						97:[U_GENDER<4] yes=187,no=188,missing=188
							187:leaf=0.00579484
							188:leaf=0.0249783
						98:leaf=-0.161693
			12:[WORD_COUNT<1215] yes=25,no=26,missing=26
				25:[CAT_REL<0.654074] yes=51,no=52,missing=52
					51:[C_D_U_TITLEMD5_GENDER_COEC<0.0781512] yes=99,no=100,missing=100
						99:[C_D_U_PUBLISHER_CITY_COEC<0.0412418] yes=189,no=190,missing=190
							189:leaf=-0.0766472
							190:leaf=-0.0240295
						100:[CAT_REL<0.174808] yes=191,no=192,missing=192
							191:leaf=-0.0164867
							192:leaf=-0.00516035
					52:[D_KEYWORD_MACRO_MAX_COEC<0.0330509] yes=101,no=102,missing=102
						101:[U_CAT_LEN<4] yes=193,no=194,missing=194
							193:leaf=-0.0237632
							194:leaf=0.0253926
						102:[D_CATEGORY_MICRO_MAX_COEC<0.0706003] yes=195,no=196,missing=196
							195:leaf=-0.1595
							196:leaf=-0.00233152
				26:[C_D_U_TITLEMD5_CATEGORY_MACRO_MEAN_COEC<0.160699] yes=53,no=54,missing=54
					53:[C_D_U_CATEGORY_GENDER_MICRO_MEAN_COEC<0.098611] yes=103,no=104,missing=103
						103:[D_CATEGORY_MICRO_MAX_COEC<0.0916346] yes=197,no=198,missing=198
							197:leaf=-0.000140215
							198:leaf=-0.0107814
						104:[WORD_COUNT<3752] yes=199,no=200,missing=200
							199:leaf=0.00267219
							200:leaf=0.0223151
					54:[D_TITLEMD5_COEC<0.165481] yes=105,no=106,missing=106
						105:[D_CATEGORY_MACRO_MAX_COEC<0.0929806] yes=201,no=202,missing=202
							201:leaf=0.0226871
							202:leaf=0.00124716
						106:[C_D_U_TITLEMD5_CATEGORY_MACRO_MEAN_COEC<0.245165] yes=203,no=204,missing=204
							203:leaf=0.000469248
							204:leaf=0.0226721
		6:[KW_REL<0.00577203] yes=13,no=14,missing=14
			13:[D_KEYWORD_MICRO_MEAN_COEC<0.0774207] yes=27,no=28,missing=28
				27:[CAT_REL<0.118592] yes=55,no=56,missing=56
					55:[D_TITLEMD5_COEC<0.126333] yes=107,no=108,missing=107
						107:[D_CATEGORY_MICRO_MAX_COEC<0.0398507] yes=205,no=206,missing=206
							205:leaf=0.0145417
							206:leaf=-0.00997927
						108:[D_TITLEMD5_COEC<0.184063] yes=207,no=208,missing=208
							207:leaf=-0.0259656
							208:leaf=-0.0641185
					56:[C_D_U_TITLEMD5_GENDER_COEC<0.0254313] yes=109,no=110,missing=109
						109:[C_D_U_CATEGORY_AGE_MICRO_MAX_COEC<0.0586219] yes=209,no=210,missing=210
							209:leaf=0.0168156
							210:leaf=-0.0141087
						110:[C_D_U_TITLEMD5_GENDER_COEC<0.191663] yes=211,no=212,missing=212
							211:leaf=0.000795413
							212:leaf=-0.0209583
				28:[D_CATEGORY_MICRO_MAX_COEC<0.0688975] yes=57,no=58,missing=58
					57:[D_PUBLISHER_COEC<0.0791894] yes=111,no=112,missing=111
						111:[D_CATEGORY_MACRO_MAX_COEC<0.0621383] yes=213,no=214,missing=214
							213:leaf=0.0158212
							214:leaf=-0.00205081
						112:[DAY_OF_WEEK<4] yes=215,no=216,missing=216
							215:leaf=0.0235228
							216:leaf=0.0110965
					58:[WORD_COUNT<3732] yes=113,no=114,missing=114
						113:[C_D_U_TITLEMD5_CATEGORY_MACRO_MEAN_COEC<0.193325] yes=217,no=218,missing=218
							217:leaf=-0.00145521
							218:leaf=0.0105965
						114:[TIME_OF_DAY<14] yes=219,no=220,missing=220
							219:leaf=0.00386993
							220:leaf=0.0142928
			14:[C_D_U_TITLEMD5_CATEGORY_MICRO_MAX_COEC<0.119259] yes=29,no=30,missing=30
				29:[D_KEYWORD_MICRO_MEAN_COEC<0.083179] yes=59,no=60,missing=60
					59:[U_GENDER<2] yes=115,no=116,missing=115
						115:[DAY_OF_WEEK<4] yes=221,no=222,missing=222
							221:leaf=0.00500411
							222:leaf=-0.00413064
						116:[CAT_REL<0.326413] yes=223,no=224,missing=224
							223:leaf=-0.0281128
							224:leaf=0.000404701
					60:[D_KEYWORD_MICRO_MEAN_COEC<0.104887] yes=117,no=118,missing=118
						117:[D_KEYWORD_MACRO_MAX_COEC<0.0256149] yes=225,no=226,missing=226
							225:leaf=0.0223457
							226:leaf=0.00188873
						118:[D_KEYWORD_MACRO_MAX_COEC<0.0417461] yes=227,no=228,missing=228
							227:leaf=0.0614338
							228:leaf=0.0125697
				30:[D_CATEGORY_MACRO_MEAN_COEC<0.0776455] yes=61,no=62,missing=61
					61:[D_PUBLISHER_COEC<0.06192] yes=119,no=120,missing=120
						119:[D_KEYWORD_MICRO_MAX_COEC<0.104501] yes=229,no=230,missing=230
							229:leaf=-0.0043937
							230:leaf=0.0106471
						120:[KW_REL<0.0217777] yes=231,no=232,missing=232
							231:leaf=0.012883
							232:leaf=0.0260245
					62:[C_D_U_CATEGORY_AGE_MACRO_MAX_COEC<0.0867955] yes=121,no=122,missing=122
						121:[CAT_REL<0.037411] yes=233,no=234,missing=234
							233:leaf=-0.042191
							234:leaf=-0.000204103
						122:[D_KEYWORD_MACRO_MAX_COEC<0.0538123] yes=235,no=236,missing=236
							235:leaf=0.0164943
							236:leaf=-0.0331747
booster[48]:
0:[U_KW_LEN<200] yes=1,no=2,missing=1
	1:[C_D_U_TITLEMD5_GENDER_COEC<0.0222163] yes=3,no=4,missing=4
		3:[D_KEYWORD_MICRO_MEAN_COEC<0.116167] yes=7,no=8,missing=8
			7:[KW_REL<0.000369712] yes=15,no=16,missing=16
				15:[U_CAT_LEN<10] yes=31,no=32,missing=32
					31:[D_KEYWORD_MICRO_MAX_COEC<0.0891295] yes=63,no=64,missing=64
						63:[D_KEYWORD_MACRO_MAX_COEC<0.0298864] yes=127,no=128,missing=128
							127:leaf=-0.00759624
							128:leaf=0.117382
						64:[U_KW_LEN<163] yes=129,no=130,missing=130
							129:leaf=-0.025659
							130:leaf=0.0112792
					32:[D_KEYWORD_MICRO_MEAN_COEC<0.0675211] yes=65,no=66,missing=66
						65:leaf=0.0707886
						66:[KW_REL<0.000189469] yes=131,no=132,missing=132
							131:leaf=0.298243
							132:leaf=0.114732
				16:[C_D_U_CATEGORY_GENDER_MACRO_MEAN_COEC<0.0947351] yes=33,no=34,missing=34
					33:[C_D_U_TITLEMD5_CATEGORY_MICRO_MAX_COEC<0.221289] yes=67,no=68,missing=68
						67:[TIME_OF_DAY<14] yes=133,no=134,missing=134
							133:leaf=0.00278736
							134:leaf=-0.0147786
						68:[C_D_U_CATEGORY_CITY_MICRO_MAX_COEC<0.0569234] yes=135,no=136,missing=136
							135:leaf=0.0258126
							136:leaf=-0.0381178
					34:[D_CATEGORY_MACRO_MAX_COEC<0.0975194] yes=69,no=70,missing=69
						69:[D_KEYWORD_MICRO_MEAN_COEC<0.0740171] yes=137,no=138,missing=138
							137:leaf=-0.0770732
							138:leaf=0.0844461
						70:[D_KEYWORD_MACRO_MEAN_COEC<0.0498503] yes=139,no=140,missing=140
							139:leaf=-0.110816
							140:leaf=0.0112813
			8:[DAY_OF_WEEK<3] yes=17,no=18,missing=18
				17:[C_D_U_CATEGORY_CITY_MACRO_MEAN_COEC<0.101925] yes=35,no=36,missing=36
					35:[TIME_OF_DAY<19] yes=71,no=72,missing=72
						71:[C_D_U_CATEGORY_CITY_MACRO_MAX_COEC<0.0976438] yes=141,no=142,missing=142
							141:leaf=-0.144854
							142:leaf=-0.0498129
						72:leaf=0.159187
					36:[D_CATEGORY_MICRO_MEAN_COEC<0.102942] yes=73,no=74,missing=73
						73:[CAT_REL<0.499999] yes=143,no=144,missing=144
							143:leaf=-0.0436611
							144:leaf=0.178849
						74:[D_KEYWORD_MACRO_MAX_COEC<0.0184277] yes=145,no=146,missing=146
							145:leaf=0.0313711
							146:leaf=-0.15142
				18:[C_D_U_CATEGORY_GENDER_MICRO_MAX_COEC<0.0942334] yes=37,no=38,missing=37
					37:[U_GENDER<2] yes=75,no=76,missing=76
						75:[D_PUBLISHER_COEC<0.123413] yes=147,no=148,missing=148
							147:leaf=-0.160226
							148:leaf=0.103905
						76:[CAT_REL<0.56708] yes=149,no=150,missing=150
							149:leaf=0.0891221
							150:leaf=-0.105386
					38:[TIME_OF_DAY<10] yes=77,no=78,missing=78
						77:[C_D_U_CATEGORY_CITY_MICRO_MEAN_COEC<0.0953504] yes=151,no=152,missing=152
							151:leaf=0.0953385
							152:leaf=-0.0949534
						78:[C_D_U_TITLEMD5_CATEGORY_MICRO_MAX_COEC<0.0315244] yes=153,no=154,missing=153
							153:leaf=0.176547
							154:leaf=0.0990077
		4:[U_CAT_LEN<6] yes=9,no=10,missing=10
			9:[C_D_U_TITLEMD5_CATEGORY_MACRO_MEAN_COEC<0.131937] yes=19,no=20,missing=20
				19:[CAT_REL<0.199999] yes=39,no=40,missing=40
					39:[U_KW_LEN<30] yes=79,no=80,missing=80
						79:[C_D_U_PUBLISHER_GENDER_COEC<0.0714572] yes=155,no=156,missing=156
							155:leaf=0.0127613
							156:leaf=-0.00226877
						80:[C_D_U_TITLEMD5_CATEGORY_MACRO_MAX_COEC<0.0743012] yes=157,no=158,missing=158
							157:leaf=-0.0054795
							158:leaf=-0.0184389
					40:[D_CATEGORY_MACRO_MAX_COEC<0.0624064] yes=81,no=82,missing=82
						81:[U_KW_LEN<64] yes=159,no=160,missing=160
							159:leaf=0.0049439
							160:leaf=0.0257011
						82:[C_D_U_CATEGORY_CITY_MACRO_MEAN_COEC<0.110364] yes=161,no=162,missing=162
							161:leaf=-0.00165904
							162:leaf=0.018715
				20:[U_AGE_2<0.999999] yes=41,no=42,missing=42
					41:[C_D_U_CATEGORY_GENDER_MICRO_MEAN_COEC<0.0635354] yes=83,no=84,missing=84
						83:[D_TITLEMD5_COEC<3.90951] yes=163,no=164,missing=164
							163:leaf=-0.0110108
							164:leaf=0.0411652
						84:[D_CATEGORY_MACRO_MEAN_COEC<0.0722444] yes=165,no=166,missing=166
							165:leaf=0.00686479
							166:leaf=-0.00134376
					42:[D_TITLEMD5_COEC<0.0257153] yes=85,no=86,missing=85
						85:[TIME_OF_DAY<10] yes=167,no=168,missing=168
							167:leaf=0.00158214
							168:leaf=-0.084739
						86:[C_D_U_CATEGORY_CITY_MICRO_MAX_COEC<0.051146] yes=169,no=170,missing=169
							169:leaf=-0.00875556
							170:leaf=0.00483993
			10:[DAY_OF_WEEK<2] yes=21,no=22,missing=22
				21:[U_KW_LEN<185] yes=43,no=44,missing=44
					43:[C_D_U_CATEGORY_CITY_MICRO_MAX_COEC<0.0609516] yes=87,no=88,missing=87
						87:[U_KW_LEN<149] yes=171,no=172,missing=172
							171:leaf=-0.0223548
							172:leaf=-0.0867447
						88:[U_KW_LEN<107] yes=173,no=174,missing=174
							173:leaf=-0.0448823
							174:leaf=-0.00356356
					44:[D_CATEGORY_MICRO_MAX_COEC<0.0765412] yes=89,no=90,missing=90
						89:[D_TITLEMD5_COEC<0.0902265] yes=175,no=176,missing=176
							175:leaf=0.0634962
							176:leaf=0.0231322
						90:[C_D_U_TITLEMD5_GENDER_COEC<0.146027] yes=177,no=178,missing=178
							177:leaf=-0.0155811
							178:leaf=0.0188856
				22:[U_KW_LEN<67] yes=45,no=46,missing=46
					45:[CAT_REL<0.330898] yes=91,no=92,missing=92
						91:[D_KEYWORD_MACRO_MAX_COEC<0.0262427] yes=179,no=180,missing=180
							179:leaf=-0.0568409
							180:leaf=0.0872983
						92:[D_KEYWORD_MICRO_MEAN_COEC<0.0795479] yes=181,no=182,missing=182
							181:leaf=0.206784
							182:leaf=-0.135047
					46:[CAT_REL<0.608246] yes=93,no=94,missing=94
						93:[CAT_REL<0.51282] yes=183,no=184,missing=184
							183:leaf=0.00660892
							184:leaf=0.0378271
						94:[D_KEYWORD_MICRO_MAX_COEC<0.1007] yes=185,no=186,missing=186
							185:leaf=-0.118922
							186:leaf=-0.0124258
	2:[U_CAT_LEN<14] yes=5,no=6,missing=6
		5:[IMAGE_COUNT<0.999999] yes=11,no=12,missing=12
			11:[KW_REL<0.0116101] yes=23,no=24,missing=24
				23:[D_KEYWORD_MICRO_MAX_COEC<0.11024] yes=47,no=48,missing=48
					47:[C_D_U_PUBLISHER_CITY_COEC<0.0892098] yes=95,no=96,missing=95
						95:[KW_REL<0.00213239] yes=187,no=188,missing=188
							187:leaf=-0.100865
							188:leaf=-0.0543055
						96:[D_TITLEMD5_COEC<0.16575] yes=189,no=190,missing=190
							189:leaf=-0.0248071
							190:leaf=-0.111226
					48:[C_D_U_TITLEMD5_GENDER_COEC<0.2122] yes=97,no=98,missing=97
						97:[D_KEYWORD_MICRO_MEAN_COEC<0.08409] yes=191,no=192,missing=192
							191:leaf=-0.00929544
							192:leaf=-0.0317743
						98:[U_CAT_LEN<8] yes=193,no=194,missing=194
							193:leaf=-0.183292
							194:leaf=-0.0614722
				24:[C_D_U_TITLEMD5_AGE_COEC<0.0616946] yes=49,no=50,missing=49
					49:[CAT_REL<0.685366] yes=99,no=100,missing=100
						99:[C_D_U_TITLEMD5_CATEGORY_MACRO_MAX_COEC<0.173356] yes=195,no=196,missing=196
							195:leaf=-0.062586
							196:leaf=0.0708389
						100:[D_CATEGORY_MACRO_MEAN_COEC<0.067842] yes=197,no=198,missing=198
							197:leaf=0.0468029
							198:leaf=-0.0226686
					50:[U_CAT_LEN<9] yes=101,no=102,missing=102
						101:[C_D_U_PUBLISHER_CITY_COEC<0.117001] yes=199,no=200,missing=199
							199:leaf=-0.0142647
							200:leaf=-0.176501
						102:[C_D_U_PUBLISHER_GENDER_COEC<0.0669697] yes=201,no=202,missing=202
							201:leaf=-0.0171262
							202:leaf=0.0254137
			12:[C_D_U_CATEGORY_CITY_MACRO_MEAN_COEC<0.130708] yes=25,no=26,missing=26
				25:[D_CATEGORY_MICRO_MEAN_COEC<0.0966692] yes=51,no=52,missing=52
					51:[D_KEYWORD_MACRO_MEAN_COEC<0.0690572] yes=103,no=104,missing=104
						103:[CAT_REL<0.283548] yes=203,no=204,missing=204
							203:leaf=-0.00703578
							204:leaf=3.59051e-05
						104:[CAT_REL<0.020514] yes=205,no=206,missing=206
							205:leaf=-0.00874174
							206:leaf=0.00236533
					52:[CAT_REL<0.785795] yes=105,no=106,missing=106
						105:[C_D_U_CATEGORY_GENDER_MICRO_MEAN_COEC<0.105195] yes=207,no=208,missing=208
							207:leaf=-0.00886571
							208:leaf=0.00391247
						106:[C_D_U_CATEGORY_CITY_MICRO_MAX_COEC<0.0957076] yes=209,no=210,missing=210
							209:leaf=-0.0247558
							210:leaf=0.0220771
				26:[CAT_REL<0.077606] yes=53,no=54,missing=54
					53:[D_TITLEMD5_COEC<0.19242] yes=107,no=108,missing=107
						107:[TIME_OF_DAY<14] yes=211,no=212,missing=212
							211:leaf=-0.00357602
							212:leaf=0.0101342
						108:[C_D_U_PUBLISHER_GENDER_COEC<0.0977992] yes=213,no=214,missing=214
							213:leaf=-0.00565723
							214:leaf=-0.079441
					54:[C_D_U_CATEGORY_GENDER_MICRO_MEAN_COEC<0.11083] yes=109,no=110,missing=110
						109:[C_D_U_CATEGORY_AGE_MICRO_MEAN_COEC<0.0908835] yes=215,no=216,missing=216
							215:leaf=0.0196051
							216:leaf=0.00261313
						110:[D_KEYWORD_MICRO_MEAN_COEC<0.144771] yes=217,no=218,missing=218
							217:leaf=0.0362676
							218:leaf=-0.0592445
		6:[CAT_REL<0.356856] yes=13,no=14,missing=14
			13:[U_GENDER<2] yes=27,no=28,missing=28
				27:[C_D_U_CATEGORY_GENDER_MICRO_MEAN_COEC<0.0842286] yes=55,no=56,missing=55
					55:[C_D_U_CATEGORY_AGE_MICRO_MEAN_COEC<0.0782026] yes=111,no=112,missing=112
						111:[C_D_U_CATEGORY_GENDER_MACRO_MAX_COEC<0.070458] yes=219,no=220,missing=220
							219:leaf=0.0105464
							220:leaf=-0.00123631
						112:[C_D_U_CATEGORY_GENDER_MACRO_MEAN_COEC<0.0808966] yes=221,no=222,missing=222
							221:leaf=0.021634
							222:leaf=0.00847092
					56:[C_D_U_CATEGORY_AGE_MACRO_MEAN_COEC<0.0865943] yes=113,no=114,missing=114
						113:[CAT_REL<0.05799] yes=223,no=224,missing=224
							223:leaf=-0.0412167
							224:leaf=-0.0112909
						114:[D_CATEGORY_MICRO_MEAN_COEC<0.0926183] yes=225,no=226,missing=226
							225:leaf=0.00974328
							226:leaf=-0.0026724
				28:[C_D_U_TITLEMD5_CATEGORY_MACRO_MEAN_COEC<0.103558] yes=57,no=58,missing=58
					57:[D_CATEGORY_MACRO_MAX_COEC<0.064796] yes=115,no=116,missing=115
						115:[CAT_REL<0.204479] yes=227,no=228,missing=228
							227:leaf=-8.11012e-05
							228:leaf=0.0189837
						116:[C_D_U_CATEGORY_CITY_MACRO_MEAN_COEC<0.0747575] yes=229,no=230,missing=230
							229:leaf=-0.0119397
							230:leaf=-0.00206795
					58:[D_KEYWORD_MICRO_MEAN_COEC<0.134927] yes=117,no=118,missing=118
						117:[C_D_U_TITLEMD5_CATEGORY_MICRO_MAX_COEC<0.310287] yes=231,no=232,missing=232
							231:leaf=0.00583593
							232:leaf=-0.0126671
						118:[WORD_COUNT<896] yes=233,no=234,missing=234
							233:leaf=0.002201
							234:leaf=-0.0215933
			14:[U_AGE_1<0.999999] yes=29,no=30,missing=30
				29:[CAT_REL<0.785795] yes=59,no=60,missing=60
					59:[D_KEYWORD_MICRO_MEAN_COEC<0.0724369] yes=119,no=120,missing=120
						119:[KW_REL<0.0084518] yes=235,no=236,missing=236
							235:leaf=-0.00482928
							236:leaf=0.0121007
						120:[KW_REL<0.00470245] yes=237,no=238,missing=238
							237:leaf=0.00745737
							238:leaf=0.019584
					60:[C_D_U_CATEGORY_AGE_MICRO_MAX_COEC<0.105386] yes=121,no=122,missing=122
						121:[C_D_U_CATEGORY_CITY_MICRO_MEAN_COEC<0.0859351] yes=239,no=240,missing=240
							239:leaf=0.00615873
							240:leaf=0.0531278
						122:[C_D_U_CATEGORY_CITY_MACRO_MAX_COEC<0.105226] yes=241,no=242,missing=242
							241:leaf=-0.0985316
							242:leaf=0.0660645
				30:[TIME_OF_DAY<4] yes=61,no=62,missing=62
					61:[IMAGE_COUNT<8] yes=123,no=124,missing=124
						123:[C_D_U_TITLEMD5_GENDER_COEC<0.176096] yes=243,no=244,missing=244
							243:leaf=-0.0869073
							244:leaf=-0.00557836
						124:[D_TITLEMD5_COEC<0.0272029] yes=245,no=246,missing=246
							245:leaf=0.280539
							246:leaf=0.0544353
					62:[D_KEYWORD_MICRO_MEAN_COEC<0.111109] yes=125,no=126,missing=126
						125:[CAT_REL<0.530594] yes=247,no=248,missing=248
							247:leaf=0.00196774
							248:leaf=-0.0275771
						126:[CAT_REL<0.785795] yes=249,no=250,missing=250
							249:leaf=0.000975515
							250:leaf=0.0882364
booster[49]:
0:[U_KW_LEN<200] yes=1,no=2,missing=1
	1:[D_KEYWORD_MACRO_MEAN_COEC<0.047167] yes=3,no=4,missing=4
		3:[C_D_U_TITLEMD5_GENDER_COEC<0.0973428] yes=7,no=8,missing=7
			7:[D_KEYWORD_MICRO_MAX_COEC<0.0878815] yes=15,no=16,missing=16
				15:[D_PUBLISHER_COEC<0.101713] yes=31,no=32,missing=31
					31:[C_D_U_CATEGORY_GENDER_MICRO_MEAN_COEC<0.0845025] yes=63,no=64,missing=64
						63:[C_D_U_CATEGORY_GENDER_MICRO_MAX_COEC<0.0768504] yes=123,no=124,missing=124
							123:leaf=-0.00689194
							124:leaf=0.0352502
						64:[D_CATEGORY_MICRO_MAX_COEC<0.0678581] yes=125,no=126,missing=126
							125:leaf=0.360242
							126:leaf=-0.0560582
					32:[WORD_COUNT<6027] yes=65,no=66,missing=66
						65:[C_D_U_PUBLISHER_CITY_COEC<0.150106] yes=127,no=128,missing=128
							127:leaf=-0.0249638
							128:leaf=0.114074
						66:[KW_REL<0.000742076] yes=129,no=130,missing=130
							129:leaf=0.121917
							130:leaf=-0.109158
				16:[WORD_COUNT<4328] yes=33,no=34,missing=34
					33:[TIME_OF_DAY<15] yes=67,no=68,missing=68
						67:[WORD_COUNT<515] yes=131,no=132,missing=132
							131:leaf=0.0626467
							132:leaf=-0.0228931
						68:[D_CATEGORY_MICRO_MEAN_COEC<0.0743057] yes=133,no=134,missing=134
							133:leaf=0.0169334
							134:leaf=-0.0481186
					34:[KW_REL<9.83377e-06] yes=69,no=70,missing=70
						69:[D_KEYWORD_MICRO_MAX_COEC<0.158333] yes=135,no=136,missing=136
							135:leaf=-0.071159
							136:leaf=0.13258
						70:[KW_REL<2.03457e-05] yes=137,no=138,missing=138
							137:leaf=0.346477
							138:leaf=-0.0238081
			8:[C_D_U_TITLEMD5_CATEGORY_MICRO_MAX_COEC<0.0334917] yes=17,no=18,missing=18
				17:[D_KEYWORD_MICRO_MAX_COEC<0.0737723] yes=35,no=36,missing=36
					35:[C_D_U_TITLEMD5_GENDER_COEC<0.153019] yes=71,no=72,missing=72
						71:leaf=0.142762
						72:leaf=0.406619
					36:[D_KEYWORD_MACRO_MAX_COEC<0.0210731] yes=73,no=74,missing=74
						73:leaf=-0.122408
						74:leaf=0.273092
				18:[D_KEYWORD_MICRO_MAX_COEC<0.0973532] yes=37,no=38,missing=38
					37:[C_D_U_TITLEMD5_CATEGORY_MACRO_MAX_COEC<0.0361979] yes=75,no=76,missing=76
						75:[TIME_OF_DAY<0.999999] yes=139,no=140,missing=140
							139:leaf=0.129344
							140:leaf=-0.128151
						76:[C_D_U_TITLEMD5_CATEGORY_MACRO_MEAN_COEC<0.0993125] yes=141,no=142,missing=142
							141:leaf=0.0201491
							142:leaf=-0.0538908
					38:[D_KEYWORD_MACRO_MAX_COEC<0.00754925] yes=77,no=78,missing=78
						77:[C_D_U_TITLEMD5_GENDER_COEC<0.110978] yes=143,no=144,missing=144
							143:leaf=0.082592
							144:leaf=-0.101522
						78:[U_KW_LEN<178] yes=145,no=146,missing=146
							145:leaf=-0.131351
							146:leaf=-0.000717127
		4:[IMAGE_COUNT<0.999999] yes=9,no=10,missing=10
			9:[C_D_U_TITLEMD5_GENDER_COEC<0.267033] yes=19,no=20,missing=19
				19:[WORD_COUNT<584] yes=39,no=40,missing=40
					39:leaf=-0.136384
					40:[D_TITLEMD5_COEC<0.0596832] yes=79,no=80,missing=80
						79:[D_KEYWORD_MICRO_MAX_COEC<0.131837] yes=147,no=148,missing=148
							147:leaf=0.0120978
							148:leaf=-0.0907065
						80:[WORD_COUNT<1255] yes=149,no=150,missing=150
							149:leaf=-0.0560394
							150:leaf=-0.0181282
				20:[U_KW_LEN<186] yes=41,no=42,missing=42
					41:[C_D_U_PUBLISHER_GENDER_COEC<0.0353221] yes=81,no=82,missing=82
						81:leaf=-0.0112872
						82:leaf=-0.158309
					42:leaf=0.0963843
			10:[CAT_REL<0.333332] yes=21,no=22,missing=22
				21:[C_D_U_TITLEMD5_CATEGORY_MACRO_MAX_COEC<0.0744762] yes=43,no=44,missing=43
					43:[C_D_U_TITLEMD5_CATEGORY_MACRO_MEAN_COEC<0.110503] yes=83,no=84,missing=84
						83:[TIME_OF_DAY<0.999999] yes=151,no=152,missing=152
							151:leaf=0.0274672
							152:leaf=-0.00334946
						84:[C_D_U_TITLEMD5_GENDER_COEC<0.0207754] yes=153,no=154,missing=153
							153:leaf=-0.0199132
							154:leaf=0.00274995
					44:[D_KEYWORD_MACRO_MEAN_COEC<0.0697627] yes=85,no=86,missing=86
						85:[KW_REL<1.6091e-05] yes=155,no=156,missing=156
							155:leaf=-0.00589324
							156:leaf=-0.0308901
						86:[C_D_U_CATEGORY_CITY_MICRO_MAX_COEC<0.0682076] yes=157,no=158,missing=158
							157:leaf=-0.0114888
							158:leaf=-0.00241882
				22:[U_KW_LEN<41] yes=45,no=46,missing=46
					45:[D_CATEGORY_MACRO_MAX_COEC<0.0724212] yes=87,no=88,missing=88
						87:[D_CATEGORY_MACRO_MAX_COEC<0.0705837] yes=159,no=160,missing=160
							159:leaf=-0.00215914
							160:leaf=0.0328806
						88:[CAT_REL<0.666666] yes=161,no=162,missing=162
							161:leaf=-0.000576678
							162:leaf=-0.0202458
					46:[D_CATEGORY_MICRO_MEAN_COEC<0.0622755] yes=89,no=90,missing=90
						89:[C_D_U_CATEGORY_GENDER_MICRO_MAX_COEC<0.0645489] yes=163,no=164,missing=164
							163:leaf=0.0239767
							164:leaf=0.0979305
						90:[CAT_REL<0.999999] yes=165,no=166,missing=166
							165:leaf=0.00419233
							166:leaf=0.0346435
	2:[IMAGE_COUNT<0.999999] yes=5,no=6,missing=6
		5:[KW_REL<0.00892898] yes=11,no=12,missing=12
			11:[D_KEYWORD_MICRO_MAX_COEC<0.107814] yes=23,no=24,missing=24
				23:[C_D_U_PUBLISHER_GENDER_COEC<0.0852302] yes=47,no=48,missing=47
					47:[D_TITLEMD5_COEC<0.0460799] yes=91,no=92,missing=92
						91:[D_PUBLISHER_COEC<0.0837044] yes=167,no=168,missing=167
							167:leaf=-0.0356164
							168:leaf=0.119913
						92:[TIME_OF_DAY<9] yes=169,no=170,missing=170
							169:leaf=-0.10149
							170:leaf=-0.0655265
					48:[D_KEYWORD_MACRO_MAX_COEC<0.0238279] yes=93,no=94,missing=94
						93:[TIME_OF_DAY<3] yes=171,no=172,missing=172
							171:leaf=0.0118412
							172:leaf=-0.055833
						94:[C_D_U_CATEGORY_GENDER_MICRO_MEAN_COEC<0.0885549] yes=173,no=174,missing=174
							173:leaf=0.0149193
							174:leaf=-0.0609191
				24:[D_TITLEMD5_COEC<0.136078] yes=49,no=50,missing=49
					49:[D_KEYWORD_MICRO_MAX_COEC<0.178389] yes=95,no=96,missing=96
						95:[D_CATEGORY_MACRO_MEAN_COEC<0.0913562] yes=175,no=176,missing=176
							175:leaf=-0.0174624
							176:leaf=-0.0573813
						96:[C_D_U_PUBLISHER_AGE_COEC<0.0497482] yes=177,no=178,missing=177
							177:leaf=0.140617
							178:leaf=0.00271246
					50:[KW_REL<0.00224465] yes=97,no=98,missing=98
						97:[C_D_U_TITLEMD5_CATEGORY_MACRO_MEAN_COEC<0.182092] yes=179,no=180,missing=180
							179:leaf=-0.0815779
							180:leaf=-0.157203
						98:[WORD_COUNT<1968] yes=181,no=182,missing=182
							181:leaf=-0.0591221
							182:leaf=-0.00853546
			12:[D_KEYWORD_MACRO_MAX_COEC<0.014111] yes=25,no=26,missing=26
				25:[C_D_U_PUBLISHER_GENDER_COEC<0.0743383] yes=51,no=52,missing=52
					51:[WORD_COUNT<3351] yes=99,no=100,missing=100
						99:[TIME_OF_DAY<18] yes=183,no=184,missing=184
							183:leaf=0.0354512
							184:leaf=-0.0733776
						100:[U_CAT_LEN<15] yes=185,no=186,missing=186
							185:leaf=-0.139254
							186:leaf=0.0642936
					52:[CAT_REL<0.105451] yes=101,no=102,missing=102
						101:[C_D_U_TITLEMD5_CATEGORY_MICRO_MAX_COEC<0.181258] yes=187,no=188,missing=188
							187:leaf=-0.101868
							188:leaf=0.0456461
						102:[C_D_U_TITLEMD5_CATEGORY_MACRO_MAX_COEC<0.0376607] yes=189,no=190,missing=190
							189:leaf=0.0248541
							190:leaf=-0.0405265
				26:[D_KEYWORD_MACRO_MEAN_COEC<0.0726727] yes=53,no=54,missing=54
					53:[C_D_U_CATEGORY_AGE_MACRO_MAX_COEC<0.0467395] yes=103,no=104,missing=104
						103:[CAT_REL<0.070256] yes=191,no=192,missing=192
							191:leaf=-0.0505244
							192:leaf=0.0363253
						104:[D_TITLEMD5_COEC<0.141186] yes=193,no=194,missing=194
							193:leaf=-0.0180067
							194:leaf=-0.0586433
					54:[DAY_OF_WEEK<6] yes=105,no=106,missing=106
						105:[C_D_U_TITLEMD5_AGE_COEC<6] yes=195,no=196,missing=196
							195:leaf=0.0294678
							196:leaf=-0.135227
						106:[C_D_U_CATEGORY_CITY_MACRO_MAX_COEC<0.0953868] yes=197,no=198,missing=198
							197:leaf=-0.011685
							198:leaf=-0.183397
		6:[CAT_REL<0.009289] yes=13,no=14,missing=14
			13:[D_KEYWORD_MACRO_MEAN_COEC<0.0882824] yes=27,no=28,missing=28
				27:[C_D_U_TITLEMD5_CATEGORY_MACRO_MAX_COEC<0.0631349] yes=55,no=56,missing=56
					55:[IMAGE_COUNT<3] yes=107,no=108,missing=108
						107:[U_CAT_LEN<8] yes=199,no=200,missing=200
							199:leaf=-0.00458539
							200:leaf=-0.0224949
						108:[D_PUBLISHER_COEC<0.0332412] yes=201,no=202,missing=202
							201:leaf=-0.0358784
							202:leaf=0.00836325
					56:[DAY_OF_WEEK<0.999999] yes=109,no=110,missing=110
						109:[D_KEYWORD_MACRO_MEAN_COEC<0.0850455] yes=203,no=204,missing=204
							203:leaf=-0.0831965
							204:leaf=0.000579297
						110:[C_D_U_TITLEMD5_GENDER_COEC<0.161029] yes=205,no=206,missing=206
							205:leaf=-0.0249674
							206:leaf=-0.063448
				28:[D_KEYWORD_MICRO_MAX_COEC<0.168913] yes=57,no=58,missing=58
					57:[C_D_U_TITLEMD5_CATEGORY_MACRO_MEAN_COEC<0.167109] yes=111,no=112,missing=112
						111:[C_D_U_TITLEMD5_CATEGORY_MACRO_MAX_COEC<0.0739806] yes=207,no=208,missing=208
							207:leaf=0.00257485
							208:leaf=-0.0172215
						112:[C_D_U_TITLEMD5_AGE_COEC<0.18893] yes=209,no=210,missing=210
							209:leaf=0.0264702
							210:leaf=-0.0833143
					58:[DAY_OF_WEEK<5] yes=113,no=114,missing=114
						113:[C_D_U_CATEGORY_GENDER_MICRO_MEAN_COEC<0.0868801] yes=211,no=212,missing=211
							211:leaf=0.0030306
							212:leaf=-0.0269729
						114:[KW_REL<0.000143996] yes=213,no=214,missing=214
							213:leaf=0.0334504
							214:leaf=-0.0675876
			14:[D_CATEGORY_MICRO_MAX_COEC<0.0601491] yes=29,no=30,missing=30
				29:[D_KEYWORD_MICRO_MEAN_COEC<0.074602] yes=59,no=60,missing=60
					59:[D_CATEGORY_MACRO_MAX_COEC<0.0485889] yes=115,no=116,missing=116
						115:[CAT_REL<0.056644] yes=215,no=216,missing=216
							215:leaf=0.00591507
							216:leaf=0.0298577
						116:[DAY_OF_WEEK<5] yes=217,no=218,missing=218
							217:leaf=0.00912492
							218:leaf=-0.010769
					60:[U_CAT_LEN<8] yes=117,no=118,missing=118
						117:[CAT_REL<0.323896] yes=219,no=220,missing=220
							219:leaf=-0.0196427
							220:leaf=0.0536128
						118:[C_D_U_PUBLISHER_GENDER_COEC<0.0591651] yes=221,no=222,missing=222
							221:leaf=0.0123615
							222:leaf=0.0356713
				30:[C_D_U_PUBLISHER_GENDER_COEC<0.0852302] yes=61,no=62,missing=62
					61:[C_D_U_CATEGORY_CITY_MICRO_MAX_COEC<0.0496005] yes=119,no=120,missing=120
						119:[C_D_U_TITLEMD5_CATEGORY_MICRO_MAX_COEC<0.14809] yes=223,no=224,missing=224
							223:leaf=-0.0237642
							224:leaf=-0.00820077
						120:[C_D_U_TITLEMD5_GENDER_COEC<0.27285] yes=225,no=226,missing=225
							225:leaf=-0.00105608
							226:leaf=-0.0199207
					62:[WORD_COUNT<594] yes=121,no=122,missing=122
						121:[CAT_REL<0.156482] yes=227,no=228,missing=228
							227:leaf=-0.027228
							228:leaf=-0.00691526
						122:[C_D_U_TITLEMD5_CATEGORY_MACRO_MEAN_COEC<0.2101] yes=229,no=230,missing=230
							229:leaf=0.00237283
							230:leaf=0.0155706
booster[50]:
0:[U_KW_LEN<200] yes=1,no=2,missing=1
	1:[WORD_COUNT<2325] yes=3,no=4,missing=4
		3:[C_D_U_CATEGORY_GENDER_MACRO_MEAN_COEC<0.0640889] yes=7,no=8,missing=8
			7:[D_CATEGORY_MICRO_MAX_COEC<0.0630236] yes=15,no=16,missing=16
				15:[D_CATEGORY_MICRO_MAX_COEC<0.0612131] yes=31,no=32,missing=32
					31:[D_KEYWORD_MICRO_MEAN_COEC<0.0608464] yes=63,no=64,missing=64
						63:[C_D_U_TITLEMD5_CATEGORY_MICRO_MEAN_COEC<0.0892128] yes=127,no=128,missing=128
							127:leaf=0.00257915
							128:leaf=-0.0335746
						64:[D_KEYWORD_MICRO_MEAN_COEC<0.108722] yes=129,no=130,missing=130
							129:leaf=-0.000973175
							130:leaf=-0.0338201
					32:[D_TITLEMD5_COEC<0.0744878] yes=65,no=66,missing=65
						65:[U_GENDER<4] yes=131,no=132,missing=132
							131:leaf=-0.0295966
							132:leaf=0.0129636
						66:[D_CATEGORY_MACRO_MAX_COEC<0.0409024] yes=133,no=134,missing=134
							133:leaf=0.0644904
							134:leaf=0.0112358
				16:[WORD_COUNT<1688] yes=33,no=34,missing=34
					33:[WORD_COUNT<862] yes=67,no=68,missing=68
						67:[D_CATEGORY_MACRO_MEAN_COEC<0.0720356] yes=135,no=136,missing=136
							135:leaf=-0.0371032
							136:leaf=0.0434213
						68:[D_KEYWORD_MICRO_MAX_COEC<0.0916931] yes=137,no=138,missing=138
							137:leaf=-0.0266509
							138:leaf=0.00179688
					34:[C_D_U_TITLEMD5_CATEGORY_MICRO_MEAN_COEC<0.113457] yes=69,no=70,missing=69
						69:[D_CATEGORY_MACRO_MEAN_COEC<0.0645471] yes=139,no=140,missing=140
							139:leaf=-0.0068405
							140:leaf=-0.0335869
						70:[C_D_U_CATEGORY_CITY_MICRO_MAX_COEC<0.0758523] yes=141,no=142,missing=142
							141:leaf=-0.0671334
							142:leaf=0.0281455
			8:[IMAGE_COUNT<2] yes=17,no=18,missing=18
				17:[C_D_U_CATEGORY_GENDER_MACRO_MAX_COEC<0.0840841] yes=35,no=36,missing=35
					35:[C_D_U_CATEGORY_CITY_MICRO_MAX_COEC<0.0828487] yes=71,no=72,missing=72
						71:[WORD_COUNT<630] yes=143,no=144,missing=144
							143:leaf=0.0162154
							144:leaf=-0.0011249
						72:[C_D_U_CATEGORY_CITY_MICRO_MAX_COEC<0.0851639] yes=145,no=146,missing=145
							145:leaf=0.0196211
							146:leaf=0.00562566
					36:[TIME_OF_DAY<6] yes=73,no=74,missing=74
						73:[DAY_OF_WEEK<6] yes=147,no=148,missing=148
							147:leaf=-0.00671373
							148:leaf=-0.0238222
						74:[U_GENDER<2] yes=149,no=150,missing=149
							149:leaf=-0.00263481
							150:leaf=0.0099391
				18:[D_CATEGORY_MICRO_MEAN_COEC<0.0647759] yes=37,no=38,missing=38
					37:[D_KEYWORD_MICRO_MEAN_COEC<0.0627924] yes=75,no=76,missing=76
						75:[C_D_U_TITLEMD5_CATEGORY_MACRO_MEAN_COEC<0.0511656] yes=151,no=152,missing=152
							151:leaf=0.220621
							152:leaf=-0.0514967
						76:[D_KEYWORD_MICRO_MAX_COEC<0.194005] yes=153,no=154,missing=154
							153:leaf=-0.0689721
							154:leaf=0.0764045
					38:[C_D_U_PUBLISHER_GENDER_COEC<0.0582647] yes=77,no=78,missing=78
						77:[D_CATEGORY_MICRO_MEAN_COEC<0.103952] yes=155,no=156,missing=155
							155:leaf=0.0440156
							156:leaf=-0.174523
						78:[D_KEYWORD_MICRO_MAX_COEC<0.102696] yes=157,no=158,missing=158
							157:leaf=-0.00971882
							158:leaf=0.0089713
		4:[WORD_COUNT<2344] yes=9,no=10,missing=10
			9:[D_CATEGORY_MICRO_MEAN_COEC<0.0900994] yes=19,no=20,missing=20
				19:[D_KEYWORD_MICRO_MAX_COEC<0.116298] yes=39,no=40,missing=40
					39:[U_KW_LEN<81] yes=79,no=80,missing=80
						79:[C_D_U_CATEGORY_CITY_MACRO_MAX_COEC<0.0609162] yes=159,no=160,missing=160
							159:leaf=-0.122018
							160:leaf=-0.0137837
						80:[C_D_U_TITLEMD5_CATEGORY_MICRO_MAX_COEC<0.0315204] yes=161,no=162,missing=162
							161:leaf=0.170408
							162:leaf=0.00607169
					40:[D_CATEGORY_MICRO_MAX_COEC<0.0690755] yes=81,no=82,missing=82
						81:[C_D_U_CATEGORY_GENDER_MACRO_MEAN_COEC<0.0609249] yes=163,no=164,missing=164
							163:leaf=0.0429808
							164:leaf=-0.140469
						82:[C_D_U_TITLEMD5_CATEGORY_MACRO_MAX_COEC<0.0108706] yes=165,no=166,missing=166
							165:leaf=0.203271
							166:leaf=0.0315137
				20:[C_D_U_TITLEMD5_CATEGORY_MACRO_MEAN_COEC<0.181076] yes=41,no=42,missing=42
					41:[D_KEYWORD_MICRO_MEAN_COEC<0.0717035] yes=83,no=84,missing=84
						83:[U_KW_LEN<17] yes=167,no=168,missing=168
							167:leaf=0.287802
							168:leaf=0.120573
						84:[U_KW_LEN<16] yes=169,no=170,missing=170
							169:leaf=-0.216472
							170:leaf=-0.0766139
					42:[TIME_OF_DAY<12] yes=85,no=86,missing=86
						85:[DAY_OF_WEEK<0.999999] yes=171,no=172,missing=172
							171:leaf=0.285502
							172:leaf=0.0305651
						86:[CAT_REL<0.375649] yes=173,no=174,missing=174
							173:leaf=-0.01093
							174:leaf=-0.269932
			10:[C_D_U_CATEGORY_GENDER_MICRO_MAX_COEC<0.100407] yes=21,no=22,missing=21
				21:[CAT_REL<0.424843] yes=43,no=44,missing=44
					43:[C_D_U_TITLEMD5_GENDER_COEC<0.129055] yes=87,no=88,missing=88
						87:[D_KEYWORD_MACRO_MEAN_COEC<0.0805294] yes=175,no=176,missing=176
							175:leaf=-0.000444523
							176:leaf=0.00789452
						88:[D_KEYWORD_MACRO_MAX_COEC<0.0377578] yes=177,no=178,missing=178
							177:leaf=-0.00850712
							178:leaf=0.00540414
					44:[D_CATEGORY_MICRO_MAX_COEC<0.0766174] yes=89,no=90,missing=90
						89:[D_KEYWORD_MACRO_MAX_COEC<0.0425104] yes=179,no=180,missing=180
							179:leaf=0.0139618
							180:leaf=-0.182551
						90:[U_KW_LEN<76] yes=181,no=182,missing=182
							181:leaf=-0.0114476
							182:leaf=0.0088312
				22:[DAY_OF_WEEK<4] yes=45,no=46,missing=46
					45:[C_D_U_PUBLISHER_CITY_COEC<0.0941749] yes=91,no=92,missing=92
						91:[D_KEYWORD_MICRO_MEAN_COEC<0.130915] yes=183,no=184,missing=184
							183:leaf=-0.00896073
							184:leaf=-0.074862
						92:[C_D_U_TITLEMD5_CATEGORY_MACRO_MEAN_COEC<0.0873084] yes=185,no=186,missing=186
							185:leaf=0.0445775
							186:leaf=0.0104307
					46:[C_D_U_CATEGORY_CITY_MACRO_MAX_COEC<0.093739] yes=93,no=94,missing=94
						93:[C_D_U_TITLEMD5_CATEGORY_MICRO_MEAN_COEC<0.13477] yes=187,no=188,missing=188
							187:leaf=-0.0218335
							188:leaf=0.0159873
						94:[TIME_OF_DAY<20] yes=189,no=190,missing=190
							189:leaf=0.0252104
							190:leaf=-0.0500064
	2:[TIME_OF_DAY<17] yes=5,no=6,missing=6
		5:[KW_REL<0.000355266] yes=11,no=12,missing=12
			11:[C_D_U_TITLEMD5_AGE_COEC<0.0254002] yes=23,no=24,missing=24
				23:[IMAGE_COUNT<7] yes=47,no=48,missing=48
					47:[CAT_REL<0.229756] yes=95,no=96,missing=96
						95:[D_CATEGORY_MICRO_MEAN_COEC<0.0891893] yes=191,no=192,missing=192
							191:leaf=-0.0275959
							192:leaf=-0.0626323
						96:[TIME_OF_DAY<12] yes=193,no=194,missing=194
							193:leaf=-0.00741452
							194:leaf=-0.0288322
					48:[C_D_U_TITLEMD5_CATEGORY_MICRO_MAX_COEC<0.0447336] yes=97,no=98,missing=98
						97:[D_KEYWORD_MICRO_MEAN_COEC<0.0712124] yes=195,no=196,missing=196
							195:leaf=0.172849
							196:leaf=-0.0188091
						98:[D_KEYWORD_MICRO_MAX_COEC<0.110035] yes=197,no=198,missing=198
							197:leaf=-0.12619
							198:leaf=-0.0041628
				24:[CAT_REL<0.126194] yes=49,no=50,missing=50
					49:[C_D_U_CATEGORY_AGE_MICRO_MAX_COEC<0.0867096] yes=99,no=100,missing=99
						99:[D_KEYWORD_MACRO_MEAN_COEC<0.0887402] yes=199,no=200,missing=200
							199:leaf=-0.0106054
							200:leaf=0.00396733
						100:[D_KEYWORD_MACRO_MAX_COEC<0.0243757] yes=201,no=202,missing=202
							201:leaf=-0.00408653
							202:leaf=-0.0226392
					50:[D_CATEGORY_MACRO_MAX_COEC<0.0847709] yes=101,no=102,missing=102
						101:[D_KEYWORD_MICRO_MEAN_COEC<0.0678285] yes=203,no=204,missing=204
							203:leaf=-0.0136601
							204:leaf=0.00591868
						102:[D_KEYWORD_MICRO_MEAN_COEC<0.111391] yes=205,no=206,missing=206
							205:leaf=-0.00894481
							206:leaf=-0.00017521
			12:[D_KEYWORD_MICRO_MEAN_COEC<0.0775843] yes=25,no=26,missing=26
				25:[KW_REL<0.00681548] yes=51,no=52,missing=52
					51:[C_D_U_TITLEMD5_CATEGORY_MACRO_MAX_COEC<0.0529754] yes=103,no=104,missing=104
						103:[C_D_U_TITLEMD5_CATEGORY_MICRO_MAX_COEC<0.0600417] yes=207,no=208,missing=208
							207:leaf=-0.0111797
							208:leaf=-0.00210355
						104:[CAT_REL<0.091212] yes=209,no=210,missing=210
							209:leaf=-0.0309991
							210:leaf=-0.00940395
					52:[D_CATEGORY_MACRO_MEAN_COEC<0.0764836] yes=105,no=106,missing=105
						105:[D_CATEGORY_MACRO_MAX_COEC<0.0472805] yes=211,no=212,missing=212
							211:leaf=0.0215445
							212:leaf=0.00378477
						106:[CAT_REL<0.434246] yes=213,no=214,missing=214
							213:leaf=-0.0119159
							214:leaf=0.00744519
				26:[D_CATEGORY_MICRO_MAX_COEC<0.0676831] yes=53,no=54,missing=53
					53:[DAY_OF_WEEK<4] yes=107,no=108,missing=108
						107:[C_D_U_CATEGORY_AGE_MACRO_MAX_COEC<0.0315478] yes=215,no=216,missing=216
							215:leaf=-0.00562034
							216:leaf=0.0243275
						108:[KW_REL<0.00147937] yes=217,no=218,missing=218
							217:leaf=0.00110344
							218:leaf=0.0140678
					54:[DAY_OF_WEEK<6] yes=109,no=110,missing=110
						109:[WORD_COUNT<955] yes=219,no=220,missing=220
							219:leaf=-0.00424566
							220:leaf=0.00346292
						110:[D_CATEGORY_MACRO_MAX_COEC<0.0827301] yes=221,no=222,missing=222
							221:leaf=0.00969561
							222:leaf=-0.011738
		6:[C_D_U_TITLEMD5_CATEGORY_MACRO_MEAN_COEC<0.0633355] yes=13,no=14,missing=14
			13:[TIME_OF_DAY<21] yes=27,no=28,missing=28
				27:[WORD_COUNT<2796] yes=55,no=56,missing=56
					55:[C_D_U_CATEGORY_AGE_MICRO_MEAN_COEC<0.0996037] yes=111,no=112,missing=111
						111:[D_KEYWORD_MICRO_MEAN_COEC<0.0977531] yes=223,no=224,missing=224
							223:leaf=-0.00833777
							224:leaf=0.0206042
						112:[KW_REL<0.00126708] yes=225,no=226,missing=226
							225:leaf=-0.0400151
							226:leaf=-0.008079
					56:[C_D_U_PUBLISHER_GENDER_COEC<0.0537737] yes=113,no=114,missing=114
						113:[KW_REL<0.0175083] yes=227,no=228,missing=228
							227:leaf=-0.0135986
							228:leaf=0.0234829
						114:[WORD_COUNT<3520] yes=229,no=230,missing=230
							229:leaf=0.0177294
							230:leaf=0.000541157
				28:[CAT_REL<0.758305] yes=57,no=58,missing=58
					57:[TIME_OF_DAY<23] yes=115,no=116,missing=116
						115:[KW_REL<0.00698756] yes=231,no=232,missing=232
							231:leaf=0.0259975
							232:leaf=-0.00429401
						116:[C_D_U_PUBLISHER_CITY_COEC<0.169374] yes=233,no=234,missing=233
							233:leaf=-0.00801318
							234:leaf=0.143206
					58:[U_CAT_LEN<9] yes=117,no=118,missing=118
						117:[D_TITLEMD5_COEC<0.0551944] yes=235,no=236,missing=236
							235:leaf=0.146707
							236:leaf=-0.0189806
						118:[U_GENDER<4] yes=237,no=238,missing=238
							237:leaf=0.0616143
							238:leaf=-0.0464079
			14:[C_D_U_CATEGORY_CITY_MACRO_MEAN_COEC<0.112305] yes=29,no=30,missing=30
				29:[C_D_U_TITLEMD5_GENDER_COEC<0.0376322] yes=59,no=60,missing=60
					59:[C_D_U_PUBLISHER_AGE_COEC<0.0956269] yes=119,no=120,missing=119
						119:[D_KEYWORD_MACRO_MAX_COEC<0.0243757] yes=239,no=240,missing=240
							239:leaf=-0.0117498
							240:leaf=-0.0399301
						120:[D_KEYWORD_MICRO_MEAN_COEC<0.116384] yes=241,no=242,missing=242
							241:leaf=0.00572976
							242:leaf=0.0960515
					60:[D_CATEGORY_MICRO_MAX_COEC<0.0917331] yes=121,no=122,missing=122
						121:[C_D_U_CATEGORY_GENDER_MICRO_MAX_COEC<0.0892216] yes=243,no=244,missing=244
							243:leaf=0.0061518
							244:leaf=0.020737
						122:[D_KEYWORD_MICRO_MEAN_COEC<0.0808185] yes=245,no=246,missing=246
							245:leaf=-0.0147183
							246:leaf=0.00238734
				30:[D_CATEGORY_MICRO_MAX_COEC<0.0763284] yes=61,no=62,missing=62
					61:[D_KEYWORD_MACRO_MAX_COEC<0.0448711] yes=123,no=124,missing=124
						123:[D_TITLEMD5_COEC<0.0551944] yes=247,no=248,missing=248
							247:leaf=-0.111362
							248:leaf=0.0391067
						124:[C_D_U_PUBLISHER_GENDER_COEC<0.134081] yes=249,no=250,missing=250
							249:leaf=-0.232452
							250:leaf=0.0105
					62:[C_D_U_CATEGORY_AGE_MACRO_MAX_COEC<0.107067] yes=125,no=126,missing=125
						125:[U_CAT_LEN<11] yes=251,no=252,missing=252
							251:leaf=0.00258544
							252:leaf=0.0165478
						126:[CAT_REL<0.05564] yes=253,no=254,missing=254
							253:leaf=0.0109164
							254:leaf=0.0410383
booster[51]:
0:[U_KW_LEN<200] yes=1,no=2,missing=1
	1:[C_D_U_PUBLISHER_CITY_COEC<0.153433] yes=3,no=4,missing=3
		3:[WORD_COUNT<3181] yes=7,no=8,missing=8
			7:[D_KEYWORD_MICRO_MAX_COEC<0.221964] yes=15,no=16,missing=16
				15:[D_KEYWORD_MICRO_MEAN_COEC<0.137306] yes=31,no=32,missing=32
					31:[C_D_U_TITLEMD5_CATEGORY_MACRO_MEAN_COEC<0.15682] yes=63,no=64,missing=63
						63:[D_CATEGORY_MICRO_MEAN_COEC<0.0980658] yes=125,no=126,missing=125
							125:leaf=-0.00115534
							126:leaf=-0.00788862
						64:[C_D_U_TITLEMD5_CATEGORY_MICRO_MAX_COEC<0.305272] yes=127,no=128,missing=128
							127:leaf=0.00648711
							128:leaf=-0.00873358
					32:[C_D_U_CATEGORY_CITY_MACRO_MAX_COEC<0.0978362] yes=65,no=66,missing=65
						65:[C_D_U_CATEGORY_GENDER_MICRO_MAX_COEC<0.0609773] yes=129,no=130,missing=129
							129:leaf=-0.270811
							130:leaf=-0.021013
						66:[D_KEYWORD_MACRO_MAX_COEC<0.0293147] yes=131,no=132,missing=132
							131:leaf=-0.0739117
							132:leaf=0.00929031
				16:[D_KEYWORD_MICRO_MEAN_COEC<0.0763016] yes=33,no=34,missing=34
					33:[D_KEYWORD_MACRO_MAX_COEC<0.0477471] yes=67,no=68,missing=68
						67:[C_D_U_CATEGORY_CITY_MICRO_MAX_COEC<0.218187] yes=133,no=134,missing=134
							133:leaf=-0.0176633
							134:leaf=0.178052
						68:[C_D_U_TITLEMD5_GENDER_COEC<3.90951] yes=135,no=136,missing=136
							135:leaf=-0.190872
							136:leaf=-0.0389836
					34:[WORD_COUNT<2821] yes=69,no=70,missing=70
						69:[D_PUBLISHER_COEC<0.1107] yes=137,no=138,missing=138
							137:leaf=0.0185764
							138:leaf=0.00410176
						70:[C_D_U_TITLEMD5_CATEGORY_MACRO_MEAN_COEC<0.137764] yes=139,no=140,missing=139
							139:leaf=-0.152987
							140:leaf=-0.256615
			8:[D_CATEGORY_MACRO_MAX_COEC<0.0983745] yes=17,no=18,missing=17
				17:[D_CATEGORY_MICRO_MEAN_COEC<0.0831749] yes=35,no=36,missing=36
					35:[D_KEYWORD_MACRO_MAX_COEC<0.0336851] yes=71,no=72,missing=72
						71:[D_KEYWORD_MICRO_MEAN_COEC<0.100579] yes=141,no=142,missing=142
							141:leaf=0.00335196
							142:leaf=0.0282446
						72:[C_D_U_TITLEMD5_GENDER_COEC<0.214575] yes=143,no=144,missing=144
							143:leaf=-0.0383313
							144:leaf=-0.20563
					36:[WORD_COUNT<4300] yes=73,no=74,missing=74
						73:[D_PUBLISHER_COEC<0.0549203] yes=145,no=146,missing=145
							145:leaf=-0.0430972
							146:leaf=0.00475494
						74:[C_D_U_TITLEMD5_CATEGORY_MICRO_MAX_COEC<0.434046] yes=147,no=148,missing=148
							147:leaf=-0.00552619
							148:leaf=-0.0280639
				18:[DAY_OF_WEEK<4] yes=37,no=38,missing=38
					37:[C_D_U_TITLEMD5_CATEGORY_MACRO_MAX_COEC<0.0327678] yes=75,no=76,missing=75
						75:[D_PUBLISHER_COEC<0.0936466] yes=149,no=150,missing=150
							149:leaf=-0.0460697
							150:leaf=0.00755037
						76:[C_D_U_CATEGORY_GENDER_MICRO_MEAN_COEC<0.0999263] yes=151,no=152,missing=152
							151:leaf=0.0241704
							152:leaf=-0.00086697
					38:[C_D_U_TITLEMD5_GENDER_COEC<0.0541565] yes=77,no=78,missing=78
						77:[C_D_U_CATEGORY_GENDER_MACRO_MEAN_COEC<0.0956218] yes=153,no=154,missing=154
							153:leaf=0.167094
							154:leaf=-0.0733894
						78:[C_D_U_CATEGORY_GENDER_MICRO_MEAN_COEC<0.0980446] yes=155,no=156,missing=156
							155:leaf=0.0541155
							156:leaf=0.0235419
		4:[C_D_U_CATEGORY_GENDER_MACRO_MAX_COEC<0.0885165] yes=9,no=10,missing=9
			9:[D_KEYWORD_MACRO_MEAN_COEC<0.140743] yes=19,no=20,missing=20
				19:[D_KEYWORD_MACRO_MAX_COEC<0.0580222] yes=39,no=40,missing=40
					39:[D_PUBLISHER_COEC<0.0718665] yes=79,no=80,missing=80
						79:[C_D_U_TITLEMD5_CATEGORY_MACRO_MEAN_COEC<0.0501274] yes=157,no=158,missing=157
							157:leaf=0.0181606
							158:leaf=-0.0261123
						80:[C_D_U_CATEGORY_GENDER_MICRO_MAX_COEC<0.0703525] yes=159,no=160,missing=159
							159:leaf=0.0212868
							160:leaf=0.00770949
					40:[D_CATEGORY_MICRO_MEAN_COEC<0.079539] yes=81,no=82,missing=81
						81:[U_AGE_2<0.999999] yes=161,no=162,missing=162
							161:leaf=-0.0156868
							162:leaf=-0.231394
						82:[C_D_U_TITLEMD5_CATEGORY_MACRO_MAX_COEC<0.0722619] yes=163,no=164,missing=163
							163:leaf=0.0193427
							164:leaf=-0.0572492
				20:[WORD_COUNT<799] yes=41,no=42,missing=42
					41:[C_D_U_CATEGORY_CITY_MACRO_MAX_COEC<0.035128] yes=83,no=84,missing=84
						83:leaf=0.0257201
						84:leaf=-0.248013
					42:[C_D_U_CATEGORY_GENDER_MACRO_MEAN_COEC<0.0742282] yes=85,no=86,missing=86
						85:[C_D_U_TITLEMD5_CATEGORY_MICRO_MAX_COEC<0.167814] yes=165,no=166,missing=165
							165:leaf=0.0340271
							166:leaf=-0.0171436
						86:[C_D_U_TITLEMD5_CATEGORY_MICRO_MAX_COEC<0.141477] yes=167,no=168,missing=168
							167:leaf=-0.212818
							168:leaf=0.0360905
			10:[C_D_U_CATEGORY_CITY_MACRO_MEAN_COEC<0.087763] yes=21,no=22,missing=22
				21:[D_PUBLISHER_COEC<0.06261] yes=43,no=44,missing=44
					43:leaf=-0.180489
					44:[WORD_COUNT<4349] yes=87,no=88,missing=88
						87:[D_KEYWORD_MACRO_MAX_COEC<0.0192872] yes=169,no=170,missing=170
							169:leaf=-0.130532
							170:leaf=-0.0146018
						88:[D_PUBLISHER_COEC<0.0644498] yes=171,no=172,missing=172
							171:leaf=0.119316
							172:leaf=-0.210082
				22:[C_D_U_CATEGORY_GENDER_MICRO_MEAN_COEC<0.0946651] yes=45,no=46,missing=46
					45:[D_KEYWORD_MACRO_MAX_COEC<0.0389382] yes=89,no=90,missing=90
						89:[D_CATEGORY_MACRO_MEAN_COEC<0.0885945] yes=173,no=174,missing=174
							173:leaf=-0.157404
							174:leaf=-0.0414929
						90:[WORD_COUNT<1840] yes=175,no=176,missing=176
							175:leaf=0.0105841
							176:leaf=-0.201993
					46:[TIME_OF_DAY<7] yes=91,no=92,missing=92
						91:[U_KW_LEN<146] yes=177,no=178,missing=178
							177:leaf=-0.0153837
							178:leaf=0.0207502
						92:[C_D_U_PUBLISHER_GENDER_COEC<0.07232] yes=179,no=180,missing=180
							179:leaf=0.0707112
							180:leaf=0.00736634
	2:[U_CAT_LEN<10] yes=5,no=6,missing=6
		5:[CAT_REL<0.566102] yes=11,no=12,missing=12
			11:[C_D_U_TITLEMD5_AGE_COEC<0.0497313] yes=23,no=24,missing=24
				23:[D_CATEGORY_MACRO_MAX_COEC<0.069622] yes=47,no=48,missing=47
					47:[C_D_U_TITLEMD5_CATEGORY_MICRO_MAX_COEC<0.0448603] yes=93,no=94,missing=94
						93:[C_D_U_TITLEMD5_GENDER_COEC<0.0685714] yes=181,no=182,missing=181
							181:leaf=-0.0165195
							182:leaf=0.164167
						94:[C_D_U_TITLEMD5_CATEGORY_MACRO_MEAN_COEC<0.0901565] yes=183,no=184,missing=184
							183:leaf=0.00405169
							184:leaf=-0.0198128
					48:[C_D_U_CATEGORY_GENDER_MACRO_MAX_COEC<0.0720962] yes=95,no=96,missing=96
						95:[C_D_U_TITLEMD5_GENDER_COEC<0.0861057] yes=185,no=186,missing=185
							185:leaf=-0.0334975
							186:leaf=-0.121463
						96:[D_KEYWORD_MICRO_MAX_COEC<0.118729] yes=187,no=188,missing=188
							187:leaf=-0.011665
							188:leaf=-0.0212853
				24:[C_D_U_TITLEMD5_CATEGORY_MICRO_MAX_COEC<0.456026] yes=49,no=50,missing=50
					49:[C_D_U_TITLEMD5_CATEGORY_MACRO_MEAN_COEC<0.248027] yes=97,no=98,missing=98
						97:[TIME_OF_DAY<18] yes=189,no=190,missing=190
							189:leaf=-0.00374612
							190:leaf=0.0035399
						98:[IMAGE_COUNT<2] yes=191,no=192,missing=192
							191:leaf=0.0260084
							192:leaf=-0.147552
					50:[D_KEYWORD_MACRO_MEAN_COEC<0.1692] yes=99,no=100,missing=100
						99:[C_D_U_TITLEMD5_CATEGORY_MICRO_MEAN_COEC<0.0711877] yes=193,no=194,missing=194
							193:leaf=-0.112549
							194:leaf=-0.0317307
						100:[WORD_COUNT<2150] yes=195,no=196,missing=196
							195:leaf=0.0331661
							196:leaf=-0.158717
			12:[C_D_U_CATEGORY_CITY_MACRO_MAX_COEC<0.0693211] yes=25,no=26,missing=26
				25:[KW_REL<0.0091538] yes=51,no=52,missing=52
					51:[CAT_REL<0.764753] yes=101,no=102,missing=102
						101:[TIME_OF_DAY<15] yes=197,no=198,missing=198
							197:leaf=-0.0133834
							198:leaf=0.00886293
						102:[C_D_U_CATEGORY_GENDER_MACRO_MEAN_COEC<0.0741104] yes=199,no=200,missing=200
							199:leaf=-0.0371321
							200:leaf=0.0105112
					52:[C_D_U_CATEGORY_AGE_MICRO_MAX_COEC<0.0789268] yes=103,no=104,missing=104
						103:[C_D_U_CATEGORY_CITY_MACRO_MEAN_COEC<0.0668029] yes=201,no=202,missing=202
							201:leaf=0.0145063
							202:leaf=-0.0131944
						104:[C_D_U_TITLEMD5_GENDER_COEC<0.0259439] yes=203,no=204,missing=203
							203:leaf=-0.133798
							204:leaf=-0.0456851
				26:[U_CAT_LEN<7] yes=53,no=54,missing=54
					53:[DAY_OF_WEEK<0.999999] yes=105,no=106,missing=106
						105:[D_KEYWORD_MICRO_MEAN_COEC<0.0870862] yes=205,no=206,missing=206
							205:leaf=-0.0304345
							206:leaf=-0.00657627
						106:[CAT_REL<0.939768] yes=207,no=208,missing=208
							207:leaf=0.00214266
							208:leaf=0.0332737
					54:[D_TITLEMD5_COEC<0.0545889] yes=107,no=108,missing=107
						107:[D_CATEGORY_MICRO_MEAN_COEC<0.0792036] yes=209,no=210,missing=210
							209:leaf=0.00187821
							210:leaf=0.0368281
						108:[U_AGE_1<0.999999] yes=211,no=212,missing=212
							211:leaf=0.00626053
							212:leaf=0.0268767
		6:[CAT_REL<0.223231] yes=13,no=14,missing=14
			13:[D_CATEGORY_MICRO_MAX_COEC<0.0638858] yes=27,no=28,missing=27
				27:[D_KEYWORD_MICRO_MEAN_COEC<0.0740367] yes=55,no=56,missing=56
					55:[CAT_REL<0.036567] yes=109,no=110,missing=110
						109:[D_CATEGORY_MICRO_MAX_COEC<0.0369733] yes=213,no=214,missing=213
							213:leaf=0.00429293
							214:leaf=-0.0194274
						110:[D_CATEGORY_MACRO_MAX_COEC<0.0547717] yes=215,no=216,missing=216
							215:leaf=0.0211902
							216:leaf=7.60079e-05
					56:[CAT_REL<0.009727] yes=111,no=112,missing=112
						111:[D_KEYWORD_MACRO_MEAN_COEC<0.0610894] yes=217,no=218,missing=218
							217:leaf=-0.0335597
							218:leaf=0.00821194
						112:[DAY_OF_WEEK<2] yes=219,no=220,missing=220
							219:leaf=0.0311572
							220:leaf=0.0128491
				28:[C_D_U_PUBLISHER_AGE_COEC<0.091117] yes=57,no=58,missing=57
					57:[WORD_COUNT<1804] yes=113,no=114,missing=114
						113:[DAY_OF_WEEK<5] yes=221,no=222,missing=222
							221:leaf=-0.00685266
							222:leaf=-0.0153395
						114:[D_CATEGORY_MACRO_MAX_COEC<0.0721156] yes=223,no=224,missing=224
							223:leaf=-0.00783278
							224:leaf=0.00178317
					58:[WORD_COUNT<630] yes=115,no=116,missing=116
						115:[CAT_REL<0.050197] yes=225,no=226,missing=226
							225:leaf=-0.0525224
							226:leaf=-0.0134886
						116:[D_CATEGORY_MACRO_MAX_COEC<0.0807584] yes=227,no=228,missing=228
							227:leaf=0.0057132
							228:leaf=-0.00115302
			14:[WORD_COUNT<1321] yes=29,no=30,missing=30
				29:[C_D_U_PUBLISHER_CITY_COEC<0.0575321] yes=59,no=60,missing=60
					59:[C_D_U_CATEGORY_CITY_MACRO_MEAN_COEC<0.0572262] yes=117,no=118,missing=118
						117:[C_D_U_CATEGORY_GENDER_MACRO_MEAN_COEC<0.0370506] yes=229,no=230,missing=230
							229:leaf=0.051817
							230:leaf=-0.0288349
						118:[WORD_COUNT<765] yes=231,no=232,missing=232
							231:leaf=-0.0124234
							232:leaf=-0.0021401
					60:[C_D_U_TITLEMD5_GENDER_COEC<0.26873] yes=119,no=120,missing=119
						119:[C_D_U_TITLEMD5_CATEGORY_MACRO_MEAN_COEC<0.182025] yes=233,no=234,missing=234
							233:leaf=0.000779095
							234:leaf=0.0113127
						120:[D_KEYWORD_MACRO_MAX_COEC<0.0472925] yes=235,no=236,missing=236
							235:leaf=-0.0305278
							236:leaf=0.0132826
				30:[C_D_U_TITLEMD5_CATEGORY_MACRO_MEAN_COEC<0.124359] yes=61,no=62,missing=62
					61:[C_D_U_TITLEMD5_CATEGORY_MICRO_MAX_COEC<0.27985] yes=121,no=122,missing=122
						121:[C_D_U_PUBLISHER_CITY_COEC<0.0272822] yes=237,no=238,missing=238
							237:leaf=-0.00640687
							238:leaf=0.00481105
						122:[D_TITLEMD5_COEC<0.0634957] yes=239,no=240,missing=240
							239:leaf=-0.0629528
							240:leaf=-0.0173607
					62:[D_PUBLISHER_COEC<0.112272] yes=123,no=124,missing=124
						123:[C_D_U_TITLEMD5_CATEGORY_MICRO_MAX_COEC<0.27985] yes=241,no=242,missing=242
							241:leaf=0.0146181
							242:leaf=0.000149382
						124:[DAY_OF_WEEK<6] yes=243,no=244,missing=244
							243:leaf=0.00560721
							244:leaf=-0.0165167
booster[52]:
0:[U_KW_LEN<200] yes=1,no=2,missing=1
	1:[D_PUBLISHER_COEC<0.0380913] yes=3,no=4,missing=3
		3:[C_D_U_TITLEMD5_GENDER_COEC<0.0763461] yes=7,no=8,missing=8
			7:[WORD_COUNT<3737] yes=15,no=16,missing=16
				15:[C_D_U_TITLEMD5_GENDER_COEC<0.0216665] yes=31,no=32,missing=32
					31:[WORD_COUNT<1920] yes=63,no=64,missing=64
						63:[TIME_OF_DAY<2] yes=127,no=128,missing=128
							127:leaf=0.0691835
							128:leaf=-0.0388934
						64:[D_CATEGORY_MACRO_MEAN_COEC<0.0830656] yes=129,no=130,missing=129
							129:leaf=0.00971232
							130:leaf=-0.0888902
					32:[WORD_COUNT<3398] yes=65,no=66,missing=66
						65:[D_KEYWORD_MACRO_MAX_COEC<0.0192374] yes=131,no=132,missing=132
							131:leaf=-0.00778331
							132:leaf=0.0461824
						66:[C_D_U_CATEGORY_CITY_MICRO_MAX_COEC<0.0216129] yes=133,no=134,missing=134
							133:leaf=0.156524
							134:leaf=0.0246872
				16:[KW_REL<0.0116722] yes=33,no=34,missing=34
					33:[U_CAT_LEN<3] yes=67,no=68,missing=68
						67:[C_D_U_TITLEMD5_CATEGORY_MICRO_MEAN_COEC<0.0911222] yes=135,no=136,missing=135
							135:leaf=-0.0242568
							136:leaf=0.100156
						68:[TIME_OF_DAY<6] yes=137,no=138,missing=138
							137:leaf=-0.0120937
							138:leaf=-0.0776022
					34:[C_D_U_PUBLISHER_CITY_COEC<0.0229684] yes=69,no=70,missing=70
						69:[TIME_OF_DAY<16] yes=139,no=140,missing=140
							139:leaf=0.178754
							140:leaf=-0.118
						70:[U_CAT_LEN<5] yes=141,no=142,missing=142
							141:leaf=-0.0951685
							142:leaf=0.0660997
			8:[KW_REL<0.00835925] yes=17,no=18,missing=18
				17:[U_AGE_1<0.999999] yes=35,no=36,missing=36
					35:[C_D_U_TITLEMD5_CATEGORY_MICRO_MAX_COEC<0.196152] yes=71,no=72,missing=72
						71:[C_D_U_TITLEMD5_CATEGORY_MICRO_MEAN_COEC<0.170585] yes=143,no=144,missing=144
							143:leaf=-0.0443617
							144:leaf=0.103308
						72:[C_D_U_CATEGORY_GENDER_MACRO_MAX_COEC<0.0383576] yes=145,no=146,missing=146
							145:leaf=-0.0455808
							146:leaf=-0.107405
					36:[D_CATEGORY_MACRO_MAX_COEC<0.0246492] yes=73,no=74,missing=74
						73:[C_D_U_TITLEMD5_GENDER_COEC<0.110784] yes=147,no=148,missing=148
							147:leaf=0.0528872
							148:leaf=-0.122558
						74:[C_D_U_TITLEMD5_GENDER_COEC<0.230746] yes=149,no=150,missing=150
							149:leaf=-0.0872431
							150:leaf=0.0755256
				18:[C_D_U_TITLEMD5_CATEGORY_MACRO_MAX_COEC<0.15608] yes=37,no=38,missing=38
					37:[C_D_U_TITLEMD5_GENDER_COEC<0.104693] yes=75,no=76,missing=76
						75:[D_KEYWORD_MACRO_MEAN_COEC<0.0738122] yes=151,no=152,missing=152
							151:leaf=-0.165973
							152:leaf=0.115742
						76:[D_KEYWORD_MACRO_MAX_COEC<0.0386935] yes=153,no=154,missing=154
							153:leaf=0.0276693
							154:leaf=0.178591
					38:[D_CATEGORY_MICRO_MAX_COEC<0.0842968] yes=77,no=78,missing=78
						77:leaf=-0.178189
						78:leaf=0.0326156
		4:[IMAGE_COUNT<2] yes=9,no=10,missing=10
			9:[U_CAT_LEN<6] yes=19,no=20,missing=20
				19:[C_D_U_TITLEMD5_CATEGORY_MACRO_MEAN_COEC<0.173453] yes=39,no=40,missing=40
					39:[D_TITLEMD5_COEC<0.140886] yes=79,no=80,missing=79
						79:[C_D_U_TITLEMD5_CATEGORY_MACRO_MEAN_COEC<0.127677] yes=155,no=156,missing=156
							155:leaf=-0.00271493
							156:leaf=0.00612416
						80:[WORD_COUNT<1510] yes=157,no=158,missing=158
							157:leaf=-0.0175718
							158:leaf=-0.00237505
					40:[D_KEYWORD_MACRO_MAX_COEC<0.0111376] yes=81,no=82,missing=82
						81:[C_D_U_CATEGORY_CITY_MACRO_MEAN_COEC<0.0607894] yes=159,no=160,missing=159
							159:leaf=-0.00776012
							160:leaf=0.0257113
						82:[D_KEYWORD_MACRO_MAX_COEC<0.0336079] yes=161,no=162,missing=162
							161:leaf=-0.00128183
							162:leaf=0.0046712
				20:[TIME_OF_DAY<20] yes=41,no=42,missing=42
					41:[U_KW_LEN<61] yes=83,no=84,missing=84
						83:[CAT_REL<0.316313] yes=163,no=164,missing=164
							163:leaf=0.0212315
							164:leaf=0.151408
						84:[DAY_OF_WEEK<3] yes=165,no=166,missing=166
							165:leaf=-0.00193922
							166:leaf=0.00657074
					42:[U_CAT_LEN<7] yes=85,no=86,missing=86
						85:[C_D_U_CATEGORY_GENDER_MACRO_MAX_COEC<0.0707512] yes=167,no=168,missing=168
							167:leaf=0.0874281
							168:leaf=0.0288949
						86:[U_KW_LEN<197] yes=169,no=170,missing=170
							169:leaf=0.00287488
							170:leaf=-0.152481
			10:[D_PUBLISHER_COEC<0.112258] yes=21,no=22,missing=22
				21:[D_PUBLISHER_COEC<0.0892595] yes=43,no=44,missing=44
					43:[IMAGE_COUNT<5] yes=87,no=88,missing=88
						87:[D_CATEGORY_MICRO_MAX_COEC<0.0763805] yes=171,no=172,missing=172
							171:leaf=0.0154126
							172:leaf=0.00490635
						88:[D_KEYWORD_MICRO_MAX_COEC<0.114393] yes=173,no=174,missing=174
							173:leaf=0.00743227
							174:leaf=-0.0860053
					44:[TIME_OF_DAY<10] yes=89,no=90,missing=90
						89:[C_D_U_PUBLISHER_CITY_COEC<3.62634] yes=175,no=176,missing=176
							175:leaf=0.00918036
							176:leaf=-0.142815
						90:[CAT_REL<0.142856] yes=177,no=178,missing=178
							177:leaf=-0.0141813
							178:leaf=0.00547157
				22:[D_KEYWORD_MACRO_MAX_COEC<0.0263866] yes=45,no=46,missing=46
					45:[D_KEYWORD_MICRO_MEAN_COEC<0.0723142] yes=91,no=92,missing=92
						91:[KW_REL<0.00144625] yes=179,no=180,missing=180
							179:leaf=0.0794117
							180:leaf=-0.171539
						92:[C_D_U_CATEGORY_CITY_MICRO_MAX_COEC<0.0676612] yes=181,no=182,missing=182
							181:leaf=-0.181849
							182:leaf=-0.0143886
					46:[C_D_U_TITLEMD5_GENDER_COEC<0.11477] yes=93,no=94,missing=93
						93:[U_AGE_1<0.999999] yes=183,no=184,missing=184
							183:leaf=0.0691636
							184:leaf=-0.216415
						94:[C_D_U_CATEGORY_CITY_MICRO_MAX_COEC<0.0679804] yes=185,no=186,missing=186
							185:leaf=-0.0108896
							186:leaf=0.0320806
	2:[U_CAT_LEN<19] yes=5,no=6,missing=6
		5:[C_D_U_CATEGORY_CITY_MACRO_MAX_COEC<0.105541] yes=11,no=12,missing=12
			11:[D_CATEGORY_MICRO_MEAN_COEC<0.0960819] yes=23,no=24,missing=24
				23:[D_KEYWORD_MACRO_MEAN_COEC<0.065441] yes=47,no=48,missing=48
					47:[C_D_U_PUBLISHER_CITY_COEC<0.0241809] yes=95,no=96,missing=95
						95:[C_D_U_CATEGORY_CITY_MACRO_MAX_COEC<0.0644006] yes=187,no=188,missing=188
							187:leaf=-0.0199348
							188:leaf=-0.00868914
						96:[D_CATEGORY_MACRO_MAX_COEC<0.0543384] yes=189,no=190,missing=190
							189:leaf=0.00845718
							190:leaf=-0.00400699
					48:[CAT_REL<0.055483] yes=97,no=98,missing=98
						97:[D_KEYWORD_MACRO_MEAN_COEC<0.0871339] yes=191,no=192,missing=192
							191:leaf=-0.00890994
							192:leaf=0.000412249
						98:[WORD_COUNT<1359] yes=193,no=194,missing=194
							193:leaf=-0.000509311
							194:leaf=0.00441102
				24:[CAT_REL<0.455889] yes=49,no=50,missing=50
					49:[C_D_U_TITLEMD5_CATEGORY_MACRO_MEAN_COEC<0.0763567] yes=99,no=100,missing=100
						99:[D_KEYWORD_MACRO_MEAN_COEC<0.068557] yes=195,no=196,missing=196
							195:leaf=-0.0043822
							196:leaf=-0.0262787
						100:[WORD_COUNT<7973] yes=197,no=198,missing=198
							197:leaf=-0.00666934
							198:leaf=0.0170071
					50:[KW_REL<0.00280143] yes=101,no=102,missing=102
						101:[D_KEYWORD_MICRO_MEAN_COEC<0.110126] yes=199,no=200,missing=200
							199:leaf=-0.00602603
							200:leaf=0.0071373
						102:[D_KEYWORD_MICRO_MEAN_COEC<0.0932551] yes=201,no=202,missing=202
							201:leaf=0.00144936
							202:leaf=0.0193296
			12:[C_D_U_CATEGORY_CITY_MACRO_MEAN_COEC<0.204225] yes=25,no=26,missing=25
				25:[WORD_COUNT<998] yes=51,no=52,missing=52
					51:[C_D_U_TITLEMD5_CATEGORY_MACRO_MEAN_COEC<0.100097] yes=103,no=104,missing=104
						103:[C_D_U_CATEGORY_AGE_MICRO_MEAN_COEC<0.0954735] yes=203,no=204,missing=204
							203:leaf=0.000466962
							204:leaf=-0.0199474
						104:[D_CATEGORY_MICRO_MAX_COEC<0.101363] yes=205,no=206,missing=206
							205:leaf=0.00883269
							206:leaf=-0.00324117
					52:[WORD_COUNT<1014] yes=105,no=106,missing=106
						105:[D_CATEGORY_MACRO_MEAN_COEC<0.104409] yes=207,no=208,missing=207
							207:leaf=-0.000550041
							208:leaf=0.0496697
						106:[CAT_REL<0.019745] yes=209,no=210,missing=210
							209:leaf=-0.00241813
							210:leaf=0.0075446
				26:[U_CAT_LEN<16] yes=53,no=54,missing=54
					53:[U_CAT_LEN<15] yes=107,no=108,missing=108
						107:[D_CATEGORY_MACRO_MEAN_COEC<0.0632186] yes=211,no=212,missing=212
							211:leaf=0.0459206
							212:leaf=0.0182008
						108:[U_GENDER<2] yes=213,no=214,missing=214
							213:leaf=0.0213044
							214:leaf=-0.0448817
					54:[C_D_U_CATEGORY_GENDER_MICRO_MAX_COEC<0.0623618] yes=109,no=110,missing=110
						109:[C_D_U_PUBLISHER_AGE_COEC<0.0992435] yes=215,no=216,missing=216
							215:leaf=-0.0885155
							216:leaf=0.0979916
						110:[D_TITLEMD5_COEC<0.0717798] yes=217,no=218,missing=217
							217:leaf=0.0787588
							218:leaf=0.0382521
		6:[CAT_REL<0.156482] yes=13,no=14,missing=14
			13:[U_CAT_LEN<28] yes=27,no=28,missing=28
				27:[DAY_OF_WEEK<5] yes=55,no=56,missing=56
					55:[TIME_OF_DAY<9] yes=111,no=112,missing=112
						111:[D_CATEGORY_MICRO_MAX_COEC<0.0646812] yes=219,no=220,missing=219
							219:leaf=0.0242911
							220:leaf=-0.00426549
						112:[D_KEYWORD_MICRO_MEAN_COEC<0.162449] yes=221,no=222,missing=222
							221:leaf=0.0111954
							222:leaf=-0.0447154
					56:[D_CATEGORY_MACRO_MAX_COEC<0.0831034] yes=113,no=114,missing=113
						113:[C_D_U_PUBLISHER_GENDER_COEC<0.0573145] yes=223,no=224,missing=224
							223:leaf=-0.0204813
							224:leaf=0.00496537
						114:[C_D_U_CATEGORY_GENDER_MACRO_MEAN_COEC<0.0981199] yes=225,no=226,missing=226
							225:leaf=-0.0246134
							226:leaf=0.0182688
				28:[U_AGE_2<0.999999] yes=57,no=58,missing=58
					57:[TIME_OF_DAY<17] yes=115,no=116,missing=116
						115:[D_TITLEMD5_COEC<0.0252758] yes=227,no=228,missing=227
							227:leaf=0.0126273
							228:leaf=-0.102539
						116:[WORD_COUNT<1577] yes=229,no=230,missing=230
							229:leaf=-0.0902351
							230:leaf=0.0924588
					58:[D_KEYWORD_MACRO_MAX_COEC<0.0207679] yes=117,no=118,missing=118
						117:[TIME_OF_DAY<2] yes=231,no=232,missing=232
							231:leaf=0.125976
							232:leaf=-0.0306967
						118:[U_CAT_LEN<31] yes=233,no=234,missing=234
							233:leaf=0.0214632
							234:leaf=0.09142
			14:[U_CAT_LEN<24] yes=29,no=30,missing=30
				29:[C_D_U_CATEGORY_CITY_MACRO_MEAN_COEC<0.0563975] yes=59,no=60,missing=60
					59:[D_CATEGORY_MICRO_MAX_COEC<0.0637826] yes=119,no=120,missing=120
						119:[C_D_U_TITLEMD5_CATEGORY_MICRO_MAX_COEC<0.0832161] yes=235,no=236,missing=236
							235:leaf=-0.0119801
							236:leaf=0.0400032
						120:[U_GENDER<2] yes=237,no=238,missing=238
							237:leaf=-0.0554491
							238:leaf=-0.00320937
					60:[TIME_OF_DAY<14] yes=121,no=122,missing=122
						121:[C_D_U_CATEGORY_AGE_MACRO_MAX_COEC<0.0769754] yes=239,no=240,missing=240
							239:leaf=0.0130768
							240:leaf=0.00227193
						122:[C_D_U_PUBLISHER_CITY_COEC<0.0662876] yes=241,no=242,missing=241
							241:leaf=0.00372151
							242:leaf=0.0187075
				30:[C_D_U_CATEGORY_GENDER_MICRO_MEAN_COEC<0.0864816] yes=61,no=62,missing=62
					61:[CAT_REL<0.332903] yes=123,no=124,missing=124
						123:[CAT_REL<0.224648] yes=243,no=244,missing=244
							243:leaf=0.0371281
							244:leaf=0.00799037
						124:[U_CAT_LEN<26] yes=245,no=246,missing=246
							245:leaf=0.027704
							246:leaf=0.0730419
					62:[U_CAT_LEN<28] yes=125,no=126,missing=126
						125:[C_D_U_CATEGORY_CITY_MICRO_MEAN_COEC<0.0827819] yes=247,no=248,missing=248
							247:leaf=-0.0190871
							248:leaf=0.0146582
						126:[CAT_REL<0.237548] yes=249,no=250,missing=250
							249:leaf=-0.127919
							250:leaf=-0.0119271
booster[53]:
0:[U_KW_LEN<200] yes=1,no=2,missing=1
	1:[C_D_U_TITLEMD5_CATEGORY_MICRO_MAX_COEC<0.489387] yes=3,no=4,missing=3
		3:[WORD_COUNT<2325] yes=7,no=8,missing=8
			7:[C_D_U_TITLEMD5_CATEGORY_MACRO_MEAN_COEC<0.150138] yes=15,no=16,missing=16
				15:[D_KEYWORD_MICRO_MEAN_COEC<0.0659183] yes=31,no=32,missing=32
					31:[D_KEYWORD_MACRO_MEAN_COEC<0.0801538] yes=63,no=64,missing=64
						63:[D_CATEGORY_MICRO_MEAN_COEC<0.0915715] yes=123,no=124,missing=123
							123:leaf=-0.0115222
							124:leaf=0.0199422
						64:[C_D_U_CATEGORY_GENDER_MACRO_MEAN_COEC<0.0690104] yes=125,no=126,missing=125
							125:leaf=-0.198638
							126:leaf=-0.0498545
					32:[D_KEYWORD_MICRO_MAX_COEC<0.0793315] yes=65,no=66,missing=66
						65:[D_KEYWORD_MACRO_MEAN_COEC<0.0577808] yes=127,no=128,missing=128
							127:leaf=-0.006576
							128:leaf=0.042233
						66:[D_TITLEMD5_COEC<0.14435] yes=129,no=130,missing=129
							129:leaf=-0.00142907
							130:leaf=-0.00986898
				16:[CAT_REL<0.249999] yes=33,no=34,missing=34
					33:[D_CATEGORY_MACRO_MEAN_COEC<0.0877045] yes=67,no=68,missing=68
						67:[U_AGE_2<0.999999] yes=131,no=132,missing=132
							131:leaf=-0.00117868
							132:leaf=0.00621816
						68:[C_D_U_CATEGORY_CITY_MACRO_MAX_COEC<0.0969947] yes=133,no=134,missing=133
							133:leaf=-0.0091747
							134:leaf=0.00299093
					34:[D_PUBLISHER_COEC<0.0597592] yes=69,no=70,missing=70
						69:[C_D_U_TITLEMD5_GENDER_COEC<0.20214] yes=135,no=136,missing=136
							135:leaf=-0.0132706
							136:leaf=-0.0816089
						70:[U_KW_LEN<26] yes=137,no=138,missing=138
							137:leaf=-0.0128499
							138:leaf=0.0104733
			8:[C_D_U_TITLEMD5_CATEGORY_MACRO_MEAN_COEC<0.191095] yes=17,no=18,missing=17
				17:[C_D_U_TITLEMD5_CATEGORY_MICRO_MAX_COEC<0.233761] yes=35,no=36,missing=35
					35:[KW_REL<0.0352797] yes=71,no=72,missing=72
						71:[U_KW_LEN<116] yes=139,no=140,missing=140
							139:leaf=0.00107126
							140:leaf=0.00577057
						72:[D_KEYWORD_MICRO_MEAN_COEC<0.0836028] yes=141,no=142,missing=142
							141:leaf=-0.0165129
							142:leaf=-0.112048
					36:[C_D_U_TITLEMD5_CATEGORY_MACRO_MEAN_COEC<0.0848237] yes=73,no=74,missing=74
						73:[C_D_U_CATEGORY_CITY_MICRO_MAX_COEC<0.0708568] yes=143,no=144,missing=144
							143:leaf=-0.0215462
							144:leaf=-0.13552
						74:[C_D_U_TITLEMD5_CATEGORY_MACRO_MAX_COEC<0.058773] yes=145,no=146,missing=146
							145:leaf=0.00226434
							146:leaf=-0.022144
				18:[D_KEYWORD_MICRO_MAX_COEC<0.175449] yes=37,no=38,missing=38
					37:[C_D_U_CATEGORY_GENDER_MICRO_MEAN_COEC<0.0652234] yes=75,no=76,missing=76
						75:[DAY_OF_WEEK<5] yes=147,no=148,missing=148
							147:leaf=0.0305092
							148:leaf=0.08128
						76:[C_D_U_CATEGORY_GENDER_MACRO_MEAN_COEC<0.0858064] yes=149,no=150,missing=150
							149:leaf=0.00185465
							150:leaf=0.035443
					38:[D_KEYWORD_MACRO_MAX_COEC<0.0199939] yes=77,no=78,missing=78
						77:[C_D_U_CATEGORY_CITY_MACRO_MAX_COEC<0.0357105] yes=151,no=152,missing=152
							151:leaf=-0.0393573
							152:leaf=-0.196197
						78:[C_D_U_TITLEMD5_CATEGORY_MACRO_MEAN_COEC<0.231432] yes=153,no=154,missing=154
							153:leaf=-0.00538842
							154:leaf=0.0260394
		4:[U_KW_LEN<185] yes=9,no=10,missing=10
			9:[C_D_U_TITLEMD5_GENDER_COEC<0.0615267] yes=19,no=20,missing=19
				19:[C_D_U_CATEGORY_CITY_MICRO_MAX_COEC<0.0619669] yes=39,no=40,missing=39
					39:[KW_REL<0.000872474] yes=79,no=80,missing=80
						79:[KW_REL<9.63687e-06] yes=155,no=156,missing=156
							155:leaf=0.0316291
							156:leaf=-0.154136
						80:[D_CATEGORY_MACRO_MEAN_COEC<0.0259776] yes=157,no=158,missing=158
							157:leaf=-0.133503
							158:leaf=0.0832341
					40:[D_KEYWORD_MICRO_MEAN_COEC<0.112777] yes=81,no=82,missing=82
						81:[C_D_U_CATEGORY_GENDER_MACRO_MEAN_COEC<0.0659549] yes=159,no=160,missing=160
							159:leaf=-0.081492
							160:leaf=-0.0150292
						82:[C_D_U_CATEGORY_CITY_MICRO_MEAN_COEC<0.0954233] yes=161,no=162,missing=162
							161:leaf=0.127737
							162:leaf=-0.048803
				20:[D_KEYWORD_MACRO_MEAN_COEC<0.17241] yes=41,no=42,missing=42
					41:[CAT_REL<0.508533] yes=83,no=84,missing=84
						83:[D_KEYWORD_MICRO_MEAN_COEC<0.0701607] yes=163,no=164,missing=164
							163:leaf=-0.0286651
							164:leaf=-0.0764734
						84:[C_D_U_TITLEMD5_CATEGORY_MACRO_MAX_COEC<0.101117] yes=165,no=166,missing=166
							165:leaf=0.0578576
							166:leaf=-0.0327277
					42:[D_PUBLISHER_COEC<0.0766491] yes=85,no=86,missing=86
						85:leaf=-0.227118
						86:[C_D_U_TITLEMD5_CATEGORY_MACRO_MEAN_COEC<0.279731] yes=167,no=168,missing=168
							167:leaf=-0.100885
							168:leaf=0.0604012
			10:[D_KEYWORD_MACRO_MEAN_COEC<0.0631107] yes=21,no=22,missing=22
				21:[WORD_COUNT<912] yes=43,no=44,missing=44
					43:leaf=-0.165267
					44:[U_CAT_LEN<8] yes=87,no=88,missing=88
						87:[TIME_OF_DAY<7] yes=169,no=170,missing=170
							169:leaf=-0.124344
							170:leaf=0.0811554
						88:[KW_REL<0.00224139] yes=171,no=172,missing=172
							171:leaf=0.187136
							172:leaf=-0.0246288
				22:[C_D_U_TITLEMD5_CATEGORY_MICRO_MEAN_COEC<0.112248] yes=45,no=46,missing=46
					45:leaf=-0.211167
					46:[D_TITLEMD5_COEC<0.129068] yes=89,no=90,missing=90
						89:[C_D_U_TITLEMD5_CATEGORY_MACRO_MAX_COEC<0.104355] yes=173,no=174,missing=174
							173:leaf=0.101846
							174:leaf=-0.196759
						90:[D_KEYWORD_MACRO_MAX_COEC<0.0206834] yes=175,no=176,missing=176
							175:leaf=-0.126544
							176:leaf=0.00171596
	2:[TIME_OF_DAY<17] yes=5,no=6,missing=6
		5:[CAT_REL<0.145463] yes=11,no=12,missing=12
			11:[C_D_U_CATEGORY_AGE_MICRO_MAX_COEC<0.109406] yes=23,no=24,missing=23
				23:[D_CATEGORY_MICRO_MEAN_COEC<0.0933182] yes=47,no=48,missing=47
					47:[C_D_U_CATEGORY_GENDER_MACRO_MAX_COEC<0.091988] yes=91,no=92,missing=91
						91:[DAY_OF_WEEK<3] yes=177,no=178,missing=178
							177:leaf=-0.000514765
							178:leaf=-0.00733134
						92:[D_KEYWORD_MICRO_MEAN_COEC<0.116501] yes=179,no=180,missing=180
							179:leaf=0.018694
							180:leaf=-0.00594753
					48:[DAY_OF_WEEK<3] yes=93,no=94,missing=94
						93:[D_KEYWORD_MACRO_MAX_COEC<0.023888] yes=181,no=182,missing=182
							181:leaf=-0.00598699
							182:leaf=-0.0243834
						94:[D_CATEGORY_MACRO_MEAN_COEC<0.0999535] yes=183,no=184,missing=184
							183:leaf=-0.0207927
							184:leaf=0.0315916
				24:[CAT_REL<0.034825] yes=49,no=50,missing=50
					49:[WORD_COUNT<1327] yes=95,no=96,missing=96
						95:[C_D_U_TITLEMD5_CATEGORY_MACRO_MEAN_COEC<0.151065] yes=185,no=186,missing=186
							185:leaf=0.0542576
							186:leaf=-0.0933643
						96:[TIME_OF_DAY<7] yes=187,no=188,missing=188
							187:leaf=-0.0321351
							188:leaf=-0.000621124
					50:[C_D_U_CATEGORY_GENDER_MICRO_MAX_COEC<0.104525] yes=97,no=98,missing=98
						97:[C_D_U_PUBLISHER_AGE_COEC<0.140053] yes=189,no=190,missing=190
							189:leaf=-0.0798648
							190:leaf=0.00733806
						98:[D_KEYWORD_MICRO_MEAN_COEC<0.14302] yes=191,no=192,missing=192
							191:leaf=0.0306865
							192:leaf=-0.0486648
			12:[D_CATEGORY_MACRO_MAX_COEC<0.0818669] yes=25,no=26,missing=26
				25:[D_KEYWORD_MICRO_MEAN_COEC<0.0785823] yes=51,no=52,missing=52
					51:[D_CATEGORY_MACRO_MAX_COEC<0.0562667] yes=99,no=100,missing=100
						99:[D_CATEGORY_MICRO_MEAN_COEC<0.0830689] yes=193,no=194,missing=194
							193:leaf=0.0159084
							194:leaf=-0.0228142
						100:[C_D_U_PUBLISHER_AGE_COEC<0.0882144] yes=195,no=196,missing=196
							195:leaf=-0.00251368
							196:leaf=0.00581023
					52:[U_CAT_LEN<13] yes=101,no=102,missing=102
						101:[C_D_U_PUBLISHER_GENDER_COEC<0.0933074] yes=197,no=198,missing=197
							197:leaf=0.00171441
							198:leaf=0.00898098
						102:[D_CATEGORY_MICRO_MEAN_COEC<0.062027] yes=199,no=200,missing=200
							199:leaf=0.0420974
							200:leaf=0.0110798
				26:[C_D_U_CATEGORY_CITY_MACRO_MEAN_COEC<0.075015] yes=53,no=54,missing=54
					53:[C_D_U_TITLEMD5_CATEGORY_MACRO_MAX_COEC<0.0417496] yes=103,no=104,missing=104
						103:[CAT_REL<0.448569] yes=201,no=202,missing=202
							201:leaf=-0.0282652
							202:leaf=0.00658148
						104:[U_CAT_LEN<12] yes=203,no=204,missing=204
							203:leaf=-0.01871
							204:leaf=-0.00260865
					54:[CAT_REL<0.56137] yes=105,no=106,missing=106
						105:[C_D_U_TITLEMD5_CATEGORY_MICRO_MAX_COEC<0.478362] yes=205,no=206,missing=206
							205:leaf=-0.00189705
							206:leaf=-0.0288971
						106:[IMAGE_COUNT<2] yes=207,no=208,missing=208
							207:leaf=0.0040422
							208:leaf=0.0242672
		6:[C_D_U_TITLEMD5_CATEGORY_MACRO_MEAN_COEC<0.0674976] yes=13,no=14,missing=14
			13:[C_D_U_CATEGORY_AGE_MACRO_MAX_COEC<0.0995911] yes=27,no=28,missing=28
				27:[D_KEYWORD_MICRO_MEAN_COEC<0.134834] yes=55,no=56,missing=56
					55:[C_D_U_CATEGORY_AGE_MACRO_MEAN_COEC<0.0989128] yes=107,no=108,missing=108
						107:[D_CATEGORY_MICRO_MAX_COEC<0.104453] yes=209,no=210,missing=210
							209:leaf=-0.00136695
							210:leaf=0.0874333
						108:[C_D_U_TITLEMD5_CATEGORY_MACRO_MAX_COEC<0.0294138] yes=211,no=212,missing=212
							211:leaf=0.0659087
							212:leaf=-0.0185902
					56:[C_D_U_CATEGORY_GENDER_MICRO_MAX_COEC<0.0922524] yes=109,no=110,missing=110
						109:[C_D_U_TITLEMD5_CATEGORY_MACRO_MEAN_COEC<0.0573914] yes=213,no=214,missing=214
							213:leaf=-0.1061
							214:leaf=0.0353576
						110:[D_KEYWORD_MICRO_MAX_COEC<0.18087] yes=215,no=216,missing=216
							215:leaf=-0.0602934
							216:leaf=0.149153
				28:[D_CATEGORY_MICRO_MAX_COEC<0.104453] yes=57,no=58,missing=57
					57:[KW_REL<0.00163499] yes=111,no=112,missing=112
						111:[D_PUBLISHER_COEC<0.0961952] yes=217,no=218,missing=218
							217:leaf=-0.0409773
							218:leaf=-0.00216675
						112:[D_CATEGORY_MACRO_MAX_COEC<0.0964524] yes=219,no=220,missing=220
							219:leaf=0.160813
							220:leaf=-0.0108954
					58:[CAT_REL<0.474249] yes=113,no=114,missing=114
						113:[DAY_OF_WEEK<2] yes=221,no=222,missing=222
							221:leaf=-0.0349132
							222:leaf=0.0251846
						114:[C_D_U_CATEGORY_GENDER_MACRO_MAX_COEC<0.118735] yes=223,no=224,missing=224
							223:leaf=0.0486162
							224:leaf=-0.10942
			14:[D_KEYWORD_MACRO_MEAN_COEC<0.0578639] yes=29,no=30,missing=30
				29:[D_KEYWORD_MACRO_MAX_COEC<0.0131641] yes=59,no=60,missing=60
					59:[C_D_U_TITLEMD5_CATEGORY_MICRO_MAX_COEC<0.142586] yes=115,no=116,missing=116
						115:[C_D_U_TITLEMD5_CATEGORY_MACRO_MAX_COEC<0.0224273] yes=225,no=226,missing=226
							225:leaf=-0.0990223
							226:leaf=-0.00368628
						116:[C_D_U_TITLEMD5_CATEGORY_MACRO_MAX_COEC<0.102019] yes=227,no=228,missing=228
							227:leaf=-0.0419397
							228:leaf=0.00859372
					60:[WORD_COUNT<1823] yes=117,no=118,missing=118
						117:[C_D_U_TITLEMD5_GENDER_COEC<0.0935731] yes=229,no=230,missing=229
							229:leaf=-0.0123196
							230:leaf=-0.0524642
						118:[CAT_REL<0.103443] yes=231,no=232,missing=232
							231:leaf=-0.0167315
							232:leaf=0.0125136
				30:[D_TITLEMD5_COEC<0.0873832] yes=61,no=62,missing=62
					61:[DAY_OF_WEEK<0.999999] yes=119,no=120,missing=120
						119:[D_PUBLISHER_COEC<0.0872013] yes=233,no=234,missing=234
							233:leaf=0.00671618
							234:leaf=-0.0173637
						120:[DAY_OF_WEEK<5] yes=235,no=236,missing=236
							235:leaf=0.01801
							236:leaf=0.00663014
					62:[C_D_U_TITLEMD5_CATEGORY_MACRO_MEAN_COEC<0.100094] yes=121,no=122,missing=122
						121:[C_D_U_CATEGORY_GENDER_MACRO_MAX_COEC<0.0803183] yes=237,no=238,missing=237
							237:leaf=0.00391848
							238:leaf=-0.0041413
						122:[WORD_COUNT<3698] yes=239,no=240,missing=240
							239:leaf=0.00613029
							240:leaf=0.0174245
booster[54]:
0:[U_KW_LEN<200] yes=1,no=2,missing=1
	1:[C_D_U_CATEGORY_CITY_MICRO_MEAN_COEC<0.218187] yes=3,no=4,missing=3
		3:[D_PUBLISHER_COEC<0.0378907] yes=7,no=8,missing=8
			7:[C_D_U_TITLEMD5_GENDER_COEC<0.074997] yes=15,no=16,missing=16
				15:[KW_REL<0.00103064] yes=31,no=32,missing=32
					31:[D_CATEGORY_MICRO_MAX_COEC<0.0849524] yes=63,no=64,missing=63
						63:[D_CATEGORY_MACRO_MEAN_COEC<0.0654558] yes=125,no=126,missing=126
							125:leaf=-0.000618834
							126:leaf=0.0329207
						64:[C_D_U_CATEGORY_CITY_MICRO_MEAN_COEC<0.117793] yes=127,no=128,missing=128
							127:leaf=-0.0359031
							128:leaf=0.10486
					32:[D_CATEGORY_MACRO_MEAN_COEC<0.0910924] yes=65,no=66,missing=65
						65:[KW_REL<0.0292767] yes=129,no=130,missing=130
							129:leaf=-0.0379033
							130:leaf=0.0223232
						66:[U_CAT_LEN<5] yes=131,no=132,missing=132
							131:leaf=0.0947037
							132:leaf=-0.13956
				16:[KW_REL<0.000597123] yes=33,no=34,missing=34
					33:[U_AGE_1<0.999999] yes=67,no=68,missing=68
						67:[D_KEYWORD_MICRO_MAX_COEC<0.137806] yes=133,no=134,missing=134
							133:leaf=-0.0557851
							134:leaf=-0.120772
						68:[DAY_OF_WEEK<3] yes=135,no=136,missing=136
							135:leaf=0.0890436
							136:leaf=-0.0758873
					34:[C_D_U_TITLEMD5_GENDER_COEC<0.080978] yes=69,no=70,missing=70
						69:[C_D_U_PUBLISHER_CITY_COEC<3.62634] yes=137,no=138,missing=138
							137:leaf=-0.149145
							138:leaf=-0.0102744
						70:[D_TITLEMD5_COEC<0.186653] yes=139,no=140,missing=139
							139:leaf=-0.00129622
							140:leaf=-0.0796118
			8:[IMAGE_COUNT<2] yes=17,no=18,missing=18
				17:[D_KEYWORD_MACRO_MAX_COEC<0.0332056] yes=35,no=36,missing=36
					35:[C_D_U_TITLEMD5_GENDER_COEC<0.231199] yes=71,no=72,missing=71
						71:[D_KEYWORD_MACRO_MEAN_COEC<0.131858] yes=141,no=142,missing=142
							141:leaf=-0.00109587
							142:leaf=-0.0245987
						72:[U_GENDER<2] yes=143,no=144,missing=144
							143:leaf=-0.0370226
							144:leaf=-0.0121804
					36:[D_CATEGORY_MACRO_MEAN_COEC<0.0877582] yes=73,no=74,missing=74
						73:[D_CATEGORY_MACRO_MEAN_COEC<0.0801784] yes=145,no=146,missing=146
							145:leaf=0.00194266
							146:leaf=0.0110134
						74:[C_D_U_TITLEMD5_GENDER_COEC<0.231199] yes=147,no=148,missing=148
							147:leaf=-0.00252902
							148:leaf=0.0151677
				18:[D_CATEGORY_MICRO_MAX_COEC<0.0885108] yes=37,no=38,missing=37
					37:[D_CATEGORY_MICRO_MAX_COEC<0.0581032] yes=75,no=76,missing=76
						75:[C_D_U_PUBLISHER_GENDER_COEC<0.0559285] yes=149,no=150,missing=150
							149:leaf=0.0639622
							150:leaf=0.0195918
						76:[C_D_U_TITLEMD5_CATEGORY_MACRO_MEAN_COEC<0.0732193] yes=151,no=152,missing=151
							151:leaf=0.00253864
							152:leaf=0.0141629
					38:[C_D_U_CATEGORY_CITY_MICRO_MAX_COEC<0.0917048] yes=77,no=78,missing=78
						77:[C_D_U_TITLEMD5_GENDER_COEC<0.0999608] yes=153,no=154,missing=153
							153:leaf=-0.0273485
							154:leaf=-0.00296638
						78:[IMAGE_COUNT<4] yes=155,no=156,missing=156
							155:leaf=0.00663172
							156:leaf=-0.0351092
		4:[DAY_OF_WEEK<0.999999] yes=9,no=10,missing=10
			9:[D_KEYWORD_MICRO_MEAN_COEC<0.0738512] yes=19,no=20,missing=20
				19:[WORD_COUNT<1920] yes=39,no=40,missing=40
					39:[C_D_U_TITLEMD5_CATEGORY_MICRO_MEAN_COEC<0.0732113] yes=79,no=80,missing=80
						79:leaf=-0.0513843
						80:leaf=-0.187784
					40:[C_D_U_PUBLISHER_CITY_COEC<0.140673] yes=81,no=82,missing=82
						81:leaf=-0.157989
						82:[WORD_COUNT<2300] yes=157,no=158,missing=158
							157:leaf=0.1315
							158:leaf=-0.0408888
				20:[TIME_OF_DAY<14] yes=41,no=42,missing=42
					41:[D_TITLEMD5_COEC<0.0485463] yes=83,no=84,missing=83
						83:leaf=-0.131775
						84:[D_KEYWORD_MACRO_MAX_COEC<0.0499446] yes=159,no=160,missing=160
							159:leaf=0.113178
							160:leaf=-0.106404
					42:[CAT_REL<0.182328] yes=85,no=86,missing=86
						85:[D_TITLEMD5_COEC<0.101629] yes=161,no=162,missing=162
							161:leaf=-0.0602758
							162:leaf=0.0931162
						86:leaf=-0.224907
			10:[U_GENDER<2] yes=21,no=22,missing=21
				21:[U_KW_LEN<172] yes=43,no=44,missing=44
					43:[U_KW_LEN<59] yes=87,no=88,missing=88
						87:[C_D_U_TITLEMD5_CATEGORY_MACRO_MAX_COEC<0.0323244] yes=163,no=164,missing=164
							163:leaf=-0.147084
							164:leaf=-0.0054096
						88:[C_D_U_CATEGORY_GENDER_MACRO_MEAN_COEC<0.0619325] yes=165,no=166,missing=166
							165:leaf=-0.176032
							166:leaf=0.0346905
					44:[D_KEYWORD_MACRO_MAX_COEC<0.0391042] yes=89,no=90,missing=90
						89:[C_D_U_PUBLISHER_GENDER_COEC<0.083594] yes=167,no=168,missing=167
							167:leaf=-0.0953346
							168:leaf=-0.251034
						90:[D_KEYWORD_MICRO_MEAN_COEC<0.109036] yes=169,no=170,missing=170
							169:leaf=0.0953552
							170:leaf=-0.106805
				22:[D_CATEGORY_MACRO_MAX_COEC<0.103899] yes=45,no=46,missing=46
					45:[WORD_COUNT<2059] yes=91,no=92,missing=92
						91:[D_KEYWORD_MICRO_MEAN_COEC<0.0674661] yes=171,no=172,missing=172
							171:leaf=0.193283
							172:leaf=0.0705032
						92:[C_D_U_PUBLISHER_GENDER_COEC<0.0822657] yes=173,no=174,missing=174
							173:leaf=-0.13095
							174:leaf=0.052881
					46:leaf=-0.28126
	2:[WORD_COUNT<2902] yes=5,no=6,missing=6
		5:[C_D_U_TITLEMD5_CATEGORY_MACRO_MEAN_COEC<0.137606] yes=11,no=12,missing=12
			11:[IMAGE_COUNT<2] yes=23,no=24,missing=24
				23:[C_D_U_TITLEMD5_AGE_COEC<0.164063] yes=47,no=48,missing=47
					47:[C_D_U_CATEGORY_CITY_MICRO_MEAN_COEC<0.11437] yes=93,no=94,missing=94
						93:[U_CAT_LEN<10] yes=175,no=176,missing=176
							175:leaf=-0.00604767
							176:leaf=-0.0015927
						94:[TIME_OF_DAY<18] yes=177,no=178,missing=178
							177:leaf=0.00599961
							178:leaf=0.0237912
					48:[C_D_U_PUBLISHER_GENDER_COEC<0.0848225] yes=95,no=96,missing=95
						95:[C_D_U_TITLEMD5_CATEGORY_MACRO_MAX_COEC<0.0354684] yes=179,no=180,missing=180
							179:leaf=-0.00811825
							180:leaf=-0.0281931
						96:[C_D_U_CATEGORY_CITY_MACRO_MEAN_COEC<0.0965009] yes=181,no=182,missing=181
							181:leaf=-0.0153549
							182:leaf=0.00143144
				24:[D_CATEGORY_MICRO_MAX_COEC<0.0832554] yes=49,no=50,missing=50
					49:[C_D_U_CATEGORY_AGE_MICRO_MEAN_COEC<0.0756482] yes=97,no=98,missing=98
						97:[D_KEYWORD_MICRO_MEAN_COEC<0.0617252] yes=183,no=184,missing=184
							183:leaf=0.0540891
							184:leaf=0.00821273
						98:[CAT_REL<0.428953] yes=185,no=186,missing=186
							185:leaf=0.0258727
							186:leaf=-0.0110426
					50:[CAT_REL<0.571015] yes=99,no=100,missing=100
						99:[KW_REL<0.00233895] yes=187,no=188,missing=188
							187:leaf=-0.00289255
							188:leaf=0.0111231
						100:[C_D_U_TITLEMD5_GENDER_COEC<0.024808] yes=189,no=190,missing=189
							189:leaf=0.0583791
							190:leaf=0.0152623
			12:[D_KEYWORD_MICRO_MEAN_COEC<0.126975] yes=25,no=26,missing=26
				25:[C_D_U_TITLEMD5_GENDER_COEC<0.272043] yes=51,no=52,missing=52
					51:[WORD_COUNT<515] yes=101,no=102,missing=102
						101:[C_D_U_TITLEMD5_CATEGORY_MACRO_MEAN_COEC<0.193436] yes=191,no=192,missing=192
							191:leaf=-0.0215869
							192:leaf=0.0117526
						102:[C_D_U_TITLEMD5_AGE_COEC<0.0937856] yes=193,no=194,missing=193
							193:leaf=-0.00785453
							194:leaf=0.00781118
					52:[D_KEYWORD_MACRO_MEAN_COEC<0.14886] yes=103,no=104,missing=104
						103:[KW_REL<0.00193001] yes=195,no=196,missing=196
							195:leaf=-0.0281545
							196:leaf=-0.00779326
						104:[WORD_COUNT<1836] yes=197,no=198,missing=198
							197:leaf=0.0311838
							198:leaf=-0.128315
				26:[C_D_U_TITLEMD5_CATEGORY_MACRO_MEAN_COEC<0.207656] yes=53,no=54,missing=54
					53:[KW_REL<0.00522888] yes=105,no=106,missing=106
						105:[C_D_U_CATEGORY_AGE_MICRO_MAX_COEC<0.109441] yes=199,no=200,missing=200
							199:leaf=-0.00455285
							200:leaf=-0.0490897
						106:[DAY_OF_WEEK<0.999999] yes=201,no=202,missing=202
							201:leaf=0.0547694
							202:leaf=-0.101605
					54:[D_CATEGORY_MICRO_MAX_COEC<0.0765844] yes=107,no=108,missing=108
						107:[C_D_U_TITLEMD5_AGE_COEC<0.213023] yes=203,no=204,missing=203
							203:leaf=0.00414496
							204:leaf=0.0549701
						108:[D_CATEGORY_MICRO_MEAN_COEC<0.0784211] yes=205,no=206,missing=206
							205:leaf=-0.0278072
							206:leaf=0.0101693
		6:[KW_REL<0.00452913] yes=13,no=14,missing=14
			13:[D_KEYWORD_MICRO_MEAN_COEC<0.0801034] yes=27,no=28,missing=28
				27:[D_TITLEMD5_COEC<0.112289] yes=55,no=56,missing=55
					55:[D_KEYWORD_MACRO_MEAN_COEC<0.0516259] yes=109,no=110,missing=110
						109:[C_D_U_CATEGORY_AGE_MICRO_MEAN_COEC<0.0815991] yes=207,no=208,missing=208
							207:leaf=-0.00565875
							208:leaf=-0.0261904
						110:[DAY_OF_WEEK<2] yes=209,no=210,missing=210
							209:leaf=-0.00506256
							210:leaf=0.0041244
					56:[D_CATEGORY_MICRO_MEAN_COEC<0.0766616] yes=111,no=112,missing=112
						111:[WORD_COUNT<3263] yes=211,no=212,missing=212
							211:leaf=-0.0307222
							212:leaf=-0.00271363
						112:[D_KEYWORD_MACRO_MAX_COEC<0.026798] yes=213,no=214,missing=214
							213:leaf=-0.0266079
							214:leaf=-0.140731
				28:[D_KEYWORD_MACRO_MAX_COEC<0.0244214] yes=57,no=58,missing=58
					57:[CAT_REL<0.019349] yes=113,no=114,missing=114
						113:[D_PUBLISHER_COEC<0.0929179] yes=215,no=216,missing=216
							215:leaf=0.00390794
							216:leaf=-0.0229137
						114:[D_CATEGORY_MICRO_MEAN_COEC<0.0910863] yes=217,no=218,missing=218
							217:leaf=0.00992592
							218:leaf=0.00192108
					58:[C_D_U_PUBLISHER_AGE_COEC<0.0853038] yes=115,no=116,missing=115
						115:[CAT_REL<0.502344] yes=219,no=220,missing=220
							219:leaf=-0.0106537
							220:leaf=0.016066
						116:[C_D_U_TITLEMD5_CATEGORY_MICRO_MAX_COEC<0.144847] yes=221,no=222,missing=222
							221:leaf=-0.00707627
							222:leaf=0.00653467
			14:[D_PUBLISHER_COEC<0.0601781] yes=29,no=30,missing=29
				29:[D_KEYWORD_MICRO_MEAN_COEC<0.0755767] yes=59,no=60,missing=60
					59:[KW_REL<0.0316186] yes=117,no=118,missing=118
						117:[CAT_REL<0.757785] yes=223,no=224,missing=224
							223:leaf=-0.00926533
							224:leaf=0.0255611
						118:[D_CATEGORY_MACRO_MEAN_COEC<0.0627246] yes=225,no=226,missing=226
							225:leaf=0.0548921
							226:leaf=0.0108658
					60:[D_CATEGORY_MICRO_MEAN_COEC<0.0815807] yes=119,no=120,missing=119
						119:[KW_REL<0.0153716] yes=227,no=228,missing=228
							227:leaf=0.0299398
							228:leaf=-0.0302551
						120:[CAT_REL<0.293043] yes=229,no=230,missing=230
							229:leaf=-0.0391464
							230:leaf=-0.00315261
				30:[C_D_U_TITLEMD5_CATEGORY_MACRO_MEAN_COEC<0.132107] yes=61,no=62,missing=62
					61:[U_CAT_LEN<14] yes=121,no=122,missing=122
						121:[D_CATEGORY_MICRO_MEAN_COEC<0.0815807] yes=231,no=232,missing=231
							231:leaf=0.00752362
							232:leaf=-0.00613103
						122:[CAT_REL<0.350065] yes=233,no=234,missing=234
							233:leaf=0.0119722
							234:leaf=0.0241786
					62:[D_KEYWORD_MACRO_MEAN_COEC<0.0626231] yes=123,no=124,missing=124
						123:[C_D_U_CATEGORY_AGE_MACRO_MAX_COEC<0.063891] yes=235,no=236,missing=236
							235:leaf=0.040944
							236:leaf=-0.00824775
						124:[D_KEYWORD_MICRO_MEAN_COEC<0.0975963] yes=237,no=238,missing=238
							237:leaf=0.029771
							238:leaf=-0.000827879
booster[55]:
0:[U_KW_LEN<200] yes=1,no=2,missing=1
	1:[C_D_U_CATEGORY_CITY_MICRO_MAX_COEC<0.111867] yes=3,no=4,missing=3
		3:[C_D_U_TITLEMD5_CATEGORY_MACRO_MEAN_COEC<0.141318] yes=7,no=8,missing=8
			7:[C_D_U_TITLEMD5_CATEGORY_MICRO_MAX_COEC<0.198778] yes=15,no=16,missing=16
				15:[U_CAT_LEN<6] yes=31,no=32,missing=32
					31:[TIME_OF_DAY<12] yes=63,no=64,missing=64
						63:[TIME_OF_DAY<7] yes=127,no=128,missing=128
							127:leaf=-0.00406075
							128:leaf=0.00405126
						64:[TIME_OF_DAY<17] yes=129,no=130,missing=130
							129:leaf=-0.0073376
							130:leaf=0.000263699
					32:[U_KW_LEN<60] yes=65,no=66,missing=66
						65:[C_D_U_CATEGORY_GENDER_MACRO_MAX_COEC<0.0678275] yes=131,no=132,missing=131
							131:leaf=-0.104294
							132:leaf=0.120126
						66:[CAT_REL<0.613957] yes=133,no=134,missing=134
							133:leaf=0.00341261
							134:leaf=-0.0402816
				16:[C_D_U_PUBLISHER_GENDER_COEC<0.0995643] yes=33,no=34,missing=33
					33:[D_KEYWORD_MICRO_MEAN_COEC<0.0972247] yes=67,no=68,missing=68
						67:[C_D_U_TITLEMD5_CATEGORY_MACRO_MEAN_COEC<0.0834072] yes=135,no=136,missing=136
							135:leaf=-0.052074
							136:leaf=-0.0202095
						68:[C_D_U_PUBLISHER_GENDER_COEC<0.0993177] yes=137,no=138,missing=138
							137:leaf=0.00440539
							138:leaf=-0.27122
					34:[C_D_U_CATEGORY_CITY_MICRO_MEAN_COEC<0.102024] yes=69,no=70,missing=70
						69:[DAY_OF_WEEK<2] yes=139,no=140,missing=140
							139:leaf=-0.0140289
							140:leaf=0.0224016
						70:[C_D_U_TITLEMD5_GENDER_COEC<0.200608] yes=141,no=142,missing=142
							141:leaf=-0.107055
							142:leaf=0.0343873
			8:[U_KW_LEN<155] yes=17,no=18,missing=18
				17:[TIME_OF_DAY<15] yes=35,no=36,missing=36
					35:[C_D_U_CATEGORY_GENDER_MACRO_MEAN_COEC<0.0638225] yes=71,no=72,missing=72
						71:[C_D_U_CATEGORY_GENDER_MACRO_MAX_COEC<0.0248397] yes=143,no=144,missing=144
							143:leaf=0.0107756
							144:leaf=-0.0124366
						72:[C_D_U_CATEGORY_GENDER_MICRO_MAX_COEC<0.084819] yes=145,no=146,missing=145
							145:leaf=0.00248851
							146:leaf=-0.00294533
					36:[U_AGE_2<0.999999] yes=73,no=74,missing=74
						73:[D_KEYWORD_MACRO_MAX_COEC<0.0109115] yes=147,no=148,missing=148
							147:leaf=0.0232837
							148:leaf=-0.00187108
						74:[C_D_U_TITLEMD5_GENDER_COEC<0.0210316] yes=149,no=150,missing=149
							149:leaf=-0.0312964
							150:leaf=0.00925589
				18:[D_TITLEMD5_COEC<0.139229] yes=37,no=38,missing=38
					37:[U_KW_LEN<200] yes=75,no=76,missing=76
						75:[C_D_U_TITLEMD5_CATEGORY_MICRO_MEAN_COEC<0.129316] yes=151,no=152,missing=152
							151:leaf=-0.0373876
							152:leaf=0.0271571
						76:[C_D_U_CATEGORY_CITY_MACRO_MAX_COEC<0.102822] yes=153,no=154,missing=154
							153:leaf=-0.283475
							154:leaf=0.0970162
					38:[C_D_U_TITLEMD5_CATEGORY_MICRO_MEAN_COEC<0.185163] yes=77,no=78,missing=78
						77:[C_D_U_TITLEMD5_CATEGORY_MICRO_MEAN_COEC<0.144349] yes=155,no=156,missing=156
							155:leaf=-0.0604833
							156:leaf=0.000525616
						78:[U_AGE_1<0.999999] yes=157,no=158,missing=158
							157:leaf=0.0135045
							158:leaf=-0.0378408
		4:[C_D_U_CATEGORY_CITY_MICRO_MEAN_COEC<0.166415] yes=9,no=10,missing=10
			9:[DAY_OF_WEEK<2] yes=19,no=20,missing=20
				19:[C_D_U_TITLEMD5_CATEGORY_MICRO_MEAN_COEC<0.172782] yes=39,no=40,missing=40
					39:[TIME_OF_DAY<3] yes=79,no=80,missing=80
						79:[D_KEYWORD_MICRO_MEAN_COEC<0.0788776] yes=159,no=160,missing=160
							159:leaf=-0.0133132
							160:leaf=-0.150438
						80:[U_AGE_2<0.999999] yes=161,no=162,missing=162
							161:leaf=-0.000544486
							162:leaf=-0.036447
					40:[C_D_U_CATEGORY_CITY_MICRO_MAX_COEC<0.261975] yes=81,no=82,missing=82
						81:[C_D_U_CATEGORY_GENDER_MACRO_MAX_COEC<0.106236] yes=163,no=164,missing=164
							163:leaf=0.00522019
							164:leaf=0.0477212
						82:[WORD_COUNT<2091] yes=165,no=166,missing=166
							165:leaf=0.0517511
							166:leaf=0.19141
				20:[DAY_OF_WEEK<6] yes=41,no=42,missing=42
					41:[U_CAT_LEN<8] yes=83,no=84,missing=84
						83:[D_KEYWORD_MACRO_MAX_COEC<0.0171365] yes=167,no=168,missing=168
							167:leaf=-0.00441696
							168:leaf=0.0119929
						84:[D_KEYWORD_MICRO_MEAN_COEC<0.103794] yes=169,no=170,missing=170
							169:leaf=0.099535
							170:leaf=-0.030824
					42:[TIME_OF_DAY<17] yes=85,no=86,missing=86
						85:[U_AGE_1<0.999999] yes=171,no=172,missing=172
							171:leaf=0.00566613
							172:leaf=-0.105943
						86:[C_D_U_PUBLISHER_CITY_COEC<0.0866838] yes=173,no=174,missing=173
							173:leaf=-0.0184804
							174:leaf=-0.109794
			10:[DAY_OF_WEEK<0.999999] yes=21,no=22,missing=22
				21:[D_KEYWORD_MICRO_MAX_COEC<0.0928473] yes=43,no=44,missing=44
					43:[C_D_U_TITLEMD5_GENDER_COEC<0.0616592] yes=87,no=88,missing=88
						87:[TIME_OF_DAY<15] yes=175,no=176,missing=176
							175:leaf=-0.0898221
							176:leaf=0.127658
						88:[C_D_U_TITLEMD5_GENDER_COEC<0.115095] yes=177,no=178,missing=178
							177:leaf=-0.177877
							178:leaf=-0.092196
					44:[C_D_U_TITLEMD5_CATEGORY_MICRO_MAX_COEC<0.154788] yes=89,no=90,missing=89
						89:[C_D_U_TITLEMD5_CATEGORY_MICRO_MAX_COEC<0.0831951] yes=179,no=180,missing=180
							179:leaf=-0.0384783
							180:leaf=0.0893404
						90:[U_AGE_2<0.999999] yes=181,no=182,missing=182
							181:leaf=-0.125272
							182:leaf=0.0423298
				22:[U_KW_LEN<169] yes=45,no=46,missing=46
					45:[KW_REL<0.0213057] yes=91,no=92,missing=92
						91:[C_D_U_TITLEMD5_CATEGORY_MICRO_MAX_COEC<0.11481] yes=183,no=184,missing=184
							183:leaf=0.0361341
							184:leaf=0.00892058
						92:[C_D_U_TITLEMD5_CATEGORY_MICRO_MEAN_COEC<0.185163] yes=185,no=186,missing=185
							185:leaf=-0.136934
							186:leaf=0.0894771
					46:[D_KEYWORD_MACRO_MEAN_COEC<0.0721489] yes=93,no=94,missing=94
						93:[D_PUBLISHER_COEC<0.0512321] yes=187,no=188,missing=188
							187:leaf=0.0881051
							188:leaf=-0.156937
						94:[C_D_U_CATEGORY_GENDER_MACRO_MEAN_COEC<0.0827071] yes=189,no=190,missing=190
							189:leaf=-0.0819586
							190:leaf=0.0143265
	2:[IMAGE_COUNT<0.999999] yes=5,no=6,missing=6
		5:[KW_REL<0.00792121] yes=11,no=12,missing=12
			11:[D_KEYWORD_MACRO_MEAN_COEC<0.07981] yes=23,no=24,missing=24
				23:[C_D_U_TITLEMD5_CATEGORY_MICRO_MAX_COEC<0.183201] yes=47,no=48,missing=48
					47:[TIME_OF_DAY<12] yes=95,no=96,missing=96
						95:[U_CAT_LEN<24] yes=191,no=192,missing=192
							191:leaf=-0.0229872
							192:leaf=0.0631096
						96:[C_D_U_TITLEMD5_CATEGORY_MICRO_MEAN_COEC<0.1022] yes=193,no=194,missing=194
							193:leaf=-0.0383803
							194:leaf=-0.082917
					48:[D_KEYWORD_MACRO_MAX_COEC<0.0281208] yes=97,no=98,missing=98
						97:[D_KEYWORD_MICRO_MEAN_COEC<0.0784544] yes=195,no=196,missing=196
							195:leaf=-0.0762105
							196:leaf=-0.0323706
						98:[C_D_U_CATEGORY_AGE_MICRO_MAX_COEC<0.0639216] yes=197,no=198,missing=198
							197:leaf=-0.0223529
							198:leaf=-0.153095
				24:[D_PUBLISHER_COEC<0.0992315] yes=49,no=50,missing=50
					49:[CAT_REL<0.057232] yes=99,no=100,missing=100
						99:[D_PUBLISHER_COEC<0.0631618] yes=199,no=200,missing=200
							199:leaf=0.125265
							200:leaf=-0.104443
						100:[C_D_U_TITLEMD5_GENDER_COEC<0.0702232] yes=201,no=202,missing=202
							201:leaf=-0.0502594
							202:leaf=0.00170362
					50:[KW_REL<0.0049598] yes=101,no=102,missing=102
						101:[CAT_REL<0.217954] yes=203,no=204,missing=204
							203:leaf=-0.0574787
							204:leaf=-0.133298
						102:[CAT_REL<0.390104] yes=205,no=206,missing=206
							205:leaf=-0.079193
							206:leaf=0.044957
			12:[D_KEYWORD_MACRO_MAX_COEC<0.0127492] yes=25,no=26,missing=26
				25:[D_CATEGORY_MICRO_MEAN_COEC<0.0680221] yes=51,no=52,missing=52
					51:[U_CAT_LEN<9] yes=103,no=104,missing=104
						103:[D_KEYWORD_MICRO_MEAN_COEC<0.0742937] yes=207,no=208,missing=208
							207:leaf=-0.16712
							208:leaf=-0.00391996
						104:[D_PUBLISHER_COEC<0.0789871] yes=209,no=210,missing=210
							209:leaf=0.016296
							210:leaf=-0.117837
					52:[CAT_REL<0.125924] yes=105,no=106,missing=106
						105:[C_D_U_TITLEMD5_CATEGORY_MACRO_MEAN_COEC<0.0883184] yes=211,no=212,missing=212
							211:leaf=0.038173
							212:leaf=-0.0500717
						106:[C_D_U_PUBLISHER_AGE_COEC<0.0317886] yes=213,no=214,missing=214
							213:leaf=0.157606
							214:leaf=0.0403499
				26:[D_KEYWORD_MACRO_MEAN_COEC<0.0714445] yes=53,no=54,missing=54
					53:[C_D_U_CATEGORY_AGE_MACRO_MAX_COEC<0.0745012] yes=107,no=108,missing=108
						107:[KW_REL<0.0138794] yes=215,no=216,missing=216
							215:leaf=-0.034122
							216:leaf=-0.00123907
						108:[D_KEYWORD_MICRO_MEAN_COEC<0.0900525] yes=217,no=218,missing=218
							217:leaf=-0.0565118
							218:leaf=0.109861
					54:[C_D_U_PUBLISHER_CITY_COEC<0.106226] yes=109,no=110,missing=109
						109:[DAY_OF_WEEK<6] yes=219,no=220,missing=220
							219:leaf=0.0202067
							220:leaf=-0.0107963
						110:[C_D_U_CATEGORY_GENDER_MICRO_MAX_COEC<0.10396] yes=221,no=222,missing=222
							221:leaf=-0.024255
							222:leaf=-0.208851
		6:[CAT_REL<0.091113] yes=13,no=14,missing=14
			13:[C_D_U_TITLEMD5_CATEGORY_MACRO_MAX_COEC<0.0639596] yes=27,no=28,missing=28
				27:[C_D_U_CATEGORY_GENDER_MACRO_MAX_COEC<0.0892996] yes=55,no=56,missing=56
					55:[U_GENDER<2] yes=111,no=112,missing=111
						111:[C_D_U_CATEGORY_GENDER_MICRO_MAX_COEC<0.0811385] yes=223,no=224,missing=224
							223:leaf=0.000186171
							224:leaf=-0.0101055
						112:[C_D_U_CATEGORY_GENDER_MICRO_MEAN_COEC<0.0838937] yes=225,no=226,missing=226
							225:leaf=-0.0194779
							226:leaf=0.0141619
					56:[DAY_OF_WEEK<6] yes=113,no=114,missing=114
						113:[DAY_OF_WEEK<3] yes=227,no=228,missing=228
							227:leaf=0.00110505
							228:leaf=0.0153547
						114:[C_D_U_TITLEMD5_CATEGORY_MACRO_MAX_COEC<0.0211156] yes=229,no=230,missing=230
							229:leaf=0.044619
							230:leaf=-0.0281958
				28:[D_KEYWORD_MACRO_MEAN_COEC<0.0863224] yes=57,no=58,missing=58
					57:[WORD_COUNT<3021] yes=115,no=116,missing=116
						115:[C_D_U_TITLEMD5_AGE_COEC<0.0667855] yes=231,no=232,missing=232
							231:leaf=-0.0528066
							232:leaf=-0.0247766
						116:[D_KEYWORD_MICRO_MEAN_COEC<0.100964] yes=233,no=234,missing=234
							233:leaf=-0.0119771
							234:leaf=0.0429556
					58:[DAY_OF_WEEK<5] yes=117,no=118,missing=118
						117:[D_CATEGORY_MICRO_MEAN_COEC<0.0924079] yes=235,no=236,missing=235
							235:leaf=0.00404608
							236:leaf=-0.0154033
						118:[D_CATEGORY_MACRO_MAX_COEC<0.0775031] yes=237,no=238,missing=238
							237:leaf=-0.00373258
							238:leaf=-0.0377912
			14:[D_CATEGORY_MICRO_MEAN_COEC<0.0924079] yes=29,no=30,missing=30
				29:[C_D_U_CATEGORY_AGE_MACRO_MEAN_COEC<0.0946017] yes=59,no=60,missing=60
					59:[U_CAT_LEN<9] yes=119,no=120,missing=120
						119:[C_D_U_PUBLISHER_CITY_COEC<0.0725903] yes=239,no=240,missing=239
							239:leaf=-0.00614894
							240:leaf=0.000775764
						120:[C_D_U_TITLEMD5_CATEGORY_MACRO_MEAN_COEC<0.124842] yes=241,no=242,missing=242
							241:leaf=0.00211687
							242:leaf=0.00797395
					60:[D_KEYWORD_MACRO_MAX_COEC<0.0252178] yes=121,no=122,missing=122
						121:[D_KEYWORD_MACRO_MEAN_COEC<0.056355] yes=243,no=244,missing=244
							243:leaf=-0.0211939
							244:leaf=0.0296379
						122:[D_CATEGORY_MICRO_MEAN_COEC<0.0917943] yes=245,no=246,missing=246
							245:leaf=0.0174454
							246:leaf=-0.00978516
				30:[C_D_U_TITLEMD5_CATEGORY_MACRO_MEAN_COEC<0.172294] yes=61,no=62,missing=62
					61:[CAT_REL<0.561799] yes=123,no=124,missing=124
						123:[C_D_U_CATEGORY_CITY_MICRO_MEAN_COEC<0.087734] yes=247,no=248,missing=248
							247:leaf=-0.0156171
							248:leaf=-0.00461425
						124:[U_GENDER<2] yes=249,no=250,missing=250
							249:leaf=-0.0072486
							250:leaf=0.00831613
					62:[C_D_U_TITLEMD5_CATEGORY_MICRO_MAX_COEC<0.456961] yes=125,no=126,missing=126
						125:[WORD_COUNT<1733] yes=251,no=252,missing=252
							251:leaf=0.00484897
							252:leaf=0.0175203
						126:[D_KEYWORD_MICRO_MAX_COEC<0.234394] yes=253,no=254,missing=254
							253:leaf=-0.00709346
							254:leaf=-0.0472612
booster[56]:
0:[U_KW_LEN<200] yes=1,no=2,missing=1
	1:[CAT_REL<0.228942] yes=3,no=4,missing=4
		3:[C_D_U_TITLEMD5_CATEGORY_MACRO_MAX_COEC<0.0740415] yes=7,no=8,missing=7
			7:[C_D_U_TITLEMD5_CATEGORY_MACRO_MEAN_COEC<0.0667902] yes=15,no=16,missing=16
				15:[U_KW_LEN<192] yes=31,no=32,missing=32
					31:[U_KW_LEN<170] yes=63,no=64,missing=64
						63:[C_D_U_CATEGORY_GENDER_MACRO_MEAN_COEC<0.103352] yes=127,no=128,missing=127
							127:leaf=-0.00513811
							128:leaf=-0.0389092
						64:[D_CATEGORY_MACRO_MAX_COEC<0.106439] yes=129,no=130,missing=130
							129:leaf=-0.0255653
							130:leaf=0.130218
					32:[U_CAT_LEN<6] yes=65,no=66,missing=66
						65:[DAY_OF_WEEK<3] yes=131,no=132,missing=132
							131:leaf=-0.0763288
							132:leaf=-0.00269701
						66:[D_CATEGORY_MACRO_MEAN_COEC<0.0856844] yes=133,no=134,missing=134
							133:leaf=0.0365372
							134:leaf=-0.0366817
				16:[D_CATEGORY_MACRO_MAX_COEC<0.102904] yes=33,no=34,missing=34
					33:[D_CATEGORY_MACRO_MAX_COEC<0.0878589] yes=67,no=68,missing=68
						67:[D_KEYWORD_MICRO_MEAN_COEC<0.0992082] yes=135,no=136,missing=136
							135:leaf=0.000342417
							136:leaf=0.00689718
						68:[WORD_COUNT<1014] yes=137,no=138,missing=138
							137:leaf=-0.0156326
							138:leaf=-0.00119607
					34:[WORD_COUNT<3732] yes=69,no=70,missing=70
						69:[C_D_U_PUBLISHER_GENDER_COEC<0.06112] yes=139,no=140,missing=140
							139:leaf=-0.0611619
							140:leaf=0.00388493
						70:[C_D_U_PUBLISHER_GENDER_COEC<0.0823348] yes=141,no=142,missing=141
							141:leaf=-0.0346446
							142:leaf=0.0281182
			8:[C_D_U_CATEGORY_CITY_MACRO_MEAN_COEC<0.067839] yes=17,no=18,missing=17
				17:[KW_REL<0.0131355] yes=35,no=36,missing=36
					35:[C_D_U_PUBLISHER_CITY_COEC<0.0915534] yes=71,no=72,missing=71
						71:[DAY_OF_WEEK<6] yes=143,no=144,missing=144
							143:leaf=-0.015146
							144:leaf=-0.0507818
						72:[WORD_COUNT<2585] yes=145,no=146,missing=146
							145:leaf=-0.00615344
							146:leaf=0.0222457
					36:[D_TITLEMD5_COEC<0.164602] yes=73,no=74,missing=74
						73:[C_D_U_PUBLISHER_GENDER_COEC<0.129305] yes=147,no=148,missing=148
							147:leaf=-0.0559588
							148:leaf=0.0523315
						74:[C_D_U_TITLEMD5_CATEGORY_MICRO_MEAN_COEC<0.28559] yes=149,no=150,missing=150
							149:leaf=-0.216664
							150:leaf=-0.0335117
				18:[C_D_U_CATEGORY_GENDER_MICRO_MEAN_COEC<0.0609773] yes=37,no=38,missing=38
					37:[C_D_U_CATEGORY_CITY_MICRO_MAX_COEC<0.0812831] yes=75,no=76,missing=76
						75:[TIME_OF_DAY<17] yes=151,no=152,missing=152
							151:leaf=0.0913224
							152:leaf=-0.01785
						76:[D_KEYWORD_MICRO_MAX_COEC<0.141329] yes=153,no=154,missing=154
							153:leaf=-0.135634
							154:leaf=0.0418645
					38:[CAT_REL<0.210525] yes=77,no=78,missing=78
						77:[C_D_U_CATEGORY_GENDER_MICRO_MEAN_COEC<0.0754636] yes=155,no=156,missing=156
							155:leaf=-0.0121717
							156:leaf=-0.00204185
						78:[D_TITLEMD5_COEC<0.133787] yes=157,no=158,missing=158
							157:leaf=-0.101742
							158:leaf=-0.0250966
		4:[U_KW_LEN<24] yes=9,no=10,missing=10
			9:[C_D_U_CATEGORY_GENDER_MACRO_MAX_COEC<0.0778411] yes=19,no=20,missing=20
				19:[TIME_OF_DAY<20] yes=39,no=40,missing=40
					39:[D_PUBLISHER_COEC<0.102] yes=79,no=80,missing=79
						79:[DAY_OF_WEEK<5] yes=159,no=160,missing=160
							159:leaf=-0.0041594
							160:leaf=-0.02317
						80:[C_D_U_TITLEMD5_CATEGORY_MICRO_MAX_COEC<0.0863649] yes=161,no=162,missing=162
							161:leaf=0.0736056
							162:leaf=0.0100972
					40:[D_KEYWORD_MICRO_MEAN_COEC<0.0895021] yes=81,no=82,missing=82
						81:[U_KW_LEN<14] yes=163,no=164,missing=164
							163:leaf=-0.0249473
							164:leaf=0.0906565
						82:[C_D_U_PUBLISHER_CITY_COEC<0.124529] yes=165,no=166,missing=165
							165:leaf=-0.193767
							166:leaf=0.0798085
				20:[U_GENDER<2] yes=41,no=42,missing=41
					41:[D_CATEGORY_MACRO_MAX_COEC<0.0792681] yes=83,no=84,missing=84
						83:[D_KEYWORD_MACRO_MEAN_COEC<0.0874373] yes=167,no=168,missing=168
							167:leaf=-0.082346
							168:leaf=-0.00712472
						84:[TIME_OF_DAY<19] yes=169,no=170,missing=170
							169:leaf=-0.0173527
							170:leaf=-0.0961577
					42:[D_CATEGORY_MACRO_MEAN_COEC<0.0859657] yes=85,no=86,missing=86
						85:[C_D_U_TITLEMD5_CATEGORY_MICRO_MEAN_COEC<0.0966302] yes=171,no=172,missing=172
							171:leaf=-0.0764281
							172:leaf=-0.239609
						86:[DAY_OF_WEEK<6] yes=173,no=174,missing=174
							173:leaf=0.0737801
							174:leaf=-0.0980293
			10:[U_CAT_LEN<2] yes=21,no=22,missing=22
				21:[U_KW_LEN<52] yes=43,no=44,missing=44
					43:[DAY_OF_WEEK<3] yes=87,no=88,missing=88
						87:[U_GENDER<2] yes=175,no=176,missing=175
							175:leaf=0.0440677
							176:leaf=-0.0655373
						88:[C_D_U_CATEGORY_CITY_MICRO_MEAN_COEC<0.0641627] yes=177,no=178,missing=178
							177:leaf=0.0498664
							178:leaf=-0.0174195
					44:[C_D_U_CATEGORY_GENDER_MICRO_MAX_COEC<0.0668376] yes=89,no=90,missing=90
						89:[D_KEYWORD_MACRO_MAX_COEC<0.0121616] yes=179,no=180,missing=180
							179:leaf=0.086083
							180:leaf=-0.0903827
						90:[D_CATEGORY_MACRO_MEAN_COEC<0.0881315] yes=181,no=182,missing=182
							181:leaf=0.0674165
							182:leaf=-0.0112154
				22:[U_KW_LEN<96] yes=45,no=46,missing=46
					45:[C_D_U_CATEGORY_CITY_MACRO_MEAN_COEC<0.0903641] yes=91,no=92,missing=92
						91:[C_D_U_CATEGORY_GENDER_MACRO_MAX_COEC<0.0836942] yes=183,no=184,missing=184
							183:leaf=0.000609284
							184:leaf=-0.0161579
						92:[C_D_U_CATEGORY_CITY_MICRO_MEAN_COEC<0.0973545] yes=185,no=186,missing=186
							185:leaf=0.0208379
							186:leaf=-0.000617169
					46:[U_CAT_LEN<3] yes=93,no=94,missing=94
						93:[TIME_OF_DAY<18] yes=187,no=188,missing=188
							187:leaf=0.0295839
							188:leaf=-0.0441303
						94:[D_CATEGORY_MACRO_MAX_COEC<0.0630236] yes=189,no=190,missing=190
							189:leaf=0.0192309
							190:leaf=0.00295377
	2:[C_D_U_PUBLISHER_GENDER_COEC<0.0451092] yes=5,no=6,missing=6
		5:[D_PUBLISHER_COEC<0.0338383] yes=11,no=12,missing=12
			11:[C_D_U_TITLEMD5_CATEGORY_MICRO_MAX_COEC<0.126722] yes=23,no=24,missing=24
				23:[D_KEYWORD_MICRO_MEAN_COEC<0.118378] yes=47,no=48,missing=48
					47:[U_CAT_LEN<22] yes=95,no=96,missing=96
						95:[KW_REL<0.00977174] yes=191,no=192,missing=192
							191:leaf=-0.0173157
							192:leaf=0.00262983
						96:[C_D_U_CATEGORY_GENDER_MICRO_MAX_COEC<0.0727936] yes=193,no=194,missing=194
							193:leaf=-0.00796312
							194:leaf=0.0667319
					48:[TIME_OF_DAY<10] yes=97,no=98,missing=98
						97:[C_D_U_PUBLISHER_GENDER_COEC<0.0323225] yes=195,no=196,missing=196
							195:leaf=0.147202
							196:leaf=-0.0781226
						98:[WORD_COUNT<630] yes=197,no=198,missing=198
							197:leaf=0.159669
							198:leaf=-0.060814
				24:[CAT_REL<0.043471] yes=49,no=50,missing=50
					49:[C_D_U_TITLEMD5_CATEGORY_MICRO_MEAN_COEC<0.0891861] yes=99,no=100,missing=100
						99:[DAY_OF_WEEK<4] yes=199,no=200,missing=200
							199:leaf=-0.0215808
							200:leaf=-0.0981027
						100:[C_D_U_TITLEMD5_CATEGORY_MICRO_MAX_COEC<0.238988] yes=201,no=202,missing=202
							201:leaf=-0.131306
							202:leaf=-0.0831206
					50:[C_D_U_CATEGORY_GENDER_MICRO_MAX_COEC<0.0612729] yes=101,no=102,missing=102
						101:[D_KEYWORD_MICRO_MEAN_COEC<0.0665554] yes=203,no=204,missing=204
							203:leaf=0.0207795
							204:leaf=-0.0363796
						102:[D_CATEGORY_MACRO_MAX_COEC<0.067972] yes=205,no=206,missing=206
							205:leaf=-0.059026
							206:leaf=-0.0297946
			12:[D_CATEGORY_MACRO_MEAN_COEC<0.0643495] yes=25,no=26,missing=25
				25:[KW_REL<8.99016e-05] yes=51,no=52,missing=52
					51:[C_D_U_TITLEMD5_AGE_COEC<0.0686732] yes=103,no=104,missing=103
						103:[CAT_REL<0.480187] yes=207,no=208,missing=208
							207:leaf=-0.0778543
							208:leaf=0.114301
						104:[CAT_REL<0.009609] yes=209,no=210,missing=210
							209:leaf=0.11809
							210:leaf=-0.0527986
					52:[D_CATEGORY_MICRO_MEAN_COEC<0.0369153] yes=105,no=106,missing=105
						105:[D_KEYWORD_MACRO_MEAN_COEC<0.0638884] yes=211,no=212,missing=212
							211:leaf=0.0204064
							212:leaf=0.0865377
						106:[C_D_U_CATEGORY_CITY_MICRO_MAX_COEC<0.0630186] yes=213,no=214,missing=214
							213:leaf=-0.00693446
							214:leaf=0.0141627
				26:[C_D_U_CATEGORY_CITY_MICRO_MAX_COEC<0.0630186] yes=53,no=54,missing=54
					53:[KW_REL<0.000640637] yes=107,no=108,missing=108
						107:[D_TITLEMD5_COEC<0.0262573] yes=215,no=216,missing=215
							215:leaf=-0.0768193
							216:leaf=0.0268137
						108:[U_CAT_LEN<20] yes=217,no=218,missing=218
							217:leaf=-0.0408798
							218:leaf=0.0242325
					54:[C_D_U_TITLEMD5_GENDER_COEC<0.093054] yes=109,no=110,missing=109
						109:[D_KEYWORD_MICRO_MAX_COEC<0.110992] yes=219,no=220,missing=220
							219:leaf=-0.00117661
							220:leaf=-0.0139922
						110:[D_KEYWORD_MACRO_MEAN_COEC<0.0529149] yes=221,no=222,missing=222
							221:leaf=-0.0696835
							222:leaf=-0.0161913
		6:[CAT_REL<0.021108] yes=13,no=14,missing=14
			13:[D_CATEGORY_MICRO_MEAN_COEC<0.0369153] yes=27,no=28,missing=27
				27:[D_KEYWORD_MACRO_MEAN_COEC<0.0481669] yes=55,no=56,missing=56
					55:[IMAGE_COUNT<11] yes=111,no=112,missing=112
						111:[C_D_U_TITLEMD5_CATEGORY_MICRO_MAX_COEC<0.0941579] yes=223,no=224,missing=224
							223:leaf=-0.0157592
							224:leaf=-0.0605528
						112:[U_GENDER<4] yes=225,no=226,missing=226
							225:leaf=-0.0221411
							226:leaf=0.287751
					56:[D_PUBLISHER_COEC<0.0925692] yes=113,no=114,missing=113
						113:[D_TITLEMD5_COEC<0.16083] yes=227,no=228,missing=227
							227:leaf=0.0288523
							228:leaf=-0.122328
						114:[U_CAT_LEN<11] yes=229,no=230,missing=230
							229:leaf=-0.0108213
							230:leaf=0.0141482
				28:[U_AGE_1<0.999999] yes=57,no=58,missing=58
					57:[C_D_U_TITLEMD5_CATEGORY_MACRO_MAX_COEC<0.0750007] yes=115,no=116,missing=116
						115:[C_D_U_TITLEMD5_CATEGORY_MICRO_MAX_COEC<0.137906] yes=231,no=232,missing=232
							231:leaf=-0.0128964
							232:leaf=0.000312562
						116:[D_KEYWORD_MACRO_MEAN_COEC<0.0895904] yes=233,no=234,missing=234
							233:leaf=-0.0287578
							234:leaf=-0.0121802
					58:[C_D_U_CATEGORY_CITY_MACRO_MAX_COEC<0.0828234] yes=117,no=118,missing=118
						117:[IMAGE_COUNT<3] yes=235,no=236,missing=236
							235:leaf=-0.0506672
							236:leaf=0.00243521
						118:[C_D_U_TITLEMD5_CATEGORY_MICRO_MAX_COEC<0.0796823] yes=237,no=238,missing=238
							237:leaf=-0.112635
							238:leaf=-0.00126501
			14:[C_D_U_CATEGORY_CITY_MICRO_MEAN_COEC<0.125477] yes=29,no=30,missing=30
				29:[U_CAT_LEN<7] yes=59,no=60,missing=60
					59:[DAY_OF_WEEK<0.999999] yes=119,no=120,missing=120
						119:[TIME_OF_DAY<16] yes=239,no=240,missing=240
							239:leaf=-0.0097641
							240:leaf=-0.0305257
						120:[CAT_REL<0.670468] yes=241,no=242,missing=242
							241:leaf=-0.00561538
							242:leaf=0.00608689
					60:[D_CATEGORY_MACRO_MEAN_COEC<0.0643495] yes=121,no=122,missing=122
						121:[D_KEYWORD_MICRO_MEAN_COEC<0.064674] yes=243,no=244,missing=244
							243:leaf=-0.00239166
							244:leaf=0.0103551
						122:[CAT_REL<0.303826] yes=245,no=246,missing=246
							245:leaf=-0.000829521
							246:leaf=0.00289
				30:[C_D_U_CATEGORY_GENDER_MACRO_MEAN_COEC<0.104338] yes=61,no=62,missing=62
					61:[C_D_U_CATEGORY_AGE_MACRO_MEAN_COEC<0.0906334] yes=123,no=124,missing=124
						123:[CAT_REL<0.117646] yes=247,no=248,missing=248
							247:leaf=0.000674301
							248:leaf=0.0171307
						124:[C_D_U_TITLEMD5_CATEGORY_MICRO_MEAN_COEC<0.111687] yes=249,no=250,missing=250
							249:leaf=-0.0081655
							250:leaf=0.0055971
					62:[D_KEYWORD_MICRO_MEAN_COEC<0.144928] yes=125,no=126,missing=126
						125:[C_D_U_TITLEMD5_CATEGORY_MACRO_MEAN_COEC<0.15596] yes=251,no=252,missing=252
							251:leaf=0.0176595
							252:leaf=0.0360952
						126:[C_D_U_PUBLISHER_CITY_COEC<0.0996325] yes=253,no=254,missing=253
							253:leaf=-0.0652582
							254:leaf=0.0158032
booster[57]:
0:[U_KW_LEN<200] yes=1,no=2,missing=1
	1:[KW_REL<0.000518224] yes=3,no=4,missing=4
		3:[U_KW_LEN<50] yes=7,no=8,missing=8
			7:[U_GENDER<2] yes=15,no=16,missing=15
				15:[CAT_REL<0.517305] yes=31,no=32,missing=32
					31:[U_KW_LEN<49] yes=63,no=64,missing=64
						63:[C_D_U_CATEGORY_CITY_MACRO_MEAN_COEC<0.0573444] yes=127,no=128,missing=128
							127:leaf=-0.00669501
							128:leaf=0.000651774
						64:[DAY_OF_WEEK<6] yes=129,no=130,missing=130
							129:leaf=-0.0238506
							130:leaf=0.125305
					32:[WORD_COUNT<866] yes=65,no=66,missing=66
						65:[DAY_OF_WEEK<0.999999] yes=131,no=132,missing=132
							131:leaf=0.0156953
							132:leaf=-0.0507668
						66:[D_CATEGORY_MACRO_MEAN_COEC<0.0720567] yes=133,no=134,missing=134
							133:leaf=0.00707201
							134:leaf=-0.0169051
				16:[C_D_U_TITLEMD5_CATEGORY_MICRO_MEAN_COEC<0.129043] yes=33,no=34,missing=34
					33:[TIME_OF_DAY<19] yes=67,no=68,missing=68
						67:[U_AGE_1<0.999999] yes=135,no=136,missing=136
							135:leaf=0.0261907
							136:leaf=-0.0245032
						68:[C_D_U_TITLEMD5_CATEGORY_MACRO_MAX_COEC<0.0104027] yes=137,no=138,missing=138
							137:leaf=-0.138415
							138:leaf=0.0929333
					34:[WORD_COUNT<4566] yes=69,no=70,missing=70
						69:[TIME_OF_DAY<2] yes=139,no=140,missing=140
							139:leaf=-0.0378844
							140:leaf=0.00765501
						70:[D_KEYWORD_MACRO_MAX_COEC<0.0110883] yes=141,no=142,missing=142
							141:leaf=-0.0994168
							142:leaf=-0.0196002
			8:[D_PUBLISHER_COEC<0.0879438] yes=17,no=18,missing=18
				17:[C_D_U_CATEGORY_CITY_MICRO_MAX_COEC<0.0743798] yes=35,no=36,missing=36
					35:[C_D_U_TITLEMD5_GENDER_COEC<0.124854] yes=71,no=72,missing=71
						71:[D_CATEGORY_MACRO_MAX_COEC<0.0980308] yes=143,no=144,missing=144
							143:leaf=-0.0100096
							144:leaf=-0.0852335
						72:[D_KEYWORD_MACRO_MEAN_COEC<0.0999335] yes=145,no=146,missing=146
							145:leaf=-0.0360888
							146:leaf=0.00140584
					36:[U_KW_LEN<143] yes=73,no=74,missing=74
						73:[U_KW_LEN<138] yes=147,no=148,missing=148
							147:leaf=-0.00212394
							148:leaf=0.0332316
						74:[C_D_U_CATEGORY_GENDER_MICRO_MEAN_COEC<0.071164] yes=149,no=150,missing=150
							149:leaf=-0.0583808
							150:leaf=-0.00949002
				18:[C_D_U_TITLEMD5_CATEGORY_MACRO_MAX_COEC<0.0721261] yes=37,no=38,missing=38
					37:[U_AGE_1<0.999999] yes=75,no=76,missing=76
						75:[WORD_COUNT<866] yes=151,no=152,missing=152
							151:leaf=-0.00626748
							152:leaf=0.00565283
						76:[C_D_U_CATEGORY_GENDER_MACRO_MAX_COEC<0.0585847] yes=153,no=154,missing=154
							153:leaf=-0.11045
							154:leaf=-0.0145584
					38:[C_D_U_TITLEMD5_CATEGORY_MICRO_MAX_COEC<0.130203] yes=77,no=78,missing=77
						77:[C_D_U_TITLEMD5_GENDER_COEC<0.122188] yes=155,no=156,missing=156
							155:leaf=-0.0184416
							156:leaf=-0.0834114
						78:[C_D_U_TITLEMD5_CATEGORY_MACRO_MAX_COEC<0.135375] yes=157,no=158,missing=158
							157:leaf=-0.00614357
							158:leaf=0.0100863
		4:[U_KW_LEN<49] yes=9,no=10,missing=10
			9:[C_D_U_CATEGORY_GENDER_MICRO_MAX_COEC<0.0954653] yes=19,no=20,missing=19
				19:[DAY_OF_WEEK<6] yes=39,no=40,missing=40
					39:[TIME_OF_DAY<12] yes=79,no=80,missing=80
						79:[D_KEYWORD_MICRO_MAX_COEC<0.0955343] yes=159,no=160,missing=160
							159:leaf=0.0137184
							160:leaf=-0.0033423
						80:[TIME_OF_DAY<18] yes=161,no=162,missing=162
							161:leaf=-0.0132078
							162:leaf=0.00602996
					40:[C_D_U_PUBLISHER_GENDER_COEC<0.0583186] yes=81,no=82,missing=81
						81:[U_CAT_LEN<4] yes=163,no=164,missing=164
							163:leaf=-0.0646529
							164:leaf=0.0942484
						82:[U_KW_LEN<25] yes=165,no=166,missing=166
							165:leaf=-0.0293064
							166:leaf=-0.00432963
				20:[TIME_OF_DAY<17] yes=41,no=42,missing=42
					41:[D_PUBLISHER_COEC<0.0907089] yes=83,no=84,missing=84
						83:[C_D_U_CATEGORY_GENDER_MACRO_MAX_COEC<0.109196] yes=167,no=168,missing=168
							167:leaf=-0.0168968
							168:leaf=0.0465796
						84:[C_D_U_TITLEMD5_CATEGORY_MICRO_MAX_COEC<0.282019] yes=169,no=170,missing=169
							169:leaf=0.0196087
							170:leaf=-0.143119
					42:[U_KW_LEN<16] yes=85,no=86,missing=86
						85:[D_KEYWORD_MICRO_MEAN_COEC<0.0795601] yes=171,no=172,missing=172
							171:leaf=0.0684496
							172:leaf=-0.111578
						86:[C_D_U_TITLEMD5_GENDER_COEC<0.0843584] yes=173,no=174,missing=174
							173:leaf=0.101071
							174:leaf=0.0331018
			10:[U_CAT_LEN<2] yes=21,no=22,missing=22
				21:[C_D_U_CATEGORY_CITY_MICRO_MAX_COEC<0.0713518] yes=43,no=44,missing=44
					43:[C_D_U_CATEGORY_CITY_MICRO_MAX_COEC<0.0701087] yes=87,no=88,missing=88
						87:[D_PUBLISHER_COEC<0.0566796] yes=175,no=176,missing=176
							175:leaf=-0.109655
							176:leaf=0.0213766
						88:[U_KW_LEN<90] yes=177,no=178,missing=178
							177:leaf=-0.207368
							178:leaf=0.0623727
					44:[D_TITLEMD5_COEC<0.120381] yes=89,no=90,missing=90
						89:[C_D_U_CATEGORY_GENDER_MICRO_MEAN_COEC<0.0720344] yes=179,no=180,missing=180
							179:leaf=-0.0156477
							180:leaf=0.0842518
						90:[C_D_U_TITLEMD5_CATEGORY_MICRO_MEAN_COEC<0.129043] yes=181,no=182,missing=181
							181:leaf=-0.112852
							182:leaf=0.0300491
				22:[D_CATEGORY_MICRO_MEAN_COEC<0.0625052] yes=45,no=46,missing=46
					45:[CAT_REL<0.199689] yes=91,no=92,missing=92
						91:[C_D_U_CATEGORY_CITY_MACRO_MEAN_COEC<0.063796] yes=183,no=184,missing=184
							183:leaf=0.000873191
							184:leaf=0.0358296
						92:[WORD_COUNT<3732] yes=185,no=186,missing=186
							185:leaf=0.0312536
							186:leaf=-0.0025514
					46:[D_KEYWORD_MICRO_MEAN_COEC<0.0856577] yes=93,no=94,missing=94
						93:[CAT_REL<0.666666] yes=187,no=188,missing=188
							187:leaf=-0.00235299
							188:leaf=0.0108609
						94:[WORD_COUNT<1516] yes=189,no=190,missing=190
							189:leaf=0.00246906
							190:leaf=0.00961039
	2:[WORD_COUNT<2980] yes=5,no=6,missing=6
		5:[C_D_U_TITLEMD5_CATEGORY_MACRO_MEAN_COEC<0.181477] yes=11,no=12,missing=12
			11:[C_D_U_TITLEMD5_AGE_COEC<0.199599] yes=23,no=24,missing=23
				23:[IMAGE_COUNT<2] yes=47,no=48,missing=48
					47:[WORD_COUNT<587] yes=95,no=96,missing=96
						95:[D_TITLEMD5_COEC<0.147037] yes=191,no=192,missing=191
							191:leaf=-0.00957867
							192:leaf=-0.0318371
						96:[CAT_REL<0.044397] yes=193,no=194,missing=194
							193:leaf=-0.00710389
							194:leaf=-0.000620138
					48:[D_CATEGORY_MICRO_MAX_COEC<0.0859803] yes=97,no=98,missing=98
						97:[D_KEYWORD_MICRO_MAX_COEC<0.105572] yes=195,no=196,missing=196
							195:leaf=0.00390054
							196:leaf=0.0178952
						98:[CAT_REL<0.557955] yes=197,no=198,missing=198
							197:leaf=0.000457972
							198:leaf=0.0161651
				24:[D_KEYWORD_MICRO_MEAN_COEC<0.109275] yes=49,no=50,missing=50
					49:[C_D_U_TITLEMD5_CATEGORY_MICRO_MAX_COEC<0.167105] yes=99,no=100,missing=100
						99:[KW_REL<0.000326969] yes=199,no=200,missing=200
							199:leaf=-0.0369687
							200:leaf=0.00200722
						100:[C_D_U_TITLEMD5_GENDER_COEC<0.230368] yes=201,no=202,missing=202
							201:leaf=-0.0194237
							202:leaf=-0.0349658
					50:[D_CATEGORY_MICRO_MAX_COEC<0.0750889] yes=101,no=102,missing=102
						101:[U_CAT_LEN<12] yes=203,no=204,missing=204
							203:leaf=0.000599864
							204:leaf=0.0429256
						102:[CAT_REL<0.099188] yes=205,no=206,missing=206
							205:leaf=-0.0282305
							206:leaf=-0.00515539
			12:[C_D_U_TITLEMD5_CATEGORY_MICRO_MAX_COEC<0.44532] yes=25,no=26,missing=26
				25:[C_D_U_TITLEMD5_CATEGORY_MACRO_MEAN_COEC<0.244805] yes=51,no=52,missing=52
					51:[D_PUBLISHER_COEC<0.134187] yes=103,no=104,missing=104
						103:[C_D_U_TITLEMD5_CATEGORY_MICRO_MAX_COEC<0.309932] yes=207,no=208,missing=208
							207:leaf=0.0140293
							208:leaf=-0.0083163
						104:[C_D_U_TITLEMD5_CATEGORY_MICRO_MAX_COEC<0.261614] yes=209,no=210,missing=210
							209:leaf=-0.00865052
							210:leaf=0.00657129
					52:[D_KEYWORD_MACRO_MEAN_COEC<0.100284] yes=105,no=106,missing=106
						105:[D_CATEGORY_MACRO_MEAN_COEC<0.0663813] yes=211,no=212,missing=212
							211:leaf=0.0346276
							212:leaf=-0.0098525
						106:[CAT_REL<0.143872] yes=213,no=214,missing=214
							213:leaf=0.0120492
							214:leaf=0.0337941
				26:[D_CATEGORY_MACRO_MEAN_COEC<0.0769222] yes=53,no=54,missing=54
					53:[D_KEYWORD_MACRO_MEAN_COEC<0.168093] yes=107,no=108,missing=108
						107:[CAT_REL<0.057037] yes=215,no=216,missing=216
							215:leaf=-0.0640104
							216:leaf=0.00441889
						108:[DAY_OF_WEEK<6] yes=217,no=218,missing=218
							217:leaf=0.0506867
							218:leaf=-0.242237
					54:[CAT_REL<0.304453] yes=109,no=110,missing=110
						109:[C_D_U_PUBLISHER_AGE_COEC<0.0722103] yes=219,no=220,missing=219
							219:leaf=-0.023213
							220:leaf=-0.0503671
						110:[C_D_U_TITLEMD5_GENDER_COEC<0.274477] yes=221,no=222,missing=221
							221:leaf=-0.00248951
							222:leaf=-0.028822
		6:[C_D_U_TITLEMD5_GENDER_COEC<0.230368] yes=13,no=14,missing=13
			13:[KW_REL<0.0026548] yes=27,no=28,missing=28
				27:[D_KEYWORD_MACRO_MEAN_COEC<0.0501356] yes=55,no=56,missing=56
					55:[C_D_U_CATEGORY_AGE_MICRO_MEAN_COEC<0.0865963] yes=111,no=112,missing=112
						111:[CAT_REL<0.194367] yes=223,no=224,missing=224
							223:leaf=-0.0126152
							224:leaf=0.00255857
						112:[C_D_U_TITLEMD5_CATEGORY_MACRO_MEAN_COEC<0.0854819] yes=225,no=226,missing=226
							225:leaf=-0.0314571
							226:leaf=-0.147557
					56:[DAY_OF_WEEK<2] yes=113,no=114,missing=114
						113:[TIME_OF_DAY<11] yes=227,no=228,missing=228
							227:leaf=-0.00699369
							228:leaf=0.00373225
						114:[C_D_U_PUBLISHER_GENDER_COEC<0.0681243] yes=229,no=230,missing=229
							229:leaf=-0.00112055
							230:leaf=0.00582488
				28:[C_D_U_PUBLISHER_GENDER_COEC<0.0590421] yes=57,no=58,missing=58
					57:[D_KEYWORD_MACRO_MEAN_COEC<0.0657027] yes=115,no=116,missing=116
						115:[D_CATEGORY_MACRO_MAX_COEC<0.0677919] yes=231,no=232,missing=231
							231:leaf=0.00363482
							232:leaf=-0.0115341
						116:[C_D_U_TITLEMD5_AGE_COEC<0.0385924] yes=233,no=234,missing=234
							233:leaf=-0.026198
							234:leaf=0.0161645
					58:[C_D_U_PUBLISHER_GENDER_COEC<0.141042] yes=117,no=118,missing=118
						117:[D_KEYWORD_MACRO_MEAN_COEC<0.0943257] yes=235,no=236,missing=236
							235:leaf=0.00825289
							236:leaf=-0.00626323
						118:[C_D_U_CATEGORY_AGE_MACRO_MEAN_COEC<0.0811649] yes=237,no=238,missing=238
							237:leaf=0.0334423
							238:leaf=0.00216896
			14:[C_D_U_PUBLISHER_AGE_COEC<0.0818408] yes=29,no=30,missing=29
				29:[D_CATEGORY_MICRO_MEAN_COEC<0.0978164] yes=59,no=60,missing=60
					59:[C_D_U_CATEGORY_CITY_MICRO_MAX_COEC<0.0910388] yes=119,no=120,missing=120
						119:[D_KEYWORD_MACRO_MAX_COEC<0.0251945] yes=239,no=240,missing=240
							239:leaf=-0.0225143
							240:leaf=-0.0681995
						120:[KW_REL<0.000366222] yes=241,no=242,missing=242
							241:leaf=-0.112051
							242:leaf=0.0101658
					60:[C_D_U_TITLEMD5_GENDER_COEC<0.274477] yes=121,no=122,missing=122
						121:[WORD_COUNT<4300] yes=243,no=244,missing=244
							243:leaf=0.016211
							244:leaf=-0.228264
						122:[C_D_U_TITLEMD5_CATEGORY_MACRO_MAX_COEC<0.0541097] yes=245,no=246,missing=246
							245:leaf=0.00928272
							246:leaf=-0.17484
				30:[TIME_OF_DAY<11] yes=61,no=62,missing=62
					61:[D_KEYWORD_MICRO_MAX_COEC<0.118538] yes=123,no=124,missing=124
						123:[D_CATEGORY_MACRO_MAX_COEC<0.0721797] yes=247,no=248,missing=248
							247:leaf=-0.0247543
							248:leaf=-0.137401
						124:[KW_REL<0.00637964] yes=249,no=250,missing=250
							249:leaf=0.00953702
							250:leaf=0.0525475
					62:[C_D_U_PUBLISHER_AGE_COEC<0.0842165] yes=125,no=126,missing=126
						125:[C_D_U_CATEGORY_CITY_MICRO_MEAN_COEC<0.0638823] yes=251,no=252,missing=252
							251:leaf=-0.209761
							252:leaf=0.0634857
						126:[WORD_COUNT<4037] yes=253,no=254,missing=254
							253:leaf=-0.0208215
							254:leaf=-0.0725832
booster[58]:
0:[U_KW_LEN<200] yes=1,no=2,missing=1
	1:[C_D_U_CATEGORY_CITY_MACRO_MAX_COEC<0.120791] yes=3,no=4,missing=4
		3:[U_AGE_2<0.999999] yes=7,no=8,missing=8
			7:[U_KW_LEN<186] yes=15,no=16,missing=16
				15:[C_D_U_CATEGORY_GENDER_MICRO_MAX_COEC<0.0667751] yes=31,no=32,missing=32
					31:[C_D_U_PUBLISHER_CITY_COEC<0.104483] yes=63,no=64,missing=63
						63:[D_CATEGORY_MICRO_MEAN_COEC<0.0271116] yes=127,no=128,missing=128
							127:leaf=0.0126198
							128:leaf=-0.010247
						64:[C_D_U_TITLEMD5_CATEGORY_MICRO_MEAN_COEC<0.198445] yes=129,no=130,missing=129
							129:leaf=0.00906861
							130:leaf=-0.103571
					32:[D_CATEGORY_MICRO_MEAN_COEC<0.0715149] yes=65,no=66,missing=66
						65:[CAT_REL<0.666666] yes=131,no=132,missing=132
							131:leaf=0.00336391
							132:leaf=0.0291122
						66:[CAT_REL<0.109252] yes=133,no=134,missing=134
							133:leaf=-0.00489527
							134:leaf=0.000852266
				16:[U_KW_LEN<189] yes=33,no=34,missing=34
					33:[D_CATEGORY_MICRO_MEAN_COEC<0.0710909] yes=67,no=68,missing=68
						67:[CAT_REL<0.071914] yes=135,no=136,missing=136
							135:leaf=0.0965909
							136:leaf=0.0400747
						68:[D_KEYWORD_MICRO_MEAN_COEC<0.0776537] yes=137,no=138,missing=138
							137:leaf=-0.0248655
							138:leaf=0.0250844
					34:[U_AGE_1<0.999999] yes=69,no=70,missing=70
						69:[TIME_OF_DAY<20] yes=139,no=140,missing=140
							139:leaf=0.00465898
							140:leaf=0.0542557
						70:[KW_REL<0.00617159] yes=141,no=142,missing=142
							141:leaf=-0.0558054
							142:leaf=0.030758
			8:[TIME_OF_DAY<0.999999] yes=17,no=18,missing=18
				17:[D_KEYWORD_MACRO_MEAN_COEC<0.0540006] yes=35,no=36,missing=36
					35:[C_D_U_TITLEMD5_CATEGORY_MICRO_MAX_COEC<0.0593131] yes=71,no=72,missing=72
						71:[DAY_OF_WEEK<5] yes=143,no=144,missing=144
							143:leaf=0.0474652
							144:leaf=-0.109124
						72:[C_D_U_CATEGORY_CITY_MICRO_MAX_COEC<0.0631453] yes=145,no=146,missing=146
							145:leaf=0.15686
							146:leaf=0.0511614
					36:[C_D_U_CATEGORY_GENDER_MICRO_MAX_COEC<0.118557] yes=73,no=74,missing=74
						73:[U_CAT_LEN<5] yes=147,no=148,missing=148
							147:leaf=0.0038027
							148:leaf=0.0389871
						74:[U_KW_LEN<14] yes=149,no=150,missing=150
							149:leaf=-0.0289971
							150:leaf=-0.301336
				18:[DAY_OF_WEEK<6] yes=37,no=38,missing=38
					37:[DAY_OF_WEEK<5] yes=75,no=76,missing=76
						75:[C_D_U_PUBLISHER_GENDER_COEC<0.099769] yes=151,no=152,missing=151
							151:leaf=-0.00137565
							152:leaf=0.00494022
						76:[U_KW_LEN<91] yes=153,no=154,missing=154
							153:leaf=0.0122603
							154:leaf=-0.00104649
					38:[C_D_U_TITLEMD5_CATEGORY_MICRO_MAX_COEC<0.101051] yes=77,no=78,missing=77
						77:[TIME_OF_DAY<15] yes=155,no=156,missing=156
							155:leaf=-0.0246432
							156:leaf=0.00853043
						78:[TIME_OF_DAY<2] yes=157,no=158,missing=158
							157:leaf=-0.0467072
							158:leaf=0.00148104
		4:[DAY_OF_WEEK<0.999999] yes=9,no=10,missing=10
			9:[C_D_U_TITLEMD5_CATEGORY_MACRO_MAX_COEC<0.0266563] yes=19,no=20,missing=19
				19:[C_D_U_PUBLISHER_GENDER_COEC<0.0674226] yes=39,no=40,missing=40
					39:[D_KEYWORD_MICRO_MAX_COEC<0.0865063] yes=79,no=80,missing=80
						79:leaf=-0.136607
						80:[TIME_OF_DAY<4] yes=159,no=160,missing=160
							159:leaf=-0.134332
							160:leaf=0.127002
					40:[D_KEYWORD_MACRO_MEAN_COEC<0.058254] yes=81,no=82,missing=82
						81:[C_D_U_PUBLISHER_CITY_COEC<3.62634] yes=161,no=162,missing=162
							161:leaf=-0.144097
							162:leaf=0.0172733
						82:[D_CATEGORY_MICRO_MAX_COEC<0.0912859] yes=163,no=164,missing=164
							163:leaf=0.020599
							164:leaf=0.0844976
				20:[TIME_OF_DAY<11] yes=41,no=42,missing=42
					41:[U_KW_LEN<147] yes=83,no=84,missing=84
						83:[TIME_OF_DAY<3] yes=165,no=166,missing=166
							165:leaf=-0.111786
							166:leaf=0.0153885
						84:[C_D_U_TITLEMD5_CATEGORY_MACRO_MEAN_COEC<0.123231] yes=167,no=168,missing=168
							167:leaf=0.0941532
							168:leaf=0.00716825
					42:[C_D_U_TITLEMD5_CATEGORY_MACRO_MEAN_COEC<0.103356] yes=85,no=86,missing=86
						85:[C_D_U_TITLEMD5_CATEGORY_MACRO_MEAN_COEC<0.0857188] yes=169,no=170,missing=170
							169:leaf=-0.0489421
							170:leaf=-0.168826
						86:[WORD_COUNT<2367] yes=171,no=172,missing=172
							171:leaf=0.0206954
							172:leaf=-0.0951004
			10:[IMAGE_COUNT<2] yes=21,no=22,missing=22
				21:[TIME_OF_DAY<14] yes=43,no=44,missing=44
					43:[C_D_U_PUBLISHER_CITY_COEC<0.0976336] yes=87,no=88,missing=88
						87:[C_D_U_TITLEMD5_CATEGORY_MICRO_MAX_COEC<0.127154] yes=173,no=174,missing=174
							173:leaf=0.0170008
							174:leaf=-0.0287924
						88:[D_CATEGORY_MACRO_MEAN_COEC<0.0834232] yes=175,no=176,missing=176
							175:leaf=-0.0189455
							176:leaf=0.00962355
					44:[DAY_OF_WEEK<6] yes=89,no=90,missing=90
						89:[D_CATEGORY_MICRO_MAX_COEC<0.101947] yes=177,no=178,missing=178
							177:leaf=0.0295489
							178:leaf=0.00145405
						90:[C_D_U_TITLEMD5_CATEGORY_MACRO_MAX_COEC<0.0398303] yes=179,no=180,missing=179
							179:leaf=-0.0749124
							180:leaf=0.00869778
				22:[TIME_OF_DAY<6] yes=45,no=46,missing=46
					45:[U_CAT_LEN<7] yes=91,no=92,missing=92
						91:[C_D_U_PUBLISHER_GENDER_COEC<0.0572977] yes=181,no=182,missing=182
							181:leaf=0.136003
							182:leaf=0.0337084
						92:[C_D_U_PUBLISHER_GENDER_COEC<0.0887326] yes=183,no=184,missing=184
							183:leaf=-0.244131
							184:leaf=-0.0220744
					46:[C_D_U_TITLEMD5_CATEGORY_MACRO_MAX_COEC<0.074049] yes=93,no=94,missing=94
						93:[C_D_U_TITLEMD5_GENDER_COEC<0.185628] yes=185,no=186,missing=185
							185:leaf=0.0244151
							186:leaf=-0.190033
						94:[KW_REL<0.00238301] yes=187,no=188,missing=188
							187:leaf=-0.000160356
							188:leaf=-0.103954
	2:[U_CAT_LEN<19] yes=5,no=6,missing=6
		5:[C_D_U_TITLEMD5_AGE_COEC<0.0389672] yes=11,no=12,missing=12
			11:[U_GENDER<4] yes=23,no=24,missing=24
				23:[D_CATEGORY_MICRO_MAX_COEC<0.0672246] yes=47,no=48,missing=47
					47:[C_D_U_TITLEMD5_CATEGORY_MACRO_MEAN_COEC<0.0713684] yes=95,no=96,missing=96
						95:[C_D_U_TITLEMD5_CATEGORY_MACRO_MEAN_COEC<0.0240088] yes=189,no=190,missing=190
							189:leaf=-0.00662287
							190:leaf=0.0105203
						96:[CAT_REL<0.20172] yes=191,no=192,missing=192
							191:leaf=-0.0405684
							192:leaf=-0.0100384
					48:[C_D_U_CATEGORY_GENDER_MACRO_MAX_COEC<0.076663] yes=97,no=98,missing=98
						97:[U_GENDER<2] yes=193,no=194,missing=194
							193:leaf=-0.0147636
							194:leaf=-0.0343175
						98:[D_CATEGORY_MICRO_MAX_COEC<0.0705113] yes=195,no=196,missing=196
							195:leaf=0.213525
							196:leaf=-0.00878037
				24:[D_KEYWORD_MICRO_MEAN_COEC<0.116323] yes=49,no=50,missing=50
					49:[U_CAT_LEN<10] yes=99,no=100,missing=100
						99:[C_D_U_PUBLISHER_AGE_COEC<0.0856563] yes=197,no=198,missing=197
							197:leaf=-0.0131472
							198:leaf=0.010125
						100:[CAT_REL<0.916316] yes=199,no=200,missing=200
							199:leaf=0.000199497
							200:leaf=0.064813
					50:[DAY_OF_WEEK<5] yes=101,no=102,missing=102
						101:[D_KEYWORD_MACRO_MAX_COEC<0.0144784] yes=201,no=202,missing=202
							201:leaf=0.180852
							202:leaf=-0.00315806
						102:[C_D_U_TITLEMD5_CATEGORY_MACRO_MEAN_COEC<0.107098] yes=203,no=204,missing=204
							203:leaf=0.0928772
							204:leaf=0.0301535
			12:[CAT_REL<0.252292] yes=25,no=26,missing=26
				25:[D_CATEGORY_MICRO_MEAN_COEC<0.0646304] yes=51,no=52,missing=52
					51:[C_D_U_PUBLISHER_GENDER_COEC<0.0558282] yes=103,no=104,missing=104
						103:[C_D_U_CATEGORY_GENDER_MICRO_MEAN_COEC<0.0570547] yes=205,no=206,missing=206
							205:leaf=0.00126817
							206:leaf=-0.0132999
						104:[C_D_U_TITLEMD5_AGE_COEC<0.268631] yes=207,no=208,missing=207
							207:leaf=0.0075795
							208:leaf=-0.0498874
					52:[DAY_OF_WEEK<5] yes=105,no=106,missing=106
						105:[C_D_U_CATEGORY_CITY_MACRO_MAX_COEC<0.0763302] yes=209,no=210,missing=210
							209:leaf=-0.00434823
							210:leaf=0.00120514
						106:[D_CATEGORY_MACRO_MAX_COEC<0.0785244] yes=211,no=212,missing=212
							211:leaf=-0.000353447
							212:leaf=-0.0115426
				26:[WORD_COUNT<1413] yes=53,no=54,missing=54
					53:[KW_REL<2.6955e-05] yes=107,no=108,missing=108
						107:[C_D_U_PUBLISHER_GENDER_COEC<0.0962508] yes=213,no=214,missing=213
							213:leaf=-0.022289
							214:leaf=-0.0054038
						108:[D_KEYWORD_MACRO_MEAN_COEC<0.0541891] yes=215,no=216,missing=216
							215:leaf=-0.0185372
							216:leaf=7.57695e-05
					54:[KW_REL<0.00614616] yes=109,no=110,missing=110
						109:[C_D_U_PUBLISHER_CITY_COEC<0.0226464] yes=217,no=218,missing=217
							217:leaf=-0.00796478
							218:leaf=0.00280659
						110:[C_D_U_TITLEMD5_GENDER_COEC<0.0725591] yes=219,no=220,missing=220
							219:leaf=0.00250355
							220:leaf=0.0101879
		6:[TIME_OF_DAY<14] yes=13,no=14,missing=14
			13:[U_CAT_LEN<25] yes=27,no=28,missing=28
				27:[CAT_REL<0.209681] yes=55,no=56,missing=56
					55:[U_GENDER<4] yes=111,no=112,missing=112
						111:[C_D_U_CATEGORY_GENDER_MICRO_MAX_COEC<0.0982167] yes=221,no=222,missing=222
							221:leaf=0.00244589
							222:leaf=0.0187566
						112:[C_D_U_CATEGORY_CITY_MICRO_MAX_COEC<0.112944] yes=223,no=224,missing=223
							223:leaf=-0.0102537
							224:leaf=0.0208126
					56:[C_D_U_CATEGORY_CITY_MACRO_MEAN_COEC<0.0564209] yes=113,no=114,missing=114
						113:[CAT_REL<0.287571] yes=225,no=226,missing=226
							225:leaf=0.00696596
							226:leaf=-0.0552219
						114:[DAY_OF_WEEK<6] yes=227,no=228,missing=228
							227:leaf=0.00939678
							228:leaf=-0.0058446
				28:[C_D_U_TITLEMD5_CATEGORY_MICRO_MAX_COEC<0.114758] yes=57,no=58,missing=58
					57:[C_D_U_CATEGORY_CITY_MICRO_MAX_COEC<0.027835] yes=115,no=116,missing=116
						115:[D_KEYWORD_MICRO_MEAN_COEC<0.0656878] yes=229,no=230,missing=230
							229:leaf=0.287888
							230:leaf=0.0872869
						116:[D_KEYWORD_MICRO_MAX_COEC<0.142467] yes=231,no=232,missing=232
							231:leaf=0.0241778
							232:leaf=0.0796338
					58:[C_D_U_TITLEMD5_CATEGORY_MICRO_MAX_COEC<0.116545] yes=117,no=118,missing=118
						117:[D_PUBLISHER_COEC<0.0976994] yes=233,no=234,missing=234
							233:leaf=-0.0503847
							234:leaf=-0.189271
						118:[D_KEYWORD_MICRO_MEAN_COEC<0.101557] yes=235,no=236,missing=236
							235:leaf=0.0155159
							236:leaf=-0.00301391
			14:[C_D_U_TITLEMD5_CATEGORY_MACRO_MEAN_COEC<0.0627214] yes=29,no=30,missing=30
				29:[C_D_U_CATEGORY_CITY_MACRO_MEAN_COEC<0.0777131] yes=59,no=60,missing=59
					59:[IMAGE_COUNT<8] yes=119,no=120,missing=120
						119:[C_D_U_CATEGORY_AGE_MICRO_MAX_COEC<0.0724668] yes=237,no=238,missing=238
							237:leaf=-0.00107166
							238:leaf=-0.0187997
						120:[TIME_OF_DAY<15] yes=239,no=240,missing=240
							239:leaf=0.603065
							240:leaf=-0.0106619
					60:[C_D_U_CATEGORY_AGE_MICRO_MAX_COEC<0.0809645] yes=121,no=122,missing=122
						121:[C_D_U_TITLEMD5_AGE_COEC<0.0786597] yes=241,no=242,missing=242
							241:leaf=0.0204992
							242:leaf=0.0623553
						122:[D_KEYWORD_MACRO_MEAN_COEC<0.0640151] yes=243,no=244,missing=244
							243:leaf=0.0153063
							244:leaf=-0.00899417
				30:[D_KEYWORD_MACRO_MEAN_COEC<0.0511674] yes=61,no=62,missing=62
					61:[C_D_U_PUBLISHER_CITY_COEC<0.0409997] yes=123,no=124,missing=124
						123:[KW_REL<0.000690019] yes=245,no=246,missing=246
							245:leaf=-0.00753224
							246:leaf=-0.148837
						124:[C_D_U_CATEGORY_GENDER_MACRO_MEAN_COEC<0.0357879] yes=247,no=248,missing=248
							247:leaf=0.0934088
							248:leaf=-0.0282779
					62:[U_CAT_LEN<28] yes=125,no=126,missing=126
						125:[WORD_COUNT<3990] yes=249,no=250,missing=250
							249:leaf=0.012759
							250:leaf=0.0252517
						126:[U_CAT_LEN<32] yes=251,no=252,missing=252
							251:leaf=-0.0412914
							252:leaf=0.0561111
booster[59]:
0:[U_KW_LEN<200] yes=1,no=2,missing=1
	1:[D_KEYWORD_MACRO_MEAN_COEC<0.0472937] yes=3,no=4,missing=4
		3:[C_D_U_TITLEMD5_GENDER_COEC<0.0972555] yes=7,no=8,missing=7
			7:[TIME_OF_DAY<15] yes=15,no=16,missing=16
				15:[D_TITLEMD5_COEC<0.0438107] yes=31,no=32,missing=32
					31:[TIME_OF_DAY<10] yes=63,no=64,missing=64
						63:[D_KEYWORD_MACRO_MAX_COEC<0.0184179] yes=125,no=126,missing=126
							125:leaf=0.00878448
							126:leaf=-0.0465113
						64:[IMAGE_COUNT<3] yes=127,no=128,missing=128
							127:leaf=-0.0337185
							128:leaf=0.0226507
					32:[D_TITLEMD5_COEC<0.168409] yes=65,no=66,missing=65
						65:[D_KEYWORD_MACRO_MAX_COEC<0.013735] yes=129,no=130,missing=130
							129:leaf=-0.0366841
							130:leaf=-0.00383469
						66:[D_KEYWORD_MACRO_MAX_COEC<0.0122482] yes=131,no=132,missing=132
							131:leaf=0.100046
							132:leaf=-0.114182
				16:[D_PUBLISHER_COEC<0.10576] yes=33,no=34,missing=33
					33:[DAY_OF_WEEK<2] yes=67,no=68,missing=68
						67:[U_KW_LEN<59] yes=133,no=134,missing=134
							133:leaf=-0.0486076
							134:leaf=0.0039836
						68:[DAY_OF_WEEK<3] yes=135,no=136,missing=136
							135:leaf=0.0786419
							136:leaf=0.00170962
					34:[C_D_U_CATEGORY_CITY_MACRO_MEAN_COEC<0.054841] yes=69,no=70,missing=69
						69:[KW_REL<0.00368064] yes=137,no=138,missing=138
							137:leaf=-0.0708591
							138:leaf=0.160571
						70:[C_D_U_CATEGORY_CITY_MICRO_MEAN_COEC<0.0841339] yes=139,no=140,missing=140
							139:leaf=0.0965933
							140:leaf=-0.089992
			8:[C_D_U_TITLEMD5_CATEGORY_MACRO_MAX_COEC<0.0114141] yes=17,no=18,missing=18
				17:[D_KEYWORD_MACRO_MAX_COEC<0.00997859] yes=35,no=36,missing=36
					35:leaf=-0.116914
					36:[C_D_U_CATEGORY_CITY_MICRO_MAX_COEC<0.0653225] yes=71,no=72,missing=72
						71:[C_D_U_CATEGORY_CITY_MACRO_MAX_COEC<0.0253321] yes=141,no=142,missing=142
							141:leaf=0.0352549
							142:leaf=0.32489
						72:leaf=-0.112221
				18:[C_D_U_TITLEMD5_CATEGORY_MACRO_MEAN_COEC<0.063354] yes=37,no=38,missing=38
					37:[U_AGE_1<0.999999] yes=73,no=74,missing=74
						73:[C_D_U_CATEGORY_GENDER_MICRO_MAX_COEC<0.102188] yes=143,no=144,missing=144
							143:leaf=-0.133288
							144:leaf=0.0135958
						74:[C_D_U_PUBLISHER_CITY_COEC<0.0523574] yes=145,no=146,missing=146
							145:leaf=0.157838
							146:leaf=-0.118588
					38:[U_KW_LEN<190] yes=75,no=76,missing=76
						75:[C_D_U_PUBLISHER_CITY_COEC<0.04186] yes=147,no=148,missing=148
							147:leaf=-0.118083
							148:leaf=-0.0315964
						76:[C_D_U_CATEGORY_GENDER_MICRO_MAX_COEC<0.069621] yes=149,no=150,missing=150
							149:leaf=-0.162635
							150:leaf=0.126736
		4:[D_CATEGORY_MACRO_MEAN_COEC<0.0279716] yes=9,no=10,missing=10
			9:[D_TITLEMD5_COEC<0.106314] yes=19,no=20,missing=20
				19:[D_TITLEMD5_COEC<0.0277497] yes=39,no=40,missing=40
					39:[TIME_OF_DAY<2] yes=77,no=78,missing=78
						77:[U_KW_LEN<15] yes=151,no=152,missing=152
							151:leaf=0.292163
							152:leaf=-0.110069
						78:[DAY_OF_WEEK<0.999999] yes=153,no=154,missing=154
							153:leaf=-0.094706
							154:leaf=-0.0197256
					40:[WORD_COUNT<2059] yes=79,no=80,missing=80
						79:[D_KEYWORD_MACRO_MAX_COEC<0.0122482] yes=155,no=156,missing=156
							155:leaf=0.000405594
							156:leaf=0.0991717
						80:[KW_REL<0.00134781] yes=157,no=158,missing=158
							157:leaf=0.0515553
							158:leaf=-0.0358864
				20:[D_PUBLISHER_COEC<0.047178] yes=41,no=42,missing=42
					41:[U_KW_LEN<193] yes=81,no=82,missing=82
						81:[IMAGE_COUNT<2] yes=159,no=160,missing=160
							159:leaf=-0.119772
							160:leaf=0.0011322
						82:leaf=0.267539
					42:[C_D_U_TITLEMD5_CATEGORY_MICRO_MAX_COEC<0.184696] yes=83,no=84,missing=84
						83:[KW_REL<0.000199753] yes=161,no=162,missing=162
							161:leaf=-0.0589334
							162:leaf=0.0150273
						84:[D_KEYWORD_MICRO_MEAN_COEC<0.108739] yes=163,no=164,missing=164
							163:leaf=0.011506
							164:leaf=-0.0341359
			10:[C_D_U_CATEGORY_CITY_MACRO_MEAN_COEC<0.0447949] yes=21,no=22,missing=22
				21:[TIME_OF_DAY<11] yes=43,no=44,missing=44
					43:[U_AGE_1<0.999999] yes=85,no=86,missing=86
						85:[WORD_COUNT<1510] yes=165,no=166,missing=166
							165:leaf=-0.0127884
							166:leaf=0.00690812
						86:[WORD_COUNT<2693] yes=167,no=168,missing=168
							167:leaf=-0.0145805
							168:leaf=-0.103726
					44:[C_D_U_TITLEMD5_GENDER_COEC<0.0455966] yes=87,no=88,missing=88
						87:[C_D_U_TITLEMD5_CATEGORY_MACRO_MAX_COEC<0.0571964] yes=169,no=170,missing=170
							169:leaf=-0.0686291
							170:leaf=-0.00320444
						88:[TIME_OF_DAY<15] yes=171,no=172,missing=172
							171:leaf=-0.0205764
							172:leaf=-0.00264674
				22:[D_KEYWORD_MACRO_MAX_COEC<0.0110381] yes=45,no=46,missing=46
					45:[DAY_OF_WEEK<0.999999] yes=89,no=90,missing=90
						89:[D_KEYWORD_MICRO_MEAN_COEC<0.0660892] yes=173,no=174,missing=174
							173:leaf=0.0626209
							174:leaf=0.0137628
						90:[C_D_U_CATEGORY_GENDER_MACRO_MAX_COEC<0.102261] yes=175,no=176,missing=175
							175:leaf=0.00192528
							176:leaf=0.0729564
					46:[D_KEYWORD_MACRO_MAX_COEC<0.0336553] yes=91,no=92,missing=92
						91:[D_CATEGORY_MACRO_MAX_COEC<0.0770884] yes=177,no=178,missing=177
							177:leaf=0.00130268
							178:leaf=-0.00260235
						92:[D_CATEGORY_MICRO_MEAN_COEC<0.0881562] yes=179,no=180,missing=179
							179:leaf=0.00581081
							180:leaf=0.000371909
	2:[TIME_OF_DAY<17] yes=5,no=6,missing=6
		5:[CAT_REL<0.092895] yes=11,no=12,missing=12
			11:[D_KEYWORD_MICRO_MEAN_COEC<0.0836432] yes=23,no=24,missing=24
				23:[C_D_U_TITLEMD5_CATEGORY_MACRO_MAX_COEC<0.0431164] yes=47,no=48,missing=48
					47:[C_D_U_PUBLISHER_CITY_COEC<0.0956536] yes=93,no=94,missing=94
						93:[C_D_U_CATEGORY_GENDER_MACRO_MEAN_COEC<0.0865324] yes=181,no=182,missing=181
							181:leaf=-0.00808935
							182:leaf=0.00912735
						94:[U_CAT_LEN<10] yes=183,no=184,missing=184
							183:leaf=-0.00705864
							184:leaf=0.00694902
					48:[D_PUBLISHER_COEC<0.0541463] yes=95,no=96,missing=96
						95:[WORD_COUNT<804] yes=185,no=186,missing=186
							185:leaf=0.0156479
							186:leaf=-0.0488134
						96:[D_CATEGORY_MICRO_MAX_COEC<0.036706] yes=187,no=188,missing=188
							187:leaf=0.0325475
							188:leaf=-0.0139649
				24:[WORD_COUNT<630] yes=49,no=50,missing=50
					49:[C_D_U_CATEGORY_AGE_MICRO_MEAN_COEC<0.101329] yes=97,no=98,missing=98
						97:[KW_REL<0.011713] yes=189,no=190,missing=190
							189:leaf=-0.0236239
							190:leaf=0.0664292
						98:[C_D_U_TITLEMD5_GENDER_COEC<0.2004] yes=191,no=192,missing=191
							191:leaf=-0.0994003
							192:leaf=-0.0358981
					50:[KW_REL<0.000190768] yes=99,no=100,missing=100
						99:[D_CATEGORY_MICRO_MAX_COEC<0.0829742] yes=193,no=194,missing=194
							193:leaf=-0.000962457
							194:leaf=-0.0185987
						100:[DAY_OF_WEEK<5] yes=195,no=196,missing=196
							195:leaf=0.00394502
							196:leaf=-0.0062525
			12:[D_CATEGORY_MACRO_MEAN_COEC<0.0586353] yes=25,no=26,missing=26
				25:[C_D_U_CATEGORY_AGE_MICRO_MEAN_COEC<0.0813473] yes=51,no=52,missing=52
					51:[CAT_REL<0.487498] yes=101,no=102,missing=102
						101:[TIME_OF_DAY<3] yes=197,no=198,missing=198
							197:leaf=0.0455645
							198:leaf=0.0185676
						102:[KW_REL<0.00900829] yes=199,no=200,missing=200
							199:leaf=-0.0356533
							200:leaf=0.0271311
					52:[C_D_U_CATEGORY_CITY_MICRO_MAX_COEC<0.100112] yes=103,no=104,missing=104
						103:[CAT_REL<0.105952] yes=201,no=202,missing=202
							201:leaf=-0.0056092
							202:leaf=-0.105513
						104:[TIME_OF_DAY<10] yes=203,no=204,missing=204
							203:leaf=0.0276578
							204:leaf=-0.111091
				26:[C_D_U_CATEGORY_CITY_MICRO_MEAN_COEC<0.0496614] yes=53,no=54,missing=54
					53:[C_D_U_TITLEMD5_CATEGORY_MICRO_MAX_COEC<0.151103] yes=105,no=106,missing=106
						105:[C_D_U_CATEGORY_CITY_MACRO_MAX_COEC<0.041986] yes=205,no=206,missing=206
							205:leaf=-0.0261873
							206:leaf=-0.00859901
						106:[C_D_U_PUBLISHER_AGE_COEC<0.0520391] yes=207,no=208,missing=208
							207:leaf=-0.0316939
							208:leaf=-0.0027877
					54:[C_D_U_TITLEMD5_GENDER_COEC<0.043423] yes=107,no=108,missing=108
						107:[U_GENDER<4] yes=209,no=210,missing=210
							209:leaf=-0.00902458
							210:leaf=-0.000295376
						108:[D_CATEGORY_MACRO_MEAN_COEC<0.096809] yes=211,no=212,missing=212
							211:leaf=0.00170587
							212:leaf=-0.00302614
		6:[C_D_U_TITLEMD5_CATEGORY_MACRO_MEAN_COEC<0.0761994] yes=13,no=14,missing=14
			13:[D_KEYWORD_MICRO_MEAN_COEC<0.143349] yes=27,no=28,missing=28
				27:[D_KEYWORD_MICRO_MEAN_COEC<0.0673482] yes=55,no=56,missing=56
					55:[C_D_U_CATEGORY_GENDER_MACRO_MAX_COEC<0.0527506] yes=109,no=110,missing=110
						109:[C_D_U_TITLEMD5_GENDER_COEC<0.0262048] yes=213,no=214,missing=213
							213:leaf=-0.0137587
							214:leaf=0.0196655
						110:[C_D_U_TITLEMD5_AGE_COEC<6] yes=215,no=216,missing=216
							215:leaf=-0.0125353
							216:leaf=0.0168554
					56:[D_CATEGORY_MICRO_MAX_COEC<0.0638858] yes=111,no=112,missing=111
						111:[D_CATEGORY_MACRO_MEAN_COEC<0.0626551] yes=217,no=218,missing=217
							217:leaf=0.00716409
							218:leaf=0.0384834
						112:[C_D_U_CATEGORY_CITY_MICRO_MEAN_COEC<0.0595475] yes=219,no=220,missing=220
							219:leaf=-0.0301478
							220:leaf=0.000387815
				28:[D_KEYWORD_MICRO_MAX_COEC<0.187173] yes=57,no=58,missing=58
					57:[C_D_U_CATEGORY_AGE_MACRO_MAX_COEC<0.0677256] yes=113,no=114,missing=114
						113:[C_D_U_TITLEMD5_CATEGORY_MACRO_MAX_COEC<0.0278948] yes=221,no=222,missing=222
							221:leaf=0.0617224
							222:leaf=0.239791
						114:[D_TITLEMD5_COEC<0.0573167] yes=223,no=224,missing=224
							223:leaf=0.0862849
							224:leaf=-0.0531521
					58:[D_TITLEMD5_COEC<0.108697] yes=115,no=116,missing=115
						115:[U_GENDER<2] yes=225,no=226,missing=226
							225:leaf=0.0578704
							226:leaf=0.157504
						116:leaf=-0.126946
			14:[D_TITLEMD5_COEC<0.0880207] yes=29,no=30,missing=30
				29:[C_D_U_TITLEMD5_CATEGORY_MICRO_MEAN_COEC<0.0678091] yes=59,no=60,missing=60
					59:[D_KEYWORD_MACRO_MEAN_COEC<0.0575165] yes=117,no=118,missing=118
						117:[C_D_U_PUBLISHER_CITY_COEC<0.0652486] yes=227,no=228,missing=227
							227:leaf=-0.171079
							228:leaf=-0.0960155
						118:[C_D_U_TITLEMD5_CATEGORY_MICRO_MAX_COEC<0.120463] yes=229,no=230,missing=230
							229:leaf=0.130054
							230:leaf=-0.0487926
					60:[C_D_U_CATEGORY_CITY_MICRO_MAX_COEC<0.109985] yes=119,no=120,missing=119
						119:[C_D_U_TITLEMD5_AGE_COEC<0.114536] yes=231,no=232,missing=232
							231:leaf=0.0130332
							232:leaf=-0.0222909
						120:[C_D_U_CATEGORY_GENDER_MICRO_MAX_COEC<0.101208] yes=233,no=234,missing=234
							233:leaf=0.0180852
							234:leaf=0.0559838
				30:[C_D_U_TITLEMD5_GENDER_COEC<0.0745014] yes=61,no=62,missing=62
					61:[CAT_REL<0.190975] yes=121,no=122,missing=122
						121:[C_D_U_CATEGORY_CITY_MICRO_MAX_COEC<0.0721073] yes=235,no=236,missing=236
							235:leaf=-0.0425094
							236:leaf=-0.011482
						122:[WORD_COUNT<804] yes=237,no=238,missing=238
							237:leaf=-0.0348062
							238:leaf=-0.000981085
					62:[U_CAT_LEN<15] yes=123,no=124,missing=124
						123:[TIME_OF_DAY<23] yes=239,no=240,missing=240
							239:leaf=0.00384068
							240:leaf=-0.0127077
						124:[D_KEYWORD_MICRO_MEAN_COEC<0.163243] yes=241,no=242,missing=242
							241:leaf=0.010563
							242:leaf=-0.0120213
booster[60]:
0:[U_KW_LEN<200] yes=1,no=2,missing=1
	1:leaf=0.0
	2:[KW_REL<0.00609048] yes=3,no=4,missing=4
		3:[IMAGE_COUNT<0.999999] yes=5,no=6,missing=6
			5:[D_KEYWORD_MICRO_MEAN_COEC<0.0679677] yes=9,no=10,missing=10
				9:[D_TITLEMD5_COEC<0.0403557] yes=17,no=18,missing=18
					17:[CAT_REL<0.443727] yes=33,no=34,missing=34
						33:[D_KEYWORD_MICRO_MEAN_COEC<0.0619485] yes=65,no=66,missing=66
							65:leaf=0.0586464
							66:leaf=-0.0398461
						34:[WORD_COUNT<1014] yes=67,no=68,missing=68
							67:leaf=-0.0235891
							68:leaf=-0.113703
					18:[TIME_OF_DAY<12] yes=35,no=36,missing=36
						35:[C_D_U_CATEGORY_CITY_MACRO_MAX_COEC<0.0650214] yes=69,no=70,missing=70
							69:leaf=-0.0301985
							70:leaf=-0.096524
						36:[C_D_U_CATEGORY_AGE_MICRO_MAX_COEC<0.0739728] yes=71,no=72,missing=72
							71:leaf=-0.087838
							72:leaf=-0.148031
				10:[WORD_COUNT<1149] yes=19,no=20,missing=20
					19:[C_D_U_TITLEMD5_CATEGORY_MICRO_MEAN_COEC<0.147242] yes=37,no=38,missing=38
						37:[U_CAT_LEN<23] yes=73,no=74,missing=74
							73:leaf=-0.0397172
							74:leaf=0.0680647
						38:[D_PUBLISHER_COEC<0.0979332] yes=75,no=76,missing=76
							75:leaf=-0.0699635
							76:leaf=-0.178447
					20:[WORD_COUNT<2096] yes=39,no=40,missing=40
						39:[C_D_U_TITLEMD5_GENDER_COEC<0.164668] yes=77,no=78,missing=78
							77:leaf=0.00307628
							78:leaf=-0.0631289
						40:[D_KEYWORD_MICRO_MEAN_COEC<0.068832] yes=79,no=80,missing=80
							79:leaf=0.0321575
							80:leaf=-0.0387434
			6:[D_KEYWORD_MICRO_MEAN_COEC<0.0768475] yes=11,no=12,missing=12
				11:[C_D_U_TITLEMD5_CATEGORY_MICRO_MAX_COEC<0.221106] yes=21,no=22,missing=22
					21:[CAT_REL<0.132233] yes=41,no=42,missing=42
						41:[IMAGE_COUNT<2] yes=81,no=82,missing=82
							81:leaf=-0.00829933
							82:leaf=0.00940583
						42:[D_CATEGORY_MACRO_MAX_COEC<0.103436] yes=83,no=84,missing=84
							83:leaf=-0.00031397
							84:leaf=-0.0218125
					22:[D_CATEGORY_MICRO_MAX_COEC<0.0630236] yes=43,no=44,missing=44
						43:[D_TITLEMD5_COEC<0.0739946] yes=85,no=86,missing=86
							85:leaf=-0.0452599
							86:leaf=0.00275296
						44:[C_D_U_TITLEMD5_GENDER_COEC<0.164668] yes=87,no=88,missing=87
							87:leaf=-0.0126676
							88:leaf=-0.025383
				12:[D_CATEGORY_MICRO_MAX_COEC<0.068127] yes=23,no=24,missing=23
					23:[C_D_U_TITLEMD5_AGE_COEC<0.0385924] yes=45,no=46,missing=46
						45:[CAT_REL<0.03024] yes=89,no=90,missing=90
							89:leaf=-0.0391076
							90:leaf=-0.00459539
						46:[DAY_OF_WEEK<4] yes=91,no=92,missing=92
							91:leaf=0.0157963
							92:leaf=0.00591233
					24:[WORD_COUNT<998] yes=47,no=48,missing=48
						47:[CAT_REL<0.136028] yes=93,no=94,missing=94
							93:leaf=-0.0134483
							94:leaf=-0.00210381
						48:[C_D_U_CATEGORY_GENDER_MICRO_MEAN_COEC<0.105311] yes=95,no=96,missing=96
							95:leaf=0.000173703
							96:leaf=0.00912906
		4:[C_D_U_TITLEMD5_CATEGORY_MICRO_MAX_COEC<0.119222] yes=7,no=8,missing=8
			7:[CAT_REL<0.38899] yes=13,no=14,missing=14
				13:[DAY_OF_WEEK<4] yes=25,no=26,missing=26
					25:[D_KEYWORD_MICRO_MEAN_COEC<0.10302] yes=49,no=50,missing=50
						49:[U_GENDER<2] yes=97,no=98,missing=97
							97:leaf=0.00191395
							98:leaf=-0.0164599
						50:[D_KEYWORD_MACRO_MAX_COEC<0.0299611] yes=99,no=100,missing=100
							99:leaf=0.101685
							100:leaf=0.0207875
					26:[D_CATEGORY_MICRO_MEAN_COEC<0.0764472] yes=51,no=52,missing=52
						51:[D_KEYWORD_MICRO_MEAN_COEC<0.0743105] yes=101,no=102,missing=102
							101:leaf=-0.00830636
							102:leaf=0.0134772
						52:[C_D_U_CATEGORY_AGE_MACRO_MAX_COEC<0.0865603] yes=103,no=104,missing=103
							103:leaf=-0.0280205
							104:leaf=0.00669706
				14:[C_D_U_CATEGORY_AGE_MICRO_MEAN_COEC<0.0847731] yes=27,no=28,missing=28
					27:[C_D_U_TITLEMD5_GENDER_COEC<3.01507] yes=53,no=54,missing=54
						53:[WORD_COUNT<2325] yes=105,no=106,missing=106
							105:leaf=-0.00290862
							106:leaf=0.00844812
						54:[D_KEYWORD_MACRO_MEAN_COEC<0.08285] yes=107,no=108,missing=108
							107:leaf=0.0237671
							108:leaf=0.105781
					28:[D_KEYWORD_MICRO_MEAN_COEC<0.068832] yes=55,no=56,missing=56
						55:[TIME_OF_DAY<15] yes=109,no=110,missing=110
							109:leaf=-0.0347192
							110:leaf=0.0126934
						56:[CAT_REL<0.527] yes=111,no=112,missing=112
							111:leaf=0.0132516
							112:leaf=0.0322409
			8:[D_CATEGORY_MACRO_MAX_COEC<0.0603931] yes=15,no=16,missing=16
				15:[WORD_COUNT<906] yes=29,no=30,missing=30
					29:[C_D_U_TITLEMD5_CATEGORY_MICRO_MAX_COEC<0.237479] yes=57,no=58,missing=58
						57:[C_D_U_TITLEMD5_CATEGORY_MACRO_MAX_COEC<0.0496884] yes=113,no=114,missing=114
							113:leaf=-0.0063246
							114:leaf=-0.10665
						58:[CAT_REL<0.091497] yes=115,no=116,missing=116
							115:leaf=-0.104667
							116:leaf=0.0409626
					30:[CAT_REL<0.009367] yes=59,no=60,missing=60
						59:[U_GENDER<2] yes=117,no=118,missing=117
							117:leaf=-0.0194236
							118:leaf=-0.151774
						60:[D_CATEGORY_MACRO_MAX_COEC<0.0324288] yes=119,no=120,missing=120
							119:leaf=0.0499721
							120:leaf=0.0228109
				16:[C_D_U_TITLEMD5_CATEGORY_MICRO_MAX_COEC<0.310446] yes=31,no=32,missing=32
					31:[D_KEYWORD_MICRO_MEAN_COEC<0.127061] yes=61,no=62,missing=62
						61:[C_D_U_PUBLISHER_GENDER_COEC<0.0459658] yes=121,no=122,missing=121
							121:leaf=-0.0131262
							122:leaf=0.00691946
						62:[DAY_OF_WEEK<2] yes=123,no=124,missing=124
							123:leaf=0.0184737
							124:leaf=-0.0804185
					32:[C_D_U_TITLEMD5_CATEGORY_MACRO_MEAN_COEC<0.208473] yes=63,no=64,missing=64
						63:[KW_REL<0.0317177] yes=125,no=126,missing=126
							125:leaf=-0.0229706
							126:leaf=0.018312
						64:[D_KEYWORD_MICRO_MAX_COEC<0.116407] yes=127,no=128,missing=128
							127:leaf=-0.00594923
							128:leaf=0.016229
booster[61]:
0:[U_KW_LEN<200] yes=1,no=2,missing=1
	1:leaf=0.0
	2:[C_D_U_TITLEMD5_CATEGORY_MACRO_MEAN_COEC<0.129547] yes=3,no=4,missing=4
		3:[D_TITLEMD5_COEC<0.141361] yes=5,no=6,missing=5
			5:[C_D_U_PUBLISHER_AGE_COEC<0.0958363] yes=9,no=10,missing=10
				9:[WORD_COUNT<2948] yes=17,no=18,missing=18
					17:[C_D_U_CATEGORY_CITY_MICRO_MAX_COEC<0.104554] yes=33,no=34,missing=34
						33:[D_CATEGORY_MICRO_MEAN_COEC<0.0971399] yes=65,no=66,missing=66
							65:leaf=-0.00247772
							66:leaf=-0.00900477
						34:[D_KEYWORD_MACRO_MAX_COEC<0.0475955] yes=67,no=68,missing=68
							67:leaf=0.00583279
							68:leaf=-0.0195369
					18:[D_TITLEMD5_COEC<0.116453] yes=35,no=36,missing=35
						35:[C_D_U_TITLEMD5_CATEGORY_MACRO_MEAN_COEC<0.0995223] yes=69,no=70,missing=70
							69:leaf=0.00103914
							70:leaf=0.0116743
						36:[D_KEYWORD_MICRO_MEAN_COEC<0.128027] yes=71,no=72,missing=72
							71:leaf=-0.00793937
							72:leaf=0.0608483
				10:[D_KEYWORD_MACRO_MEAN_COEC<0.0989327] yes=19,no=20,missing=20
					19:[D_KEYWORD_MICRO_MEAN_COEC<0.122492] yes=37,no=38,missing=38
						37:[C_D_U_TITLEMD5_CATEGORY_MICRO_MAX_COEC<0.153477] yes=73,no=74,missing=74
							73:leaf=0.00205855
							74:leaf=0.00883877
						38:[D_PUBLISHER_COEC<0.10029] yes=75,no=76,missing=76
							75:leaf=0.0539652
							76:leaf=0.0240448
					20:[C_D_U_TITLEMD5_CATEGORY_MICRO_MAX_COEC<0.190452] yes=39,no=40,missing=40
						39:[CAT_REL<0.069681] yes=77,no=78,missing=78
							77:leaf=0.00473586
							78:leaf=-0.0083754
						40:[TIME_OF_DAY<19] yes=79,no=80,missing=80
							79:leaf=0.0118221
							80:leaf=0.0589285
			6:[D_KEYWORD_MACRO_MEAN_COEC<0.05925] yes=11,no=12,missing=12
				11:[D_CAT_LEN<2] yes=21,no=22,missing=22
					21:[D_CATEGORY_MICRO_MAX_COEC<0.0796131] yes=41,no=42,missing=42
						41:[CAT_REL<0.169244] yes=81,no=82,missing=82
							81:leaf=-0.0611793
							82:leaf=-0.0276496
						42:[C_D_U_CATEGORY_CITY_MACRO_MAX_COEC<0.204225] yes=83,no=84,missing=83
							83:leaf=-0.0925036
							84:leaf=0.171836
					22:[C_D_U_TITLEMD5_CATEGORY_MACRO_MEAN_COEC<0.0937072] yes=43,no=44,missing=44
						43:[KW_REL<0.00102689] yes=85,no=86,missing=86
							85:leaf=0.0179361
							86:leaf=0.156057
						44:[U_CAT_LEN<14] yes=87,no=88,missing=88
							87:leaf=-0.0888537
							88:leaf=0.032819
				12:[C_D_U_CATEGORY_CITY_MICRO_MAX_COEC<0.095592] yes=23,no=24,missing=24
					23:[KW_REL<0.00389573] yes=45,no=46,missing=46
						45:[D_KEYWORD_MACRO_MEAN_COEC<0.113055] yes=89,no=90,missing=90
							89:leaf=-0.0202095
							90:leaf=-0.00461915
						46:[C_D_U_PUBLISHER_AGE_COEC<0.142665] yes=91,no=92,missing=91
							91:leaf=-0.00659752
							92:leaf=0.0279635
					24:[C_D_U_PUBLISHER_GENDER_COEC<0.11339] yes=47,no=48,missing=48
						47:[C_D_U_CATEGORY_AGE_MACRO_MAX_COEC<0.100028] yes=93,no=94,missing=93
							93:leaf=0.00407329
							94:leaf=-0.00773426
						48:[C_D_U_TITLEMD5_CATEGORY_MICRO_MEAN_COEC<0.150804] yes=95,no=96,missing=96
							95:leaf=-0.0559406
							96:leaf=-0.0120867
		4:[D_TITLEMD5_COEC<0.151021] yes=7,no=8,missing=8
			7:[C_D_U_TITLEMD5_AGE_COEC<0.190019] yes=13,no=14,missing=14
				13:[D_CATEGORY_MACRO_MEAN_COEC<0.0939206] yes=25,no=26,missing=25
					25:[C_D_U_TITLEMD5_CATEGORY_MICRO_MEAN_COEC<0.124084] yes=49,no=50,missing=50
						49:[C_D_U_TITLEMD5_GENDER_COEC<0.0357557] yes=97,no=98,missing=97
							97:leaf=0.00756969
							98:leaf=-0.0332886
						50:[D_KEYWORD_MACRO_MEAN_COEC<0.122731] yes=99,no=100,missing=100
							99:leaf=0.0122625
							100:leaf=-0.0140982
					26:[D_PUBLISHER_COEC<0.111563] yes=51,no=52,missing=52
						51:[DAY_OF_WEEK<2] yes=101,no=102,missing=102
							101:leaf=-0.00466337
							102:leaf=0.0102754
						52:[D_KEYWORD_MICRO_MEAN_COEC<0.11112] yes=103,no=104,missing=104
							103:leaf=-0.00120905
							104:leaf=-0.0426316
				14:[C_D_U_TITLEMD5_CATEGORY_MICRO_MEAN_COEC<0.173158] yes=27,no=28,missing=28
					27:[C_D_U_CATEGORY_AGE_MICRO_MAX_COEC<0.10471] yes=53,no=54,missing=53
						53:[CAT_REL<0.216529] yes=105,no=106,missing=106
							105:leaf=-0.0412436
							106:leaf=-0.0111634
						54:[C_D_U_CATEGORY_CITY_MACRO_MEAN_COEC<0.101852] yes=107,no=108,missing=108
							107:leaf=-0.0235806
							108:leaf=-0.155953
					28:[KW_REL<0.000192115] yes=55,no=56,missing=56
						55:[C_D_U_TITLEMD5_CATEGORY_MICRO_MAX_COEC<0.23731] yes=109,no=110,missing=110
							109:leaf=-0.235894
							110:leaf=-0.0835433
						56:[TIME_OF_DAY<11] yes=111,no=112,missing=112
							111:leaf=-0.0689351
							112:leaf=-0.0333264
			8:[C_D_U_TITLEMD5_CATEGORY_MACRO_MEAN_COEC<0.160968] yes=15,no=16,missing=16
				15:[D_TITLEMD5_COEC<0.169136] yes=29,no=30,missing=30
					29:[C_D_U_TITLEMD5_CATEGORY_MICRO_MEAN_COEC<0.164123] yes=57,no=58,missing=58
						57:[C_D_U_TITLEMD5_CATEGORY_MACRO_MAX_COEC<0.0872974] yes=113,no=114,missing=114
							113:leaf=-0.00600007
							114:leaf=-0.0363438
						58:[U_CAT_LEN<14] yes=115,no=116,missing=116
							115:leaf=-0.0012446
							116:leaf=0.00863985
					30:[C_D_U_TITLEMD5_CATEGORY_MACRO_MAX_COEC<0.0833129] yes=59,no=60,missing=60
						59:[KW_REL<0.000674587] yes=117,no=118,missing=118
							117:leaf=-0.00259569
							118:leaf=-0.0144693
						60:[CAT_REL<0.380069] yes=119,no=120,missing=120
							119:leaf=-0.0369533
							120:leaf=-0.0151437
				16:[D_TITLEMD5_COEC<0.175054] yes=31,no=32,missing=32
					31:[D_KEYWORD_MICRO_MEAN_COEC<0.122492] yes=61,no=62,missing=62
						61:[WORD_COUNT<799] yes=121,no=122,missing=122
							121:leaf=-0.0191107
							122:leaf=0.0169425
						62:[TIME_OF_DAY<17] yes=123,no=124,missing=124
							123:leaf=-0.00201419
							124:leaf=0.0232631
					32:[C_D_U_TITLEMD5_CATEGORY_MACRO_MEAN_COEC<0.182661] yes=63,no=64,missing=64
						63:[C_D_U_TITLEMD5_CATEGORY_MICRO_MAX_COEC<0.280209] yes=125,no=126,missing=126
							125:leaf=-0.00286867
							126:leaf=-0.0216382
						64:[C_D_U_TITLEMD5_GENDER_COEC<0.2785] yes=127,no=128,missing=128
							127:leaf=0.00706236
							128:leaf=-0.00341132
booster[62]:
0:[U_KW_LEN<200] yes=1,no=2,missing=1
	1:leaf=0.0
	2:[U_CAT_LEN<19] yes=3,no=4,missing=4
		3:[C_D_U_CATEGORY_CITY_MACRO_MEAN_COEC<0.104525] yes=5,no=6,missing=6
			5:[D_CATEGORY_MICRO_MEAN_COEC<0.096656] yes=9,no=10,missing=10
				9:[D_KEYWORD_MICRO_MEAN_COEC<0.0792311] yes=17,no=18,missing=18
					17:[U_GENDER<2] yes=33,no=34,missing=33
						33:[C_D_U_TITLEMD5_GENDER_COEC<0.19078] yes=65,no=66,missing=65
							65:leaf=-0.000621388
							66:leaf=-0.0163012
						34:[C_D_U_CATEGORY_GENDER_MICRO_MEAN_COEC<0.0741496] yes=67,no=68,missing=68
							67:leaf=-0.01524
							68:leaf=0.00660984
					18:[DAY_OF_WEEK<4] yes=35,no=36,missing=36
						35:[KW_REL<0.000531104] yes=69,no=70,missing=70
							69:leaf=-0.00141221
							70:leaf=0.00542068
						36:[CAT_REL<0.376405] yes=71,no=72,missing=72
							71:leaf=-0.00351395
							72:leaf=0.00624204
				10:[C_D_U_TITLEMD5_CATEGORY_MACRO_MEAN_COEC<0.173208] yes=19,no=20,missing=20
					19:[CAT_REL<0.622769] yes=37,no=38,missing=38
						37:[WORD_COUNT<6181] yes=73,no=74,missing=74
							73:leaf=-0.00768843
							74:leaf=0.0114345
						38:[U_GENDER<2] yes=75,no=76,missing=76
							75:leaf=-0.0130344
							76:leaf=0.00736516
					20:[C_D_U_TITLEMD5_GENDER_COEC<0.27218] yes=39,no=40,missing=40
						39:[CAT_REL<0.141872] yes=77,no=78,missing=78
							77:leaf=-0.0104164
							78:leaf=0.00603902
						40:[CAT_REL<0.091286] yes=79,no=80,missing=80
							79:leaf=-0.1305
							80:leaf=-0.0173598
			6:[TIME_OF_DAY<8] yes=11,no=12,missing=12
				11:[C_D_U_TITLEMD5_CATEGORY_MACRO_MAX_COEC<0.0100538] yes=21,no=22,missing=22
					21:[IMAGE_COUNT<3] yes=41,no=42,missing=42
						41:[D_KEYWORD_MICRO_MAX_COEC<0.135966] yes=81,no=82,missing=82
							81:leaf=0.00783291
							82:leaf=0.0786678
						42:[C_D_U_TITLEMD5_AGE_COEC<0.0444533] yes=83,no=84,missing=84
							83:leaf=0.158976
							84:leaf=-0.0585647
					22:[C_D_U_CATEGORY_GENDER_MACRO_MAX_COEC<0.104222] yes=43,no=44,missing=44
						43:[CAT_REL<0.764753] yes=85,no=86,missing=86
							85:leaf=0.000483621
							86:leaf=0.0272207
						44:[C_D_U_CATEGORY_CITY_MICRO_MAX_COEC<0.110033] yes=87,no=88,missing=87
							87:leaf=-0.0151776
							88:leaf=0.00246468
				12:[WORD_COUNT<954] yes=23,no=24,missing=24
					23:[D_TITLEMD5_COEC<0.0399951] yes=45,no=46,missing=46
						45:[D_KEYWORD_MICRO_MAX_COEC<0.092502] yes=89,no=90,missing=90
							89:leaf=0.0156552
							90:leaf=-0.0622755
						46:[C_D_U_TITLEMD5_CATEGORY_MACRO_MAX_COEC<0.0497295] yes=91,no=92,missing=92
							91:leaf=-0.00721969
							92:leaf=0.00483896
					24:[KW_REL<0.00225013] yes=47,no=48,missing=48
						47:[C_D_U_CATEGORY_CITY_MACRO_MEAN_COEC<0.105802] yes=93,no=94,missing=94
							93:leaf=0.0157036
							94:leaf=0.00440759
						48:[D_CATEGORY_MACRO_MAX_COEC<0.10507] yes=95,no=96,missing=95
							95:leaf=0.0112022
							96:leaf=0.0275182
		4:[C_D_U_TITLEMD5_CATEGORY_MACRO_MEAN_COEC<0.101101] yes=7,no=8,missing=8
			7:[C_D_U_TITLEMD5_CATEGORY_MICRO_MEAN_COEC<0.122594] yes=13,no=14,missing=14
				13:[U_CAT_LEN<22] yes=25,no=26,missing=26
					25:[DAY_OF_WEEK<4] yes=49,no=50,missing=50
						49:[C_D_U_PUBLISHER_CITY_COEC<0.131716] yes=97,no=98,missing=97
							97:leaf=0.00477217
							98:leaf=0.0247144
						50:[D_CATEGORY_MACRO_MEAN_COEC<0.0996204] yes=99,no=100,missing=99
							99:leaf=-0.00364048
							100:leaf=0.0700105
					26:[CAT_REL<0.52189] yes=51,no=52,missing=52
						51:[U_GENDER<2] yes=101,no=102,missing=102
							101:leaf=0.0185611
							102:leaf=0.00230364
						52:[U_CAT_LEN<27] yes=103,no=104,missing=104
							103:leaf=0.0418665
							104:leaf=-0.0266864
				14:[C_D_U_TITLEMD5_CATEGORY_MACRO_MAX_COEC<0.0286341] yes=27,no=28,missing=28
					27:[KW_REL<0.00480579] yes=53,no=54,missing=54
						53:[D_KEYWORD_MACRO_MAX_COEC<0.0308347] yes=105,no=106,missing=106
							105:leaf=-0.0788247
							106:leaf=-0.0259887
						54:[WORD_COUNT<3351] yes=107,no=108,missing=108
							107:leaf=0.0262507
							108:leaf=-0.138581
					28:[D_CATEGORY_MACRO_MEAN_COEC<0.0592128] yes=55,no=56,missing=56
						55:[C_D_U_TITLEMD5_CATEGORY_MACRO_MAX_COEC<0.0741611] yes=109,no=110,missing=110
							109:leaf=-0.161277
							110:leaf=0.0674596
						56:[U_CAT_LEN<26] yes=111,no=112,missing=112
							111:leaf=-0.00710783
							112:leaf=-0.0475197
			8:[D_KEYWORD_MICRO_MEAN_COEC<0.126643] yes=15,no=16,missing=16
				15:[C_D_U_TITLEMD5_AGE_COEC<0.0378306] yes=29,no=30,missing=30
					29:[KW_REL<0.000644615] yes=57,no=58,missing=58
						57:[C_D_U_TITLEMD5_CATEGORY_MACRO_MEAN_COEC<0.123924] yes=113,no=114,missing=114
							113:leaf=-0.157391
							114:leaf=-0.0399893
						58:[C_D_U_PUBLISHER_CITY_COEC<0.158111] yes=115,no=116,missing=115
							115:leaf=-0.0131644
							116:leaf=0.0829642
					30:[TIME_OF_DAY<14] yes=59,no=60,missing=60
						59:[D_KEYWORD_MACRO_MAX_COEC<0.0299243] yes=117,no=118,missing=118
							117:leaf=0.0121097
							118:leaf=0.00311298
						60:[CAT_REL<0.02022] yes=119,no=120,missing=120
							119:leaf=-0.00576318
							120:leaf=0.0197797
				16:[C_D_U_TITLEMD5_CATEGORY_MACRO_MEAN_COEC<0.160444] yes=31,no=32,missing=32
					31:[D_KEYWORD_MICRO_MAX_COEC<0.135966] yes=61,no=62,missing=62
						61:[D_TITLEMD5_COEC<0.108361] yes=121,no=122,missing=122
							121:leaf=-0.0469129
							122:leaf=0.0648056
						62:[D_KEYWORD_MACRO_MAX_COEC<0.0267614] yes=123,no=124,missing=124
							123:leaf=-0.253662
							124:leaf=-0.0182514
					32:[C_D_U_PUBLISHER_GENDER_COEC<0.0712201] yes=63,no=64,missing=64
						63:[TIME_OF_DAY<17] yes=125,no=126,missing=126
							125:leaf=-0.253811
							126:leaf=-0.066896
						64:[D_CATEGORY_MICRO_MAX_COEC<0.0763644] yes=127,no=128,missing=127
							127:leaf=0.048583
							128:leaf=0.00491213
booster[63]:
0:[U_KW_LEN<200] yes=1,no=2,missing=1
	1:leaf=0.0
	2:[C_D_U_TITLEMD5_CATEGORY_MACRO_MEAN_COEC<0.169152] yes=3,no=4,missing=4
		3:[C_D_U_TITLEMD5_CATEGORY_MICRO_MAX_COEC<0.309932] yes=5,no=6,missing=6
			5:[D_TITLEMD5_COEC<0.168786] yes=9,no=10,missing=9
				9:[C_D_U_TITLEMD5_CATEGORY_MACRO_MEAN_COEC<0.124462] yes=17,no=18,missing=18
					17:[D_TITLEMD5_COEC<0.113671] yes=33,no=34,missing=33
						33:[C_D_U_TITLEMD5_CATEGORY_MACRO_MEAN_COEC<0.0901291] yes=65,no=66,missing=66
							65:leaf=-0.00114108
							66:leaf=0.00433013
						34:[C_D_U_TITLEMD5_CATEGORY_MACRO_MEAN_COEC<0.109048] yes=67,no=68,missing=68
							67:leaf=-0.00890621
							68:leaf=-0.00183802
					18:[D_TITLEMD5_COEC<0.138251] yes=35,no=36,missing=36
						35:[C_D_U_TITLEMD5_CATEGORY_MACRO_MAX_COEC<0.0832633] yes=69,no=70,missing=70
							69:leaf=0.0120363
							70:leaf=0.00183108
						36:[WORD_COUNT<1240] yes=71,no=72,missing=72
							71:leaf=-0.00492436
							72:leaf=0.00369957
				10:[C_D_U_TITLEMD5_CATEGORY_MACRO_MAX_COEC<0.0948653] yes=19,no=20,missing=20
					19:[KW_REL<0.000672569] yes=37,no=38,missing=38
						37:[DAY_OF_WEEK<2] yes=73,no=74,missing=74
							73:leaf=0.00597205
							74:leaf=-0.00646912
						38:[C_D_U_TITLEMD5_CATEGORY_MACRO_MEAN_COEC<0.152282] yes=75,no=76,missing=76
							75:leaf=-0.0197065
							76:leaf=-0.00638352
					20:[C_D_U_TITLEMD5_CATEGORY_MICRO_MEAN_COEC<0.193014] yes=39,no=40,missing=40
						39:[C_D_U_CATEGORY_AGE_MACRO_MEAN_COEC<0.0641908] yes=77,no=78,missing=78
							77:leaf=-0.099079
							78:leaf=-0.0334257
						40:[C_D_U_PUBLISHER_CITY_COEC<0.0843838] yes=79,no=80,missing=79
							79:leaf=-0.0330136
							80:leaf=-0.00213337
			6:[D_TITLEMD5_COEC<0.0643109] yes=11,no=12,missing=12
				11:[CAT_REL<0.785795] yes=21,no=22,missing=22
					21:[D_KEYWORD_MACRO_MAX_COEC<0.0131007] yes=41,no=42,missing=42
						41:[D_PUBLISHER_COEC<0.0938514] yes=81,no=82,missing=82
							81:leaf=-0.0455601
							82:leaf=0.0666119
						42:[TIME_OF_DAY<20] yes=83,no=84,missing=84
							83:leaf=-0.0787496
							84:leaf=0.0423139
					22:[C_D_U_TITLEMD5_CATEGORY_MACRO_MEAN_COEC<0.0926538] yes=43,no=44,missing=44
						43:[C_D_U_TITLEMD5_CATEGORY_MICRO_MEAN_COEC<0.0825632] yes=85,no=86,missing=86
							85:leaf=0.0129565
							86:leaf=0.158374
						44:leaf=-0.203031
				12:[CAT_REL<0.56721] yes=23,no=24,missing=24
					23:[IMAGE_COUNT<0.999999] yes=45,no=46,missing=46
						45:[D_KEYWORD_MICRO_MAX_COEC<0.102375] yes=87,no=88,missing=88
							87:leaf=-0.0339134
							88:leaf=-0.118374
						46:[D_KEYWORD_MICRO_MEAN_COEC<0.104658] yes=89,no=90,missing=90
							89:leaf=-0.0213281
							90:leaf=0.00252741
					24:[D_KEYWORD_MACRO_MEAN_COEC<0.0991367] yes=47,no=48,missing=48
						47:[TIME_OF_DAY<7] yes=91,no=92,missing=92
							91:leaf=-0.0279361
							92:leaf=0.00950527
						48:[C_D_U_CATEGORY_CITY_MACRO_MAX_COEC<0.121253] yes=93,no=94,missing=94
							93:leaf=0.0554277
							94:leaf=-0.0939727
		4:[C_D_U_TITLEMD5_GENDER_COEC<0.279329] yes=7,no=8,missing=8
			7:[D_PUBLISHER_COEC<0.112039] yes=13,no=14,missing=14
				13:[KW_REL<0.00148128] yes=25,no=26,missing=26
					25:[D_KEYWORD_MACRO_MEAN_COEC<0.106339] yes=49,no=50,missing=50
						49:[C_D_U_CATEGORY_GENDER_MICRO_MAX_COEC<0.078224] yes=95,no=96,missing=96
							95:leaf=0.00669608
							96:leaf=-0.0104015
						50:[DAY_OF_WEEK<2] yes=97,no=98,missing=98
							97:leaf=0.0225684
							98:leaf=0.00439483
					26:[C_D_U_TITLEMD5_GENDER_COEC<0.111922] yes=51,no=52,missing=52
						51:[D_CATEGORY_MACRO_MEAN_COEC<0.0788508] yes=99,no=100,missing=99
							99:leaf=0.0106009
							100:leaf=-0.019434
						52:[WORD_COUNT<807] yes=101,no=102,missing=102
							101:leaf=-0.00675356
							102:leaf=0.0204713
				14:[DAY_OF_WEEK<6] yes=27,no=28,missing=28
					27:[D_KEYWORD_MACRO_MEAN_COEC<0.135928] yes=53,no=54,missing=54
						53:[KW_REL<0.00160127] yes=103,no=104,missing=104
							103:leaf=0.00612081
							104:leaf=0.0187688
						54:[D_CATEGORY_MICRO_MEAN_COEC<0.0777235] yes=105,no=106,missing=106
							105:leaf=-0.022316
							106:leaf=0.00121594
					28:[KW_REL<0.000192165] yes=55,no=56,missing=56
						55:[D_KEYWORD_MACRO_MAX_COEC<0.03852] yes=107,no=108,missing=108
							107:leaf=-0.122742
							108:leaf=-0.0465029
						56:[CAT_REL<0.136157] yes=109,no=110,missing=110
							109:leaf=-0.0347087
							110:leaf=-0.00592203
			8:[D_KEYWORD_MACRO_MEAN_COEC<0.150306] yes=15,no=16,missing=16
				15:[D_CATEGORY_MICRO_MAX_COEC<0.0766117] yes=29,no=30,missing=30
					29:[CAT_REL<0.05663] yes=57,no=58,missing=58
						57:[C_D_U_TITLEMD5_CATEGORY_MICRO_MEAN_COEC<0.193014] yes=111,no=112,missing=112
							111:leaf=0.0371323
							112:leaf=-0.0798762
						58:[C_D_U_TITLEMD5_AGE_COEC<0.229553] yes=113,no=114,missing=113
							113:leaf=0.0188982
							114:leaf=-0.00521846
					30:[D_KEYWORD_MICRO_MEAN_COEC<0.0889271] yes=59,no=60,missing=60
						59:[D_PUBLISHER_COEC<0.0650535] yes=115,no=116,missing=116
							115:leaf=-0.0156412
							116:leaf=-0.0444241
						60:[D_CATEGORY_MICRO_MAX_COEC<0.100071] yes=117,no=118,missing=118
							117:leaf=-0.00248586
							118:leaf=-0.0340834
				16:[WORD_COUNT<2158] yes=31,no=32,missing=32
					31:[D_CATEGORY_MICRO_MEAN_COEC<0.0764528] yes=61,no=62,missing=62
						61:[WORD_COUNT<1766] yes=119,no=120,missing=120
							119:leaf=-0.0569884
							120:leaf=0.0574377
						62:[CAT_REL<0.085704] yes=121,no=122,missing=122
							121:leaf=-0.0335933
							122:leaf=0.0231871
					32:[C_D_U_CATEGORY_AGE_MACRO_MAX_COEC<0.0900045] yes=63,no=64,missing=64
						63:[C_D_U_TITLEMD5_CATEGORY_MACRO_MAX_COEC<0.110347] yes=123,no=124,missing=124
							123:leaf=0.0534344
							124:leaf=-0.151796
						64:[KW_REL<0.00291642] yes=125,no=126,missing=126
							125:leaf=-0.0545738
							126:leaf=0.0983186
booster[64]:
0:[U_KW_LEN<200] yes=1,no=2,missing=1
	1:leaf=0.0
	2:[IMAGE_COUNT<0.999999] yes=3,no=4,missing=4
		3:[KW_REL<0.0171703] yes=5,no=6,missing=6
			5:[D_KEYWORD_MICRO_MAX_COEC<0.111789] yes=9,no=10,missing=10
				9:[KW_REL<0.00223657] yes=17,no=18,missing=18
					17:[C_D_U_PUBLISHER_CITY_COEC<0.0785235] yes=33,no=34,missing=33
						33:[C_D_U_TITLEMD5_AGE_COEC<0.163394] yes=65,no=66,missing=65
							65:leaf=-0.0857695
							66:leaf=-0.00667155
						34:[D_CATEGORY_MACRO_MEAN_COEC<0.0679313] yes=67,no=68,missing=68
							67:leaf=-0.073592
							68:leaf=-0.0205141
					18:[TIME_OF_DAY<14] yes=35,no=36,missing=36
						35:[TIME_OF_DAY<8] yes=69,no=70,missing=70
							69:leaf=-0.0409145
							70:leaf=-0.00629072
						36:[C_D_U_CATEGORY_CITY_MACRO_MEAN_COEC<0.0646575] yes=71,no=72,missing=72
							71:leaf=-0.079251
							72:leaf=-0.0332093
				10:[D_TITLEMD5_COEC<0.146041] yes=19,no=20,missing=20
					19:[DAY_OF_WEEK<0.999999] yes=37,no=38,missing=38
						37:[C_D_U_TITLEMD5_CATEGORY_MICRO_MAX_COEC<0.143072] yes=73,no=74,missing=74
							73:leaf=0.0318051
							74:leaf=-0.0324466
						38:[CAT_REL<0.118172] yes=75,no=76,missing=76
							75:leaf=-0.0397694
							76:leaf=-0.00869624
					20:[KW_REL<0.00311894] yes=39,no=40,missing=40
						39:[C_D_U_TITLEMD5_CATEGORY_MICRO_MAX_COEC<0.227922] yes=77,no=78,missing=78
							77:leaf=-0.0435418
							78:leaf=-0.0960601
						40:[C_D_U_CATEGORY_AGE_MICRO_MAX_COEC<0.0707625] yes=79,no=80,missing=80
							79:leaf=0.0080875
							80:leaf=-0.0442359
			6:[CAT_REL<0.060279] yes=11,no=12,missing=12
				11:[U_CAT_LEN<19] yes=21,no=22,missing=22
					21:[C_D_U_PUBLISHER_AGE_COEC<0.0986391] yes=41,no=42,missing=41
						41:[CAT_REL<0.044106] yes=81,no=82,missing=82
							81:leaf=-0.125526
							82:leaf=-0.0453647
						42:[C_D_U_CATEGORY_GENDER_MACRO_MEAN_COEC<0.0638413] yes=83,no=84,missing=83
							83:leaf=0.100195
							84:leaf=0.00941699
					22:[C_D_U_TITLEMD5_GENDER_COEC<0.0719834] yes=43,no=44,missing=44
						43:[C_D_U_CATEGORY_CITY_MICRO_MAX_COEC<0.0673328] yes=85,no=86,missing=86
							85:leaf=-0.0239136
							86:leaf=0.239423
						44:leaf=-0.152387
				12:[D_TITLEMD5_COEC<2.2205] yes=23,no=24,missing=24
					23:[C_D_U_TITLEMD5_GENDER_COEC<0.0973956] yes=45,no=46,missing=46
						45:[C_D_U_CATEGORY_AGE_MACRO_MAX_COEC<0.0897802] yes=87,no=88,missing=88
							87:leaf=-0.000402728
							88:leaf=0.133014
						46:[C_D_U_TITLEMD5_CATEGORY_MACRO_MAX_COEC<0.0348916] yes=89,no=90,missing=90
							89:leaf=0.0555654
							90:leaf=0.0145579
					24:[C_D_U_CATEGORY_GENDER_MICRO_MAX_COEC<0.0641079] yes=47,no=48,missing=48
						47:leaf=-0.1392
						48:[D_KEYWORD_MICRO_MAX_COEC<0.0939282] yes=91,no=92,missing=92
							91:leaf=0.0134024
							92:leaf=-0.11366
		4:[U_CAT_LEN<8] yes=7,no=8,missing=8
			7:[TIME_OF_DAY<18] yes=13,no=14,missing=14
				13:[C_D_U_CATEGORY_GENDER_MICRO_MAX_COEC<0.0984354] yes=25,no=26,missing=26
					25:[D_CATEGORY_MACRO_MAX_COEC<0.0915984] yes=49,no=50,missing=50
						49:[C_D_U_CATEGORY_CITY_MICRO_MEAN_COEC<0.0811174] yes=93,no=94,missing=94
							93:leaf=-0.00612411
							94:leaf=-0.000542444
						50:[TIME_OF_DAY<12] yes=95,no=96,missing=96
							95:leaf=-0.00734535
							96:leaf=-0.0188308
					26:[C_D_U_TITLEMD5_AGE_COEC<0.0384219] yes=51,no=52,missing=51
						51:[C_D_U_CATEGORY_AGE_MACRO_MEAN_COEC<0.101329] yes=97,no=98,missing=98
							97:leaf=-0.00777004
							98:leaf=-0.0402224
						52:[D_CATEGORY_MACRO_MAX_COEC<0.0971818] yes=99,no=100,missing=100
							99:leaf=0.014265
							100:leaf=-0.000277939
				14:[C_D_U_CATEGORY_GENDER_MICRO_MEAN_COEC<0.109683] yes=27,no=28,missing=27
					27:[C_D_U_CATEGORY_GENDER_MICRO_MEAN_COEC<0.0720597] yes=53,no=54,missing=53
						53:[D_CATEGORY_MICRO_MAX_COEC<0.0688946] yes=101,no=102,missing=102
							101:leaf=0.00453966
							102:leaf=-0.0262148
						54:[U_CAT_LEN<7] yes=103,no=104,missing=104
							103:leaf=0.000485677
							104:leaf=0.0131033
					28:[CAT_REL<0.629799] yes=55,no=56,missing=56
						55:[C_D_U_PUBLISHER_CITY_COEC<0.0826256] yes=105,no=106,missing=105
							105:leaf=-0.0261325
							106:leaf=0.0344479
						56:[KW_REL<0.0045348] yes=107,no=108,missing=108
							107:leaf=0.0762484
							108:leaf=-0.0576128
			8:[CAT_REL<0.009577] yes=15,no=16,missing=16
				15:[C_D_U_CATEGORY_CITY_MACRO_MEAN_COEC<0.049603] yes=29,no=30,missing=29
					29:[D_KEYWORD_MACRO_MEAN_COEC<0.0485241] yes=57,no=58,missing=58
						57:[D_KEYWORD_MACRO_MAX_COEC<0.0181044] yes=109,no=110,missing=110
							109:leaf=-0.0299479
							110:leaf=0.0522933
						58:[D_CATEGORY_MICRO_MAX_COEC<0.036706] yes=111,no=112,missing=111
							111:leaf=0.0098368
							112:leaf=-0.00613404
					30:[C_D_U_TITLEMD5_CATEGORY_MICRO_MAX_COEC<0.131161] yes=59,no=60,missing=60
						59:[C_D_U_TITLEMD5_CATEGORY_MACRO_MAX_COEC<0.0368519] yes=113,no=114,missing=114
							113:leaf=-0.0157405
							114:leaf=-0.04112
						60:[C_D_U_TITLEMD5_CATEGORY_MACRO_MAX_COEC<0.0638727] yes=115,no=116,missing=116
							115:leaf=-0.0040826
							116:leaf=-0.0221448
				16:[D_CATEGORY_MACRO_MEAN_COEC<0.0399735] yes=31,no=32,missing=32
					31:[C_D_U_PUBLISHER_AGE_COEC<0.0709127] yes=61,no=62,missing=62
						61:[KW_REL<0.0116553] yes=117,no=118,missing=118
							117:leaf=0.0127796
							118:leaf=0.0616242
						62:[C_D_U_CATEGORY_CITY_MACRO_MAX_COEC<0.0282967] yes=119,no=120,missing=120
							119:leaf=0.0087511
							120:leaf=0.0473741
					32:[KW_REL<0.0315949] yes=63,no=64,missing=64
						63:[C_D_U_TITLEMD5_CATEGORY_MACRO_MEAN_COEC<0.108156] yes=121,no=122,missing=122
							121:leaf=-0.000510324
							122:leaf=0.00279707
						64:[D_KEYWORD_MACRO_MAX_COEC<0.019646] yes=123,no=124,missing=124
							123:leaf=0.0279475
							124:leaf=0.00731107
booster[65]:
0:[U_KW_LEN<200] yes=1,no=2,missing=1
	1:leaf=0.0
	2:[U_CAT_LEN<12] yes=3,no=4,missing=4
		3:[D_CATEGORY_MICRO_MAX_COEC<0.0680412] yes=5,no=6,missing=5
			5:[CAT_REL<0.593687] yes=9,no=10,missing=10
				9:[CAT_REL<0.085857] yes=17,no=18,missing=18
					17:[TIME_OF_DAY<3] yes=33,no=34,missing=34
						33:[D_CATEGORY_MACRO_MAX_COEC<0.0648243] yes=65,no=66,missing=65
							65:leaf=0.0200057
							66:leaf=-0.00178685
						34:[D_KEYWORD_MICRO_MEAN_COEC<0.0713766] yes=67,no=68,missing=68
							67:leaf=-0.010218
							68:leaf=-0.000500549
					18:[DAY_OF_WEEK<4] yes=35,no=36,missing=36
						35:[C_D_U_TITLEMD5_GENDER_COEC<0.161226] yes=69,no=70,missing=70
							69:leaf=0.0165975
							70:leaf=-0.0128546
						36:[C_D_U_CATEGORY_CITY_MICRO_MAX_COEC<0.0725614] yes=71,no=72,missing=72
							71:leaf=0.00142784
							72:leaf=0.017902
				10:[KW_REL<0.00594059] yes=19,no=20,missing=20
					19:[U_CAT_LEN<5] yes=37,no=38,missing=38
						37:[D_CATEGORY_MICRO_MAX_COEC<0.0658965] yes=73,no=74,missing=74
							73:leaf=0.0406207
							74:leaf=-0.0338319
						38:[C_D_U_TITLEMD5_CATEGORY_MACRO_MEAN_COEC<0.123749] yes=75,no=76,missing=76
							75:leaf=-0.0365178
							76:leaf=-0.0101575
					20:[WORD_COUNT<4890] yes=39,no=40,missing=40
						39:[C_D_U_CATEGORY_AGE_MACRO_MAX_COEC<0.0643962] yes=77,no=78,missing=78
							77:leaf=0.0055343
							78:leaf=-0.0131523
						40:[D_CATEGORY_MACRO_MEAN_COEC<0.059121] yes=79,no=80,missing=80
							79:leaf=-0.0985976
							80:leaf=0.0289137
			6:[CAT_REL<0.555999] yes=11,no=12,missing=12
				11:[C_D_U_CATEGORY_GENDER_MICRO_MAX_COEC<0.0718136] yes=21,no=22,missing=22
					21:[U_GENDER<2] yes=41,no=42,missing=41
						41:[C_D_U_CATEGORY_CITY_MACRO_MEAN_COEC<0.0776458] yes=81,no=82,missing=82
							81:leaf=-0.00754796
							82:leaf=0.00957185
						42:[U_CAT_LEN<11] yes=83,no=84,missing=84
							83:leaf=-0.0141593
							84:leaf=-0.0339119
					22:[U_GENDER<2] yes=43,no=44,missing=43
						43:[C_D_U_CATEGORY_GENDER_MICRO_MAX_COEC<0.0803505] yes=85,no=86,missing=86
							85:leaf=0.000782952
							86:leaf=-0.00427207
						44:[C_D_U_CATEGORY_GENDER_MICRO_MEAN_COEC<0.0741749] yes=87,no=88,missing=88
							87:leaf=-0.0215803
							88:leaf=0.00815745
				12:[C_D_U_CATEGORY_CITY_MICRO_MAX_COEC<0.0506208] yes=23,no=24,missing=24
					23:[D_TITLEMD5_COEC<0.0827504] yes=45,no=46,missing=45
						45:[TIME_OF_DAY<16] yes=89,no=90,missing=90
							89:leaf=-0.0704835
							90:leaf=0.0162881
						46:[C_D_U_PUBLISHER_CITY_COEC<0.102483] yes=91,no=92,missing=92
							91:leaf=-0.0287763
							92:leaf=0.0224727
					24:[C_D_U_CATEGORY_AGE_MACRO_MEAN_COEC<0.0932602] yes=47,no=48,missing=48
						47:[DAY_OF_WEEK<0.999999] yes=93,no=94,missing=94
							93:leaf=-0.008969
							94:leaf=0.00972093
						48:[CAT_REL<0.764753] yes=95,no=96,missing=96
							95:leaf=-0.00531731
							96:leaf=0.00803332
		4:[KW_REL<0.0214867] yes=7,no=8,missing=8
			7:[CAT_REL<0.069638] yes=13,no=14,missing=14
				13:[DAY_OF_WEEK<3] yes=25,no=26,missing=26
					25:[D_CATEGORY_MICRO_MAX_COEC<0.0680412] yes=49,no=50,missing=49
						49:[D_KEYWORD_MACRO_MEAN_COEC<0.0391875] yes=97,no=98,missing=98
							97:leaf=-0.0341169
							98:leaf=0.0183308
						50:[D_CATEGORY_MACRO_MEAN_COEC<0.0725298] yes=99,no=100,missing=100
							99:leaf=-0.0188789
							100:leaf=0.00464383
					26:[C_D_U_CATEGORY_GENDER_MACRO_MAX_COEC<0.0968867] yes=51,no=52,missing=52
						51:[D_CATEGORY_MACRO_MEAN_COEC<0.0398507] yes=101,no=102,missing=102
							101:leaf=0.0137032
							102:leaf=-0.0129857
						52:[WORD_COUNT<1348] yes=103,no=104,missing=104
							103:leaf=0.0515909
							104:leaf=0.0005407
				14:[WORD_COUNT<723] yes=27,no=28,missing=28
					27:[D_KEYWORD_MICRO_MEAN_COEC<0.114567] yes=53,no=54,missing=54
						53:[KW_REL<0.00375698] yes=105,no=106,missing=106
							105:leaf=-0.0116058
							106:leaf=-0.00178242
						54:[KW_REL<0.000873466] yes=107,no=108,missing=108
							107:leaf=0.0116884
							108:leaf=-0.0181844
					28:[TIME_OF_DAY<11] yes=55,no=56,missing=56
						55:[C_D_U_CATEGORY_AGE_MACRO_MAX_COEC<0.0315478] yes=109,no=110,missing=110
							109:leaf=0.0353489
							110:leaf=1.02824e-06
						56:[C_D_U_TITLEMD5_AGE_COEC<0.0380879] yes=111,no=112,missing=112
							111:leaf=-0.00481398
							112:leaf=0.00501258
			8:[D_KEYWORD_MACRO_MAX_COEC<0.0154729] yes=15,no=16,missing=16
				15:[D_CATEGORY_MACRO_MAX_COEC<0.0556856] yes=29,no=30,missing=30
					29:[C_D_U_CATEGORY_CITY_MACRO_MEAN_COEC<0.0626543] yes=57,no=58,missing=58
						57:[CAT_REL<0.01936] yes=113,no=114,missing=114
							113:leaf=-0.0976996
							114:leaf=0.108505
						58:[CAT_REL<0.01936] yes=115,no=116,missing=116
							115:leaf=0.242089
							116:leaf=-0.0122897
					30:[D_TITLEMD5_COEC<0.0970057] yes=59,no=60,missing=60
						59:[DAY_OF_WEEK<4] yes=117,no=118,missing=118
							117:leaf=0.0309031
							118:leaf=0.0070061
						60:[C_D_U_TITLEMD5_CATEGORY_MACRO_MAX_COEC<0.0327471] yes=119,no=120,missing=120
							119:leaf=0.0658085
							120:leaf=0.0294049
				16:[D_CATEGORY_MICRO_MEAN_COEC<0.0774968] yes=31,no=32,missing=31
					31:[D_CATEGORY_MICRO_MAX_COEC<0.0713578] yes=61,no=62,missing=61
						61:[D_KEYWORD_MICRO_MEAN_COEC<0.0637752] yes=121,no=122,missing=122
							121:leaf=-0.0120641
							122:leaf=0.010403
						62:[C_D_U_CATEGORY_CITY_MICRO_MEAN_COEC<0.0593412] yes=123,no=124,missing=124
							123:leaf=-0.0451542
							124:leaf=0.025586
					32:[C_D_U_CATEGORY_AGE_MICRO_MEAN_COEC<0.0737774] yes=63,no=64,missing=64
						63:[C_D_U_TITLEMD5_CATEGORY_MICRO_MEAN_COEC<0.176085] yes=125,no=126,missing=126
							125:leaf=-0.123299
							126:leaf=0.0339226
						64:[D_KEYWORD_MACRO_MEAN_COEC<0.0601096] yes=127,no=128,missing=128
							127:leaf=-0.0405501
							128:leaf=6.12152e-05
booster[66]:
0:[U_KW_LEN<200] yes=1,no=2,missing=1
	1:leaf=0.0
	2:[C_D_U_TITLEMD5_CATEGORY_MACRO_MEAN_COEC<0.137223] yes=3,no=4,missing=4
		3:[C_D_U_TITLEMD5_AGE_COEC<0.155539] yes=5,no=6,missing=5
			5:[TIME_OF_DAY<0.999999] yes=9,no=10,missing=10
				9:[C_D_U_TITLEMD5_CATEGORY_MICRO_MAX_COEC<0.0449588] yes=17,no=18,missing=18
					17:[D_KEYWORD_MACRO_MEAN_COEC<0.0608026] yes=33,no=34,missing=34
						33:[C_D_U_CATEGORY_CITY_MICRO_MAX_COEC<0.0603859] yes=65,no=66,missing=66
							65:leaf=0.0882125
							66:leaf=-0.0109039
						34:[D_PUBLISHER_COEC<0.055658] yes=67,no=68,missing=67
							67:leaf=-0.0105377
							68:leaf=0.0955373
					18:[D_CATEGORY_MICRO_MAX_COEC<0.0635734] yes=35,no=36,missing=35
						35:[CAT_REL<0.141872] yes=69,no=70,missing=70
							69:leaf=0.045926
							70:leaf=0.0114479
						36:[C_D_U_CATEGORY_CITY_MICRO_MAX_COEC<0.0498165] yes=71,no=72,missing=72
							71:leaf=-0.046451
							72:leaf=0.00791167
				10:[U_CAT_LEN<8] yes=19,no=20,missing=20
					19:[C_D_U_CATEGORY_CITY_MICRO_MAX_COEC<0.0882731] yes=37,no=38,missing=38
						37:[IMAGE_COUNT<2] yes=73,no=74,missing=74
							73:leaf=-0.00749954
							74:leaf=0.00713671
						38:[TIME_OF_DAY<20] yes=75,no=76,missing=76
							75:leaf=-0.000406929
							76:leaf=0.0274903
					20:[D_CATEGORY_MICRO_MEAN_COEC<0.096809] yes=39,no=40,missing=39
						39:[CAT_REL<0.117515] yes=77,no=78,missing=78
							77:leaf=-0.00219918
							78:leaf=0.00200557
						40:[D_KEYWORD_MACRO_MAX_COEC<0.0434189] yes=79,no=80,missing=80
							79:leaf=-0.00199852
							80:leaf=-0.0137779
			6:[D_KEYWORD_MACRO_MEAN_COEC<0.0694261] yes=11,no=12,missing=12
				11:[C_D_U_TITLEMD5_CATEGORY_MACRO_MEAN_COEC<0.0642678] yes=21,no=22,missing=22
					21:[CAT_REL<0.486831] yes=41,no=42,missing=42
						41:[C_D_U_TITLEMD5_CATEGORY_MICRO_MEAN_COEC<0.094619] yes=81,no=82,missing=82
							81:leaf=0.0288847
							82:leaf=-0.0143261
						42:[C_D_U_TITLEMD5_CATEGORY_MICRO_MEAN_COEC<0.0625341] yes=83,no=84,missing=84
							83:leaf=-0.086776
							84:leaf=0.00525822
					22:[C_D_U_CATEGORY_AGE_MICRO_MEAN_COEC<0.0838245] yes=43,no=44,missing=44
						43:[D_TITLEMD5_COEC<0.0755089] yes=85,no=86,missing=86
							85:leaf=-0.0714923
							86:leaf=-0.0164455
						44:[D_PUBLISHER_COEC<0.0645665] yes=87,no=88,missing=88
							87:leaf=-0.0663717
							88:leaf=-0.0325699
				12:[D_TITLEMD5_COEC<0.15781] yes=23,no=24,missing=24
					23:[C_D_U_CATEGORY_AGE_MACRO_MEAN_COEC<0.100437] yes=45,no=46,missing=46
						45:[C_D_U_TITLEMD5_CATEGORY_MICRO_MEAN_COEC<0.194179] yes=89,no=90,missing=90
							89:leaf=-0.000938471
							90:leaf=-0.0741739
						46:[C_D_U_CATEGORY_CITY_MACRO_MAX_COEC<0.0857965] yes=91,no=92,missing=91
							91:leaf=-0.0799194
							92:leaf=-0.016298
					24:[C_D_U_CATEGORY_CITY_MICRO_MAX_COEC<0.0923335] yes=47,no=48,missing=48
						47:[KW_REL<0.00374856] yes=93,no=94,missing=94
							93:leaf=-0.0271407
							94:leaf=0.0050764
						48:[C_D_U_CATEGORY_AGE_MACRO_MAX_COEC<0.10164] yes=95,no=96,missing=95
							95:leaf=0.00191627
							96:leaf=-0.0152113
		4:[D_TITLEMD5_COEC<0.154434] yes=7,no=8,missing=8
			7:[C_D_U_TITLEMD5_AGE_COEC<0.189231] yes=13,no=14,missing=14
				13:[D_CATEGORY_MICRO_MAX_COEC<0.0933182] yes=25,no=26,missing=26
					25:[WORD_COUNT<1203] yes=49,no=50,missing=50
						49:[D_TITLEMD5_COEC<0.137564] yes=97,no=98,missing=98
							97:leaf=0.0149048
							98:leaf=-0.00359114
						50:[C_D_U_TITLEMD5_CATEGORY_MICRO_MEAN_COEC<0.157421] yes=99,no=100,missing=100
							99:leaf=0.0081134
							100:leaf=0.0193351
					26:[D_PUBLISHER_COEC<0.111524] yes=51,no=52,missing=52
						51:[D_KEYWORD_MACRO_MEAN_COEC<0.0780672] yes=101,no=102,missing=102
							101:leaf=-0.0251217
							102:leaf=0.00632866
						52:[D_KEYWORD_MICRO_MEAN_COEC<0.109561] yes=103,no=104,missing=104
							103:leaf=0.00255259
							104:leaf=-0.029477
				14:[C_D_U_TITLEMD5_GENDER_COEC<0.191672] yes=27,no=28,missing=27
					27:[D_PUBLISHER_COEC<0.110122] yes=53,no=54,missing=54
						53:[C_D_U_CATEGORY_GENDER_MACRO_MAX_COEC<0.0728941] yes=105,no=106,missing=105
							105:leaf=-0.0321626
							106:leaf=0.00546354
						54:[C_D_U_PUBLISHER_CITY_COEC<0.122531] yes=107,no=108,missing=107
							107:leaf=-0.159796
							108:leaf=-0.019073
					28:[C_D_U_TITLEMD5_CATEGORY_MACRO_MAX_COEC<0.0640892] yes=55,no=56,missing=56
						55:[C_D_U_CATEGORY_CITY_MACRO_MAX_COEC<0.0772957] yes=109,no=110,missing=110
							109:leaf=0.0167832
							110:leaf=-0.0404274
						56:[D_KEYWORD_MICRO_MAX_COEC<0.159402] yes=111,no=112,missing=112
							111:leaf=-0.0406121
							112:leaf=-0.115597
			8:[C_D_U_TITLEMD5_CATEGORY_MACRO_MEAN_COEC<0.168649] yes=15,no=16,missing=16
				15:[D_TITLEMD5_COEC<0.174672] yes=29,no=30,missing=30
					29:[C_D_U_TITLEMD5_CATEGORY_MICRO_MEAN_COEC<0.16066] yes=57,no=58,missing=58
						57:[D_KEYWORD_MACRO_MAX_COEC<0.0691076] yes=113,no=114,missing=114
							113:leaf=-0.0162584
							114:leaf=-0.130335
						58:[D_PUBLISHER_COEC<0.117263] yes=115,no=116,missing=116
							115:leaf=0.00385461
							116:leaf=-0.00773186
					30:[D_PUBLISHER_COEC<0.169747] yes=59,no=60,missing=60
						59:[DAY_OF_WEEK<6] yes=117,no=118,missing=118
							117:leaf=-0.0100356
							118:leaf=-0.0259703
						60:[KW_REL<0.00136408] yes=119,no=120,missing=120
							119:leaf=0.0123017
							120:leaf=-0.0178353
				16:[DAY_OF_WEEK<0.999999] yes=31,no=32,missing=32
					31:[D_CATEGORY_MICRO_MAX_COEC<0.0769241] yes=61,no=62,missing=62
						61:[D_CATEGORY_MICRO_MAX_COEC<0.0708739] yes=121,no=122,missing=122
							121:leaf=-0.00409405
							122:leaf=0.0356862
						62:[D_KEYWORD_MICRO_MEAN_COEC<0.0868414] yes=123,no=124,missing=124
							123:leaf=-0.0259655
							124:leaf=0.0105458
					32:[WORD_COUNT<1920] yes=63,no=64,missing=64
						63:[C_D_U_CATEGORY_GENDER_MICRO_MAX_COEC<0.0570292] yes=125,no=126,missing=126
							125:leaf=0.0310471
							126:leaf=-0.000295973
						64:[C_D_U_TITLEMD5_AGE_COEC<0.270753] yes=127,no=128,missing=128
							127:leaf=0.0115718
							128:leaf=-0.00840447
booster[67]:
0:[U_KW_LEN<200] yes=1,no=2,missing=1
	1:leaf=0.0
	2:[TIME_OF_DAY<17] yes=3,no=4,missing=4
		3:[TIME_OF_DAY<2] yes=5,no=6,missing=6
			5:[D_CATEGORY_MACRO_MAX_COEC<0.096647] yes=9,no=10,missing=9
				9:[D_KEYWORD_MACRO_MEAN_COEC<0.0659239] yes=17,no=18,missing=18
					17:[C_D_U_CATEGORY_GENDER_MACRO_MEAN_COEC<0.0579651] yes=33,no=34,missing=34
						33:[U_CAT_LEN<15] yes=65,no=66,missing=66
							65:leaf=0.0352238
							66:leaf=-0.00421914
						34:[U_CAT_LEN<26] yes=67,no=68,missing=68
							67:leaf=-0.00388685
							68:leaf=0.132947
					18:[C_D_U_TITLEMD5_CATEGORY_MICRO_MEAN_COEC<0.0504968] yes=35,no=36,missing=36
						35:[DAY_OF_WEEK<4] yes=69,no=70,missing=70
							69:leaf=0.0716931
							70:leaf=-0.0063678
						36:[C_D_U_TITLEMD5_AGE_COEC<0.270839] yes=71,no=72,missing=72
							71:leaf=0.0106536
							72:leaf=-0.0351427
				10:[D_PUBLISHER_COEC<0.0723536] yes=19,no=20,missing=20
					19:[C_D_U_CATEGORY_CITY_MACRO_MAX_COEC<0.0776692] yes=37,no=38,missing=38
						37:[C_D_U_TITLEMD5_GENDER_COEC<0.0780887] yes=73,no=74,missing=74
							73:leaf=0.145159
							74:leaf=0.0187293
						38:[C_D_U_CATEGORY_CITY_MICRO_MEAN_COEC<0.123224] yes=75,no=76,missing=76
							75:leaf=-0.0328902
							76:leaf=0.045602
					20:[WORD_COUNT<7912] yes=39,no=40,missing=40
						39:[D_KEYWORD_MICRO_MAX_COEC<0.200876] yes=77,no=78,missing=78
							77:leaf=-0.00603864
							78:leaf=0.0136888
						40:[C_D_U_TITLEMD5_GENDER_COEC<0.11877] yes=79,no=80,missing=80
							79:leaf=0.0617706
							80:leaf=-0.0427753
			6:[D_PUBLISHER_COEC<0.0319368] yes=11,no=12,missing=11
				11:[KW_REL<0.00791307] yes=21,no=22,missing=22
					21:[C_D_U_CATEGORY_CITY_MACRO_MEAN_COEC<0.109445] yes=41,no=42,missing=42
						41:[C_D_U_TITLEMD5_CATEGORY_MACRO_MAX_COEC<0.0466768] yes=81,no=82,missing=82
							81:leaf=-0.0213945
							82:leaf=-0.0457228
						42:[C_D_U_PUBLISHER_AGE_COEC<0.0313861] yes=83,no=84,missing=83
							83:leaf=0.0331317
							84:leaf=-0.051035
					22:[D_CATEGORY_MACRO_MEAN_COEC<0.0591676] yes=43,no=44,missing=43
						43:[TIME_OF_DAY<15] yes=85,no=86,missing=86
							85:leaf=0.0622126
							86:leaf=-0.0467444
						44:[C_D_U_CATEGORY_GENDER_MICRO_MEAN_COEC<0.0591064] yes=87,no=88,missing=88
							87:leaf=-0.102436
							88:leaf=-0.00426571
				12:[U_CAT_LEN<18] yes=23,no=24,missing=24
					23:[C_D_U_CATEGORY_CITY_MICRO_MEAN_COEC<0.104309] yes=45,no=46,missing=45
						45:[D_CATEGORY_MACRO_MAX_COEC<0.0815807] yes=89,no=90,missing=90
							89:leaf=-0.000364837
							90:leaf=-0.0036214
						46:[WORD_COUNT<987] yes=91,no=92,missing=92
							91:leaf=-0.00331228
							92:leaf=0.00465397
					24:[TIME_OF_DAY<9] yes=47,no=48,missing=48
						47:[D_CATEGORY_MICRO_MEAN_COEC<0.0632839] yes=93,no=94,missing=94
							93:leaf=0.0106413
							94:leaf=-0.00252664
						48:[CAT_REL<0.118647] yes=95,no=96,missing=96
							95:leaf=0.00136684
							96:leaf=0.0081465
		4:[C_D_U_TITLEMD5_CATEGORY_MACRO_MEAN_COEC<0.0695521] yes=7,no=8,missing=8
			7:[WORD_COUNT<2803] yes=13,no=14,missing=14
				13:[TIME_OF_DAY<20] yes=25,no=26,missing=26
					25:[D_CATEGORY_MICRO_MEAN_COEC<0.0978164] yes=49,no=50,missing=49
						49:[D_CATEGORY_MACRO_MAX_COEC<0.096647] yes=97,no=98,missing=97
							97:leaf=-0.00487289
							98:leaf=0.054521
						50:[KW_REL<2.70441e-05] yes=99,no=100,missing=100
							99:leaf=-0.0754051
							100:leaf=-0.0150313
					26:[C_D_U_TITLEMD5_CATEGORY_MICRO_MEAN_COEC<0.0403205] yes=51,no=52,missing=52
						51:[C_D_U_CATEGORY_GENDER_MICRO_MEAN_COEC<0.0868098] yes=101,no=102,missing=102
							101:leaf=0.00955253
							102:leaf=0.0520439
						52:[C_D_U_PUBLISHER_CITY_COEC<0.114008] yes=103,no=104,missing=103
							103:leaf=-0.00272533
							104:leaf=0.0443645
				14:[D_CATEGORY_MICRO_MAX_COEC<0.0651702] yes=27,no=28,missing=28
					27:[D_PUBLISHER_COEC<0.0791095] yes=53,no=54,missing=53
						53:[TIME_OF_DAY<23] yes=105,no=106,missing=106
							105:leaf=0.00652403
							106:leaf=-0.0532759
						54:[D_CATEGORY_MACRO_MEAN_COEC<0.0626113] yes=107,no=108,missing=108
							107:leaf=0.000693712
							108:leaf=0.0549781
					28:[C_D_U_CATEGORY_CITY_MACRO_MEAN_COEC<0.0675926] yes=55,no=56,missing=55
						55:[D_KEYWORD_MICRO_MEAN_COEC<0.0772151] yes=109,no=110,missing=110
							109:leaf=-0.030354
							110:leaf=0.0111374
						56:[C_D_U_TITLEMD5_GENDER_COEC<0.136387] yes=111,no=112,missing=111
							111:leaf=0.00436137
							112:leaf=-0.0657123
			8:[D_KEYWORD_MACRO_MEAN_COEC<0.0572601] yes=15,no=16,missing=16
				15:[D_TITLEMD5_COEC<0.206916] yes=29,no=30,missing=30
					29:[C_D_U_TITLEMD5_CATEGORY_MICRO_MAX_COEC<0.174285] yes=57,no=58,missing=58
						57:[C_D_U_TITLEMD5_GENDER_COEC<0.0251479] yes=113,no=114,missing=114
							113:leaf=-0.0596217
							114:leaf=-0.000384595
						58:[C_D_U_TITLEMD5_CATEGORY_MACRO_MEAN_COEC<0.139926] yes=115,no=116,missing=116
							115:leaf=-0.039205
							116:leaf=-0.00198429
					30:[D_CATEGORY_MACRO_MEAN_COEC<0.0626113] yes=59,no=60,missing=60
						59:[WORD_COUNT<3527] yes=117,no=118,missing=118
							117:leaf=0.0654455
							118:leaf=-0.0528971
						60:[CAT_REL<0.459534] yes=119,no=120,missing=120
							119:leaf=-0.0184387
							120:leaf=0.0374409
				16:[D_TITLEMD5_COEC<0.0837978] yes=31,no=32,missing=32
					31:[WORD_COUNT<1194] yes=61,no=62,missing=62
						61:[C_D_U_PUBLISHER_CITY_COEC<0.171187] yes=121,no=122,missing=122
							121:leaf=0.00339941
							122:leaf=-0.0492671
						62:[D_KEYWORD_MICRO_MAX_COEC<0.154312] yes=123,no=124,missing=124
							123:leaf=0.0129588
							124:leaf=0.0363948
					32:[D_CATEGORY_MICRO_MEAN_COEC<0.09148] yes=63,no=64,missing=63
						63:[C_D_U_CATEGORY_GENDER_MACRO_MEAN_COEC<0.0895774] yes=125,no=126,missing=126
							125:leaf=0.00456649
							126:leaf=0.0195295
						64:[C_D_U_CATEGORY_CITY_MACRO_MAX_COEC<0.0960407] yes=127,no=128,missing=128
							127:leaf=-0.00616325
							128:leaf=0.00326575
booster[68]:
0:[U_KW_LEN<200] yes=1,no=2,missing=1
	1:leaf=0.0
	2:[IMAGE_COUNT<0.999999] yes=3,no=4,missing=4
		3:[KW_REL<0.0156406] yes=5,no=6,missing=6
			5:[D_KEYWORD_MACRO_MEAN_COEC<0.0766038] yes=9,no=10,missing=10
				9:[C_D_U_TITLEMD5_CATEGORY_MACRO_MAX_COEC<0.0333521] yes=17,no=18,missing=18
					17:[KW_REL<0.000629045] yes=33,no=34,missing=34
						33:[CAT_REL<0.125153] yes=65,no=66,missing=66
							65:leaf=-0.0134201
							66:leaf=-0.0864212
						34:[TIME_OF_DAY<12] yes=67,no=68,missing=68
							67:leaf=0.000823601
							68:leaf=-0.0297713
					18:[D_KEYWORD_MICRO_MEAN_COEC<0.0942572] yes=35,no=36,missing=36
						35:[U_AGE_1<0.999999] yes=69,no=70,missing=70
							69:leaf=-0.0336533
							70:leaf=-0.116084
						36:[D_TITLEMD5_COEC<0.063379] yes=71,no=72,missing=72
							71:leaf=-0.0320093
							72:leaf=-0.184508
				10:[CAT_REL<0.10686] yes=19,no=20,missing=20
					19:[DAY_OF_WEEK<2] yes=37,no=38,missing=38
						37:[C_D_U_PUBLISHER_AGE_COEC<0.0715944] yes=73,no=74,missing=73
							73:leaf=0.0541025
							74:leaf=-0.0339442
						38:[CAT_REL<0.051089] yes=75,no=76,missing=76
							75:leaf=-0.123916
							76:leaf=-0.0452352
					20:[C_D_U_TITLEMD5_GENDER_COEC<0.0743896] yes=39,no=40,missing=40
						39:[C_D_U_PUBLISHER_CITY_COEC<0.096982] yes=77,no=78,missing=77
							77:leaf=-0.0672289
							78:leaf=-0.00441331
						40:[DAY_OF_WEEK<6] yes=79,no=80,missing=80
							79:leaf=0.00655734
							80:leaf=-0.0350743
			6:[U_CAT_LEN<10] yes=11,no=12,missing=12
				11:[CAT_REL<0.091435] yes=21,no=22,missing=22
					21:[C_D_U_PUBLISHER_CITY_COEC<0.100975] yes=41,no=42,missing=41
						41:[D_PUBLISHER_COEC<0.0723704] yes=81,no=82,missing=82
							81:leaf=-0.0699842
							82:leaf=-0.135984
						42:leaf=0.0973465
					22:[C_D_U_CATEGORY_AGE_MICRO_MEAN_COEC<0.0747505] yes=43,no=44,missing=44
						43:[D_PUBLISHER_COEC<0.113475] yes=83,no=84,missing=83
							83:leaf=-0.0102079
							84:leaf=0.136615
						44:[D_KEYWORD_MICRO_MAX_COEC<0.112508] yes=85,no=86,missing=86
							85:leaf=-0.110688
							86:leaf=-0.0021689
				12:[D_KEYWORD_MACRO_MAX_COEC<0.0128095] yes=23,no=24,missing=24
					23:[C_D_U_CATEGORY_AGE_MACRO_MAX_COEC<0.059374] yes=45,no=46,missing=46
						45:leaf=-0.138244
						46:[D_KEYWORD_MICRO_MEAN_COEC<0.0656804] yes=87,no=88,missing=88
							87:leaf=0.0538094
							88:leaf=0.0130222
					24:[CAT_REL<0.775621] yes=47,no=48,missing=48
						47:[D_TITLEMD5_COEC<2.85086] yes=89,no=90,missing=90
							89:leaf=-9.09556e-05
							90:leaf=-0.0966065
						48:[C_D_U_TITLEMD5_CATEGORY_MICRO_MEAN_COEC<0.0775198] yes=91,no=92,missing=92
							91:leaf=0.0988101
							92:leaf=-0.00976962
		4:[CAT_REL<0.019993] yes=7,no=8,missing=8
			7:[C_D_U_TITLEMD5_CATEGORY_MACRO_MAX_COEC<0.0539276] yes=13,no=14,missing=14
				13:[C_D_U_TITLEMD5_CATEGORY_MICRO_MAX_COEC<0.133716] yes=25,no=26,missing=26
					25:[C_D_U_TITLEMD5_CATEGORY_MACRO_MAX_COEC<0.0380347] yes=49,no=50,missing=50
						49:[TIME_OF_DAY<2] yes=93,no=94,missing=94
							93:leaf=0.0345415
							94:leaf=-0.00406771
						50:[U_CAT_LEN<5] yes=95,no=96,missing=96
							95:leaf=0.02818
							96:leaf=-0.0204002
					26:[C_D_U_TITLEMD5_GENDER_COEC<0.181129] yes=51,no=52,missing=52
						51:[D_KEYWORD_MICRO_MAX_COEC<0.16697] yes=97,no=98,missing=98
							97:leaf=0.00668561
							98:leaf=-0.0224649
						52:[D_PUBLISHER_COEC<0.0896983] yes=99,no=100,missing=100
							99:leaf=-0.066711
							100:leaf=-0.0109111
				14:[D_KEYWORD_MACRO_MEAN_COEC<0.0912755] yes=27,no=28,missing=28
					27:[D_TITLEMD5_COEC<0.103682] yes=53,no=54,missing=54
						53:[D_PUBLISHER_COEC<0.0447165] yes=101,no=102,missing=102
							101:leaf=-0.103467
							102:leaf=-0.00600396
						54:[WORD_COUNT<3711] yes=103,no=104,missing=104
							103:leaf=-0.0329868
							104:leaf=-0.00958072
					28:[DAY_OF_WEEK<5] yes=55,no=56,missing=56
						55:[D_CATEGORY_MACRO_MAX_COEC<0.0476741] yes=105,no=106,missing=106
							105:leaf=0.0156758
							106:leaf=-0.00482394
						56:[D_KEYWORD_MICRO_MAX_COEC<0.151722] yes=107,no=108,missing=108
							107:leaf=-0.00134681
							108:leaf=-0.0422235
			8:[D_CATEGORY_MICRO_MEAN_COEC<0.059745] yes=15,no=16,missing=16
				15:[CAT_REL<0.560043] yes=29,no=30,missing=30
					29:[C_D_U_PUBLISHER_AGE_COEC<0.0646262] yes=57,no=58,missing=58
						57:[C_D_U_CATEGORY_GENDER_MICRO_MAX_COEC<0.0361583] yes=109,no=110,missing=110
							109:leaf=0.0191472
							110:leaf=0.00138224
						58:[D_KEYWORD_MICRO_MEAN_COEC<0.0760134] yes=111,no=112,missing=112
							111:leaf=0.0131883
							112:leaf=0.0283598
					30:[KW_REL<0.00610493] yes=59,no=60,missing=60
						59:[D_KEYWORD_MACRO_MEAN_COEC<0.0677661] yes=113,no=114,missing=114
							113:leaf=-0.0577297
							114:leaf=0.0137256
						60:[D_KEYWORD_MICRO_MEAN_COEC<0.0807526] yes=115,no=116,missing=116
							115:leaf=-0.00355887
							116:leaf=0.149973
				16:[C_D_U_CATEGORY_CITY_MICRO_MEAN_COEC<0.0504183] yes=31,no=32,missing=32
					31:[C_D_U_TITLEMD5_CATEGORY_MACRO_MEAN_COEC<0.0846105] yes=61,no=62,missing=62
						61:[C_D_U_CATEGORY_CITY_MACRO_MAX_COEC<0.0416113] yes=117,no=118,missing=118
							117:leaf=-0.0255794
							118:leaf=-0.008569
						62:[C_D_U_PUBLISHER_CITY_COEC<0.0615922] yes=119,no=120,missing=120
							119:leaf=-0.0086643
							120:leaf=0.00284756
					32:[D_KEYWORD_MACRO_MEAN_COEC<0.051406] yes=63,no=64,missing=64
						63:[C_D_U_TITLEMD5_CATEGORY_MACRO_MEAN_COEC<0.0750366] yes=121,no=122,missing=122
							121:leaf=-0.00383166
							122:leaf=-0.0218119
						64:[WORD_COUNT<2338] yes=123,no=124,missing=124
							123:leaf=-0.000243526
							124:leaf=0.00311952
booster[69]:
0:[U_KW_LEN<200] yes=1,no=2,missing=1
	1:leaf=0.0
	2:[U_CAT_LEN<6] yes=3,no=4,missing=4
		3:[DAY_OF_WEEK<0.999999] yes=5,no=6,missing=6
			5:[TIME_OF_DAY<2] yes=9,no=10,missing=10
				9:[D_KEYWORD_MICRO_MEAN_COEC<0.090139] yes=17,no=18,missing=18
					17:[C_D_U_TITLEMD5_CATEGORY_MACRO_MAX_COEC<0.00972766] yes=33,no=34,missing=34
						33:leaf=0.255546
						34:[CAT_REL<0.392975] yes=65,no=66,missing=66
							65:leaf=-0.0879516
							66:leaf=0.0591303
					18:[C_D_U_CATEGORY_CITY_MACRO_MEAN_COEC<0.0688016] yes=35,no=36,missing=36
						35:[KW_REL<0.00309374] yes=67,no=68,missing=68
							67:leaf=-0.149573
							68:leaf=0.132342
						36:[U_CAT_LEN<5] yes=69,no=70,missing=70
							69:leaf=0.0112833
							70:leaf=0.121395
				10:[TIME_OF_DAY<20] yes=19,no=20,missing=20
					19:[TIME_OF_DAY<16] yes=37,no=38,missing=38
						37:[C_D_U_CATEGORY_CITY_MICRO_MAX_COEC<0.0519363] yes=71,no=72,missing=72
							71:leaf=0.0384343
							72:leaf=-0.0210133
						38:[D_KEYWORD_MICRO_MEAN_COEC<0.0657178] yes=73,no=74,missing=74
							73:leaf=0.0076527
							74:leaf=-0.0450144
					20:[C_D_U_TITLEMD5_CATEGORY_MACRO_MAX_COEC<0.0376251] yes=39,no=40,missing=40
						39:[C_D_U_PUBLISHER_AGE_COEC<0.0436403] yes=75,no=76,missing=76
							75:leaf=0.380218
							76:leaf=0.129415
						40:[TIME_OF_DAY<22] yes=77,no=78,missing=78
							77:leaf=-0.0554745
							78:leaf=0.0521134
			6:[CAT_REL<0.687837] yes=11,no=12,missing=12
				11:[U_CAT_LEN<2] yes=21,no=22,missing=22
					21:[U_AGE_2<0.999999] yes=41,no=42,missing=42
						41:[C_D_U_CATEGORY_AGE_MICRO_MAX_COEC<0.0744081] yes=79,no=80,missing=80
							79:leaf=0.0383691
							80:leaf=0.209989
						42:leaf=-0.15382
					22:[C_D_U_CATEGORY_GENDER_MICRO_MAX_COEC<0.06126] yes=43,no=44,missing=44
						43:[C_D_U_PUBLISHER_CITY_COEC<0.170432] yes=81,no=82,missing=82
							81:leaf=-0.0303106
							82:leaf=0.0531678
						44:[D_CATEGORY_MACRO_MEAN_COEC<0.0685293] yes=83,no=84,missing=83
							83:leaf=0.0018543
							84:leaf=-0.00838933
				12:[C_D_U_CATEGORY_CITY_MICRO_MAX_COEC<0.0340858] yes=23,no=24,missing=24
					23:[DAY_OF_WEEK<3] yes=45,no=46,missing=46
						45:[KW_REL<0.00635817] yes=85,no=86,missing=86
							85:leaf=-0.122699
							86:leaf=-0.0392926
						46:[C_D_U_TITLEMD5_CATEGORY_MACRO_MAX_COEC<0.122957] yes=87,no=88,missing=88
							87:leaf=0.073636
							88:leaf=-0.146614
					24:[D_CATEGORY_MICRO_MAX_COEC<0.102828] yes=47,no=48,missing=48
						47:[CAT_REL<0.91984] yes=89,no=90,missing=90
							89:leaf=0.00456328
							90:leaf=0.0257616
						48:[CAT_REL<0.91984] yes=91,no=92,missing=92
							91:leaf=0.00401322
							92:leaf=-0.0691978
		4:[C_D_U_TITLEMD5_CATEGORY_MACRO_MEAN_COEC<0.10461] yes=7,no=8,missing=8
			7:[D_TITLEMD5_COEC<0.0999777] yes=13,no=14,missing=13
				13:[C_D_U_TITLEMD5_CATEGORY_MACRO_MEAN_COEC<0.0844086] yes=25,no=26,missing=26
					25:[C_D_U_TITLEMD5_CATEGORY_MICRO_MEAN_COEC<0.0945884] yes=49,no=50,missing=50
						49:[C_D_U_TITLEMD5_CATEGORY_MACRO_MEAN_COEC<0.0693343] yes=93,no=94,missing=94
							93:leaf=-0.00140961
							94:leaf=0.0047451
						50:[CAT_REL<0.104697] yes=95,no=96,missing=96
							95:leaf=0.00449592
							96:leaf=-0.0104623
					26:[C_D_U_TITLEMD5_CATEGORY_MACRO_MAX_COEC<0.0606823] yes=51,no=52,missing=52
						51:[D_TITLEMD5_COEC<0.0893824] yes=97,no=98,missing=98
							97:leaf=0.0137369
							98:leaf=0.00503668
						52:[C_D_U_CATEGORY_CITY_MACRO_MEAN_COEC<0.0790762] yes=99,no=100,missing=99
							99:leaf=-0.0107163
							100:leaf=0.0048409
				14:[C_D_U_TITLEMD5_CATEGORY_MACRO_MAX_COEC<0.046807] yes=27,no=28,missing=28
					27:[C_D_U_TITLEMD5_CATEGORY_MICRO_MEAN_COEC<0.1208] yes=53,no=54,missing=54
						53:[C_D_U_TITLEMD5_CATEGORY_MACRO_MEAN_COEC<0.0922214] yes=101,no=102,missing=102
							101:leaf=-0.00721593
							102:leaf=0.0035044
						54:[U_GENDER<2] yes=103,no=104,missing=103
							103:leaf=-0.00873375
							104:leaf=-0.023119
					28:[CAT_REL<0.239215] yes=55,no=56,missing=56
						55:[U_AGE_2<0.999999] yes=105,no=106,missing=106
							105:leaf=-0.0250263
							106:leaf=-0.0135349
						56:[U_CAT_LEN<20] yes=107,no=108,missing=108
							107:leaf=-0.00419931
							108:leaf=0.0163958
			8:[D_TITLEMD5_COEC<0.120762] yes=15,no=16,missing=16
				15:[C_D_U_TITLEMD5_CATEGORY_MICRO_MEAN_COEC<0.0965077] yes=29,no=30,missing=30
					29:[C_D_U_TITLEMD5_CATEGORY_MICRO_MEAN_COEC<0.0663722] yes=57,no=58,missing=58
						57:[D_KEYWORD_MICRO_MEAN_COEC<0.0737776] yes=109,no=110,missing=110
							109:leaf=-0.0506314
							110:leaf=-0.121814
						58:[D_CATEGORY_MACRO_MAX_COEC<0.0690229] yes=111,no=112,missing=111
							111:leaf=-0.00397056
							112:leaf=-0.0405303
					30:[C_D_U_TITLEMD5_CATEGORY_MICRO_MAX_COEC<0.150369] yes=59,no=60,missing=60
						59:[WORD_COUNT<5621] yes=113,no=114,missing=114
							113:leaf=0.0016654
							114:leaf=0.0265952
						60:[D_KEYWORD_MACRO_MEAN_COEC<0.0617023] yes=115,no=116,missing=116
							115:leaf=-0.0135214
							116:leaf=0.0129409
				16:[C_D_U_TITLEMD5_CATEGORY_MACRO_MEAN_COEC<0.134012] yes=31,no=32,missing=32
					31:[D_TITLEMD5_COEC<0.146481] yes=61,no=62,missing=62
						61:[C_D_U_TITLEMD5_CATEGORY_MACRO_MAX_COEC<0.0824031] yes=117,no=118,missing=118
							117:leaf=0.000309463
							118:leaf=-0.0173155
						62:[D_KEYWORD_MICRO_MEAN_COEC<0.0970982] yes=119,no=120,missing=120
							119:leaf=-0.0173447
							120:leaf=-0.00617694
					32:[D_KEYWORD_MICRO_MEAN_COEC<0.126905] yes=63,no=64,missing=64
						63:[C_D_U_TITLEMD5_GENDER_COEC<0.279253] yes=121,no=122,missing=122
							121:leaf=0.00516946
							122:leaf=-0.00675177
						64:[KW_REL<0.00474911] yes=123,no=124,missing=124
							123:leaf=-0.00118067
							124:leaf=-0.0376467
booster[70]:
0:[U_KW_LEN<200] yes=1,no=2,missing=1
	1:leaf=0.0
	2:[U_CAT_LEN<17] yes=3,no=4,missing=4
		3:[IMAGE_COUNT<2] yes=5,no=6,missing=6
			5:[C_D_U_TITLEMD5_CATEGORY_MACRO_MEAN_COEC<0.207574] yes=9,no=10,missing=10
				9:[C_D_U_TITLEMD5_CATEGORY_MICRO_MAX_COEC<0.27984] yes=17,no=18,missing=18
					17:[WORD_COUNT<3645] yes=33,no=34,missing=34
						33:[D_CATEGORY_MACRO_MAX_COEC<0.0679162] yes=65,no=66,missing=65
							65:leaf=0.00162439
							66:leaf=-0.00232866
						34:[C_D_U_TITLEMD5_CATEGORY_MACRO_MEAN_COEC<0.0663825] yes=67,no=68,missing=68
							67:leaf=-0.0034419
							68:leaf=0.00426258
					18:[D_TITLEMD5_COEC<0.0639264] yes=35,no=36,missing=36
						35:[TIME_OF_DAY<3] yes=69,no=70,missing=70
							69:leaf=0.0266309
							70:leaf=-0.0502641
						36:[C_D_U_TITLEMD5_GENDER_COEC<0.23016] yes=71,no=72,missing=71
							71:leaf=-0.0101772
							72:leaf=-0.0224238
				10:[C_D_U_TITLEMD5_CATEGORY_MICRO_MAX_COEC<0.460018] yes=19,no=20,missing=20
					19:[D_KEYWORD_MICRO_MAX_COEC<0.214395] yes=37,no=38,missing=38
						37:[C_D_U_TITLEMD5_CATEGORY_MICRO_MAX_COEC<0.311759] yes=73,no=74,missing=74
							73:leaf=0.00826323
							74:leaf=-0.0102936
						38:[KW_REL<0.00124708] yes=75,no=76,missing=76
							75:leaf=0.00887764
							76:leaf=0.0207764
					20:[D_CATEGORY_MICRO_MAX_COEC<0.0769121] yes=39,no=40,missing=39
						39:[D_KEYWORD_MACRO_MEAN_COEC<0.168833] yes=77,no=78,missing=78
							77:leaf=0.00202791
							78:leaf=0.0403624
						40:[D_KEYWORD_MICRO_MAX_COEC<0.234185] yes=79,no=80,missing=80
							79:leaf=-0.00666349
							80:leaf=-0.0373908
			6:[D_CATEGORY_MICRO_MAX_COEC<0.0871319] yes=11,no=12,missing=12
				11:[D_CATEGORY_MICRO_MEAN_COEC<0.0870854] yes=21,no=22,missing=22
					21:[C_D_U_CATEGORY_GENDER_MICRO_MEAN_COEC<0.0873012] yes=41,no=42,missing=42
						41:[C_D_U_PUBLISHER_CITY_COEC<0.0394381] yes=81,no=82,missing=81
							81:leaf=-0.00636351
							82:leaf=0.00833588
						42:[C_D_U_TITLEMD5_CATEGORY_MICRO_MEAN_COEC<0.0285322] yes=83,no=84,missing=84
							83:leaf=0.130408
							84:leaf=0.0253754
					22:[C_D_U_TITLEMD5_CATEGORY_MACRO_MEAN_COEC<0.0880965] yes=43,no=44,missing=44
						43:[U_CAT_LEN<12] yes=85,no=86,missing=86
							85:leaf=0.236663
							86:leaf=0.136097
						44:[KW_REL<0.00124708] yes=87,no=88,missing=88
							87:leaf=0.144125
							88:leaf=-0.0152148
				12:[CAT_REL<0.393566] yes=23,no=24,missing=24
					23:[IMAGE_COUNT<4] yes=45,no=46,missing=46
						45:[D_TITLEMD5_COEC<0.250938] yes=89,no=90,missing=89
							89:leaf=-0.00134623
							90:leaf=-0.0995511
						46:[TIME_OF_DAY<9] yes=91,no=92,missing=92
							91:leaf=-0.00711022
							92:leaf=-0.0565512
					24:[C_D_U_TITLEMD5_CATEGORY_MACRO_MAX_COEC<0.00885517] yes=47,no=48,missing=48
						47:[TIME_OF_DAY<15] yes=93,no=94,missing=94
							93:leaf=0.0775653
							94:leaf=-0.0133524
						48:[U_CAT_LEN<7] yes=95,no=96,missing=96
							95:leaf=-0.00807928
							96:leaf=0.00886436
		4:[TIME_OF_DAY<9] yes=7,no=8,missing=8
			7:[U_CAT_LEN<25] yes=13,no=14,missing=14
				13:[D_PUBLISHER_COEC<0.0339177] yes=25,no=26,missing=25
					25:[D_TITLEMD5_COEC<0.155006] yes=49,no=50,missing=50
						49:[D_KEYWORD_MACRO_MEAN_COEC<0.0699356] yes=97,no=98,missing=98
							97:leaf=-0.041988
							98:leaf=0.0234526
						50:[C_D_U_TITLEMD5_CATEGORY_MACRO_MAX_COEC<0.169038] yes=99,no=100,missing=100
							99:leaf=-0.09957
							100:leaf=0.0159983
					26:[D_CATEGORY_MACRO_MEAN_COEC<0.0631099] yes=51,no=52,missing=51
						51:[C_D_U_CATEGORY_GENDER_MACRO_MEAN_COEC<0.0645741] yes=101,no=102,missing=101
							101:leaf=0.00892541
							102:leaf=0.0350182
						52:[C_D_U_CATEGORY_CITY_MICRO_MAX_COEC<0.0611557] yes=103,no=104,missing=104
							103:leaf=-0.0220472
							104:leaf=-0.000817843
				14:[TIME_OF_DAY<3] yes=27,no=28,missing=28
					27:[D_TITLEMD5_COEC<0.0264866] yes=53,no=54,missing=54
						53:[C_D_U_PUBLISHER_CITY_COEC<0.0767863] yes=105,no=106,missing=105
							105:leaf=0.198505
							106:leaf=-0.117688
						54:[KW_REL<0.00090094] yes=107,no=108,missing=108
							107:leaf=0.0633156
							108:leaf=0.0208024
					28:[C_D_U_CATEGORY_CITY_MACRO_MEAN_COEC<0.0298468] yes=55,no=56,missing=56
						55:[TIME_OF_DAY<8] yes=109,no=110,missing=110
							109:leaf=0.0324884
							110:leaf=0.249571
						56:[C_D_U_CATEGORY_GENDER_MICRO_MEAN_COEC<0.0645032] yes=111,no=112,missing=112
							111:leaf=-0.0209783
							112:leaf=0.0156484
			8:[C_D_U_TITLEMD5_CATEGORY_MACRO_MEAN_COEC<0.0997904] yes=15,no=16,missing=16
				15:[D_KEYWORD_MACRO_MEAN_COEC<0.0800607] yes=29,no=30,missing=30
					29:[C_D_U_TITLEMD5_CATEGORY_MICRO_MAX_COEC<0.217346] yes=57,no=58,missing=58
						57:[D_KEYWORD_MICRO_MEAN_COEC<0.0831581] yes=113,no=114,missing=114
							113:leaf=0.00361441
							114:leaf=0.011627
						58:[C_D_U_PUBLISHER_AGE_COEC<0.0463354] yes=115,no=116,missing=116
							115:leaf=-0.0901379
							116:leaf=-0.018439
					30:[D_PUBLISHER_COEC<0.0901188] yes=59,no=60,missing=60
						59:[C_D_U_CATEGORY_AGE_MICRO_MEAN_COEC<0.099052] yes=117,no=118,missing=118
							117:leaf=-0.00440289
							118:leaf=-0.019761
						60:[D_KEYWORD_MICRO_MAX_COEC<0.179568] yes=119,no=120,missing=120
							119:leaf=0.00173813
							120:leaf=0.0609403
				16:[D_TITLEMD5_COEC<0.126233] yes=31,no=32,missing=32
					31:[C_D_U_TITLEMD5_AGE_COEC<0.0246731] yes=61,no=62,missing=62
						61:[D_KEYWORD_MACRO_MEAN_COEC<0.0544722] yes=121,no=122,missing=122
							121:leaf=-0.128976
							122:leaf=-0.0180571
						62:[C_D_U_TITLEMD5_AGE_COEC<0.160243] yes=123,no=124,missing=123
							123:leaf=0.0157523
							124:leaf=-0.0265393
					32:[C_D_U_TITLEMD5_CATEGORY_MACRO_MEAN_COEC<0.111476] yes=63,no=64,missing=64
						63:[C_D_U_TITLEMD5_CATEGORY_MACRO_MAX_COEC<0.0245277] yes=125,no=126,missing=126
							125:leaf=-0.199249
							126:leaf=-0.00753885
						64:[D_CATEGORY_MICRO_MAX_COEC<0.100052] yes=127,no=128,missing=128
							127:leaf=0.00928485
							128:leaf=-0.000324288
booster[71]:
0:[U_KW_LEN<200] yes=1,no=2,missing=1
	1:leaf=0.0
	2:[KW_REL<0.0313729] yes=3,no=4,missing=4
		3:[IMAGE_COUNT<2] yes=5,no=6,missing=6
			5:[C_D_U_TITLEMD5_GENDER_COEC<0.0250334] yes=9,no=10,missing=10
				9:[U_AGE_2<0.999999] yes=17,no=18,missing=18
					17:[D_KEYWORD_MICRO_MEAN_COEC<0.102367] yes=33,no=34,missing=34
						33:[TIME_OF_DAY<2] yes=65,no=66,missing=66
							65:leaf=0.0257039
							66:leaf=-0.00388727
						34:[KW_REL<0.00455552] yes=67,no=68,missing=68
							67:leaf=0.0171734
							68:leaf=0.067061
					18:[KW_REL<0.00782723] yes=35,no=36,missing=36
						35:[U_CAT_LEN<22] yes=69,no=70,missing=70
							69:leaf=-0.0140777
							70:leaf=0.00883089
						36:[D_CATEGORY_MACRO_MEAN_COEC<0.0598945] yes=71,no=72,missing=71
							71:leaf=0.0314645
							72:leaf=-0.00473256
				10:[WORD_COUNT<584] yes=19,no=20,missing=20
					19:[D_KEYWORD_MICRO_MEAN_COEC<0.0671733] yes=37,no=38,missing=38
						37:[D_PUBLISHER_COEC<0.0891107] yes=73,no=74,missing=73
							73:leaf=-0.0387488
							74:leaf=0.0171323
						38:[D_CATEGORY_MACRO_MAX_COEC<0.0672122] yes=75,no=76,missing=76
							75:leaf=0.015848
							76:leaf=-0.0089001
					20:[DAY_OF_WEEK<5] yes=39,no=40,missing=40
						39:[C_D_U_CATEGORY_CITY_MACRO_MAX_COEC<0.0773226] yes=77,no=78,missing=78
							77:leaf=-0.00104753
							78:leaf=0.00267018
						40:[D_CATEGORY_MACRO_MAX_COEC<0.078609] yes=79,no=80,missing=79
							79:leaf=0.00139281
							80:leaf=-0.00516077
			6:[KW_REL<0.00139329] yes=11,no=12,missing=12
				11:[D_KEYWORD_MICRO_MEAN_COEC<0.11888] yes=21,no=22,missing=22
					21:[IMAGE_COUNT<4] yes=41,no=42,missing=42
						41:[TIME_OF_DAY<12] yes=81,no=82,missing=82
							81:leaf=0.00461337
							82:leaf=-0.00390508
						42:[C_D_U_TITLEMD5_CATEGORY_MICRO_MAX_COEC<0.172573] yes=83,no=84,missing=84
							83:leaf=-0.0103567
							84:leaf=-0.0542684
					22:[D_KEYWORD_MICRO_MAX_COEC<0.157855] yes=43,no=44,missing=44
						43:[D_KEYWORD_MICRO_MEAN_COEC<0.122741] yes=85,no=86,missing=86
							85:leaf=0.0175556
							86:leaf=-0.00115454
						44:[U_CAT_LEN<12] yes=87,no=88,missing=88
							87:leaf=0.0135423
							88:leaf=0.0463806
				12:[WORD_COUNT<5183] yes=23,no=24,missing=24
					23:[D_CATEGORY_MICRO_MEAN_COEC<0.0939206] yes=45,no=46,missing=46
						45:[C_D_U_TITLEMD5_CATEGORY_MICRO_MAX_COEC<0.0433817] yes=89,no=90,missing=90
							89:leaf=0.0431919
							90:leaf=0.0146982
						46:[C_D_U_TITLEMD5_AGE_COEC<0.0531161] yes=91,no=92,missing=91
							91:leaf=0.0326487
							92:leaf=-0.00185191
					24:[D_CATEGORY_MICRO_MAX_COEC<0.0663003] yes=47,no=48,missing=48
						47:[D_KEYWORD_MACRO_MAX_COEC<0.0179843] yes=93,no=94,missing=94
							93:leaf=-0.00742328
							94:leaf=0.0329509
						48:[C_D_U_PUBLISHER_AGE_COEC<0.0620285] yes=95,no=96,missing=96
							95:leaf=-0.0321195
							96:leaf=-0.00280024
		4:[D_KEYWORD_MACRO_MAX_COEC<0.0162372] yes=7,no=8,missing=8
			7:[CAT_REL<0.079145] yes=13,no=14,missing=14
				13:[C_D_U_PUBLISHER_CITY_COEC<0.0726849] yes=25,no=26,missing=26
					25:[U_CAT_LEN<19] yes=49,no=50,missing=50
						49:[C_D_U_CATEGORY_CITY_MACRO_MAX_COEC<0.0753159] yes=97,no=98,missing=98
							97:leaf=-0.137953
							98:leaf=-0.0642523
						50:leaf=-0.0302737
					26:[D_CAT_LEN<2] yes=51,no=52,missing=52
						51:[C_D_U_CATEGORY_AGE_MACRO_MAX_COEC<0.0645296] yes=99,no=100,missing=100
							99:leaf=-0.127137
							100:leaf=0.0199004
						52:leaf=0.24709
				14:[IMAGE_COUNT<2] yes=27,no=28,missing=28
					27:[D_KEYWORD_MACRO_MEAN_COEC<0.0511426] yes=53,no=54,missing=54
						53:[U_CAT_LEN<11] yes=101,no=102,missing=102
							101:leaf=0.129621
							102:leaf=0.0370648
						54:[U_CAT_LEN<10] yes=103,no=104,missing=104
							103:leaf=0.0133083
							104:leaf=0.0409983
					28:[D_PUBLISHER_COEC<0.0502727] yes=55,no=56,missing=56
						55:[D_KEYWORD_MICRO_MAX_COEC<0.126969] yes=105,no=106,missing=106
							105:leaf=0.0260129
							106:leaf=0.198357
						56:[C_D_U_CATEGORY_CITY_MACRO_MAX_COEC<0.0722594] yes=107,no=108,missing=108
							107:leaf=-0.0899175
							108:leaf=-0.00495197
			8:[U_CAT_LEN<12] yes=15,no=16,missing=16
				15:[CAT_REL<0.100491] yes=29,no=30,missing=30
					29:[D_KEYWORD_MACRO_MAX_COEC<0.0255988] yes=57,no=58,missing=58
						57:[D_KEYWORD_MICRO_MAX_COEC<0.0938566] yes=109,no=110,missing=110
							109:leaf=-0.0514747
							110:leaf=0.0035196
						58:[C_D_U_TITLEMD5_CATEGORY_MICRO_MEAN_COEC<0.0855656] yes=111,no=112,missing=112
							111:leaf=-0.0384996
							112:leaf=-0.144875
					30:[D_CATEGORY_MACRO_MAX_COEC<0.0661864] yes=59,no=60,missing=60
						59:[C_D_U_PUBLISHER_CITY_COEC<0.0786605] yes=113,no=114,missing=113
							113:leaf=0.00519441
							114:leaf=0.0380574
						60:[D_KEYWORD_MACRO_MEAN_COEC<0.0562069] yes=115,no=116,missing=116
							115:leaf=0.0414858
							116:leaf=-0.00384867
				16:[CAT_REL<0.343869] yes=31,no=32,missing=32
					31:[WORD_COUNT<6166] yes=61,no=62,missing=62
						61:[WORD_COUNT<5641] yes=117,no=118,missing=118
							117:leaf=0.0201378
							118:leaf=-0.0428574
						62:[C_D_U_PUBLISHER_CITY_COEC<0.0469115] yes=119,no=120,missing=120
							119:leaf=0.00745247
							120:leaf=0.101827
					32:[CAT_REL<0.662863] yes=63,no=64,missing=64
						63:[C_D_U_CATEGORY_AGE_MACRO_MAX_COEC<0.0745982] yes=121,no=122,missing=122
							121:leaf=-0.0119997
							122:leaf=0.00953345
						64:[TIME_OF_DAY<11] yes=123,no=124,missing=124
							123:leaf=-0.00934892
							124:leaf=0.0605241
booster[72]:
0:[U_KW_LEN<200] yes=1,no=2,missing=1
	1:leaf=0.0
	2:[KW_REL<0.00420161] yes=3,no=4,missing=4
		3:[D_KEYWORD_MACRO_MEAN_COEC<0.0511057] yes=5,no=6,missing=6
			5:[C_D_U_TITLEMD5_CATEGORY_MACRO_MEAN_COEC<0.0745299] yes=9,no=10,missing=10
				9:[C_D_U_TITLEMD5_CATEGORY_MACRO_MEAN_COEC<0.0236289] yes=17,no=18,missing=18
					17:[D_KEYWORD_MICRO_MAX_COEC<0.181035] yes=33,no=34,missing=34
						33:[IMAGE_COUNT<2] yes=65,no=66,missing=66
							65:leaf=-0.0172209
							66:leaf=0.00500845
						34:[U_AGE_2<0.999999] yes=67,no=68,missing=68
							67:leaf=0.095757
							68:leaf=0.00562159
					18:[D_TITLEMD5_COEC<0.0512597] yes=35,no=36,missing=36
						35:[D_CATEGORY_MICRO_MAX_COEC<0.0638858] yes=69,no=70,missing=70
							69:leaf=0.0184601
							70:leaf=-0.00123918
						36:[C_D_U_TITLEMD5_CATEGORY_MACRO_MEAN_COEC<0.0549872] yes=71,no=72,missing=72
							71:leaf=-0.0173451
							72:leaf=-0.00394243
				10:[D_KEYWORD_MICRO_MEAN_COEC<0.0640365] yes=19,no=20,missing=20
					19:[DAY_OF_WEEK<5] yes=37,no=38,missing=38
						37:[C_D_U_TITLEMD5_CATEGORY_MACRO_MEAN_COEC<0.150388] yes=73,no=74,missing=74
							73:leaf=-0.00648978
							74:leaf=0.0271544
						38:[C_D_U_TITLEMD5_GENDER_COEC<0.169193] yes=75,no=76,missing=75
							75:leaf=-0.0355784
							76:leaf=0.00560912
					20:[C_D_U_TITLEMD5_GENDER_COEC<0.0864803] yes=39,no=40,missing=39
						39:[C_D_U_TITLEMD5_CATEGORY_MACRO_MEAN_COEC<0.160101] yes=77,no=78,missing=78
							77:leaf=-0.0347599
							78:leaf=0.0226022
						40:[TIME_OF_DAY<14] yes=79,no=80,missing=80
							79:leaf=-0.0446011
							80:leaf=-0.0864801
			6:[TIME_OF_DAY<15] yes=11,no=12,missing=12
				11:[WORD_COUNT<2325] yes=21,no=22,missing=22
					21:[IMAGE_COUNT<2] yes=41,no=42,missing=42
						41:[CAT_REL<0.197603] yes=81,no=82,missing=82
							81:leaf=-0.00518212
							82:leaf=-0.00145291
						42:[D_TITLEMD5_COEC<0.0259008] yes=83,no=84,missing=84
							83:leaf=0.0582419
							84:leaf=0.00322095
					22:[DAY_OF_WEEK<2] yes=43,no=44,missing=44
						43:[D_CATEGORY_MICRO_MAX_COEC<0.102792] yes=85,no=86,missing=86
							85:leaf=-0.00174932
							86:leaf=-0.0302896
						44:[WORD_COUNT<2367] yes=87,no=88,missing=88
							87:leaf=0.0148336
							88:leaf=0.00218498
				12:[U_CAT_LEN<7] yes=23,no=24,missing=24
					23:[U_CAT_LEN<3] yes=45,no=46,missing=46
						45:[C_D_U_PUBLISHER_GENDER_COEC<0.0938338] yes=89,no=90,missing=90
							89:leaf=-0.101666
							90:leaf=-0.027202
						46:[C_D_U_CATEGORY_GENDER_MACRO_MEAN_COEC<0.0599314] yes=91,no=92,missing=92
							91:leaf=-0.0338614
							92:leaf=-0.00431342
					24:[CAT_REL<0.190113] yes=47,no=48,missing=48
						47:[DAY_OF_WEEK<5] yes=93,no=94,missing=94
							93:leaf=0.00232646
							94:leaf=-0.00474466
						48:[D_CATEGORY_MICRO_MAX_COEC<0.0836859] yes=95,no=96,missing=96
							95:leaf=0.0087934
							96:leaf=0.00229363
		4:[D_KEYWORD_MICRO_MEAN_COEC<0.0819299] yes=7,no=8,missing=8
			7:[D_CATEGORY_MICRO_MEAN_COEC<0.0775921] yes=13,no=14,missing=13
				13:[C_D_U_TITLEMD5_CATEGORY_MICRO_MAX_COEC<0.133672] yes=25,no=26,missing=26
					25:[D_KEYWORD_MACRO_MAX_COEC<0.0114621] yes=49,no=50,missing=50
						49:[WORD_COUNT<1120] yes=97,no=98,missing=98
							97:leaf=-0.0227767
							98:leaf=0.0104842
						50:[D_KEYWORD_MICRO_MEAN_COEC<0.0743641] yes=99,no=100,missing=100
							99:leaf=-0.00269557
							100:leaf=0.00475465
					26:[KW_REL<0.0184141] yes=51,no=52,missing=52
						51:[WORD_COUNT<2064] yes=101,no=102,missing=102
							101:leaf=-0.000473467
							102:leaf=0.00885996
						52:[D_KEYWORD_MACRO_MEAN_COEC<0.0714909] yes=103,no=104,missing=104
							103:leaf=0.0115894
							104:leaf=0.0256013
				14:[CAT_REL<0.47366] yes=27,no=28,missing=28
					27:[DAY_OF_WEEK<5] yes=53,no=54,missing=54
						53:[D_PUBLISHER_COEC<0.134331] yes=105,no=106,missing=106
							105:leaf=-0.00222246
							106:leaf=-0.075349
						54:[D_KEYWORD_MACRO_MAX_COEC<0.0200975] yes=107,no=108,missing=108
							107:leaf=-0.0253364
							108:leaf=-0.0033277
					28:[C_D_U_CATEGORY_CITY_MACRO_MAX_COEC<0.0694703] yes=55,no=56,missing=56
						55:[D_TITLEMD5_COEC<0.0752879] yes=109,no=110,missing=110
							109:leaf=-0.0711641
							110:leaf=-0.0192179
						56:[DAY_OF_WEEK<3] yes=111,no=112,missing=112
							111:leaf=-0.00231224
							112:leaf=0.0144677
			8:[D_KEYWORD_MACRO_MEAN_COEC<0.112999] yes=15,no=16,missing=16
				15:[D_CATEGORY_MACRO_MEAN_COEC<0.0859803] yes=29,no=30,missing=30
					29:[D_CATEGORY_MACRO_MEAN_COEC<0.0818532] yes=57,no=58,missing=58
						57:[D_KEYWORD_MACRO_MAX_COEC<0.0153094] yes=113,no=114,missing=114
							113:leaf=0.0342475
							114:leaf=0.00765212
						58:[CAT_REL<0.259782] yes=115,no=116,missing=116
							115:leaf=-0.0155239
							116:leaf=0.00153412
					30:[D_KEYWORD_MACRO_MAX_COEC<0.0382879] yes=59,no=60,missing=60
						59:[WORD_COUNT<2772] yes=117,no=118,missing=118
							117:leaf=0.0267504
							118:leaf=0.00230878
						60:[CAT_REL<0.535456] yes=119,no=120,missing=120
							119:leaf=-0.00898025
							120:leaf=0.0185826
				16:[DAY_OF_WEEK<0.999999] yes=31,no=32,missing=32
					31:[C_D_U_CATEGORY_GENDER_MICRO_MAX_COEC<0.0963971] yes=61,no=62,missing=62
						61:[CAT_REL<0.046318] yes=121,no=122,missing=122
							121:leaf=-0.0194885
							122:leaf=0.0449883
						62:[C_D_U_TITLEMD5_GENDER_COEC<0.160855] yes=123,no=124,missing=124
							123:leaf=-0.105546
							124:leaf=0.00501315
					32:[C_D_U_TITLEMD5_CATEGORY_MACRO_MEAN_COEC<0.189818] yes=63,no=64,missing=64
						63:[D_KEYWORD_MACRO_MEAN_COEC<0.12742] yes=125,no=126,missing=126
							125:leaf=-0.0120702
							126:leaf=-0.0397835
						64:[D_KEYWORD_MICRO_MEAN_COEC<0.124536] yes=127,no=128,missing=128
							127:leaf=0.0167277
							128:leaf=-0.0241195
booster[73]:
0:[U_KW_LEN<200] yes=1,no=2,missing=1
	1:leaf=0.0
	2:[C_D_U_TITLEMD5_CATEGORY_MACRO_MEAN_COEC<0.110621] yes=3,no=4,missing=4
		3:[D_TITLEMD5_COEC<0.112176] yes=5,no=6,missing=5
			5:[C_D_U_TITLEMD5_CATEGORY_MACRO_MEAN_COEC<0.0905346] yes=9,no=10,missing=10
				9:[D_TITLEMD5_COEC<0.0909519] yes=17,no=18,missing=17
					17:[C_D_U_TITLEMD5_CATEGORY_MACRO_MEAN_COEC<0.0661302] yes=33,no=34,missing=34
						33:[C_D_U_TITLEMD5_CATEGORY_MICRO_MEAN_COEC<0.073141] yes=65,no=66,missing=66
							65:leaf=7.67741e-05
							66:leaf=-0.0107354
						34:[C_D_U_TITLEMD5_CATEGORY_MACRO_MAX_COEC<0.0343345] yes=67,no=68,missing=68
							67:leaf=0.00628529
							68:leaf=-0.000456333
					18:[C_D_U_TITLEMD5_CATEGORY_MACRO_MAX_COEC<0.0366574] yes=35,no=36,missing=36
						35:[C_D_U_TITLEMD5_CATEGORY_MACRO_MEAN_COEC<0.0824977] yes=69,no=70,missing=70
							69:leaf=-0.00852978
							70:leaf=0.00179783
						36:[C_D_U_TITLEMD5_CATEGORY_MICRO_MAX_COEC<0.101707] yes=71,no=72,missing=72
							71:leaf=-0.0437374
							72:leaf=-0.0104506
				10:[C_D_U_TITLEMD5_CATEGORY_MICRO_MEAN_COEC<0.0758439] yes=19,no=20,missing=20
					19:[C_D_U_CATEGORY_GENDER_MICRO_MAX_COEC<0.0968867] yes=37,no=38,missing=37
						37:[D_KEYWORD_MICRO_MAX_COEC<0.17251] yes=73,no=74,missing=74
							73:leaf=-0.050339
							74:leaf=0.0773019
						38:[D_CATEGORY_MICRO_MAX_COEC<0.105188] yes=75,no=76,missing=76
							75:leaf=-0.179886
							76:leaf=-0.00163016
					20:[C_D_U_TITLEMD5_CATEGORY_MICRO_MEAN_COEC<0.119467] yes=39,no=40,missing=40
						39:[C_D_U_TITLEMD5_CATEGORY_MACRO_MAX_COEC<0.0578411] yes=77,no=78,missing=78
							77:leaf=0.00779605
							78:leaf=-0.000932892
						40:[CAT_REL<0.136662] yes=79,no=80,missing=80
							79:leaf=0.0134053
							80:leaf=-0.00561226
			6:[TIME_OF_DAY<7] yes=11,no=12,missing=12
				11:[D_PUBLISHER_COEC<0.0919229] yes=21,no=22,missing=22
					21:[D_PUBLISHER_COEC<0.0859391] yes=41,no=42,missing=42
						41:[D_CATEGORY_MACRO_MEAN_COEC<0.0624638] yes=81,no=82,missing=81
							81:leaf=0.0146707
							82:leaf=-0.0161129
						42:[C_D_U_CATEGORY_GENDER_MICRO_MAX_COEC<0.0593624] yes=83,no=84,missing=84
							83:leaf=-0.109749
							84:leaf=-0.0289355
					22:[WORD_COUNT<6135] yes=43,no=44,missing=44
						43:[C_D_U_CATEGORY_AGE_MACRO_MAX_COEC<0.100642] yes=85,no=86,missing=86
							85:leaf=-0.00663725
							86:leaf=-0.0370042
						44:[C_D_U_TITLEMD5_GENDER_COEC<0.150136] yes=87,no=88,missing=88
							87:leaf=0.0216328
							88:leaf=-0.197601
				12:[D_KEYWORD_MACRO_MEAN_COEC<0.0747687] yes=23,no=24,missing=24
					23:[KW_REL<0.00200383] yes=45,no=46,missing=46
						45:[CAT_REL<0.172845] yes=89,no=90,missing=90
							89:leaf=-0.0292227
							90:leaf=-0.0107849
						46:[C_D_U_TITLEMD5_CATEGORY_MACRO_MEAN_COEC<0.0494365] yes=91,no=92,missing=92
							91:leaf=0.0713246
							92:leaf=-0.00628991
					24:[D_KEYWORD_MACRO_MAX_COEC<0.0200449] yes=47,no=48,missing=48
						47:[D_KEYWORD_MICRO_MAX_COEC<0.131951] yes=93,no=94,missing=94
							93:leaf=0.0114392
							94:leaf=-0.0095294
						48:[D_KEYWORD_MICRO_MAX_COEC<0.124664] yes=95,no=96,missing=96
							95:leaf=-0.00838551
							96:leaf=-0.00031998
		4:[D_TITLEMD5_COEC<0.125971] yes=7,no=8,missing=8
			7:[C_D_U_TITLEMD5_AGE_COEC<0.153114] yes=13,no=14,missing=14
				13:[C_D_U_TITLEMD5_AGE_COEC<0.0772302] yes=25,no=26,missing=26
					25:[KW_REL<0.00054777] yes=49,no=50,missing=50
						49:[C_D_U_TITLEMD5_GENDER_COEC<0.0736999] yes=97,no=98,missing=98
							97:leaf=-0.0527698
							98:leaf=-0.0120527
						50:[U_GENDER<2] yes=99,no=100,missing=100
							99:leaf=-0.0184396
							100:leaf=-0.0018288
					26:[C_D_U_TITLEMD5_CATEGORY_MICRO_MAX_COEC<0.159431] yes=51,no=52,missing=52
						51:[CAT_REL<0.292806] yes=101,no=102,missing=102
							101:leaf=0.00959123
							102:leaf=0.000248516
						52:[C_D_U_TITLEMD5_CATEGORY_MICRO_MEAN_COEC<0.108322] yes=103,no=104,missing=104
							103:leaf=-0.0205897
							104:leaf=0.0143926
				14:[U_AGE_1<0.999999] yes=27,no=28,missing=28
					27:[D_KEYWORD_MACRO_MEAN_COEC<0.129147] yes=53,no=54,missing=54
						53:[D_KEYWORD_MICRO_MEAN_COEC<0.132978] yes=105,no=106,missing=106
							105:leaf=-0.0285829
							106:leaf=-0.19879
						54:[KW_REL<0.000877926] yes=107,no=108,missing=108
							107:leaf=0.124934
							108:leaf=-0.00377611
					28:[C_D_U_TITLEMD5_GENDER_COEC<0.279329] yes=55,no=56,missing=56
						55:[C_D_U_TITLEMD5_CATEGORY_MACRO_MEAN_COEC<0.18138] yes=109,no=110,missing=110
							109:leaf=0.00529565
							110:leaf=-0.19254
						56:[C_D_U_PUBLISHER_GENDER_COEC<0.0954281] yes=111,no=112,missing=112
							111:leaf=-0.198923
							112:leaf=-0.0503812
			8:[C_D_U_TITLEMD5_CATEGORY_MACRO_MEAN_COEC<0.143694] yes=15,no=16,missing=16
				15:[D_TITLEMD5_COEC<0.146246] yes=29,no=30,missing=30
					29:[C_D_U_TITLEMD5_CATEGORY_MACRO_MAX_COEC<0.0743565] yes=57,no=58,missing=58
						57:[D_KEYWORD_MICRO_MAX_COEC<0.125513] yes=113,no=114,missing=114
							113:leaf=-0.00600206
							114:leaf=0.00473086
						58:[C_D_U_TITLEMD5_CATEGORY_MICRO_MEAN_COEC<0.146551] yes=115,no=116,missing=116
							115:leaf=-0.020187
							116:leaf=-0.00303319
					30:[D_KEYWORD_MACRO_MEAN_COEC<0.0904688] yes=59,no=60,missing=60
						59:[C_D_U_TITLEMD5_CATEGORY_MICRO_MEAN_COEC<0.192602] yes=117,no=118,missing=118
							117:leaf=-0.0128589
							118:leaf=-0.0356103
						60:[D_PUBLISHER_COEC<0.0871445] yes=119,no=120,missing=120
							119:leaf=0.00359283
							120:leaf=-0.00835277
				16:[D_TITLEMD5_COEC<0.164992] yes=31,no=32,missing=32
					31:[D_KEYWORD_MICRO_MEAN_COEC<0.126869] yes=61,no=62,missing=62
						61:[C_D_U_TITLEMD5_AGE_COEC<0.187656] yes=121,no=122,missing=121
							121:leaf=0.00944225
							122:leaf=-0.0152829
						62:[D_PUBLISHER_COEC<0.0940368] yes=123,no=124,missing=124
							123:leaf=0.00723803
							124:leaf=-0.0135477
					32:[C_D_U_TITLEMD5_CATEGORY_MACRO_MEAN_COEC<0.18138] yes=63,no=64,missing=64
						63:[D_TITLEMD5_COEC<0.193109] yes=125,no=126,missing=126
							125:leaf=-0.000812114
							126:leaf=-0.010794
						64:[KW_REL<0.00166642] yes=127,no=128,missing=128
							127:leaf=0.00165799
							128:leaf=0.00871916
booster[74]:
0:[U_KW_LEN<200] yes=1,no=2,missing=1
	1:leaf=0.0
	2:[U_CAT_LEN<7] yes=3,no=4,missing=4
		3:[CAT_REL<0.939768] yes=5,no=6,missing=6
			5:[C_D_U_CATEGORY_GENDER_MICRO_MAX_COEC<0.10354] yes=9,no=10,missing=10
				9:[DAY_OF_WEEK<0.999999] yes=17,no=18,missing=18
					17:[U_CAT_LEN<5] yes=33,no=34,missing=34
						33:[TIME_OF_DAY<19] yes=65,no=66,missing=66
							65:leaf=-0.0327477
							66:leaf=0.0216037
						34:[TIME_OF_DAY<12] yes=67,no=68,missing=68
							67:leaf=-0.00164949
							68:leaf=-0.0186788
					18:[D_TITLEMD5_COEC<0.0258206] yes=35,no=36,missing=36
						35:[D_PUBLISHER_COEC<0.0765119] yes=69,no=70,missing=70
							69:leaf=-0.0272614
							70:leaf=-0.00235294
						36:[C_D_U_CATEGORY_GENDER_MICRO_MAX_COEC<0.0590716] yes=71,no=72,missing=72
							71:leaf=-0.0174786
							72:leaf=-0.00370556
				10:[D_KEYWORD_MACRO_MEAN_COEC<0.0699515] yes=19,no=20,missing=20
					19:[C_D_U_CATEGORY_CITY_MACRO_MEAN_COEC<0.105055] yes=37,no=38,missing=38
						37:[WORD_COUNT<1260] yes=73,no=74,missing=74
							73:leaf=-0.0610936
							74:leaf=0.0156271
						38:[C_D_U_TITLEMD5_CATEGORY_MICRO_MAX_COEC<0.125016] yes=75,no=76,missing=76
							75:leaf=-0.0846799
							76:leaf=0.00717176
					20:[C_D_U_CATEGORY_AGE_MICRO_MAX_COEC<0.0870323] yes=39,no=40,missing=40
						39:[D_KEYWORD_MICRO_MAX_COEC<0.189568] yes=77,no=78,missing=78
							77:leaf=0.0648724
							78:leaf=-0.129841
						40:[C_D_U_CATEGORY_AGE_MICRO_MEAN_COEC<0.091432] yes=79,no=80,missing=80
							79:leaf=-0.0289831
							80:leaf=0.008964
			6:[C_D_U_TITLEMD5_CATEGORY_MICRO_MAX_COEC<0.0906309] yes=11,no=12,missing=12
				11:[C_D_U_CATEGORY_CITY_MACRO_MAX_COEC<0.0984247] yes=21,no=22,missing=22
					21:[C_D_U_PUBLISHER_GENDER_COEC<0.0516128] yes=41,no=42,missing=42
						41:[D_KEYWORD_MICRO_MAX_COEC<0.0886833] yes=81,no=82,missing=82
							81:leaf=-0.0653193
							82:leaf=0.130801
						42:[C_D_U_PUBLISHER_CITY_COEC<0.0912395] yes=83,no=84,missing=83
							83:leaf=0.0348534
							84:leaf=0.100216
					22:[D_KEYWORD_MACRO_MEAN_COEC<0.0601356] yes=43,no=44,missing=44
						43:[KW_REL<0.000279459] yes=85,no=86,missing=86
							85:leaf=0.0250665
							86:leaf=-0.1344
						44:[C_D_U_PUBLISHER_GENDER_COEC<0.0536819] yes=87,no=88,missing=88
							87:leaf=-0.138663
							88:leaf=0.0579068
				12:[D_CATEGORY_MACRO_MAX_COEC<0.0892266] yes=23,no=24,missing=24
					23:[D_CATEGORY_MACRO_MAX_COEC<0.0647098] yes=45,no=46,missing=46
						45:[C_D_U_TITLEMD5_CATEGORY_MICRO_MEAN_COEC<0.145639] yes=89,no=90,missing=90
							89:leaf=-0.0859993
							90:leaf=0.0341229
						46:[DAY_OF_WEEK<0.999999] yes=91,no=92,missing=92
							91:leaf=-0.0305352
							92:leaf=0.0408301
					24:[C_D_U_CATEGORY_AGE_MACRO_MEAN_COEC<0.0958283] yes=47,no=48,missing=48
						47:[WORD_COUNT<1544] yes=93,no=94,missing=94
							93:leaf=-0.20513
							94:leaf=-0.0517712
						48:[C_D_U_TITLEMD5_CATEGORY_MICRO_MAX_COEC<0.115845] yes=95,no=96,missing=96
							95:leaf=0.0357483
							96:leaf=-0.047295
		4:[CAT_REL<0.008754] yes=7,no=8,missing=8
			7:[IMAGE_COUNT<11] yes=13,no=14,missing=14
				13:[WORD_COUNT<1503] yes=25,no=26,missing=26
					25:[D_KEYWORD_MACRO_MAX_COEC<0.0252152] yes=49,no=50,missing=50
						49:[C_D_U_CATEGORY_AGE_MACRO_MAX_COEC<0.089488] yes=97,no=98,missing=97
							97:leaf=0.00781175
							98:leaf=0.0526897
						50:[D_CATEGORY_MICRO_MEAN_COEC<0.105049] yes=99,no=100,missing=99
							99:leaf=-0.0107783
							100:leaf=0.0471142
					26:[U_CAT_LEN<10] yes=51,no=52,missing=52
						51:[WORD_COUNT<2289] yes=101,no=102,missing=102
							101:leaf=-0.014242
							102:leaf=0.000976216
						52:[KW_REL<0.0014139] yes=103,no=104,missing=104
							103:leaf=-0.0263666
							104:leaf=-0.00702074
				14:[C_D_U_CATEGORY_AGE_MACRO_MEAN_COEC<0.0921504] yes=27,no=28,missing=27
					27:[KW_REL<0.000408638] yes=53,no=54,missing=54
						53:[U_CAT_LEN<17] yes=105,no=106,missing=106
							105:leaf=-0.00182399
							106:leaf=0.112525
						54:[C_D_U_TITLEMD5_GENDER_COEC<0.0995221] yes=107,no=108,missing=107
							107:leaf=0.104885
							108:leaf=-0.0789097
					28:[D_KEYWORD_MICRO_MAX_COEC<0.132369] yes=55,no=56,missing=56
						55:leaf=-0.019032
						56:leaf=-0.140017
			8:[C_D_U_CATEGORY_GENDER_MICRO_MEAN_COEC<0.0547628] yes=15,no=16,missing=16
				15:[U_GENDER<2] yes=29,no=30,missing=29
					29:[U_CAT_LEN<19] yes=57,no=58,missing=58
						57:[D_PUBLISHER_COEC<0.0550111] yes=109,no=110,missing=110
							109:leaf=0.00861592
							110:leaf=0.0236035
						58:[C_D_U_CATEGORY_CITY_MICRO_MAX_COEC<0.0831925] yes=111,no=112,missing=112
							111:leaf=0.00141616
							112:leaf=-0.100954
					30:[C_D_U_CATEGORY_AGE_MICRO_MEAN_COEC<0.070802] yes=59,no=60,missing=60
						59:[C_D_U_TITLEMD5_CATEGORY_MICRO_MAX_COEC<0.17094] yes=113,no=114,missing=114
							113:leaf=0.00484206
							114:leaf=-0.0225036
						60:[C_D_U_CATEGORY_CITY_MACRO_MAX_COEC<0.0759131] yes=115,no=116,missing=116
							115:leaf=-0.145695
							116:leaf=0.0841309
				16:[C_D_U_CATEGORY_CITY_MICRO_MEAN_COEC<0.133031] yes=31,no=32,missing=32
					31:[C_D_U_PUBLISHER_CITY_COEC<0.0412636] yes=61,no=62,missing=61
						61:[C_D_U_CATEGORY_CITY_MACRO_MEAN_COEC<0.075202] yes=117,no=118,missing=118
							117:leaf=-0.00729437
							118:leaf=-0.00107591
						62:[TIME_OF_DAY<17] yes=119,no=120,missing=120
							119:leaf=-4.20444e-06
							120:leaf=0.00359274
					32:[C_D_U_CATEGORY_CITY_MICRO_MEAN_COEC<0.196421] yes=63,no=64,missing=64
						63:[U_CAT_LEN<9] yes=121,no=122,missing=122
							121:leaf=-0.00373151
							122:leaf=0.00814507
						64:[CAT_REL<0.764753] yes=123,no=124,missing=124
							123:leaf=0.0181291
							124:leaf=-0.036997
booster[75]:
0:[U_KW_LEN<200] yes=1,no=2,missing=1
	1:leaf=0.0
	2:[U_CAT_LEN<8] yes=3,no=4,missing=4
		3:[U_AGE_1<0.999999] yes=5,no=6,missing=6
			5:[IMAGE_COUNT<0.999999] yes=9,no=10,missing=10
				9:[D_KEYWORD_MICRO_MEAN_COEC<0.13393] yes=17,no=18,missing=18
					17:[D_KEYWORD_MACRO_MEAN_COEC<0.102058] yes=33,no=34,missing=34
						33:[D_CATEGORY_MACRO_MEAN_COEC<0.0700152] yes=65,no=66,missing=66
							65:leaf=-0.044908
							66:leaf=-0.0143181
						34:leaf=-0.173381
					18:[D_KEYWORD_MACRO_MEAN_COEC<0.105895] yes=35,no=36,missing=36
						35:[U_CAT_LEN<6] yes=67,no=68,missing=68
							67:leaf=0.23181
							68:leaf=0.110538
						36:[C_D_U_CATEGORY_AGE_MACRO_MAX_COEC<0.0935545] yes=69,no=70,missing=70
							69:leaf=0.103255
							70:leaf=-0.120878
				10:[CAT_REL<0.665385] yes=19,no=20,missing=20
					19:[C_D_U_CATEGORY_CITY_MICRO_MAX_COEC<0.196067] yes=37,no=38,missing=37
						37:[U_CAT_LEN<5] yes=71,no=72,missing=72
							71:leaf=-0.0107586
							72:leaf=-0.00287753
						38:[CAT_REL<0.428738] yes=73,no=74,missing=74
							73:leaf=0.0148261
							74:leaf=0.0543467
					20:[KW_REL<0.0143089] yes=39,no=40,missing=40
						39:[D_CATEGORY_MICRO_MEAN_COEC<0.0831463] yes=75,no=76,missing=76
							75:leaf=-0.00816214
							76:leaf=0.00695231
						40:[C_D_U_CATEGORY_AGE_MACRO_MAX_COEC<0.0770994] yes=77,no=78,missing=78
							77:leaf=0.0276473
							78:leaf=0.00405227
			6:[C_D_U_CATEGORY_GENDER_MACRO_MAX_COEC<0.0880344] yes=11,no=12,missing=11
				11:[C_D_U_TITLEMD5_AGE_COEC<0.0668374] yes=21,no=22,missing=21
					21:[CAT_REL<0.171288] yes=41,no=42,missing=42
						41:[D_PUBLISHER_COEC<0.0671008] yes=79,no=80,missing=80
							79:leaf=-0.0196743
							80:leaf=-0.0648681
						42:[C_D_U_PUBLISHER_GENDER_COEC<0.0495303] yes=81,no=82,missing=81
							81:leaf=-0.0598106
							82:leaf=-0.0174531
					22:[D_CATEGORY_MICRO_MEAN_COEC<0.088006] yes=43,no=44,missing=44
						43:[C_D_U_TITLEMD5_CATEGORY_MICRO_MAX_COEC<0.0670294] yes=83,no=84,missing=84
							83:leaf=-0.0800716
							84:leaf=-0.00557278
						44:[C_D_U_PUBLISHER_AGE_COEC<0.100934] yes=85,no=86,missing=86
							85:leaf=-0.0830358
							86:leaf=0.0347761
				12:[CAT_REL<0.916909] yes=23,no=24,missing=24
					23:[D_KEYWORD_MACRO_MEAN_COEC<0.0630892] yes=45,no=46,missing=46
						45:[WORD_COUNT<6170] yes=87,no=88,missing=88
							87:leaf=-0.0517551
							88:leaf=0.0822992
						46:[D_CATEGORY_MACRO_MAX_COEC<0.0894841] yes=89,no=90,missing=90
							89:leaf=0.0291677
							90:leaf=-0.0028404
					24:[C_D_U_TITLEMD5_GENDER_COEC<0.211284] yes=47,no=48,missing=48
						47:[C_D_U_TITLEMD5_CATEGORY_MACRO_MEAN_COEC<0.0835386] yes=91,no=92,missing=92
							91:leaf=-0.12746
							92:leaf=-0.230694
						48:leaf=-0.111435
		4:[CAT_REL<0.008984] yes=7,no=8,missing=8
			7:[C_D_U_CATEGORY_GENDER_MICRO_MAX_COEC<0.0370942] yes=13,no=14,missing=13
				13:[D_KEYWORD_MACRO_MAX_COEC<0.00994102] yes=25,no=26,missing=26
					25:[C_D_U_PUBLISHER_GENDER_COEC<0.107104] yes=49,no=50,missing=49
						49:[C_D_U_TITLEMD5_CATEGORY_MICRO_MEAN_COEC<0.0820048] yes=93,no=94,missing=94
							93:leaf=-0.0303728
							94:leaf=-0.118796
						50:[TIME_OF_DAY<9] yes=95,no=96,missing=96
							95:leaf=-0.114537
							96:leaf=0.122783
					26:[IMAGE_COUNT<11] yes=51,no=52,missing=52
						51:[C_D_U_TITLEMD5_GENDER_COEC<0.228835] yes=97,no=98,missing=97
							97:leaf=0.00688495
							98:leaf=-0.0917937
						52:[D_PUBLISHER_COEC<0.0542277] yes=99,no=100,missing=100
							99:leaf=0.0323048
							100:leaf=0.172992
				14:[C_D_U_TITLEMD5_CATEGORY_MICRO_MAX_COEC<0.114692] yes=27,no=28,missing=28
					27:[C_D_U_TITLEMD5_CATEGORY_MACRO_MAX_COEC<0.0367243] yes=53,no=54,missing=54
						53:[TIME_OF_DAY<2] yes=101,no=102,missing=102
							101:leaf=0.0938605
							102:leaf=-0.0173252
						54:[IMAGE_COUNT<2] yes=103,no=104,missing=104
							103:leaf=-0.0587993
							104:leaf=-0.000315997
					28:[C_D_U_TITLEMD5_CATEGORY_MACRO_MAX_COEC<0.0648943] yes=55,no=56,missing=56
						55:[C_D_U_TITLEMD5_AGE_COEC<0.0248391] yes=105,no=106,missing=105
							105:leaf=-0.0759858
							106:leaf=-0.00288453
						56:[DAY_OF_WEEK<3] yes=107,no=108,missing=108
							107:leaf=-0.0126694
							108:leaf=-0.0299564
			8:[C_D_U_TITLEMD5_CATEGORY_MACRO_MEAN_COEC<0.100108] yes=15,no=16,missing=16
				15:[D_TITLEMD5_COEC<0.0997793] yes=29,no=30,missing=29
					29:[C_D_U_TITLEMD5_CATEGORY_MACRO_MEAN_COEC<0.081938] yes=57,no=58,missing=58
						57:[C_D_U_TITLEMD5_CATEGORY_MICRO_MEAN_COEC<0.092788] yes=109,no=110,missing=110
							109:leaf=0.000499217
							110:leaf=-0.00909651
						58:[WORD_COUNT<706] yes=111,no=112,missing=112
							111:leaf=-0.0111109
							112:leaf=0.00576368
					30:[C_D_U_PUBLISHER_AGE_COEC<0.107279] yes=59,no=60,missing=60
						59:[D_CATEGORY_MACRO_MAX_COEC<0.0474561] yes=113,no=114,missing=114
							113:leaf=0.0179802
							114:leaf=-0.00759047
						60:[D_KEYWORD_MACRO_MAX_COEC<0.0160437] yes=115,no=116,missing=116
							115:leaf=0.0241532
							116:leaf=0.000425521
				16:[D_TITLEMD5_COEC<0.110445] yes=31,no=32,missing=32
					31:[C_D_U_TITLEMD5_CATEGORY_MACRO_MAX_COEC<0.0799843] yes=61,no=62,missing=62
						61:[D_KEYWORD_MACRO_MEAN_COEC<0.0574887] yes=117,no=118,missing=118
							117:leaf=-0.0147524
							118:leaf=0.011384
						62:[D_KEYWORD_MICRO_MEAN_COEC<0.102679] yes=119,no=120,missing=120
							119:leaf=-0.00541876
							120:leaf=0.0143901
					32:[C_D_U_TITLEMD5_CATEGORY_MACRO_MEAN_COEC<0.11549] yes=63,no=64,missing=64
						63:[C_D_U_TITLEMD5_CATEGORY_MACRO_MAX_COEC<0.0674876] yes=121,no=122,missing=122
							121:leaf=-0.00169359
							122:leaf=-0.0172458
						64:[D_KEYWORD_MICRO_MEAN_COEC<0.128057] yes=123,no=124,missing=124
							123:leaf=0.00353124
							124:leaf=-0.0025237
booster[76]:
0:[U_KW_LEN<200] yes=1,no=2,missing=1
	1:leaf=0.0
	2:[D_CATEGORY_MICRO_MEAN_COEC<0.0645621] yes=3,no=4,missing=3
		3:[DAY_OF_WEEK<2] yes=5,no=6,missing=6
			5:[CAT_REL<0.009727] yes=9,no=10,missing=10
				9:[D_TITLEMD5_COEC<0.250626] yes=17,no=18,missing=18
					17:[D_KEYWORD_MICRO_MAX_COEC<0.0750449] yes=33,no=34,missing=34
						33:[C_D_U_PUBLISHER_AGE_COEC<0.144162] yes=65,no=66,missing=65
							65:leaf=0.038371
							66:leaf=0.252649
						34:[D_KEYWORD_MACRO_MEAN_COEC<0.056251] yes=67,no=68,missing=68
							67:leaf=-0.0262104
							68:leaf=0.003808
					18:[U_CAT_LEN<26] yes=35,no=36,missing=36
						35:[D_CATEGORY_MACRO_MAX_COEC<0.047995] yes=69,no=70,missing=69
							69:leaf=-0.110804
							70:leaf=-0.00676682
						36:[C_D_U_PUBLISHER_AGE_COEC<0.0339369] yes=71,no=72,missing=72
							71:leaf=0.131329
							72:leaf=0.00431119
				10:[C_D_U_CATEGORY_AGE_MACRO_MEAN_COEC<0.0699341] yes=19,no=20,missing=20
					19:[U_CAT_LEN<6] yes=37,no=38,missing=38
						37:[CAT_REL<0.362012] yes=73,no=74,missing=74
							73:leaf=-0.0578324
							74:leaf=0.0487944
						38:[C_D_U_CATEGORY_CITY_MICRO_MAX_COEC<0.0992324] yes=75,no=76,missing=76
							75:leaf=0.0199509
							76:leaf=0.0542245
					20:[KW_REL<0.00141661] yes=39,no=40,missing=40
						39:[D_KEYWORD_MACRO_MEAN_COEC<0.0847799] yes=77,no=78,missing=78
							77:leaf=-0.131235
							78:leaf=0.0573183
						40:[C_D_U_TITLEMD5_CATEGORY_MACRO_MEAN_COEC<0.0602711] yes=79,no=80,missing=80
							79:leaf=0.226457
							80:leaf=0.0611473
			6:[D_KEYWORD_MICRO_MEAN_COEC<0.0647751] yes=11,no=12,missing=12
				11:[DAY_OF_WEEK<4] yes=21,no=22,missing=22
					21:[C_D_U_PUBLISHER_CITY_COEC<0.0959299] yes=41,no=42,missing=41
						41:[CAT_REL<0.057878] yes=81,no=82,missing=82
							81:leaf=-0.015088
							82:leaf=0.0245925
						42:[C_D_U_CATEGORY_AGE_MICRO_MEAN_COEC<0.0692983] yes=83,no=84,missing=84
							83:leaf=0.0543309
							84:leaf=0.257617
					22:[D_CATEGORY_MICRO_MAX_COEC<0.036706] yes=43,no=44,missing=43
						43:[C_D_U_TITLEMD5_GENDER_COEC<0.141715] yes=85,no=86,missing=85
							85:leaf=0.0126786
							86:leaf=-0.0668436
						44:[KW_REL<0.00058253] yes=87,no=88,missing=88
							87:leaf=-0.0284709
							88:leaf=-0.00511071
				12:[D_PUBLISHER_COEC<0.0338383] yes=23,no=24,missing=24
					23:[D_TITLEMD5_COEC<0.054826] yes=45,no=46,missing=46
						45:[TIME_OF_DAY<8] yes=89,no=90,missing=90
							89:leaf=0.0146174
							90:leaf=-0.0183956
						46:[D_KEYWORD_MACRO_MEAN_COEC<0.0608342] yes=91,no=92,missing=92
							91:leaf=-0.0397251
							92:leaf=-0.099037
					24:[WORD_COUNT<723] yes=47,no=48,missing=48
						47:[KW_REL<0.00147989] yes=93,no=94,missing=94
							93:leaf=-0.06989
							94:leaf=-0.0111928
						48:[TIME_OF_DAY<3] yes=95,no=96,missing=96
							95:leaf=0.0161573
							96:leaf=0.00415437
		4:[C_D_U_CATEGORY_GENDER_MACRO_MEAN_COEC<0.065536] yes=7,no=8,missing=8
			7:[U_GENDER<2] yes=13,no=14,missing=13
				13:[KW_REL<0.0090451] yes=25,no=26,missing=26
					25:[D_KEYWORD_MACRO_MEAN_COEC<0.0733287] yes=49,no=50,missing=50
						49:[C_D_U_TITLEMD5_GENDER_COEC<0.06218] yes=97,no=98,missing=97
							97:leaf=-0.000315441
							98:leaf=-0.01951
						50:[D_PUBLISHER_COEC<0.0891995] yes=99,no=100,missing=99
							99:leaf=-0.00574416
							100:leaf=0.0143528
					26:[C_D_U_CATEGORY_AGE_MACRO_MAX_COEC<0.0621239] yes=51,no=52,missing=52
						51:[CAT_REL<0.174859] yes=101,no=102,missing=102
							101:leaf=0.0106398
							102:leaf=0.0655138
						52:[WORD_COUNT<5126] yes=103,no=104,missing=104
							103:leaf=0.00342529
							104:leaf=0.0288614
				14:[D_CATEGORY_MACRO_MAX_COEC<0.0673364] yes=27,no=28,missing=28
					27:[CAT_REL<0.117425] yes=53,no=54,missing=54
						53:[C_D_U_CATEGORY_AGE_MACRO_MAX_COEC<0.0725324] yes=105,no=106,missing=106
							105:leaf=-0.0179314
							106:leaf=0.0568019
						54:[C_D_U_CATEGORY_AGE_MICRO_MAX_COEC<0.0717781] yes=107,no=108,missing=108
							107:leaf=0.00519203
							108:leaf=-0.0227951
					28:[CAT_REL<0.300267] yes=55,no=56,missing=56
						55:[C_D_U_PUBLISHER_AGE_COEC<0.102602] yes=109,no=110,missing=109
							109:leaf=-0.0338266
							110:leaf=-0.00892639
						56:[D_KEYWORD_MACRO_MAX_COEC<0.0112672] yes=111,no=112,missing=112
							111:leaf=-0.0456188
							112:leaf=-0.00625997
			8:[TIME_OF_DAY<18] yes=15,no=16,missing=16
				15:[U_CAT_LEN<12] yes=29,no=30,missing=30
					29:[CAT_REL<0.487498] yes=57,no=58,missing=58
						57:[D_CATEGORY_MACRO_MEAN_COEC<0.0686153] yes=113,no=114,missing=114
							113:leaf=0.00402727
							114:leaf=-0.00301082
						58:[D_TITLEMD5_COEC<0.0949412] yes=115,no=116,missing=115
							115:leaf=0.00469058
							116:leaf=-0.00152878
					30:[CAT_REL<0.009727] yes=59,no=60,missing=60
						59:[IMAGE_COUNT<7] yes=117,no=118,missing=118
							117:leaf=-0.0195573
							118:leaf=0.0742849
						60:[WORD_COUNT<1867] yes=119,no=120,missing=120
							119:leaf=-0.000461586
							120:leaf=0.00295444
				16:[C_D_U_CATEGORY_CITY_MICRO_MAX_COEC<0.0633121] yes=31,no=32,missing=32
					31:[C_D_U_TITLEMD5_CATEGORY_MACRO_MAX_COEC<0.0233675] yes=61,no=62,missing=62
						61:[D_CATEGORY_MACRO_MAX_COEC<0.0652724] yes=121,no=122,missing=122
							121:leaf=0.0520382
							122:leaf=-0.0567556
						62:[C_D_U_CATEGORY_CITY_MACRO_MAX_COEC<0.0427521] yes=123,no=124,missing=124
							123:leaf=-0.0244739
							124:leaf=-0.000476849
					32:[U_GENDER<4] yes=63,no=64,missing=64
						63:[DAY_OF_WEEK<4] yes=125,no=126,missing=126
							125:leaf=0.0115382
							126:leaf=0.00282199
						64:[U_CAT_LEN<17] yes=127,no=128,missing=128
							127:leaf=-0.000917831
							128:leaf=0.00953234
booster[77]:
0:[U_KW_LEN<200] yes=1,no=2,missing=1
	1:leaf=0.0
	2:[U_CAT_LEN<14] yes=3,no=4,missing=4
		3:[C_D_U_PUBLISHER_CITY_COEC<0.0944571] yes=5,no=6,missing=6
			5:[D_KEYWORD_MACRO_MEAN_COEC<0.168843] yes=9,no=10,missing=10
				9:[C_D_U_TITLEMD5_AGE_COEC<0.273765] yes=17,no=18,missing=17
					17:[C_D_U_TITLEMD5_CATEGORY_MACRO_MEAN_COEC<0.139488] yes=33,no=34,missing=34
						33:[C_D_U_TITLEMD5_AGE_COEC<0.152906] yes=65,no=66,missing=65
							65:leaf=-0.00196036
							66:leaf=-0.0104624
						34:[D_TITLEMD5_COEC<0.164947] yes=67,no=68,missing=68
							67:leaf=0.00565219
							68:leaf=-0.00201947
					18:[KW_REL<0.00297261] yes=35,no=36,missing=36
						35:[D_KEYWORD_MICRO_MEAN_COEC<0.0636941] yes=69,no=70,missing=70
							69:leaf=0.000880183
							70:leaf=-0.0295115
						36:[D_CAT_LEN<2] yes=71,no=72,missing=72
							71:leaf=-0.00654753
							72:leaf=-0.0961298
				10:[D_CATEGORY_MICRO_MAX_COEC<0.0894014] yes=19,no=20,missing=19
					19:[D_KEYWORD_MICRO_MEAN_COEC<0.0745557] yes=37,no=38,missing=38
						37:[D_PUBLISHER_COEC<0.0735745] yes=73,no=74,missing=74
							73:leaf=-0.140526
							74:leaf=0.0433796
						38:[D_PUBLISHER_COEC<0.0881288] yes=75,no=76,missing=76
							75:leaf=0.0560489
							76:leaf=0.0278297
					20:[C_D_U_CATEGORY_GENDER_MACRO_MAX_COEC<0.0935057] yes=39,no=40,missing=40
						39:[CAT_REL<0.243911] yes=77,no=78,missing=78
							77:leaf=-0.0314977
							78:leaf=0.0163776
						40:[C_D_U_TITLEMD5_CATEGORY_MICRO_MAX_COEC<0.453822] yes=79,no=80,missing=80
							79:leaf=0.0362171
							80:leaf=-0.0674075
			6:[D_CATEGORY_MACRO_MAX_COEC<0.0767652] yes=11,no=12,missing=11
				11:[U_AGE_1<0.999999] yes=21,no=22,missing=22
					21:[C_D_U_PUBLISHER_CITY_COEC<0.158955] yes=41,no=42,missing=41
						41:[D_PUBLISHER_COEC<0.122698] yes=81,no=82,missing=81
							81:leaf=0.00469341
							82:leaf=-0.00440268
						42:[D_KEYWORD_MACRO_MAX_COEC<0.0537045] yes=83,no=84,missing=84
							83:leaf=0.0100722
							84:leaf=0.0464534
					22:[D_KEYWORD_MICRO_MEAN_COEC<0.0571575] yes=43,no=44,missing=44
						43:[C_D_U_PUBLISHER_CITY_COEC<0.126547] yes=85,no=86,missing=85
							85:leaf=0.109771
							86:leaf=-0.124488
						44:[C_D_U_CATEGORY_GENDER_MICRO_MAX_COEC<0.0649596] yes=87,no=88,missing=88
							87:leaf=-0.0369687
							88:leaf=-0.0119787
				12:[WORD_COUNT<587] yes=23,no=24,missing=24
					23:[CAT_REL<0.056768] yes=45,no=46,missing=46
						45:[C_D_U_TITLEMD5_AGE_COEC<0.0943386] yes=89,no=90,missing=90
							89:leaf=0.0653313
							90:leaf=-0.0467795
						46:[D_KEYWORD_MICRO_MAX_COEC<0.189146] yes=91,no=92,missing=92
							91:leaf=-0.0114804
							92:leaf=0.00319932
					24:[TIME_OF_DAY<18] yes=47,no=48,missing=48
						47:[DAY_OF_WEEK<5] yes=93,no=94,missing=94
							93:leaf=0.000679103
							94:leaf=-0.00463243
						48:[D_KEYWORD_MACRO_MEAN_COEC<0.0692472] yes=95,no=96,missing=96
							95:leaf=-0.0112346
							96:leaf=0.00796797
		4:[KW_REL<0.0324251] yes=7,no=8,missing=8
			7:[TIME_OF_DAY<9] yes=13,no=14,missing=14
				13:[U_AGE_1<0.999999] yes=25,no=26,missing=26
					25:[C_D_U_TITLEMD5_CATEGORY_MICRO_MEAN_COEC<0.0690479] yes=49,no=50,missing=50
						49:[U_GENDER<2] yes=97,no=98,missing=97
							97:leaf=0.00854486
							98:leaf=-0.0121277
						50:[C_D_U_TITLEMD5_CATEGORY_MACRO_MEAN_COEC<0.065024] yes=99,no=100,missing=100
							99:leaf=-0.0118224
							100:leaf=-0.000975928
					26:[C_D_U_TITLEMD5_GENDER_COEC<0.0375093] yes=51,no=52,missing=51
						51:[C_D_U_PUBLISHER_AGE_COEC<0.0692054] yes=101,no=102,missing=101
							101:leaf=-0.00860254
							102:leaf=0.0406386
						52:[C_D_U_TITLEMD5_CATEGORY_MICRO_MAX_COEC<0.147105] yes=103,no=104,missing=104
							103:leaf=-0.0411991
							104:leaf=-0.0132841
				14:[C_D_U_TITLEMD5_CATEGORY_MACRO_MEAN_COEC<0.0577804] yes=27,no=28,missing=28
					27:[C_D_U_TITLEMD5_CATEGORY_MICRO_MEAN_COEC<0.0654222] yes=53,no=54,missing=54
						53:[CAT_REL<0.657531] yes=105,no=106,missing=106
							105:leaf=-0.000227389
							106:leaf=0.0206215
						54:[D_TITLEMD5_COEC<0.101696] yes=107,no=108,missing=108
							107:leaf=-0.0131634
							108:leaf=0.0508247
					28:[C_D_U_TITLEMD5_AGE_COEC<0.198061] yes=55,no=56,missing=55
						55:[U_GENDER<2] yes=109,no=110,missing=110
							109:leaf=0.00693055
							110:leaf=0.00243721
						56:[C_D_U_TITLEMD5_CATEGORY_MACRO_MEAN_COEC<0.160444] yes=111,no=112,missing=112
							111:leaf=-0.0210759
							112:leaf=0.000157001
			8:[D_KEYWORD_MACRO_MAX_COEC<0.0164665] yes=15,no=16,missing=16
				15:[U_CAT_LEN<24] yes=29,no=30,missing=30
					29:[D_KEYWORD_MICRO_MEAN_COEC<0.0650883] yes=57,no=58,missing=58
						57:[C_D_U_PUBLISHER_CITY_COEC<0.0910928] yes=113,no=114,missing=113
							113:leaf=0.0263286
							114:leaf=-0.161898
						58:[IMAGE_COUNT<2] yes=115,no=116,missing=116
							115:leaf=0.0644482
							116:leaf=-0.131977
					30:[WORD_COUNT<2271] yes=59,no=60,missing=60
						59:[D_KEYWORD_MACRO_MEAN_COEC<0.0619394] yes=117,no=118,missing=118
							117:leaf=0.070127
							118:leaf=-0.183218
						60:leaf=-0.207108
				16:[CAT_REL<0.112359] yes=31,no=32,missing=32
					31:[C_D_U_TITLEMD5_CATEGORY_MICRO_MEAN_COEC<0.243667] yes=61,no=62,missing=62
						61:[DAY_OF_WEEK<3] yes=119,no=120,missing=120
							119:leaf=0.0590145
							120:leaf=0.0229373
						62:[C_D_U_TITLEMD5_AGE_COEC<0.167285] yes=121,no=122,missing=121
							121:leaf=-0.0950401
							122:leaf=-0.191846
					32:[C_D_U_TITLEMD5_CATEGORY_MICRO_MAX_COEC<0.129208] yes=63,no=64,missing=64
						63:[D_PUBLISHER_COEC<0.0529299] yes=123,no=124,missing=124
							123:leaf=0.0271351
							124:leaf=-0.00632597
						64:[C_D_U_CATEGORY_AGE_MACRO_MEAN_COEC<0.0839378] yes=125,no=126,missing=126
							125:leaf=0.0273165
							126:leaf=-0.00811765
booster[78]:
0:[U_KW_LEN<200] yes=1,no=2,missing=1
	1:leaf=0.0
	2:[IMAGE_COUNT<0.999999] yes=3,no=4,missing=4
		3:[KW_REL<0.00753824] yes=5,no=6,missing=6
			5:[D_KEYWORD_MICRO_MEAN_COEC<0.0678402] yes=9,no=10,missing=10
				9:[C_D_U_TITLEMD5_CATEGORY_MACRO_MEAN_COEC<0.0496893] yes=17,no=18,missing=18
					17:[C_D_U_TITLEMD5_CATEGORY_MICRO_MEAN_COEC<0.0947808] yes=33,no=34,missing=34
						33:[C_D_U_CATEGORY_CITY_MICRO_MAX_COEC<0.0763913] yes=65,no=66,missing=66
							65:leaf=0.000558697
							66:leaf=-0.0682567
						34:leaf=0.324114
					18:[CAT_REL<0.542265] yes=35,no=36,missing=36
						35:[C_D_U_PUBLISHER_GENDER_COEC<0.096802] yes=67,no=68,missing=68
							67:leaf=-0.085455
							68:leaf=-0.0354735
						36:[WORD_COUNT<3021] yes=69,no=70,missing=70
							69:leaf=-0.03655
							70:leaf=0.0723749
				10:[D_TITLEMD5_COEC<0.169578] yes=19,no=20,missing=20
					19:[C_D_U_TITLEMD5_CATEGORY_MACRO_MEAN_COEC<0.077864] yes=37,no=38,missing=38
						37:[C_D_U_TITLEMD5_CATEGORY_MACRO_MEAN_COEC<0.0524394] yes=71,no=72,missing=72
							71:leaf=-0.0135589
							72:leaf=-0.0430136
						38:[C_D_U_TITLEMD5_GENDER_COEC<0.0245289] yes=73,no=74,missing=73
							73:leaf=-0.067586
							74:leaf=-0.00543323
					20:[D_CATEGORY_MACRO_MEAN_COEC<0.0624163] yes=39,no=40,missing=40
						39:[C_D_U_CATEGORY_CITY_MACRO_MEAN_COEC<0.0563021] yes=75,no=76,missing=76
							75:leaf=-0.0881534
							76:leaf=0.051679
						40:[U_CAT_LEN<14] yes=77,no=78,missing=78
							77:leaf=-0.0368908
							78:leaf=-0.0771827
			6:[D_KEYWORD_MACRO_MAX_COEC<0.0124147] yes=11,no=12,missing=12
				11:[TIME_OF_DAY<13] yes=21,no=22,missing=22
					21:[C_D_U_CATEGORY_AGE_MACRO_MAX_COEC<0.0854085] yes=41,no=42,missing=42
						41:[WORD_COUNT<1037] yes=79,no=80,missing=80
							79:leaf=-0.0816876
							80:leaf=0.035938
						42:[WORD_COUNT<1037] yes=81,no=82,missing=82
							81:leaf=0.219388
							82:leaf=-0.0458901
					22:[C_D_U_CATEGORY_CITY_MACRO_MEAN_COEC<0.0673276] yes=43,no=44,missing=44
						43:[C_D_U_TITLEMD5_GENDER_COEC<3.01507] yes=83,no=84,missing=84
							83:leaf=-0.146126
							84:leaf=0.0146602
						44:[DAY_OF_WEEK<5] yes=85,no=86,missing=86
							85:leaf=0.0277819
							86:leaf=-0.146633
				12:[C_D_U_CATEGORY_CITY_MICRO_MEAN_COEC<0.0626434] yes=23,no=24,missing=23
					23:[C_D_U_CATEGORY_AGE_MACRO_MAX_COEC<0.0716566] yes=45,no=46,missing=46
						45:[C_D_U_PUBLISHER_GENDER_COEC<0.0854409] yes=87,no=88,missing=88
							87:leaf=-0.0323937
							88:leaf=0.0212251
						46:[CAT_REL<0.151486] yes=89,no=90,missing=90
							89:leaf=0.00569698
							90:leaf=-0.133215
					24:[D_KEYWORD_MICRO_MEAN_COEC<0.0857951] yes=47,no=48,missing=48
						47:[D_CATEGORY_MICRO_MEAN_COEC<0.0830965] yes=91,no=92,missing=92
							91:leaf=-0.00251864
							92:leaf=-0.0734115
						48:[U_CAT_LEN<10] yes=93,no=94,missing=94
							93:leaf=-0.0223849
							94:leaf=0.0375863
		4:[D_TITLEMD5_COEC<5.70172] yes=7,no=8,missing=8
			7:[C_D_U_TITLEMD5_CATEGORY_MACRO_MEAN_COEC<0.0350767] yes=13,no=14,missing=14
				13:[TIME_OF_DAY<8] yes=25,no=26,missing=26
					25:[D_KEYWORD_MACRO_MEAN_COEC<0.0798792] yes=49,no=50,missing=50
						49:[DAY_OF_WEEK<2] yes=95,no=96,missing=96
							95:leaf=-0.0105638
							96:leaf=0.00628317
						50:[C_D_U_TITLEMD5_CATEGORY_MICRO_MEAN_COEC<0.0297639] yes=97,no=98,missing=98
							97:leaf=0.0687224
							98:leaf=0.00654431
					26:[TIME_OF_DAY<21] yes=51,no=52,missing=52
						51:[D_KEYWORD_MICRO_MEAN_COEC<0.106475] yes=99,no=100,missing=100
							99:leaf=-0.0112847
							100:leaf=0.0209294
						52:[C_D_U_CATEGORY_GENDER_MACRO_MAX_COEC<0.0964542] yes=101,no=102,missing=101
							101:leaf=0.010511
							102:leaf=0.0690966
				14:[WORD_COUNT<2708] yes=27,no=28,missing=28
					27:[C_D_U_TITLEMD5_CATEGORY_MICRO_MEAN_COEC<0.0502644] yes=53,no=54,missing=54
						53:[C_D_U_TITLEMD5_CATEGORY_MACRO_MEAN_COEC<0.0621452] yes=103,no=104,missing=104
							103:leaf=0.0111034
							104:leaf=-0.0394432
						54:[C_D_U_TITLEMD5_CATEGORY_MACRO_MEAN_COEC<0.0549954] yes=105,no=106,missing=106
							105:leaf=-0.00742958
							106:leaf=-0.000295671
					28:[D_KEYWORD_MICRO_MEAN_COEC<0.10917] yes=55,no=56,missing=56
						55:[D_KEYWORD_MACRO_MAX_COEC<0.0396764] yes=107,no=108,missing=108
							107:leaf=0.00331455
							108:leaf=-0.0212668
						56:[D_KEYWORD_MICRO_MAX_COEC<0.130812] yes=109,no=110,missing=110
							109:leaf=-0.0153676
							110:leaf=2.88947e-05
			8:[D_KEYWORD_MACRO_MEAN_COEC<0.0737304] yes=15,no=16,missing=16
				15:[D_PUBLISHER_COEC<0.0891691] yes=29,no=30,missing=29
					29:[KW_REL<0.0141891] yes=57,no=58,missing=58
						57:[C_D_U_PUBLISHER_AGE_COEC<0.0255196] yes=111,no=112,missing=112
							111:leaf=-0.0223617
							112:leaf=0.00504081
						58:[CAT_REL<0.607933] yes=113,no=114,missing=114
							113:leaf=0.0144986
							114:leaf=0.0604664
					30:[C_D_U_CATEGORY_GENDER_MACRO_MAX_COEC<0.032143] yes=59,no=60,missing=60
						59:[TIME_OF_DAY<12] yes=115,no=116,missing=116
							115:leaf=0.154932
							116:leaf=-0.125617
						60:[C_D_U_PUBLISHER_AGE_COEC<0.0862318] yes=117,no=118,missing=117
							117:leaf=-0.034693
							118:leaf=0.0253636
				16:[D_CATEGORY_MICRO_MAX_COEC<0.0964807] yes=31,no=32,missing=32
					31:[TIME_OF_DAY<0.999999] yes=61,no=62,missing=62
						61:[C_D_U_CATEGORY_CITY_MACRO_MAX_COEC<0.0711265] yes=119,no=120,missing=120
							119:leaf=0.137779
							120:leaf=0.051814
						62:[CAT_REL<0.360641] yes=121,no=122,missing=122
							121:leaf=-0.00912271
							122:leaf=0.0360746
					32:[D_KEYWORD_MACRO_MEAN_COEC<0.0748338] yes=63,no=64,missing=64
						63:[C_D_U_CATEGORY_AGE_MICRO_MEAN_COEC<0.10164] yes=123,no=124,missing=123
							123:leaf=0.00287661
							124:leaf=0.164971
						64:[D_CATEGORY_MACRO_MEAN_COEC<0.0992273] yes=125,no=126,missing=125
							125:leaf=0.0855852
							126:leaf=0.0443068
booster[79]:
0:[U_KW_LEN<200] yes=1,no=2,missing=1
	1:leaf=0.0
	2:[C_D_U_TITLEMD5_CATEGORY_MACRO_MEAN_COEC<0.160239] yes=3,no=4,missing=4
		3:[D_TITLEMD5_COEC<0.165859] yes=5,no=6,missing=5
			5:[C_D_U_CATEGORY_CITY_MACRO_MEAN_COEC<0.0749985] yes=9,no=10,missing=10
				9:[D_CATEGORY_MICRO_MAX_COEC<0.0800295] yes=17,no=18,missing=18
					17:[D_CATEGORY_MACRO_MAX_COEC<0.0575522] yes=33,no=34,missing=34
						33:[CAT_REL<0.058066] yes=65,no=66,missing=66
							65:leaf=-0.000765056
							66:leaf=0.0115186
						34:[D_KEYWORD_MICRO_MEAN_COEC<0.0695988] yes=67,no=68,missing=68
							67:leaf=-0.0054197
							68:leaf=0.000402923
					18:[C_D_U_TITLEMD5_CATEGORY_MACRO_MEAN_COEC<0.089674] yes=35,no=36,missing=36
						35:[C_D_U_CATEGORY_CITY_MACRO_MEAN_COEC<0.0703567] yes=69,no=70,missing=70
							69:leaf=-0.0267105
							70:leaf=-0.00737688
						36:[U_CAT_LEN<5] yes=71,no=72,missing=72
							71:leaf=-0.0516143
							72:leaf=-0.00680757
				10:[D_CATEGORY_MACRO_MEAN_COEC<0.0765339] yes=19,no=20,missing=20
					19:[C_D_U_CATEGORY_AGE_MACRO_MAX_COEC<0.0764491] yes=37,no=38,missing=38
						37:[C_D_U_CATEGORY_GENDER_MICRO_MAX_COEC<0.0964162] yes=73,no=74,missing=74
							73:leaf=0.00389115
							74:leaf=0.0711174
						38:[D_CATEGORY_MICRO_MAX_COEC<0.0756622] yes=75,no=76,missing=76
							75:leaf=0.0222974
							76:leaf=0.00891376
					20:[C_D_U_CATEGORY_GENDER_MICRO_MAX_COEC<0.0736201] yes=39,no=40,missing=40
						39:[U_GENDER<2] yes=77,no=78,missing=77
							77:leaf=0.0013385
							78:leaf=-0.0224992
						40:[U_GENDER<2] yes=79,no=80,missing=79
							79:leaf=-0.000371338
							80:leaf=0.00612406
			6:[C_D_U_TITLEMD5_CATEGORY_MACRO_MEAN_COEC<0.0718954] yes=11,no=12,missing=12
				11:[WORD_COUNT<3367] yes=21,no=22,missing=22
					21:[C_D_U_CATEGORY_CITY_MICRO_MEAN_COEC<0.0500429] yes=41,no=42,missing=41
						41:[WORD_COUNT<954] yes=81,no=82,missing=82
							81:leaf=-0.0748084
							82:leaf=-0.132797
						42:[C_D_U_PUBLISHER_CITY_COEC<0.0940931] yes=83,no=84,missing=83
							83:leaf=0.0144854
							84:leaf=0.10972
					22:[C_D_U_TITLEMD5_CATEGORY_MICRO_MAX_COEC<0.147307] yes=43,no=44,missing=44
						43:leaf=-0.133917
						44:[C_D_U_TITLEMD5_CATEGORY_MACRO_MAX_COEC<0.0424793] yes=85,no=86,missing=86
							85:leaf=0.178756
							86:leaf=-0.0129056
				12:[D_KEYWORD_MACRO_MEAN_COEC<0.0986141] yes=23,no=24,missing=24
					23:[D_KEYWORD_MACRO_MAX_COEC<0.025745] yes=45,no=46,missing=46
						45:[C_D_U_TITLEMD5_CATEGORY_MACRO_MEAN_COEC<0.131485] yes=87,no=88,missing=88
							87:leaf=-0.0234197
							88:leaf=-0.00680549
						46:[D_KEYWORD_MICRO_MEAN_COEC<0.0745376] yes=89,no=90,missing=90
							89:leaf=-0.0622458
							90:leaf=-0.022474
					24:[KW_REL<0.00080149] yes=47,no=48,missing=48
						47:[C_D_U_TITLEMD5_CATEGORY_MICRO_MEAN_COEC<0.171381] yes=91,no=92,missing=92
							91:leaf=-0.0136335
							92:leaf=0.00160784
						48:[D_KEYWORD_MACRO_MAX_COEC<0.025745] yes=93,no=94,missing=94
							93:leaf=0.010373
							94:leaf=-0.0151692
		4:[D_TITLEMD5_COEC<0.183832] yes=7,no=8,missing=8
			7:[C_D_U_TITLEMD5_CATEGORY_MICRO_MAX_COEC<0.310926] yes=13,no=14,missing=14
				13:[U_CAT_LEN<8] yes=25,no=26,missing=26
					25:[C_D_U_CATEGORY_GENDER_MICRO_MAX_COEC<0.0879631] yes=49,no=50,missing=50
						49:[WORD_COUNT<802] yes=95,no=96,missing=96
							95:leaf=-0.0166484
							96:leaf=0.0101309
						50:[D_KEYWORD_MICRO_MEAN_COEC<0.0852346] yes=97,no=98,missing=98
							97:leaf=-0.044924
							98:leaf=-0.00122395
					26:[D_KEYWORD_MICRO_MEAN_COEC<0.122441] yes=51,no=52,missing=52
						51:[WORD_COUNT<767] yes=99,no=100,missing=100
							99:leaf=-0.0107833
							100:leaf=0.0169858
						52:[TIME_OF_DAY<14] yes=101,no=102,missing=102
							101:leaf=-0.00183438
							102:leaf=0.015397
				14:[C_D_U_CATEGORY_GENDER_MICRO_MEAN_COEC<0.104285] yes=27,no=28,missing=28
					27:[C_D_U_CATEGORY_GENDER_MACRO_MEAN_COEC<0.0579651] yes=53,no=54,missing=54
						53:[CAT_REL<0.019012] yes=103,no=104,missing=104
							103:leaf=-0.0419239
							104:leaf=0.0334614
						54:[C_D_U_CATEGORY_AGE_MACRO_MEAN_COEC<0.105478] yes=105,no=106,missing=106
							105:leaf=-0.0156434
							106:leaf=-0.110375
					28:[C_D_U_CATEGORY_AGE_MACRO_MEAN_COEC<0.0898623] yes=55,no=56,missing=56
						55:[C_D_U_PUBLISHER_GENDER_COEC<0.117804] yes=107,no=108,missing=108
							107:leaf=-0.242395
							108:leaf=0.00296786
						56:[C_D_U_TITLEMD5_CATEGORY_MICRO_MEAN_COEC<0.135917] yes=109,no=110,missing=110
							109:leaf=-0.0570783
							110:leaf=0.0470557
			8:[C_D_U_TITLEMD5_CATEGORY_MACRO_MEAN_COEC<0.192338] yes=15,no=16,missing=16
				15:[DAY_OF_WEEK<3] yes=29,no=30,missing=30
					29:[WORD_COUNT<1804] yes=57,no=58,missing=58
						57:[C_D_U_TITLEMD5_CATEGORY_MACRO_MAX_COEC<0.0939474] yes=111,no=112,missing=112
							111:leaf=0.0057427
							112:leaf=-0.010977
						58:[WORD_COUNT<2278] yes=113,no=114,missing=114
							113:leaf=-0.0387376
							114:leaf=-0.000239412
					30:[CAT_REL<0.042687] yes=59,no=60,missing=60
						59:[C_D_U_PUBLISHER_AGE_COEC<0.0775983] yes=115,no=116,missing=116
							115:leaf=-0.00330652
							116:leaf=-0.0558359
						60:[C_D_U_TITLEMD5_CATEGORY_MICRO_MAX_COEC<0.279011] yes=117,no=118,missing=118
							117:leaf=-0.0056147
							118:leaf=-0.0218108
				16:[C_D_U_TITLEMD5_CATEGORY_MICRO_MAX_COEC<0.457587] yes=31,no=32,missing=32
					31:[C_D_U_TITLEMD5_CATEGORY_MACRO_MEAN_COEC<0.250611] yes=61,no=62,missing=62
						61:[D_TITLEMD5_COEC<0.250938] yes=119,no=120,missing=120
							119:leaf=0.00540924
							120:leaf=-0.0123729
						62:[DAY_OF_WEEK<6] yes=121,no=122,missing=122
							121:leaf=0.0206383
							122:leaf=-0.0302327
					32:[D_CATEGORY_MICRO_MAX_COEC<0.0787569] yes=63,no=64,missing=63
						63:[DAY_OF_WEEK<0.999999] yes=123,no=124,missing=124
							123:leaf=0.0297806
							124:leaf=0.000634729
						64:[D_KEYWORD_MICRO_MAX_COEC<0.235527] yes=125,no=126,missing=126
							125:leaf=-0.00790821
							126:leaf=-0.0361594
booster[80]:
0:[U_KW_LEN<200] yes=1,no=2,missing=1
	1:leaf=0.0
	2:[CAT_REL<0.171485] yes=3,no=4,missing=4
		3:[C_D_U_CATEGORY_GENDER_MACRO_MAX_COEC<0.10469] yes=5,no=6,missing=5
			5:[C_D_U_CATEGORY_AGE_MICRO_MEAN_COEC<0.101242] yes=9,no=10,missing=9
				9:[D_CATEGORY_MICRO_MEAN_COEC<0.103054] yes=17,no=18,missing=17
					17:[DAY_OF_WEEK<3] yes=33,no=34,missing=34
						33:[C_D_U_CATEGORY_AGE_MACRO_MAX_COEC<0.0738689] yes=65,no=66,missing=66
							65:leaf=-0.00518542
							66:leaf=0.00566285
						34:[C_D_U_CATEGORY_AGE_MACRO_MAX_COEC<0.0761106] yes=67,no=68,missing=67
							67:leaf=-0.000347077
							68:leaf=-0.00781322
					18:[C_D_U_TITLEMD5_AGE_COEC<0.110415] yes=35,no=36,missing=35
						35:[D_KEYWORD_MICRO_MAX_COEC<0.105418] yes=69,no=70,missing=70
							69:leaf=0.00928388
							70:leaf=0.0630124
						36:[D_KEYWORD_MICRO_MEAN_COEC<0.119745] yes=71,no=72,missing=72
							71:leaf=0.0142062
							72:leaf=0.0472475
				10:[DAY_OF_WEEK<3] yes=19,no=20,missing=20
					19:[CAT_REL<0.077298] yes=37,no=38,missing=38
						37:[D_CATEGORY_MICRO_MEAN_COEC<0.103054] yes=73,no=74,missing=74
							73:leaf=-0.0153793
							74:leaf=-0.046867
						38:[WORD_COUNT<1403] yes=75,no=76,missing=76
							75:leaf=-0.00526041
							76:leaf=-0.0228184
					20:[CAT_REL<0.019971] yes=39,no=40,missing=40
						39:[C_D_U_PUBLISHER_AGE_COEC<0.078356] yes=77,no=78,missing=78
							77:leaf=-0.15486
							78:leaf=0.014304
						40:[D_TITLEMD5_COEC<0.125892] yes=79,no=80,missing=80
							79:leaf=0.0655426
							80:leaf=0.0243609
			6:[DAY_OF_WEEK<2] yes=11,no=12,missing=12
				11:[KW_REL<0.000557669] yes=21,no=22,missing=22
					21:[U_CAT_LEN<10] yes=41,no=42,missing=42
						41:[CAT_REL<0.056601] yes=81,no=82,missing=82
							81:leaf=-0.0405387
							82:leaf=0.0271729
						42:[D_PUBLISHER_COEC<0.0529614] yes=83,no=84,missing=84
							83:leaf=0.159427
							84:leaf=-0.0285086
					22:[D_KEYWORD_MACRO_MAX_COEC<0.0153336] yes=43,no=44,missing=44
						43:[C_D_U_PUBLISHER_GENDER_COEC<0.0752953] yes=85,no=86,missing=86
							85:leaf=0.0999745
							86:leaf=-0.0275715
						44:[U_AGE_1<0.999999] yes=87,no=88,missing=88
							87:leaf=-0.0549689
							88:leaf=0.0290181
				12:[CAT_REL<0.030284] yes=23,no=24,missing=24
					23:[WORD_COUNT<1420] yes=45,no=46,missing=46
						45:[C_D_U_CATEGORY_GENDER_MACRO_MAX_COEC<0.118751] yes=89,no=90,missing=90
							89:leaf=0.0327792
							90:leaf=-0.0954699
						46:[C_D_U_PUBLISHER_CITY_COEC<0.0907485] yes=91,no=92,missing=91
							91:leaf=0.00646852
							92:leaf=-0.0149066
					24:[U_GENDER<2] yes=47,no=48,missing=47
						47:[D_KEYWORD_MICRO_MEAN_COEC<0.142419] yes=93,no=94,missing=94
							93:leaf=0.0281106
							94:leaf=-0.0546822
						48:[D_CATEGORY_MICRO_MAX_COEC<0.0879476] yes=95,no=96,missing=96
							95:leaf=0.0581428
							96:leaf=0.00108837
		4:[C_D_U_PUBLISHER_CITY_COEC<0.0392057] yes=7,no=8,missing=7
			7:[C_D_U_CATEGORY_CITY_MACRO_MEAN_COEC<0.134462] yes=13,no=14,missing=14
				13:[D_CATEGORY_MACRO_MEAN_COEC<0.102727] yes=25,no=26,missing=26
					25:[U_CAT_LEN<25] yes=49,no=50,missing=50
						49:[WORD_COUNT<2849] yes=97,no=98,missing=98
							97:leaf=-0.00637537
							98:leaf=0.000141476
						50:[C_D_U_CATEGORY_AGE_MICRO_MEAN_COEC<0.0961615] yes=99,no=100,missing=100
							99:leaf=0.0393783
							100:leaf=-0.0400316
					26:[C_D_U_TITLEMD5_CATEGORY_MACRO_MAX_COEC<0.0496014] yes=51,no=52,missing=52
						51:[WORD_COUNT<3113] yes=101,no=102,missing=102
							101:leaf=-0.0247768
							102:leaf=-0.0555198
						52:[C_D_U_TITLEMD5_AGE_COEC<0.270753] yes=103,no=104,missing=104
							103:leaf=-0.00464795
							104:leaf=-0.0719147
				14:[U_CAT_LEN<4] yes=27,no=28,missing=28
					27:[C_D_U_TITLEMD5_CATEGORY_MACRO_MEAN_COEC<0.0789906] yes=53,no=54,missing=54
						53:leaf=-0.127757
						54:leaf=-0.27216
					28:[C_D_U_CATEGORY_AGE_MICRO_MAX_COEC<0.0589685] yes=55,no=56,missing=56
						55:[D_KEYWORD_MICRO_MEAN_COEC<0.0715256] yes=105,no=106,missing=106
							105:leaf=0.0886973
							106:leaf=-0.00912089
						56:[C_D_U_TITLEMD5_AGE_COEC<0.0560281] yes=107,no=108,missing=108
							107:leaf=-0.010364
							108:leaf=0.00959666
			8:[U_CAT_LEN<15] yes=15,no=16,missing=16
				15:[WORD_COUNT<4778] yes=29,no=30,missing=30
					29:[D_KEYWORD_MICRO_MAX_COEC<0.215038] yes=57,no=58,missing=58
						57:[C_D_U_TITLEMD5_GENDER_COEC<0.231526] yes=109,no=110,missing=109
							109:leaf=0.000122656
							110:leaf=-0.0121425
						58:[WORD_COUNT<4046] yes=111,no=112,missing=112
							111:leaf=0.00881773
							112:leaf=-0.0648662
					30:[KW_REL<2.76877e-05] yes=59,no=60,missing=60
						59:[D_KEYWORD_MACRO_MAX_COEC<0.0145319] yes=113,no=114,missing=114
							113:leaf=0.0461286
							114:leaf=0.0130508
						60:[D_CATEGORY_MICRO_MEAN_COEC<0.0831749] yes=115,no=116,missing=116
							115:leaf=0.00856962
							116:leaf=-0.00334844
				16:[CAT_REL<0.91984] yes=31,no=32,missing=32
					31:[C_D_U_CATEGORY_AGE_MICRO_MEAN_COEC<0.0837382] yes=61,no=62,missing=62
						61:[C_D_U_CATEGORY_CITY_MICRO_MAX_COEC<0.0759209] yes=117,no=118,missing=118
							117:leaf=0.00337075
							118:leaf=0.0112886
						62:[CAT_REL<0.444418] yes=119,no=120,missing=120
							119:leaf=-0.000256611
							120:leaf=0.0075038
					32:[C_D_U_CATEGORY_AGE_MACRO_MAX_COEC<0.0954735] yes=63,no=64,missing=64
						63:[C_D_U_CATEGORY_AGE_MICRO_MEAN_COEC<0.0863959] yes=121,no=122,missing=122
							121:leaf=0.0246881
							122:leaf=0.0801181
						64:[C_D_U_PUBLISHER_CITY_COEC<0.0666388] yes=123,no=124,missing=124
							123:leaf=-0.087757
							124:leaf=0.0328214
booster[81]:
0:[U_KW_LEN<200] yes=1,no=2,missing=1
	1:leaf=0.0
	2:[C_D_U_CATEGORY_CITY_MACRO_MAX_COEC<0.10545] yes=3,no=4,missing=4
		3:[C_D_U_CATEGORY_AGE_MICRO_MAX_COEC<0.101469] yes=5,no=6,missing=6
			5:[DAY_OF_WEEK<4] yes=9,no=10,missing=10
				9:[C_D_U_CATEGORY_GENDER_MACRO_MEAN_COEC<0.0747495] yes=17,no=18,missing=18
					17:[U_GENDER<2] yes=33,no=34,missing=33
						33:[D_CATEGORY_MICRO_MEAN_COEC<0.0657216] yes=65,no=66,missing=66
							65:leaf=0.00930725
							66:leaf=-0.000672002
						34:[C_D_U_TITLEMD5_CATEGORY_MACRO_MEAN_COEC<0.120765] yes=67,no=68,missing=68
							67:leaf=-0.0159805
							68:leaf=-0.0014985
					18:[C_D_U_CATEGORY_GENDER_MICRO_MAX_COEC<0.0803616] yes=35,no=36,missing=36
						35:[C_D_U_CATEGORY_AGE_MACRO_MAX_COEC<0.0783253] yes=69,no=70,missing=70
							69:leaf=0.00410831
							70:leaf=0.0120561
						36:[U_GENDER<2] yes=71,no=72,missing=71
							71:leaf=0.000353661
							72:leaf=0.00853914
				10:[D_CATEGORY_MICRO_MAX_COEC<0.0984777] yes=19,no=20,missing=20
					19:[C_D_U_TITLEMD5_CATEGORY_MACRO_MEAN_COEC<0.208584] yes=37,no=38,missing=38
						37:[C_D_U_CATEGORY_CITY_MICRO_MAX_COEC<0.0998912] yes=73,no=74,missing=74
							73:leaf=-0.002425
							74:leaf=0.00723277
						38:[WORD_COUNT<1696] yes=75,no=76,missing=76
							75:leaf=0.00013796
							76:leaf=0.0167015
					20:[CAT_REL<0.029477] yes=39,no=40,missing=40
						39:[D_KEYWORD_MACRO_MAX_COEC<0.0398888] yes=77,no=78,missing=78
							77:leaf=0.000309761
							78:leaf=0.0802876
						40:[C_D_U_TITLEMD5_GENDER_COEC<0.12645] yes=79,no=80,missing=79
							79:leaf=0.0581447
							80:leaf=0.0233299
			6:[DAY_OF_WEEK<3] yes=11,no=12,missing=12
				11:[CAT_REL<0.188007] yes=21,no=22,missing=22
					21:[C_D_U_TITLEMD5_AGE_COEC<0.173428] yes=41,no=42,missing=41
						41:[U_GENDER<2] yes=81,no=82,missing=82
							81:leaf=-0.0182431
							82:leaf=-0.0341322
						42:[WORD_COUNT<3752] yes=83,no=84,missing=84
							83:leaf=-0.00639414
							84:leaf=0.0454008
					22:[C_D_U_TITLEMD5_CATEGORY_MACRO_MEAN_COEC<0.0759075] yes=43,no=44,missing=44
						43:[CAT_REL<0.317817] yes=85,no=86,missing=86
							85:leaf=-0.023951
							86:leaf=-0.00435226
						44:[D_KEYWORD_MACRO_MEAN_COEC<0.0561876] yes=87,no=88,missing=88
							87:leaf=-0.0736644
							88:leaf=-0.00116483
				12:[D_TITLEMD5_COEC<0.126489] yes=23,no=24,missing=23
					23:[D_KEYWORD_MICRO_MAX_COEC<0.127209] yes=45,no=46,missing=46
						45:[CAT_REL<0.071721] yes=89,no=90,missing=90
							89:leaf=0.0085241
							90:leaf=0.0442999
						46:[D_KEYWORD_MICRO_MEAN_COEC<0.0836394] yes=91,no=92,missing=92
							91:leaf=0.0340065
							92:leaf=0.0700214
					24:[CAT_REL<0.06456] yes=47,no=48,missing=48
						47:[C_D_U_PUBLISHER_AGE_COEC<0.0932987] yes=93,no=94,missing=94
							93:leaf=-0.0848961
							94:leaf=-0.000908717
						48:[KW_REL<0.00658122] yes=95,no=96,missing=96
							95:leaf=0.0248597
							96:leaf=-0.217492
		4:[C_D_U_CATEGORY_CITY_MACRO_MAX_COEC<0.204225] yes=7,no=8,missing=7
			7:[C_D_U_CATEGORY_GENDER_MACRO_MEAN_COEC<0.105459] yes=13,no=14,missing=14
				13:[C_D_U_CATEGORY_AGE_MICRO_MAX_COEC<0.109478] yes=25,no=26,missing=26
					25:[D_KEYWORD_MICRO_MEAN_COEC<0.0572087] yes=49,no=50,missing=50
						49:[C_D_U_CATEGORY_GENDER_MACRO_MEAN_COEC<0.0977359] yes=97,no=98,missing=98
							97:leaf=0.0200948
							98:leaf=0.112087
						50:[C_D_U_TITLEMD5_CATEGORY_MACRO_MEAN_COEC<0.0602911] yes=99,no=100,missing=100
							99:leaf=-0.00457579
							100:leaf=0.0029873
					26:[C_D_U_CATEGORY_CITY_MACRO_MEAN_COEC<0.105777] yes=51,no=52,missing=52
						51:[CAT_REL<0.757785] yes=101,no=102,missing=102
							101:leaf=-0.0111772
							102:leaf=0.14418
						52:[D_TITLEMD5_COEC<0.102092] yes=103,no=104,missing=104
							103:leaf=-0.0975502
							104:leaf=-0.037855
				14:[C_D_U_CATEGORY_GENDER_MICRO_MAX_COEC<0.111563] yes=27,no=28,missing=28
					27:[CAT_REL<0.356133] yes=53,no=54,missing=54
						53:[C_D_U_TITLEMD5_CATEGORY_MACRO_MEAN_COEC<0.106584] yes=105,no=106,missing=106
							105:leaf=0.0469176
							106:leaf=0.0165561
						54:[U_CAT_LEN<16] yes=107,no=108,missing=108
							107:leaf=-0.0222797
							108:leaf=0.0361845
					28:[D_KEYWORD_MICRO_MEAN_COEC<0.143025] yes=55,no=56,missing=56
						55:[CAT_REL<0.029477] yes=109,no=110,missing=110
							109:leaf=-0.00204162
							110:leaf=0.00976086
						56:[D_CATEGORY_MICRO_MAX_COEC<0.102835] yes=111,no=112,missing=111
							111:leaf=0.0260637
							112:leaf=-0.0355144
			8:[WORD_COUNT<6166] yes=15,no=16,missing=16
				15:[D_KEYWORD_MACRO_MAX_COEC<0.0238292] yes=29,no=30,missing=30
					29:[C_D_U_CATEGORY_AGE_MICRO_MAX_COEC<0.0400147] yes=57,no=58,missing=58
						57:[C_D_U_PUBLISHER_CITY_COEC<0.24906] yes=113,no=114,missing=114
							113:leaf=-0.157081
							114:leaf=-0.0124958
						58:[CAT_REL<0.564915] yes=115,no=116,missing=116
							115:leaf=0.0245633
							116:leaf=-0.00258174
					30:[DAY_OF_WEEK<2] yes=59,no=60,missing=60
						59:[C_D_U_TITLEMD5_GENDER_COEC<0.0701577] yes=117,no=118,missing=117
							117:leaf=-0.0774679
							118:leaf=-0.00251411
						60:[U_GENDER<4] yes=119,no=120,missing=120
							119:leaf=0.0231949
							120:leaf=0.00233242
				16:[C_D_U_TITLEMD5_CATEGORY_MACRO_MAX_COEC<0.0444995] yes=31,no=32,missing=32
					31:[KW_REL<0.00119707] yes=61,no=62,missing=62
						61:[D_PUBLISHER_COEC<0.0564627] yes=121,no=122,missing=122
							121:leaf=0.146338
							122:leaf=-0.0376283
						62:[C_D_U_CATEGORY_GENDER_MACRO_MAX_COEC<0.0782279] yes=123,no=124,missing=124
							123:leaf=-0.0641158
							124:leaf=-0.192667
					32:[C_D_U_CATEGORY_AGE_MICRO_MAX_COEC<0.0957384] yes=63,no=64,missing=64
						63:[C_D_U_TITLEMD5_AGE_COEC<0.101284] yes=125,no=126,missing=126
							125:leaf=0.0749437
							126:leaf=-0.0369559
						64:[C_D_U_CATEGORY_AGE_MACRO_MAX_COEC<0.107085] yes=127,no=128,missing=128
							127:leaf=-0.204824
							128:leaf=0.00293466
booster[82]:
0:[U_KW_LEN<200] yes=1,no=2,missing=1
	1:leaf=0.0
	2:[IMAGE_COUNT<0.999999] yes=3,no=4,missing=4
		3:[KW_REL<0.00751977] yes=5,no=6,missing=6
			5:[C_D_U_TITLEMD5_CATEGORY_MACRO_MAX_COEC<0.0593443] yes=9,no=10,missing=10
				9:[D_KEYWORD_MICRO_MAX_COEC<0.111706] yes=17,no=18,missing=18
					17:[WORD_COUNT<1201] yes=33,no=34,missing=34
						33:[KW_REL<0.00189112] yes=65,no=66,missing=66
							65:leaf=-0.0586982
							66:leaf=0.0091796
						34:[D_KEYWORD_MICRO_MEAN_COEC<0.0571515] yes=67,no=68,missing=68
							67:leaf=0.0445431
							68:leaf=-0.0481056
					18:[D_KEYWORD_MICRO_MAX_COEC<0.236433] yes=35,no=36,missing=36
						35:[D_PUBLISHER_COEC<0.0992392] yes=69,no=70,missing=70
							69:leaf=-0.00249602
							70:leaf=-0.0351995
						36:[C_D_U_PUBLISHER_AGE_COEC<0.0862209] yes=71,no=72,missing=71
							71:leaf=0.12884
							72:leaf=-0.131984
				10:[D_CATEGORY_MICRO_MAX_COEC<0.0742181] yes=19,no=20,missing=20
					19:[D_KEYWORD_MICRO_MEAN_COEC<0.0752787] yes=37,no=38,missing=38
						37:[C_D_U_PUBLISHER_CITY_COEC<0.0814505] yes=73,no=74,missing=73
							73:leaf=-0.0702884
							74:leaf=-0.0163119
						38:[CAT_REL<0.204424] yes=75,no=76,missing=76
							75:leaf=-0.0642193
							76:leaf=0.0111518
					20:[C_D_U_TITLEMD5_AGE_COEC<0.149878] yes=39,no=40,missing=39
						39:[C_D_U_CATEGORY_CITY_MICRO_MEAN_COEC<0.123224] yes=77,no=78,missing=78
							77:leaf=-0.0548373
							78:leaf=0.0398278
						40:[D_KEYWORD_MICRO_MAX_COEC<0.112569] yes=79,no=80,missing=80
							79:leaf=-0.0164907
							80:leaf=-0.119856
			6:[D_KEYWORD_MICRO_MEAN_COEC<0.109142] yes=11,no=12,missing=12
				11:[D_KEYWORD_MACRO_MAX_COEC<0.0127286] yes=21,no=22,missing=22
					21:[D_CATEGORY_MICRO_MEAN_COEC<0.0698646] yes=41,no=42,missing=42
						41:[C_D_U_PUBLISHER_CITY_COEC<0.0745927] yes=81,no=82,missing=81
							81:leaf=0.00414495
							82:leaf=-0.07123
						42:[CAT_REL<0.125195] yes=83,no=84,missing=84
							83:leaf=-0.00198097
							84:leaf=0.0417181
					22:[C_D_U_CATEGORY_CITY_MICRO_MAX_COEC<0.0612867] yes=43,no=44,missing=43
						43:[DAY_OF_WEEK<4] yes=85,no=86,missing=86
							85:leaf=-0.0639656
							86:leaf=-0.016233
						44:[KW_REL<0.0171133] yes=87,no=88,missing=88
							87:leaf=-0.0101971
							88:leaf=0.00749916
				12:[U_CAT_LEN<10] yes=23,no=24,missing=24
					23:[C_D_U_PUBLISHER_CITY_COEC<0.0794264] yes=45,no=46,missing=45
						45:leaf=-0.109625
						46:[C_D_U_CATEGORY_AGE_MACRO_MAX_COEC<0.103579] yes=89,no=90,missing=90
							89:leaf=0.105301
							90:leaf=-0.0382618
					24:[C_D_U_TITLEMD5_AGE_COEC<0.135383] yes=47,no=48,missing=47
						47:[C_D_U_TITLEMD5_CATEGORY_MACRO_MAX_COEC<0.0408335] yes=91,no=92,missing=92
							91:leaf=0.161425
							92:leaf=0.100112
						48:[C_D_U_TITLEMD5_GENDER_COEC<0.158195] yes=93,no=94,missing=94
							93:leaf=-0.0619479
							94:leaf=0.0643845
		4:[D_TITLEMD5_COEC<5.70172] yes=7,no=8,missing=8
			7:[C_D_U_TITLEMD5_CATEGORY_MACRO_MEAN_COEC<0.120166] yes=13,no=14,missing=14
				13:[D_TITLEMD5_COEC<0.098395] yes=25,no=26,missing=26
					25:[C_D_U_TITLEMD5_CATEGORY_MACRO_MEAN_COEC<0.0853095] yes=49,no=50,missing=50
						49:[C_D_U_TITLEMD5_CATEGORY_MICRO_MEAN_COEC<0.0981075] yes=95,no=96,missing=96
							95:leaf=-0.000154836
							96:leaf=-0.00848039
						50:[C_D_U_TITLEMD5_CATEGORY_MICRO_MEAN_COEC<0.0796122] yes=97,no=98,missing=98
							97:leaf=-0.0347392
							98:leaf=0.00558662
					26:[C_D_U_TITLEMD5_CATEGORY_MACRO_MEAN_COEC<0.0959068] yes=51,no=52,missing=52
						51:[C_D_U_PUBLISHER_CITY_COEC<0.0981675] yes=99,no=100,missing=100
							99:leaf=-0.00875908
							100:leaf=-0.000938694
						52:[C_D_U_TITLEMD5_CATEGORY_MACRO_MAX_COEC<0.0542038] yes=101,no=102,missing=102
							101:leaf=0.00080713
							102:leaf=-0.00601433
				14:[D_TITLEMD5_COEC<0.138674] yes=27,no=28,missing=28
					27:[C_D_U_TITLEMD5_CATEGORY_MACRO_MAX_COEC<0.0696805] yes=53,no=54,missing=54
						53:[C_D_U_TITLEMD5_CATEGORY_MICRO_MAX_COEC<0.261489] yes=103,no=104,missing=104
							103:leaf=0.00945293
							104:leaf=-0.0100633
						54:[KW_REL<0.00182388] yes=105,no=106,missing=106
							105:leaf=-0.00341274
							106:leaf=0.00577257
					28:[C_D_U_TITLEMD5_CATEGORY_MACRO_MEAN_COEC<0.166679] yes=55,no=56,missing=56
						55:[D_TITLEMD5_COEC<0.168646] yes=107,no=108,missing=108
							107:leaf=0.00021735
							108:leaf=-0.00716997
						56:[D_TITLEMD5_COEC<0.190474] yes=109,no=110,missing=110
							109:leaf=0.00794222
							110:leaf=0.00075238
			8:[D_KEYWORD_MICRO_MEAN_COEC<0.0824094] yes=15,no=16,missing=16
				15:[C_D_U_CATEGORY_GENDER_MACRO_MAX_COEC<0.102027] yes=29,no=30,missing=30
					29:[KW_REL<0.00751977] yes=57,no=58,missing=58
						57:[TIME_OF_DAY<19] yes=111,no=112,missing=112
							111:leaf=0.00436652
							112:leaf=-0.0367567
						58:[CAT_REL<0.587356] yes=113,no=114,missing=114
							113:leaf=0.0099464
							114:leaf=0.0425958
					30:[KW_REL<0.00160974] yes=59,no=60,missing=60
						59:[D_KEYWORD_MACRO_MEAN_COEC<0.0393427] yes=115,no=116,missing=116
							115:leaf=-0.0937692
							116:leaf=-0.045952
						60:[C_D_U_PUBLISHER_AGE_COEC<0.064685] yes=117,no=118,missing=118
							117:leaf=-0.049317
							118:leaf=0.0343438
				16:[D_PUBLISHER_COEC<0.0599625] yes=31,no=32,missing=31
					31:[D_KEYWORD_MACRO_MEAN_COEC<0.0849447] yes=61,no=62,missing=62
						61:[KW_REL<0.00116458] yes=119,no=120,missing=120
							119:leaf=-0.0342021
							120:leaf=0.00924561
						62:[WORD_COUNT<1446] yes=121,no=122,missing=122
							121:leaf=-0.00111288
							122:leaf=0.0945468
					32:[D_KEYWORD_MACRO_MAX_COEC<0.01007] yes=63,no=64,missing=64
						63:[KW_REL<0.00116458] yes=123,no=124,missing=124
							123:leaf=-0.0547025
							124:leaf=0.0224126
						64:[D_KEYWORD_MICRO_MAX_COEC<0.201026] yes=125,no=126,missing=126
							125:leaf=0.0376741
							126:leaf=0.0899045
booster[83]:
0:[U_KW_LEN<200] yes=1,no=2,missing=1
	1:leaf=0.0
	2:[U_CAT_LEN<17] yes=3,no=4,missing=4
		3:[C_D_U_PUBLISHER_GENDER_COEC<0.0539491] yes=5,no=6,missing=6
			5:[C_D_U_TITLEMD5_CATEGORY_MICRO_MAX_COEC<0.185884] yes=9,no=10,missing=10
				9:[C_D_U_CATEGORY_GENDER_MICRO_MAX_COEC<0.0657488] yes=17,no=18,missing=18
					17:[D_CATEGORY_MACRO_MAX_COEC<0.0471804] yes=33,no=34,missing=34
						33:[D_KEYWORD_MICRO_MAX_COEC<0.0749834] yes=65,no=66,missing=66
							65:leaf=0.0302142
							66:leaf=-0.00179702
						34:[KW_REL<0.00993796] yes=67,no=68,missing=68
							67:leaf=-0.0140056
							68:leaf=-0.00214292
					18:[D_CATEGORY_MICRO_MAX_COEC<0.0995034] yes=35,no=36,missing=35
						35:[D_TITLEMD5_COEC<0.0260996] yes=69,no=70,missing=70
							69:leaf=-0.0104158
							70:leaf=0.000925955
						36:[D_KEYWORD_MACRO_MEAN_COEC<0.0633884] yes=71,no=72,missing=72
							71:leaf=-0.0312567
							72:leaf=-0.00560767
				10:[D_TITLEMD5_COEC<0.0573869] yes=19,no=20,missing=20
					19:[CAT_REL<0.28582] yes=37,no=38,missing=38
						37:[C_D_U_CATEGORY_GENDER_MICRO_MAX_COEC<0.0892271] yes=73,no=74,missing=74
							73:leaf=-0.0172446
							74:leaf=-0.114597
						38:[D_KEYWORD_MACRO_MEAN_COEC<0.0976127] yes=75,no=76,missing=76
							75:leaf=-0.0740177
							76:leaf=0.0898279
					20:[C_D_U_TITLEMD5_GENDER_COEC<0.112064] yes=39,no=40,missing=39
						39:[KW_REL<0.000699947] yes=77,no=78,missing=78
							77:leaf=-0.0218718
							78:leaf=-0.00209619
						40:[C_D_U_PUBLISHER_CITY_COEC<0.114739] yes=79,no=80,missing=79
							79:leaf=-0.0157975
							80:leaf=-0.078093
			6:[KW_REL<0.00427079] yes=11,no=12,missing=12
				11:[C_D_U_TITLEMD5_CATEGORY_MICRO_MAX_COEC<0.466002] yes=21,no=22,missing=22
					21:[C_D_U_TITLEMD5_CATEGORY_MACRO_MEAN_COEC<0.248648] yes=41,no=42,missing=42
						41:[WORD_COUNT<515] yes=81,no=82,missing=82
							81:leaf=-0.0119749
							82:leaf=-0.000745638
						42:[DAY_OF_WEEK<6] yes=83,no=84,missing=84
							83:leaf=0.0166003
							84:leaf=-0.0320997
					22:[D_KEYWORD_MICRO_MEAN_COEC<0.108807] yes=43,no=44,missing=44
						43:[D_TITLEMD5_COEC<0.0709924] yes=85,no=86,missing=86
							85:leaf=-0.0710387
							86:leaf=-0.0167633
						44:[D_CATEGORY_MACRO_MEAN_COEC<0.104385] yes=87,no=88,missing=88
							87:leaf=0.0141541
							88:leaf=-0.0852018
				12:[DAY_OF_WEEK<4] yes=23,no=24,missing=24
					23:[D_KEYWORD_MICRO_MEAN_COEC<0.102961] yes=45,no=46,missing=46
						45:[C_D_U_TITLEMD5_CATEGORY_MACRO_MAX_COEC<0.0862739] yes=89,no=90,missing=90
							89:leaf=0.00373548
							90:leaf=-0.00775885
						46:[D_KEYWORD_MACRO_MEAN_COEC<0.114067] yes=91,no=92,missing=92
							91:leaf=0.02456
							92:leaf=-0.00589837
					24:[C_D_U_PUBLISHER_CITY_COEC<0.121858] yes=47,no=48,missing=47
						47:[C_D_U_CATEGORY_GENDER_MACRO_MAX_COEC<0.0622344] yes=93,no=94,missing=94
							93:leaf=0.00622018
							94:leaf=-0.00294549
						48:[D_KEYWORD_MICRO_MEAN_COEC<0.096955] yes=95,no=96,missing=96
							95:leaf=0.0110117
							96:leaf=-0.00845083
		4:[TIME_OF_DAY<9] yes=7,no=8,missing=8
			7:[U_AGE_1<0.999999] yes=13,no=14,missing=14
				13:[D_PUBLISHER_COEC<0.0322257] yes=25,no=26,missing=25
					25:[U_CAT_LEN<23] yes=49,no=50,missing=50
						49:[KW_REL<0.00663027] yes=97,no=98,missing=98
							97:leaf=-0.0570229
							98:leaf=-0.00317862
						50:[D_CATEGORY_MICRO_MAX_COEC<0.0785969] yes=99,no=100,missing=99
							99:leaf=0.0681087
							100:leaf=-0.0569121
					26:[D_PUBLISHER_COEC<0.151658] yes=51,no=52,missing=52
						51:[C_D_U_TITLEMD5_CATEGORY_MACRO_MEAN_COEC<0.126177] yes=101,no=102,missing=102
							101:leaf=-0.000973034
							102:leaf=0.00780989
						52:[C_D_U_TITLEMD5_GENDER_COEC<0.175462] yes=103,no=104,missing=103
							103:leaf=-0.0421092
							104:leaf=-0.00693226
				14:[C_D_U_CATEGORY_GENDER_MICRO_MEAN_COEC<0.110521] yes=27,no=28,missing=28
					27:[U_GENDER<2] yes=53,no=54,missing=54
						53:[C_D_U_PUBLISHER_CITY_COEC<0.156941] yes=105,no=106,missing=106
							105:leaf=-0.0541878
							106:leaf=0.0274487
						54:[TIME_OF_DAY<3] yes=107,no=108,missing=108
							107:leaf=-0.0603153
							108:leaf=0.00543006
					28:[U_CAT_LEN<19] yes=55,no=56,missing=56
						55:[C_D_U_CATEGORY_AGE_MACRO_MAX_COEC<0.0898088] yes=109,no=110,missing=110
							109:leaf=0.0382193
							110:leaf=-0.159224
						56:[U_CAT_LEN<20] yes=111,no=112,missing=112
							111:leaf=0.128216
							112:leaf=0.022706
			8:[C_D_U_CATEGORY_AGE_MICRO_MEAN_COEC<0.0981632] yes=15,no=16,missing=16
				15:[CAT_REL<0.667531] yes=29,no=30,missing=30
					29:[C_D_U_TITLEMD5_CATEGORY_MACRO_MEAN_COEC<0.0745322] yes=57,no=58,missing=58
						57:[C_D_U_TITLEMD5_AGE_COEC<0.0731395] yes=113,no=114,missing=113
							113:leaf=0.00500163
							114:leaf=-0.00369128
						58:[C_D_U_TITLEMD5_AGE_COEC<0.163255] yes=115,no=116,missing=115
							115:leaf=0.00837739
							116:leaf=-0.0012248
					30:[C_D_U_CATEGORY_CITY_MACRO_MAX_COEC<0.0539774] yes=59,no=60,missing=60
						59:[D_TITLEMD5_COEC<0.0606456] yes=117,no=118,missing=117
							117:leaf=0.177562
							118:leaf=0.0875704
						60:[D_CATEGORY_MACRO_MAX_COEC<0.0879123] yes=119,no=120,missing=120
							119:leaf=0.0382824
							120:leaf=0.00277082
				16:[C_D_U_TITLEMD5_CATEGORY_MACRO_MAX_COEC<0.0244043] yes=31,no=32,missing=32
					31:[DAY_OF_WEEK<3] yes=61,no=62,missing=62
						61:[D_CATEGORY_MACRO_MEAN_COEC<0.104599] yes=121,no=122,missing=122
							121:leaf=-0.0352592
							122:leaf=0.0134727
						62:[D_CATEGORY_MACRO_MEAN_COEC<0.0972452] yes=123,no=124,missing=124
							123:leaf=-0.0164797
							124:leaf=0.0364954
					32:[C_D_U_CATEGORY_CITY_MACRO_MAX_COEC<0.0597979] yes=63,no=64,missing=64
						63:[CAT_REL<0.408321] yes=125,no=126,missing=126
							125:leaf=-0.0193569
							126:leaf=-0.135271
						64:[U_CAT_LEN<20] yes=127,no=128,missing=128
							127:leaf=-0.00183477
							128:leaf=0.00720984
booster[84]:
0:[U_KW_LEN<200] yes=1,no=2,missing=1
	1:leaf=0.0
	2:[C_D_U_CATEGORY_CITY_MICRO_MAX_COEC<0.104256] yes=3,no=4,missing=4
		3:[D_CATEGORY_MACRO_MEAN_COEC<0.0960626] yes=5,no=6,missing=6
			5:[C_D_U_CATEGORY_GENDER_MACRO_MEAN_COEC<0.0922524] yes=9,no=10,missing=10
				9:[U_GENDER<2] yes=17,no=18,missing=17
					17:[C_D_U_CATEGORY_GENDER_MACRO_MEAN_COEC<0.0836969] yes=33,no=34,missing=34
						33:[C_D_U_CATEGORY_AGE_MACRO_MAX_COEC<0.0841025] yes=65,no=66,missing=66
							65:leaf=0.00108063
							66:leaf=0.0190694
						34:[DAY_OF_WEEK<3] yes=67,no=68,missing=68
							67:leaf=0.00461425
							68:leaf=-0.0047752
					18:[C_D_U_CATEGORY_GENDER_MACRO_MAX_COEC<0.075745] yes=35,no=36,missing=36
						35:[D_CATEGORY_MICRO_MAX_COEC<0.0688868] yes=69,no=70,missing=70
							69:leaf=-0.00135447
							70:leaf=-0.0149174
						36:[D_CATEGORY_MACRO_MAX_COEC<0.088252] yes=71,no=72,missing=72
							71:leaf=0.0136046
							72:leaf=0.0892901
				10:[D_CATEGORY_MACRO_MEAN_COEC<0.0831457] yes=19,no=20,missing=20
					19:[C_D_U_TITLEMD5_CATEGORY_MICRO_MEAN_COEC<0.076104] yes=37,no=38,missing=38
						37:[C_D_U_PUBLISHER_CITY_COEC<0.0864131] yes=73,no=74,missing=73
							73:leaf=0.135799
							74:leaf=-0.0499742
						38:[D_KEYWORD_MICRO_MAX_COEC<0.159022] yes=75,no=76,missing=76
							75:leaf=0.034949
							76:leaf=-0.0667049
					20:[D_KEYWORD_MACRO_MAX_COEC<0.0371763] yes=39,no=40,missing=40
						39:[D_KEYWORD_MACRO_MEAN_COEC<0.0567116] yes=77,no=78,missing=78
							77:leaf=-0.0111623
							78:leaf=0.00964079
						40:[C_D_U_TITLEMD5_GENDER_COEC<0.230018] yes=79,no=80,missing=80
							79:leaf=-0.0067593
							80:leaf=0.0180206
			6:[C_D_U_TITLEMD5_GENDER_COEC<0.17609] yes=11,no=12,missing=12
				11:[D_PUBLISHER_COEC<0.114043] yes=21,no=22,missing=22
					21:[C_D_U_PUBLISHER_CITY_COEC<0.108244] yes=41,no=42,missing=41
						41:[DAY_OF_WEEK<3] yes=81,no=82,missing=82
							81:leaf=-0.00627949
							82:leaf=0.000189223
						42:[D_KEYWORD_MICRO_MEAN_COEC<0.0695414] yes=83,no=84,missing=84
							83:leaf=0.047023
							84:leaf=0.00628963
					22:[D_CATEGORY_MACRO_MEAN_COEC<0.0974888] yes=43,no=44,missing=44
						43:[C_D_U_TITLEMD5_CATEGORY_MICRO_MAX_COEC<0.142921] yes=85,no=86,missing=86
							85:leaf=-0.000889016
							86:leaf=-0.0537142
						44:[D_KEYWORD_MICRO_MEAN_COEC<0.0724124] yes=87,no=88,missing=88
							87:leaf=-0.0900904
							88:leaf=-0.0118727
				12:[CAT_REL<0.092778] yes=23,no=24,missing=24
					23:[C_D_U_CATEGORY_AGE_MACRO_MAX_COEC<0.109478] yes=45,no=46,missing=46
						45:[D_KEYWORD_MICRO_MAX_COEC<0.172534] yes=89,no=90,missing=90
							89:leaf=-0.0500628
							90:leaf=-0.0186535
						46:[D_TITLEMD5_COEC<0.182135] yes=91,no=92,missing=92
							91:leaf=0.0534224
							92:leaf=-0.00324385
					24:[D_KEYWORD_MICRO_MEAN_COEC<0.0779528] yes=47,no=48,missing=48
						47:[D_KEYWORD_MACRO_MEAN_COEC<0.0898241] yes=93,no=94,missing=94
							93:leaf=-0.0227987
							94:leaf=-0.155584
						48:[D_KEYWORD_MACRO_MEAN_COEC<0.0378941] yes=95,no=96,missing=96
							95:leaf=-0.0619982
							96:leaf=0.00455811
		4:[TIME_OF_DAY<9] yes=7,no=8,missing=8
			7:[C_D_U_TITLEMD5_CATEGORY_MACRO_MAX_COEC<0.00961215] yes=13,no=14,missing=14
				13:[C_D_U_CATEGORY_AGE_MICRO_MAX_COEC<0.101492] yes=25,no=26,missing=25
					25:[KW_REL<0.0174732] yes=49,no=50,missing=50
						49:[D_KEYWORD_MICRO_MEAN_COEC<0.0937939] yes=97,no=98,missing=98
							97:leaf=-0.00103006
							98:leaf=0.0526096
						50:[U_CAT_LEN<10] yes=99,no=100,missing=100
							99:leaf=-0.0477293
							100:leaf=0.0968466
					26:[D_KEYWORD_MICRO_MEAN_COEC<0.118281] yes=51,no=52,missing=52
						51:[D_KEYWORD_MICRO_MEAN_COEC<0.0913255] yes=101,no=102,missing=102
							101:leaf=0.0440915
							102:leaf=0.105636
						52:[WORD_COUNT<1380] yes=103,no=104,missing=104
							103:leaf=-0.139913
							104:leaf=0.0310788
				14:[D_KEYWORD_MICRO_MEAN_COEC<0.0617862] yes=27,no=28,missing=28
					27:[D_KEYWORD_MACRO_MAX_COEC<0.0191299] yes=53,no=54,missing=54
						53:[C_D_U_CATEGORY_CITY_MACRO_MEAN_COEC<0.0914213] yes=105,no=106,missing=105
							105:leaf=-0.139722
							106:leaf=0.0255233
						54:[WORD_COUNT<1867] yes=107,no=108,missing=108
							107:leaf=0.0226939
							108:leaf=0.119855
					28:[DAY_OF_WEEK<3] yes=55,no=56,missing=56
						55:[C_D_U_CATEGORY_GENDER_MACRO_MEAN_COEC<0.10401] yes=109,no=110,missing=109
							109:leaf=0.000277185
							110:leaf=-0.00979443
						56:[D_CATEGORY_MACRO_MAX_COEC<0.102783] yes=111,no=112,missing=111
							111:leaf=0.000408797
							112:leaf=0.0152903
			8:[C_D_U_TITLEMD5_CATEGORY_MACRO_MEAN_COEC<0.0749929] yes=15,no=16,missing=16
				15:[D_CATEGORY_MICRO_MAX_COEC<0.0994152] yes=29,no=30,missing=30
					29:[C_D_U_PUBLISHER_CITY_COEC<0.0257926] yes=57,no=58,missing=57
						57:[CAT_REL<0.117093] yes=113,no=114,missing=114
							113:leaf=-0.0233072
							114:leaf=0.00205179
						58:[C_D_U_TITLEMD5_CATEGORY_MICRO_MEAN_COEC<0.0887492] yes=115,no=116,missing=116
							115:leaf=0.0141215
							116:leaf=-0.014554
					30:[DAY_OF_WEEK<4] yes=59,no=60,missing=60
						59:[D_CATEGORY_MICRO_MEAN_COEC<0.105049] yes=117,no=118,missing=117
							117:leaf=-0.0189833
							118:leaf=0.0204448
						60:[C_D_U_CATEGORY_GENDER_MACRO_MEAN_COEC<0.111888] yes=119,no=120,missing=120
							119:leaf=0.0609995
							120:leaf=-0.0178134
				16:[D_KEYWORD_MACRO_MEAN_COEC<0.0861881] yes=31,no=32,missing=32
					31:[DAY_OF_WEEK<6] yes=61,no=62,missing=62
						61:[D_KEYWORD_MICRO_MEAN_COEC<0.0852629] yes=121,no=122,missing=122
							121:leaf=0.00940485
							122:leaf=0.0195622
						62:[C_D_U_TITLEMD5_CATEGORY_MICRO_MAX_COEC<0.237285] yes=123,no=124,missing=124
							123:leaf=-7.80106e-05
							124:leaf=-0.0582529
					32:[C_D_U_TITLEMD5_CATEGORY_MICRO_MEAN_COEC<0.120605] yes=63,no=64,missing=64
						63:[D_KEYWORD_MACRO_MAX_COEC<0.0244592] yes=125,no=126,missing=126
							125:leaf=-0.0165759
							126:leaf=0.000922107
						64:[D_PUBLISHER_COEC<0.111822] yes=127,no=128,missing=128
							127:leaf=0.00827417
							128:leaf=0.000531515
booster[85]:
0:[U_KW_LEN<200] yes=1,no=2,missing=1
	1:leaf=0.0
	2:[TIME_OF_DAY<2] yes=3,no=4,missing=4
		3:[U_CAT_LEN<24] yes=5,no=6,missing=6
			5:[C_D_U_TITLEMD5_AGE_COEC<0.267411] yes=9,no=10,missing=9
				9:[D_KEYWORD_MACRO_MEAN_COEC<0.0682928] yes=17,no=18,missing=18
					17:[C_D_U_CATEGORY_GENDER_MICRO_MAX_COEC<0.0578616] yes=33,no=34,missing=34
						33:[TIME_OF_DAY<0.999999] yes=65,no=66,missing=66
							65:leaf=0.0456971
							66:leaf=0.00784589
						34:[D_KEYWORD_MICRO_MAX_COEC<0.150699] yes=67,no=68,missing=68
							67:leaf=-0.00364498
							68:leaf=0.0354704
					18:[C_D_U_TITLEMD5_CATEGORY_MICRO_MEAN_COEC<0.0747901] yes=35,no=36,missing=36
						35:[CAT_REL<0.396222] yes=69,no=70,missing=70
							69:leaf=0.0297749
							70:leaf=0.063195
						36:[WORD_COUNT<2948] yes=71,no=72,missing=72
							71:leaf=0.00320812
							72:leaf=0.0162475
				10:[D_PUBLISHER_COEC<0.0528507] yes=19,no=20,missing=20
					19:[KW_REL<0.000409093] yes=37,no=38,missing=38
						37:[C_D_U_PUBLISHER_AGE_COEC<0.0490476] yes=73,no=74,missing=74
							73:leaf=0.0826091
							74:leaf=0.217986
						38:[KW_REL<0.00802659] yes=75,no=76,missing=76
							75:leaf=-0.0573281
							76:leaf=0.0779935
					20:[C_D_U_TITLEMD5_CATEGORY_MICRO_MEAN_COEC<0.0728846] yes=39,no=40,missing=40
						39:[C_D_U_PUBLISHER_CITY_COEC<0.0897898] yes=77,no=78,missing=78
							77:leaf=-0.0376418
							78:leaf=0.196275
						40:[KW_REL<0.0318352] yes=79,no=80,missing=80
							79:leaf=-0.0588787
							80:leaf=0.078462
			6:[C_D_U_TITLEMD5_CATEGORY_MICRO_MAX_COEC<0.110355] yes=11,no=12,missing=12
				11:[U_CAT_LEN<26] yes=21,no=22,missing=22
					21:[C_D_U_CATEGORY_AGE_MACRO_MAX_COEC<0.0952627] yes=41,no=42,missing=42
						41:[C_D_U_TITLEMD5_GENDER_COEC<0.0438446] yes=81,no=82,missing=81
							81:leaf=0.088138
							82:leaf=-0.0105034
						42:[CAT_REL<0.098731] yes=83,no=84,missing=84
							83:leaf=0.0813333
							84:leaf=0.198912
					22:[D_KEYWORD_MACRO_MAX_COEC<0.010967] yes=43,no=44,missing=44
						43:[D_KEYWORD_MICRO_MAX_COEC<0.112849] yes=85,no=86,missing=86
							85:leaf=0.262636
							86:leaf=0.102754
						44:[C_D_U_PUBLISHER_CITY_COEC<0.0578736] yes=87,no=88,missing=88
							87:leaf=-0.0333888
							88:leaf=0.117397
				12:[C_D_U_TITLEMD5_GENDER_COEC<0.0367109] yes=23,no=24,missing=24
					23:[U_CAT_LEN<25] yes=45,no=46,missing=46
						45:leaf=-0.0262894
						46:leaf=-0.191054
					24:[U_CAT_LEN<29] yes=47,no=48,missing=48
						47:[U_AGE_2<0.999999] yes=89,no=90,missing=90
							89:leaf=0.0534037
							90:leaf=0.013647
						48:[D_KEYWORD_MICRO_MEAN_COEC<0.0923876] yes=91,no=92,missing=92
							91:leaf=-0.0453303
							92:leaf=-0.202312
		4:[TIME_OF_DAY<6] yes=7,no=8,missing=8
			7:[D_TITLEMD5_COEC<0.0544329] yes=13,no=14,missing=14
				13:[DAY_OF_WEEK<4] yes=25,no=26,missing=26
					25:[DAY_OF_WEEK<3] yes=49,no=50,missing=50
						49:[U_CAT_LEN<22] yes=93,no=94,missing=94
							93:leaf=-0.000460329
							94:leaf=0.0530385
						50:[C_D_U_CATEGORY_GENDER_MICRO_MAX_COEC<0.0843588] yes=95,no=96,missing=96
							95:leaf=0.0418005
							96:leaf=0.00692365
					26:[U_AGE_1<0.999999] yes=51,no=52,missing=52
						51:[C_D_U_CATEGORY_AGE_MACRO_MEAN_COEC<0.0633757] yes=97,no=98,missing=98
							97:leaf=-0.0182563
							98:leaf=0.00176253
						52:[DAY_OF_WEEK<5] yes=99,no=100,missing=100
							99:leaf=0.100405
							100:leaf=0.0179737
				14:[C_D_U_TITLEMD5_CATEGORY_MACRO_MEAN_COEC<0.119461] yes=27,no=28,missing=28
					27:[D_TITLEMD5_COEC<0.108799] yes=53,no=54,missing=53
						53:[C_D_U_CATEGORY_CITY_MACRO_MEAN_COEC<0.0771912] yes=101,no=102,missing=101
							101:leaf=-0.00822802
							102:leaf=-0.00109271
						54:[WORD_COUNT<6181] yes=103,no=104,missing=104
							103:leaf=-0.0114383
							104:leaf=0.00845555
					28:[D_KEYWORD_MACRO_MEAN_COEC<0.0591171] yes=55,no=56,missing=56
						55:[D_TITLEMD5_COEC<0.176062] yes=105,no=106,missing=106
							105:leaf=-0.0408532
							106:leaf=-0.00906716
						56:[C_D_U_PUBLISHER_GENDER_COEC<0.0892273] yes=107,no=108,missing=108
							107:leaf=0.00457748
							108:leaf=-0.00198371
			8:[C_D_U_TITLEMD5_CATEGORY_MACRO_MEAN_COEC<0.036377] yes=15,no=16,missing=16
				15:[D_TITLEMD5_COEC<0.0636713] yes=29,no=30,missing=30
					29:[CAT_REL<0.685366] yes=57,no=58,missing=58
						57:[C_D_U_TITLEMD5_CATEGORY_MICRO_MAX_COEC<0.0900771] yes=109,no=110,missing=110
							109:leaf=-0.0108514
							110:leaf=0.0096753
						58:[KW_REL<0.0180235] yes=111,no=112,missing=112
							111:leaf=0.0046116
							112:leaf=0.0399601
					30:[C_D_U_PUBLISHER_AGE_COEC<0.0683492] yes=59,no=60,missing=59
						59:[WORD_COUNT<630] yes=113,no=114,missing=114
							113:leaf=0.0398737
							114:leaf=-0.00164596
						60:[D_KEYWORD_MICRO_MAX_COEC<0.173228] yes=115,no=116,missing=116
							115:leaf=0.0149725
							116:leaf=0.0698562
				16:[WORD_COUNT<723] yes=31,no=32,missing=32
					31:[C_D_U_TITLEMD5_GENDER_COEC<0.0966691] yes=61,no=62,missing=62
						61:[KW_REL<2.46226e-05] yes=117,no=118,missing=118
							117:leaf=-0.0356739
							118:leaf=-0.00906809
						62:[KW_REL<0.00738341] yes=119,no=120,missing=120
							119:leaf=-0.00373897
							120:leaf=0.0106275
					32:[D_PUBLISHER_COEC<0.0319931] yes=63,no=64,missing=64
						63:[KW_REL<0.0100676] yes=121,no=122,missing=122
							121:leaf=-0.0263033
							122:leaf=0.00727812
						64:[D_TITLEMD5_COEC<0.0468963] yes=123,no=124,missing=124
							123:leaf=0.0096057
							124:leaf=0.000938087
booster[86]:
0:[U_KW_LEN<200] yes=1,no=2,missing=1
	1:leaf=0.0
	2:[IMAGE_COUNT<2] yes=3,no=4,missing=4
		3:[U_AGE_1<0.999999] yes=5,no=6,missing=6
			5:[KW_REL<0.00501905] yes=9,no=10,missing=10
				9:[D_KEYWORD_MACRO_MEAN_COEC<0.0513875] yes=17,no=18,missing=18
					17:[C_D_U_TITLEMD5_AGE_COEC<0.0871124] yes=33,no=34,missing=33
						33:[C_D_U_TITLEMD5_CATEGORY_MICRO_MAX_COEC<0.0446473] yes=65,no=66,missing=66
							65:leaf=-0.0122872
							66:leaf=-0.000967214
						34:[D_KEYWORD_MICRO_MEAN_COEC<0.0637738] yes=67,no=68,missing=68
							67:leaf=-0.00520826
							68:leaf=-0.0399721
					18:[WORD_COUNT<512] yes=35,no=36,missing=36
						35:[CAT_REL<0.612038] yes=69,no=70,missing=70
							69:leaf=-0.0157827
							70:leaf=0.00997669
						36:[TIME_OF_DAY<2] yes=71,no=72,missing=72
							71:leaf=0.0056375
							72:leaf=-0.00061315
				10:[C_D_U_CATEGORY_AGE_MACRO_MAX_COEC<0.0462913] yes=19,no=20,missing=19
					19:[C_D_U_TITLEMD5_CATEGORY_MICRO_MAX_COEC<0.129574] yes=37,no=38,missing=38
						37:[C_D_U_TITLEMD5_CATEGORY_MACRO_MAX_COEC<0.0437611] yes=73,no=74,missing=74
							73:leaf=0.0109258
							74:leaf=-0.0213361
						38:[C_D_U_TITLEMD5_CATEGORY_MICRO_MAX_COEC<0.178971] yes=75,no=76,missing=76
							75:leaf=0.0321461
							76:leaf=0.00331617
					20:[C_D_U_PUBLISHER_GENDER_COEC<0.0970099] yes=39,no=40,missing=40
						39:[D_KEYWORD_MACRO_MAX_COEC<0.0109394] yes=77,no=78,missing=78
							77:leaf=0.0114659
							78:leaf=-0.0001775
						40:[D_KEYWORD_MICRO_MEAN_COEC<0.13417] yes=79,no=80,missing=80
							79:leaf=0.00642519
							80:leaf=-0.0334145
			6:[C_D_U_CATEGORY_GENDER_MICRO_MEAN_COEC<0.0837687] yes=11,no=12,missing=12
				11:[CAT_REL<0.084077] yes=21,no=22,missing=22
					21:[C_D_U_CATEGORY_GENDER_MICRO_MAX_COEC<0.0361116] yes=41,no=42,missing=42
						41:[D_PUBLISHER_COEC<0.135895] yes=81,no=82,missing=81
							81:leaf=0.0292119
							82:leaf=-0.149972
						42:[C_D_U_PUBLISHER_AGE_COEC<0.17307] yes=83,no=84,missing=84
							83:leaf=-0.0302949
							84:leaf=0.133671
					22:[C_D_U_CATEGORY_GENDER_MICRO_MAX_COEC<0.0718607] yes=43,no=44,missing=44
						43:[C_D_U_CATEGORY_AGE_MICRO_MAX_COEC<0.0730749] yes=85,no=86,missing=86
							85:leaf=-0.0014025
							86:leaf=0.0817584
						44:[D_KEYWORD_MICRO_MEAN_COEC<0.0773062] yes=87,no=88,missing=88
							87:leaf=-0.0260204
							88:leaf=-0.00549232
				12:[U_GENDER<2] yes=23,no=24,missing=24
					23:[C_D_U_CATEGORY_AGE_MICRO_MAX_COEC<0.0884372] yes=45,no=46,missing=45
						45:[DAY_OF_WEEK<6] yes=89,no=90,missing=90
							89:leaf=0.00105427
							90:leaf=-0.0220013
						46:[C_D_U_PUBLISHER_AGE_COEC<0.124157] yes=91,no=92,missing=92
							91:leaf=-0.0199512
							92:leaf=0.0126393
					24:[CAT_REL<0.290761] yes=47,no=48,missing=48
						47:[C_D_U_CATEGORY_CITY_MICRO_MAX_COEC<0.0793759] yes=93,no=94,missing=93
							93:leaf=-0.00626914
							94:leaf=0.0336536
						48:[D_KEYWORD_MACRO_MEAN_COEC<0.0692833] yes=95,no=96,missing=96
							95:leaf=-0.0245484
							96:leaf=0.00775669
		4:[C_D_U_TITLEMD5_CATEGORY_MICRO_MAX_COEC<0.0446473] yes=7,no=8,missing=8
			7:[TIME_OF_DAY<9] yes=13,no=14,missing=14
				13:[U_AGE_2<0.999999] yes=25,no=26,missing=26
					25:[CAT_REL<0.084077] yes=49,no=50,missing=50
						49:[DAY_OF_WEEK<3] yes=97,no=98,missing=98
							97:leaf=0.0689043
							98:leaf=-0.0262333
						50:[C_D_U_CATEGORY_GENDER_MICRO_MAX_COEC<0.0589792] yes=99,no=100,missing=100
							99:leaf=0.160371
							100:leaf=0.0654861
					26:[KW_REL<2.90668e-05] yes=51,no=52,missing=52
						51:[IMAGE_COUNT<11] yes=101,no=102,missing=102
							101:leaf=-0.111574
							102:leaf=-0.00229416
						52:[U_CAT_LEN<20] yes=103,no=104,missing=104
							103:leaf=0.015695
							104:leaf=0.115063
				14:[WORD_COUNT<7981] yes=27,no=28,missing=28
					27:[U_CAT_LEN<22] yes=53,no=54,missing=54
						53:[D_KEYWORD_MACRO_MEAN_COEC<0.0684879] yes=105,no=106,missing=106
							105:leaf=0.00346387
							106:leaf=0.0482563
						54:[D_KEYWORD_MACRO_MAX_COEC<0.0129522] yes=107,no=108,missing=108
							107:leaf=0.000349377
							108:leaf=0.134192
					28:[D_KEYWORD_MACRO_MAX_COEC<0.0165513] yes=55,no=56,missing=56
						55:[C_D_U_PUBLISHER_CITY_COEC<0.0594563] yes=109,no=110,missing=110
							109:leaf=-0.0236072
							110:leaf=0.125843
						56:[D_KEYWORD_MACRO_MEAN_COEC<0.0609708] yes=111,no=112,missing=112
							111:leaf=0.26294
							112:leaf=0.0126691
			8:[C_D_U_PUBLISHER_CITY_COEC<0.0417433] yes=15,no=16,missing=16
				15:[D_TITLEMD5_COEC<0.0391905] yes=29,no=30,missing=30
					29:[C_D_U_TITLEMD5_CATEGORY_MICRO_MAX_COEC<0.0595956] yes=57,no=58,missing=58
						57:[D_PUBLISHER_COEC<0.0528348] yes=113,no=114,missing=114
							113:leaf=0.0288915
							114:leaf=-0.120535
						58:[D_CATEGORY_MICRO_MAX_COEC<0.100027] yes=115,no=116,missing=116
							115:leaf=-0.0781058
							116:leaf=0.0724885
					30:[C_D_U_TITLEMD5_CATEGORY_MACRO_MAX_COEC<0.0494782] yes=59,no=60,missing=60
						59:[C_D_U_CATEGORY_AGE_MACRO_MEAN_COEC<0.0896245] yes=117,no=118,missing=118
							117:leaf=-0.00552693
							118:leaf=-0.0348262
						60:[C_D_U_PUBLISHER_GENDER_COEC<0.042976] yes=119,no=120,missing=119
							119:leaf=-0.0545673
							120:leaf=0.00951448
				16:[D_CATEGORY_MICRO_MAX_COEC<0.0859487] yes=31,no=32,missing=32
					31:[WORD_COUNT<5125] yes=61,no=62,missing=62
						61:[C_D_U_CATEGORY_AGE_MICRO_MAX_COEC<0.0738689] yes=121,no=122,missing=122
							121:leaf=0.00494706
							122:leaf=0.0151174
						62:[D_KEYWORD_MICRO_MEAN_COEC<0.0943443] yes=123,no=124,missing=124
							123:leaf=-0.0105824
							124:leaf=0.0212254
					32:[CAT_REL<0.546836] yes=63,no=64,missing=64
						63:[D_KEYWORD_MICRO_MEAN_COEC<0.119219] yes=125,no=126,missing=126
							125:leaf=-0.00214896
							126:leaf=0.0110337
						64:[D_PUBLISHER_COEC<0.0669258] yes=127,no=128,missing=128
							127:leaf=0.0292494
							128:leaf=0.00873935
booster[87]:
0:[U_KW_LEN<200] yes=1,no=2,missing=1
	1:leaf=0.0
	2:[C_D_U_CATEGORY_CITY_MACRO_MAX_COEC<0.104256] yes=3,no=4,missing=3
		3:[U_CAT_LEN<22] yes=5,no=6,missing=6
			5:[C_D_U_CATEGORY_AGE_MACRO_MEAN_COEC<0.101625] yes=9,no=10,missing=9
				9:[DAY_OF_WEEK<4] yes=17,no=18,missing=18
					17:[D_CATEGORY_MICRO_MEAN_COEC<0.0656725] yes=33,no=34,missing=33
						33:[C_D_U_TITLEMD5_CATEGORY_MACRO_MAX_COEC<0.046543] yes=65,no=66,missing=66
							65:leaf=0.0112848
							66:leaf=-0.00246867
						34:[C_D_U_CATEGORY_GENDER_MICRO_MAX_COEC<0.0663723] yes=67,no=68,missing=68
							67:leaf=-0.00972075
							68:leaf=0.00118941
					18:[D_CATEGORY_MACRO_MAX_COEC<0.0992822] yes=35,no=36,missing=35
						35:[D_CATEGORY_MACRO_MAX_COEC<0.0762838] yes=69,no=70,missing=70
							69:leaf=0.000173761
							70:leaf=-0.00368017
						36:[CAT_REL<0.097393] yes=71,no=72,missing=72
							71:leaf=0.0265177
							72:leaf=0.0684077
				10:[DAY_OF_WEEK<4] yes=19,no=20,missing=20
					19:[D_KEYWORD_MICRO_MEAN_COEC<0.115914] yes=37,no=38,missing=38
						37:[CAT_REL<0.319113] yes=73,no=74,missing=74
							73:leaf=-0.0135844
							74:leaf=-0.00373786
						38:[TIME_OF_DAY<15] yes=75,no=76,missing=76
							75:leaf=-0.00484424
							76:leaf=0.0110149
					20:[CAT_REL<0.036009] yes=39,no=40,missing=40
						39:[D_KEYWORD_MACRO_MEAN_COEC<0.0961983] yes=77,no=78,missing=78
							77:leaf=-0.00153955
							78:leaf=0.0550664
						40:[C_D_U_TITLEMD5_GENDER_COEC<0.0389426] yes=79,no=80,missing=79
							79:leaf=-0.0439361
							80:leaf=0.0430551
			6:[CAT_REL<0.184571] yes=11,no=12,missing=12
				11:[U_CAT_LEN<28] yes=21,no=22,missing=22
					21:[C_D_U_CATEGORY_AGE_MICRO_MEAN_COEC<0.0832498] yes=41,no=42,missing=41
						41:[C_D_U_CATEGORY_GENDER_MICRO_MAX_COEC<0.0720265] yes=81,no=82,missing=82
							81:leaf=-0.000640648
							82:leaf=0.0160306
						42:[C_D_U_CATEGORY_AGE_MICRO_MAX_COEC<0.0854308] yes=83,no=84,missing=84
							83:leaf=-0.0333944
							84:leaf=-0.00276065
					22:[U_AGE_2<0.999999] yes=43,no=44,missing=44
						43:[U_CAT_LEN<29] yes=85,no=86,missing=86
							85:leaf=-0.038792
							86:leaf=-0.105942
						44:[U_CAT_LEN<31] yes=87,no=88,missing=88
							87:leaf=-0.00416345
							88:leaf=0.0581041
				12:[C_D_U_CATEGORY_AGE_MACRO_MAX_COEC<0.0658629] yes=23,no=24,missing=24
					23:[CAT_REL<0.370196] yes=45,no=46,missing=46
						45:[TIME_OF_DAY<19] yes=89,no=90,missing=90
							89:leaf=0.00935753
							90:leaf=-0.0545842
						46:[U_AGE_2<0.999999] yes=91,no=92,missing=92
							91:leaf=-0.084429
							92:leaf=0.0544269
					24:[D_KEYWORD_MACRO_MAX_COEC<0.0180582] yes=47,no=48,missing=48
						47:[CAT_REL<0.199765] yes=93,no=94,missing=94
							93:leaf=0.0494894
							94:leaf=0.0189695
						48:[U_CAT_LEN<33] yes=95,no=96,missing=96
							95:leaf=0.00920122
							96:leaf=0.09653
		4:[TIME_OF_DAY<9] yes=7,no=8,missing=8
			7:[C_D_U_TITLEMD5_CATEGORY_MICRO_MEAN_COEC<0.0783133] yes=13,no=14,missing=14
				13:[IMAGE_COUNT<2] yes=25,no=26,missing=26
					25:[C_D_U_CATEGORY_GENDER_MACRO_MAX_COEC<0.096609] yes=49,no=50,missing=50
						49:[U_CAT_LEN<13] yes=97,no=98,missing=98
							97:leaf=-0.016197
							98:leaf=0.0112615
						50:[C_D_U_CATEGORY_GENDER_MACRO_MAX_COEC<0.104081] yes=99,no=100,missing=100
							99:leaf=0.039615
							100:leaf=5.35271e-05
					26:[CAT_REL<0.530116] yes=51,no=52,missing=52
						51:[CAT_REL<0.348495] yes=101,no=102,missing=102
							101:leaf=0.0367991
							102:leaf=-0.0481072
						52:[U_AGE_2<0.999999] yes=103,no=104,missing=104
							103:leaf=0.112612
							104:leaf=0.018679
				14:[DAY_OF_WEEK<3] yes=27,no=28,missing=28
					27:[C_D_U_CATEGORY_AGE_MICRO_MAX_COEC<0.104467] yes=53,no=54,missing=54
						53:[C_D_U_TITLEMD5_GENDER_COEC<0.135654] yes=105,no=106,missing=105
							105:leaf=-0.00497548
							106:leaf=0.00637559
						54:[CAT_REL<0.312534] yes=107,no=108,missing=108
							107:leaf=-0.0168029
							108:leaf=-0.00161006
					28:[C_D_U_PUBLISHER_CITY_COEC<0.132466] yes=55,no=56,missing=55
						55:[CAT_REL<0.019745] yes=109,no=110,missing=110
							109:leaf=-0.0167392
							110:leaf=0.00803385
						56:[WORD_COUNT<1703] yes=111,no=112,missing=112
							111:leaf=-0.0172784
							112:leaf=0.00562451
			8:[KW_REL<2.95391e-05] yes=15,no=16,missing=16
				15:[C_D_U_TITLEMD5_GENDER_COEC<0.0833294] yes=29,no=30,missing=30
					29:[WORD_COUNT<3356] yes=57,no=58,missing=58
						57:[C_D_U_TITLEMD5_CATEGORY_MACRO_MAX_COEC<0.163731] yes=113,no=114,missing=114
							113:leaf=-0.0531079
							114:leaf=0.122906
						58:[U_CAT_LEN<16] yes=115,no=116,missing=116
							115:leaf=-0.0164775
							116:leaf=0.111561
					30:[D_KEYWORD_MICRO_MAX_COEC<0.102623] yes=59,no=60,missing=60
						59:[D_TITLEMD5_COEC<0.0932529] yes=117,no=118,missing=117
							117:leaf=0.0848847
							118:leaf=-0.00439173
						60:[D_TITLEMD5_COEC<0.0800374] yes=119,no=120,missing=119
							119:leaf=-0.0846309
							120:leaf=-0.00335054
				16:[C_D_U_TITLEMD5_CATEGORY_MACRO_MEAN_COEC<0.0558198] yes=31,no=32,missing=32
					31:[DAY_OF_WEEK<3] yes=61,no=62,missing=62
						61:[D_CATEGORY_MICRO_MAX_COEC<0.0994676] yes=121,no=122,missing=122
							121:leaf=0.000887563
							122:leaf=-0.0248335
						62:[C_D_U_CATEGORY_GENDER_MACRO_MEAN_COEC<0.0999263] yes=123,no=124,missing=124
							123:leaf=0.00796105
							124:leaf=0.0498394
					32:[WORD_COUNT<995] yes=63,no=64,missing=64
						63:[KW_REL<0.000778697] yes=125,no=126,missing=126
							125:leaf=0.00710766
							126:leaf=-0.00295299
						64:[C_D_U_TITLEMD5_AGE_COEC<0.0255361] yes=127,no=128,missing=127
							127:leaf=-0.0168487
							128:leaf=0.00807787
booster[88]:
0:[U_KW_LEN<200] yes=1,no=2,missing=1
	1:leaf=0.0
	2:[CAT_REL<0.028196] yes=3,no=4,missing=4
		3:[C_D_U_TITLEMD5_CATEGORY_MACRO_MAX_COEC<0.0741677] yes=5,no=6,missing=6
			5:[C_D_U_TITLEMD5_CATEGORY_MICRO_MAX_COEC<0.129114] yes=9,no=10,missing=10
				9:[D_TITLEMD5_COEC<0.110569] yes=17,no=18,missing=17
					17:[C_D_U_TITLEMD5_CATEGORY_MACRO_MAX_COEC<0.0343178] yes=33,no=34,missing=34
						33:[WORD_COUNT<1575] yes=65,no=66,missing=66
							65:leaf=0.00882684
							66:leaf=-0.0051964
						34:[U_CAT_LEN<6] yes=67,no=68,missing=68
							67:leaf=0.0220835
							68:leaf=-0.0150172
					18:[D_CATEGORY_MICRO_MAX_COEC<0.0621217] yes=35,no=36,missing=36
						35:[U_CAT_LEN<9] yes=69,no=70,missing=70
							69:leaf=0.0869931
							70:leaf=-0.0124255
						36:[WORD_COUNT<2526] yes=71,no=72,missing=72
							71:leaf=-0.0432951
							72:leaf=-0.0180691
				10:[C_D_U_TITLEMD5_GENDER_COEC<0.231043] yes=19,no=20,missing=20
					19:[D_KEYWORD_MICRO_MAX_COEC<0.0918091] yes=37,no=38,missing=38
						37:[DAY_OF_WEEK<3] yes=73,no=74,missing=74
							73:leaf=0.000907964
							74:leaf=-0.031872
						38:[D_TITLEMD5_COEC<0.156126] yes=75,no=76,missing=76
							75:leaf=0.00386231
							76:leaf=-0.00680111
					20:[D_KEYWORD_MACRO_MAX_COEC<0.0367761] yes=39,no=40,missing=40
						39:[C_D_U_PUBLISHER_CITY_COEC<0.0748593] yes=77,no=78,missing=77
							77:leaf=-0.113911
							78:leaf=-0.0463415
						40:[TIME_OF_DAY<5] yes=79,no=80,missing=80
							79:leaf=-0.131785
							80:leaf=0.00188543
			6:[C_D_U_TITLEMD5_CATEGORY_MICRO_MEAN_COEC<0.176105] yes=11,no=12,missing=12
				11:[D_TITLEMD5_COEC<0.191287] yes=21,no=22,missing=22
					21:[D_TITLEMD5_COEC<0.0878064] yes=41,no=42,missing=42
						41:[C_D_U_CATEGORY_AGE_MACRO_MAX_COEC<0.0728658] yes=81,no=82,missing=82
							81:leaf=-0.00538743
							82:leaf=0.0539972
						42:[C_D_U_TITLEMD5_CATEGORY_MACRO_MAX_COEC<0.110043] yes=83,no=84,missing=84
							83:leaf=-0.0133317
							84:leaf=-0.0301587
					22:[C_D_U_PUBLISHER_GENDER_COEC<0.117796] yes=43,no=44,missing=43
						43:[C_D_U_PUBLISHER_GENDER_COEC<0.0733506] yes=85,no=86,missing=85
							85:leaf=-0.137671
							86:leaf=-0.184856
						44:[DAY_OF_WEEK<0.999999] yes=87,no=88,missing=88
							87:leaf=0.0757078
							88:leaf=-0.159672
				12:[D_KEYWORD_MACRO_MEAN_COEC<0.0834569] yes=23,no=24,missing=24
					23:[DAY_OF_WEEK<4] yes=45,no=46,missing=46
						45:[D_PUBLISHER_COEC<0.150847] yes=89,no=90,missing=90
							89:leaf=-0.0794004
							90:leaf=0.164494
						46:[C_D_U_PUBLISHER_AGE_COEC<0.0682201] yes=91,no=92,missing=92
							91:leaf=0.0365588
							92:leaf=-0.0454273
					24:[DAY_OF_WEEK<5] yes=47,no=48,missing=48
						47:[D_TITLEMD5_COEC<0.169156] yes=93,no=94,missing=94
							93:leaf=0.022155
							94:leaf=-0.00172216
						48:[KW_REL<0.000507586] yes=95,no=96,missing=96
							95:leaf=0.0201669
							96:leaf=-0.0348818
		4:[C_D_U_TITLEMD5_CATEGORY_MACRO_MEAN_COEC<0.1395] yes=7,no=8,missing=8
			7:[D_TITLEMD5_COEC<0.146665] yes=13,no=14,missing=13
				13:[D_CATEGORY_MICRO_MEAN_COEC<0.096809] yes=25,no=26,missing=26
					25:[C_D_U_CATEGORY_GENDER_MACRO_MEAN_COEC<0.0920758] yes=49,no=50,missing=50
						49:[U_CAT_LEN<9] yes=97,no=98,missing=98
							97:leaf=-0.0029294
							98:leaf=0.000774534
						50:[D_CATEGORY_MACRO_MEAN_COEC<0.0825952] yes=99,no=100,missing=100
							99:leaf=0.0505855
							100:leaf=0.00570078
					26:[D_KEYWORD_MACRO_MAX_COEC<0.0473005] yes=51,no=52,missing=52
						51:[C_D_U_CATEGORY_GENDER_MICRO_MAX_COEC<0.0983334] yes=101,no=102,missing=102
							101:leaf=-0.00597318
							102:leaf=0.000355564
						52:[DAY_OF_WEEK<0.999999] yes=103,no=104,missing=104
							103:leaf=-0.000107783
							104:leaf=-0.0200475
				14:[D_KEYWORD_MICRO_MEAN_COEC<0.111512] yes=27,no=28,missing=28
					27:[KW_REL<0.0042366] yes=53,no=54,missing=54
						53:[D_CATEGORY_MICRO_MEAN_COEC<0.0645383] yes=105,no=106,missing=106
							105:leaf=0.0127085
							106:leaf=-0.0131665
						54:[D_PUBLISHER_COEC<0.0639676] yes=107,no=108,missing=108
							107:leaf=-0.0183183
							108:leaf=0.00554834
					28:[D_KEYWORD_MACRO_MEAN_COEC<0.114701] yes=55,no=56,missing=56
						55:[C_D_U_CATEGORY_CITY_MACRO_MAX_COEC<0.0936128] yes=109,no=110,missing=110
							109:leaf=-0.00288512
							110:leaf=0.0148691
						56:[KW_REL<0.000927735] yes=111,no=112,missing=112
							111:leaf=-0.00057086
							112:leaf=-0.0174753
			8:[D_PUBLISHER_COEC<0.11188] yes=15,no=16,missing=16
				15:[C_D_U_TITLEMD5_CATEGORY_MICRO_MAX_COEC<0.279351] yes=29,no=30,missing=30
					29:[C_D_U_TITLEMD5_CATEGORY_MACRO_MEAN_COEC<0.18162] yes=57,no=58,missing=58
						57:[D_TITLEMD5_COEC<0.163847] yes=113,no=114,missing=114
							113:leaf=0.00758015
							114:leaf=0.000661219
						58:[U_CAT_LEN<7] yes=115,no=116,missing=116
							115:leaf=2.13318e-05
							116:leaf=0.0190684
					30:[C_D_U_TITLEMD5_CATEGORY_MACRO_MEAN_COEC<0.206271] yes=59,no=60,missing=60
						59:[D_CATEGORY_MACRO_MAX_COEC<0.106403] yes=117,no=118,missing=118
							117:leaf=-0.0123168
							118:leaf=0.0395557
						60:[D_KEYWORD_MACRO_MEAN_COEC<0.124545] yes=119,no=120,missing=120
							119:leaf=-0.00134215
							120:leaf=0.0144386
				16:[TIME_OF_DAY<14] yes=31,no=32,missing=32
					31:[D_KEYWORD_MACRO_MEAN_COEC<0.114701] yes=61,no=62,missing=62
						61:[C_D_U_TITLEMD5_CATEGORY_MICRO_MAX_COEC<0.197695] yes=121,no=122,missing=122
							121:leaf=-0.00548737
							122:leaf=0.0103369
						62:[D_KEYWORD_MICRO_MAX_COEC<0.215318] yes=123,no=124,missing=124
							123:leaf=-0.00959566
							124:leaf=0.0035209
					32:[WORD_COUNT<3711] yes=63,no=64,missing=64
						63:[D_KEYWORD_MICRO_MAX_COEC<0.147511] yes=125,no=126,missing=126
							125:leaf=0.0146227
							126:leaf=0.00181152
						64:[D_CATEGORY_MACRO_MAX_COEC<0.0694184] yes=127,no=128,missing=128
							127:leaf=-0.113646
							128:leaf=0.0236733
booster[89]:
0:[U_KW_LEN<200] yes=1,no=2,missing=1
	1:leaf=0.0
	2:[CAT_REL<0.167235] yes=3,no=4,missing=4
		3:[D_KEYWORD_MACRO_MEAN_COEC<0.0668762] yes=5,no=6,missing=6
			5:[C_D_U_TITLEMD5_CATEGORY_MACRO_MAX_COEC<0.0388979] yes=9,no=10,missing=10
				9:[C_D_U_CATEGORY_GENDER_MACRO_MEAN_COEC<0.0894146] yes=17,no=18,missing=18
					17:[D_CATEGORY_MICRO_MEAN_COEC<0.0647493] yes=33,no=34,missing=34
						33:[C_D_U_CATEGORY_GENDER_MACRO_MAX_COEC<0.06615] yes=65,no=66,missing=66
							65:leaf=-6.59267e-05
							66:leaf=0.0305086
						34:[TIME_OF_DAY<15] yes=67,no=68,missing=68
							67:leaf=-0.00319165
							68:leaf=-0.0102618
					18:[C_D_U_CATEGORY_AGE_MACRO_MEAN_COEC<0.0848689] yes=35,no=36,missing=36
						35:[C_D_U_TITLEMD5_CATEGORY_MACRO_MEAN_COEC<0.0365397] yes=69,no=70,missing=70
							69:leaf=0.155831
							70:leaf=0.0378437
						36:[D_KEYWORD_MACRO_MAX_COEC<0.035505] yes=71,no=72,missing=72
							71:leaf=0.00962623
							72:leaf=0.148701
				10:[C_D_U_CATEGORY_GENDER_MACRO_MEAN_COEC<0.0894146] yes=19,no=20,missing=20
					19:[WORD_COUNT<2671] yes=37,no=38,missing=38
						37:[D_CATEGORY_MICRO_MAX_COEC<0.0673705] yes=73,no=74,missing=74
							73:leaf=-0.0117417
							74:leaf=-0.0292362
						38:[C_D_U_TITLEMD5_CATEGORY_MACRO_MEAN_COEC<0.0836402] yes=75,no=76,missing=76
							75:leaf=-0.0177171
							76:leaf=-0.00354028
					20:[C_D_U_CATEGORY_AGE_MICRO_MEAN_COEC<0.101314] yes=39,no=40,missing=39
						39:[C_D_U_PUBLISHER_GENDER_COEC<0.0299399] yes=77,no=78,missing=78
							77:leaf=-0.151077
							78:leaf=0.0195946
						40:[D_KEYWORD_MICRO_MEAN_COEC<0.0858248] yes=79,no=80,missing=80
							79:leaf=-0.0510341
							80:leaf=0.039293
			6:[D_KEYWORD_MACRO_MAX_COEC<0.0243558] yes=11,no=12,missing=12
				11:[C_D_U_TITLEMD5_CATEGORY_MICRO_MAX_COEC<0.149473] yes=21,no=22,missing=22
					21:[C_D_U_TITLEMD5_CATEGORY_MACRO_MAX_COEC<0.0455434] yes=41,no=42,missing=42
						41:[C_D_U_TITLEMD5_CATEGORY_MACRO_MEAN_COEC<0.0499191] yes=81,no=82,missing=82
							81:leaf=-0.0116304
							82:leaf=0.00264105
						42:[D_KEYWORD_MICRO_MEAN_COEC<0.103229] yes=83,no=84,missing=84
							83:leaf=-0.00976105
							84:leaf=0.0207504
					22:[C_D_U_TITLEMD5_AGE_COEC<0.213628] yes=43,no=44,missing=44
						43:[D_TITLEMD5_COEC<0.116152] yes=85,no=86,missing=86
							85:leaf=0.0113876
							86:leaf=0.00316437
						44:[WORD_COUNT<706] yes=87,no=88,missing=88
							87:leaf=0.014204
							88:leaf=-0.0347014
				12:[D_CATEGORY_MACRO_MEAN_COEC<0.0828612] yes=23,no=24,missing=23
					23:[C_D_U_CATEGORY_AGE_MACRO_MAX_COEC<0.0841522] yes=45,no=46,missing=45
						45:[C_D_U_TITLEMD5_AGE_COEC<0.0446143] yes=89,no=90,missing=89
							89:leaf=-0.0222061
							90:leaf=0.000442714
						46:[C_D_U_TITLEMD5_AGE_COEC<0.0750748] yes=91,no=92,missing=91
							91:leaf=0.0429756
							92:leaf=0.0118055
					24:[DAY_OF_WEEK<5] yes=47,no=48,missing=48
						47:[KW_REL<0.00135654] yes=93,no=94,missing=94
							93:leaf=-0.00644544
							94:leaf=0.00467792
						48:[C_D_U_CATEGORY_CITY_MICRO_MAX_COEC<0.0999521] yes=95,no=96,missing=96
							95:leaf=-0.0149245
							96:leaf=-2.10289e-05
		4:[U_CAT_LEN<15] yes=7,no=8,missing=8
			7:[D_KEYWORD_MACRO_MEAN_COEC<0.168445] yes=13,no=14,missing=14
				13:[C_D_U_TITLEMD5_GENDER_COEC<0.279033] yes=25,no=26,missing=25
					25:[C_D_U_CATEGORY_GENDER_MACRO_MAX_COEC<0.0851475] yes=49,no=50,missing=50
						49:[WORD_COUNT<2864] yes=97,no=98,missing=98
							97:leaf=0.000197186
							98:leaf=0.00478667
						50:[CAT_REL<0.590491] yes=99,no=100,missing=100
							99:leaf=-0.00205739
							100:leaf=0.00322683
					26:[C_D_U_CATEGORY_GENDER_MICRO_MAX_COEC<0.066084] yes=51,no=52,missing=52
						51:[D_CAT_LEN<2] yes=101,no=102,missing=102
							101:leaf=0.00576596
							102:leaf=-0.141724
						52:[C_D_U_TITLEMD5_CATEGORY_MACRO_MEAN_COEC<0.0470462] yes=103,no=104,missing=104
							103:leaf=0.0970549
							104:leaf=-0.0171073
				14:[C_D_U_TITLEMD5_CATEGORY_MACRO_MEAN_COEC<0.248648] yes=27,no=28,missing=28
					27:[C_D_U_TITLEMD5_CATEGORY_MICRO_MEAN_COEC<0.199665] yes=53,no=54,missing=54
						53:[KW_REL<0.00126114] yes=105,no=106,missing=106
							105:leaf=0.0717166
							106:leaf=0.00786903
						54:[D_CATEGORY_MACRO_MEAN_COEC<0.0777235] yes=107,no=108,missing=108
							107:leaf=-0.0523656
							108:leaf=0.0063145
					28:[D_KEYWORD_MICRO_MEAN_COEC<0.067767] yes=55,no=56,missing=56
						55:leaf=-0.21142
						56:[C_D_U_CATEGORY_AGE_MACRO_MAX_COEC<0.0754104] yes=109,no=110,missing=110
							109:leaf=-0.010373
							110:leaf=0.0270108
			8:[CAT_REL<0.838619] yes=15,no=16,missing=16
				15:[D_CATEGORY_MICRO_MEAN_COEC<0.0832717] yes=29,no=30,missing=30
					29:[C_D_U_CATEGORY_CITY_MICRO_MEAN_COEC<0.0575567] yes=57,no=58,missing=58
						57:[D_CATEGORY_MICRO_MAX_COEC<0.0620909] yes=111,no=112,missing=112
							111:leaf=0.0130745
							112:leaf=-0.0172603
						58:[C_D_U_CATEGORY_GENDER_MICRO_MAX_COEC<0.0655125] yes=113,no=114,missing=114
							113:leaf=0.000352875
							114:leaf=0.00738717
					30:[C_D_U_CATEGORY_GENDER_MACRO_MEAN_COEC<0.0758695] yes=59,no=60,missing=60
						59:[CAT_REL<0.284087] yes=115,no=116,missing=116
							115:leaf=-0.0608365
							116:leaf=-0.00454512
						60:[C_D_U_TITLEMD5_CATEGORY_MACRO_MEAN_COEC<0.126473] yes=117,no=118,missing=118
							117:leaf=-0.000373557
							118:leaf=0.00496134
				16:[U_CAT_LEN<18] yes=31,no=32,missing=32
					31:[C_D_U_TITLEMD5_GENDER_COEC<0.0443502] yes=61,no=62,missing=61
						61:[C_D_U_CATEGORY_AGE_MACRO_MEAN_COEC<0.101791] yes=119,no=120,missing=120
							119:leaf=0.0685987
							120:leaf=0.153272
						62:[WORD_COUNT<2948] yes=121,no=122,missing=122
							121:leaf=0.0405907
							122:leaf=-0.00520826
					32:[D_KEYWORD_MICRO_MEAN_COEC<0.0799931] yes=63,no=64,missing=64
						63:[D_KEYWORD_MACRO_MAX_COEC<0.0185036] yes=123,no=124,missing=124
							123:leaf=0.0648293
							124:leaf=-0.0129721
						64:[WORD_COUNT<3273] yes=125,no=126,missing=126
							125:leaf=-0.0465721
							126:leaf=0.0634199
