booster[0]:
0:[C_D_U_GROUPID_CATEGORY_MICRO_MEAN_COEC<0.085876] yes=1,no=2,missing=1
	1:[C_D_U_CATEGORY_UID_MACRO_MEAN_COEC<0.102084] yes=3,no=4,missing=3
		3:[D_KEYWORD_MACRO_MEAN_COEC<0.100781] yes=7,no=8,missing=8
			7:[C_D_U_GROUPID_CATEGORY_MICRO_MEAN_COEC<0.049571] yes=15,no=16,missing=15
				15:[D_GROUPID_COEC<0.095464] yes=31,no=32,missing=31
					31:[C_D_U_KEYWORD_UID_MICRO_MEAN_COEC<0.053645] yes=63,no=64,missing=63
						63:leaf=-0.00478557
						64:leaf=0.0012469
					32:[D_TITLEMD5_C<373.016] yes=65,no=66,missing=65
						65:leaf=0.00186942
						66:leaf=0.00629956
				16:[C_D_U_KEYWORD_UID_MICRO_MEAN_COEC<0.074679] yes=33,no=34,missing=33
					33:[CAT_REL<0.000923] yes=67,no=68,missing=68
						67:leaf=0.000517484
						68:leaf=0.00453976
					34:[CAT_REL<0.000923] yes=69,no=70,missing=70
						69:leaf=0.00575681
						70:leaf=0.00917063
			8:[D_TITLEMD5_COEC<0.199772] yes=17,no=18,missing=17
				17:[D_GROUPID_COEC<0.151266] yes=35,no=36,missing=36
					35:[D_CATEGORY_MEAN_C<27150.4] yes=71,no=72,missing=71
						71:leaf=0.00886026
						72:leaf=0.00337122
					36:[D_CATEGORY_MAX_C<18703.8] yes=73,no=74,missing=73
						73:leaf=0.0118294
						74:leaf=0.0097031
				18:[C_D_U_KEYWORD_CATEGORY_MICRO_MEAN_COEC<0.120859] yes=37,no=38,missing=38
					37:[D_TITLEMD5_C<1.65741] yes=75,no=76,missing=76
						75:leaf=0.00217414
						76:leaf=0.0101783
					38:[D_TITLEMD5_COEC<0.238635] yes=77,no=78,missing=78
						77:leaf=0.0142576
						78:leaf=0.0163591
		4:[C_D_U_KEYWORD_UID_MACRO_MEAN_COEC<0.081161] yes=9,no=10,missing=9
			9:[D_TITLEMD5_COEC<0.026284] yes=19,no=20,missing=19
				19:[C_D_U_KEYWORD_UID_MACRO_MEAN_COEC<0.026713] yes=39,no=40,missing=39
					39:[U_CATEGORY_MICRO_MEAN_COEC<0.079155] yes=79,no=80,missing=79
						79:leaf=-0.00334064
						80:leaf=0.00160333
					40:[CAT_REL<0.01478] yes=81,no=82,missing=82
						81:leaf=0.000554933
						82:leaf=0.0052949
				20:[D_TITLEMD5_C<56.2295] yes=41,no=42,missing=42
					41:[C_D_U_KEYWORD_UID_MICRO_MEAN_COEC<0.074679] yes=83,no=84,missing=83
						83:leaf=0.00555276
						84:leaf=0.00891045
					42:[D_TITLEMD5_COEC<0.164187] yes=85,no=86,missing=86
						85:leaf=0.0103437
						86:leaf=0.0158723
			10:[C_D_U_CATEGORY_UID_MACRO_MEAN_COEC<0.232528] yes=21,no=22,missing=22
				21:[D_TITLEMD5_COEC<0.048403] yes=43,no=44,missing=44
					43:[KW_REL<0.001332] yes=87,no=88,missing=88
						87:leaf=0.00631922
						88:leaf=0.0099066
					44:[C_D_U_KEYWORD_UID_MICRO_MEAN_COEC<0.164994] yes=89,no=90,missing=90
						89:leaf=0.0104714
						90:leaf=0.0125862
				22:[C_D_U_CATEGORY_UID_MEAN_C<1.22375] yes=45,no=46,missing=46
					45:[D_TITLEMD5_COEC<0.044696] yes=91,no=92,missing=91
						91:leaf=0.00945228
						92:leaf=0.0128274
					46:[C_D_U_KEYWORD_UID_MACRO_MEAN_COEC<0.176071] yes=93,no=94,missing=94
						93:leaf=0.0131813
						94:leaf=0.0152268
	2:[C_D_U_TITLEMD5_CATEGORY_MICRO_MEAN_COEC<0.138829] yes=5,no=6,missing=5
		5:[C_D_U_KEYWORD_UID_MICRO_MEAN_COEC<0.097179] yes=11,no=12,missing=11
			11:[D_TITLEMD5_C<51.4094] yes=23,no=24,missing=23
				23:[CAT_REL<0.000923] yes=47,no=48,missing=48
					47:[C_D_U_CATEGORY_UID_MACRO_MEAN_COEC<0.102084] yes=95,no=96,missing=95
						95:leaf=0.00146727
						96:leaf=0.00776904
					48:[C_D_U_CATEGORY_UID_MACRO_MEAN_COEC<0.077551] yes=97,no=98,missing=98
						97:leaf=0.00568302
						98:leaf=0.00941856
				24:[CAT_REL<0.000923] yes=49,no=50,missing=50
					49:[C_D_U_TITLEMD5_CATEGORY_MICRO_MEAN_COEC<0.110056] yes=99,no=100,missing=99
						99:leaf=0.00667648
						100:leaf=0.00989028
					50:[C_D_U_CATEGORY_UID_MICRO_MEAN_COEC<0.147216] yes=101,no=102,missing=101
						101:leaf=0.0113877
						102:leaf=0.0140301
			12:[C_D_U_CATEGORY_UID_MACRO_MEAN_COEC<0.166037] yes=25,no=26,missing=25
				25:[D_TITLEMD5_C<41.2117] yes=51,no=52,missing=52
					51:[C_D_U_KEYWORD_UID_MACRO_MEAN_COEC<0.084328] yes=103,no=104,missing=104
						103:leaf=0.00924501
						104:leaf=0.0124546
					52:[CAT_REL<0.000923] yes=105,no=106,missing=106
						105:leaf=0.0121637
						106:leaf=0.0142864
				26:[C_D_U_KEYWORD_UID_MICRO_MEAN_COEC<0.243235] yes=53,no=54,missing=54
					53:[C_D_U_TITLEMD5_CATEGORY_MICRO_MEAN_COEC<0.111725] yes=107,no=108,missing=107
						107:leaf=0.0138762
						108:leaf=0.0152856
					54:[M_D_U_KEYWORD_KEYWORD_MICRO_MAX_COEC<0.080168] yes=109,no=110,missing=109
						109:leaf=0.0150552
						110:leaf=0.0162526
		6:[C_D_U_KEYWORD_UID_MICRO_MEAN_COEC<0.108943] yes=13,no=14,missing=13
			13:[D_TITLEMD5_C<30.9398] yes=27,no=28,missing=28
				27:[C_D_U_KEYWORD_CATEGORY_MICRO_MEAN_COEC<0.079913] yes=55,no=56,missing=56
					55:[C_D_U_CATEGORY_UID_MACRO_MAX_COEC<0.048907] yes=111,no=112,missing=111
						111:leaf=0.00368494
						112:leaf=0.0100038
					56:[D_TITLEMD5_COEC<0.127272] yes=113,no=114,missing=114
						113:leaf=0.00908553
						114:leaf=0.0132334
				28:[C_D_U_GROUPID_CATEGORY_MICRO_MEAN_COEC<0.186164] yes=57,no=58,missing=58
					57:[CAT_REL<0.000923] yes=115,no=116,missing=116
						115:leaf=0.0129519
						116:leaf=0.0148234
					58:[C_D_U_TITLEMD5_CATEGORY_MICRO_MEAN_COEC<0.233043] yes=117,no=118,missing=118
						117:leaf=0.0159384
						118:leaf=0.0173419
			14:[C_D_U_TITLEMD5_CATEGORY_MEAN_C<0.123499] yes=29,no=30,missing=30
				29:[C_D_U_CATEGORY_UID_MACRO_MEAN_COEC<0.137162] yes=59,no=60,missing=59
					59:[D_TITLEMD5_COEC<0.096405] yes=119,no=120,missing=120
						119:leaf=0.0099585
						120:leaf=0.0139386
					60:[C_D_U_KEYWORD_UID_MACRO_MEAN_COEC<0.134085] yes=121,no=122,missing=122
						121:leaf=0.0148155
						122:leaf=0.0167149
				30:[C_D_U_TITLEMD5_CATEGORY_MICRO_MEAN_COEC<0.18046] yes=61,no=62,missing=62
					61:[C_D_U_CATEGORY_UID_MICRO_MEAN_COEC<0.216759] yes=123,no=124,missing=123
						123:leaf=0.0158085
						124:leaf=0.0172008
					62:[C_D_U_CATEGORY_UID_MICRO_MAX_COEC<0.250432] yes=125,no=126,missing=125
						125:leaf=0.0174736
						126:leaf=0.0182219
booster[1]:
0:[C_D_U_GROUPID_CATEGORY_MICRO_MEAN_COEC<0.087225] yes=1,no=2,missing=1
	1:[C_D_U_CATEGORY_UID_MACRO_MEAN_COEC<0.102284] yes=3,no=4,missing=3
		3:[D_KEYWORD_MACRO_MEAN_COEC<0.100162] yes=7,no=8,missing=8
			7:[C_D_U_GROUPID_CATEGORY_MICRO_MEAN_COEC<0.049902] yes=15,no=16,missing=15
				15:[D_GROUPID_COEC<0.095893] yes=31,no=32,missing=31
					31:[C_D_U_KEYWORD_UID_MICRO_MEAN_COEC<0.053409] yes=63,no=64,missing=63
						63:leaf=-0.00468282
						64:leaf=0.00123691
					32:[D_TITLEMD5_C<412.768] yes=65,no=66,missing=65
						65:leaf=0.0019953
						66:leaf=0.00635733
				16:[C_D_U_KEYWORD_UID_MICRO_MEAN_COEC<0.074599] yes=33,no=34,missing=33
					33:[CAT_REL<0.000933] yes=67,no=68,missing=68
						67:leaf=0.000647512
						68:leaf=0.00458012
					34:[CAT_REL<0.000933] yes=69,no=70,missing=70
						69:leaf=0.00584536
						70:leaf=0.00923232
			8:[D_TITLEMD5_COEC<0.201259] yes=17,no=18,missing=17
				17:[D_GROUPID_COEC<0.146051] yes=35,no=36,missing=36
					35:[D_CATEGORY_MEAN_C<27365.4] yes=71,no=72,missing=71
						71:leaf=0.00849569
						72:leaf=0.00297869
					36:[D_CATEGORY_MAX_C<20221] yes=73,no=74,missing=73
						73:leaf=0.0115928
						74:leaf=0.00938187
				18:[C_D_U_KEYWORD_CATEGORY_MICRO_MEAN_COEC<0.116488] yes=37,no=38,missing=38
					37:[D_TITLEMD5_C<1.13511] yes=75,no=76,missing=76
						75:leaf=0.00143782
						76:leaf=0.0100394
					38:[D_TITLEMD5_COEC<0.238161] yes=77,no=78,missing=78
						77:leaf=0.0141491
						78:leaf=0.0161575
		4:[C_D_U_KEYWORD_UID_MACRO_MEAN_COEC<0.080493] yes=9,no=10,missing=9
			9:[D_TITLEMD5_COEC<0.029047] yes=19,no=20,missing=19
				19:[U_CATEGORY_MICRO_MEAN_COEC<0.079881] yes=39,no=40,missing=39
					39:[D_PUBLISHER_COEC<0.039332] yes=79,no=80,missing=80
						79:leaf=-0.00426799
						80:leaf=0.000910161
					40:[C_D_U_PUBLISHER_UID_COEC<0.142757] yes=81,no=82,missing=81
						81:leaf=0.00312837
						82:leaf=0.00711976
				20:[D_TITLEMD5_C<57.3027] yes=41,no=42,missing=42
					41:[C_D_U_KEYWORD_UID_MICRO_MEAN_COEC<0.089112] yes=83,no=84,missing=83
						83:leaf=0.00584757
						84:leaf=0.00920897
					42:[D_TITLEMD5_COEC<0.163507] yes=85,no=86,missing=86
						85:leaf=0.0102947
						86:leaf=0.0156665
			10:[C_D_U_CATEGORY_UID_MACRO_MEAN_COEC<0.254995] yes=21,no=22,missing=22
				21:[D_TITLEMD5_COEC<0.055877] yes=43,no=44,missing=44
					43:[M_D_U_KEYWORD_KEYWORD_MICRO_MAX_COEC<0.080452] yes=87,no=88,missing=87
						87:leaf=0.00724584
						88:leaf=0.0104111
					44:[C_D_U_KEYWORD_UID_MICRO_MEAN_COEC<0.170163] yes=89,no=90,missing=90
						89:leaf=0.0107374
						90:leaf=0.0128355
				22:[C_D_U_CATEGORY_UID_MAX_C<1.00744] yes=45,no=46,missing=46
					45:[D_TITLEMD5_COEC<0.044385] yes=91,no=92,missing=91
						91:leaf=0.00917618
						92:leaf=0.0127375
					46:[C_D_U_KEYWORD_UID_MACRO_MEAN_COEC<0.176452] yes=93,no=94,missing=94
						93:leaf=0.0132404
						94:leaf=0.0151849
	2:[C_D_U_TITLEMD5_CATEGORY_MICRO_MEAN_COEC<0.136983] yes=5,no=6,missing=5
		5:[C_D_U_KEYWORD_UID_MICRO_MEAN_COEC<0.095497] yes=11,no=12,missing=11
			11:[D_TITLEMD5_C<49.7227] yes=23,no=24,missing=23
				23:[C_D_U_CATEGORY_UID_MACRO_MEAN_COEC<0.077523] yes=47,no=48,missing=47
					47:[CAT_REL<0.000933] yes=95,no=96,missing=96
						95:leaf=0.0012768
						96:leaf=0.00608985
					48:[C_D_U_CATEGORY_UID_MACRO_MEAN_COEC<0.159792] yes=97,no=98,missing=98
						97:leaf=0.00823415
						98:leaf=0.0109124
				24:[CAT_REL<0.000933] yes=49,no=50,missing=50
					49:[C_D_U_TITLEMD5_CATEGORY_MICRO_MEAN_COEC<0.110688] yes=99,no=100,missing=99
						99:leaf=0.00671364
						100:leaf=0.00970689
					50:[C_D_U_CATEGORY_UID_MACRO_MEAN_COEC<0.142499] yes=101,no=102,missing=101
						101:leaf=0.0112705
						102:leaf=0.0138394
			12:[C_D_U_CATEGORY_UID_MICRO_MEAN_COEC<0.182706] yes=25,no=26,missing=25
				25:[KW_REL<0.001452] yes=51,no=52,missing=52
					51:[D_TITLEMD5_C<44.6476] yes=103,no=104,missing=103
						103:leaf=0.0087301
						104:leaf=0.0120487
					52:[C_D_U_KEYWORD_UID_MICRO_MEAN_COEC<0.194765] yes=105,no=106,missing=106
						105:leaf=0.0125148
						106:leaf=0.0142667
				26:[C_D_U_KEYWORD_UID_MICRO_MEAN_COEC<0.242824] yes=53,no=54,missing=54
					53:[D_TITLEMD5_C<25.2823] yes=107,no=108,missing=107
						107:leaf=0.013272
						108:leaf=0.0148362
					54:[C_D_U_CATEGORY_UID_MAX_C<1.00744] yes=109,no=110,missing=110
						109:leaf=0.0151387
						110:leaf=0.0162017
		6:[C_D_U_KEYWORD_UID_MICRO_MEAN_COEC<0.106595] yes=13,no=14,missing=13
			13:[D_TITLEMD5_C<31.4463] yes=27,no=28,missing=28
				27:[C_D_U_KEYWORD_CATEGORY_MICRO_MEAN_COEC<0.090881] yes=55,no=56,missing=56
					55:[CAT_REL<0.000933] yes=111,no=112,missing=112
						111:leaf=0.00240359
						112:leaf=0.00863734
					56:[D_TITLEMD5_COEC<0.13008] yes=113,no=114,missing=114
						113:leaf=0.00954745
						114:leaf=0.013759
				28:[C_D_U_GROUPID_CATEGORY_MICRO_MEAN_COEC<0.181736] yes=57,no=58,missing=58
					57:[CAT_REL<0.000933] yes=115,no=116,missing=116
						115:leaf=0.0126451
						116:leaf=0.01452
					58:[C_D_U_TITLEMD5_CATEGORY_MICRO_MEAN_COEC<0.231959] yes=117,no=118,missing=118
						117:leaf=0.0156944
						118:leaf=0.0171444
			14:[C_D_U_TITLEMD5_CATEGORY_MEAN_C<0.122894] yes=29,no=30,missing=30
				29:[C_D_U_CATEGORY_UID_MACRO_MEAN_COEC<0.136643] yes=59,no=60,missing=59
					59:[D_TITLEMD5_COEC<0.101706] yes=119,no=120,missing=120
						119:leaf=0.00997557
						120:leaf=0.0138464
					60:[C_D_U_KEYWORD_UID_MACRO_MEAN_COEC<0.132717] yes=121,no=122,missing=122
						121:leaf=0.0146198
						122:leaf=0.0165166
				30:[C_D_U_TITLEMD5_CATEGORY_MICRO_MEAN_COEC<0.180572] yes=61,no=62,missing=62
					61:[C_D_U_CATEGORY_UID_MICRO_MEAN_COEC<0.211925] yes=123,no=124,missing=123
						123:leaf=0.0155867
						124:leaf=0.0169855
					62:[C_D_U_CATEGORY_UID_MICRO_MEAN_COEC<0.2534] yes=125,no=126,missing=125
						125:leaf=0.0173062
						126:leaf=0.0180501
booster[2]:
0:[C_D_U_GROUPID_CATEGORY_MICRO_MEAN_COEC<0.086652] yes=1,no=2,missing=1
	1:[C_D_U_CATEGORY_UID_MACRO_MEAN_COEC<0.10133] yes=3,no=4,missing=3
		3:[D_KEYWORD_MACRO_MEAN_COEC<0.100528] yes=7,no=8,missing=8
			7:[C_D_U_GROUPID_CATEGORY_MICRO_MEAN_COEC<0.044537] yes=15,no=16,missing=15
				15:[D_GROUPID_COEC<0.091378] yes=31,no=32,missing=31
					31:[C_D_U_KEYWORD_UID_MACRO_MEAN_COEC<0.029166] yes=63,no=64,missing=63
						63:leaf=-0.00498655
						64:leaf=0.00121908
					32:[D_TITLEMD5_C<481.031] yes=65,no=66,missing=65
						65:leaf=0.00183118
						66:leaf=0.00658141
				16:[C_D_U_KEYWORD_UID_MICRO_MEAN_COEC<0.081086] yes=33,no=34,missing=33
					33:[CAT_REL<0.000924] yes=67,no=68,missing=68
						67:leaf=0.000379916
						68:leaf=0.00423904
					34:[CAT_REL<0.000924] yes=69,no=70,missing=70
						69:leaf=0.00557404
						70:leaf=0.00897467
			8:[D_TITLEMD5_COEC<0.19911] yes=17,no=18,missing=17
				17:[D_GROUPID_COEC<0.146389] yes=35,no=36,missing=36
					35:[D_CATEGORY_MEAN_C<24124.4] yes=71,no=72,missing=71
						71:leaf=0.00850629
						72:leaf=0.00314008
					36:[D_CATEGORY_MAX_C<15006.9] yes=73,no=74,missing=73
						73:leaf=0.0115808
						74:leaf=0.00942431
				18:[C_D_U_KEYWORD_CATEGORY_MEAN_C<0.135549] yes=37,no=38,missing=37
					37:[D_TITLEMD5_COEC<0.238245] yes=75,no=76,missing=76
						75:leaf=0.0139351
						76:leaf=0.0160077
					38:[KW_REL<0.001267] yes=77,no=78,missing=78
						77:leaf=0.00190873
						78:leaf=0.0094039
		4:[C_D_U_KEYWORD_UID_MACRO_MEAN_COEC<0.081473] yes=9,no=10,missing=9
			9:[D_TITLEMD5_COEC<0.02857] yes=19,no=20,missing=19
				19:[U_CATEGORY_MICRO_MEAN_COEC<0.083023] yes=39,no=40,missing=39
					39:[IMAGE_COUNT<0.999999] yes=79,no=80,missing=80
						79:leaf=-0.00577039
						80:leaf=0.000719403
					40:[C_D_U_KEYWORD_UID_MICRO_MEAN_COEC<0.089978] yes=81,no=82,missing=81
						81:leaf=0.00258656
						82:leaf=0.00599982
				20:[D_TITLEMD5_C<73.6131] yes=41,no=42,missing=42
					41:[C_D_U_KEYWORD_UID_MICRO_MEAN_COEC<0.076272] yes=83,no=84,missing=83
						83:leaf=0.00576004
						84:leaf=0.00901878
					42:[D_TITLEMD5_COEC<0.160693] yes=85,no=86,missing=86
						85:leaf=0.0103599
						86:leaf=0.0154663
			10:[C_D_U_CATEGORY_UID_MACRO_MEAN_COEC<0.258003] yes=21,no=22,missing=22
				21:[D_TITLEMD5_COEC<0.048512] yes=43,no=44,missing=44
					43:[KW_REL<0.001267] yes=87,no=88,missing=88
						87:leaf=0.00616362
						88:leaf=0.00984347
					44:[C_D_U_KEYWORD_UID_MICRO_MEAN_COEC<0.171785] yes=89,no=90,missing=90
						89:leaf=0.0105118
						90:leaf=0.0125954
				22:[C_D_U_CATEGORY_UID_MAX_C<1.01931] yes=45,no=46,missing=46
					45:[C_D_U_GROUPID_CATEGORY_MICRO_MEAN_COEC<0.044537] yes=91,no=92,missing=92
						91:leaf=0.00895832
						92:leaf=0.0125752
					46:[C_D_U_KEYWORD_UID_MACRO_MEAN_COEC<0.201889] yes=93,no=94,missing=94
						93:leaf=0.0133307
						94:leaf=0.0151788
	2:[C_D_U_TITLEMD5_CATEGORY_MICRO_MEAN_COEC<0.139163] yes=5,no=6,missing=5
		5:[C_D_U_KEYWORD_UID_MICRO_MEAN_COEC<0.093637] yes=11,no=12,missing=11
			11:[D_TITLEMD5_C<62.7803] yes=23,no=24,missing=23
				23:[CAT_REL<0.000924] yes=47,no=48,missing=48
					47:[C_D_U_CATEGORY_UID_MACRO_MEAN_COEC<0.10133] yes=95,no=96,missing=95
						95:leaf=0.0017584
						96:leaf=0.00786285
					48:[C_D_U_CATEGORY_UID_MACRO_MEAN_COEC<0.107549] yes=97,no=98,missing=97
						97:leaf=0.00662076
						98:leaf=0.0107482
				24:[CAT_REL<0.000924] yes=49,no=50,missing=50
					49:[C_D_U_TITLEMD5_CATEGORY_MICRO_MEAN_COEC<0.109338] yes=99,no=100,missing=100
						99:leaf=0.00661453
						100:leaf=0.00970863
					50:[C_D_U_TITLEMD5_CATEGORY_MICRO_MEAN_COEC<0.111844] yes=101,no=102,missing=102
						101:leaf=0.0106629
						102:leaf=0.0126888
			12:[C_D_U_CATEGORY_UID_MACRO_MEAN_COEC<0.170503] yes=25,no=26,missing=25
				25:[C_D_U_KEYWORD_UID_MACRO_MEAN_COEC<0.089334] yes=51,no=52,missing=52
					51:[D_TITLEMD5_C<45.4359] yes=103,no=104,missing=103
						103:leaf=0.00936437
						104:leaf=0.0123557
					52:[C_D_U_TITLEMD5_CATEGORY_MICRO_MEAN_COEC<0.106865] yes=105,no=106,missing=106
						105:leaf=0.0124845
						106:leaf=0.0141941
				26:[C_D_U_KEYWORD_UID_MICRO_MEAN_COEC<0.223567] yes=53,no=54,missing=54
					53:[C_D_U_TITLEMD5_CATEGORY_MICRO_MEAN_COEC<0.104454] yes=107,no=108,missing=107
						107:leaf=0.0132986
						108:leaf=0.014766
					54:[C_D_U_TITLEMD5_CATEGORY_MICRO_MEAN_COEC<0.109338] yes=109,no=110,missing=109
						109:leaf=0.0150609
						110:leaf=0.0160486
		6:[C_D_U_KEYWORD_UID_MICRO_MEAN_COEC<0.12027] yes=13,no=14,missing=13
			13:[D_TITLEMD5_C<35.9391] yes=27,no=28,missing=28
				27:[C_D_U_KEYWORD_CATEGORY_MICRO_MEAN_COEC<0.081418] yes=55,no=56,missing=56
					55:[C_D_U_CATEGORY_UID_MACRO_MAX_COEC<0.053309] yes=111,no=112,missing=111
						111:leaf=0.00418915
						112:leaf=0.0105111
					56:[D_TITLEMD5_COEC<0.134372] yes=113,no=114,missing=114
						113:leaf=0.00965875
						114:leaf=0.0133841
				28:[C_D_U_TITLEMD5_CATEGORY_MICRO_MEAN_COEC<0.187405] yes=57,no=58,missing=58
					57:[CAT_REL<0.000924] yes=115,no=116,missing=116
						115:leaf=0.0128199
						116:leaf=0.0145891
					58:[C_D_U_GROUPID_CATEGORY_MICRO_MEAN_COEC<0.235649] yes=117,no=118,missing=118
						117:leaf=0.0157016
						118:leaf=0.0170835
			14:[C_D_U_TITLEMD5_CATEGORY_MEAN_C<0.132706] yes=29,no=30,missing=30
				29:[C_D_U_CATEGORY_UID_MACRO_MEAN_COEC<0.151859] yes=59,no=60,missing=59
					59:[D_TITLEMD5_COEC<0.103668] yes=119,no=120,missing=120
						119:leaf=0.010645
						120:leaf=0.0141529
					60:[C_D_U_KEYWORD_UID_MACRO_MEAN_COEC<0.125301] yes=121,no=122,missing=122
						121:leaf=0.0146229
						122:leaf=0.0164256
				30:[C_D_U_TITLEMD5_CATEGORY_MICRO_MEAN_COEC<0.180448] yes=61,no=62,missing=62
					61:[C_D_U_CATEGORY_UID_MICRO_MEAN_COEC<0.237949] yes=123,no=124,missing=123
						123:leaf=0.0156308
						124:leaf=0.0169356
					62:[C_D_U_TITLEMD5_CATEGORY_MICRO_MEAN_COEC<0.232502] yes=125,no=126,missing=126
						125:leaf=0.0172209
						126:leaf=0.0179516
booster[3]:
0:[C_D_U_GROUPID_CATEGORY_MICRO_MEAN_COEC<0.086768] yes=1,no=2,missing=1
	1:[C_D_U_CATEGORY_UID_MACRO_MEAN_COEC<0.103286] yes=3,no=4,missing=3
		3:[D_KEYWORD_MACRO_MEAN_COEC<0.099937] yes=7,no=8,missing=8
			7:[C_D_U_GROUPID_CATEGORY_MICRO_MEAN_COEC<0.048858] yes=15,no=16,missing=15
				15:[D_GROUPID_COEC<0.096021] yes=31,no=32,missing=31
					31:[C_D_U_KEYWORD_UID_MICRO_MEAN_COEC<0.060446] yes=63,no=64,missing=63
						63:leaf=-0.00460799
						64:leaf=0.00137373
					32:[D_TITLEMD5_C<397.822] yes=65,no=66,missing=65
						65:leaf=0.00191989
						66:leaf=0.00619043
				16:[C_D_U_KEYWORD_UID_MICRO_MEAN_COEC<0.075273] yes=33,no=34,missing=33
					33:[CAT_REL<0.001044] yes=67,no=68,missing=68
						67:leaf=0.000588193
						68:leaf=0.00439363
					34:[CAT_REL<0.001044] yes=69,no=70,missing=70
						69:leaf=0.00571209
						70:leaf=0.00899573
			8:[D_TITLEMD5_COEC<0.197854] yes=17,no=18,missing=17
				17:[D_GROUPID_COEC<0.145519] yes=35,no=36,missing=36
					35:[D_KEYWORD_MAX_C<15.9462] yes=71,no=72,missing=72
						71:leaf=0.0133135
						72:leaf=0.00513517
					36:[D_CATEGORY_MAX_C<15746.9] yes=73,no=74,missing=73
						73:leaf=0.0114335
						74:leaf=0.00921285
				18:[C_D_U_KEYWORD_CATEGORY_MICRO_MEAN_COEC<0.113925] yes=37,no=38,missing=38
					37:[D_TITLEMD5_C<2.72258] yes=75,no=76,missing=76
						75:leaf=0.00234785
						76:leaf=0.0102293
					38:[D_GROUPID_COEC<0.246359] yes=77,no=78,missing=77
						77:leaf=0.0140855
						78:leaf=0.0160299
		4:[C_D_U_KEYWORD_UID_MACRO_MEAN_COEC<0.080982] yes=9,no=10,missing=9
			9:[D_TITLEMD5_COEC<0.029122] yes=19,no=20,missing=19
				19:[U_CATEGORY_MICRO_MEAN_COEC<0.082991] yes=39,no=40,missing=39
					39:[D_KEYWORD_MICRO_MEAN_COEC<0.164876] yes=79,no=80,missing=80
						79:leaf=-0.00064126
						80:leaf=0.014309
					40:[C_D_U_PUBLISHER_UID_COEC<0.143061] yes=81,no=82,missing=81
						81:leaf=0.00341452
						82:leaf=0.00720409
				20:[D_TITLEMD5_C<99.0442] yes=41,no=42,missing=42
					41:[C_D_U_KEYWORD_UID_MICRO_MEAN_COEC<0.075273] yes=83,no=84,missing=83
						83:leaf=0.00592433
						84:leaf=0.00913143
					42:[D_TITLEMD5_COEC<0.16503] yes=85,no=86,missing=86
						85:leaf=0.0105321
						86:leaf=0.0154741
			10:[C_D_U_KEYWORD_UID_MICRO_MEAN_COEC<0.205212] yes=21,no=22,missing=22
				21:[D_TITLEMD5_COEC<0.059372] yes=43,no=44,missing=44
					43:[C_D_U_GROUPID_CATEGORY_MICRO_MEAN_COEC<0.045589] yes=87,no=88,missing=87
						87:leaf=0.00781899
						88:leaf=0.0104241
					44:[C_D_U_KEYWORD_UID_MICRO_MEAN_COEC<0.083289] yes=89,no=90,missing=90
						89:leaf=0.00942135
						90:leaf=0.011915
				22:[C_D_U_CATEGORY_UID_MEAN_C<1.21571] yes=45,no=46,missing=46
					45:[D_TITLEMD5_COEC<0.044508] yes=91,no=92,missing=91
						91:leaf=0.00903282
						92:leaf=0.012509
					46:[C_D_U_CATEGORY_UID_MACRO_MEAN_COEC<0.335097] yes=93,no=94,missing=94
						93:leaf=0.0127688
						94:leaf=0.0149371
	2:[C_D_U_TITLEMD5_CATEGORY_MICRO_MEAN_COEC<0.135658] yes=5,no=6,missing=5
		5:[C_D_U_KEYWORD_UID_MICRO_MEAN_COEC<0.097416] yes=11,no=12,missing=11
			11:[D_TITLEMD5_C<48.8058] yes=23,no=24,missing=23
				23:[C_D_U_CATEGORY_UID_MACRO_MEAN_COEC<0.08176] yes=47,no=48,missing=47
					47:[CAT_REL<0.001044] yes=95,no=96,missing=96
						95:leaf=0.00115251
						96:leaf=0.00600474
					48:[C_D_U_CATEGORY_UID_MACRO_MEAN_COEC<0.157695] yes=97,no=98,missing=98
						97:leaf=0.00807839
						98:leaf=0.0106143
				24:[CAT_REL<0.001044] yes=49,no=50,missing=50
					49:[C_D_U_TITLEMD5_CATEGORY_MICRO_MEAN_COEC<0.108455] yes=99,no=100,missing=99
						99:leaf=0.00639684
						100:leaf=0.00935981
					50:[C_D_U_CATEGORY_UID_MACRO_MEAN_COEC<0.144725] yes=101,no=102,missing=101
						101:leaf=0.010969
						102:leaf=0.0135526
			12:[C_D_U_CATEGORY_UID_MACRO_MEAN_COEC<0.171934] yes=25,no=26,missing=25
				25:[KW_REL<0.001482] yes=51,no=52,missing=52
					51:[D_TITLEMD5_C<48.8058] yes=103,no=104,missing=103
						103:leaf=0.00854879
						104:leaf=0.0117991
					52:[C_D_U_KEYWORD_UID_MICRO_MEAN_COEC<0.192596] yes=105,no=106,missing=106
						105:leaf=0.0122307
						106:leaf=0.0139097
				26:[C_D_U_KEYWORD_UID_MICRO_MEAN_COEC<0.244657] yes=53,no=54,missing=54
					53:[D_TITLEMD5_C<26.3867] yes=107,no=108,missing=107
						107:leaf=0.0129558
						108:leaf=0.0145518
					54:[M_D_U_KEYWORD_KEYWORD_MICRO_MAX_COEC<0.07998] yes=109,no=110,missing=109
						109:leaf=0.0145317
						110:leaf=0.0157527
		6:[C_D_U_KEYWORD_UID_MICRO_MEAN_COEC<0.102702] yes=13,no=14,missing=13
			13:[D_TITLEMD5_C<48.8058] yes=27,no=28,missing=28
				27:[D_GROUPID_C<2.995] yes=55,no=56,missing=56
					55:[C_D_U_KEYWORD_CATEGORY_MICRO_MEAN_COEC<0.089686] yes=111,no=112,missing=112
						111:leaf=0.00185175
						112:leaf=0.00780468
					56:[CAT_REL<0.001044] yes=113,no=114,missing=114
						113:leaf=0.00778105
						114:leaf=0.0119858
				28:[C_D_U_TITLEMD5_CATEGORY_MICRO_MEAN_COEC<0.183043] yes=57,no=58,missing=58
					57:[CAT_REL<0.001044] yes=115,no=116,missing=116
						115:leaf=0.0124418
						116:leaf=0.0142859
					58:[C_D_U_TITLEMD5_CATEGORY_MICRO_MEAN_COEC<0.233893] yes=117,no=118,missing=118
						117:leaf=0.015412
						118:leaf=0.0168674
			14:[C_D_U_TITLEMD5_CATEGORY_MEAN_C<0.131067] yes=29,no=30,missing=30
				29:[C_D_U_CATEGORY_UID_MACRO_MEAN_COEC<0.136154] yes=59,no=60,missing=59
					59:[D_TITLEMD5_COEC<0.097288] yes=119,no=120,missing=120
						119:leaf=0.00960094
						120:leaf=0.013542
					60:[C_D_U_KEYWORD_UID_MACRO_MEAN_COEC<0.13652] yes=121,no=122,missing=122
						121:leaf=0.01434
						122:leaf=0.0162364
				30:[C_D_U_TITLEMD5_CATEGORY_MICRO_MEAN_COEC<0.175775] yes=61,no=62,missing=62
					61:[C_D_U_CATEGORY_UID_MICRO_MEAN_COEC<0.202741] yes=123,no=124,missing=123
						123:leaf=0.0151453
						124:leaf=0.0165759
					62:[C_D_U_CATEGORY_UID_MICRO_MAX_COEC<0.251771] yes=125,no=126,missing=125
						125:leaf=0.0168825
						126:leaf=0.0176576
booster[4]:
0:[C_D_U_GROUPID_CATEGORY_MICRO_MEAN_COEC<0.086555] yes=1,no=2,missing=1
	1:[C_D_U_CATEGORY_UID_MACRO_MEAN_COEC<0.101262] yes=3,no=4,missing=3
		3:[D_KEYWORD_MACRO_MEAN_COEC<0.099697] yes=7,no=8,missing=8
			7:[C_D_U_GROUPID_CATEGORY_MICRO_MEAN_COEC<0.044432] yes=15,no=16,missing=15
				15:[D_GROUPID_COEC<0.088293] yes=31,no=32,missing=31
					31:[C_D_U_KEYWORD_UID_MACRO_MEAN_COEC<0.024709] yes=63,no=64,missing=63
						63:leaf=-0.00507613
						64:leaf=0.000849584
					32:[D_TITLEMD5_C<491.79] yes=65,no=66,missing=65
						65:leaf=0.00150917
						66:leaf=0.00639638
				16:[C_D_U_KEYWORD_UID_MICRO_MEAN_COEC<0.074932] yes=33,no=34,missing=33
					33:[CAT_REL<0.000846] yes=67,no=68,missing=68
						67:leaf=0.000295313
						68:leaf=0.00409929
					34:[CAT_REL<0.000846] yes=69,no=70,missing=70
						69:leaf=0.00538131
						70:leaf=0.00869314
			8:[D_TITLEMD5_COEC<0.198764] yes=17,no=18,missing=17
				17:[D_GROUPID_COEC<0.141363] yes=35,no=36,missing=36
					35:[D_KEYWORD_MAX_C<16.5578] yes=71,no=72,missing=72
						71:leaf=0.0131057
						72:leaf=0.00475996
					36:[D_CATEGORY_MEAN_C<18582.3] yes=73,no=74,missing=73
						73:leaf=0.0111752
						74:leaf=0.00888687
				18:[C_D_U_KEYWORD_CATEGORY_MICRO_MEAN_COEC<0.113898] yes=37,no=38,missing=38
					37:[D_TITLEMD5_C<1.44356] yes=75,no=76,missing=76
						75:leaf=0.00178075
						76:leaf=0.00955256
					38:[D_TITLEMD5_COEC<0.237044] yes=77,no=78,missing=78
						77:leaf=0.0136196
						78:leaf=0.0156824
		4:[C_D_U_KEYWORD_UID_MACRO_MEAN_COEC<0.083771] yes=9,no=10,missing=9
			9:[D_TITLEMD5_COEC<0.028263] yes=19,no=20,missing=19
				19:[U_CATEGORY_MICRO_MEAN_COEC<0.083111] yes=39,no=40,missing=39
					39:[IMAGE_COUNT<0.999999] yes=79,no=80,missing=80
						79:leaf=-0.00570801
						80:leaf=0.000684136
					40:[C_D_U_KEYWORD_UID_MACRO_MEAN_COEC<0.046186] yes=81,no=82,missing=81
						81:leaf=0.00290713
						82:leaf=0.00632766
				20:[D_TITLEMD5_C<97.4397] yes=41,no=42,missing=42
					41:[C_D_U_KEYWORD_UID_MICRO_MEAN_COEC<0.089175] yes=83,no=84,missing=83
						83:leaf=0.00600829
						84:leaf=0.00921061
					42:[D_TITLEMD5_COEC<0.160489] yes=85,no=86,missing=86
						85:leaf=0.0103772
						86:leaf=0.0151989
			10:[C_D_U_CATEGORY_UID_MACRO_MEAN_COEC<0.250183] yes=21,no=22,missing=22
				21:[D_TITLEMD5_COEC<0.062255] yes=43,no=44,missing=44
					43:[M_D_U_KEYWORD_KEYWORD_MICRO_MAX_COEC<0.079156] yes=87,no=88,missing=87
						87:leaf=0.00713604
						88:leaf=0.0102247
					44:[C_D_U_KEYWORD_UID_MICRO_MEAN_COEC<0.172752] yes=89,no=90,missing=90
						89:leaf=0.0106071
						90:leaf=0.0125756
				22:[C_D_U_CATEGORY_UID_MEAN_C<1.18489] yes=45,no=46,missing=46
					45:[C_D_U_GROUPID_CATEGORY_MICRO_MEAN_COEC<0.044432] yes=91,no=92,missing=92
						91:leaf=0.00893981
						92:leaf=0.0124349
					46:[C_D_U_KEYWORD_UID_MACRO_MEAN_COEC<0.188753] yes=93,no=94,missing=94
						93:leaf=0.0129509
						94:leaf=0.014831
	2:[C_D_U_TITLEMD5_CATEGORY_MICRO_MEAN_COEC<0.137128] yes=5,no=6,missing=5
		5:[C_D_U_KEYWORD_UID_MICRO_MEAN_COEC<0.094749] yes=11,no=12,missing=11
			11:[D_TITLEMD5_C<41.7821] yes=23,no=24,missing=23
				23:[CAT_REL<0.000846] yes=47,no=48,missing=48
					47:[D_TITLEMD5_COEC<0.080576] yes=95,no=96,missing=96
						95:leaf=-0.000534199
						96:leaf=0.00395187
					48:[C_D_U_CATEGORY_UID_MACRO_MEAN_COEC<0.076093] yes=97,no=98,missing=98
						97:leaf=0.00501563
						98:leaf=0.00880629
				24:[CAT_REL<0.000846] yes=49,no=50,missing=50
					49:[C_D_U_TITLEMD5_CATEGORY_MICRO_MEAN_COEC<0.109457] yes=99,no=100,missing=100
						99:leaf=0.00628292
						100:leaf=0.00928248
					50:[C_D_U_CATEGORY_UID_MACRO_MEAN_COEC<0.147311] yes=101,no=102,missing=101
						101:leaf=0.0108324
						102:leaf=0.0134511
			12:[C_D_U_CATEGORY_UID_MICRO_MEAN_COEC<0.182987] yes=25,no=26,missing=25
				25:[C_D_U_KEYWORD_UID_MACRO_MEAN_COEC<0.089718] yes=51,no=52,missing=52
					51:[D_TITLEMD5_C<51.8404] yes=103,no=104,missing=103
						103:leaf=0.00940665
						104:leaf=0.0121045
					52:[C_D_U_TITLEMD5_CATEGORY_MICRO_MEAN_COEC<0.106887] yes=105,no=106,missing=105
						105:leaf=0.0122661
						106:leaf=0.0139244
				26:[C_D_U_KEYWORD_UID_MACRO_MEAN_COEC<0.125813] yes=53,no=54,missing=54
					53:[D_TITLEMD5_C<31.0888] yes=107,no=108,missing=107
						107:leaf=0.0128988
						108:leaf=0.0145036
					54:[C_D_U_CATEGORY_UID_MICRO_MEAN_COEC<0.333783] yes=109,no=110,missing=110
						109:leaf=0.0147812
						110:leaf=0.0158922
		6:[C_D_U_KEYWORD_UID_MICRO_MEAN_COEC<0.119984] yes=13,no=14,missing=13
			13:[D_TITLEMD5_C<35.5685] yes=27,no=28,missing=28
				27:[C_D_U_KEYWORD_CATEGORY_MICRO_MEAN_COEC<0.087524] yes=55,no=56,missing=56
					55:[C_D_U_CATEGORY_UID_MACRO_MAX_COEC<0.050677] yes=111,no=112,missing=111
						111:leaf=0.00472135
						112:leaf=0.0105858
					56:[D_TITLEMD5_COEC<0.128333] yes=113,no=114,missing=114
						113:leaf=0.00953789
						114:leaf=0.0133234
				28:[C_D_U_TITLEMD5_CATEGORY_MICRO_MEAN_COEC<0.183906] yes=57,no=58,missing=58
					57:[KW_REL<0.000907] yes=115,no=116,missing=116
						115:leaf=0.0120222
						116:leaf=0.0139895
					58:[C_D_U_TITLEMD5_CATEGORY_MICRO_MEAN_COEC<0.23251] yes=117,no=118,missing=118
						117:leaf=0.015281
						118:leaf=0.0166911
			14:[C_D_U_TITLEMD5_CATEGORY_MEAN_C<0.113847] yes=29,no=30,missing=30
				29:[C_D_U_CATEGORY_UID_MACRO_MEAN_COEC<0.1292] yes=59,no=60,missing=59
					59:[C_D_U_KEYWORD_CATEGORY_MICRO_MEAN_COEC<0.090714] yes=119,no=120,missing=120
						119:leaf=0.00941082
						120:leaf=0.0134244
					60:[C_D_U_KEYWORD_UID_MACRO_MEAN_COEC<0.134171] yes=121,no=122,missing=122
						121:leaf=0.0141855
						122:leaf=0.0160324
				30:[C_D_U_TITLEMD5_CATEGORY_MICRO_MEAN_COEC<0.183906] yes=61,no=62,missing=62
					61:[C_D_U_CATEGORY_UID_MICRO_MEAN_COEC<0.232418] yes=123,no=124,missing=123
						123:leaf=0.0153128
						124:leaf=0.0166082
					62:[C_D_U_CATEGORY_UID_MICRO_MAX_COEC<0.251313] yes=125,no=126,missing=125
						125:leaf=0.0168721
						126:leaf=0.0175586
booster[5]:
0:[C_D_U_GROUPID_CATEGORY_MICRO_MEAN_COEC<0.086325] yes=1,no=2,missing=1
	1:[C_D_U_CATEGORY_UID_MACRO_MEAN_COEC<0.100299] yes=3,no=4,missing=3
		3:[D_KEYWORD_MACRO_MEAN_COEC<0.100215] yes=7,no=8,missing=8
			7:[C_D_U_GROUPID_CATEGORY_MICRO_MEAN_COEC<0.049456] yes=15,no=16,missing=15
				15:[D_TITLEMD5_COEC<0.094274] yes=31,no=32,missing=31
					31:[C_D_U_KEYWORD_UID_MICRO_MEAN_COEC<0.053663] yes=63,no=64,missing=63
						63:leaf=-0.00468822
						64:leaf=0.00103371
					32:[D_KEYWORD_MACRO_MEAN_COEC<0.072969] yes=65,no=66,missing=66
						65:leaf=-0.000962835
						66:leaf=0.00436006
				16:[C_D_U_KEYWORD_UID_MICRO_MEAN_COEC<0.074964] yes=33,no=34,missing=33
					33:[CAT_REL<0.000784] yes=67,no=68,missing=68
						67:leaf=0.000540316
						68:leaf=0.00426947
					34:[CAT_REL<0.000784] yes=69,no=70,missing=70
						69:leaf=0.00554366
						70:leaf=0.0087695
			8:[D_TITLEMD5_COEC<0.190679] yes=17,no=18,missing=17
				17:[D_GROUPID_COEC<0.137195] yes=35,no=36,missing=36
					35:[D_KEYWORD_MAX_C<12.9889] yes=71,no=72,missing=72
						71:leaf=0.0129817
						72:leaf=0.0041631
					36:[D_CATEGORY_MEAN_C<21151.8] yes=73,no=74,missing=73
						73:leaf=0.0108694
						74:leaf=0.00821465
				18:[D_GROUPID_COEC<0.234567] yes=37,no=38,missing=38
					37:[D_KEYWORD_MICRO_MAX_COEC<0.204464] yes=75,no=76,missing=76
						75:leaf=0.0115602
						76:leaf=0.0136608
					38:[D_KEYWORD_MICRO_MEAN_COEC<0.092337] yes=77,no=78,missing=78
						77:leaf=0.00439385
						78:leaf=0.0155054
		4:[C_D_U_KEYWORD_UID_MICRO_MEAN_COEC<0.142822] yes=9,no=10,missing=9
			9:[D_TITLEMD5_COEC<0.028863] yes=19,no=20,missing=19
				19:[KW_REL<0.001161] yes=39,no=40,missing=40
					39:[U_CATEGORY_MICRO_MEAN_COEC<0.083198] yes=79,no=80,missing=79
						79:leaf=-0.00283922
						80:leaf=0.00179078
					40:[C_D_U_KEYWORD_UID_MACRO_MEAN_COEC<0.058214] yes=81,no=82,missing=82
						81:leaf=0.00306841
						82:leaf=0.00692051
				20:[D_TITLEMD5_C<55.9595] yes=41,no=42,missing=42
					41:[C_D_U_GROUPID_CATEGORY_MICRO_MEAN_COEC<0.044443] yes=83,no=84,missing=83
						83:leaf=0.00489832
						84:leaf=0.00803833
					42:[D_TITLEMD5_COEC<0.151109] yes=85,no=86,missing=86
						85:leaf=0.00941861
						86:leaf=0.0143755
			10:[C_D_U_KEYWORD_UID_MACRO_MEAN_COEC<0.114326] yes=21,no=22,missing=22
				21:[D_TITLEMD5_COEC<0.028863] yes=43,no=44,missing=44
					43:[U_CATEGORY_MICRO_MEAN_COEC<0.083753] yes=87,no=88,missing=87
						87:leaf=0.00271614
						88:leaf=0.00709594
					44:[D_TITLEMD5_COEC<0.094274] yes=89,no=90,missing=89
						89:leaf=0.0101267
						90:leaf=0.0128978
				22:[C_D_U_CATEGORY_UID_MACRO_MEAN_COEC<0.266234] yes=45,no=46,missing=46
					45:[D_TITLEMD5_COEC<0.066386] yes=91,no=92,missing=92
						91:leaf=0.0107143
						92:leaf=0.0127159
					46:[C_D_U_CATEGORY_UID_MEAN_C<1.19789] yes=93,no=94,missing=94
						93:leaf=0.0119655
						94:leaf=0.0143612
	2:[C_D_U_TITLEMD5_CATEGORY_MICRO_MEAN_COEC<0.136797] yes=5,no=6,missing=5
		5:[C_D_U_KEYWORD_UID_MICRO_MEAN_COEC<0.093011] yes=11,no=12,missing=11
			11:[D_TITLEMD5_C<49.2973] yes=23,no=24,missing=23
				23:[CAT_REL<0.000784] yes=47,no=48,missing=48
					47:[D_TITLEMD5_COEC<0.08019] yes=95,no=96,missing=95
						95:leaf=-0.00034469
						96:leaf=0.00410923
					48:[C_D_U_CATEGORY_UID_MACRO_MEAN_COEC<0.0794] yes=97,no=98,missing=98
						97:leaf=0.00516834
						98:leaf=0.00886208
				24:[CAT_REL<0.000784] yes=49,no=50,missing=50
					49:[C_D_U_TITLEMD5_CATEGORY_MICRO_MEAN_COEC<0.109008] yes=99,no=100,missing=99
						99:leaf=0.00625464
						100:leaf=0.00921847
					50:[C_D_U_CATEGORY_UID_MACRO_MEAN_COEC<0.158949] yes=101,no=102,missing=101
						101:leaf=0.0107941
						102:leaf=0.0134219
			12:[C_D_U_CATEGORY_UID_MACRO_MEAN_COEC<0.170293] yes=25,no=26,missing=25
				25:[C_D_U_KEYWORD_UID_MACRO_MEAN_COEC<0.089214] yes=51,no=52,missing=52
					51:[D_TITLEMD5_C<55.9595] yes=103,no=104,missing=103
						103:leaf=0.00917203
						104:leaf=0.0119527
					52:[C_D_U_TITLEMD5_CATEGORY_MICRO_MEAN_COEC<0.107051] yes=105,no=106,missing=105
						105:leaf=0.012114
						106:leaf=0.0137666
				26:[C_D_U_KEYWORD_UID_MICRO_MEAN_COEC<0.223526] yes=53,no=54,missing=54
					53:[C_D_U_TITLEMD5_CATEGORY_MICRO_MEAN_COEC<0.107051] yes=107,no=108,missing=107
						107:leaf=0.0129504
						108:leaf=0.0143443
					54:[M_D_U_KEYWORD_KEYWORD_MICRO_MAX_COEC<0.079036] yes=109,no=110,missing=109
						109:leaf=0.0142147
						110:leaf=0.0154254
		6:[C_D_U_KEYWORD_UID_MICRO_MEAN_COEC<0.105084] yes=13,no=14,missing=13
			13:[D_TITLEMD5_C<49.2973] yes=27,no=28,missing=28
				27:[C_D_U_KEYWORD_CATEGORY_MICRO_MEAN_COEC<0.080226] yes=55,no=56,missing=56
					55:[D_GROUPID_C<2.995] yes=111,no=112,missing=112
						111:leaf=0.000808162
						112:leaf=0.00735715
					56:[D_TITLEMD5_COEC<0.144561] yes=113,no=114,missing=114
						113:leaf=0.00964992
						114:leaf=0.0132023
				28:[C_D_U_TITLEMD5_CATEGORY_MICRO_MEAN_COEC<0.184407] yes=57,no=58,missing=58
					57:[CAT_REL<0.000784] yes=115,no=116,missing=116
						115:leaf=0.0122746
						116:leaf=0.0140711
					58:[C_D_U_TITLEMD5_CATEGORY_MICRO_MEAN_COEC<0.233344] yes=117,no=118,missing=118
						117:leaf=0.0151499
						118:leaf=0.0165426
			14:[C_D_U_TITLEMD5_CATEGORY_MEAN_C<0.137906] yes=29,no=30,missing=30
				29:[C_D_U_CATEGORY_UID_MACRO_MEAN_COEC<0.152551] yes=59,no=60,missing=59
					59:[D_TITLEMD5_COEC<0.100247] yes=119,no=120,missing=120
						119:leaf=0.009936
						120:leaf=0.0135162
					60:[C_D_U_KEYWORD_UID_MACRO_MEAN_COEC<0.133722] yes=121,no=122,missing=122
						121:leaf=0.014206
						122:leaf=0.0160058
				30:[C_D_U_TITLEMD5_CATEGORY_MICRO_MEAN_COEC<0.180331] yes=61,no=62,missing=62
					61:[C_D_U_CATEGORY_UID_MICRO_MEAN_COEC<0.207306] yes=123,no=124,missing=123
						123:leaf=0.0149806
						124:leaf=0.0163336
					62:[C_D_U_TITLEMD5_CATEGORY_MICRO_MEAN_COEC<0.233344] yes=125,no=126,missing=126
						125:leaf=0.0166982
						126:leaf=0.0174466
booster[6]:
0:[C_D_U_GROUPID_CATEGORY_MICRO_MEAN_COEC<0.087258] yes=1,no=2,missing=1
	1:[C_D_U_CATEGORY_UID_MACRO_MEAN_COEC<0.101711] yes=3,no=4,missing=3
		3:[D_KEYWORD_MACRO_MEAN_COEC<0.100233] yes=7,no=8,missing=8
			7:[C_D_U_GROUPID_CATEGORY_MICRO_MEAN_COEC<0.049542] yes=15,no=16,missing=15
				15:[D_GROUPID_COEC<0.095502] yes=31,no=32,missing=31
					31:[C_D_U_KEYWORD_UID_MICRO_MEAN_COEC<0.050116] yes=63,no=64,missing=63
						63:leaf=-0.00456474
						64:leaf=0.00104316
					32:[D_KEYWORD_MACRO_MEAN_COEC<0.072979] yes=65,no=66,missing=66
						65:leaf=-0.00088302
						66:leaf=0.00449945
				16:[C_D_U_KEYWORD_UID_MICRO_MEAN_COEC<0.083395] yes=33,no=34,missing=33
					33:[CAT_REL<0.000986] yes=67,no=68,missing=68
						67:leaf=0.000693748
						68:leaf=0.00444015
					34:[CAT_REL<0.000986] yes=69,no=70,missing=70
						69:leaf=0.0057882
						70:leaf=0.00897407
			8:[D_TITLEMD5_COEC<0.195957] yes=17,no=18,missing=17
				17:[D_GROUPID_COEC<0.14967] yes=35,no=36,missing=36
					35:[D_CATEGORY_MAX_C<25325.9] yes=71,no=72,missing=71
						71:leaf=0.00819333
						72:leaf=0.0030205
					36:[D_CATEGORY_MAX_C<17504.4] yes=73,no=74,missing=73
						73:leaf=0.0111251
						74:leaf=0.00900184
				18:[C_D_U_KEYWORD_CATEGORY_MICRO_MEAN_COEC<0.121673] yes=37,no=38,missing=38
					37:[D_TITLEMD5_C<1.56515] yes=75,no=76,missing=76
						75:leaf=0.00171631
						76:leaf=0.00933358
					38:[D_TITLEMD5_COEC<0.238493] yes=77,no=78,missing=78
						77:leaf=0.0133031
						78:leaf=0.0154117
		4:[C_D_U_KEYWORD_UID_MACRO_MEAN_COEC<0.082455] yes=9,no=10,missing=9
			9:[D_TITLEMD5_COEC<0.029209] yes=19,no=20,missing=19
				19:[U_CATEGORY_MICRO_MEAN_COEC<0.080899] yes=39,no=40,missing=39
					39:[D_KEYWORD_MICRO_MEAN_COEC<0.154393] yes=79,no=80,missing=80
						79:leaf=-0.00105372
						80:leaf=0.0136384
					40:[C_D_U_KEYWORD_UID_MACRO_MEAN_COEC<0.043404] yes=81,no=82,missing=81
						81:leaf=0.00256644
						82:leaf=0.00599189
				20:[D_TITLEMD5_C<55.4165] yes=41,no=42,missing=42
					41:[C_D_U_KEYWORD_UID_MICRO_MEAN_COEC<0.075395] yes=83,no=84,missing=83
						83:leaf=0.00529678
						84:leaf=0.00858624
					42:[D_TITLEMD5_COEC<0.160331] yes=85,no=86,missing=86
						85:leaf=0.00983733
						86:leaf=0.0148906
			10:[C_D_U_KEYWORD_UID_MICRO_MEAN_COEC<0.230814] yes=21,no=22,missing=22
				21:[D_TITLEMD5_COEC<0.055936] yes=43,no=44,missing=44
					43:[C_D_U_GROUPID_CATEGORY_MICRO_MEAN_COEC<0.045366] yes=87,no=88,missing=87
						87:leaf=0.00768301
						88:leaf=0.0102636
					44:[C_D_U_CATEGORY_UID_MACRO_MEAN_COEC<0.221117] yes=89,no=90,missing=90
						89:leaf=0.0106645
						90:leaf=0.0123582
				22:[C_D_U_CATEGORY_UID_MEAN_C<1.5952] yes=45,no=46,missing=46
					45:[C_D_U_GROUPID_CATEGORY_MICRO_MEAN_COEC<0.045366] yes=91,no=92,missing=92
						91:leaf=0.00922194
						92:leaf=0.0123884
					46:[C_D_U_CATEGORY_UID_MACRO_MEAN_COEC<0.375271] yes=93,no=94,missing=94
						93:leaf=0.012896
						94:leaf=0.0149258
	2:[C_D_U_TITLEMD5_CATEGORY_MICRO_MEAN_COEC<0.14175] yes=5,no=6,missing=5
		5:[C_D_U_KEYWORD_UID_MICRO_MEAN_COEC<0.093026] yes=11,no=12,missing=11
			11:[D_TITLEMD5_C<62.4283] yes=23,no=24,missing=23
				23:[CAT_REL<0.000986] yes=47,no=48,missing=48
					47:[C_D_U_CATEGORY_UID_MACRO_MEAN_COEC<0.101711] yes=95,no=96,missing=95
						95:leaf=0.00168174
						96:leaf=0.00769304
					48:[C_D_U_CATEGORY_UID_MACRO_MEAN_COEC<0.107232] yes=97,no=98,missing=97
						97:leaf=0.00644731
						98:leaf=0.0103227
				24:[CAT_REL<0.000986] yes=49,no=50,missing=50
					49:[C_D_U_TITLEMD5_CATEGORY_MICRO_MEAN_COEC<0.112495] yes=99,no=100,missing=100
						99:leaf=0.00662598
						100:leaf=0.00962488
					50:[C_D_U_TITLEMD5_CATEGORY_MICRO_MEAN_COEC<0.114071] yes=101,no=102,missing=102
						101:leaf=0.0103123
						102:leaf=0.0123956
			12:[C_D_U_CATEGORY_UID_MICRO_MEAN_COEC<0.202827] yes=25,no=26,missing=25
				25:[C_D_U_TITLEMD5_CATEGORY_MICRO_MEAN_COEC<0.112495] yes=51,no=52,missing=51
					51:[CAT_REL<0.000986] yes=103,no=104,missing=104
						103:leaf=0.00982041
						104:leaf=0.0121197
					52:[D_TITLEMD5_C<30.9725] yes=105,no=106,missing=106
						105:leaf=0.0112566
						106:leaf=0.0135378
				26:[C_D_U_KEYWORD_UID_MACRO_MEAN_COEC<0.099147] yes=53,no=54,missing=54
					53:[D_TITLEMD5_C<30.9725] yes=107,no=108,missing=107
						107:leaf=0.0125219
						108:leaf=0.014236
					54:[C_D_U_TITLEMD5_CATEGORY_MICRO_MEAN_COEC<0.10816] yes=109,no=110,missing=109
						109:leaf=0.0144755
						110:leaf=0.0155528
		6:[C_D_U_KEYWORD_UID_MICRO_MEAN_COEC<0.10055] yes=13,no=14,missing=13
			13:[D_TITLEMD5_C<30.9725] yes=27,no=28,missing=28
				27:[C_D_U_KEYWORD_CATEGORY_MICRO_MEAN_COEC<0.080125] yes=55,no=56,missing=56
					55:[D_GROUPID_C<2.995] yes=111,no=112,missing=112
						111:leaf=0.000688579
						112:leaf=0.0068459
					56:[D_TITLEMD5_COEC<0.126769] yes=113,no=114,missing=114
						113:leaf=0.0083682
						114:leaf=0.0124561
				28:[C_D_U_GROUPID_CATEGORY_MICRO_MEAN_COEC<0.186575] yes=57,no=58,missing=58
					57:[KW_REL<0.000926] yes=115,no=116,missing=116
						115:leaf=0.0120001
						116:leaf=0.0138591
					58:[C_D_U_TITLEMD5_CATEGORY_MICRO_MEAN_COEC<0.242044] yes=117,no=118,missing=118
						117:leaf=0.0151066
						118:leaf=0.0164633
			14:[C_D_U_TITLEMD5_CATEGORY_MEAN_C<0.118486] yes=29,no=30,missing=30
				29:[C_D_U_CATEGORY_UID_MACRO_MEAN_COEC<0.137302] yes=59,no=60,missing=59
					59:[D_TITLEMD5_COEC<0.097342] yes=119,no=120,missing=120
						119:leaf=0.00903737
						120:leaf=0.0130127
					60:[C_D_U_KEYWORD_UID_MACRO_MEAN_COEC<0.12684] yes=121,no=122,missing=122
						121:leaf=0.0138343
						122:leaf=0.0157445
				30:[C_D_U_TITLEMD5_CATEGORY_MICRO_MEAN_COEC<0.187894] yes=61,no=62,missing=62
					61:[C_D_U_CATEGORY_UID_MICRO_MEAN_COEC<0.210194] yes=123,no=124,missing=123
						123:leaf=0.0150104
						124:leaf=0.0163018
					62:[C_D_U_CATEGORY_UID_MICRO_MEAN_COEC<0.202827] yes=125,no=126,missing=125
						125:leaf=0.0165099
						126:leaf=0.0172186
booster[7]:
0:[C_D_U_GROUPID_CATEGORY_MICRO_MEAN_COEC<0.084219] yes=1,no=2,missing=1
	1:[C_D_U_CATEGORY_UID_MACRO_MEAN_COEC<0.109436] yes=3,no=4,missing=3
		3:[D_KEYWORD_MACRO_MEAN_COEC<0.100716] yes=7,no=8,missing=8
			7:[D_TITLEMD5_COEC<0.035212] yes=15,no=16,missing=15
				15:[C_D_U_KEYWORD_UID_MACRO_MEAN_COEC<0.036301] yes=31,no=32,missing=31
					31:[C_D_U_GROUPID_CATEGORY_MICRO_MEAN_COEC<0.025223] yes=63,no=64,missing=63
						63:leaf=-0.00725187
						64:leaf=-0.00217487
					32:[CAT_REL<0.000923] yes=65,no=66,missing=66
						65:leaf=-0.00265466
						66:leaf=0.00298757
				16:[C_D_U_KEYWORD_UID_MICRO_MEAN_COEC<0.066525] yes=33,no=34,missing=33
					33:[D_TITLEMD5_C<85.4375] yes=67,no=68,missing=68
						67:leaf=-0.00147911
						68:leaf=0.00265271
					34:[C_D_U_KEYWORD_UID_MACRO_MEAN_COEC<0.066215] yes=69,no=70,missing=70
						69:leaf=0.00433688
						70:leaf=0.00788768
			8:[D_TITLEMD5_COEC<0.191318] yes=17,no=18,missing=17
				17:[D_GROUPID_COEC<0.145798] yes=35,no=36,missing=36
					35:[D_KEYWORD_MEAN_C<29.0975] yes=71,no=72,missing=72
						71:leaf=0.0129853
						72:leaf=0.00496232
					36:[D_CATEGORY_MAX_C<9371.76] yes=73,no=74,missing=73
						73:leaf=0.0111455
						74:leaf=0.00893404
				18:[D_GROUPID_COEC<0.236187] yes=37,no=38,missing=37
					37:[D_KEYWORD_MICRO_MAX_COEC<0.202727] yes=75,no=76,missing=75
						75:leaf=0.0112756
						76:leaf=0.0133744
					38:[D_TITLEMD5_C<1.17798] yes=77,no=78,missing=78
						77:leaf=0.00664443
						78:leaf=0.0152937
		4:[C_D_U_KEYWORD_UID_MACRO_MEAN_COEC<0.077692] yes=9,no=10,missing=9
			9:[D_TITLEMD5_COEC<0.029199] yes=19,no=20,missing=19
				19:[U_CATEGORY_MICRO_MEAN_COEC<0.081572] yes=39,no=40,missing=39
					39:[IMAGE_COUNT<0.999999] yes=79,no=80,missing=80
						79:leaf=-0.00576458
						80:leaf=0.000464107
					40:[CAT_REL<0.024648] yes=81,no=82,missing=82
						81:leaf=0.000874289
						82:leaf=0.00485628
				20:[D_TITLEMD5_C<117.548] yes=41,no=42,missing=42
					41:[C_D_U_KEYWORD_UID_MICRO_MEAN_COEC<0.070498] yes=83,no=84,missing=83
						83:leaf=0.00568667
						84:leaf=0.00868961
					42:[D_TITLEMD5_COEC<0.165661] yes=85,no=86,missing=86
						85:leaf=0.0101642
						86:leaf=0.014945
			10:[C_D_U_KEYWORD_UID_MICRO_MEAN_COEC<0.232666] yes=21,no=22,missing=22
				21:[D_TITLEMD5_COEC<0.062099] yes=43,no=44,missing=44
					43:[C_D_U_GROUPID_CATEGORY_MICRO_MEAN_COEC<0.049614] yes=87,no=88,missing=87
						87:leaf=0.00780946
						88:leaf=0.0104327
					44:[C_D_U_CATEGORY_UID_MACRO_MEAN_COEC<0.2263] yes=89,no=90,missing=90
						89:leaf=0.0105638
						90:leaf=0.012295
				22:[C_D_U_CATEGORY_UID_MEAN_C<1.2181] yes=45,no=46,missing=46
					45:[D_TITLEMD5_COEC<0.049038] yes=91,no=92,missing=91
						91:leaf=0.00892678
						92:leaf=0.0121044
					46:[C_D_U_CATEGORY_UID_MACRO_MEAN_COEC<0.340246] yes=93,no=94,missing=94
						93:leaf=0.012454
						94:leaf=0.0144256
	2:[C_D_U_TITLEMD5_CATEGORY_MICRO_MEAN_COEC<0.133325] yes=5,no=6,missing=5
		5:[C_D_U_KEYWORD_UID_MICRO_MEAN_COEC<0.089102] yes=11,no=12,missing=11
			11:[D_TITLEMD5_C<63.0629] yes=23,no=24,missing=23
				23:[CAT_REL<0.003234] yes=47,no=48,missing=48
					47:[C_D_U_CATEGORY_UID_MACRO_MEAN_COEC<0.102168] yes=95,no=96,missing=95
						95:leaf=0.00137143
						96:leaf=0.00718283
					48:[C_D_U_CATEGORY_UID_MACRO_MEAN_COEC<0.076762] yes=97,no=98,missing=98
						97:leaf=0.00525416
						98:leaf=0.00873628
				24:[CAT_REL<0.000923] yes=49,no=50,missing=50
					49:[C_D_U_TITLEMD5_CATEGORY_MICRO_MEAN_COEC<0.109364] yes=99,no=100,missing=100
						99:leaf=0.00614242
						100:leaf=0.0089979
					50:[C_D_U_TITLEMD5_CATEGORY_MICRO_MEAN_COEC<0.106674] yes=101,no=102,missing=102
						101:leaf=0.0097407
						102:leaf=0.0117414
			12:[C_D_U_CATEGORY_UID_MACRO_MEAN_COEC<0.166577] yes=25,no=26,missing=25
				25:[C_D_U_KEYWORD_UID_MACRO_MEAN_COEC<0.086105] yes=51,no=52,missing=52
					51:[D_TITLEMD5_C<46.1026] yes=103,no=104,missing=103
						103:leaf=0.00850076
						104:leaf=0.0113983
					52:[M_D_U_KEYWORD_KEYWORD_MICRO_MAX_COEC<0.096358] yes=105,no=106,missing=105
						105:leaf=0.0114875
						106:leaf=0.0131968
				26:[C_D_U_KEYWORD_UID_MICRO_MEAN_COEC<0.232666] yes=53,no=54,missing=54
					53:[D_TITLEMD5_C<21.6288] yes=107,no=108,missing=107
						107:leaf=0.0120964
						108:leaf=0.0137702
					54:[M_D_U_KEYWORD_KEYWORD_MICRO_MAX_COEC<0.078973] yes=109,no=110,missing=109
						109:leaf=0.0138579
						110:leaf=0.0150685
		6:[C_D_U_KEYWORD_UID_MICRO_MEAN_COEC<0.102722] yes=13,no=14,missing=13
			13:[D_TITLEMD5_C<50.3807] yes=27,no=28,missing=28
				27:[D_GROUPID_C<2.995] yes=55,no=56,missing=56
					55:[C_D_U_KEYWORD_CATEGORY_MICRO_MEAN_COEC<0.092093] yes=111,no=112,missing=112
						111:leaf=0.00189381
						112:leaf=0.00776128
					56:[CAT_REL<0.000923] yes=113,no=114,missing=114
						113:leaf=0.00735183
						114:leaf=0.0114895
				28:[C_D_U_TITLEMD5_CATEGORY_MICRO_MEAN_COEC<0.179103] yes=57,no=58,missing=58
					57:[CAT_REL<0.000923] yes=115,no=116,missing=116
						115:leaf=0.0117381
						116:leaf=0.0136395
					58:[C_D_U_TITLEMD5_CATEGORY_MICRO_MEAN_COEC<0.22533] yes=117,no=118,missing=118
						117:leaf=0.0146917
						118:leaf=0.0161294
			14:[C_D_U_TITLEMD5_CATEGORY_MEAN_C<0.157486] yes=29,no=30,missing=30
				29:[C_D_U_CATEGORY_UID_MACRO_MEAN_COEC<0.136746] yes=59,no=60,missing=59
					59:[C_D_U_KEYWORD_CATEGORY_MICRO_MEAN_COEC<0.090693] yes=119,no=120,missing=120
						119:leaf=0.00932405
						120:leaf=0.0130193
					60:[C_D_U_KEYWORD_UID_MACRO_MEAN_COEC<0.147361] yes=121,no=122,missing=122
						121:leaf=0.0140376
						122:leaf=0.0157813
				30:[C_D_U_TITLEMD5_CATEGORY_MICRO_MEAN_COEC<0.179103] yes=61,no=62,missing=62
					61:[C_D_U_CATEGORY_UID_MICRO_MEAN_COEC<0.203363] yes=123,no=124,missing=123
						123:leaf=0.0146127
						124:leaf=0.0159832
					62:[C_D_U_TITLEMD5_CATEGORY_MICRO_MEAN_COEC<0.233051] yes=125,no=126,missing=126
						125:leaf=0.0163791
						126:leaf=0.0171453
booster[8]:
0:[C_D_U_GROUPID_CATEGORY_MICRO_MEAN_COEC<0.086406] yes=1,no=2,missing=1
	1:[C_D_U_CATEGORY_UID_MACRO_MEAN_COEC<0.102009] yes=3,no=4,missing=3
		3:[D_KEYWORD_MACRO_MEAN_COEC<0.099959] yes=7,no=8,missing=8
			7:[C_D_U_GROUPID_CATEGORY_MICRO_MEAN_COEC<0.044443] yes=15,no=16,missing=15
				15:[D_GROUPID_COEC<0.089913] yes=31,no=32,missing=31
					31:[C_D_U_KEYWORD_UID_MACRO_MEAN_COEC<0.029185] yes=63,no=64,missing=63
						63:leaf=-0.00478842
						64:leaf=0.00115724
					32:[D_TITLEMD5_C<458.717] yes=65,no=66,missing=65
						65:leaf=0.00151144
						66:leaf=0.0061292
				16:[C_D_U_KEYWORD_UID_MICRO_MEAN_COEC<0.073973] yes=33,no=34,missing=33
					33:[CAT_REL<0.000966] yes=67,no=68,missing=68
						67:leaf=0.000261235
						68:leaf=0.00395379
					34:[CAT_REL<0.000966] yes=69,no=70,missing=70
						69:leaf=0.00506444
						70:leaf=0.00829635
			8:[D_TITLEMD5_COEC<0.194427] yes=17,no=18,missing=17
				17:[D_GROUPID_COEC<0.139861] yes=35,no=36,missing=36
					35:[D_KEYWORD_MAX_C<10.4566] yes=71,no=72,missing=72
						71:leaf=0.0128051
						72:leaf=0.00435239
					36:[D_CATEGORY_MEAN_C<20226.3] yes=73,no=74,missing=73
						73:leaf=0.0106542
						74:leaf=0.00833194
				18:[C_D_U_KEYWORD_CATEGORY_MEAN_C<0.137318] yes=37,no=38,missing=37
					37:[D_TITLEMD5_COEC<0.23838] yes=75,no=76,missing=76
						75:leaf=0.0130302
						76:leaf=0.0151513
					38:[D_TITLEMD5_C<1.37594] yes=77,no=78,missing=78
						77:leaf=0.00197924
						78:leaf=0.00919576
		4:[C_D_U_KEYWORD_UID_MICRO_MEAN_COEC<0.1309] yes=9,no=10,missing=9
			9:[D_TITLEMD5_COEC<0.028744] yes=19,no=20,missing=19
				19:[KW_REL<0.001097] yes=39,no=40,missing=40
					39:[U_CATEGORY_MICRO_MEAN_COEC<0.083564] yes=79,no=80,missing=79
						79:leaf=-0.00275963
						80:leaf=0.00155231
					40:[C_D_U_KEYWORD_UID_MACRO_MEAN_COEC<0.066422] yes=81,no=82,missing=82
						81:leaf=0.00296367
						82:leaf=0.00688964
				20:[D_TITLEMD5_C<57.1527] yes=41,no=42,missing=42
					41:[CAT_REL<0.000966] yes=83,no=84,missing=84
						83:leaf=0.00388715
						84:leaf=0.0073332
					42:[D_TITLEMD5_COEC<0.155013] yes=85,no=86,missing=86
						85:leaf=0.00906559
						86:leaf=0.0141109
			10:[C_D_U_KEYWORD_UID_MACRO_MEAN_COEC<0.132497] yes=21,no=22,missing=22
				21:[D_TITLEMD5_COEC<0.035591] yes=43,no=44,missing=43
					43:[U_CATEGORY_MICRO_MEAN_COEC<0.080499] yes=87,no=88,missing=87
						87:leaf=0.00304921
						88:leaf=0.00774116
					44:[C_D_U_GROUPID_CATEGORY_MICRO_MEAN_COEC<0.054515] yes=89,no=90,missing=90
						89:leaf=0.00915984
						90:leaf=0.0115584
				22:[C_D_U_CATEGORY_UID_MACRO_MEAN_COEC<0.270268] yes=45,no=46,missing=46
					45:[M_D_U_KEYWORD_KEYWORD_MICRO_MAX_COEC<0.109507] yes=91,no=92,missing=91
						91:leaf=0.0103754
						92:leaf=0.0123906
					46:[C_D_U_CATEGORY_UID_MEAN_C<1.2107] yes=93,no=94,missing=94
						93:leaf=0.0116975
						94:leaf=0.0140576
	2:[C_D_U_TITLEMD5_CATEGORY_MICRO_MEAN_COEC<0.140725] yes=5,no=6,missing=5
		5:[C_D_U_KEYWORD_UID_MICRO_MEAN_COEC<0.09394] yes=11,no=12,missing=11
			11:[D_TITLEMD5_C<37.8981] yes=23,no=24,missing=23
				23:[C_D_U_CATEGORY_UID_MACRO_MEAN_COEC<0.083627] yes=47,no=48,missing=47
					47:[KW_REL<0.001523] yes=95,no=96,missing=96
						95:leaf=0.00153933
						96:leaf=0.00590688
					48:[C_D_U_CATEGORY_UID_MACRO_MEAN_COEC<0.158559] yes=97,no=98,missing=98
						97:leaf=0.00737141
						98:leaf=0.00995144
				24:[CAT_REL<0.000966] yes=49,no=50,missing=50
					49:[D_TITLEMD5_C<268.546] yes=99,no=100,missing=100
						99:leaf=0.00611741
						100:leaf=0.00917047
					50:[C_D_U_TITLEMD5_CATEGORY_MICRO_MEAN_COEC<0.111341] yes=101,no=102,missing=102
						101:leaf=0.0097379
						102:leaf=0.0118662
			12:[C_D_U_CATEGORY_UID_MICRO_MEAN_COEC<0.202932] yes=25,no=26,missing=25
				25:[CAT_REL<0.000966] yes=51,no=52,missing=52
					51:[D_TITLEMD5_C<44.5073] yes=103,no=104,missing=104
						103:leaf=0.00753753
						104:leaf=0.0113549
					52:[D_TITLEMD5_C<31.5281] yes=105,no=106,missing=105
						105:leaf=0.0111191
						106:leaf=0.013344
				26:[C_D_U_KEYWORD_UID_MACRO_MEAN_COEC<0.09932] yes=53,no=54,missing=54
					53:[D_TITLEMD5_C<44.5073] yes=107,no=108,missing=107
						107:leaf=0.0124413
						108:leaf=0.0140033
					54:[C_D_U_TITLEMD5_CATEGORY_MICRO_MEAN_COEC<0.115754] yes=109,no=110,missing=109
						109:leaf=0.0143806
						110:leaf=0.0153892
		6:[C_D_U_KEYWORD_UID_MICRO_MEAN_COEC<0.119627] yes=13,no=14,missing=13
			13:[D_TITLEMD5_C<31.5281] yes=27,no=28,missing=28
				27:[C_D_U_KEYWORD_CATEGORY_MICRO_MEAN_COEC<0.080257] yes=55,no=56,missing=56
					55:[CAT_REL<0.000966] yes=111,no=112,missing=112
						111:leaf=0.000947215
						112:leaf=0.00714617
					56:[D_TITLEMD5_COEC<0.126205] yes=113,no=114,missing=114
						113:leaf=0.00854813
						114:leaf=0.0123833
				28:[C_D_U_GROUPID_CATEGORY_MICRO_MEAN_COEC<0.186431] yes=57,no=58,missing=58
					57:[KW_REL<0.000893] yes=115,no=116,missing=116
						115:leaf=0.0117375
						116:leaf=0.0136455
					58:[C_D_U_TITLEMD5_CATEGORY_MICRO_MEAN_COEC<0.232606] yes=117,no=118,missing=118
						117:leaf=0.0148026
						118:leaf=0.0160982
			14:[C_D_U_TITLEMD5_CATEGORY_MEAN_C<0.104414] yes=29,no=30,missing=30
				29:[C_D_U_CATEGORY_UID_MACRO_MEAN_COEC<0.124906] yes=59,no=60,missing=59
					59:[C_D_U_KEYWORD_CATEGORY_MICRO_MEAN_COEC<0.093019] yes=119,no=120,missing=120
						119:leaf=0.00884172
						120:leaf=0.0130361
					60:[C_D_U_KEYWORD_UID_MACRO_MEAN_COEC<0.130921] yes=121,no=122,missing=122
						121:leaf=0.0135762
						122:leaf=0.0153954
				30:[C_D_U_TITLEMD5_CATEGORY_MICRO_MEAN_COEC<0.187527] yes=61,no=62,missing=62
					61:[C_D_U_CATEGORY_UID_MICRO_MEAN_COEC<0.250216] yes=123,no=124,missing=123
						123:leaf=0.01488
						124:leaf=0.0161107
					62:[C_D_U_CATEGORY_UID_MICRO_MAX_COEC<0.258119] yes=125,no=126,missing=125
						125:leaf=0.0162993
						126:leaf=0.0169684
booster[9]:
0:[C_D_U_GROUPID_CATEGORY_MICRO_MEAN_COEC<0.083805] yes=1,no=2,missing=1
	1:[C_D_U_CATEGORY_UID_MACRO_MEAN_COEC<0.108148] yes=3,no=4,missing=3
		3:[D_KEYWORD_MACRO_MEAN_COEC<0.100857] yes=7,no=8,missing=8
			7:[D_TITLEMD5_COEC<0.035981] yes=15,no=16,missing=15
				15:[C_D_U_KEYWORD_UID_MACRO_MEAN_COEC<0.031147] yes=31,no=32,missing=31
					31:[C_D_U_GROUPID_CATEGORY_MICRO_MEAN_COEC<0.025258] yes=63,no=64,missing=63
						63:leaf=-0.00722958
						64:leaf=-0.00206039
					32:[CAT_REL<0.000933] yes=65,no=66,missing=66
						65:leaf=-0.00285216
						66:leaf=0.00251779
				16:[C_D_U_KEYWORD_UID_MICRO_MEAN_COEC<0.066238] yes=33,no=34,missing=33
					33:[D_TITLEMD5_C<124.956] yes=67,no=68,missing=68
						67:leaf=-0.00115698
						68:leaf=0.00302424
					34:[C_D_U_KEYWORD_UID_MACRO_MEAN_COEC<0.066604] yes=69,no=70,missing=70
						69:leaf=0.00427011
						70:leaf=0.00772266
			8:[D_TITLEMD5_COEC<0.197592] yes=17,no=18,missing=17
				17:[D_TITLEMD5_COEC<0.15006] yes=35,no=36,missing=36
					35:[D_CATEGORY_MEAN_C<23155.3] yes=71,no=72,missing=71
						71:leaf=0.00813644
						72:leaf=0.00282759
					36:[D_CATEGORY_MAX_C<16580.3] yes=73,no=74,missing=73
						73:leaf=0.0108879
						74:leaf=0.00879714
				18:[C_D_U_KEYWORD_CATEGORY_MICRO_MEAN_COEC<0.131072] yes=37,no=38,missing=38
					37:[D_TITLEMD5_C<1.4917] yes=75,no=76,missing=76
						75:leaf=0.00227871
						76:leaf=0.00965951
					38:[D_TITLEMD5_COEC<0.238889] yes=77,no=78,missing=78
						77:leaf=0.0129874
						78:leaf=0.0150213
		4:[C_D_U_KEYWORD_UID_MACRO_MEAN_COEC<0.087356] yes=9,no=10,missing=9
			9:[D_TITLEMD5_COEC<0.028433] yes=19,no=20,missing=19
				19:[C_D_U_KEYWORD_UID_MACRO_MEAN_COEC<0.028431] yes=39,no=40,missing=39
					39:[U_CATEGORY_MICRO_MEAN_COEC<0.074992] yes=79,no=80,missing=79
						79:leaf=-0.00369037
						80:leaf=0.00140695
					40:[CAT_REL<0.014577] yes=81,no=82,missing=82
						81:leaf=0.000585551
						82:leaf=0.00534575
				20:[D_TITLEMD5_C<152.277] yes=41,no=42,missing=42
					41:[C_D_U_KEYWORD_UID_MICRO_MEAN_COEC<0.070666] yes=83,no=84,missing=83
						83:leaf=0.00572294
						84:leaf=0.00874697
					42:[D_TITLEMD5_COEC<0.164778] yes=85,no=86,missing=86
						85:leaf=0.0102668
						86:leaf=0.0147202
			10:[C_D_U_CATEGORY_UID_MACRO_MEAN_COEC<0.254831] yes=21,no=22,missing=22
				21:[D_TITLEMD5_COEC<0.066338] yes=43,no=44,missing=44
					43:[M_D_U_KEYWORD_KEYWORD_MICRO_MAX_COEC<0.079133] yes=87,no=88,missing=87
						87:leaf=0.0071097
						88:leaf=0.00994879
					44:[M_D_U_KEYWORD_KEYWORD_MICRO_MAX_COEC<0.102369] yes=89,no=90,missing=89
						89:leaf=0.0105523
						90:leaf=0.0123051
				22:[C_D_U_CATEGORY_UID_MEAN_C<1.20319] yes=45,no=46,missing=46
					45:[D_TITLEMD5_COEC<0.044421] yes=91,no=92,missing=91
						91:leaf=0.00853557
						92:leaf=0.0118072
					46:[C_D_U_KEYWORD_UID_MACRO_MEAN_COEC<0.191156] yes=93,no=94,missing=94
						93:leaf=0.0124032
						94:leaf=0.0141783
	2:[C_D_U_TITLEMD5_CATEGORY_MICRO_MEAN_COEC<0.134922] yes=5,no=6,missing=5
		5:[C_D_U_KEYWORD_UID_MICRO_MEAN_COEC<0.086581] yes=11,no=12,missing=11
			11:[D_TITLEMD5_C<60.7055] yes=23,no=24,missing=23
				23:[CAT_REL<0.000933] yes=47,no=48,missing=48
					47:[D_TITLEMD5_COEC<0.073695] yes=95,no=96,missing=96
						95:leaf=-0.000882314
						96:leaf=0.00346524
					48:[C_D_U_CATEGORY_UID_MACRO_MEAN_COEC<0.093258] yes=97,no=98,missing=98
						97:leaf=0.0052093
						98:leaf=0.00864551
				24:[CAT_REL<0.000933] yes=49,no=50,missing=50
					49:[C_D_U_TITLEMD5_CATEGORY_MICRO_MEAN_COEC<0.108895] yes=99,no=100,missing=100
						99:leaf=0.00592499
						100:leaf=0.00881293
					50:[U_CAT_LEN<12] yes=101,no=102,missing=102
						101:leaf=0.00894682
						102:leaf=0.0112828
			12:[C_D_U_CATEGORY_UID_MACRO_MEAN_COEC<0.170518] yes=25,no=26,missing=25
				25:[C_D_U_KEYWORD_UID_MACRO_MEAN_COEC<0.088556] yes=51,no=52,missing=52
					51:[D_TITLEMD5_C<40.0513] yes=103,no=104,missing=103
						103:leaf=0.0082386
						104:leaf=0.0112002
					52:[C_D_U_TITLEMD5_CATEGORY_MICRO_MEAN_COEC<0.103985] yes=105,no=106,missing=106
						105:leaf=0.0114203
						106:leaf=0.0131212
				26:[C_D_U_KEYWORD_UID_MICRO_MEAN_COEC<0.206488] yes=53,no=54,missing=54
					53:[D_TITLEMD5_C<23.0373] yes=107,no=108,missing=107
						107:leaf=0.0116669
						108:leaf=0.013443
					54:[C_D_U_CATEGORY_UID_MACRO_MEAN_COEC<0.334851] yes=109,no=110,missing=110
						109:leaf=0.013952
						110:leaf=0.0149387
		6:[C_D_U_KEYWORD_UID_MICRO_MEAN_COEC<0.102121] yes=13,no=14,missing=13
			13:[D_TITLEMD5_C<34.2189] yes=27,no=28,missing=28
				27:[C_D_U_KEYWORD_CATEGORY_MICRO_MEAN_COEC<0.086141] yes=55,no=56,missing=56
					55:[C_D_U_CATEGORY_UID_MACRO_MAX_COEC<0.051896] yes=111,no=112,missing=111
						111:leaf=0.00406941
						112:leaf=0.00987551
					56:[D_TITLEMD5_COEC<0.130616] yes=113,no=114,missing=114
						113:leaf=0.00858303
						114:leaf=0.0125443
				28:[C_D_U_GROUPID_CATEGORY_MICRO_MEAN_COEC<0.182852] yes=57,no=58,missing=58
					57:[CAT_REL<0.000933] yes=115,no=116,missing=116
						115:leaf=0.0116125
						116:leaf=0.0134389
					58:[C_D_U_TITLEMD5_CATEGORY_MICRO_MEAN_COEC<0.23258] yes=117,no=118,missing=118
						117:leaf=0.0145654
						118:leaf=0.015919
			14:[C_D_U_TITLEMD5_CATEGORY_MEAN_C<0.129135] yes=29,no=30,missing=30
				29:[C_D_U_CATEGORY_UID_MACRO_MEAN_COEC<0.151918] yes=59,no=60,missing=59
					59:[D_TITLEMD5_COEC<0.080222] yes=119,no=120,missing=120
						119:leaf=0.00821672
						120:leaf=0.0124975
					60:[C_D_U_KEYWORD_UID_MACRO_MEAN_COEC<0.13738] yes=121,no=122,missing=122
						121:leaf=0.0136119
						122:leaf=0.0153954
				30:[C_D_U_TITLEMD5_CATEGORY_MICRO_MEAN_COEC<0.176036] yes=61,no=62,missing=62
					61:[C_D_U_CATEGORY_UID_MICRO_MEAN_COEC<0.217256] yes=123,no=124,missing=123
						123:leaf=0.0143323
						124:leaf=0.0157007
					62:[C_D_U_TITLEMD5_CATEGORY_MICRO_MEAN_COEC<0.225965] yes=125,no=126,missing=126
						125:leaf=0.016011
						126:leaf=0.0167723
booster[10]:
0:[C_D_U_GROUPID_CATEGORY_MICRO_MEAN_COEC<0.087195] yes=1,no=2,missing=1
	1:[C_D_U_CATEGORY_UID_MACRO_MEAN_COEC<0.107415] yes=3,no=4,missing=3
		3:[D_KEYWORD_MACRO_MEAN_COEC<0.0987] yes=7,no=8,missing=8
			7:[C_D_U_GROUPID_CATEGORY_MICRO_MEAN_COEC<0.044624] yes=15,no=16,missing=15
				15:[D_GROUPID_COEC<0.088179] yes=31,no=32,missing=31
					31:[C_D_U_KEYWORD_UID_MACRO_MEAN_COEC<0.026598] yes=63,no=64,missing=63
						63:leaf=-0.00478709
						64:leaf=0.00107176
					32:[D_TITLEMD5_C<400.549] yes=65,no=66,missing=65
						65:leaf=0.00120157
						66:leaf=0.00555594
				16:[C_D_U_KEYWORD_UID_MICRO_MEAN_COEC<0.075587] yes=33,no=34,missing=33
					33:[CAT_REL<0.000803] yes=67,no=68,missing=68
						67:leaf=0.000335239
						68:leaf=0.00400238
					34:[CAT_REL<0.000803] yes=69,no=70,missing=70
						69:leaf=0.00507505
						70:leaf=0.00835099
			8:[D_GROUPID_COEC<0.166416] yes=17,no=18,missing=18
				17:[D_CATEGORY_MAX_C<25587.9] yes=35,no=36,missing=35
					35:[D_KEYWORD_MAX_C<21.0075] yes=71,no=72,missing=72
						71:leaf=0.0127703
						72:leaf=0.00795871
					36:[D_TITLEMD5_COEC<0.124338] yes=73,no=74,missing=74
						73:leaf=0.000725348
						74:leaf=0.00505051
				18:[D_TITLEMD5_COEC<0.207757] yes=37,no=38,missing=37
					37:[C_D_U_KEYWORD_UID_MEAN_C<0.000181] yes=75,no=76,missing=75
						75:leaf=0.0103727
						76:leaf=0.0134037
					38:[C_D_U_KEYWORD_CATEGORY_MICRO_MEAN_COEC<0.113956] yes=77,no=78,missing=78
						77:leaf=0.00452974
						78:leaf=0.0143028
		4:[C_D_U_KEYWORD_UID_MACRO_MEAN_COEC<0.080159] yes=9,no=10,missing=9
			9:[D_TITLEMD5_COEC<0.028688] yes=19,no=20,missing=19
				19:[U_CATEGORY_MICRO_MEAN_COEC<0.082213] yes=39,no=40,missing=39
					39:[D_KEYWORD_MICRO_MEAN_COEC<0.159441] yes=79,no=80,missing=80
						79:leaf=-0.000815786
						80:leaf=0.0139256
					40:[CAT_REL<0.015599] yes=81,no=82,missing=82
						81:leaf=-3.60458e-05
						82:leaf=0.00466872
				20:[D_TITLEMD5_C<56.7487] yes=41,no=42,missing=42
					41:[C_D_U_KEYWORD_UID_MICRO_MEAN_COEC<0.071947] yes=83,no=84,missing=83
						83:leaf=0.00510028
						84:leaf=0.00819421
					42:[D_TITLEMD5_COEC<0.149966] yes=85,no=86,missing=86
						85:leaf=0.00942024
						86:leaf=0.0139998
			10:[C_D_U_CATEGORY_UID_MACRO_MEAN_COEC<0.257328] yes=21,no=22,missing=22
				21:[D_TITLEMD5_COEC<0.04923] yes=43,no=44,missing=44
					43:[CAT_REL<0.009981] yes=87,no=88,missing=88
						87:leaf=0.00504311
						88:leaf=0.00907846
					44:[C_D_U_KEYWORD_UID_MICRO_MEAN_COEC<0.166225] yes=89,no=90,missing=90
						89:leaf=0.00971633
						90:leaf=0.0116582
				22:[C_D_U_CATEGORY_UID_MAX_C<1.16728] yes=45,no=46,missing=46
					45:[C_D_U_GROUPID_CATEGORY_MICRO_MEAN_COEC<0.044624] yes=91,no=92,missing=92
						91:leaf=0.00852758
						92:leaf=0.0117693
					46:[C_D_U_KEYWORD_UID_MICRO_MEAN_COEC<0.318878] yes=93,no=94,missing=94
						93:leaf=0.0122635
						94:leaf=0.0140425
	2:[C_D_U_TITLEMD5_CATEGORY_MICRO_MEAN_COEC<0.142581] yes=5,no=6,missing=5
		5:[C_D_U_KEYWORD_UID_MICRO_MEAN_COEC<0.087476] yes=11,no=12,missing=11
			11:[D_TITLEMD5_C<68.1982] yes=23,no=24,missing=23
				23:[CAT_REL<0.000803] yes=47,no=48,missing=48
					47:[D_TITLEMD5_COEC<0.088922] yes=95,no=96,missing=95
						95:leaf=0.000631857
						96:leaf=0.0048528
					48:[C_D_U_CATEGORY_UID_MACRO_MEAN_COEC<0.114388] yes=97,no=98,missing=97
						97:leaf=0.00632471
						98:leaf=0.0101751
				24:[CAT_REL<0.000803] yes=49,no=50,missing=50
					49:[C_D_U_GROUPID_CATEGORY_MICRO_MEAN_COEC<0.111744] yes=99,no=100,missing=100
						99:leaf=0.00642942
						100:leaf=0.00930603
					50:[C_D_U_TITLEMD5_CATEGORY_MICRO_MEAN_COEC<0.113739] yes=101,no=102,missing=102
						101:leaf=0.00993235
						102:leaf=0.0119683
			12:[C_D_U_CATEGORY_UID_MACRO_MEAN_COEC<0.170559] yes=25,no=26,missing=25
				25:[C_D_U_TITLEMD5_CATEGORY_MICRO_MEAN_COEC<0.109349] yes=51,no=52,missing=51
					51:[CAT_REL<0.003118] yes=103,no=104,missing=104
						103:leaf=0.00904379
						104:leaf=0.0113898
					52:[D_TITLEMD5_C<31.4662] yes=105,no=106,missing=106
						105:leaf=0.0103637
						106:leaf=0.0128258
				26:[C_D_U_KEYWORD_UID_MICRO_MEAN_COEC<0.25663] yes=53,no=54,missing=54
					53:[C_D_U_TITLEMD5_CATEGORY_MICRO_MEAN_COEC<0.111892] yes=107,no=108,missing=107
						107:leaf=0.0126391
						108:leaf=0.0140014
					54:[M_D_U_KEYWORD_KEYWORD_MICRO_MAX_COEC<0.089584] yes=109,no=110,missing=109
						109:leaf=0.0138074
						110:leaf=0.0149422
		6:[C_D_U_KEYWORD_UID_MICRO_MEAN_COEC<0.111673] yes=13,no=14,missing=13
			13:[D_TITLEMD5_C<31.4662] yes=27,no=28,missing=28
				27:[C_D_U_KEYWORD_CATEGORY_MICRO_MEAN_COEC<0.077532] yes=55,no=56,missing=56
					55:[C_D_U_CATEGORY_UID_MACRO_MEAN_COEC<0.035386] yes=111,no=112,missing=111
						111:leaf=0.00271963
						112:leaf=0.00872648
					56:[D_TITLEMD5_COEC<0.129684] yes=113,no=114,missing=114
						113:leaf=0.008222
						114:leaf=0.0120686
				28:[C_D_U_GROUPID_CATEGORY_MICRO_MEAN_COEC<0.190062] yes=57,no=58,missing=58
					57:[KW_REL<0.000905] yes=115,no=116,missing=116
						115:leaf=0.011664
						116:leaf=0.0134921
					58:[C_D_U_TITLEMD5_CATEGORY_MICRO_MEAN_COEC<0.242109] yes=117,no=118,missing=118
						117:leaf=0.0146692
						118:leaf=0.0159164
			14:[C_D_U_TITLEMD5_CATEGORY_MEAN_C<0.105978] yes=29,no=30,missing=30
				29:[C_D_U_CATEGORY_UID_MACRO_MEAN_COEC<0.170559] yes=59,no=60,missing=59
					59:[D_TITLEMD5_COEC<0.094789] yes=119,no=120,missing=120
						119:leaf=0.00901304
						120:leaf=0.0128637
					60:[C_D_U_KEYWORD_UID_MACRO_MEAN_COEC<0.147034] yes=121,no=122,missing=122
						121:leaf=0.0136612
						122:leaf=0.0153319
				30:[C_D_U_TITLEMD5_CATEGORY_MICRO_MEAN_COEC<0.191713] yes=61,no=62,missing=62
					61:[C_D_U_CATEGORY_UID_MICRO_MEAN_COEC<0.218231] yes=123,no=124,missing=123
						123:leaf=0.0145885
						124:leaf=0.0158023
					62:[C_D_U_CATEGORY_UID_MICRO_MEAN_COEC<0.225175] yes=125,no=126,missing=125
						125:leaf=0.0160124
						126:leaf=0.0166773
booster[11]:
0:[C_D_U_GROUPID_CATEGORY_MICRO_MEAN_COEC<0.086042] yes=1,no=2,missing=1
	1:[C_D_U_CATEGORY_UID_MACRO_MEAN_COEC<0.114348] yes=3,no=4,missing=3
		3:[D_KEYWORD_MACRO_MEAN_COEC<0.0985] yes=7,no=8,missing=8
			7:[C_D_U_GROUPID_CATEGORY_MICRO_MEAN_COEC<0.0449] yes=15,no=16,missing=15
				15:[D_GROUPID_COEC<0.090147] yes=31,no=32,missing=31
					31:[C_D_U_KEYWORD_UID_MACRO_MEAN_COEC<0.027947] yes=63,no=64,missing=63
						63:leaf=-0.00461101
						64:leaf=0.00129135
					32:[D_TITLEMD5_C<382.107] yes=65,no=66,missing=65
						65:leaf=0.00125306
						66:leaf=0.00549002
				16:[C_D_U_KEYWORD_UID_MICRO_MEAN_COEC<0.074149] yes=33,no=34,missing=33
					33:[D_TITLEMD5_C<46.6983] yes=67,no=68,missing=67
						67:leaf=0.000262685
						68:leaf=0.00394206
					34:[CAT_REL<0.000884] yes=69,no=70,missing=70
						69:leaf=0.00494994
						70:leaf=0.00821018
			8:[D_TITLEMD5_COEC<0.174584] yes=17,no=18,missing=18
				17:[D_CATEGORY_MEAN_C<21646.1] yes=35,no=36,missing=35
					35:[D_KEYWORD_MACRO_MEAN_COEC<0.122273] yes=71,no=72,missing=71
						71:leaf=0.00790949
						72:leaf=0.0111039
					36:[D_TITLEMD5_COEC<0.137508] yes=73,no=74,missing=74
						73:leaf=0.00181251
						74:leaf=0.00635842
				18:[D_TITLEMD5_COEC<0.21481] yes=37,no=38,missing=37
					37:[C_D_U_KEYWORD_UID_MAX_C<0.000172] yes=75,no=76,missing=75
						75:leaf=0.0105615
						76:leaf=0.0134762
					38:[C_D_U_KEYWORD_CATEGORY_MICRO_MEAN_COEC<0.113944] yes=77,no=78,missing=78
						77:leaf=0.00457324
						78:leaf=0.0142741
		4:[C_D_U_KEYWORD_UID_MACRO_MEAN_COEC<0.082283] yes=9,no=10,missing=9
			9:[D_GROUPID_COEC<0.026947] yes=19,no=20,missing=19
				19:[U_CATEGORY_MICRO_MEAN_COEC<0.079977] yes=39,no=40,missing=39
					39:[D_PUBLISHER_COEC<0.039617] yes=79,no=80,missing=80
						79:leaf=-0.0045882
						80:leaf=0.00080598
					40:[C_D_U_KEYWORD_UID_MACRO_MEAN_COEC<0.045156] yes=81,no=82,missing=81
						81:leaf=0.00230131
						82:leaf=0.00586413
				20:[D_TITLEMD5_C<41.3349] yes=41,no=42,missing=41
					41:[C_D_U_KEYWORD_UID_MICRO_MEAN_COEC<0.073237] yes=83,no=84,missing=83
						83:leaf=0.00483656
						84:leaf=0.00796797
					42:[D_TITLEMD5_COEC<0.164515] yes=85,no=86,missing=86
						85:leaf=0.00924807
						86:leaf=0.0144283
			10:[C_D_U_KEYWORD_UID_MICRO_MEAN_COEC<0.232311] yes=21,no=22,missing=22
				21:[D_TITLEMD5_COEC<0.065325] yes=43,no=44,missing=44
					43:[C_D_U_GROUPID_CATEGORY_MICRO_MEAN_COEC<0.039989] yes=87,no=88,missing=87
						87:leaf=0.00734971
						88:leaf=0.00999869
					44:[CAT_REL<0.009829] yes=89,no=90,missing=90
						89:leaf=0.0101833
						90:leaf=0.0118028
				22:[C_D_U_CATEGORY_UID_MAX_C<1.16707] yes=45,no=46,missing=46
					45:[D_TITLEMD5_COEC<0.06232] yes=91,no=92,missing=91
						91:leaf=0.00926886
						92:leaf=0.0120397
					46:[C_D_U_CATEGORY_UID_MACRO_MEAN_COEC<0.375412] yes=93,no=94,missing=94
						93:leaf=0.0122133
						94:leaf=0.0141472
	2:[C_D_U_TITLEMD5_CATEGORY_MICRO_MEAN_COEC<0.138529] yes=5,no=6,missing=5
		5:[C_D_U_KEYWORD_UID_MICRO_MEAN_COEC<0.093318] yes=11,no=12,missing=11
			11:[D_TITLEMD5_C<41.3349] yes=23,no=24,missing=23
				23:[CAT_REL<0.000884] yes=47,no=48,missing=48
					47:[C_D_U_CATEGORY_UID_MACRO_MEAN_COEC<0.103471] yes=95,no=96,missing=95
						95:leaf=0.00070776
						96:leaf=0.00693758
					48:[C_D_U_CATEGORY_UID_MACRO_MEAN_COEC<0.07953] yes=97,no=98,missing=98
						97:leaf=0.00473614
						98:leaf=0.00826061
				24:[CAT_REL<0.000884] yes=49,no=50,missing=50
					49:[D_TITLEMD5_C<269.76] yes=99,no=100,missing=100
						99:leaf=0.00587375
						100:leaf=0.00882529
					50:[C_D_U_CATEGORY_UID_MICRO_MEAN_COEC<0.148755] yes=101,no=102,missing=101
						101:leaf=0.0100788
						102:leaf=0.0126363
			12:[C_D_U_CATEGORY_UID_MICRO_MEAN_COEC<0.18241] yes=25,no=26,missing=25
				25:[KW_REL<0.00148] yes=51,no=52,missing=52
					51:[D_TITLEMD5_C<31.5697] yes=103,no=104,missing=103
						103:leaf=0.00726479
						104:leaf=0.0107925
					52:[C_D_U_KEYWORD_UID_MICRO_MEAN_COEC<0.193505] yes=105,no=106,missing=106
						105:leaf=0.0113429
						106:leaf=0.0130536
				26:[C_D_U_KEYWORD_UID_MICRO_MEAN_COEC<0.220944] yes=53,no=54,missing=54
					53:[C_D_U_TITLEMD5_CATEGORY_MICRO_MEAN_COEC<0.113261] yes=107,no=108,missing=107
						107:leaf=0.0124344
						108:leaf=0.0137605
					54:[KW_REL<0.001197] yes=109,no=110,missing=110
						109:leaf=0.0133353
						110:leaf=0.014628
		6:[C_D_U_KEYWORD_UID_MICRO_MEAN_COEC<0.110315] yes=13,no=14,missing=13
			13:[D_TITLEMD5_C<29.9052] yes=27,no=28,missing=28
				27:[C_D_U_KEYWORD_CATEGORY_MICRO_MEAN_COEC<0.089662] yes=55,no=56,missing=56
					55:[CAT_REL<0.000884] yes=111,no=112,missing=112
						111:leaf=0.00170349
						112:leaf=0.00768837
					56:[D_TITLEMD5_COEC<0.113836] yes=113,no=114,missing=114
						113:leaf=0.00808691
						114:leaf=0.0121977
				28:[C_D_U_GROUPID_CATEGORY_MICRO_MEAN_COEC<0.181218] yes=57,no=58,missing=58
					57:[CAT_REL<0.000884] yes=115,no=116,missing=116
						115:leaf=0.011502
						116:leaf=0.0132788
					58:[C_D_U_TITLEMD5_CATEGORY_MICRO_MEAN_COEC<0.225344] yes=117,no=118,missing=118
						117:leaf=0.0142235
						118:leaf=0.0155627
			14:[C_D_U_TITLEMD5_CATEGORY_MEAN_C<0.141724] yes=29,no=30,missing=30
				29:[C_D_U_CATEGORY_UID_MACRO_MEAN_COEC<0.184986] yes=59,no=60,missing=59
					59:[D_TITLEMD5_COEC<0.102111] yes=119,no=120,missing=120
						119:leaf=0.00979475
						120:leaf=0.0130939
					60:[C_D_U_KEYWORD_UID_MACRO_MEAN_COEC<0.134097] yes=121,no=122,missing=122
						121:leaf=0.013708
						122:leaf=0.0152925
				30:[C_D_U_TITLEMD5_CATEGORY_MICRO_MEAN_COEC<0.180307] yes=61,no=62,missing=62
					61:[C_D_U_CATEGORY_UID_MICRO_MAX_COEC<0.235018] yes=123,no=124,missing=123
						123:leaf=0.0142948
						124:leaf=0.0155538
					62:[C_D_U_TITLEMD5_CATEGORY_MICRO_MEAN_COEC<0.233241] yes=125,no=126,missing=126
						125:leaf=0.0158392
						126:leaf=0.01656
booster[12]:
0:[C_D_U_GROUPID_CATEGORY_MICRO_MEAN_COEC<0.083535] yes=1,no=2,missing=1
	1:[C_D_U_CATEGORY_UID_MACRO_MEAN_COEC<0.096341] yes=3,no=4,missing=3
		3:[D_KEYWORD_MACRO_MEAN_COEC<0.096347] yes=7,no=8,missing=8
			7:[C_D_U_GROUPID_CATEGORY_MICRO_MEAN_COEC<0.044761] yes=15,no=16,missing=15
				15:[D_TITLEMD5_COEC<0.089993] yes=31,no=32,missing=31
					31:[C_D_U_KEYWORD_UID_MICRO_MEAN_COEC<0.049852] yes=63,no=64,missing=63
						63:leaf=-0.00482567
						64:leaf=0.000438127
					32:[D_KEYWORD_MACRO_MEAN_COEC<0.072764] yes=65,no=66,missing=66
						65:leaf=-0.00106471
						66:leaf=0.00362387
				16:[C_D_U_KEYWORD_UID_MICRO_MEAN_COEC<0.074708] yes=33,no=34,missing=33
					33:[D_TITLEMD5_C<41.5928] yes=67,no=68,missing=67
						67:leaf=-0.000135092
						68:leaf=0.00352489
					34:[CAT_REL<0.001018] yes=69,no=70,missing=70
						69:leaf=0.00462465
						70:leaf=0.00780026
			8:[D_TITLEMD5_COEC<0.169295] yes=17,no=18,missing=18
				17:[D_CATEGORY_MEAN_C<20199.3] yes=35,no=36,missing=35
					35:[D_GROUPID_COEC<0.1291] yes=71,no=72,missing=72
						71:leaf=0.00642091
						72:leaf=0.00939655
					36:[D_GROUPID_COEC<0.124068] yes=73,no=74,missing=74
						73:leaf=0.00074196
						74:leaf=0.00532228
				18:[D_TITLEMD5_COEC<0.207425] yes=37,no=38,missing=37
					37:[C_D_U_KEYWORD_UID_MEAN_C<0.000196] yes=75,no=76,missing=75
						75:leaf=0.0101844
						76:leaf=0.0131439
					38:[C_D_U_KEYWORD_CATEGORY_MICRO_MEAN_COEC<0.114076] yes=77,no=78,missing=78
						77:leaf=0.00454591
						78:leaf=0.0140147
		4:[C_D_U_KEYWORD_UID_MICRO_MEAN_COEC<0.140528] yes=9,no=10,missing=9
			9:[D_TITLEMD5_COEC<0.026509] yes=19,no=20,missing=19
				19:[C_D_U_KEYWORD_UID_MACRO_MEAN_COEC<0.03544] yes=39,no=40,missing=39
					39:[U_CATEGORY_MICRO_MEAN_COEC<0.084323] yes=79,no=80,missing=79
						79:leaf=-0.00233731
						80:leaf=0.00169071
					40:[CAT_REL<0.021273] yes=81,no=82,missing=82
						81:leaf=0.000934006
						82:leaf=0.00542127
				20:[D_TITLEMD5_C<41.5928] yes=41,no=42,missing=42
					41:[CAT_REL<0.005104] yes=83,no=84,missing=84
						83:leaf=0.00325026
						84:leaf=0.00686735
					42:[D_TITLEMD5_COEC<0.150352] yes=85,no=86,missing=86
						85:leaf=0.00845514
						86:leaf=0.0134399
			10:[C_D_U_KEYWORD_UID_MACRO_MEAN_COEC<0.117007] yes=21,no=22,missing=22
				21:[D_GROUPID_COEC<0.032603] yes=43,no=44,missing=43
					43:[U_CATEGORY_MICRO_MEAN_COEC<0.080678] yes=87,no=88,missing=87
						87:leaf=0.00238929
						88:leaf=0.00704408
					44:[D_TITLEMD5_COEC<0.103612] yes=89,no=90,missing=89
						89:leaf=0.0096505
						90:leaf=0.0124971
				22:[C_D_U_CATEGORY_UID_MACRO_MEAN_COEC<0.25595] yes=45,no=46,missing=46
					45:[M_D_U_KEYWORD_KEYWORD_MACRO_MEAN_COEC<0.000103] yes=91,no=92,missing=91
						91:leaf=0.00966315
						92:leaf=0.0116986
					46:[C_D_U_CATEGORY_UID_MEAN_C<1.19415] yes=93,no=94,missing=94
						93:leaf=0.011073
						94:leaf=0.0133685
	2:[C_D_U_GROUPID_CATEGORY_MICRO_MEAN_COEC<0.131956] yes=5,no=6,missing=6
		5:[C_D_U_KEYWORD_UID_MICRO_MEAN_COEC<0.092296] yes=11,no=12,missing=11
			11:[D_TITLEMD5_C<42.1427] yes=23,no=24,missing=23
				23:[CAT_REL<0.001018] yes=47,no=48,missing=48
					47:[D_TITLEMD5_COEC<0.083074] yes=95,no=96,missing=95
						95:leaf=-0.000635718
						96:leaf=0.00387492
					48:[C_D_U_CATEGORY_UID_MACRO_MEAN_COEC<0.075755] yes=97,no=98,missing=98
						97:leaf=0.00457513
						98:leaf=0.00803994
				24:[CAT_REL<0.001018] yes=49,no=50,missing=50
					49:[C_D_U_TITLEMD5_CATEGORY_MICRO_MEAN_COEC<0.109306] yes=99,no=100,missing=100
						99:leaf=0.00563349
						100:leaf=0.00845298
					50:[C_D_U_CATEGORY_UID_MICRO_MEAN_COEC<0.148672] yes=101,no=102,missing=101
						101:leaf=0.00979121
						102:leaf=0.0124479
			12:[C_D_U_CATEGORY_UID_MACRO_MEAN_COEC<0.157904] yes=25,no=26,missing=25
				25:[KW_REL<0.001648] yes=51,no=52,missing=52
					51:[D_TITLEMD5_C<31.4443] yes=103,no=104,missing=104
						103:leaf=0.00707453
						104:leaf=0.0104474
					52:[C_D_U_KEYWORD_UID_MICRO_MEAN_COEC<0.186695] yes=105,no=106,missing=106
						105:leaf=0.0110055
						106:leaf=0.0127575
				26:[C_D_U_KEYWORD_UID_MACRO_MEAN_COEC<0.132378] yes=53,no=54,missing=54
					53:[D_TITLEMD5_C<31.4443] yes=107,no=108,missing=107
						107:leaf=0.0118203
						108:leaf=0.0133215
					54:[C_D_U_CATEGORY_UID_MACRO_MEAN_COEC<0.335128] yes=109,no=110,missing=110
						109:leaf=0.0137131
						110:leaf=0.0148403
		6:[C_D_U_KEYWORD_UID_MICRO_MEAN_COEC<0.092296] yes=13,no=14,missing=13
			13:[D_TITLEMD5_C<56.3654] yes=27,no=28,missing=27
				27:[D_GROUPID_C<2.98502] yes=55,no=56,missing=56
					55:[C_D_U_KEYWORD_CATEGORY_MICRO_MEAN_COEC<0.088614] yes=111,no=112,missing=112
						111:leaf=0.000839535
						112:leaf=0.00671632
					56:[D_TITLEMD5_COEC<0.150352] yes=113,no=114,missing=113
						113:leaf=0.00879003
						114:leaf=0.0125759
				28:[C_D_U_TITLEMD5_CATEGORY_MICRO_MEAN_COEC<0.184239] yes=57,no=58,missing=58
					57:[CAT_REL<0.001018] yes=115,no=116,missing=116
						115:leaf=0.0113416
						116:leaf=0.0131255
					58:[C_D_U_TITLEMD5_CATEGORY_MICRO_MEAN_COEC<0.241844] yes=117,no=118,missing=118
						117:leaf=0.0142785
						118:leaf=0.0156478
			14:[C_D_U_TITLEMD5_CATEGORY_MEAN_C<0.128736] yes=29,no=30,missing=29
				29:[C_D_U_CATEGORY_UID_MACRO_MEAN_COEC<0.152362] yes=59,no=60,missing=59
					59:[D_TITLEMD5_COEC<0.092721] yes=119,no=120,missing=120
						119:leaf=0.00881366
						120:leaf=0.0124097
					60:[D_TITLEMD5_COEC<0.085998] yes=121,no=122,missing=122
						121:leaf=0.0126342
						122:leaf=0.0146734
				30:[C_D_U_TITLEMD5_CATEGORY_MICRO_MEAN_COEC<0.176535] yes=61,no=62,missing=62
					61:[C_D_U_CATEGORY_UID_MICRO_MEAN_COEC<0.202027] yes=123,no=124,missing=123
						123:leaf=0.0138647
						124:leaf=0.0152307
					62:[C_D_U_CATEGORY_UID_MICRO_MEAN_COEC<0.25507] yes=125,no=126,missing=125
						125:leaf=0.0155818
						126:leaf=0.0163474
booster[13]:
0:[C_D_U_GROUPID_CATEGORY_MICRO_MEAN_COEC<0.084364] yes=1,no=2,missing=1
	1:[C_D_U_CATEGORY_UID_MACRO_MEAN_COEC<0.09296] yes=3,no=4,missing=3
		3:[D_KEYWORD_MACRO_MEAN_COEC<0.100747] yes=7,no=8,missing=8
			7:[D_TITLEMD5_COEC<0.035472] yes=15,no=16,missing=15
				15:[C_D_U_KEYWORD_UID_MACRO_MEAN_COEC<0.034524] yes=31,no=32,missing=31
					31:[C_D_U_GROUPID_CATEGORY_MICRO_MEAN_COEC<0.025332] yes=63,no=64,missing=63
						63:leaf=-0.00702512
						64:leaf=-0.00219829
					32:[CAT_REL<0.005113] yes=65,no=66,missing=66
						65:leaf=-0.00269143
						66:leaf=0.00237706
				16:[C_D_U_KEYWORD_UID_MICRO_MEAN_COEC<0.057678] yes=33,no=34,missing=33
					33:[D_TITLEMD5_C<81.2764] yes=67,no=68,missing=68
						67:leaf=-0.00164031
						68:leaf=0.00243631
					34:[C_D_U_KEYWORD_UID_MACRO_MEAN_COEC<0.062099] yes=69,no=70,missing=70
						69:leaf=0.0037469
						70:leaf=0.00719008
			8:[D_TITLEMD5_COEC<0.204376] yes=17,no=18,missing=17
				17:[D_GROUPID_COEC<0.151297] yes=35,no=36,missing=36
					35:[D_CATEGORY_MEAN_C<27812.6] yes=71,no=72,missing=71
						71:leaf=0.00782055
						72:leaf=0.00269497
					36:[D_CATEGORY_MEAN_C<20193] yes=73,no=74,missing=73
						73:leaf=0.0104862
						74:leaf=0.00874245
				18:[C_D_U_KEYWORD_CATEGORY_MICRO_MEAN_COEC<0.113115] yes=37,no=38,missing=38
					37:[D_KEYWORD_MICRO_MEAN_COEC<0.136004] yes=75,no=76,missing=76
						75:leaf=0.0024662
						76:leaf=0.0147659
					38:[D_CATEGORY_MAX_C<37890.9] yes=77,no=78,missing=77
						77:leaf=0.0143881
						78:leaf=0.0124269
		4:[C_D_U_KEYWORD_UID_MICRO_MEAN_COEC<0.129256] yes=9,no=10,missing=9
			9:[D_TITLEMD5_COEC<0.026432] yes=19,no=20,missing=19
				19:[KW_REL<0.001077] yes=39,no=40,missing=40
					39:[C_D_U_PUBLISHER_UID_COEC<0.115738] yes=79,no=80,missing=79
						79:leaf=-0.00215169
						80:leaf=0.00326154
					40:[C_D_U_KEYWORD_UID_MACRO_MEAN_COEC<0.048034] yes=81,no=82,missing=82
						81:leaf=0.00181233
						82:leaf=0.00553868
				20:[D_TITLEMD5_C<44.4257] yes=41,no=42,missing=42
					41:[CAT_REL<0.000893] yes=83,no=84,missing=84
						83:leaf=0.0029246
						84:leaf=0.00659084
					42:[D_TITLEMD5_COEC<0.160611] yes=85,no=86,missing=86
						85:leaf=0.00833975
						86:leaf=0.0136623
			10:[C_D_U_KEYWORD_UID_MACRO_MEAN_COEC<0.126648] yes=21,no=22,missing=22
				21:[D_TITLEMD5_COEC<0.026432] yes=43,no=44,missing=44
					43:[U_CATEGORY_MICRO_MAX_COEC<0.104488] yes=87,no=88,missing=87
						87:leaf=0.00261285
						88:leaf=0.00671087
					44:[C_D_U_GROUPID_CATEGORY_MICRO_MEAN_COEC<0.054701] yes=89,no=90,missing=90
						89:leaf=0.00825751
						90:leaf=0.010721
				22:[C_D_U_CATEGORY_UID_MACRO_MEAN_COEC<0.264418] yes=45,no=46,missing=46
					45:[KW_REL<0.002902] yes=91,no=92,missing=92
						91:leaf=0.0098496
						92:leaf=0.0118036
					46:[C_D_U_CATEGORY_UID_MEAN_C<1.2161] yes=93,no=94,missing=94
						93:leaf=0.0110984
						94:leaf=0.0133783
	2:[C_D_U_TITLEMD5_CATEGORY_MICRO_MEAN_COEC<0.136291] yes=5,no=6,missing=5
		5:[C_D_U_KEYWORD_UID_MICRO_MEAN_COEC<0.10226] yes=11,no=12,missing=11
			11:[D_TITLEMD5_C<49.3804] yes=23,no=24,missing=23
				23:[C_D_U_CATEGORY_UID_MACRO_MEAN_COEC<0.081104] yes=47,no=48,missing=47
					47:[KW_REL<0.001471] yes=95,no=96,missing=96
						95:leaf=0.00158547
						96:leaf=0.00574982
					48:[C_D_U_CATEGORY_UID_MACRO_MEAN_COEC<0.158952] yes=97,no=98,missing=98
						97:leaf=0.00726262
						98:leaf=0.00975262
				24:[CAT_REL<0.000893] yes=49,no=50,missing=50
					49:[C_D_U_TITLEMD5_CATEGORY_MICRO_MEAN_COEC<0.109668] yes=99,no=100,missing=99
						99:leaf=0.00579207
						100:leaf=0.00859075
					50:[C_D_U_CATEGORY_UID_MACRO_MEAN_COEC<0.146198] yes=101,no=102,missing=101
						101:leaf=0.0099284
						102:leaf=0.0124564
			12:[C_D_U_CATEGORY_UID_MICRO_MEAN_COEC<0.202237] yes=25,no=26,missing=25
				25:[KW_REL<0.001471] yes=51,no=52,missing=52
					51:[D_TITLEMD5_C<34.0979] yes=103,no=104,missing=104
						103:leaf=0.00741491
						104:leaf=0.0106159
					52:[C_D_U_TITLEMD5_CATEGORY_MICRO_MEAN_COEC<0.106383] yes=105,no=106,missing=105
						105:leaf=0.0110631
						106:leaf=0.01272
				26:[C_D_U_KEYWORD_UID_MACRO_MEAN_COEC<0.132353] yes=53,no=54,missing=54
					53:[CAT_REL<0.000893] yes=107,no=108,missing=108
						107:leaf=0.0119577
						108:leaf=0.0134393
					54:[C_D_U_CATEGORY_UID_MICRO_MEAN_COEC<0.344886] yes=109,no=110,missing=110
						109:leaf=0.013704
						110:leaf=0.0146822
		6:[C_D_U_KEYWORD_UID_MICRO_MEAN_COEC<0.10226] yes=13,no=14,missing=13
			13:[D_TITLEMD5_C<49.3804] yes=27,no=28,missing=28
				27:[D_TITLEMD5_C<3.92072] yes=55,no=56,missing=56
					55:[C_D_U_KEYWORD_CATEGORY_MICRO_MEAN_COEC<0.093774] yes=111,no=112,missing=112
						111:leaf=0.00268737
						112:leaf=0.00793085
					56:[CAT_REL<0.000893] yes=113,no=114,missing=114
						113:leaf=0.0070415
						114:leaf=0.0112413
				28:[C_D_U_TITLEMD5_CATEGORY_MICRO_MEAN_COEC<0.183587] yes=57,no=58,missing=58
					57:[CAT_REL<0.000893] yes=115,no=116,missing=116
						115:leaf=0.0113376
						116:leaf=0.0130594
					58:[C_D_U_TITLEMD5_CATEGORY_MICRO_MEAN_COEC<0.232604] yes=117,no=118,missing=118
						117:leaf=0.014075
						118:leaf=0.0154058
			14:[C_D_U_TITLEMD5_CATEGORY_MEAN_C<0.142055] yes=29,no=30,missing=30
				29:[C_D_U_CATEGORY_UID_MACRO_MEAN_COEC<0.164221] yes=59,no=60,missing=59
					59:[D_TITLEMD5_COEC<0.100398] yes=119,no=120,missing=120
						119:leaf=0.00928386
						120:leaf=0.0126499
					60:[C_D_U_KEYWORD_UID_MACRO_MEAN_COEC<0.148681] yes=121,no=122,missing=122
						121:leaf=0.0133648
						122:leaf=0.0150441
				30:[C_D_U_TITLEMD5_CATEGORY_MICRO_MEAN_COEC<0.180347] yes=61,no=62,missing=62
					61:[C_D_U_CATEGORY_UID_MICRO_MEAN_COEC<0.218226] yes=123,no=124,missing=123
						123:leaf=0.0139362
						124:leaf=0.0152424
					62:[C_D_U_CATEGORY_UID_MICRO_MAX_COEC<0.255938] yes=125,no=126,missing=125
						125:leaf=0.0155107
						126:leaf=0.0162233
booster[14]:
0:[C_D_U_GROUPID_CATEGORY_MICRO_MEAN_COEC<0.086195] yes=1,no=2,missing=1
	1:[C_D_U_CATEGORY_UID_MACRO_MEAN_COEC<0.101722] yes=3,no=4,missing=3
		3:[D_KEYWORD_MACRO_MEAN_COEC<0.098766] yes=7,no=8,missing=8
			7:[C_D_U_GROUPID_CATEGORY_MICRO_MEAN_COEC<0.044417] yes=15,no=16,missing=15
				15:[D_GROUPID_COEC<0.095379] yes=31,no=32,missing=31
					31:[C_D_U_KEYWORD_UID_MICRO_MEAN_COEC<0.061487] yes=63,no=64,missing=63
						63:leaf=-0.00446297
						64:leaf=0.00103569
					32:[D_TITLEMD5_C<483.781] yes=65,no=66,missing=65
						65:leaf=0.0017956
						66:leaf=0.00596866
				16:[C_D_U_KEYWORD_UID_MICRO_MEAN_COEC<0.092248] yes=33,no=34,missing=33
					33:[CAT_REL<0.000653] yes=67,no=68,missing=68
						67:leaf=0.000271213
						68:leaf=0.00391938
					34:[CAT_REL<0.000653] yes=69,no=70,missing=70
						69:leaf=0.00515076
						70:leaf=0.00826309
			8:[D_TITLEMD5_COEC<0.169793] yes=17,no=18,missing=18
				17:[D_CATEGORY_MAX_C<23332.3] yes=35,no=36,missing=35
					35:[D_KEYWORD_MACRO_MEAN_COEC<0.125893] yes=71,no=72,missing=72
						71:leaf=0.00769471
						72:leaf=0.0110614
					36:[D_GROUPID_COEC<0.124006] yes=73,no=74,missing=74
						73:leaf=0.00068637
						74:leaf=0.00514301
				18:[D_TITLEMD5_COEC<0.20492] yes=37,no=38,missing=37
					37:[KW_REL<0.001293] yes=75,no=76,missing=76
						75:leaf=0.00983619
						76:leaf=0.0120106
					38:[C_D_U_KEYWORD_CATEGORY_MICRO_MEAN_COEC<0.113252] yes=77,no=78,missing=78
						77:leaf=0.00437118
						78:leaf=0.0137319
		4:[C_D_U_KEYWORD_UID_MACRO_MEAN_COEC<0.066633] yes=9,no=10,missing=9
			9:[D_TITLEMD5_COEC<0.028959] yes=19,no=20,missing=19
				19:[U_CATEGORY_MICRO_MEAN_COEC<0.081318] yes=39,no=40,missing=39
					39:[D_KEYWORD_MICRO_MEAN_COEC<0.161466] yes=79,no=80,missing=80
						79:leaf=-0.00153524
						80:leaf=0.0133119
					40:[D_TITLEMD5_COEC<0.018874] yes=81,no=82,missing=82
						81:leaf=0.00171364
						82:leaf=0.00519034
				20:[D_TITLEMD5_C<104.703] yes=41,no=42,missing=42
					41:[C_D_U_GROUPID_CATEGORY_MICRO_MEAN_COEC<0.050741] yes=83,no=84,missing=83
						83:leaf=0.00491131
						84:leaf=0.00780108
					42:[D_TITLEMD5_COEC<0.163164] yes=85,no=86,missing=86
						85:leaf=0.00931175
						86:leaf=0.013958
			10:[C_D_U_KEYWORD_UID_MICRO_MEAN_COEC<0.196266] yes=21,no=22,missing=22
				21:[C_D_U_GROUPID_CATEGORY_MICRO_MEAN_COEC<0.050741] yes=43,no=44,missing=44
					43:[D_TITLEMD5_COEC<0.062876] yes=87,no=88,missing=88
						87:leaf=0.00667186
						88:leaf=0.00906578
					44:[C_D_U_CATEGORY_UID_MACRO_MEAN_COEC<0.217124] yes=89,no=90,missing=90
						89:leaf=0.00921775
						90:leaf=0.0109668
				22:[C_D_U_CATEGORY_UID_MEAN_C<1.22774] yes=45,no=46,missing=46
					45:[D_TITLEMD5_COEC<0.044046] yes=91,no=92,missing=91
						91:leaf=0.0078748
						92:leaf=0.0111287
					46:[C_D_U_CATEGORY_UID_MACRO_MEAN_COEC<0.336682] yes=93,no=94,missing=94
						93:leaf=0.0113897
						94:leaf=0.0134512
	2:[C_D_U_TITLEMD5_CATEGORY_MICRO_MEAN_COEC<0.144432] yes=5,no=6,missing=5
		5:[C_D_U_KEYWORD_UID_MICRO_MEAN_COEC<0.085985] yes=11,no=12,missing=11
			11:[D_TITLEMD5_C<68.4014] yes=23,no=24,missing=23
				23:[CAT_REL<0.000653] yes=47,no=48,missing=48
					47:[D_TITLEMD5_COEC<0.080003] yes=95,no=96,missing=96
						95:leaf=-0.000131122
						96:leaf=0.00403462
					48:[D_TITLEMD5_C<6.86109] yes=97,no=98,missing=98
						97:leaf=0.00358874
						98:leaf=0.0077485
				24:[CAT_REL<0.000653] yes=49,no=50,missing=50
					49:[C_D_U_TITLEMD5_CATEGORY_MICRO_MEAN_COEC<0.111774] yes=99,no=100,missing=100
						99:leaf=0.00598345
						100:leaf=0.00897335
					50:[C_D_U_TITLEMD5_CATEGORY_MICRO_MEAN_COEC<0.114382] yes=101,no=102,missing=102
						101:leaf=0.00954157
						102:leaf=0.0116155
			12:[C_D_U_CATEGORY_UID_MICRO_MEAN_COEC<0.177184] yes=25,no=26,missing=25
				25:[C_D_U_TITLEMD5_CATEGORY_MICRO_MEAN_COEC<0.108903] yes=51,no=52,missing=51
					51:[CAT_REL<0.000653] yes=103,no=104,missing=104
						103:leaf=0.00852603
						104:leaf=0.0108812
					52:[D_TITLEMD5_C<30.9494] yes=105,no=106,missing=106
						105:leaf=0.0100315
						106:leaf=0.0124044
				26:[C_D_U_KEYWORD_UID_MACRO_MEAN_COEC<0.106452] yes=53,no=54,missing=54
					53:[D_TITLEMD5_C<28.6419] yes=107,no=108,missing=107
						107:leaf=0.0113676
						108:leaf=0.0131811
					54:[C_D_U_CATEGORY_UID_MICRO_MEAN_COEC<0.335038] yes=109,no=110,missing=110
						109:leaf=0.0134993
						110:leaf=0.0145912
		6:[C_D_U_TITLEMD5_CATEGORY_MEAN_C<0.133436] yes=13,no=14,missing=14
			13:[C_D_U_KEYWORD_UID_MICRO_MEAN_COEC<0.085985] yes=27,no=28,missing=27
				27:[D_TITLEMD5_COEC<0.104988] yes=55,no=56,missing=56
					55:[C_D_U_CATEGORY_UID_MACRO_MEAN_COEC<0.077747] yes=111,no=112,missing=111
						111:leaf=0.0016845
						112:leaf=0.00771306
					56:[C_D_U_KEYWORD_CATEGORY_MICRO_MEAN_COEC<0.095891] yes=113,no=114,missing=114
						113:leaf=0.0067062
						114:leaf=0.0114818
				28:[C_D_U_CATEGORY_UID_MACRO_MEAN_COEC<0.133435] yes=57,no=58,missing=57
					57:[D_TITLEMD5_COEC<0.095514] yes=115,no=116,missing=116
						115:leaf=0.00814789
						116:leaf=0.0120501
					58:[C_D_U_KEYWORD_UID_MACRO_MEAN_COEC<0.126469] yes=117,no=118,missing=118
						117:leaf=0.0129217
						118:leaf=0.0147267
			14:[C_D_U_KEYWORD_UID_MICRO_MEAN_COEC<0.085985] yes=29,no=30,missing=29
				29:[C_D_U_GROUPID_CATEGORY_MICRO_MEAN_COEC<0.190105] yes=59,no=60,missing=60
					59:[D_TITLEMD5_C<115.258] yes=119,no=120,missing=120
						119:leaf=0.0103615
						120:leaf=0.0127071
					60:[C_D_U_GROUPID_CATEGORY_MICRO_MEAN_COEC<0.24628] yes=121,no=122,missing=122
						121:leaf=0.014018
						122:leaf=0.0152666
				30:[C_D_U_TITLEMD5_CATEGORY_MICRO_MEAN_COEC<0.191807] yes=61,no=62,missing=62
					61:[C_D_U_CATEGORY_UID_MICRO_MEAN_COEC<0.203476] yes=123,no=124,missing=123
						123:leaf=0.0139986
						124:leaf=0.0152505
					62:[C_D_U_CATEGORY_UID_MICRO_MEAN_COEC<0.203476] yes=125,no=126,missing=125
						125:leaf=0.0154404
						126:leaf=0.0161132
booster[15]:
0:[C_D_U_GROUPID_CATEGORY_MICRO_MEAN_COEC<0.089937] yes=1,no=2,missing=1
	1:[C_D_U_CATEGORY_UID_MACRO_MEAN_COEC<0.095314] yes=3,no=4,missing=3
		3:[D_KEYWORD_MACRO_MEAN_COEC<0.10086] yes=7,no=8,missing=8
			7:[C_D_U_GROUPID_CATEGORY_MICRO_MEAN_COEC<0.049699] yes=15,no=16,missing=15
				15:[D_TITLEMD5_COEC<0.09149] yes=31,no=32,missing=31
					31:[C_D_U_KEYWORD_UID_MICRO_MEAN_COEC<0.062302] yes=63,no=64,missing=63
						63:leaf=-0.00432472
						64:leaf=0.00105868
					32:[D_KEYWORD_MACRO_MEAN_COEC<0.072795] yes=65,no=66,missing=66
						65:leaf=-0.00100976
						66:leaf=0.00389151
				16:[C_D_U_KEYWORD_UID_MICRO_MEAN_COEC<0.088032] yes=33,no=34,missing=33
					33:[D_TITLEMD5_C<44.7358] yes=67,no=68,missing=67
						67:leaf=0.000594612
						68:leaf=0.00427302
					34:[C_D_U_KEYWORD_UID_MACRO_MEAN_COEC<0.080457] yes=69,no=70,missing=70
						69:leaf=0.00590907
						70:leaf=0.00886612
			8:[D_TITLEMD5_COEC<0.190668] yes=17,no=18,missing=17
				17:[D_TITLEMD5_COEC<0.150514] yes=35,no=36,missing=36
					35:[D_CATEGORY_MEAN_C<24973.3] yes=71,no=72,missing=71
						71:leaf=0.00763272
						72:leaf=0.00249506
					36:[D_CATEGORY_MAX_C<19592.8] yes=73,no=74,missing=73
						73:leaf=0.0101967
						74:leaf=0.00797019
				18:[D_GROUPID_COEC<0.23551] yes=37,no=38,missing=37
					37:[D_KEYWORD_MICRO_MAX_COEC<0.202437] yes=75,no=76,missing=75
						75:leaf=0.0104429
						76:leaf=0.0123842
					38:[D_KEYWORD_MICRO_MEAN_COEC<0.091896] yes=77,no=78,missing=78
						77:leaf=0.00371006
						78:leaf=0.0142182
		4:[C_D_U_KEYWORD_UID_MICRO_MEAN_COEC<0.128102] yes=9,no=10,missing=9
			9:[D_TITLEMD5_COEC<0.028798] yes=19,no=20,missing=19
				19:[KW_REL<0.001157] yes=39,no=40,missing=40
					39:[U_CATEGORY_MICRO_MEAN_COEC<0.083012] yes=79,no=80,missing=79
						79:leaf=-0.00288382
						80:leaf=0.0013305
					40:[C_D_U_KEYWORD_UID_MACRO_MEAN_COEC<0.048476] yes=81,no=82,missing=82
						81:leaf=0.00229227
						82:leaf=0.00555239
				20:[D_TITLEMD5_C<44.7358] yes=41,no=42,missing=42
					41:[CAT_REL<0.004984] yes=83,no=84,missing=84
						83:leaf=0.00339368
						84:leaf=0.00672802
					42:[D_TITLEMD5_COEC<0.150514] yes=85,no=86,missing=86
						85:leaf=0.00843672
						86:leaf=0.0131518
			10:[C_D_U_KEYWORD_UID_MACRO_MEAN_COEC<0.132777] yes=21,no=22,missing=22
				21:[D_TITLEMD5_COEC<0.035096] yes=43,no=44,missing=44
					43:[U_CATEGORY_MICRO_MEAN_COEC<0.081227] yes=87,no=88,missing=87
						87:leaf=0.00222588
						88:leaf=0.00686741
					44:[C_D_U_GROUPID_CATEGORY_MICRO_MEAN_COEC<0.053875] yes=89,no=90,missing=90
						89:leaf=0.00837461
						90:leaf=0.0107764
				22:[C_D_U_CATEGORY_UID_MACRO_MEAN_COEC<0.224447] yes=45,no=46,missing=46
					45:[M_D_U_KEYWORD_KEYWORD_MACRO_MEAN_COEC<0.000103] yes=91,no=92,missing=91
						91:leaf=0.00940157
						92:leaf=0.011465
					46:[C_D_U_CATEGORY_UID_MAX_C<1.04836] yes=93,no=94,missing=94
						93:leaf=0.0110147
						94:leaf=0.0130575
	2:[C_D_U_TITLEMD5_CATEGORY_MICRO_MEAN_COEC<0.144904] yes=5,no=6,missing=5
		5:[C_D_U_KEYWORD_UID_MICRO_MEAN_COEC<0.080527] yes=11,no=12,missing=11
			11:[D_TITLEMD5_C<69.5591] yes=23,no=24,missing=23
				23:[CAT_REL<0.001074] yes=47,no=48,missing=48
					47:[D_TITLEMD5_COEC<0.08838] yes=95,no=96,missing=95
						95:leaf=0.000549063
						96:leaf=0.00465717
					48:[C_D_U_CATEGORY_UID_MACRO_MEAN_COEC<0.112633] yes=97,no=98,missing=97
						97:leaf=0.00604248
						98:leaf=0.00982572
				24:[CAT_REL<0.001074] yes=49,no=50,missing=50
					49:[C_D_U_GROUPID_CATEGORY_MICRO_MEAN_COEC<0.112178] yes=99,no=100,missing=100
						99:leaf=0.0062143
						100:leaf=0.00897992
					50:[C_D_U_TITLEMD5_CATEGORY_MICRO_MEAN_COEC<0.114747] yes=101,no=102,missing=102
						101:leaf=0.00954796
						102:leaf=0.0114984
			12:[C_D_U_CATEGORY_UID_MICRO_MEAN_COEC<0.182694] yes=25,no=26,missing=25
				25:[D_TITLEMD5_C<39.3287] yes=51,no=52,missing=52
					51:[CAT_REL<0.003081] yes=103,no=104,missing=104
						103:leaf=0.0066158
						104:leaf=0.0103759
					52:[CAT_REL<0.001074] yes=105,no=106,missing=106
						105:leaf=0.0106695
						106:leaf=0.0126067
				26:[C_D_U_KEYWORD_UID_MACRO_MEAN_COEC<0.105898] yes=53,no=54,missing=54
					53:[D_TITLEMD5_C<44.7358] yes=107,no=108,missing=107
						107:leaf=0.0116808
						108:leaf=0.0132237
					54:[C_D_U_CATEGORY_UID_MACRO_MEAN_COEC<0.336518] yes=109,no=110,missing=110
						109:leaf=0.0134848
						110:leaf=0.0145327
		6:[C_D_U_TITLEMD5_CATEGORY_MEAN_C<0.153209] yes=13,no=14,missing=14
			13:[C_D_U_KEYWORD_UID_MICRO_MEAN_COEC<0.084265] yes=27,no=28,missing=27
				27:[D_TITLEMD5_COEC<0.106608] yes=55,no=56,missing=56
					55:[C_D_U_CATEGORY_UID_MACRO_MEAN_COEC<0.074419] yes=111,no=112,missing=111
						111:leaf=0.00200238
						112:leaf=0.00774412
					56:[C_D_U_KEYWORD_CATEGORY_MICRO_MEAN_COEC<0.09606] yes=113,no=114,missing=114
						113:leaf=0.00687978
						114:leaf=0.0114944
				28:[C_D_U_CATEGORY_UID_MACRO_MEAN_COEC<0.135024] yes=57,no=58,missing=57
					57:[D_TITLEMD5_COEC<0.094389] yes=115,no=116,missing=116
						115:leaf=0.008203
						116:leaf=0.0120315
					58:[C_D_U_KEYWORD_UID_MACRO_MEAN_COEC<0.12568] yes=117,no=118,missing=118
						117:leaf=0.0128823
						118:leaf=0.0146506
			14:[C_D_U_KEYWORD_UID_MICRO_MEAN_COEC<0.080527] yes=29,no=30,missing=29
				29:[C_D_U_GROUPID_CATEGORY_MICRO_MEAN_COEC<0.190358] yes=59,no=60,missing=60
					59:[D_TITLEMD5_C<116.169] yes=119,no=120,missing=120
						119:leaf=0.0102972
						120:leaf=0.0125807
					60:[C_D_U_GROUPID_CATEGORY_MICRO_MEAN_COEC<0.245205] yes=121,no=122,missing=122
						121:leaf=0.0138943
						122:leaf=0.0151417
				30:[C_D_U_TITLEMD5_CATEGORY_MICRO_MEAN_COEC<0.191822] yes=61,no=62,missing=62
					61:[C_D_U_CATEGORY_UID_MICRO_MEAN_COEC<0.220101] yes=123,no=124,missing=123
						123:leaf=0.0139192
						124:leaf=0.0151748
					62:[C_D_U_CATEGORY_UID_MICRO_MEAN_COEC<0.202745] yes=125,no=126,missing=125
						125:leaf=0.0153152
						126:leaf=0.0159961
booster[16]:
0:[C_D_U_GROUPID_CATEGORY_MICRO_MEAN_COEC<0.089363] yes=1,no=2,missing=1
	1:[C_D_U_CATEGORY_UID_MACRO_MEAN_COEC<0.112853] yes=3,no=4,missing=3
		3:[D_KEYWORD_MACRO_MEAN_COEC<0.101602] yes=7,no=8,missing=8
			7:[C_D_U_GROUPID_CATEGORY_MICRO_MEAN_COEC<0.049595] yes=15,no=16,missing=15
				15:[D_GROUPID_COEC<0.09557] yes=31,no=32,missing=31
					31:[C_D_U_KEYWORD_UID_MACRO_MEAN_COEC<0.034378] yes=63,no=64,missing=63
						63:leaf=-0.0039604
						64:leaf=0.00195743
					32:[D_TITLEMD5_C<569.707] yes=65,no=66,missing=65
						65:leaf=0.00214335
						66:leaf=0.00650706
				16:[C_D_U_KEYWORD_UID_MICRO_MEAN_COEC<0.075171] yes=33,no=34,missing=33
					33:[CAT_REL<0.000851] yes=67,no=68,missing=68
						67:leaf=0.000666908
						68:leaf=0.00427112
					34:[C_D_U_KEYWORD_UID_MACRO_MEAN_COEC<0.08444] yes=69,no=70,missing=70
						69:leaf=0.00578339
						70:leaf=0.00886836
			8:[D_TITLEMD5_COEC<0.204171] yes=17,no=18,missing=17
				17:[D_GROUPID_COEC<0.152311] yes=35,no=36,missing=36
					35:[D_CATEGORY_MEAN_C<25953] yes=71,no=72,missing=71
						71:leaf=0.00773633
						72:leaf=0.00289619
					36:[C_D_U_KEYWORD_UID_MEAN_C<0.000196] yes=73,no=74,missing=73
						73:leaf=0.00937605
						74:leaf=0.012526
				18:[C_D_U_KEYWORD_CATEGORY_MICRO_MEAN_COEC<0.11349] yes=37,no=38,missing=38
					37:[D_KEYWORD_MICRO_MEAN_COEC<0.130767] yes=75,no=76,missing=76
						75:leaf=0.00344146
						76:leaf=0.0139959
					38:[D_CATEGORY_MAX_C<31939.9] yes=77,no=78,missing=77
						77:leaf=0.0140687
						78:leaf=0.0121899
		4:[C_D_U_KEYWORD_UID_MACRO_MEAN_COEC<0.088963] yes=9,no=10,missing=9
			9:[D_TITLEMD5_COEC<0.028973] yes=19,no=20,missing=19
				19:[U_CATEGORY_MICRO_MEAN_COEC<0.081496] yes=39,no=40,missing=39
					39:[D_PUBLISHER_COEC<0.039405] yes=79,no=80,missing=80
						79:leaf=-0.00402105
						80:leaf=0.00130046
					40:[CAT_REL<0.016588] yes=81,no=82,missing=82
						81:leaf=0.000433795
						82:leaf=0.00478566
				20:[D_TITLEMD5_C<43.5183] yes=41,no=42,missing=42
					41:[C_D_U_KEYWORD_UID_MICRO_MEAN_COEC<0.062069] yes=83,no=84,missing=83
						83:leaf=0.00461515
						84:leaf=0.00784604
					42:[D_TITLEMD5_COEC<0.14791] yes=85,no=86,missing=86
						85:leaf=0.00901304
						86:leaf=0.0133249
			10:[C_D_U_CATEGORY_UID_MACRO_MEAN_COEC<0.23307] yes=21,no=22,missing=22
				21:[D_TITLEMD5_COEC<0.062007] yes=43,no=44,missing=44
					43:[M_D_U_KEYWORD_KEYWORD_MICRO_MAX_COEC<0.077921] yes=87,no=88,missing=87
						87:leaf=0.00624636
						88:leaf=0.00923179
					44:[M_D_U_KEYWORD_KEYWORD_MACRO_MEAN_COEC<0.000104] yes=89,no=90,missing=89
						89:leaf=0.00986865
						90:leaf=0.0115644
				22:[C_D_U_CATEGORY_UID_MEAN_C<1.18638] yes=45,no=46,missing=46
					45:[C_D_U_GROUPID_CATEGORY_MICRO_MEAN_COEC<0.049595] yes=91,no=92,missing=92
						91:leaf=0.0080892
						92:leaf=0.0113474
					46:[C_D_U_CATEGORY_UID_MACRO_MEAN_COEC<0.40705] yes=93,no=94,missing=94
						93:leaf=0.0118214
						94:leaf=0.0135632
	2:[C_D_U_TITLEMD5_CATEGORY_MICRO_MEAN_COEC<0.144532] yes=5,no=6,missing=5
		5:[C_D_U_KEYWORD_UID_MICRO_MEAN_COEC<0.085972] yes=11,no=12,missing=11
			11:[D_TITLEMD5_C<51.1449] yes=23,no=24,missing=23
				23:[CAT_REL<0.000851] yes=47,no=48,missing=48
					47:[D_TITLEMD5_COEC<0.079806] yes=95,no=96,missing=95
						95:leaf=-0.000533559
						96:leaf=0.00379542
					48:[C_D_U_CATEGORY_UID_MACRO_MEAN_COEC<0.073417] yes=97,no=98,missing=98
						97:leaf=0.0048634
						98:leaf=0.00815192
				24:[CAT_REL<0.000851] yes=49,no=50,missing=50
					49:[D_TITLEMD5_C<289.914] yes=99,no=100,missing=100
						99:leaf=0.00599204
						100:leaf=0.00880378
					50:[C_D_U_TITLEMD5_CATEGORY_MICRO_MEAN_COEC<0.114562] yes=101,no=102,missing=102
						101:leaf=0.00932659
						102:leaf=0.0112941
			12:[C_D_U_CATEGORY_UID_MICRO_MEAN_COEC<0.202156] yes=25,no=26,missing=25
				25:[C_D_U_KEYWORD_UID_MACRO_MEAN_COEC<0.088963] yes=51,no=52,missing=52
					51:[D_TITLEMD5_C<43.5183] yes=103,no=104,missing=103
						103:leaf=0.00832131
						104:leaf=0.0110389
					52:[C_D_U_TITLEMD5_CATEGORY_MICRO_MEAN_COEC<0.104693] yes=105,no=106,missing=106
						105:leaf=0.0109682
						106:leaf=0.01264
				26:[C_D_U_KEYWORD_UID_MACRO_MEAN_COEC<0.119046] yes=53,no=54,missing=54
					53:[D_TITLEMD5_C<30.4026] yes=107,no=108,missing=107
						107:leaf=0.0116153
						108:leaf=0.0132015
					54:[C_D_U_TITLEMD5_CATEGORY_MICRO_MEAN_COEC<0.115863] yes=109,no=110,missing=109
						109:leaf=0.0134982
						110:leaf=0.0144845
		6:[C_D_U_TITLEMD5_CATEGORY_MEAN_C<0.156187] yes=13,no=14,missing=14
			13:[C_D_U_KEYWORD_UID_MICRO_MEAN_COEC<0.078827] yes=27,no=28,missing=27
				27:[D_TITLEMD5_COEC<0.090801] yes=55,no=56,missing=56
					55:[C_D_U_CATEGORY_UID_MACRO_MEAN_COEC<0.072355] yes=111,no=112,missing=111
						111:leaf=0.000850202
						112:leaf=0.00630688
					56:[C_D_U_KEYWORD_CATEGORY_MICRO_MEAN_COEC<0.096008] yes=113,no=114,missing=114
						113:leaf=0.00637937
						114:leaf=0.0109942
				28:[C_D_U_CATEGORY_UID_MACRO_MEAN_COEC<0.10836] yes=57,no=58,missing=57
					57:[D_TITLEMD5_COEC<0.094364] yes=115,no=116,missing=116
						115:leaf=0.00751508
						116:leaf=0.0116674
					58:[C_D_U_KEYWORD_UID_MACRO_MEAN_COEC<0.126477] yes=117,no=118,missing=118
						117:leaf=0.0126256
						118:leaf=0.0144839
			14:[C_D_U_KEYWORD_UID_MICRO_MEAN_COEC<0.078827] yes=29,no=30,missing=29
				29:[C_D_U_GROUPID_CATEGORY_MICRO_MEAN_COEC<0.190257] yes=59,no=60,missing=60
					59:[D_TITLEMD5_C<120.621] yes=119,no=120,missing=120
						119:leaf=0.0102372
						120:leaf=0.0124619
					60:[C_D_U_TITLEMD5_CATEGORY_MICRO_MEAN_COEC<0.240111] yes=121,no=122,missing=122
						121:leaf=0.013719
						122:leaf=0.0149434
				30:[C_D_U_TITLEMD5_CATEGORY_MICRO_MEAN_COEC<0.193735] yes=61,no=62,missing=62
					61:[C_D_U_CATEGORY_UID_MICRO_MEAN_COEC<0.202156] yes=123,no=124,missing=123
						123:leaf=0.0137553
						124:leaf=0.0150157
					62:[C_D_U_CATEGORY_UID_MICRO_MEAN_COEC<0.202156] yes=125,no=126,missing=125
						125:leaf=0.0152041
						126:leaf=0.0158821
booster[17]:
0:[C_D_U_GROUPID_CATEGORY_MICRO_MEAN_COEC<0.082937] yes=1,no=2,missing=1
	1:[D_KEYWORD_MACRO_MEAN_COEC<0.100598] yes=3,no=4,missing=4
		3:[C_D_U_KEYWORD_UID_MICRO_MEAN_COEC<0.073878] yes=7,no=8,missing=7
			7:[D_TITLEMD5_COEC<0.035212] yes=15,no=16,missing=15
				15:[CAT_REL<0.001078] yes=31,no=32,missing=32
					31:[D_TITLEMD5_COEC<0.019101] yes=63,no=64,missing=63
						63:leaf=-0.00911303
						64:leaf=-0.00613142
					32:[C_D_U_CATEGORY_UID_MACRO_MEAN_COEC<0.085537] yes=65,no=66,missing=65
						65:leaf=-0.00385203
						66:leaf=0.00166704
				16:[CAT_REL<0.001078] yes=33,no=34,missing=34
					33:[D_TITLEMD5_C<179.21] yes=67,no=68,missing=68
						67:leaf=-0.00207651
						68:leaf=0.00297308
					34:[D_TITLEMD5_C<27.2035] yes=69,no=70,missing=70
						69:leaf=0.00151565
						70:leaf=0.00530498
			8:[C_D_U_CATEGORY_UID_MACRO_MEAN_COEC<0.123946] yes=17,no=18,missing=17
				17:[D_TITLEMD5_COEC<0.040066] yes=35,no=36,missing=36
					35:[CAT_REL<0.001078] yes=71,no=72,missing=72
						71:leaf=-0.00265146
						72:leaf=0.00310583
					36:[C_D_U_KEYWORD_UID_MACRO_MEAN_COEC<0.076752] yes=73,no=74,missing=74
						73:leaf=0.00440108
						74:leaf=0.00779611
				18:[C_D_U_KEYWORD_UID_MACRO_MEAN_COEC<0.110775] yes=37,no=38,missing=38
					37:[D_TITLEMD5_COEC<0.026761] yes=75,no=76,missing=76
						75:leaf=0.00404175
						76:leaf=0.00871667
					38:[C_D_U_CATEGORY_UID_MACRO_MEAN_COEC<0.286678] yes=77,no=78,missing=78
						77:leaf=0.0102075
						78:leaf=0.0120317
		4:[D_TITLEMD5_COEC<0.193394] yes=9,no=10,missing=9
			9:[D_TITLEMD5_COEC<0.153576] yes=19,no=20,missing=20
				19:[C_D_U_KEYWORD_UID_MICRO_MEAN_COEC<0.103169] yes=39,no=40,missing=39
					39:[D_KEYWORD_MAX_C<13.6818] yes=79,no=80,missing=80
						79:leaf=0.0123324
						80:leaf=0.00495663
					40:[D_KEYWORD_MEAN_C<28.8213] yes=81,no=82,missing=82
						81:leaf=0.0154477
						82:leaf=0.0103189
				20:[C_D_U_KEYWORD_UID_MEAN_C<0.000187] yes=41,no=42,missing=41
					41:[U_CAT_LEN<11] yes=83,no=84,missing=84
						83:leaf=0.00881184
						84:leaf=0.0114076
					42:[C_D_U_CATEGORY_UID_MICRO_MEAN_COEC<0.21727] yes=85,no=86,missing=86
						85:leaf=0.0119673
						86:leaf=0.0137605
			10:[D_GROUPID_COEC<0.234185] yes=21,no=22,missing=21
				21:[C_D_U_KEYWORD_UID_MEAN_C<0.000187] yes=43,no=44,missing=43
					43:[D_KEYWORD_MICRO_MAX_COEC<0.201246] yes=87,no=88,missing=88
						87:leaf=0.010175
						88:leaf=0.0120349
					44:[C_D_U_KEYWORD_CATEGORY_MICRO_MEAN_COEC<0.109007] yes=89,no=90,missing=90
						89:leaf=0.00849901
						90:leaf=0.0144781
				22:[D_KEYWORD_MICRO_MEAN_COEC<0.088622] yes=45,no=46,missing=46
					45:[C_D_U_KEYWORD_UID_MICRO_MEAN_COEC<0.073878] yes=91,no=92,missing=91
						91:leaf=0.00123446
						92:leaf=0.00970335
					46:[D_CATEGORY_MEAN_C<15933.7] yes=93,no=94,missing=93
						93:leaf=0.0144974
						94:leaf=0.0132548
	2:[C_D_U_GROUPID_CATEGORY_MICRO_MEAN_COEC<0.130578] yes=5,no=6,missing=6
		5:[C_D_U_KEYWORD_UID_MICRO_MEAN_COEC<0.097535] yes=11,no=12,missing=11
			11:[D_TITLEMD5_C<39.7608] yes=23,no=24,missing=23
				23:[C_D_U_CATEGORY_UID_MACRO_MEAN_COEC<0.078539] yes=47,no=48,missing=47
					47:[KW_REL<0.001979] yes=95,no=96,missing=96
						95:leaf=0.0015126
						96:leaf=0.00585682
					48:[C_D_U_CATEGORY_UID_MACRO_MEAN_COEC<0.179936] yes=97,no=98,missing=98
						97:leaf=0.00689368
						98:leaf=0.00953504
				24:[CAT_REL<0.001078] yes=49,no=50,missing=50
					49:[C_D_U_TITLEMD5_CATEGORY_MICRO_MEAN_COEC<0.10396] yes=99,no=100,missing=100
						99:leaf=0.00493036
						100:leaf=0.00777561
					50:[C_D_U_CATEGORY_UID_MICRO_MEAN_COEC<0.15198] yes=101,no=102,missing=101
						101:leaf=0.00927979
						102:leaf=0.0119071
			12:[C_D_U_CATEGORY_UID_MACRO_MEAN_COEC<0.158298] yes=25,no=26,missing=25
				25:[KW_REL<0.001404] yes=51,no=52,missing=52
					51:[D_TITLEMD5_C<30.9986] yes=103,no=104,missing=104
						103:leaf=0.00634066
						104:leaf=0.00973721
					52:[C_D_U_KEYWORD_UID_MICRO_MEAN_COEC<0.192862] yes=105,no=106,missing=106
						105:leaf=0.0104238
						106:leaf=0.0121634
				26:[C_D_U_KEYWORD_UID_MICRO_MEAN_COEC<0.231737] yes=53,no=54,missing=54
					53:[C_D_U_TITLEMD5_CATEGORY_MICRO_MEAN_COEC<0.10396] yes=107,no=108,missing=107
						107:leaf=0.0114248
						108:leaf=0.0127458
					54:[KW_REL<0.001183] yes=109,no=110,missing=110
						109:leaf=0.0124716
						110:leaf=0.013859
		6:[C_D_U_CATEGORY_UID_MICRO_MEAN_COEC<0.143981] yes=13,no=14,missing=13
			13:[C_D_U_TITLEMD5_CATEGORY_MEAN_C<0.252065] yes=27,no=28,missing=27
				27:[C_D_U_KEYWORD_CATEGORY_MICRO_MEAN_COEC<0.084492] yes=55,no=56,missing=56
					55:[D_GROUPID_C<2.98502] yes=111,no=112,missing=112
						111:leaf=0.00054096
						112:leaf=0.00653597
					56:[D_TITLEMD5_COEC<0.127175] yes=113,no=114,missing=113
						113:leaf=0.00822309
						114:leaf=0.0119909
				28:[C_D_U_TITLEMD5_CATEGORY_MICRO_MEAN_COEC<0.183458] yes=57,no=58,missing=58
					57:[C_D_U_KEYWORD_UID_MICRO_MEAN_COEC<0.073878] yes=115,no=116,missing=115
						115:leaf=0.0111446
						116:leaf=0.0132199
					58:[C_D_U_GROUPID_CATEGORY_MICRO_MEAN_COEC<0.233994] yes=117,no=118,missing=118
						117:leaf=0.0136227
						118:leaf=0.0149399
			14:[C_D_U_TITLEMD5_CATEGORY_MICRO_MEAN_COEC<0.171958] yes=29,no=30,missing=29
				29:[C_D_U_KEYWORD_UID_MICRO_MEAN_COEC<0.180507] yes=59,no=60,missing=59
					59:[D_TITLEMD5_C<21.3701] yes=119,no=120,missing=119
						119:leaf=0.0109333
						120:leaf=0.01342
					60:[C_D_U_CATEGORY_UID_MICRO_MEAN_COEC<0.334713] yes=121,no=122,missing=122
						121:leaf=0.0140379
						122:leaf=0.0148742
				30:[D_TITLEMD5_C<4.985] yes=61,no=62,missing=62
					61:[C_D_U_KEYWORD_UID_MACRO_MEAN_COEC<0.110775] yes=123,no=124,missing=123
						123:leaf=0.0108265
						124:leaf=0.0139275
					62:[C_D_U_TITLEMD5_CATEGORY_MICRO_MEAN_COEC<0.216987] yes=125,no=126,missing=126
						125:leaf=0.0149654
						126:leaf=0.0157063
booster[18]:
0:[C_D_U_GROUPID_CATEGORY_MICRO_MEAN_COEC<0.091795] yes=1,no=2,missing=1
	1:[C_D_U_CATEGORY_UID_MACRO_MEAN_COEC<0.097059] yes=3,no=4,missing=3
		3:[D_KEYWORD_MACRO_MEAN_COEC<0.100324] yes=7,no=8,missing=8
			7:[C_D_U_GROUPID_CATEGORY_MICRO_MEAN_COEC<0.054564] yes=15,no=16,missing=15
				15:[D_TITLEMD5_COEC<0.09463] yes=31,no=32,missing=31
					31:[C_D_U_KEYWORD_UID_MICRO_MEAN_COEC<0.060658] yes=63,no=64,missing=63
						63:leaf=-0.00392999
						64:leaf=0.00129736
					32:[D_KEYWORD_MACRO_MEAN_COEC<0.073839] yes=65,no=66,missing=66
						65:leaf=-0.000668358
						66:leaf=0.00400274
				16:[C_D_U_KEYWORD_UID_MICRO_MEAN_COEC<0.096177] yes=33,no=34,missing=33
					33:[CAT_REL<0.000859] yes=67,no=68,missing=68
						67:leaf=0.00116702
						68:leaf=0.00466355
					34:[CAT_REL<0.000859] yes=69,no=70,missing=70
						69:leaf=0.00583316
						70:leaf=0.00871323
			8:[D_TITLEMD5_COEC<0.200609] yes=17,no=18,missing=17
				17:[D_GROUPID_COEC<0.150808] yes=35,no=36,missing=36
					35:[D_CATEGORY_MEAN_C<26525] yes=71,no=72,missing=71
						71:leaf=0.00743621
						72:leaf=0.00259705
					36:[D_CATEGORY_MAX_C<19640.1] yes=73,no=74,missing=73
						73:leaf=0.00997193
						74:leaf=0.00812702
				18:[C_D_U_KEYWORD_CATEGORY_MEAN_C<0.145988] yes=37,no=38,missing=37
					37:[D_TITLEMD5_COEC<0.237401] yes=75,no=76,missing=76
						75:leaf=0.0120026
						76:leaf=0.0138939
					38:[D_TITLEMD5_C<2.70043] yes=77,no=78,missing=78
						77:leaf=0.00192136
						78:leaf=0.00881533
		4:[C_D_U_KEYWORD_UID_MACRO_MEAN_COEC<0.08052] yes=9,no=10,missing=9
			9:[D_GROUPID_COEC<0.032147] yes=19,no=20,missing=19
				19:[U_CATEGORY_MICRO_MEAN_COEC<0.078141] yes=39,no=40,missing=39
					39:[D_KEYWORD_MICRO_MAX_COEC<0.272601] yes=79,no=80,missing=80
						79:leaf=-0.00172767
						80:leaf=0.0134809
					40:[C_D_U_TITLEMD5_CATEGORY_MEAN_C<0.137283] yes=81,no=82,missing=81
						81:leaf=0.00283763
						82:leaf=0.00788618
				20:[D_TITLEMD5_C<74.4171] yes=41,no=42,missing=41
					41:[C_D_U_KEYWORD_UID_MICRO_MEAN_COEC<0.071071] yes=83,no=84,missing=83
						83:leaf=0.00499003
						84:leaf=0.00780623
					42:[D_TITLEMD5_COEC<0.163465] yes=85,no=86,missing=86
						85:leaf=0.00909466
						86:leaf=0.0135637
			10:[C_D_U_CATEGORY_UID_MACRO_MEAN_COEC<0.268071] yes=21,no=22,missing=22
				21:[D_TITLEMD5_COEC<0.061779] yes=43,no=44,missing=44
					43:[M_D_U_KEYWORD_KEYWORD_MICRO_MAX_COEC<0.077738] yes=87,no=88,missing=87
						87:leaf=0.00598487
						88:leaf=0.00898605
					44:[C_D_U_KEYWORD_UID_MICRO_MEAN_COEC<0.168492] yes=89,no=90,missing=90
						89:leaf=0.00953267
						90:leaf=0.0112566
				22:[C_D_U_CATEGORY_UID_MAX_C<1.16705] yes=45,no=46,missing=46
					45:[C_D_U_GROUPID_CATEGORY_MICRO_MEAN_COEC<0.049662] yes=91,no=92,missing=92
						91:leaf=0.00808884
						92:leaf=0.0112066
					46:[C_D_U_KEYWORD_UID_MACRO_MEAN_COEC<0.200945] yes=93,no=94,missing=94
						93:leaf=0.0117772
						94:leaf=0.0133844
	2:[C_D_U_TITLEMD5_CATEGORY_MICRO_MEAN_COEC<0.147725] yes=5,no=6,missing=5
		5:[C_D_U_KEYWORD_UID_MICRO_MEAN_COEC<0.093777] yes=11,no=12,missing=11
			11:[D_TITLEMD5_C<62.4715] yes=23,no=24,missing=23
				23:[CAT_REL<0.000859] yes=47,no=48,missing=48
					47:[C_D_U_CATEGORY_UID_MACRO_MEAN_COEC<0.125353] yes=95,no=96,missing=95
						95:leaf=0.00176604
						96:leaf=0.00784632
					48:[C_D_U_CATEGORY_UID_MACRO_MEAN_COEC<0.07146] yes=97,no=98,missing=98
						97:leaf=0.00528181
						98:leaf=0.00845861
				24:[CAT_REL<0.000859] yes=49,no=50,missing=50
					49:[C_D_U_TITLEMD5_CATEGORY_MICRO_MEAN_COEC<0.116249] yes=99,no=100,missing=100
						99:leaf=0.00637357
						100:leaf=0.00896714
					50:[C_D_U_TITLEMD5_CATEGORY_MICRO_MEAN_COEC<0.113962] yes=101,no=102,missing=102
						101:leaf=0.00934551
						102:leaf=0.0112872
			12:[C_D_U_CATEGORY_UID_MICRO_MEAN_COEC<0.202677] yes=25,no=26,missing=25
				25:[C_D_U_TITLEMD5_CATEGORY_MICRO_MEAN_COEC<0.113962] yes=51,no=52,missing=51
					51:[CAT_REL<0.002882] yes=103,no=104,missing=104
						103:leaf=0.00893604
						104:leaf=0.0110569
					52:[D_TITLEMD5_C<30.8342] yes=105,no=106,missing=106
						105:leaf=0.0101594
						106:leaf=0.0123501
				26:[C_D_U_KEYWORD_UID_MACRO_MEAN_COEC<0.112418] yes=53,no=54,missing=54
					53:[D_TITLEMD5_C<30.8342] yes=107,no=108,missing=107
						107:leaf=0.0114472
						108:leaf=0.0130641
					54:[C_D_U_TITLEMD5_CATEGORY_MICRO_MEAN_COEC<0.113962] yes=109,no=110,missing=109
						109:leaf=0.0132412
						110:leaf=0.0142408
		6:[C_D_U_TITLEMD5_CATEGORY_MEAN_C<0.11076] yes=13,no=14,missing=14
			13:[C_D_U_KEYWORD_UID_MICRO_MEAN_COEC<0.0874] yes=27,no=28,missing=27
				27:[D_TITLEMD5_COEC<0.106416] yes=55,no=56,missing=56
					55:[C_D_U_CATEGORY_UID_MACRO_MEAN_COEC<0.058553] yes=111,no=112,missing=111
						111:leaf=0.000993905
						112:leaf=0.00675492
					56:[C_D_U_KEYWORD_CATEGORY_MICRO_MEAN_COEC<0.095987] yes=113,no=114,missing=114
						113:leaf=0.00615029
						114:leaf=0.0110054
				28:[C_D_U_CATEGORY_UID_MACRO_MEAN_COEC<0.136287] yes=57,no=58,missing=57
					57:[D_TITLEMD5_COEC<0.093605] yes=115,no=116,missing=116
						115:leaf=0.0074141
						116:leaf=0.0114885
					58:[C_D_U_KEYWORD_UID_MACRO_MEAN_COEC<0.112418] yes=117,no=118,missing=118
						117:leaf=0.0122056
						118:leaf=0.0141188
			14:[C_D_U_KEYWORD_UID_MICRO_MEAN_COEC<0.076142] yes=29,no=30,missing=29
				29:[C_D_U_GROUPID_CATEGORY_MICRO_MEAN_COEC<0.194865] yes=59,no=60,missing=60
					59:[D_TITLEMD5_C<104.953] yes=119,no=120,missing=120
						119:leaf=0.00985307
						120:leaf=0.01236
					60:[D_TITLEMD5_C<104.953] yes=121,no=122,missing=122
						121:leaf=0.0121806
						122:leaf=0.0142705
				30:[C_D_U_TITLEMD5_CATEGORY_MICRO_MEAN_COEC<0.206139] yes=61,no=62,missing=62
					61:[C_D_U_CATEGORY_UID_MICRO_MEAN_COEC<0.202677] yes=123,no=124,missing=123
						123:leaf=0.0136574
						124:leaf=0.0148818
					62:[C_D_U_CATEGORY_UID_MICRO_MEAN_COEC<0.25831] yes=125,no=126,missing=125
						125:leaf=0.015136
						126:leaf=0.0157689
booster[19]:
0:[C_D_U_GROUPID_CATEGORY_MICRO_MEAN_COEC<0.085894] yes=1,no=2,missing=1
	1:[C_D_U_CATEGORY_UID_MACRO_MEAN_COEC<0.113571] yes=3,no=4,missing=3
		3:[D_KEYWORD_MACRO_MEAN_COEC<0.101823] yes=7,no=8,missing=8
			7:[D_TITLEMD5_COEC<0.035081] yes=15,no=16,missing=15
				15:[C_D_U_KEYWORD_UID_MACRO_MEAN_COEC<0.032414] yes=31,no=32,missing=31
					31:[U_CATEGORY_MICRO_MEAN_COEC<0.075379] yes=63,no=64,missing=63
						63:leaf=-0.00802719
						64:leaf=-0.00393521
					32:[CAT_REL<0.001044] yes=65,no=66,missing=66
						65:leaf=-0.00278414
						66:leaf=0.00255783
				16:[C_D_U_KEYWORD_UID_MICRO_MEAN_COEC<0.057972] yes=33,no=34,missing=33
					33:[D_TITLEMD5_C<122.954] yes=67,no=68,missing=68
						67:leaf=-0.00109674
						68:leaf=0.00292051
					34:[C_D_U_KEYWORD_UID_MACRO_MEAN_COEC<0.066276] yes=69,no=70,missing=70
						69:leaf=0.00385059
						70:leaf=0.00726138
			8:[D_TITLEMD5_COEC<0.204605] yes=17,no=18,missing=17
				17:[D_TITLEMD5_COEC<0.14569] yes=35,no=36,missing=36
					35:[D_KEYWORD_MEAN_C<39.2459] yes=71,no=72,missing=72
						71:leaf=0.0121382
						72:leaf=0.00440665
					36:[D_CATEGORY_MAX_C<9234.64] yes=73,no=74,missing=73
						73:leaf=0.0100628
						74:leaf=0.00832016
				18:[C_D_U_KEYWORD_CATEGORY_MEAN_C<0.145743] yes=37,no=38,missing=37
					37:[D_TITLEMD5_COEC<0.238082] yes=75,no=76,missing=76
						75:leaf=0.0120629
						76:leaf=0.0138209
					38:[M_D_U_KEYWORD_KEYWORD_MICRO_MAX_COEC<0.112048] yes=77,no=78,missing=77
						77:leaf=0.00122367
						78:leaf=0.00903317
		4:[C_D_U_KEYWORD_UID_MACRO_MEAN_COEC<0.07968] yes=9,no=10,missing=9
			9:[D_TITLEMD5_COEC<0.028782] yes=19,no=20,missing=19
				19:[CAT_REL<0.019898] yes=39,no=40,missing=40
					39:[D_KEYWORD_MICRO_MEAN_COEC<0.166839] yes=79,no=80,missing=80
						79:leaf=-0.00171045
						80:leaf=0.0121619
					40:[C_D_U_KEYWORD_UID_MACRO_MEAN_COEC<0.028115] yes=81,no=82,missing=81
						81:leaf=0.00143136
						82:leaf=0.00508918
				20:[D_TITLEMD5_C<72.1534] yes=41,no=42,missing=42
					41:[C_D_U_GROUPID_CATEGORY_MICRO_MEAN_COEC<0.045256] yes=83,no=84,missing=83
						83:leaf=0.00469932
						84:leaf=0.00758705
					42:[D_TITLEMD5_COEC<0.159974] yes=85,no=86,missing=86
						85:leaf=0.00887674
						86:leaf=0.0133583
			10:[C_D_U_KEYWORD_UID_MICRO_MEAN_COEC<0.193699] yes=21,no=22,missing=22
				21:[D_TITLEMD5_COEC<0.059365] yes=43,no=44,missing=44
					43:[CAT_REL<0.001044] yes=87,no=88,missing=88
						87:leaf=0.00398263
						88:leaf=0.00794116
					44:[CAT_REL<0.009908] yes=89,no=90,missing=90
						89:leaf=0.00890342
						90:leaf=0.0105198
				22:[C_D_U_CATEGORY_UID_MEAN_C<2.00996] yes=45,no=46,missing=46
					45:[C_D_U_GROUPID_CATEGORY_MICRO_MEAN_COEC<0.038844] yes=91,no=92,missing=92
						91:leaf=0.00782239
						92:leaf=0.0109122
					46:[C_D_U_CATEGORY_UID_MACRO_MEAN_COEC<0.373664] yes=93,no=94,missing=94
						93:leaf=0.0113753
						94:leaf=0.0135138
	2:[C_D_U_TITLEMD5_CATEGORY_MICRO_MEAN_COEC<0.13685] yes=5,no=6,missing=5
		5:[C_D_U_KEYWORD_UID_MICRO_MEAN_COEC<0.083183] yes=11,no=12,missing=11
			11:[D_TITLEMD5_C<61.883] yes=23,no=24,missing=23
				23:[CAT_REL<0.001044] yes=47,no=48,missing=48
					47:[C_D_U_CATEGORY_UID_MACRO_MAX_COEC<0.063021] yes=95,no=96,missing=96
						95:leaf=-0.000350348
						96:leaf=0.00374797
					48:[C_D_U_CATEGORY_UID_MACRO_MEAN_COEC<0.081754] yes=97,no=98,missing=98
						97:leaf=0.00460934
						98:leaf=0.00782528
				24:[CAT_REL<0.001044] yes=49,no=50,missing=50
					49:[D_TITLEMD5_C<364.124] yes=99,no=100,missing=100
						99:leaf=0.00572294
						100:leaf=0.00840384
					50:[U_CAT_LEN<12] yes=101,no=102,missing=102
						101:leaf=0.008144
						102:leaf=0.0104533
			12:[C_D_U_CATEGORY_UID_MACRO_MEAN_COEC<0.158356] yes=25,no=26,missing=25
				25:[C_D_U_KEYWORD_UID_MACRO_MEAN_COEC<0.07968] yes=51,no=52,missing=52
					51:[D_TITLEMD5_C<49.1981] yes=103,no=104,missing=103
						103:leaf=0.00741511
						104:leaf=0.0102417
					52:[C_D_U_TITLEMD5_CATEGORY_MICRO_MEAN_COEC<0.10615] yes=105,no=106,missing=106
						105:leaf=0.0104048
						106:leaf=0.0120303
				26:[C_D_U_KEYWORD_UID_MICRO_MEAN_COEC<0.201239] yes=53,no=54,missing=54
					53:[D_TITLEMD5_C<27.1314] yes=107,no=108,missing=107
						107:leaf=0.0106195
						108:leaf=0.012344
					54:[CAT_REL<0.001044] yes=109,no=110,missing=110
						109:leaf=0.0123834
						110:leaf=0.0135845
		6:[C_D_U_CATEGORY_UID_MICRO_MEAN_COEC<0.144263] yes=13,no=14,missing=13
			13:[D_TITLEMD5_C<30.6523] yes=27,no=28,missing=28
				27:[C_D_U_KEYWORD_CATEGORY_MICRO_MEAN_COEC<0.092938] yes=55,no=56,missing=56
					55:[KW_REL<0.001312] yes=111,no=112,missing=112
						111:leaf=0.00259935
						112:leaf=0.00802042
					56:[D_TITLEMD5_COEC<0.14569] yes=113,no=114,missing=114
						113:leaf=0.00892853
						114:leaf=0.0125796
				28:[C_D_U_GROUPID_CATEGORY_MICRO_MEAN_COEC<0.181268] yes=57,no=58,missing=58
					57:[C_D_U_KEYWORD_UID_MICRO_MEAN_COEC<0.074678] yes=115,no=116,missing=115
						115:leaf=0.0110641
						116:leaf=0.0130739
					58:[C_D_U_TITLEMD5_CATEGORY_MICRO_MEAN_COEC<0.232775] yes=117,no=118,missing=118
						117:leaf=0.0133992
						118:leaf=0.0147185
			14:[C_D_U_GROUPID_CATEGORY_MICRO_MEAN_COEC<0.172144] yes=29,no=30,missing=30
				29:[C_D_U_KEYWORD_UID_MICRO_MEAN_COEC<0.167476] yes=59,no=60,missing=59
					59:[D_TITLEMD5_C<20.5735] yes=119,no=120,missing=120
						119:leaf=0.0108794
						120:leaf=0.013313
					60:[KW_REL<0.00219] yes=121,no=122,missing=122
						121:leaf=0.0138633
						122:leaf=0.0147185
				30:[D_TITLEMD5_C<7.96005] yes=61,no=62,missing=62
					61:[C_D_U_KEYWORD_UID_MACRO_MEAN_COEC<0.101231] yes=123,no=124,missing=123
						123:leaf=0.0111719
						124:leaf=0.0139372
					62:[C_D_U_TITLEMD5_CATEGORY_MICRO_MEAN_COEC<0.219079] yes=125,no=126,missing=126
						125:leaf=0.0147841
						126:leaf=0.0155319
booster[20]:
0:[C_D_U_GROUPID_CATEGORY_MICRO_MEAN_COEC<0.091672] yes=1,no=2,missing=1
	1:[C_D_U_KEYWORD_UID_MICRO_MEAN_COEC<0.092963] yes=3,no=4,missing=3
		3:[D_KEYWORD_MACRO_MEAN_COEC<0.099428] yes=7,no=8,missing=8
			7:[C_D_U_GROUPID_CATEGORY_MICRO_MEAN_COEC<0.043912] yes=15,no=16,missing=15
				15:[D_GROUPID_COEC<0.095745] yes=31,no=32,missing=31
					31:[C_D_U_CATEGORY_UID_MACRO_MEAN_COEC<0.059909] yes=63,no=64,missing=63
						63:leaf=-0.00429298
						64:leaf=0.00116815
					32:[D_KEYWORD_MACRO_MEAN_COEC<0.071784] yes=65,no=66,missing=66
						65:leaf=-0.00166405
						66:leaf=0.00382177
				16:[CAT_REL<0.001082] yes=33,no=34,missing=34
					33:[C_D_U_TITLEMD5_CATEGORY_MEAN_C<0.23406] yes=67,no=68,missing=67
						67:leaf=-0.00112652
						68:leaf=0.00272463
					34:[D_TITLEMD5_C<31.2497] yes=69,no=70,missing=69
						69:leaf=0.00271772
						70:leaf=0.00658604
			8:[D_TITLEMD5_COEC<0.173359] yes=17,no=18,missing=18
				17:[D_CATEGORY_MEAN_C<30294.7] yes=35,no=36,missing=35
					35:[D_TITLEMD5_COEC<0.130466] yes=71,no=72,missing=72
						71:leaf=0.00589822
						72:leaf=0.00861469
					36:[C_D_U_CATEGORY_UID_MACRO_MEAN_COEC<0.111882] yes=73,no=74,missing=73
						73:leaf=0.00313328
						74:leaf=0.00803658
				18:[D_TITLEMD5_COEC<0.216979] yes=37,no=38,missing=37
					37:[IMAGE_COUNT<0.999999] yes=75,no=76,missing=76
						75:leaf=-0.000492662
						76:leaf=0.00999326
					38:[C_D_U_KEYWORD_CATEGORY_MICRO_MEAN_COEC<0.130829] yes=77,no=78,missing=78
						77:leaf=0.00524562
						78:leaf=0.0132614
		4:[C_D_U_CATEGORY_UID_MACRO_MEAN_COEC<0.153312] yes=9,no=10,missing=9
			9:[D_TITLEMD5_COEC<0.044499] yes=19,no=20,missing=20
				19:[CAT_REL<0.001082] yes=39,no=40,missing=40
					39:[C_D_U_KEYWORD_UID_MACRO_MEAN_COEC<0.081297] yes=79,no=80,missing=80
						79:leaf=-0.00274463
						80:leaf=0.00136208
					40:[C_D_U_KEYWORD_UID_MACRO_MEAN_COEC<0.091244] yes=81,no=82,missing=82
						81:leaf=0.00257719
						82:leaf=0.00682392
				20:[C_D_U_KEYWORD_UID_MACRO_MEAN_COEC<0.081297] yes=41,no=42,missing=42
					41:[D_GROUPID_COEC<0.107292] yes=83,no=84,missing=83
						83:leaf=0.00518642
						84:leaf=0.00991761
					42:[D_TITLEMD5_COEC<0.101521] yes=85,no=86,missing=85
						85:leaf=0.00824992
						86:leaf=0.0112041
			10:[C_D_U_KEYWORD_UID_MACRO_MEAN_COEC<0.122702] yes=21,no=22,missing=22
				21:[D_TITLEMD5_COEC<0.035663] yes=43,no=44,missing=43
					43:[U_CATEGORY_MICRO_MEAN_COEC<0.080013] yes=87,no=88,missing=87
						87:leaf=0.00265766
						88:leaf=0.00682441
					44:[C_D_U_GROUPID_CATEGORY_MICRO_MEAN_COEC<0.058194] yes=89,no=90,missing=90
						89:leaf=0.0082723
						90:leaf=0.0105754
				22:[D_TITLEMD5_COEC<0.062335] yes=45,no=46,missing=46
					45:[C_D_U_CATEGORY_UID_MEAN_C<1.20113] yes=91,no=92,missing=92
						91:leaf=0.00874392
						92:leaf=0.0112657
					46:[C_D_U_CATEGORY_UID_MAX_C<1.0924] yes=93,no=94,missing=94
						93:leaf=0.0112376
						94:leaf=0.0126678
	2:[C_D_U_TITLEMD5_CATEGORY_MICRO_MEAN_COEC<0.147235] yes=5,no=6,missing=5
		5:[C_D_U_KEYWORD_UID_MICRO_MEAN_COEC<0.083241] yes=11,no=12,missing=11
			11:[D_TITLEMD5_C<75.2457] yes=23,no=24,missing=23
				23:[CAT_REL<0.001082] yes=47,no=48,missing=48
					47:[C_D_U_CATEGORY_UID_MACRO_MAX_COEC<0.062739] yes=95,no=96,missing=96
						95:leaf=0.000414515
						96:leaf=0.00440398
					48:[D_TITLEMD5_C<3.82973] yes=97,no=98,missing=98
						97:leaf=0.00248813
						98:leaf=0.00741141
				24:[CAT_REL<0.001082] yes=49,no=50,missing=50
					49:[C_D_U_GROUPID_CATEGORY_MICRO_MEAN_COEC<0.112898] yes=99,no=100,missing=100
						99:leaf=0.00616911
						100:leaf=0.00870145
					50:[U_CAT_LEN<12] yes=101,no=102,missing=102
						101:leaf=0.00873352
						102:leaf=0.0109218
			12:[C_D_U_CATEGORY_UID_MICRO_MEAN_COEC<0.202964] yes=25,no=26,missing=25
				25:[C_D_U_KEYWORD_UID_MACRO_MEAN_COEC<0.091244] yes=51,no=52,missing=52
					51:[D_TITLEMD5_C<56.7409] yes=103,no=104,missing=103
						103:leaf=0.00838187
						104:leaf=0.0108756
					52:[C_D_U_TITLEMD5_CATEGORY_MICRO_MEAN_COEC<0.111889] yes=105,no=106,missing=105
						105:leaf=0.0109849
						106:leaf=0.0124719
				26:[C_D_U_KEYWORD_UID_MACRO_MEAN_COEC<0.097868] yes=53,no=54,missing=54
					53:[D_TITLEMD5_C<27.5414] yes=107,no=108,missing=107
						107:leaf=0.0110207
						108:leaf=0.0127113
					54:[C_D_U_TITLEMD5_CATEGORY_MICRO_MEAN_COEC<0.116177] yes=109,no=110,missing=109
						109:leaf=0.013019
						110:leaf=0.0139868
		6:[C_D_U_TITLEMD5_CATEGORY_MEAN_C<0.116845] yes=13,no=14,missing=14
			13:[C_D_U_KEYWORD_UID_MACRO_MEAN_COEC<0.045071] yes=27,no=28,missing=27
				27:[D_KEYWORD_MACRO_MEAN_COEC<0.079339] yes=55,no=56,missing=56
					55:[CAT_REL<0.003203] yes=111,no=112,missing=112
						111:leaf=0.000620856
						112:leaf=0.00603707
					56:[C_D_U_KEYWORD_CATEGORY_MICRO_MEAN_COEC<0.17674] yes=113,no=114,missing=114
						113:leaf=0.00867869
						114:leaf=0.014576
				28:[C_D_U_CATEGORY_UID_MACRO_MEAN_COEC<0.141111] yes=57,no=58,missing=57
					57:[D_TITLEMD5_COEC<0.077239] yes=115,no=116,missing=116
						115:leaf=0.00657339
						116:leaf=0.0112096
					58:[D_TITLEMD5_COEC<0.094615] yes=117,no=118,missing=118
						117:leaf=0.0119102
						118:leaf=0.0138328
			14:[C_D_U_KEYWORD_UID_MICRO_MEAN_COEC<0.083241] yes=29,no=30,missing=29
				29:[C_D_U_GROUPID_CATEGORY_MICRO_MEAN_COEC<0.189371] yes=59,no=60,missing=60
					59:[D_TITLEMD5_C<106.863] yes=119,no=120,missing=120
						119:leaf=0.00971477
						120:leaf=0.0121031
					60:[D_TITLEMD5_C<106.863] yes=121,no=122,missing=122
						121:leaf=0.0119728
						122:leaf=0.0139742
				30:[C_D_U_TITLEMD5_CATEGORY_MICRO_MEAN_COEC<0.196089] yes=61,no=62,missing=62
					61:[C_D_U_CATEGORY_UID_MICRO_MEAN_COEC<0.202964] yes=123,no=124,missing=123
						123:leaf=0.0133883
						124:leaf=0.014591
					62:[C_D_U_CATEGORY_UID_MICRO_MEAN_COEC<0.202964] yes=125,no=126,missing=125
						125:leaf=0.0147485
						126:leaf=0.0154104
booster[21]:
0:[C_D_U_GROUPID_CATEGORY_MICRO_MEAN_COEC<0.080436] yes=1,no=2,missing=1
	1:[D_KEYWORD_MACRO_MEAN_COEC<0.096596] yes=3,no=4,missing=4
		3:[C_D_U_KEYWORD_UID_MACRO_MEAN_COEC<0.034559] yes=7,no=8,missing=7
			7:[D_GROUPID_COEC<0.032131] yes=15,no=16,missing=15
				15:[U_CATEGORY_MICRO_MEAN_COEC<0.077734] yes=31,no=32,missing=31
					31:[IMAGE_COUNT<0.999999] yes=63,no=64,missing=64
						63:leaf=-0.0109397
						64:leaf=-0.00684571
					32:[C_D_U_CATEGORY_UID_MACRO_MEAN_COEC<0.073711] yes=65,no=66,missing=65
						65:leaf=-0.00410462
						66:leaf=0.00124743
				16:[C_D_U_CATEGORY_UID_MICRO_MEAN_COEC<0.082243] yes=33,no=34,missing=33
					33:[D_TITLEMD5_C<79.037] yes=67,no=68,missing=67
						67:leaf=-0.00179629
						68:leaf=0.00191308
					34:[D_TITLEMD5_C<38.0573] yes=69,no=70,missing=69
						69:leaf=0.00366993
						70:leaf=0.00677047
			8:[C_D_U_CATEGORY_UID_MACRO_MEAN_COEC<0.128798] yes=17,no=18,missing=17
				17:[D_TITLEMD5_COEC<0.039396] yes=35,no=36,missing=36
					35:[CAT_REL<0.000937] yes=71,no=72,missing=72
						71:leaf=-0.00223277
						72:leaf=0.00273598
					36:[C_D_U_KEYWORD_UID_MACRO_MEAN_COEC<0.093302] yes=73,no=74,missing=74
						73:leaf=0.00433218
						74:leaf=0.00752785
				18:[C_D_U_KEYWORD_UID_MACRO_MEAN_COEC<0.12578] yes=37,no=38,missing=38
					37:[C_D_U_GROUPID_CATEGORY_MICRO_MEAN_COEC<0.044623] yes=75,no=76,missing=75
						75:leaf=0.00625829
						76:leaf=0.0093976
					38:[C_D_U_CATEGORY_UID_MEAN_C<1.20855] yes=77,no=78,missing=78
						77:leaf=0.00936438
						78:leaf=0.0115041
		4:[D_TITLEMD5_COEC<0.178865] yes=9,no=10,missing=9
			9:[D_TITLEMD5_COEC<0.133846] yes=19,no=20,missing=20
				19:[C_D_U_KEYWORD_UID_MICRO_MEAN_COEC<0.071202] yes=39,no=40,missing=39
					39:[D_KEYWORD_MAX_C<16.1484] yes=79,no=80,missing=80
						79:leaf=0.011655
						80:leaf=0.002947
					40:[C_D_U_CATEGORY_UID_MICRO_MEAN_COEC<0.216821] yes=81,no=82,missing=82
						81:leaf=0.00754042
						82:leaf=0.0110391
				20:[C_D_U_KEYWORD_UID_MAX_C<0.000175] yes=41,no=42,missing=41
					41:[D_CATEGORY_MEAN_C<20219.3] yes=83,no=84,missing=83
						83:leaf=0.00893676
						84:leaf=0.00594698
					42:[C_D_U_CATEGORY_UID_MICRO_MEAN_COEC<0.208747] yes=85,no=86,missing=86
						85:leaf=0.0105115
						86:leaf=0.0128727
			10:[D_KEYWORD_MICRO_MAX_COEC<0.21857] yes=21,no=22,missing=21
				21:[C_D_U_KEYWORD_UID_MEAN_C<0.000195] yes=43,no=44,missing=43
					43:[D_TITLEMD5_C<47.5837] yes=87,no=88,missing=88
						87:leaf=0.00479536
						88:leaf=0.0101315
					44:[U_KEYWORD_MACRO_MEAN_COEC<0.020314] yes=89,no=90,missing=89
						89:leaf=0.0132883
						90:leaf=0.0095763
				22:[C_D_U_KEYWORD_CATEGORY_MICRO_MEAN_COEC<0.102154] yes=45,no=46,missing=46
					45:[D_PUBLISHER_COEC<0.059847] yes=91,no=92,missing=92
						91:leaf=-0.00156231
						92:leaf=0.00700371
					46:[D_KEYWORD_MICRO_MEAN_COEC<0.210426] yes=93,no=94,missing=94
						93:leaf=0.012862
						94:leaf=0.0143333
	2:[C_D_U_TITLEMD5_CATEGORY_MICRO_MEAN_COEC<0.128093] yes=5,no=6,missing=5
		5:[C_D_U_KEYWORD_UID_MICRO_MEAN_COEC<0.081962] yes=11,no=12,missing=11
			11:[D_TITLEMD5_C<60.9717] yes=23,no=24,missing=23
				23:[CAT_REL<0.000937] yes=47,no=48,missing=48
					47:[D_TITLEMD5_COEC<0.080223] yes=95,no=96,missing=96
						95:leaf=-0.000816608
						96:leaf=0.00319458
					48:[C_D_U_CATEGORY_UID_MACRO_MEAN_COEC<0.079151] yes=97,no=98,missing=98
						97:leaf=0.00399543
						98:leaf=0.00727348
				24:[CAT_REL<0.000937] yes=49,no=50,missing=50
					49:[D_TITLEMD5_C<270.381] yes=99,no=100,missing=100
						99:leaf=0.00476496
						100:leaf=0.00735875
					50:[U_CAT_LEN<12] yes=101,no=102,missing=102
						101:leaf=0.0074732
						102:leaf=0.00982437
			12:[C_D_U_CATEGORY_UID_MACRO_MEAN_COEC<0.15856] yes=25,no=26,missing=25
				25:[C_D_U_KEYWORD_UID_MACRO_MEAN_COEC<0.082343] yes=51,no=52,missing=52
					51:[D_TITLEMD5_C<47.5837] yes=103,no=104,missing=103
						103:leaf=0.00690943
						104:leaf=0.00959165
					52:[M_D_U_KEYWORD_KEYWORD_MICRO_MAX_COEC<0.103824] yes=105,no=106,missing=105
						105:leaf=0.00983451
						106:leaf=0.0114891
				26:[C_D_U_KEYWORD_UID_MICRO_MEAN_COEC<0.22949] yes=53,no=54,missing=54
					53:[D_TITLEMD5_C<31.2883] yes=107,no=108,missing=107
						107:leaf=0.0104869
						108:leaf=0.0119901
					54:[KW_REL<0.001176] yes=109,no=110,missing=110
						109:leaf=0.0118722
						110:leaf=0.0132229
		6:[C_D_U_KEYWORD_UID_MICRO_MEAN_COEC<0.120276] yes=13,no=14,missing=13
			13:[D_TITLEMD5_C<56.5287] yes=27,no=28,missing=28
				27:[C_D_U_KEYWORD_CATEGORY_MICRO_MEAN_COEC<0.076329] yes=55,no=56,missing=56
					55:[C_D_U_CATEGORY_UID_MACRO_MAX_COEC<0.056998] yes=111,no=112,missing=111
						111:leaf=0.00264859
						112:leaf=0.00875978
					56:[D_TITLEMD5_COEC<0.145356] yes=113,no=114,missing=114
						113:leaf=0.00832361
						114:leaf=0.0114991
				28:[C_D_U_GROUPID_CATEGORY_MICRO_MEAN_COEC<0.168449] yes=57,no=58,missing=58
					57:[CAT_REL<0.000937] yes=115,no=116,missing=116
						115:leaf=0.00996756
						116:leaf=0.0119321
					58:[C_D_U_TITLEMD5_CATEGORY_MICRO_MEAN_COEC<0.217698] yes=117,no=118,missing=118
						117:leaf=0.0128876
						118:leaf=0.0143307
			14:[C_D_U_GROUPID_CATEGORY_MICRO_MEAN_COEC<0.163125] yes=29,no=30,missing=30
				29:[C_D_U_CATEGORY_UID_MICRO_MEAN_COEC<0.231259] yes=59,no=60,missing=59
					59:[D_GROUPID_C<35.3349] yes=119,no=120,missing=120
						119:leaf=0.0108738
						120:leaf=0.0128966
					60:[KW_REL<0.001715] yes=121,no=122,missing=122
						121:leaf=0.0134358
						122:leaf=0.0143556
				30:[C_D_U_GROUPID_CATEGORY_MEAN_C<0.114081] yes=61,no=62,missing=62
					61:[C_D_U_KEYWORD_CATEGORY_MICRO_MEAN_COEC<0.087081] yes=123,no=124,missing=124
						123:leaf=0.00999469
						124:leaf=0.0131663
					62:[C_D_U_TITLEMD5_CATEGORY_MICRO_MEAN_COEC<0.211252] yes=125,no=126,missing=126
						125:leaf=0.0143805
						126:leaf=0.0151872
booster[22]:
0:[C_D_U_GROUPID_CATEGORY_MICRO_MEAN_COEC<0.092102] yes=1,no=2,missing=1
	1:[C_D_U_CATEGORY_UID_MACRO_MEAN_COEC<0.099619] yes=3,no=4,missing=3
		3:[D_KEYWORD_MACRO_MEAN_COEC<0.103701] yes=7,no=8,missing=8
			7:[C_D_U_GROUPID_CATEGORY_MICRO_MEAN_COEC<0.053843] yes=15,no=16,missing=15
				15:[D_TITLEMD5_COEC<0.095558] yes=31,no=32,missing=31
					31:[C_D_U_KEYWORD_UID_MICRO_MEAN_COEC<0.060323] yes=63,no=64,missing=63
						63:leaf=-0.00381795
						64:leaf=0.0012315
					32:[D_TITLEMD5_C<375.3] yes=65,no=66,missing=66
						65:leaf=0.00136514
						66:leaf=0.0054244
				16:[C_D_U_KEYWORD_UID_MICRO_MEAN_COEC<0.095083] yes=33,no=34,missing=33
					33:[CAT_REL<0.003004] yes=67,no=68,missing=68
						67:leaf=0.00108014
						68:leaf=0.00455116
					34:[CAT_REL<0.000966] yes=69,no=70,missing=70
						69:leaf=0.0055877
						70:leaf=0.00849278
			8:[D_TITLEMD5_COEC<0.193265] yes=17,no=18,missing=17
				17:[D_GROUPID_COEC<0.150026] yes=35,no=36,missing=36
					35:[D_KEYWORD_MAX_C<15.5339] yes=71,no=72,missing=72
						71:leaf=0.0116473
						72:leaf=0.00462358
					36:[D_CATEGORY_MAX_C<9124.53] yes=73,no=74,missing=73
						73:leaf=0.00982648
						74:leaf=0.00795019
				18:[D_TITLEMD5_COEC<0.2373] yes=37,no=38,missing=38
					37:[D_KEYWORD_MICRO_MAX_COEC<0.206129] yes=75,no=76,missing=76
						75:leaf=0.00998276
						76:leaf=0.0117833
					38:[D_KEYWORD_MICRO_MEAN_COEC<0.10022] yes=77,no=78,missing=78
						77:leaf=0.00427851
						78:leaf=0.0135198
		4:[C_D_U_KEYWORD_UID_MICRO_MEAN_COEC<0.131506] yes=9,no=10,missing=9
			9:[D_TITLEMD5_COEC<0.029578] yes=19,no=20,missing=19
				19:[KW_REL<0.001069] yes=39,no=40,missing=40
					39:[C_D_U_PUBLISHER_UID_COEC<0.121641] yes=79,no=80,missing=79
						79:leaf=-0.00178102
						80:leaf=0.00347494
					40:[C_D_U_KEYWORD_UID_MACRO_MEAN_COEC<0.059799] yes=81,no=82,missing=82
						81:leaf=0.00237373
						82:leaf=0.005603
				20:[D_TITLEMD5_C<40.7954] yes=41,no=42,missing=42
					41:[CAT_REL<0.000966] yes=83,no=84,missing=84
						83:leaf=0.00296683
						84:leaf=0.00646202
					42:[D_TITLEMD5_COEC<0.159813] yes=85,no=86,missing=86
						85:leaf=0.00805556
						86:leaf=0.0127651
			10:[C_D_U_GROUPID_CATEGORY_MICRO_MEAN_COEC<0.050113] yes=21,no=22,missing=22
				21:[C_D_U_KEYWORD_UID_MACRO_MEAN_COEC<0.132107] yes=43,no=44,missing=44
					43:[IMAGE_COUNT<0.999999] yes=87,no=88,missing=88
						87:leaf=0.00164607
						88:leaf=0.00681676
					44:[C_D_U_CATEGORY_UID_MEAN_C<1.52381] yes=89,no=90,missing=90
						89:leaf=0.00815459
						90:leaf=0.0110238
				22:[C_D_U_KEYWORD_UID_MACRO_MEAN_COEC<0.132107] yes=45,no=46,missing=46
					45:[D_TITLEMD5_C<21.1015] yes=91,no=92,missing=91
						91:leaf=0.00862156
						92:leaf=0.0107293
					46:[C_D_U_CATEGORY_UID_MACRO_MEAN_COEC<0.295612] yes=93,no=94,missing=94
						93:leaf=0.010974
						94:leaf=0.0124412
	2:[C_D_U_TITLEMD5_CATEGORY_MICRO_MEAN_COEC<0.147195] yes=5,no=6,missing=5
		5:[C_D_U_KEYWORD_UID_MICRO_MEAN_COEC<0.078663] yes=11,no=12,missing=11
			11:[D_TITLEMD5_C<66.4206] yes=23,no=24,missing=23
				23:[CAT_REL<0.000966] yes=47,no=48,missing=48
					47:[D_KEYWORD_MACRO_MEAN_COEC<0.068844] yes=95,no=96,missing=96
						95:leaf=-0.000315008
						96:leaf=0.00397213
					48:[D_TITLEMD5_C<6.39616] yes=97,no=98,missing=98
						97:leaf=0.00319092
						98:leaf=0.00726636
				24:[CAT_REL<0.000966] yes=49,no=50,missing=50
					49:[D_TITLEMD5_C<357.877] yes=99,no=100,missing=100
						99:leaf=0.00614078
						100:leaf=0.00864851
					50:[U_CAT_LEN<12] yes=101,no=102,missing=102
						101:leaf=0.00848992
						102:leaf=0.0106564
			12:[C_D_U_CATEGORY_UID_MICRO_MEAN_COEC<0.201915] yes=25,no=26,missing=25
				25:[C_D_U_KEYWORD_UID_MACRO_MEAN_COEC<0.079583] yes=51,no=52,missing=52
					51:[D_TITLEMD5_C<46.9018] yes=103,no=104,missing=103
						103:leaf=0.00774779
						104:leaf=0.0105157
					52:[C_D_U_TITLEMD5_CATEGORY_MICRO_MEAN_COEC<0.116419] yes=105,no=106,missing=105
						105:leaf=0.0107849
						106:leaf=0.0122662
				26:[C_D_U_KEYWORD_UID_MACRO_MEAN_COEC<0.108885] yes=53,no=54,missing=54
					53:[D_TITLEMD5_C<46.9018] yes=107,no=108,missing=107
						107:leaf=0.0111964
						108:leaf=0.0126689
					54:[C_D_U_CATEGORY_UID_MICRO_MEAN_COEC<0.334447] yes=109,no=110,missing=110
						109:leaf=0.0128532
						110:leaf=0.013798
		6:[C_D_U_TITLEMD5_CATEGORY_MEAN_C<0.153891] yes=13,no=14,missing=14
			13:[C_D_U_KEYWORD_UID_MICRO_MEAN_COEC<0.084254] yes=27,no=28,missing=27
				27:[D_TITLEMD5_COEC<0.091783] yes=55,no=56,missing=56
					55:[C_D_U_CATEGORY_UID_MACRO_MEAN_COEC<0.060626] yes=111,no=112,missing=111
						111:leaf=0.000492414
						112:leaf=0.00608185
					56:[C_D_U_KEYWORD_CATEGORY_MICRO_MEAN_COEC<0.09253] yes=113,no=114,missing=114
						113:leaf=0.00588872
						114:leaf=0.0102665
				28:[C_D_U_KEYWORD_UID_MACRO_MEAN_COEC<0.110991] yes=57,no=58,missing=58
					57:[D_TITLEMD5_COEC<0.092363] yes=115,no=116,missing=116
						115:leaf=0.00797308
						116:leaf=0.0116402
					58:[C_D_U_CATEGORY_UID_MACRO_MEAN_COEC<0.212738] yes=117,no=118,missing=117
						117:leaf=0.0124653
						118:leaf=0.0141077
			14:[C_D_U_KEYWORD_UID_MICRO_MEAN_COEC<0.078663] yes=29,no=30,missing=29
				29:[C_D_U_GROUPID_CATEGORY_MICRO_MEAN_COEC<0.199634] yes=59,no=60,missing=60
					59:[D_TITLEMD5_C<113.35] yes=119,no=120,missing=120
						119:leaf=0.00980133
						120:leaf=0.0120294
					60:[C_D_U_GROUPID_CATEGORY_MICRO_MEAN_COEC<0.257287] yes=121,no=122,missing=122
						121:leaf=0.013334
						122:leaf=0.0144776
				30:[C_D_U_TITLEMD5_CATEGORY_MICRO_MEAN_COEC<0.195259] yes=61,no=62,missing=62
					61:[C_D_U_CATEGORY_UID_MICRO_MAX_COEC<0.165733] yes=123,no=124,missing=124
						123:leaf=0.0128997
						124:leaf=0.0142071
					62:[C_D_U_CATEGORY_UID_MICRO_MEAN_COEC<0.201915] yes=125,no=126,missing=125
						125:leaf=0.014553
						126:leaf=0.0151889
booster[23]:
0:[C_D_U_GROUPID_CATEGORY_MICRO_MEAN_COEC<0.092026] yes=1,no=2,missing=1
	1:[C_D_U_CATEGORY_UID_MACRO_MEAN_COEC<0.092793] yes=3,no=4,missing=3
		3:[D_KEYWORD_MACRO_MEAN_COEC<0.098455] yes=7,no=8,missing=8
			7:[C_D_U_GROUPID_CATEGORY_MICRO_MEAN_COEC<0.050438] yes=15,no=16,missing=15
				15:[D_KEYWORD_MACRO_MEAN_COEC<0.07197] yes=31,no=32,missing=32
					31:[C_D_U_KEYWORD_UID_MICRO_MAX_COEC<0.219091] yes=63,no=64,missing=63
						63:leaf=-0.0042658
						64:leaf=0.000385974
					32:[D_TITLEMD5_COEC<0.104355] yes=65,no=66,missing=66
						65:leaf=-0.000234324
						66:leaf=0.00431206
				16:[C_D_U_KEYWORD_UID_MICRO_MEAN_COEC<0.074383] yes=33,no=34,missing=33
					33:[D_TITLEMD5_C<68.4074] yes=67,no=68,missing=67
						67:leaf=0.000789478
						68:leaf=0.00439649
					34:[CAT_REL<0.000845] yes=69,no=70,missing=70
						69:leaf=0.00490109
						70:leaf=0.00780938
			8:[D_TITLEMD5_COEC<0.169789] yes=17,no=18,missing=18
				17:[D_CATEGORY_MEAN_C<33466.6] yes=35,no=36,missing=35
					35:[D_KEYWORD_MACRO_MEAN_COEC<0.130651] yes=71,no=72,missing=71
						71:leaf=0.00701504
						72:leaf=0.0107908
					36:[D_TITLEMD5_COEC<0.123913] yes=73,no=74,missing=74
						73:leaf=0.000450611
						74:leaf=0.00414987
				18:[D_TITLEMD5_COEC<0.215967] yes=37,no=38,missing=37
					37:[C_D_U_GROUPID_AGE_COEC<0.180776] yes=75,no=76,missing=75
						75:leaf=0.00925066
						76:leaf=0.0111338
					38:[C_D_U_KEYWORD_CATEGORY_MICRO_MEAN_COEC<0.133785] yes=77,no=78,missing=78
						77:leaf=0.004537
						78:leaf=0.0129374
		4:[C_D_U_KEYWORD_UID_MICRO_MEAN_COEC<0.139697] yes=9,no=10,missing=9
			9:[D_GROUPID_COEC<0.032246] yes=19,no=20,missing=19
				19:[KW_REL<0.001075] yes=39,no=40,missing=40
					39:[C_D_U_GROUPID_CATEGORY_MICRO_MEAN_COEC<0.024788] yes=79,no=80,missing=79
						79:leaf=-0.00176105
						80:leaf=0.00336952
					40:[C_D_U_KEYWORD_UID_MACRO_MEAN_COEC<0.050416] yes=81,no=82,missing=82
						81:leaf=0.0024229
						82:leaf=0.00550816
				20:[D_TITLEMD5_C<84.5566] yes=41,no=42,missing=41
					41:[C_D_U_GROUPID_CATEGORY_MICRO_MEAN_COEC<0.050438] yes=83,no=84,missing=83
						83:leaf=0.00431149
						84:leaf=0.00707692
					42:[D_TITLEMD5_COEC<0.165241] yes=85,no=86,missing=86
						85:leaf=0.00845076
						86:leaf=0.0128772
			10:[C_D_U_GROUPID_CATEGORY_MICRO_MEAN_COEC<0.050438] yes=21,no=22,missing=22
				21:[C_D_U_KEYWORD_UID_MACRO_MEAN_COEC<0.108939] yes=43,no=44,missing=44
					43:[D_TITLEMD5_COEC<0.026534] yes=87,no=88,missing=88
						87:leaf=0.00385345
						88:leaf=0.00716578
					44:[C_D_U_CATEGORY_UID_MEAN_C<1.4982] yes=89,no=90,missing=90
						89:leaf=0.00775515
						90:leaf=0.0105942
				22:[C_D_U_KEYWORD_UID_MACRO_MEAN_COEC<0.118625] yes=45,no=46,missing=46
					45:[D_TITLEMD5_C<20.6098] yes=91,no=92,missing=91
						91:leaf=0.00827095
						92:leaf=0.0105774
					46:[C_D_U_CATEGORY_UID_MICRO_MEAN_COEC<0.232978] yes=93,no=94,missing=94
						93:leaf=0.0104981
						94:leaf=0.0121104
	2:[C_D_U_TITLEMD5_CATEGORY_MICRO_MEAN_COEC<0.14992] yes=5,no=6,missing=5
		5:[C_D_U_KEYWORD_UID_MICRO_MEAN_COEC<0.101959] yes=11,no=12,missing=11
			11:[D_TITLEMD5_C<38.617] yes=23,no=24,missing=23
				23:[C_D_U_CATEGORY_UID_MACRO_MEAN_COEC<0.079291] yes=47,no=48,missing=47
					47:[KW_REL<0.001042] yes=95,no=96,missing=96
						95:leaf=0.000657681
						96:leaf=0.00515029
					48:[C_D_U_CATEGORY_UID_MACRO_MEAN_COEC<0.156686] yes=97,no=98,missing=98
						97:leaf=0.00678545
						98:leaf=0.00919327
				24:[CAT_REL<0.000845] yes=49,no=50,missing=50
					49:[D_TITLEMD5_C<283.788] yes=99,no=100,missing=100
						99:leaf=0.00582615
						100:leaf=0.00859715
					50:[C_D_U_CATEGORY_UID_MICRO_MEAN_COEC<0.146862] yes=101,no=102,missing=101
						101:leaf=0.00954929
						102:leaf=0.0118644
			12:[C_D_U_CATEGORY_UID_MICRO_MEAN_COEC<0.201244] yes=25,no=26,missing=25
				25:[KW_REL<0.001368] yes=51,no=52,missing=52
					51:[D_TITLEMD5_C<46.0506] yes=103,no=104,missing=103
						103:leaf=0.00713499
						104:leaf=0.0102681
					52:[C_D_U_TITLEMD5_CATEGORY_MICRO_MEAN_COEC<0.113775] yes=105,no=106,missing=105
						105:leaf=0.0105261
						106:leaf=0.0120994
				26:[C_D_U_TITLEMD5_CATEGORY_MICRO_MEAN_COEC<0.113775] yes=53,no=54,missing=53
					53:[C_D_U_KEYWORD_UID_MICRO_MEAN_COEC<0.270752] yes=107,no=108,missing=108
						107:leaf=0.0116026
						108:leaf=0.0128082
					54:[C_D_U_KEYWORD_UID_MACRO_MEAN_COEC<0.118625] yes=109,no=110,missing=110
						109:leaf=0.012773
						110:leaf=0.0137199
		6:[C_D_U_TITLEMD5_CATEGORY_MEAN_C<0.131469] yes=13,no=14,missing=14
			13:[C_D_U_KEYWORD_UID_MICRO_MEAN_COEC<0.083611] yes=27,no=28,missing=27
				27:[D_TITLEMD5_COEC<0.106263] yes=55,no=56,missing=56
					55:[C_D_U_CATEGORY_UID_MACRO_MEAN_COEC<0.064745] yes=111,no=112,missing=111
						111:leaf=0.00125449
						112:leaf=0.00663876
					56:[C_D_U_KEYWORD_CATEGORY_MICRO_MEAN_COEC<0.103943] yes=113,no=114,missing=114
						113:leaf=0.00657108
						114:leaf=0.0112722
				28:[C_D_U_KEYWORD_UID_MACRO_MEAN_COEC<0.101306] yes=57,no=58,missing=58
					57:[D_TITLEMD5_COEC<0.083885] yes=115,no=116,missing=116
						115:leaf=0.00683424
						116:leaf=0.0111953
					58:[C_D_U_CATEGORY_UID_MACRO_MEAN_COEC<0.213008] yes=117,no=118,missing=117
						117:leaf=0.0121279
						118:leaf=0.0138689
			14:[C_D_U_KEYWORD_UID_MICRO_MEAN_COEC<0.074383] yes=29,no=30,missing=29
				29:[C_D_U_GROUPID_CATEGORY_MICRO_MEAN_COEC<0.200121] yes=59,no=60,missing=60
					59:[D_TITLEMD5_C<103.887] yes=119,no=120,missing=120
						119:leaf=0.00957637
						120:leaf=0.0119686
					60:[D_TITLEMD5_C<103.887] yes=121,no=122,missing=122
						121:leaf=0.0118423
						122:leaf=0.0137997
				30:[C_D_U_TITLEMD5_CATEGORY_MICRO_MEAN_COEC<0.196371] yes=61,no=62,missing=62
					61:[C_D_U_CATEGORY_UID_MICRO_MEAN_COEC<0.201244] yes=123,no=124,missing=123
						123:leaf=0.013085
						124:leaf=0.0143013
					62:[C_D_U_CATEGORY_UID_MICRO_MEAN_COEC<0.201244] yes=125,no=126,missing=125
						125:leaf=0.0144153
						126:leaf=0.0150781
booster[24]:
0:[C_D_U_GROUPID_CATEGORY_MICRO_MEAN_COEC<0.091249] yes=1,no=2,missing=1
	1:[C_D_U_KEYWORD_UID_MICRO_MEAN_COEC<0.101964] yes=3,no=4,missing=3
		3:[D_KEYWORD_MACRO_MEAN_COEC<0.095359] yes=7,no=8,missing=8
			7:[C_D_U_GROUPID_CATEGORY_MICRO_MEAN_COEC<0.044362] yes=15,no=16,missing=15
				15:[D_GROUPID_COEC<0.087942] yes=31,no=32,missing=31
					31:[C_D_U_CATEGORY_UID_MACRO_MEAN_COEC<0.062341] yes=63,no=64,missing=63
						63:leaf=-0.00429139
						64:leaf=0.00124636
					32:[D_KEYWORD_MACRO_MEAN_COEC<0.073018] yes=65,no=66,missing=66
						65:leaf=-0.0012228
						66:leaf=0.00308571
				16:[CAT_REL<0.001053] yes=33,no=34,missing=34
					33:[D_TITLEMD5_C<45.524] yes=67,no=68,missing=67
						67:leaf=-0.00159953
						68:leaf=0.00234464
					34:[D_TITLEMD5_C<25.93] yes=69,no=70,missing=69
						69:leaf=0.00266394
						70:leaf=0.00634452
			8:[D_TITLEMD5_COEC<0.165462] yes=17,no=18,missing=18
				17:[D_CATEGORY_MEAN_C<26524.2] yes=35,no=36,missing=35
					35:[D_GROUPID_COEC<0.128875] yes=71,no=72,missing=72
						71:leaf=0.00524321
						72:leaf=0.00807803
					36:[C_D_U_CATEGORY_UID_MICRO_MEAN_COEC<0.115092] yes=73,no=74,missing=73
						73:leaf=0.0021643
						74:leaf=0.00726605
				18:[D_TITLEMD5_COEC<0.201863] yes=37,no=38,missing=37
					37:[KW_REL<0.001244] yes=75,no=76,missing=76
						75:leaf=0.00879133
						76:leaf=0.0110303
					38:[D_KEYWORD_MICRO_MEAN_COEC<0.087354] yes=77,no=78,missing=78
						77:leaf=0.0041469
						78:leaf=0.0125656
		4:[C_D_U_CATEGORY_UID_MACRO_MEAN_COEC<0.158224] yes=9,no=10,missing=9
			9:[D_TITLEMD5_COEC<0.044371] yes=19,no=20,missing=20
				19:[CAT_REL<0.001053] yes=39,no=40,missing=40
					39:[C_D_U_KEYWORD_UID_MACRO_MEAN_COEC<0.081109] yes=79,no=80,missing=80
						79:leaf=-0.00255346
						80:leaf=0.00142905
					40:[C_D_U_KEYWORD_UID_MACRO_MEAN_COEC<0.098144] yes=81,no=82,missing=82
						81:leaf=0.00275273
						82:leaf=0.00698143
				20:[D_TITLEMD5_COEC<0.091377] yes=41,no=42,missing=41
					41:[CAT_REL<0.001053] yes=83,no=84,missing=84
						83:leaf=0.00376086
						84:leaf=0.0079486
					42:[D_KEYWORD_MACRO_MEAN_COEC<0.124636] yes=85,no=86,missing=86
						85:leaf=0.00867791
						86:leaf=0.0135239
			10:[C_D_U_KEYWORD_UID_MACRO_MEAN_COEC<0.120772] yes=21,no=22,missing=22
				21:[D_GROUPID_COEC<0.031065] yes=43,no=44,missing=43
					43:[U_CATEGORY_MICRO_MEAN_COEC<0.083848] yes=87,no=88,missing=87
						87:leaf=0.00271363
						88:leaf=0.00666642
					44:[C_D_U_GROUPID_CATEGORY_MICRO_MEAN_COEC<0.058633] yes=89,no=90,missing=90
						89:leaf=0.0080214
						90:leaf=0.0102522
				22:[C_D_U_CATEGORY_UID_MAX_C<1.00029] yes=45,no=46,missing=46
					45:[C_D_U_GROUPID_CATEGORY_MICRO_MEAN_COEC<0.044362] yes=91,no=92,missing=92
						91:leaf=0.00733099
						92:leaf=0.0105123
					46:[C_D_U_CATEGORY_UID_MACRO_MEAN_COEC<0.404848] yes=93,no=94,missing=94
						93:leaf=0.010972
						94:leaf=0.012958
	2:[C_D_U_TITLEMD5_CATEGORY_MICRO_MEAN_COEC<0.146089] yes=5,no=6,missing=5
		5:[C_D_U_KEYWORD_UID_MICRO_MEAN_COEC<0.08336] yes=11,no=12,missing=11
			11:[D_TITLEMD5_C<36.6865] yes=23,no=24,missing=23
				23:[CAT_REL<0.003232] yes=47,no=48,missing=48
					47:[D_TITLEMD5_COEC<0.069874] yes=95,no=96,missing=95
						95:leaf=-0.002297
						96:leaf=0.00281219
					48:[C_D_U_CATEGORY_UID_MACRO_MEAN_COEC<0.071048] yes=97,no=98,missing=98
						97:leaf=0.00395124
						98:leaf=0.00724086
				24:[CAT_REL<0.001053] yes=49,no=50,missing=50
					49:[D_TITLEMD5_C<285.404] yes=99,no=100,missing=100
						99:leaf=0.00544469
						100:leaf=0.00829053
					50:[C_D_U_TITLEMD5_CATEGORY_MICRO_MEAN_COEC<0.113705] yes=101,no=102,missing=102
						101:leaf=0.00847816
						102:leaf=0.0104702
			12:[C_D_U_CATEGORY_UID_MICRO_MEAN_COEC<0.160837] yes=25,no=26,missing=25
				25:[D_TITLEMD5_C<40.3797] yes=51,no=52,missing=52
					51:[CAT_REL<0.008734] yes=103,no=104,missing=104
						103:leaf=0.00613398
						104:leaf=0.00958424
					52:[CAT_REL<0.001053] yes=105,no=106,missing=106
						105:leaf=0.00984717
						106:leaf=0.0117674
				26:[C_D_U_KEYWORD_UID_MICRO_MEAN_COEC<0.210452] yes=53,no=54,missing=54
					53:[D_TITLEMD5_C<45.524] yes=107,no=108,missing=107
						107:leaf=0.0107281
						108:leaf=0.0122397
					54:[M_D_U_KEYWORD_KEYWORD_MICRO_MAX_COEC<0.079076] yes=109,no=110,missing=109
						109:leaf=0.0121109
						110:leaf=0.0132723
		6:[C_D_U_TITLEMD5_CATEGORY_MEAN_C<0.153841] yes=13,no=14,missing=14
			13:[C_D_U_KEYWORD_UID_MICRO_MEAN_COEC<0.08336] yes=27,no=28,missing=27
				27:[D_TITLEMD5_COEC<0.105924] yes=55,no=56,missing=56
					55:[C_D_U_CATEGORY_UID_MACRO_MEAN_COEC<0.098303] yes=111,no=112,missing=111
						111:leaf=0.00188638
						112:leaf=0.00750373
					56:[C_D_U_KEYWORD_CATEGORY_MICRO_MEAN_COEC<0.096914] yes=113,no=114,missing=114
						113:leaf=0.00629901
						114:leaf=0.0107451
				28:[C_D_U_KEYWORD_UID_MACRO_MEAN_COEC<0.101328] yes=57,no=58,missing=58
					57:[D_TITLEMD5_COEC<0.092664] yes=115,no=116,missing=116
						115:leaf=0.00760291
						116:leaf=0.0114009
					58:[C_D_U_CATEGORY_UID_MACRO_MEAN_COEC<0.212937] yes=117,no=118,missing=117
						117:leaf=0.0121344
						118:leaf=0.0138183
			14:[C_D_U_KEYWORD_UID_MICRO_MEAN_COEC<0.069877] yes=29,no=30,missing=29
				29:[C_D_U_GROUPID_CATEGORY_MICRO_MEAN_COEC<0.190236] yes=59,no=60,missing=60
					59:[M_D_U_KEYWORD_KEYWORD_MICRO_MAX_COEC<0.103815] yes=119,no=120,missing=119
						119:leaf=0.0104046
						120:leaf=0.0121304
					60:[C_D_U_TITLEMD5_CATEGORY_MICRO_MEAN_COEC<0.240543] yes=121,no=122,missing=122
						121:leaf=0.0128209
						122:leaf=0.0140446
				30:[C_D_U_TITLEMD5_CATEGORY_MICRO_MEAN_COEC<0.195385] yes=61,no=62,missing=62
					61:[C_D_U_CATEGORY_UID_MICRO_MAX_COEC<0.177661] yes=123,no=124,missing=124
						123:leaf=0.0126688
						124:leaf=0.0139871
					62:[C_D_U_CATEGORY_UID_MICRO_MEAN_COEC<0.199701] yes=125,no=126,missing=125
						125:leaf=0.0143033
						126:leaf=0.0149701
booster[25]:
0:[C_D_U_GROUPID_CATEGORY_MICRO_MEAN_COEC<0.083025] yes=1,no=2,missing=1
	1:[C_D_U_CATEGORY_UID_MACRO_MEAN_COEC<0.086982] yes=3,no=4,missing=3
		3:[D_KEYWORD_MACRO_MEAN_COEC<0.095381] yes=7,no=8,missing=8
			7:[D_TITLEMD5_COEC<0.035132] yes=15,no=16,missing=15
				15:[U_CATEGORY_MICRO_MEAN_COEC<0.078132] yes=31,no=32,missing=31
					31:[IMAGE_COUNT<0.999999] yes=63,no=64,missing=64
						63:leaf=-0.0107437
						64:leaf=-0.00638729
					32:[C_D_U_KEYWORD_UID_MACRO_MEAN_COEC<0.064182] yes=65,no=66,missing=65
						65:leaf=-0.00323724
						66:leaf=0.00305078
				16:[C_D_U_KEYWORD_UID_MICRO_MEAN_COEC<0.057461] yes=33,no=34,missing=33
					33:[D_TITLEMD5_C<48.1611] yes=67,no=68,missing=68
						67:leaf=-0.00209913
						68:leaf=0.00154312
					34:[CAT_REL<0.000946] yes=69,no=70,missing=70
						69:leaf=0.00307917
						70:leaf=0.00624078
			8:[D_GROUPID_COEC<0.16038] yes=17,no=18,missing=18
				17:[D_CATEGORY_MEAN_C<21357.6] yes=35,no=36,missing=35
					35:[D_KEYWORD_MAX_C<16.0731] yes=71,no=72,missing=72
						71:leaf=0.011517
						72:leaf=0.00644708
					36:[D_TITLEMD5_COEC<0.123905] yes=73,no=74,missing=74
						73:leaf=9.83381e-05
						74:leaf=0.00408481
				18:[D_TITLEMD5_COEC<0.205721] yes=37,no=38,missing=37
					37:[C_D_U_TITLEMD5_AGE_COEC<0.179473] yes=75,no=76,missing=75
						75:leaf=0.00871864
						76:leaf=0.0107767
					38:[C_D_U_KEYWORD_CATEGORY_MICRO_MEAN_COEC<0.113685] yes=77,no=78,missing=78
						77:leaf=0.00327827
						78:leaf=0.0125723
		4:[C_D_U_KEYWORD_UID_MICRO_MEAN_COEC<0.140575] yes=9,no=10,missing=9
			9:[D_TITLEMD5_COEC<0.025967] yes=19,no=20,missing=19
				19:[KW_REL<0.001054] yes=39,no=40,missing=40
					39:[C_D_U_PUBLISHER_UID_COEC<0.119936] yes=79,no=80,missing=79
						79:leaf=-0.00227808
						80:leaf=0.00298177
					40:[C_D_U_KEYWORD_UID_MACRO_MEAN_COEC<0.049049] yes=81,no=82,missing=82
						81:leaf=0.00164214
						82:leaf=0.00512407
				20:[D_TITLEMD5_C<117.085] yes=41,no=42,missing=42
					41:[C_D_U_GROUPID_CATEGORY_MICRO_MEAN_COEC<0.044462] yes=83,no=84,missing=83
						83:leaf=0.00392233
						84:leaf=0.0066438
					42:[D_GROUPID_COEC<0.154242] yes=85,no=86,missing=85
						85:leaf=0.00819107
						86:leaf=0.012376
			10:[C_D_U_KEYWORD_UID_MACRO_MEAN_COEC<0.147036] yes=21,no=22,missing=22
				21:[D_TITLEMD5_COEC<0.035132] yes=43,no=44,missing=44
					43:[C_D_U_PUBLISHER_UID_COEC<0.035086] yes=87,no=88,missing=87
						87:leaf=0.00406963
						88:leaf=0.00797041
					44:[D_TITLEMD5_COEC<0.106207] yes=89,no=90,missing=89
						89:leaf=0.00877269
						90:leaf=0.0115457
				22:[C_D_U_CATEGORY_UID_MEAN_C<1.1948] yes=45,no=46,missing=46
					45:[D_TITLEMD5_COEC<0.062298] yes=91,no=92,missing=91
						91:leaf=0.00809637
						92:leaf=0.0106047
					46:[C_D_U_CATEGORY_UID_MACRO_MEAN_COEC<0.368988] yes=93,no=94,missing=94
						93:leaf=0.0107743
						94:leaf=0.0127847
	2:[C_D_U_GROUPID_CATEGORY_MICRO_MEAN_COEC<0.130994] yes=5,no=6,missing=6
		5:[C_D_U_KEYWORD_UID_MICRO_MEAN_COEC<0.096178] yes=11,no=12,missing=11
			11:[D_TITLEMD5_C<35.3657] yes=23,no=24,missing=23
				23:[C_D_U_CATEGORY_UID_MACRO_MEAN_COEC<0.079463] yes=47,no=48,missing=47
					47:[KW_REL<0.001972] yes=95,no=96,missing=96
						95:leaf=0.001024
						96:leaf=0.0053804
					48:[C_D_U_CATEGORY_UID_MACRO_MEAN_COEC<0.170326] yes=97,no=98,missing=98
						97:leaf=0.00623751
						98:leaf=0.00872769
				24:[CAT_REL<0.000946] yes=49,no=50,missing=50
					49:[D_TITLEMD5_C<259.52] yes=99,no=100,missing=100
						99:leaf=0.00475452
						100:leaf=0.00742959
					50:[C_D_U_CATEGORY_UID_MACRO_MEAN_COEC<0.148655] yes=101,no=102,missing=101
						101:leaf=0.00857926
						102:leaf=0.0112158
			12:[C_D_U_CATEGORY_UID_MACRO_MEAN_COEC<0.164109] yes=25,no=26,missing=25
				25:[KW_REL<0.001513] yes=51,no=52,missing=52
					51:[D_TITLEMD5_C<30.7644] yes=103,no=104,missing=104
						103:leaf=0.00584984
						104:leaf=0.00915106
					52:[C_D_U_KEYWORD_UID_MICRO_MEAN_COEC<0.191321] yes=105,no=106,missing=106
						105:leaf=0.00980299
						106:leaf=0.0114777
				26:[C_D_U_KEYWORD_UID_MACRO_MEAN_COEC<0.13331] yes=53,no=54,missing=54
					53:[D_TITLEMD5_C<23.7322] yes=107,no=108,missing=107
						107:leaf=0.0103972
						108:leaf=0.0119217
					54:[C_D_U_CATEGORY_UID_MACRO_MEAN_COEC<0.337817] yes=109,no=110,missing=110
						109:leaf=0.0122982
						110:leaf=0.0133904
		6:[C_D_U_CATEGORY_UID_MICRO_MEAN_COEC<0.147165] yes=13,no=14,missing=13
			13:[C_D_U_TITLEMD5_CATEGORY_MEAN_C<0.261959] yes=27,no=28,missing=27
				27:[C_D_U_KEYWORD_CATEGORY_MICRO_MEAN_COEC<0.090436] yes=55,no=56,missing=56
					55:[D_GROUPID_C<2.995] yes=111,no=112,missing=112
						111:leaf=0.000916117
						112:leaf=0.00673633
					56:[D_TITLEMD5_COEC<0.13383] yes=113,no=114,missing=113
						113:leaf=0.00808402
						114:leaf=0.0116691
				28:[C_D_U_TITLEMD5_CATEGORY_MICRO_MEAN_COEC<0.174877] yes=57,no=58,missing=58
					57:[C_D_U_KEYWORD_UID_MICRO_MEAN_COEC<0.07547] yes=115,no=116,missing=115
						115:leaf=0.0102203
						116:leaf=0.0123063
					58:[C_D_U_TITLEMD5_CATEGORY_MICRO_MEAN_COEC<0.23446] yes=117,no=118,missing=118
						117:leaf=0.0126381
						118:leaf=0.0140601
			14:[C_D_U_TITLEMD5_CATEGORY_MICRO_MEAN_COEC<0.17181] yes=29,no=30,missing=29
				29:[C_D_U_KEYWORD_UID_MICRO_MEAN_COEC<0.184168] yes=59,no=60,missing=59
					59:[D_TITLEMD5_C<23.7322] yes=119,no=120,missing=119
						119:leaf=0.0103701
						120:leaf=0.0126585
					60:[C_D_U_CATEGORY_UID_MICRO_MAX_COEC<0.335111] yes=121,no=122,missing=122
						121:leaf=0.0131682
						122:leaf=0.0139839
				30:[D_GROUPID_C<7.95012] yes=61,no=62,missing=62
					61:[C_D_U_KEYWORD_UID_MACRO_MEAN_COEC<0.098626] yes=123,no=124,missing=123
						123:leaf=0.0104669
						124:leaf=0.0131833
					62:[C_D_U_GROUPID_CATEGORY_MICRO_MEAN_COEC<0.21846] yes=125,no=126,missing=126
						125:leaf=0.014153
						126:leaf=0.0148861
booster[26]:
0:[C_D_U_GROUPID_CATEGORY_MICRO_MEAN_COEC<0.091232] yes=1,no=2,missing=1
	1:[C_D_U_KEYWORD_UID_MACRO_MEAN_COEC<0.052189] yes=3,no=4,missing=3
		3:[D_KEYWORD_MACRO_MEAN_COEC<0.100184] yes=7,no=8,missing=8
			7:[C_D_U_GROUPID_CATEGORY_MICRO_MEAN_COEC<0.048887] yes=15,no=16,missing=15
				15:[D_TITLEMD5_COEC<0.096711] yes=31,no=32,missing=31
					31:[C_D_U_CATEGORY_UID_MACRO_MEAN_COEC<0.065703] yes=63,no=64,missing=63
						63:leaf=-0.00371087
						64:leaf=0.00153245
					32:[D_KEYWORD_MACRO_MEAN_COEC<0.072526] yes=65,no=66,missing=66
						65:leaf=-0.000991866
						66:leaf=0.00390885
				16:[C_D_U_CATEGORY_UID_MACRO_MEAN_COEC<0.095424] yes=33,no=34,missing=33
					33:[D_TITLEMD5_C<45.1367] yes=67,no=68,missing=67
						67:leaf=0.000551201
						68:leaf=0.00410385
					34:[D_TITLEMD5_C<35.3492] yes=69,no=70,missing=69
						69:leaf=0.00585111
						70:leaf=0.00832076
			8:[D_TITLEMD5_COEC<0.199067] yes=17,no=18,missing=17
				17:[D_TITLEMD5_COEC<0.145273] yes=35,no=36,missing=36
					35:[D_KEYWORD_MAX_C<16.2375] yes=71,no=72,missing=72
						71:leaf=0.0116783
						72:leaf=0.00423013
					36:[C_D_U_KEYWORD_UID_MEAN_C<0.000182] yes=73,no=74,missing=73
						73:leaf=0.00837929
						74:leaf=0.0114841
				18:[C_D_U_KEYWORD_CATEGORY_MICRO_MEAN_COEC<0.13355] yes=37,no=38,missing=38
					37:[D_TITLEMD5_C<1.1552] yes=75,no=76,missing=76
						75:leaf=0.00234585
						76:leaf=0.00864774
					38:[D_TITLEMD5_COEC<0.237684] yes=77,no=78,missing=78
						77:leaf=0.0112819
						78:leaf=0.0131119
		4:[C_D_U_CATEGORY_UID_MACRO_MEAN_COEC<0.169798] yes=9,no=10,missing=9
			9:[C_D_U_GROUPID_CATEGORY_MICRO_MEAN_COEC<0.054053] yes=19,no=20,missing=20
				19:[CAT_REL<0.001081] yes=39,no=40,missing=40
					39:[D_GROUPID_COEC<0.032482] yes=79,no=80,missing=80
						79:leaf=-0.00168822
						80:leaf=0.00228942
					40:[C_D_U_KEYWORD_UID_MACRO_MEAN_COEC<0.100531] yes=81,no=82,missing=82
						81:leaf=0.0034209
						82:leaf=0.00697967
				20:[D_TITLEMD5_COEC<0.089153] yes=41,no=42,missing=41
					41:[CAT_REL<0.001081] yes=83,no=84,missing=84
						83:leaf=0.00418378
						84:leaf=0.00796189
					42:[D_GROUPID_COEC<0.131328] yes=85,no=86,missing=86
						85:leaf=0.00897933
						86:leaf=0.0121743
			10:[C_D_U_KEYWORD_UID_MACRO_MEAN_COEC<0.167513] yes=21,no=22,missing=22
				21:[C_D_U_GROUPID_CATEGORY_MICRO_MEAN_COEC<0.044341] yes=43,no=44,missing=44
					43:[C_D_U_PUBLISHER_UID_COEC<0.125708] yes=87,no=88,missing=87
						87:leaf=0.00622344
						88:leaf=0.00879804
					44:[D_TITLEMD5_C<30.8951] yes=89,no=90,missing=89
						89:leaf=0.00917885
						90:leaf=0.0107782
				22:[C_D_U_CATEGORY_UID_MEAN_C<2.03792] yes=45,no=46,missing=46
					45:[D_TITLEMD5_COEC<0.067659] yes=91,no=92,missing=91
						91:leaf=0.00922503
						92:leaf=0.011354
					46:[C_D_U_CATEGORY_UID_MICRO_MEAN_COEC<0.477866] yes=93,no=94,missing=94
						93:leaf=0.0116224
						94:leaf=0.0137138
	2:[C_D_U_TITLEMD5_CATEGORY_MICRO_MEAN_COEC<0.144537] yes=5,no=6,missing=5
		5:[C_D_U_KEYWORD_UID_MICRO_MEAN_COEC<0.07918] yes=11,no=12,missing=11
			11:[D_TITLEMD5_C<76.465] yes=23,no=24,missing=23
				23:[CAT_REL<0.001081] yes=47,no=48,missing=48
					47:[D_KEYWORD_MACRO_MEAN_COEC<0.068747] yes=95,no=96,missing=96
						95:leaf=-0.00016881
						96:leaf=0.00383874
					48:[D_TITLEMD5_C<6.46806] yes=97,no=98,missing=97
						97:leaf=0.00303877
						98:leaf=0.00707742
				24:[CAT_REL<0.001081] yes=49,no=50,missing=50
					49:[C_D_U_GROUPID_CATEGORY_MICRO_MEAN_COEC<0.111035] yes=99,no=100,missing=100
						99:leaf=0.00557303
						100:leaf=0.00809685
					50:[U_CAT_LEN<12] yes=101,no=102,missing=102
						101:leaf=0.00808796
						102:leaf=0.0102989
			12:[C_D_U_CATEGORY_UID_MICRO_MEAN_COEC<0.202113] yes=25,no=26,missing=25
				25:[C_D_U_KEYWORD_UID_MACRO_MEAN_COEC<0.08638] yes=51,no=52,missing=52
					51:[D_TITLEMD5_C<51.2961] yes=103,no=104,missing=103
						103:leaf=0.00762665
						104:leaf=0.0101362
					52:[C_D_U_TITLEMD5_CATEGORY_MICRO_MEAN_COEC<0.113563] yes=105,no=106,missing=105
						105:leaf=0.0103812
						106:leaf=0.0118099
				26:[C_D_U_KEYWORD_UID_MACRO_MEAN_COEC<0.100531] yes=53,no=54,missing=54
					53:[D_TITLEMD5_C<45.1367] yes=107,no=108,missing=107
						107:leaf=0.0106995
						108:leaf=0.012156
					54:[C_D_U_CATEGORY_UID_MICRO_MEAN_COEC<0.343542] yes=109,no=110,missing=110
						109:leaf=0.0124012
						110:leaf=0.0133523
		6:[C_D_U_CATEGORY_UID_MICRO_MEAN_COEC<0.144848] yes=13,no=14,missing=13
			13:[D_TITLEMD5_C<24.1569] yes=27,no=28,missing=28
				27:[C_D_U_KEYWORD_CATEGORY_MICRO_MEAN_COEC<0.093245] yes=55,no=56,missing=56
					55:[KW_REL<0.001414] yes=111,no=112,missing=112
						111:leaf=0.00195338
						112:leaf=0.007588
					56:[D_TITLEMD5_COEC<0.129779] yes=113,no=114,missing=114
						113:leaf=0.00784523
						114:leaf=0.0115447
				28:[C_D_U_GROUPID_CATEGORY_MICRO_MEAN_COEC<0.184592] yes=57,no=58,missing=58
					57:[KW_REL<0.0009] yes=115,no=116,missing=116
						115:leaf=0.00977324
						116:leaf=0.0118597
					58:[C_D_U_TITLEMD5_CATEGORY_MICRO_MEAN_COEC<0.242601] yes=117,no=118,missing=118
						117:leaf=0.0127778
						118:leaf=0.0140722
			14:[D_TITLEMD5_C<7.99] yes=29,no=30,missing=30
				29:[C_D_U_KEYWORD_UID_MACRO_MEAN_COEC<0.100531] yes=59,no=60,missing=59
					59:[D_TITLEMD5_COEC<0.087113] yes=119,no=120,missing=120
						119:leaf=0.00712228
						120:leaf=0.0110776
					60:[D_TITLEMD5_COEC<0.076737] yes=121,no=122,missing=122
						121:leaf=0.0113487
						122:leaf=0.0133165
				30:[C_D_U_TITLEMD5_CATEGORY_MICRO_MEAN_COEC<0.195356] yes=61,no=62,missing=62
					61:[C_D_U_KEYWORD_UID_MICRO_MEAN_COEC<0.168099] yes=123,no=124,missing=123
						123:leaf=0.012913
						124:leaf=0.0139408
					62:[C_D_U_GROUPID_CATEGORY_MICRO_MEAN_COEC<0.245774] yes=125,no=126,missing=126
						125:leaf=0.0143492
						126:leaf=0.014961
booster[27]:
0:[C_D_U_GROUPID_CATEGORY_MICRO_MEAN_COEC<0.091195] yes=1,no=2,missing=1
	1:[C_D_U_KEYWORD_UID_MICRO_MEAN_COEC<0.106828] yes=3,no=4,missing=3
		3:[D_KEYWORD_MACRO_MEAN_COEC<0.100454] yes=7,no=8,missing=8
			7:[C_D_U_GROUPID_CATEGORY_MICRO_MEAN_COEC<0.044035] yes=15,no=16,missing=15
				15:[D_GROUPID_COEC<0.096034] yes=31,no=32,missing=31
					31:[C_D_U_CATEGORY_UID_MACRO_MEAN_COEC<0.058869] yes=63,no=64,missing=63
						63:leaf=-0.00398006
						64:leaf=0.00131693
					32:[D_KEYWORD_MACRO_MEAN_COEC<0.072517] yes=65,no=66,missing=66
						65:leaf=-0.0012692
						66:leaf=0.00376352
				16:[CAT_REL<0.000956] yes=33,no=34,missing=34
					33:[C_D_U_TITLEMD5_CATEGORY_MEAN_C<0.262143] yes=67,no=68,missing=67
						67:leaf=-0.000930874
						68:leaf=0.00267746
					34:[D_TITLEMD5_C<26.6668] yes=69,no=70,missing=69
						69:leaf=0.00271377
						70:leaf=0.00628992
			8:[D_TITLEMD5_COEC<0.19304] yes=17,no=18,missing=17
				17:[D_TITLEMD5_COEC<0.139211] yes=35,no=36,missing=36
					35:[D_KEYWORD_MEAN_C<48.2978] yes=71,no=72,missing=72
						71:leaf=0.0113975
						72:leaf=0.00343098
					36:[D_CATEGORY_MAX_C<9912.2] yes=73,no=74,missing=73
						73:leaf=0.0090944
						74:leaf=0.00725638
				18:[D_TITLEMD5_COEC<0.235273] yes=37,no=38,missing=38
					37:[D_KEYWORD_MICRO_MAX_COEC<0.210755] yes=75,no=76,missing=76
						75:leaf=0.0100188
						76:leaf=0.0113471
					38:[D_KEYWORD_MICRO_MEAN_COEC<0.092638] yes=77,no=78,missing=78
						77:leaf=0.00194867
						78:leaf=0.0129163
		4:[C_D_U_CATEGORY_UID_MACRO_MEAN_COEC<0.146925] yes=9,no=10,missing=9
			9:[D_TITLEMD5_COEC<0.049148] yes=19,no=20,missing=20
				19:[CAT_REL<0.000956] yes=39,no=40,missing=40
					39:[C_D_U_GROUPID_CATEGORY_MICRO_MEAN_COEC<0.025071] yes=79,no=80,missing=79
						79:leaf=-0.00245222
						80:leaf=0.0013665
					40:[KW_REL<0.001596] yes=81,no=82,missing=82
						81:leaf=0.00219997
						82:leaf=0.00623308
				20:[D_TITLEMD5_COEC<0.101778] yes=41,no=42,missing=41
					41:[CAT_REL<0.003377] yes=83,no=84,missing=84
						83:leaf=0.00437481
						84:leaf=0.00809201
					42:[D_KEYWORD_MACRO_MEAN_COEC<0.121712] yes=85,no=86,missing=86
						85:leaf=0.00887342
						86:leaf=0.0132606
			10:[C_D_U_KEYWORD_UID_MACRO_MEAN_COEC<0.125353] yes=21,no=22,missing=22
				21:[D_TITLEMD5_COEC<0.035289] yes=43,no=44,missing=43
					43:[U_CATEGORY_MICRO_MEAN_COEC<0.075709] yes=87,no=88,missing=87
						87:leaf=0.000954868
						88:leaf=0.00633101
					44:[D_TITLEMD5_COEC<0.086677] yes=89,no=90,missing=90
						89:leaf=0.00867166
						90:leaf=0.0107075
				22:[D_TITLEMD5_COEC<0.067576] yes=45,no=46,missing=46
					45:[U_CATEGORY_MICRO_MEAN_COEC<0.075709] yes=91,no=92,missing=91
						91:leaf=0.0067425
						92:leaf=0.0104754
					46:[C_D_U_CATEGORY_UID_MAX_C<1.05556] yes=93,no=94,missing=94
						93:leaf=0.0107282
						94:leaf=0.0120724
	2:[C_D_U_TITLEMD5_CATEGORY_MICRO_MEAN_COEC<0.149194] yes=5,no=6,missing=5
		5:[C_D_U_KEYWORD_UID_MICRO_MEAN_COEC<0.086361] yes=11,no=12,missing=11
			11:[D_TITLEMD5_C<64.0485] yes=23,no=24,missing=23
				23:[C_D_U_CATEGORY_UID_MACRO_MEAN_COEC<0.090047] yes=47,no=48,missing=47
					47:[KW_REL<0.001777] yes=95,no=96,missing=96
						95:leaf=0.00212859
						96:leaf=0.00617598
					48:[C_D_U_CATEGORY_UID_MACRO_MEAN_COEC<0.158614] yes=97,no=98,missing=98
						97:leaf=0.00694301
						98:leaf=0.00922121
				24:[CAT_REL<0.000956] yes=49,no=50,missing=50
					49:[C_D_U_GROUPID_CATEGORY_MICRO_MEAN_COEC<0.11463] yes=99,no=100,missing=100
						99:leaf=0.00571168
						100:leaf=0.00828358
					50:[C_D_U_TITLEMD5_CATEGORY_MICRO_MEAN_COEC<0.115524] yes=101,no=102,missing=102
						101:leaf=0.0086088
						102:leaf=0.010509
			12:[C_D_U_CATEGORY_UID_MICRO_MEAN_COEC<0.208546] yes=25,no=26,missing=25
				25:[C_D_U_TITLEMD5_CATEGORY_MICRO_MEAN_COEC<0.111427] yes=51,no=52,missing=51
					51:[CAT_REL<0.003377] yes=103,no=104,missing=104
						103:leaf=0.00792953
						104:leaf=0.0100649
					52:[D_TITLEMD5_C<37.483] yes=105,no=106,missing=106
						105:leaf=0.00945038
						106:leaf=0.0114364
				26:[C_D_U_KEYWORD_UID_MACRO_MEAN_COEC<0.08799] yes=53,no=54,missing=54
					53:[D_TITLEMD5_C<20.8704] yes=107,no=108,missing=107
						107:leaf=0.010011
						108:leaf=0.011926
					54:[C_D_U_TITLEMD5_CATEGORY_MICRO_MEAN_COEC<0.115524] yes=109,no=110,missing=109
						109:leaf=0.0122855
						110:leaf=0.0132663
		6:[C_D_U_TITLEMD5_CATEGORY_MEAN_C<0.104489] yes=13,no=14,missing=14
			13:[C_D_U_KEYWORD_UID_MACRO_MEAN_COEC<0.049756] yes=27,no=28,missing=27
				27:[D_KEYWORD_MACRO_MEAN_COEC<0.079654] yes=55,no=56,missing=56
					55:[C_D_U_CATEGORY_UID_MICRO_MEAN_COEC<0.088305] yes=111,no=112,missing=111
						111:leaf=0.00264121
						112:leaf=0.00794977
					56:[C_D_U_KEYWORD_CATEGORY_MICRO_MEAN_COEC<0.174832] yes=113,no=114,missing=114
						113:leaf=0.00811279
						114:leaf=0.013908
				28:[C_D_U_CATEGORY_UID_MACRO_MEAN_COEC<0.165137] yes=57,no=58,missing=57
					57:[D_TITLEMD5_COEC<0.077856] yes=115,no=116,missing=116
						115:leaf=0.00631758
						116:leaf=0.0108267
					58:[D_TITLEMD5_COEC<0.104587] yes=117,no=118,missing=118
						117:leaf=0.0115655
						118:leaf=0.0132983
			14:[C_D_U_KEYWORD_UID_MICRO_MEAN_COEC<0.082959] yes=29,no=30,missing=29
				29:[C_D_U_GROUPID_CATEGORY_MICRO_MEAN_COEC<0.200297] yes=59,no=60,missing=60
					59:[D_TITLEMD5_C<106.754] yes=119,no=120,missing=120
						119:leaf=0.00919012
						120:leaf=0.0116123
					60:[D_GROUPID_C<55.2769] yes=121,no=122,missing=122
						121:leaf=0.0109623
						122:leaf=0.0133808
				30:[C_D_U_TITLEMD5_CATEGORY_MICRO_MEAN_COEC<0.199269] yes=61,no=62,missing=62
					61:[C_D_U_CATEGORY_UID_MICRO_MEAN_COEC<0.254337] yes=123,no=124,missing=123
						123:leaf=0.0128397
						124:leaf=0.0140197
					62:[C_D_U_CATEGORY_UID_MICRO_MAX_COEC<0.265232] yes=125,no=126,missing=125
						125:leaf=0.0140962
						126:leaf=0.0147428
booster[28]:
0:[C_D_U_GROUPID_CATEGORY_MICRO_MEAN_COEC<0.090848] yes=1,no=2,missing=1
	1:[C_D_U_KEYWORD_UID_MICRO_MEAN_COEC<0.096726] yes=3,no=4,missing=3
		3:[D_KEYWORD_MACRO_MEAN_COEC<0.095663] yes=7,no=8,missing=8
			7:[C_D_U_GROUPID_CATEGORY_MICRO_MEAN_COEC<0.039261] yes=15,no=16,missing=15
				15:[D_GROUPID_COEC<0.086343] yes=31,no=32,missing=31
					31:[C_D_U_CATEGORY_UID_MACRO_MEAN_COEC<0.062489] yes=63,no=64,missing=63
						63:leaf=-0.00446407
						64:leaf=0.000707398
					32:[D_KEYWORD_MACRO_MEAN_COEC<0.072734] yes=65,no=66,missing=66
						65:leaf=-0.00131405
						66:leaf=0.0029686
				16:[CAT_REL<0.001061] yes=33,no=34,missing=34
					33:[C_D_U_TITLEMD5_CATEGORY_MEAN_C<0.264462] yes=67,no=68,missing=67
						67:leaf=-0.00123877
						68:leaf=0.00239114
					34:[D_TITLEMD5_C<26.0838] yes=69,no=70,missing=69
						69:leaf=0.00222108
						70:leaf=0.00597087
			8:[D_GROUPID_COEC<0.160563] yes=17,no=18,missing=18
				17:[D_CATEGORY_MAX_C<24630.2] yes=35,no=36,missing=35
					35:[D_KEYWORD_MAX_C<21.1919] yes=71,no=72,missing=72
						71:leaf=0.010838
						72:leaf=0.00605698
					36:[C_D_U_CATEGORY_UID_MICRO_MEAN_COEC<0.130457] yes=73,no=74,missing=73
						73:leaf=0.0020183
						74:leaf=0.00756406
				18:[D_TITLEMD5_COEC<0.2032] yes=37,no=38,missing=37
					37:[C_D_U_GROUPID_AGE_COEC<0.180335] yes=75,no=76,missing=75
						75:leaf=0.00848226
						76:leaf=0.0104445
					38:[C_D_U_KEYWORD_CATEGORY_MICRO_MEAN_COEC<0.133814] yes=77,no=78,missing=78
						77:leaf=0.00477654
						78:leaf=0.0122423
		4:[C_D_U_CATEGORY_UID_MACRO_MEAN_COEC<0.154362] yes=9,no=10,missing=9
			9:[D_TITLEMD5_COEC<0.043443] yes=19,no=20,missing=20
				19:[KW_REL<0.001316] yes=39,no=40,missing=40
					39:[C_D_U_GROUPID_CATEGORY_MICRO_MEAN_COEC<0.033007] yes=79,no=80,missing=79
						79:leaf=-0.00209054
						80:leaf=0.00254093
					40:[C_D_U_KEYWORD_UID_MACRO_MEAN_COEC<0.096454] yes=81,no=82,missing=82
						81:leaf=0.00276126
						82:leaf=0.00664359
				20:[C_D_U_KEYWORD_UID_MACRO_MEAN_COEC<0.080983] yes=41,no=42,missing=42
					41:[D_GROUPID_COEC<0.106933] yes=83,no=84,missing=83
						83:leaf=0.00474589
						84:leaf=0.00936692
					42:[D_TITLEMD5_COEC<0.09169] yes=85,no=86,missing=85
						85:leaf=0.00754955
						86:leaf=0.0100449
			10:[C_D_U_KEYWORD_UID_MACRO_MEAN_COEC<0.125807] yes=21,no=22,missing=22
				21:[C_D_U_GROUPID_CATEGORY_MICRO_MEAN_COEC<0.04469] yes=43,no=44,missing=44
					43:[KW_REL<0.000942] yes=87,no=88,missing=88
						87:leaf=0.00385209
						88:leaf=0.00673499
					44:[D_TITLEMD5_C<19.8259] yes=89,no=90,missing=89
						89:leaf=0.0080111
						90:leaf=0.0101252
				22:[C_D_U_CATEGORY_UID_MEAN_C<1.20348] yes=45,no=46,missing=46
					45:[C_D_U_GROUPID_CATEGORY_MICRO_MEAN_COEC<0.04469] yes=91,no=92,missing=92
						91:leaf=0.00711082
						92:leaf=0.0102215
					46:[C_D_U_CATEGORY_UID_MACRO_MEAN_COEC<0.377308] yes=93,no=94,missing=94
						93:leaf=0.0105921
						94:leaf=0.0125142
	2:[C_D_U_TITLEMD5_CATEGORY_MICRO_MEAN_COEC<0.149954] yes=5,no=6,missing=5
		5:[C_D_U_KEYWORD_UID_MICRO_MEAN_COEC<0.110928] yes=11,no=12,missing=11
			11:[D_TITLEMD5_C<40.3974] yes=23,no=24,missing=23
				23:[C_D_U_CATEGORY_UID_MACRO_MEAN_COEC<0.079666] yes=47,no=48,missing=47
					47:[KW_REL<0.001511] yes=95,no=96,missing=96
						95:leaf=0.00134107
						96:leaf=0.00548601
					48:[D_TITLEMD5_COEC<0.054233] yes=97,no=98,missing=98
						97:leaf=0.00510965
						98:leaf=0.00828344
				24:[CAT_REL<0.001061] yes=49,no=50,missing=50
					49:[D_TITLEMD5_C<265.689] yes=99,no=100,missing=100
						99:leaf=0.00548182
						100:leaf=0.00818952
					50:[C_D_U_TITLEMD5_CATEGORY_MICRO_MEAN_COEC<0.113391] yes=101,no=102,missing=102
						101:leaf=0.00837392
						102:leaf=0.01037
			12:[C_D_U_CATEGORY_UID_MICRO_MEAN_COEC<0.208841] yes=25,no=26,missing=25
				25:[KW_REL<0.001316] yes=51,no=52,missing=52
					51:[D_TITLEMD5_C<43.4581] yes=103,no=104,missing=103
						103:leaf=0.00685952
						104:leaf=0.00984293
					52:[C_D_U_TITLEMD5_CATEGORY_MICRO_MEAN_COEC<0.113391] yes=105,no=106,missing=105
						105:leaf=0.0101852
						106:leaf=0.0116917
				26:[C_D_U_TITLEMD5_CATEGORY_MICRO_MEAN_COEC<0.113391] yes=53,no=54,missing=53
					53:[C_D_U_KEYWORD_UID_MACRO_MEAN_COEC<0.088666] yes=107,no=108,missing=108
						107:leaf=0.0108311
						108:leaf=0.01218
					54:[C_D_U_KEYWORD_UID_MACRO_MEAN_COEC<0.100729] yes=109,no=110,missing=110
						109:leaf=0.0121967
						110:leaf=0.0132062
		6:[C_D_U_TITLEMD5_CATEGORY_MEAN_C<0.108476] yes=13,no=14,missing=14
			13:[C_D_U_CATEGORY_UID_MACRO_MEAN_COEC<0.102062] yes=27,no=28,missing=27
				27:[C_D_U_KEYWORD_CATEGORY_MICRO_MEAN_COEC<0.08745] yes=55,no=56,missing=56
					55:[D_GROUPID_C<2.98007] yes=111,no=112,missing=112
						111:leaf=-0.000421592
						112:leaf=0.00490795
					56:[D_TITLEMD5_COEC<0.126596] yes=113,no=114,missing=114
						113:leaf=0.00570963
						114:leaf=0.0102939
				28:[C_D_U_KEYWORD_UID_MACRO_MEAN_COEC<0.080983] yes=57,no=58,missing=57
					57:[D_TITLEMD5_COEC<0.098111] yes=115,no=116,missing=116
						115:leaf=0.00725638
						116:leaf=0.0109903
					58:[D_TITLEMD5_COEC<0.10118] yes=117,no=118,missing=118
						117:leaf=0.0115846
						118:leaf=0.0131879
			14:[C_D_U_KEYWORD_UID_MICRO_MEAN_COEC<0.070967] yes=29,no=30,missing=29
				29:[C_D_U_GROUPID_CATEGORY_MICRO_MEAN_COEC<0.194004] yes=59,no=60,missing=60
					59:[D_TITLEMD5_C<74.1016] yes=119,no=120,missing=120
						119:leaf=0.00860707
						120:leaf=0.0113356
					60:[D_GROUPID_C<30.7811] yes=121,no=122,missing=122
						121:leaf=0.01008
						122:leaf=0.0131028
				30:[C_D_U_TITLEMD5_CATEGORY_MICRO_MEAN_COEC<0.205002] yes=61,no=62,missing=62
					61:[C_D_U_CATEGORY_UID_MICRO_MAX_COEC<0.184106] yes=123,no=124,missing=124
						123:leaf=0.0124419
						124:leaf=0.0136929
					62:[C_D_U_CATEGORY_UID_MICRO_MEAN_COEC<0.199151] yes=125,no=126,missing=125
						125:leaf=0.0139818
						126:leaf=0.01461
booster[29]:
0:[C_D_U_GROUPID_CATEGORY_MICRO_MEAN_COEC<0.080158] yes=1,no=2,missing=1
	1:[D_KEYWORD_MACRO_MEAN_COEC<0.096558] yes=3,no=4,missing=4
		3:[C_D_U_KEYWORD_UID_MACRO_MEAN_COEC<0.038925] yes=7,no=8,missing=7
			7:[D_TITLEMD5_COEC<0.028885] yes=15,no=16,missing=15
				15:[C_D_U_CATEGORY_UID_MACRO_MEAN_COEC<0.072712] yes=31,no=32,missing=31
					31:[U_CATEGORY_MICRO_MEAN_COEC<0.075861] yes=63,no=64,missing=63
						63:leaf=-0.00823765
						64:leaf=-0.00439284
					32:[U_CATEGORY_MICRO_MEAN_COEC<0.080696] yes=65,no=66,missing=65
						65:leaf=-0.00276382
						66:leaf=0.00108145
				16:[CAT_REL<0.000768] yes=33,no=34,missing=34
					33:[D_TITLEMD5_C<206.241] yes=67,no=68,missing=68
						67:leaf=-0.00205972
						68:leaf=0.00267501
					34:[D_TITLEMD5_C<21.4354] yes=69,no=70,missing=70
						69:leaf=0.000979683
						70:leaf=0.0045484
			8:[C_D_U_CATEGORY_UID_MACRO_MEAN_COEC<0.13001] yes=17,no=18,missing=17
				17:[D_TITLEMD5_COEC<0.044107] yes=35,no=36,missing=36
					35:[CAT_REL<0.005438] yes=71,no=72,missing=72
						71:leaf=-0.00131046
						72:leaf=0.00314002
					36:[CAT_REL<0.000768] yes=73,no=74,missing=74
						73:leaf=0.00387548
						74:leaf=0.00674894
				18:[C_D_U_KEYWORD_UID_MACRO_MEAN_COEC<0.131459] yes=37,no=38,missing=38
					37:[C_D_U_GROUPID_CATEGORY_MICRO_MEAN_COEC<0.03949] yes=75,no=76,missing=75
						75:leaf=0.00588577
						76:leaf=0.00882111
					38:[C_D_U_CATEGORY_UID_MEAN_C<1.2107] yes=77,no=78,missing=78
						77:leaf=0.00873019
						78:leaf=0.0108683
		4:[D_TITLEMD5_COEC<0.18999] yes=9,no=10,missing=9
			9:[D_TITLEMD5_COEC<0.135346] yes=19,no=20,missing=20
				19:[C_D_U_KEYWORD_UID_MICRO_MEAN_COEC<0.069973] yes=39,no=40,missing=39
					39:[D_KEYWORD_MEAN_C<39.29] yes=79,no=80,missing=80
						79:leaf=0.0110883
						80:leaf=0.00273343
					40:[D_KEYWORD_MEAN_C<39.29] yes=81,no=82,missing=82
						81:leaf=0.0144193
						82:leaf=0.0083232
				20:[C_D_U_KEYWORD_UID_MEAN_C<0.000194] yes=41,no=42,missing=41
					41:[D_CATEGORY_MEAN_C<17330.2] yes=83,no=84,missing=83
						83:leaf=0.00856769
						84:leaf=0.00629688
					42:[C_D_U_CATEGORY_UID_MICRO_MAX_COEC<0.190362] yes=85,no=86,missing=86
						85:leaf=0.0101933
						86:leaf=0.012244
			10:[D_KEYWORD_MICRO_MAX_COEC<0.218239] yes=21,no=22,missing=21
				21:[C_D_U_CATEGORY_UID_MICRO_MAX_COEC<0.120347] yes=43,no=44,missing=43
					43:[D_TITLEMD5_C<66.9786] yes=87,no=88,missing=88
						87:leaf=0.00540561
						88:leaf=0.00993859
					44:[C_D_U_PUBLISHER_CITY_COEC<0.120097] yes=89,no=90,missing=89
						89:leaf=0.0120091
						90:leaf=0.0133947
				22:[C_D_U_KEYWORD_CATEGORY_MICRO_MEAN_COEC<0.095713] yes=45,no=46,missing=46
					45:[D_TITLEMD5_C<1.32609] yes=91,no=92,missing=92
						91:leaf=0.00142777
						92:leaf=0.00858263
					46:[D_KEYWORD_MICRO_MEAN_COEC<0.211494] yes=93,no=94,missing=94
						93:leaf=0.0120921
						94:leaf=0.013559
	2:[C_D_U_GROUPID_CATEGORY_MICRO_MEAN_COEC<0.130653] yes=5,no=6,missing=6
		5:[C_D_U_CATEGORY_UID_MICRO_MEAN_COEC<0.111379] yes=11,no=12,missing=11
			11:[C_D_U_KEYWORD_UID_MICRO_MEAN_COEC<0.080398] yes=23,no=24,missing=23
				23:[D_TITLEMD5_C<105.564] yes=47,no=48,missing=47
					47:[KW_REL<0.00146] yes=95,no=96,missing=96
						95:leaf=0.0017269
						96:leaf=0.00555595
					48:[CAT_REL<0.000768] yes=97,no=98,missing=98
						97:leaf=0.00584729
						98:leaf=0.00867903
				24:[D_TITLEMD5_C<53.617] yes=49,no=50,missing=50
					49:[KW_REL<0.001585] yes=99,no=100,missing=100
						99:leaf=0.00540673
						100:leaf=0.00855702
					50:[CAT_REL<0.000768] yes=101,no=102,missing=102
						101:leaf=0.00859191
						102:leaf=0.0108132
			12:[C_D_U_KEYWORD_UID_MICRO_MEAN_COEC<0.161504] yes=25,no=26,missing=25
				25:[D_TITLEMD5_C<28.3493] yes=51,no=52,missing=51
					51:[KW_REL<0.001269] yes=103,no=104,missing=104
						103:leaf=0.00641053
						104:leaf=0.00881349
					52:[C_D_U_CATEGORY_UID_MACRO_MEAN_COEC<0.205859] yes=105,no=106,missing=106
						105:leaf=0.00945891
						106:leaf=0.0109751
				26:[C_D_U_CATEGORY_UID_MACRO_MEAN_COEC<0.286718] yes=53,no=54,missing=54
					53:[KW_REL<0.002255] yes=107,no=108,missing=108
						107:leaf=0.0104382
						108:leaf=0.0118876
					54:[C_D_U_CATEGORY_UID_MAX_C<1.06467] yes=109,no=110,missing=110
						109:leaf=0.0116975
						110:leaf=0.0129931
		6:[C_D_U_KEYWORD_UID_MICRO_MEAN_COEC<0.117446] yes=13,no=14,missing=13
			13:[D_TITLEMD5_C<53.617] yes=27,no=28,missing=27
				27:[D_GROUPID_C<2.995] yes=55,no=56,missing=56
					55:[KW_REL<0.001659] yes=111,no=112,missing=112
						111:leaf=0.00077045
						112:leaf=0.00598835
					56:[CAT_REL<0.000768] yes=113,no=114,missing=114
						113:leaf=0.00592136
						114:leaf=0.0097716
				28:[C_D_U_TITLEMD5_CATEGORY_MICRO_MEAN_COEC<0.178062] yes=57,no=58,missing=58
					57:[KW_REL<0.00067] yes=115,no=116,missing=116
						115:leaf=0.00897213
						116:leaf=0.0110986
					58:[C_D_U_TITLEMD5_CATEGORY_MICRO_MEAN_COEC<0.224498] yes=117,no=118,missing=118
						117:leaf=0.0122656
						118:leaf=0.0135869
			14:[C_D_U_TITLEMD5_CATEGORY_MICRO_MEAN_COEC<0.16838] yes=29,no=30,missing=29
				29:[C_D_U_CATEGORY_UID_MICRO_MEAN_COEC<0.238593] yes=59,no=60,missing=59
					59:[D_TITLEMD5_C<30.8636] yes=119,no=120,missing=119
						119:leaf=0.0102949
						120:leaf=0.0122399
					60:[M_D_U_KEYWORD_KEYWORD_MICRO_MAX_COEC<0.07903] yes=121,no=122,missing=121
						121:leaf=0.012565
						122:leaf=0.0134777
				30:[D_GROUPID_C<8.661] yes=61,no=62,missing=62
					61:[KW_REL<0.001533] yes=123,no=124,missing=124
						123:leaf=0.00933366
						124:leaf=0.0123207
					62:[C_D_U_TITLEMD5_CATEGORY_MICRO_MEAN_COEC<0.224498] yes=125,no=126,missing=126
						125:leaf=0.013656
						126:leaf=0.0144301
booster[30]:
0:[C_D_U_GROUPID_CATEGORY_MICRO_MEAN_COEC<0.094035] yes=1,no=2,missing=1
	1:[C_D_U_KEYWORD_UID_MACRO_MEAN_COEC<0.049521] yes=3,no=4,missing=3
		3:[D_KEYWORD_MACRO_MEAN_COEC<0.095219] yes=7,no=8,missing=8
			7:[C_D_U_GROUPID_CATEGORY_MICRO_MEAN_COEC<0.038246] yes=15,no=16,missing=15
				15:[D_GROUPID_COEC<0.086702] yes=31,no=32,missing=31
					31:[C_D_U_CATEGORY_UID_MACRO_MEAN_COEC<0.072978] yes=63,no=64,missing=63
						63:leaf=-0.00431104
						64:leaf=0.000721417
					32:[D_KEYWORD_MACRO_MEAN_COEC<0.071602] yes=65,no=66,missing=66
						65:leaf=-0.00128297
						66:leaf=0.00299658
				16:[C_D_U_CATEGORY_UID_MICRO_MEAN_COEC<0.119053] yes=33,no=34,missing=33
					33:[D_TITLEMD5_C<47.7597] yes=67,no=68,missing=67
						67:leaf=0.000363697
						68:leaf=0.00377636
					34:[D_TITLEMD5_C<27.5178] yes=69,no=70,missing=69
						69:leaf=0.00560183
						70:leaf=0.00805908
			8:[D_TITLEMD5_COEC<0.165167] yes=17,no=18,missing=18
				17:[D_CATEGORY_MEAN_C<24578.5] yes=35,no=36,missing=35
					35:[D_TITLEMD5_COEC<0.126821] yes=71,no=72,missing=72
						71:leaf=0.00517102
						72:leaf=0.00780053
					36:[C_D_U_CATEGORY_UID_MICRO_MAX_COEC<0.136044] yes=73,no=74,missing=73
						73:leaf=0.00215905
						74:leaf=0.00772066
				18:[D_TITLEMD5_COEC<0.207114] yes=37,no=38,missing=37
					37:[C_D_U_KEYWORD_UID_MEAN_C<0.000184] yes=75,no=76,missing=75
						75:leaf=0.00859593
						76:leaf=0.0114955
					38:[D_KEYWORD_MICRO_MEAN_COEC<0.088218] yes=77,no=78,missing=77
						77:leaf=0.00372651
						78:leaf=0.0121324
		4:[C_D_U_CATEGORY_UID_MACRO_MEAN_COEC<0.170736] yes=9,no=10,missing=9
			9:[C_D_U_GROUPID_CATEGORY_MICRO_MEAN_COEC<0.053598] yes=19,no=20,missing=20
				19:[C_D_U_KEYWORD_UID_MACRO_MEAN_COEC<0.102364] yes=39,no=40,missing=40
					39:[CAT_REL<0.001114] yes=79,no=80,missing=80
						79:leaf=-0.000189825
						80:leaf=0.00323239
					40:[C_D_U_KEYWORD_UID_MEAN_C<0.030816] yes=81,no=82,missing=82
						81:leaf=0.00354199
						82:leaf=0.00726352
				20:[D_TITLEMD5_COEC<0.088881] yes=41,no=42,missing=41
					41:[CAT_REL<0.003068] yes=83,no=84,missing=84
						83:leaf=0.00397862
						84:leaf=0.00775112
					42:[D_GROUPID_COEC<0.14821] yes=85,no=86,missing=86
						85:leaf=0.00869775
						86:leaf=0.0122593
			10:[C_D_U_GROUPID_CATEGORY_MICRO_MEAN_COEC<0.048943] yes=21,no=22,missing=22
				21:[C_D_U_KEYWORD_UID_MACRO_MEAN_COEC<0.164223] yes=43,no=44,missing=44
					43:[C_D_U_PUBLISHER_UID_COEC<0.099003] yes=87,no=88,missing=87
						87:leaf=0.00611761
						88:leaf=0.00845232
					44:[C_D_U_CATEGORY_UID_MEAN_C<1.33188] yes=89,no=90,missing=90
						89:leaf=0.00780872
						90:leaf=0.0109154
				22:[C_D_U_KEYWORD_UID_MICRO_MEAN_COEC<0.210494] yes=45,no=46,missing=46
					45:[D_TITLEMD5_C<27.5178] yes=91,no=92,missing=91
						91:leaf=0.00856806
						92:leaf=0.0100705
					46:[C_D_U_CATEGORY_UID_MAX_C<1.13675] yes=93,no=94,missing=94
						93:leaf=0.0100884
						94:leaf=0.0117313
	2:[C_D_U_TITLEMD5_CATEGORY_MICRO_MEAN_COEC<0.149212] yes=5,no=6,missing=5
		5:[C_D_U_KEYWORD_UID_MICRO_MEAN_COEC<0.078011] yes=11,no=12,missing=11
			11:[D_TITLEMD5_C<37.832] yes=23,no=24,missing=23
				23:[CAT_REL<0.003068] yes=47,no=48,missing=48
					47:[D_KEYWORD_MACRO_MEAN_COEC<0.06898] yes=95,no=96,missing=96
						95:leaf=-0.00120855
						96:leaf=0.00327018
					48:[D_TITLEMD5_C<3.82672] yes=97,no=98,missing=98
						97:leaf=0.00179408
						98:leaf=0.00622281
				24:[CAT_REL<0.001114] yes=49,no=50,missing=50
					49:[D_TITLEMD5_C<360.471] yes=99,no=100,missing=100
						99:leaf=0.00551459
						100:leaf=0.00821997
					50:[D_TITLEMD5_C<240.307] yes=101,no=102,missing=102
						101:leaf=0.00844474
						102:leaf=0.0103426
			12:[C_D_U_CATEGORY_UID_MACRO_MEAN_COEC<0.156538] yes=25,no=26,missing=25
				25:[D_TITLEMD5_C<38.6847] yes=51,no=52,missing=51
					51:[CAT_REL<0.018514] yes=103,no=104,missing=104
						103:leaf=0.00579858
						104:leaf=0.00917941
					52:[CAT_REL<0.001114] yes=105,no=106,missing=106
						105:leaf=0.00950716
						106:leaf=0.0112815
				26:[C_D_U_KEYWORD_UID_MICRO_MEAN_COEC<0.240661] yes=53,no=54,missing=54
					53:[C_D_U_TITLEMD5_CATEGORY_MICRO_MEAN_COEC<0.114191] yes=107,no=108,missing=107
						107:leaf=0.0106555
						108:leaf=0.0119232
					54:[M_D_U_KEYWORD_KEYWORD_MICRO_MAX_COEC<0.078934] yes=109,no=110,missing=109
						109:leaf=0.0116819
						110:leaf=0.0128437
		6:[C_D_U_TITLEMD5_CATEGORY_MEAN_C<0.190997] yes=13,no=14,missing=14
			13:[C_D_U_CATEGORY_UID_MACRO_MEAN_COEC<0.097464] yes=27,no=28,missing=27
				27:[C_D_U_KEYWORD_CATEGORY_MICRO_MEAN_COEC<0.095689] yes=55,no=56,missing=56
					55:[D_GROUPID_C<2.995] yes=111,no=112,missing=112
						111:leaf=0.000454577
						112:leaf=0.00610828
					56:[D_TITLEMD5_COEC<0.145831] yes=113,no=114,missing=114
						113:leaf=0.00729053
						114:leaf=0.0114443
				28:[C_D_U_KEYWORD_UID_MICRO_MEAN_COEC<0.161686] yes=57,no=58,missing=58
					57:[D_TITLEMD5_COEC<0.093865] yes=115,no=116,missing=116
						115:leaf=0.00793232
						116:leaf=0.0111477
					58:[D_TITLEMD5_C<3.82672] yes=117,no=118,missing=118
						117:leaf=0.0116804
						118:leaf=0.0132024
			14:[C_D_U_KEYWORD_UID_MICRO_MAX_COEC<0.269459] yes=29,no=30,missing=29
				29:[C_D_U_GROUPID_CATEGORY_MICRO_MEAN_COEC<0.205207] yes=59,no=60,missing=60
					59:[M_D_U_KEYWORD_KEYWORD_MICRO_MAX_COEC<0.103758] yes=119,no=120,missing=119
						119:leaf=0.0101253
						120:leaf=0.011812
					60:[U_CAT_LEN<12] yes=121,no=122,missing=122
						121:leaf=0.0120742
						122:leaf=0.0133194
				30:[C_D_U_TITLEMD5_CATEGORY_MICRO_MEAN_COEC<0.205913] yes=61,no=62,missing=62
					61:[C_D_U_CATEGORY_UID_MICRO_MEAN_COEC<0.16463] yes=123,no=124,missing=124
						123:leaf=0.012143
						124:leaf=0.0134944
					62:[C_D_U_KEYWORD_UID_MACRO_MEAN_COEC<0.481862] yes=125,no=126,missing=126
						125:leaf=0.0142173
						126:leaf=0.0124277
booster[31]:
0:[C_D_U_GROUPID_CATEGORY_MICRO_MEAN_COEC<0.09105] yes=1,no=2,missing=1
	1:[C_D_U_CATEGORY_UID_MACRO_MEAN_COEC<0.09683] yes=3,no=4,missing=3
		3:[D_KEYWORD_MACRO_MEAN_COEC<0.10448] yes=7,no=8,missing=8
			7:[D_TITLEMD5_COEC<0.039311] yes=15,no=16,missing=15
				15:[KW_REL<0.000948] yes=31,no=32,missing=32
					31:[C_D_U_GROUPID_CATEGORY_MICRO_MEAN_COEC<0.025054] yes=63,no=64,missing=63
						63:leaf=-0.00681588
						64:leaf=-0.00227889
					32:[C_D_U_KEYWORD_UID_MACRO_MEAN_COEC<0.05856] yes=65,no=66,missing=65
						65:leaf=-0.00213112
						66:leaf=0.00346477
				16:[C_D_U_KEYWORD_UID_MICRO_MEAN_COEC<0.060466] yes=33,no=34,missing=33
					33:[D_TITLEMD5_C<126.804] yes=67,no=68,missing=68
						67:leaf=-0.00077896
						68:leaf=0.0030495
					34:[CAT_REL<0.002928] yes=69,no=70,missing=70
						69:leaf=0.00374791
						70:leaf=0.00675211
			8:[D_TITLEMD5_COEC<0.204677] yes=17,no=18,missing=17
				17:[D_TITLEMD5_COEC<0.154203] yes=35,no=36,missing=36
					35:[D_KEYWORD_MAX_C<16.1061] yes=71,no=72,missing=72
						71:leaf=0.011434
						72:leaf=0.00445598
					36:[D_CATEGORY_MAX_C<19775.1] yes=73,no=74,missing=73
						73:leaf=0.00910319
						74:leaf=0.00748859
				18:[C_D_U_KEYWORD_CATEGORY_MEAN_C<0.147283] yes=37,no=38,missing=37
					37:[D_CATEGORY_MAX_C<36690.2] yes=75,no=76,missing=75
						75:leaf=0.012554
						76:leaf=0.0106848
					38:[KW_REL<0.001236] yes=77,no=78,missing=78
						77:leaf=0.000783423
						78:leaf=0.00730103
		4:[C_D_U_KEYWORD_UID_MICRO_MEAN_COEC<0.149813] yes=9,no=10,missing=9
			9:[D_GROUPID_COEC<0.032384] yes=19,no=20,missing=19
				19:[KW_REL<0.001062] yes=39,no=40,missing=40
					39:[C_D_U_TITLEMD5_CATEGORY_MICRO_MEAN_COEC<0.027021] yes=79,no=80,missing=79
						79:leaf=-0.00164897
						80:leaf=0.00351451
					40:[D_TITLEMD5_C<15.9054] yes=81,no=82,missing=82
						81:leaf=0.0029297
						82:leaf=0.0064255
				20:[D_TITLEMD5_C<103] yes=41,no=42,missing=41
					41:[C_D_U_KEYWORD_UID_MICRO_MEAN_COEC<0.05701] yes=83,no=84,missing=83
						83:leaf=0.00435296
						84:leaf=0.00695013
					42:[D_TITLEMD5_COEC<0.169714] yes=85,no=86,missing=86
						85:leaf=0.00821013
						86:leaf=0.012367
			10:[C_D_U_GROUPID_CATEGORY_MICRO_MEAN_COEC<0.050124] yes=21,no=22,missing=22
				21:[C_D_U_KEYWORD_UID_MACRO_MEAN_COEC<0.156764] yes=43,no=44,missing=44
					43:[IMAGE_COUNT<0.999999] yes=87,no=88,missing=88
						87:leaf=0.00187517
						88:leaf=0.00672758
					44:[C_D_U_CATEGORY_UID_MEAN_C<3.056] yes=89,no=90,missing=90
						89:leaf=0.00840408
						90:leaf=0.0111365
				22:[C_D_U_KEYWORD_UID_MACRO_MEAN_COEC<0.113772] yes=45,no=46,missing=46
					45:[D_TITLEMD5_C<28.3311] yes=91,no=92,missing=91
						91:leaf=0.00790615
						92:leaf=0.0100498
					46:[C_D_U_CATEGORY_UID_MACRO_MEAN_COEC<0.270162] yes=93,no=94,missing=94
						93:leaf=0.0100236
						94:leaf=0.0114832
	2:[C_D_U_TITLEMD5_CATEGORY_MICRO_MEAN_COEC<0.144112] yes=5,no=6,missing=5
		5:[C_D_U_KEYWORD_UID_MICRO_MEAN_COEC<0.086088] yes=11,no=12,missing=11
			11:[D_TITLEMD5_C<73.5107] yes=23,no=24,missing=23
				23:[CAT_REL<0.00103] yes=47,no=48,missing=48
					47:[D_TITLEMD5_COEC<0.085733] yes=95,no=96,missing=95
						95:leaf=4.15456e-05
						96:leaf=0.00397062
					48:[C_D_U_CATEGORY_UID_MACRO_MEAN_COEC<0.090176] yes=97,no=98,missing=98
						97:leaf=0.00472583
						98:leaf=0.00768976
				24:[CAT_REL<0.00103] yes=49,no=50,missing=50
					49:[C_D_U_TITLEMD5_CATEGORY_MICRO_MEAN_COEC<0.11039] yes=99,no=100,missing=100
						99:leaf=0.00514698
						100:leaf=0.0076935
					50:[U_CAT_LEN<12] yes=101,no=102,missing=102
						101:leaf=0.00766084
						102:leaf=0.00989581
			12:[C_D_U_CATEGORY_UID_MICRO_MEAN_COEC<0.200454] yes=25,no=26,missing=25
				25:[C_D_U_KEYWORD_UID_MACRO_MEAN_COEC<0.093392] yes=51,no=52,missing=52
					51:[D_TITLEMD5_C<53.1724] yes=103,no=104,missing=103
						103:leaf=0.00740498
						104:leaf=0.00981517
					52:[M_D_U_KEYWORD_KEYWORD_MICRO_MAX_COEC<0.105423] yes=105,no=106,missing=105
						105:leaf=0.00994938
						106:leaf=0.0113805
				26:[C_D_U_KEYWORD_UID_MACRO_MEAN_COEC<0.087006] yes=53,no=54,missing=54
					53:[D_TITLEMD5_C<33.6229] yes=107,no=108,missing=107
						107:leaf=0.00988794
						108:leaf=0.0115219
					54:[C_D_U_CATEGORY_UID_MACRO_MEAN_COEC<0.333382] yes=109,no=110,missing=110
						109:leaf=0.0118544
						110:leaf=0.0128184
		6:[C_D_U_CATEGORY_UID_MICRO_MEAN_COEC<0.148171] yes=13,no=14,missing=13
			13:[D_TITLEMD5_C<30.6032] yes=27,no=28,missing=28
				27:[M_D_U_KEYWORD_KEYWORD_MICRO_MAX_COEC<0.103175] yes=55,no=56,missing=55
					55:[D_GROUPID_C<3] yes=111,no=112,missing=112
						111:leaf=0.00114104
						112:leaf=0.00666168
					56:[M_D_U_KEYWORD_KEYWORD_MICRO_MAX_COEC<0.178275] yes=113,no=114,missing=114
						113:leaf=0.0089613
						114:leaf=0.0128925
				28:[C_D_U_TITLEMD5_CATEGORY_MICRO_MEAN_COEC<0.200121] yes=57,no=58,missing=58
					57:[KW_REL<0.000673] yes=115,no=116,missing=116
						115:leaf=0.00939252
						116:leaf=0.011507
					58:[C_D_U_GROUPID_CATEGORY_MICRO_MEAN_COEC<0.244969] yes=117,no=118,missing=118
						117:leaf=0.0125398
						118:leaf=0.0136671
			14:[D_TITLEMD5_C<9.80683] yes=29,no=30,missing=30
				29:[C_D_U_KEYWORD_UID_MACRO_MEAN_COEC<0.102269] yes=59,no=60,missing=59
					59:[D_TITLEMD5_COEC<0.085733] yes=119,no=120,missing=120
						119:leaf=0.00710408
						120:leaf=0.0108259
					60:[D_TITLEMD5_COEC<0.094543] yes=121,no=122,missing=122
						121:leaf=0.011581
						122:leaf=0.0130788
				30:[C_D_U_TITLEMD5_CATEGORY_MICRO_MEAN_COEC<0.191155] yes=61,no=62,missing=62
					61:[C_D_U_KEYWORD_UID_MICRO_MEAN_COEC<0.177408] yes=123,no=124,missing=123
						123:leaf=0.0124539
						124:leaf=0.0134654
					62:[C_D_U_TITLEMD5_CATEGORY_MICRO_MEAN_COEC<0.238963] yes=125,no=126,missing=126
						125:leaf=0.0138135
						126:leaf=0.0144262
booster[32]:
0:[C_D_U_GROUPID_CATEGORY_MICRO_MEAN_COEC<0.094221] yes=1,no=2,missing=1
	1:[C_D_U_KEYWORD_UID_MICRO_MEAN_COEC<0.102054] yes=3,no=4,missing=3
		3:[D_KEYWORD_MACRO_MEAN_COEC<0.100227] yes=7,no=8,missing=8
			7:[C_D_U_GROUPID_CATEGORY_MICRO_MEAN_COEC<0.049198] yes=15,no=16,missing=15
				15:[D_TITLEMD5_COEC<0.101598] yes=31,no=32,missing=31
					31:[C_D_U_CATEGORY_UID_MACRO_MEAN_COEC<0.059942] yes=63,no=64,missing=63
						63:leaf=-0.00356262
						64:leaf=0.00141818
					32:[D_KEYWORD_MACRO_MEAN_COEC<0.073651] yes=65,no=66,missing=66
						65:leaf=-0.000829089
						66:leaf=0.00394738
				16:[CAT_REL<0.000816] yes=33,no=34,missing=34
					33:[C_D_U_TITLEMD5_CATEGORY_MEAN_C<0.315317] yes=67,no=68,missing=67
						67:leaf=-0.000546811
						68:leaf=0.00298142
					34:[D_TITLEMD5_C<25.8062] yes=69,no=70,missing=69
						69:leaf=0.00268457
						70:leaf=0.00621963
			8:[D_TITLEMD5_COEC<0.192463] yes=17,no=18,missing=17
				17:[D_TITLEMD5_COEC<0.145713] yes=35,no=36,missing=36
					35:[D_KEYWORD_MAX_C<15.8804] yes=71,no=72,missing=72
						71:leaf=0.0109793
						72:leaf=0.00383975
					36:[U_CAT_LEN<11] yes=73,no=74,missing=74
						73:leaf=0.00765965
						74:leaf=0.0100797
				18:[D_GROUPID_COEC<0.234929] yes=37,no=38,missing=37
					37:[D_PUBLISHER_COEC<0.118548] yes=75,no=76,missing=76
						75:leaf=0.00863942
						76:leaf=0.0106902
					38:[D_KEYWORD_MICRO_MEAN_COEC<0.091487] yes=77,no=78,missing=78
						77:leaf=0.00133551
						78:leaf=0.0124467
		4:[C_D_U_CATEGORY_UID_MACRO_MEAN_COEC<0.172897] yes=9,no=10,missing=9
			9:[C_D_U_GROUPID_CATEGORY_MICRO_MEAN_COEC<0.053995] yes=19,no=20,missing=20
				19:[C_D_U_KEYWORD_UID_MACRO_MEAN_COEC<0.09067] yes=39,no=40,missing=40
					39:[CAT_REL<0.000816] yes=79,no=80,missing=80
						79:leaf=-0.000768766
						80:leaf=0.00295225
					40:[CAT_REL<0.002928] yes=81,no=82,missing=82
						81:leaf=0.00286775
						82:leaf=0.00680994
				20:[C_D_U_KEYWORD_UID_MACRO_MEAN_COEC<0.083091] yes=41,no=42,missing=42
					41:[D_TITLEMD5_COEC<0.111222] yes=83,no=84,missing=83
						83:leaf=0.00525035
						84:leaf=0.00962911
					42:[D_TITLEMD5_COEC<0.091767] yes=85,no=86,missing=85
						85:leaf=0.00787648
						86:leaf=0.0101285
			10:[C_D_U_GROUPID_CATEGORY_MICRO_MEAN_COEC<0.044313] yes=21,no=22,missing=22
				21:[C_D_U_KEYWORD_UID_MACRO_MEAN_COEC<0.157091] yes=43,no=44,missing=44
					43:[IMAGE_COUNT<0.999999] yes=87,no=88,missing=88
						87:leaf=0.00178612
						88:leaf=0.00656274
					44:[C_D_U_CATEGORY_UID_MEAN_C<1.51872] yes=89,no=90,missing=90
						89:leaf=0.00754655
						90:leaf=0.0107294
				22:[C_D_U_KEYWORD_UID_MACRO_MEAN_COEC<0.132151] yes=45,no=46,missing=46
					45:[D_TITLEMD5_C<15.9173] yes=91,no=92,missing=91
						91:leaf=0.00796982
						92:leaf=0.0099912
					46:[C_D_U_CATEGORY_UID_MAX_C<1.07415] yes=93,no=94,missing=94
						93:leaf=0.010032
						94:leaf=0.0115145
	2:[C_D_U_TITLEMD5_CATEGORY_MICRO_MEAN_COEC<0.152437] yes=5,no=6,missing=5
		5:[C_D_U_KEYWORD_UID_MICRO_MEAN_COEC<0.118461] yes=11,no=12,missing=11
			11:[D_TITLEMD5_C<34.2925] yes=23,no=24,missing=23
				23:[C_D_U_CATEGORY_UID_MACRO_MEAN_COEC<0.072756] yes=47,no=48,missing=47
					47:[KW_REL<0.001157] yes=95,no=96,missing=96
						95:leaf=0.000614274
						96:leaf=0.00485841
					48:[D_TITLEMD5_COEC<0.048276] yes=97,no=98,missing=98
						97:leaf=0.00392862
						98:leaf=0.00797464
				24:[CAT_REL<0.000816] yes=49,no=50,missing=50
					49:[D_TITLEMD5_C<272.015] yes=99,no=100,missing=100
						99:leaf=0.00553898
						100:leaf=0.00813311
					50:[C_D_U_CATEGORY_UID_MICRO_MEAN_COEC<0.143428] yes=101,no=102,missing=101
						101:leaf=0.00898226
						102:leaf=0.0111976
			12:[C_D_U_CATEGORY_UID_MICRO_MEAN_COEC<0.226603] yes=25,no=26,missing=25
				25:[KW_REL<0.00131] yes=51,no=52,missing=52
					51:[D_TITLEMD5_C<30.6773] yes=103,no=104,missing=103
						103:leaf=0.00641489
						104:leaf=0.00969465
					52:[C_D_U_TITLEMD5_CATEGORY_MICRO_MEAN_COEC<0.115063] yes=105,no=106,missing=105
						105:leaf=0.0100979
						106:leaf=0.0115382
				26:[C_D_U_TITLEMD5_CATEGORY_MICRO_MEAN_COEC<0.112819] yes=53,no=54,missing=53
					53:[C_D_U_KEYWORD_UID_MACRO_MEAN_COEC<0.09067] yes=107,no=108,missing=108
						107:leaf=0.0106045
						108:leaf=0.0119221
					54:[C_D_U_KEYWORD_UID_MACRO_MEAN_COEC<0.119127] yes=109,no=110,missing=110
						109:leaf=0.0120504
						110:leaf=0.0129643
		6:[C_D_U_TITLEMD5_CATEGORY_MEAN_C<0.1105] yes=13,no=14,missing=14
			13:[C_D_U_KEYWORD_UID_MACRO_MEAN_COEC<0.049168] yes=27,no=28,missing=27
				27:[D_KEYWORD_MACRO_MEAN_COEC<0.075712] yes=55,no=56,missing=56
					55:[CAT_REL<0.002928] yes=111,no=112,missing=112
						111:leaf=-0.000187995
						112:leaf=0.00523695
					56:[C_D_U_KEYWORD_CATEGORY_MICRO_MEAN_COEC<0.174523] yes=113,no=114,missing=114
						113:leaf=0.00755415
						114:leaf=0.0134805
				28:[C_D_U_CATEGORY_UID_MACRO_MEAN_COEC<0.183924] yes=57,no=58,missing=57
					57:[D_TITLEMD5_COEC<0.069065] yes=115,no=116,missing=116
						115:leaf=0.00527098
						116:leaf=0.010419
					58:[D_TITLEMD5_COEC<0.104483] yes=117,no=118,missing=118
						117:leaf=0.0113132
						118:leaf=0.0129757
			14:[C_D_U_KEYWORD_UID_MICRO_MAX_COEC<0.274481] yes=29,no=30,missing=29
				29:[C_D_U_GROUPID_CATEGORY_MICRO_MEAN_COEC<0.204213] yes=59,no=60,missing=60
					59:[D_TITLEMD5_C<74.2174] yes=119,no=120,missing=120
						119:leaf=0.00850823
						120:leaf=0.0110874
					60:[D_GROUPID_C<7.97005] yes=121,no=122,missing=122
						121:leaf=0.00710255
						122:leaf=0.0127448
				30:[C_D_U_TITLEMD5_CATEGORY_MICRO_MEAN_COEC<0.204928] yes=61,no=62,missing=62
					61:[C_D_U_CATEGORY_UID_MICRO_MAX_COEC<0.165102] yes=123,no=124,missing=124
						123:leaf=0.0119301
						124:leaf=0.0133087
					62:[C_D_U_CATEGORY_UID_MICRO_MEAN_COEC<0.199999] yes=125,no=126,missing=125
						125:leaf=0.0135637
						126:leaf=0.0142452
booster[33]:
0:[C_D_U_GROUPID_CATEGORY_MICRO_MEAN_COEC<0.082491] yes=1,no=2,missing=1
	1:[C_D_U_CATEGORY_UID_MACRO_MEAN_COEC<0.118944] yes=3,no=4,missing=3
		3:[D_KEYWORD_MACRO_MEAN_COEC<0.096369] yes=7,no=8,missing=8
			7:[C_D_U_GROUPID_CATEGORY_MICRO_MEAN_COEC<0.038494] yes=15,no=16,missing=15
				15:[D_KEYWORD_MACRO_MEAN_COEC<0.070734] yes=31,no=32,missing=32
					31:[C_D_U_KEYWORD_UID_MACRO_MEAN_COEC<0.020064] yes=63,no=64,missing=63
						63:leaf=-0.00453386
						64:leaf=0.000178948
					32:[D_TITLEMD5_COEC<0.104625] yes=65,no=66,missing=66
						65:leaf=-0.000341019
						66:leaf=0.00392913
				16:[C_D_U_KEYWORD_UID_MICRO_MEAN_COEC<0.065729] yes=33,no=34,missing=33
					33:[CAT_REL<0.000979] yes=67,no=68,missing=68
						67:leaf=-0.000536925
						68:leaf=0.00275013
					34:[CAT_REL<0.000979] yes=69,no=70,missing=70
						69:leaf=0.00329154
						70:leaf=0.00639843
			8:[D_GROUPID_COEC<0.165341] yes=17,no=18,missing=18
				17:[D_CATEGORY_MAX_C<19809.6] yes=35,no=36,missing=35
					35:[D_KEYWORD_MAX_C<16.2219] yes=71,no=72,missing=72
						71:leaf=0.0109548
						72:leaf=0.00633895
					36:[D_TITLEMD5_COEC<0.123312] yes=73,no=74,missing=74
						73:leaf=0.000286913
						74:leaf=0.00411376
				18:[D_TITLEMD5_COEC<0.214283] yes=37,no=38,missing=37
					37:[C_D_U_TITLEMD5_AGE_C<51.4089] yes=75,no=76,missing=75
						75:leaf=0.0083975
						76:leaf=0.010313
					38:[C_D_U_KEYWORD_CATEGORY_MICRO_MAX_COEC<0.264264] yes=77,no=78,missing=78
						77:leaf=0.00253081
						78:leaf=0.0119552
		4:[C_D_U_KEYWORD_UID_MACRO_MEAN_COEC<0.059772] yes=9,no=10,missing=9
			9:[D_TITLEMD5_COEC<0.026085] yes=19,no=20,missing=19
				19:[U_CATEGORY_MICRO_MAX_COEC<0.10548] yes=39,no=40,missing=39
					39:[IMAGE_COUNT<0.999999] yes=79,no=80,missing=80
						79:leaf=-0.00573713
						80:leaf=0.000199991
					40:[D_TITLEMD5_COEC<0.019622] yes=81,no=82,missing=82
						81:leaf=0.00177281
						82:leaf=0.00511335
				20:[D_GROUPID_COEC<0.119117] yes=41,no=42,missing=41
					41:[C_D_U_GROUPID_CATEGORY_MICRO_MEAN_COEC<0.049867] yes=83,no=84,missing=83
						83:leaf=0.00431844
						84:leaf=0.00711792
					42:[D_KEYWORD_MACRO_MEAN_COEC<0.132401] yes=85,no=86,missing=86
						85:leaf=0.00919506
						86:leaf=0.0130247
			10:[C_D_U_KEYWORD_UID_MACRO_MEAN_COEC<0.163735] yes=21,no=22,missing=22
				21:[C_D_U_GROUPID_CATEGORY_MICRO_MEAN_COEC<0.038494] yes=43,no=44,missing=44
					43:[C_D_U_PUBLISHER_UID_COEC<0.083611] yes=87,no=88,missing=87
						87:leaf=0.0050752
						88:leaf=0.00765951
					44:[C_D_U_CATEGORY_UID_MACRO_MEAN_COEC<0.252256] yes=89,no=90,missing=90
						89:leaf=0.00791478
						90:leaf=0.00979306
				22:[C_D_U_CATEGORY_UID_MEAN_C<2.19104] yes=45,no=46,missing=46
					45:[D_TITLEMD5_COEC<0.067182] yes=91,no=92,missing=92
						91:leaf=0.00822713
						92:leaf=0.0102756
					46:[C_D_U_CATEGORY_UID_MACRO_MEAN_COEC<0.402805] yes=93,no=94,missing=94
						93:leaf=0.0104516
						94:leaf=0.0126868
	2:[C_D_U_TITLEMD5_CATEGORY_MICRO_MEAN_COEC<0.130837] yes=5,no=6,missing=5
		5:[C_D_U_KEYWORD_UID_MICRO_MEAN_COEC<0.077988] yes=11,no=12,missing=11
			11:[D_TITLEMD5_C<60.9358] yes=23,no=24,missing=23
				23:[CAT_REL<0.003186] yes=47,no=48,missing=48
					47:[C_D_U_CATEGORY_UID_MACRO_MAX_COEC<0.062456] yes=95,no=96,missing=96
						95:leaf=-0.000963302
						96:leaf=0.00297161
					48:[C_D_U_CATEGORY_UID_MACRO_MAX_COEC<0.075241] yes=97,no=98,missing=98
						97:leaf=0.00362145
						98:leaf=0.00663028
				24:[CAT_REL<0.000979] yes=49,no=50,missing=50
					49:[C_D_U_TITLEMD5_CATEGORY_MICRO_MEAN_COEC<0.10326] yes=99,no=100,missing=100
						99:leaf=0.00410253
						100:leaf=0.00663598
					50:[U_CAT_LEN<14] yes=101,no=102,missing=102
						101:leaf=0.00710019
						102:leaf=0.00910908
			12:[C_D_U_CATEGORY_UID_MACRO_MEAN_COEC<0.156642] yes=25,no=26,missing=25
				25:[C_D_U_KEYWORD_UID_MACRO_MEAN_COEC<0.079014] yes=51,no=52,missing=52
					51:[D_TITLEMD5_C<55.7845] yes=103,no=104,missing=103
						103:leaf=0.00615063
						104:leaf=0.00876276
					52:[M_D_U_KEYWORD_KEYWORD_MICRO_MAX_COEC<0.103273] yes=105,no=106,missing=105
						105:leaf=0.00890151
						106:leaf=0.0105217
				26:[C_D_U_KEYWORD_UID_MICRO_MEAN_COEC<0.23117] yes=53,no=54,missing=54
					53:[D_TITLEMD5_C<23.9104] yes=107,no=108,missing=107
						107:leaf=0.00940944
						108:leaf=0.01092
					54:[CAT_REL<0.000979] yes=109,no=110,missing=110
						109:leaf=0.0108946
						110:leaf=0.0121893
		6:[C_D_U_CATEGORY_UID_MICRO_MEAN_COEC<0.138468] yes=13,no=14,missing=13
			13:[D_TITLEMD5_C<37.3021] yes=27,no=28,missing=28
				27:[M_D_U_KEYWORD_KEYWORD_MICRO_MAX_COEC<0.10256] yes=55,no=56,missing=55
					55:[D_GROUPID_C<2.995] yes=111,no=112,missing=112
						111:leaf=0.000518713
						112:leaf=0.0061849
					56:[M_D_U_KEYWORD_KEYWORD_MICRO_MAX_COEC<0.178037] yes=113,no=114,missing=114
						113:leaf=0.00859461
						114:leaf=0.0125651
				28:[C_D_U_GROUPID_CATEGORY_MICRO_MEAN_COEC<0.17338] yes=57,no=58,missing=58
					57:[KW_REL<0.000948] yes=115,no=116,missing=116
						115:leaf=0.00860628
						116:leaf=0.0108208
					58:[C_D_U_TITLEMD5_CATEGORY_MICRO_MEAN_COEC<0.230828] yes=117,no=118,missing=118
						117:leaf=0.0118905
						118:leaf=0.0132973
			14:[C_D_U_GROUPID_CATEGORY_MICRO_MEAN_COEC<0.168437] yes=29,no=30,missing=30
				29:[C_D_U_KEYWORD_UID_MICRO_MEAN_COEC<0.192241] yes=59,no=60,missing=59
					59:[D_TITLEMD5_C<15.6621] yes=119,no=120,missing=120
						119:leaf=0.00957629
						120:leaf=0.0118676
					60:[KW_REL<0.002191] yes=121,no=122,missing=122
						121:leaf=0.0123792
						122:leaf=0.0132914
				30:[D_GROUPID_C<6.68782] yes=61,no=62,missing=62
					61:[KW_REL<0.00138] yes=123,no=124,missing=124
						123:leaf=0.00873332
						124:leaf=0.0119305
					62:[C_D_U_TITLEMD5_CATEGORY_MICRO_MEAN_COEC<0.211295] yes=125,no=126,missing=126
						125:leaf=0.013273
						126:leaf=0.0140123
booster[34]:
0:[C_D_U_GROUPID_CATEGORY_MICRO_MEAN_COEC<0.093879] yes=1,no=2,missing=1
	1:[C_D_U_CATEGORY_UID_MACRO_MEAN_COEC<0.10122] yes=3,no=4,missing=3
		3:[D_KEYWORD_MACRO_MEAN_COEC<0.101836] yes=7,no=8,missing=8
			7:[C_D_U_GROUPID_CATEGORY_MICRO_MEAN_COEC<0.057764] yes=15,no=16,missing=15
				15:[D_TITLEMD5_C<35.6181] yes=31,no=32,missing=31
					31:[C_D_U_KEYWORD_UID_MICRO_MEAN_COEC<0.045557] yes=63,no=64,missing=63
						63:leaf=-0.00453986
						64:leaf=0.000648053
					32:[D_TITLEMD5_COEC<0.107727] yes=65,no=66,missing=66
						65:leaf=-0.000134025
						66:leaf=0.00456274
				16:[C_D_U_KEYWORD_UID_MICRO_MEAN_COEC<0.086122] yes=33,no=34,missing=33
					33:[CAT_REL<0.000806] yes=67,no=68,missing=68
						67:leaf=0.00111705
						68:leaf=0.0043187
					34:[CAT_REL<0.000806] yes=69,no=70,missing=70
						69:leaf=0.00508433
						70:leaf=0.00781095
			8:[D_TITLEMD5_COEC<0.198578] yes=17,no=18,missing=17
				17:[D_GROUPID_COEC<0.150471] yes=35,no=36,missing=36
					35:[D_CATEGORY_MEAN_C<26572] yes=71,no=72,missing=71
						71:leaf=0.00654663
						72:leaf=0.00224739
					36:[D_CATEGORY_MEAN_C<17389.5] yes=73,no=74,missing=73
						73:leaf=0.00876597
						74:leaf=0.00694841
				18:[C_D_U_KEYWORD_CATEGORY_MEAN_C<0.147974] yes=37,no=38,missing=37
					37:[D_TITLEMD5_COEC<0.237441] yes=75,no=76,missing=76
						75:leaf=0.0104502
						76:leaf=0.0123487
					38:[KW_REL<0.001337] yes=77,no=78,missing=78
						77:leaf=0.000545276
						78:leaf=0.00768522
		4:[C_D_U_KEYWORD_UID_MACRO_MEAN_COEC<0.080659] yes=9,no=10,missing=9
			9:[D_TITLEMD5_COEC<0.028086] yes=19,no=20,missing=19
				19:[C_D_U_KEYWORD_CATEGORY_MICRO_MEAN_COEC<0.066911] yes=39,no=40,missing=39
					39:[IMAGE_COUNT<0.999999] yes=79,no=80,missing=80
						79:leaf=-0.00524271
						80:leaf=-0.000560647
					40:[D_CATEGORY_MICRO_MEAN_COEC<0.084097] yes=81,no=82,missing=82
						81:leaf=0.00397875
						82:leaf=0.000346209
				20:[D_TITLEMD5_C<43.4748] yes=41,no=42,missing=42
					41:[C_D_U_KEYWORD_UID_MICRO_MEAN_COEC<0.061083] yes=83,no=84,missing=84
						83:leaf=0.00372524
						84:leaf=0.00647721
					42:[D_TITLEMD5_COEC<0.149001] yes=85,no=86,missing=86
						85:leaf=0.00780221
						86:leaf=0.0117188
			10:[C_D_U_CATEGORY_UID_MACRO_MEAN_COEC<0.266751] yes=21,no=22,missing=22
				21:[D_TITLEMD5_COEC<0.055573] yes=43,no=44,missing=44
					43:[CAT_REL<0.010313] yes=87,no=88,missing=88
						87:leaf=0.00376473
						88:leaf=0.00754701
					44:[CAT_REL<0.008185] yes=89,no=90,missing=90
						89:leaf=0.00801529
						90:leaf=0.00980498
				22:[C_D_U_CATEGORY_UID_MEAN_C<1.17105] yes=45,no=46,missing=46
					45:[D_TITLEMD5_COEC<0.044091] yes=91,no=92,missing=91
						91:leaf=0.0065591
						92:leaf=0.00982925
					46:[C_D_U_CATEGORY_UID_MACRO_MEAN_COEC<0.403471] yes=93,no=94,missing=94
						93:leaf=0.010353
						94:leaf=0.011937
	2:[C_D_U_TITLEMD5_CATEGORY_MICRO_MEAN_COEC<0.152738] yes=5,no=6,missing=5
		5:[C_D_U_KEYWORD_UID_MICRO_MEAN_COEC<0.118484] yes=11,no=12,missing=11
			11:[D_TITLEMD5_C<55.419] yes=23,no=24,missing=23
				23:[C_D_U_CATEGORY_UID_MACRO_MEAN_COEC<0.075457] yes=47,no=48,missing=47
					47:[KW_REL<0.001841] yes=95,no=96,missing=96
						95:leaf=0.00204395
						96:leaf=0.00595588
					48:[C_D_U_CATEGORY_UID_MACRO_MEAN_COEC<0.156077] yes=97,no=98,missing=98
						97:leaf=0.00679571
						98:leaf=0.0089598
				24:[CAT_REL<0.000806] yes=49,no=50,missing=50
					49:[D_TITLEMD5_C<359.158] yes=99,no=100,missing=100
						99:leaf=0.00587428
						100:leaf=0.00819099
					50:[C_D_U_CATEGORY_UID_MACRO_MEAN_COEC<0.117922] yes=101,no=102,missing=101
						101:leaf=0.00897152
						102:leaf=0.0110008
			12:[C_D_U_CATEGORY_UID_MICRO_MEAN_COEC<0.238091] yes=25,no=26,missing=25
				25:[KW_REL<0.001313] yes=51,no=52,missing=52
					51:[D_TITLEMD5_C<30.612] yes=103,no=104,missing=103
						103:leaf=0.00635584
						104:leaf=0.00955854
					52:[C_D_U_TITLEMD5_CATEGORY_MICRO_MEAN_COEC<0.117706] yes=105,no=106,missing=105
						105:leaf=0.0100788
						106:leaf=0.0114461
				26:[C_D_U_TITLEMD5_CATEGORY_MICRO_MEAN_COEC<0.112897] yes=53,no=54,missing=53
					53:[C_D_U_KEYWORD_UID_MACRO_MEAN_COEC<0.086777] yes=107,no=108,missing=108
						107:leaf=0.0104014
						108:leaf=0.0117879
					54:[C_D_U_KEYWORD_UID_MACRO_MEAN_COEC<0.119209] yes=109,no=110,missing=110
						109:leaf=0.0119159
						110:leaf=0.0128207
		6:[C_D_U_TITLEMD5_CATEGORY_MEAN_C<0.113572] yes=13,no=14,missing=14
			13:[C_D_U_KEYWORD_UID_MACRO_MEAN_COEC<0.044598] yes=27,no=28,missing=27
				27:[D_KEYWORD_MACRO_MEAN_COEC<0.07122] yes=55,no=56,missing=56
					55:[CAT_REL<0.005163] yes=111,no=112,missing=112
						111:leaf=-0.00102369
						112:leaf=0.00462399
					56:[C_D_U_KEYWORD_CATEGORY_MICRO_MEAN_COEC<0.174373] yes=113,no=114,missing=114
						113:leaf=0.00705093
						114:leaf=0.013333
				28:[C_D_U_CATEGORY_UID_MACRO_MEAN_COEC<0.182698] yes=57,no=58,missing=57
					57:[D_TITLEMD5_COEC<0.101691] yes=115,no=116,missing=116
						115:leaf=0.00732759
						116:leaf=0.010698
					58:[D_TITLEMD5_COEC<0.094267] yes=117,no=118,missing=118
						117:leaf=0.0109317
						118:leaf=0.0126576
			14:[C_D_U_KEYWORD_UID_MICRO_MEAN_COEC<0.083092] yes=29,no=30,missing=29
				29:[C_D_U_GROUPID_CATEGORY_MICRO_MEAN_COEC<0.204667] yes=59,no=60,missing=60
					59:[D_TITLEMD5_C<111.173] yes=119,no=120,missing=120
						119:leaf=0.00881176
						120:leaf=0.0111388
					60:[D_GROUPID_C<56.1988] yes=121,no=122,missing=122
						121:leaf=0.0105238
						122:leaf=0.0128032
				30:[C_D_U_TITLEMD5_CATEGORY_MICRO_MEAN_COEC<0.210373] yes=61,no=62,missing=62
					61:[C_D_U_CATEGORY_UID_MICRO_MAX_COEC<0.275024] yes=123,no=124,missing=123
						123:leaf=0.0123831
						124:leaf=0.0134934
					62:[C_D_U_KEYWORD_UID_MACRO_MEAN_COEC<0.476784] yes=125,no=126,missing=126
						125:leaf=0.0138933
						126:leaf=0.0122045
booster[35]:
0:[C_D_U_GROUPID_CATEGORY_MICRO_MEAN_COEC<0.093448] yes=1,no=2,missing=1
	1:[C_D_U_KEYWORD_UID_MACRO_MEAN_COEC<0.051282] yes=3,no=4,missing=3
		3:[D_KEYWORD_MACRO_MEAN_COEC<0.09646] yes=7,no=8,missing=8
			7:[C_D_U_GROUPID_CATEGORY_MICRO_MEAN_COEC<0.043767] yes=15,no=16,missing=15
				15:[D_GROUPID_COEC<0.087427] yes=31,no=32,missing=31
					31:[C_D_U_CATEGORY_UID_MACRO_MEAN_COEC<0.066485] yes=63,no=64,missing=63
						63:leaf=-0.00386715
						64:leaf=0.000947585
					32:[D_KEYWORD_MACRO_MEAN_COEC<0.071462] yes=65,no=66,missing=66
						65:leaf=-0.00123344
						66:leaf=0.00297246
				16:[CAT_REL<0.000762] yes=33,no=34,missing=34
					33:[D_TITLEMD5_C<42.5135] yes=67,no=68,missing=67
						67:leaf=-0.00150969
						68:leaf=0.00219932
					34:[D_TITLEMD5_C<30.4574] yes=69,no=70,missing=69
						69:leaf=0.00250714
						70:leaf=0.00611009
			8:[D_TITLEMD5_COEC<0.167945] yes=17,no=18,missing=18
				17:[D_CATEGORY_MEAN_C<18575.7] yes=35,no=36,missing=35
					35:[D_KEYWORD_MAX_C<20.5893] yes=71,no=72,missing=72
						71:leaf=0.0108565
						72:leaf=0.00632231
					36:[C_D_U_CATEGORY_UID_MICRO_MAX_COEC<0.135142] yes=73,no=74,missing=73
						73:leaf=0.00228193
						74:leaf=0.00768167
				18:[D_TITLEMD5_COEC<0.215074] yes=37,no=38,missing=37
					37:[C_D_U_GROUPID_AGE_COEC<0.180011] yes=75,no=76,missing=75
						75:leaf=0.00833315
						76:leaf=0.0103217
					38:[D_TITLEMD5_C<1.18543] yes=77,no=78,missing=78
						77:leaf=0.00480403
						78:leaf=0.0118756
		4:[C_D_U_CATEGORY_UID_MACRO_MEAN_COEC<0.171928] yes=9,no=10,missing=9
			9:[C_D_U_GROUPID_CATEGORY_MICRO_MEAN_COEC<0.053863] yes=19,no=20,missing=20
				19:[CAT_REL<0.003068] yes=39,no=40,missing=40
					39:[D_GROUPID_COEC<0.032424] yes=79,no=80,missing=80
						79:leaf=-0.00160592
						80:leaf=0.00211416
					40:[C_D_U_KEYWORD_UID_MACRO_MEAN_COEC<0.104858] yes=81,no=82,missing=82
						81:leaf=0.00332665
						82:leaf=0.0066698
				20:[D_TITLEMD5_COEC<0.083183] yes=41,no=42,missing=41
					41:[CAT_REL<0.000762] yes=83,no=84,missing=84
						83:leaf=0.00346912
						84:leaf=0.00731526
					42:[D_TITLEMD5_COEC<0.121114] yes=85,no=86,missing=86
						85:leaf=0.00798952
						86:leaf=0.0106881
			10:[C_D_U_GROUPID_CATEGORY_MICRO_MEAN_COEC<0.049305] yes=21,no=22,missing=22
				21:[C_D_U_KEYWORD_UID_MACRO_MEAN_COEC<0.146318] yes=43,no=44,missing=44
					43:[IMAGE_COUNT<0.999999] yes=87,no=88,missing=88
						87:leaf=0.00297864
						88:leaf=0.00688661
					44:[C_D_U_CATEGORY_UID_MEAN_C<1.20728] yes=89,no=90,missing=90
						89:leaf=0.0071043
						90:leaf=0.0102129
				22:[C_D_U_KEYWORD_UID_MICRO_MEAN_COEC<0.222478] yes=45,no=46,missing=46
					45:[CAT_REL<0.003068] yes=91,no=92,missing=92
						91:leaf=0.0078889
						92:leaf=0.00957985
					46:[C_D_U_CATEGORY_UID_MAX_C<1.07981] yes=93,no=94,missing=94
						93:leaf=0.00963485
						94:leaf=0.0113558
	2:[C_D_U_TITLEMD5_CATEGORY_MICRO_MEAN_COEC<0.153217] yes=5,no=6,missing=5
		5:[C_D_U_KEYWORD_UID_MICRO_MEAN_COEC<0.097328] yes=11,no=12,missing=11
			11:[D_TITLEMD5_C<108.391] yes=23,no=24,missing=23
				23:[CAT_REL<0.000762] yes=47,no=48,missing=48
					47:[C_D_U_CATEGORY_UID_MACRO_MEAN_COEC<0.090051] yes=95,no=96,missing=95
						95:leaf=0.00204749
						96:leaf=0.00684231
					48:[D_TITLEMD5_C<9.87072] yes=97,no=98,missing=97
						97:leaf=0.00388733
						98:leaf=0.00741718
				24:[CAT_REL<0.000762] yes=49,no=50,missing=50
					49:[C_D_U_GROUPID_CATEGORY_MICRO_MEAN_COEC<0.117845] yes=99,no=100,missing=100
						99:leaf=0.00589026
						100:leaf=0.00821466
					50:[U_CAT_LEN<12] yes=101,no=102,missing=102
						101:leaf=0.00798951
						102:leaf=0.0101376
			12:[C_D_U_CATEGORY_UID_MICRO_MEAN_COEC<0.20973] yes=25,no=26,missing=25
				25:[CAT_REL<0.000762] yes=51,no=52,missing=52
					51:[D_TITLEMD5_C<47.5059] yes=103,no=104,missing=104
						103:leaf=0.00578462
						104:leaf=0.00942718
					52:[D_TITLEMD5_C<30.4574] yes=105,no=106,missing=106
						105:leaf=0.00909921
						106:leaf=0.0111275
				26:[C_D_U_KEYWORD_UID_MACRO_MEAN_COEC<0.131165] yes=53,no=54,missing=54
					53:[D_TITLEMD5_C<30.4574] yes=107,no=108,missing=107
						107:leaf=0.0101599
						108:leaf=0.0116541
					54:[C_D_U_TITLEMD5_CATEGORY_MICRO_MEAN_COEC<0.115624] yes=109,no=110,missing=109
						109:leaf=0.0117722
						110:leaf=0.012713
		6:[D_TITLEMD5_C<13.8905] yes=13,no=14,missing=14
			13:[C_D_U_CATEGORY_UID_MACRO_MEAN_COEC<0.090051] yes=27,no=28,missing=27
				27:[C_D_U_KEYWORD_CATEGORY_MICRO_MEAN_COEC<0.09345] yes=55,no=56,missing=56
					55:[KW_REL<0.001628] yes=111,no=112,missing=112
						111:leaf=0.000515582
						112:leaf=0.00583868
					56:[D_TITLEMD5_COEC<0.094592] yes=113,no=114,missing=114
						113:leaf=0.00421085
						114:leaf=0.00958204
				28:[C_D_U_KEYWORD_UID_MACRO_MEAN_COEC<0.088438] yes=57,no=58,missing=57
					57:[D_TITLEMD5_COEC<0.10407] yes=115,no=116,missing=116
						115:leaf=0.00722599
						116:leaf=0.010548
					58:[D_TITLEMD5_COEC<0.10407] yes=117,no=118,missing=118
						117:leaf=0.0112196
						118:leaf=0.0127276
			14:[C_D_U_KEYWORD_UID_MICRO_MEAN_COEC<0.073774] yes=29,no=30,missing=29
				29:[C_D_U_GROUPID_CATEGORY_MICRO_MEAN_COEC<0.210366] yes=59,no=60,missing=60
					59:[D_TITLEMD5_C<108.391] yes=119,no=120,missing=120
						119:leaf=0.00877629
						120:leaf=0.0110803
					60:[C_D_U_GROUPID_CATEGORY_MICRO_MEAN_COEC<0.25741] yes=121,no=122,missing=122
						121:leaf=0.0122027
						122:leaf=0.0132789
				30:[C_D_U_TITLEMD5_CATEGORY_MICRO_MEAN_COEC<0.205306] yes=61,no=62,missing=62
					61:[C_D_U_CATEGORY_UID_MICRO_MAX_COEC<0.238974] yes=123,no=124,missing=123
						123:leaf=0.0121647
						124:leaf=0.0133246
					62:[CAT_REL<0.000762] yes=125,no=126,missing=126
						125:leaf=0.0132793
						126:leaf=0.0139404
booster[36]:
0:[C_D_U_GROUPID_CATEGORY_MICRO_MEAN_COEC<0.082549] yes=1,no=2,missing=1
	1:[D_KEYWORD_MACRO_MEAN_COEC<0.106271] yes=3,no=4,missing=4
		3:[C_D_U_KEYWORD_UID_MACRO_MEAN_COEC<0.04027] yes=7,no=8,missing=7
			7:[D_TITLEMD5_C<30.7197] yes=15,no=16,missing=15
				15:[C_D_U_GROUPID_CATEGORY_MICRO_MEAN_COEC<0.024482] yes=31,no=32,missing=31
					31:[C_D_U_CATEGORY_UID_MACRO_MEAN_COEC<0.066931] yes=63,no=64,missing=63
						63:leaf=-0.0053716
						64:leaf=-0.000370604
					32:[C_D_U_CATEGORY_UID_MICRO_MEAN_COEC<0.08796] yes=65,no=66,missing=65
						65:leaf=-0.00108896
						66:leaf=0.00389467
				16:[C_D_U_CATEGORY_UID_MACRO_MAX_COEC<0.062046] yes=33,no=34,missing=33
					33:[D_TITLEMD5_C<393.806] yes=67,no=68,missing=68
						67:leaf=0.000393976
						68:leaf=0.00446421
					34:[CAT_REL<0.016743] yes=69,no=70,missing=70
						69:leaf=0.00497331
						70:leaf=0.00732568
			8:[C_D_U_CATEGORY_UID_MACRO_MEAN_COEC<0.157104] yes=17,no=18,missing=17
				17:[D_TITLEMD5_COEC<0.039334] yes=35,no=36,missing=36
					35:[CAT_REL<0.016743] yes=71,no=72,missing=72
						71:leaf=-0.00124594
						72:leaf=0.00328754
					36:[CAT_REL<0.003341] yes=73,no=74,missing=74
						73:leaf=0.00398518
						74:leaf=0.00667251
				18:[C_D_U_KEYWORD_UID_MACRO_MEAN_COEC<0.146281] yes=37,no=38,missing=38
					37:[C_D_U_GROUPID_CATEGORY_MICRO_MEAN_COEC<0.032286] yes=75,no=76,missing=76
						75:leaf=0.00530855
						76:leaf=0.00839928
					38:[C_D_U_CATEGORY_UID_MAX_C<1.01076] yes=77,no=78,missing=78
						77:leaf=0.0084058
						78:leaf=0.0106381
		4:[D_TITLEMD5_COEC<0.20245] yes=9,no=10,missing=9
			9:[D_KEYWORD_MACRO_MEAN_COEC<0.122202] yes=19,no=20,missing=20
				19:[C_D_U_KEYWORD_UID_MICRO_MEAN_COEC<0.094243] yes=39,no=40,missing=39
					39:[D_GROUPID_COEC<0.135933] yes=79,no=80,missing=79
						79:leaf=0.00293065
						80:leaf=0.0067032
					40:[D_TITLEMD5_COEC<0.117601] yes=81,no=82,missing=82
						81:leaf=0.00750063
						82:leaf=0.0107929
				20:[C_D_U_KEYWORD_UID_MAX_C<0.000184] yes=41,no=42,missing=41
					41:[KW_REL<0.000692] yes=83,no=84,missing=84
						83:leaf=0.00764913
						84:leaf=0.0100627
					42:[C_D_U_KEYWORD_CATEGORY_MEAN_C<0.217358] yes=85,no=86,missing=85
						85:leaf=0.0119829
						86:leaf=0.00580834
			10:[C_D_U_KEYWORD_CATEGORY_MICRO_MEAN_COEC<0.101905] yes=21,no=22,missing=22
				21:[C_D_U_CATEGORY_UID_MICRO_MAX_COEC<0.091539] yes=43,no=44,missing=43
					43:[D_KEYWORD_MICRO_MEAN_COEC<0.139897] yes=87,no=88,missing=88
						87:leaf=0.000106525
						88:leaf=0.012609
					44:[C_D_U_CATEGORY_UID_MAX_C<0.999999] yes=89,no=90,missing=90
						89:leaf=0.00461377
						90:leaf=0.00948285
				22:[D_GROUPID_COEC<0.245907] yes=45,no=46,missing=45
					45:[C_D_U_KEYWORD_UID_MEAN_C<0.00019] yes=91,no=92,missing=91
						91:leaf=0.0105869
						92:leaf=0.013022
					46:[D_KEYWORD_MICRO_MEAN_COEC<0.072011] yes=93,no=94,missing=94
						93:leaf=-0.00758889
						94:leaf=0.0125031
	2:[C_D_U_GROUPID_CATEGORY_MICRO_MEAN_COEC<0.130198] yes=5,no=6,missing=6
		5:[C_D_U_CATEGORY_UID_MICRO_MEAN_COEC<0.115009] yes=11,no=12,missing=11
			11:[C_D_U_KEYWORD_UID_MICRO_MEAN_COEC<0.078068] yes=23,no=24,missing=23
				23:[D_TITLEMD5_C<68.2552] yes=47,no=48,missing=47
					47:[KW_REL<0.001806] yes=95,no=96,missing=96
						95:leaf=0.00135905
						96:leaf=0.00519826
					48:[CAT_REL<0.003341] yes=97,no=98,missing=98
						97:leaf=0.00524713
						98:leaf=0.00794724
				24:[C_D_U_KEYWORD_UID_MACRO_MEAN_COEC<0.093065] yes=49,no=50,missing=50
					49:[D_TITLEMD5_C<52.9385] yes=99,no=100,missing=99
						99:leaf=0.00585649
						100:leaf=0.00853729
					50:[M_D_U_KEYWORD_KEYWORD_MICRO_MAX_COEC<0.097788] yes=101,no=102,missing=101
						101:leaf=0.00873772
						102:leaf=0.0104489
			12:[C_D_U_KEYWORD_UID_MICRO_MEAN_COEC<0.170275] yes=25,no=26,missing=25
				25:[D_TITLEMD5_C<36.6764] yes=51,no=52,missing=51
					51:[KW_REL<0.001204] yes=103,no=104,missing=104
						103:leaf=0.00633213
						104:leaf=0.00862925
					52:[CAT_REL<0.005109] yes=105,no=106,missing=106
						105:leaf=0.00884402
						106:leaf=0.0103802
				26:[C_D_U_CATEGORY_UID_MACRO_MEAN_COEC<0.288131] yes=53,no=54,missing=54
					53:[KW_REL<0.002113] yes=107,no=108,missing=108
						107:leaf=0.00987628
						108:leaf=0.0113155
					54:[C_D_U_CATEGORY_UID_MAX_C<1.01076] yes=109,no=110,missing=110
						109:leaf=0.011062
						110:leaf=0.0124158
		6:[C_D_U_KEYWORD_UID_MICRO_MEAN_COEC<0.128869] yes=13,no=14,missing=13
			13:[D_TITLEMD5_C<30.7197] yes=27,no=28,missing=27
				27:[C_D_U_KEYWORD_CATEGORY_MICRO_MEAN_COEC<0.080877] yes=55,no=56,missing=56
					55:[C_D_U_CATEGORY_UID_MACRO_MAX_COEC<0.050603] yes=111,no=112,missing=111
						111:leaf=0.00178653
						112:leaf=0.00732641
					56:[D_TITLEMD5_COEC<0.12015] yes=113,no=114,missing=113
						113:leaf=0.00628087
						114:leaf=0.00989665
				28:[C_D_U_TITLEMD5_CATEGORY_MICRO_MEAN_COEC<0.178048] yes=57,no=58,missing=57
					57:[KW_REL<0.000903] yes=115,no=116,missing=116
						115:leaf=0.00857979
						116:leaf=0.0105373
					58:[C_D_U_TITLEMD5_CATEGORY_MICRO_MEAN_COEC<0.224165] yes=117,no=118,missing=118
						117:leaf=0.0116074
						118:leaf=0.0129354
			14:[C_D_U_TITLEMD5_CATEGORY_MICRO_MEAN_COEC<0.174709] yes=29,no=30,missing=29
				29:[C_D_U_CATEGORY_UID_MICRO_MEAN_COEC<0.259843] yes=59,no=60,missing=59
					59:[D_TITLEMD5_C<30.7197] yes=119,no=120,missing=120
						119:leaf=0.00999783
						120:leaf=0.011807
					60:[CAT_REL<0.000771] yes=121,no=122,missing=122
						121:leaf=0.012101
						122:leaf=0.0129741
				30:[D_GROUPID_C<8.71031] yes=61,no=62,missing=62
					61:[KW_REL<0.001479] yes=123,no=124,missing=124
						123:leaf=0.0089161
						124:leaf=0.011842
					62:[CAT_REL<0.000771] yes=125,no=126,missing=126
						125:leaf=0.0129174
						126:leaf=0.0136648
booster[37]:
0:[C_D_U_GROUPID_CATEGORY_MICRO_MEAN_COEC<0.094131] yes=1,no=2,missing=1
	1:[C_D_U_KEYWORD_UID_MICRO_MEAN_COEC<0.096404] yes=3,no=4,missing=3
		3:[D_KEYWORD_MACRO_MEAN_COEC<0.096483] yes=7,no=8,missing=8
			7:[C_D_U_GROUPID_CATEGORY_MICRO_MEAN_COEC<0.043351] yes=15,no=16,missing=15
				15:[D_TITLEMD5_COEC<0.093405] yes=31,no=32,missing=31
					31:[C_D_U_CATEGORY_UID_MACRO_MEAN_COEC<0.059374] yes=63,no=64,missing=63
						63:leaf=-0.00388782
						64:leaf=0.000817806
					32:[D_KEYWORD_MACRO_MEAN_COEC<0.069678] yes=65,no=66,missing=66
						65:leaf=-0.00174152
						66:leaf=0.00287256
				16:[CAT_REL<0.000962] yes=33,no=34,missing=34
					33:[C_D_U_TITLEMD5_CATEGORY_MEAN_C<0.279097] yes=67,no=68,missing=67
						67:leaf=-0.00102208
						68:leaf=0.00249094
					34:[D_TITLEMD5_C<26.4428] yes=69,no=70,missing=69
						69:leaf=0.00221406
						70:leaf=0.00576756
			8:[D_TITLEMD5_COEC<0.171658] yes=17,no=18,missing=18
				17:[D_CATEGORY_MEAN_C<18594.1] yes=35,no=36,missing=35
					35:[D_GROUPID_COEC<0.128629] yes=71,no=72,missing=72
						71:leaf=0.0049845
						72:leaf=0.007579
					36:[C_D_U_CATEGORY_UID_MICRO_MAX_COEC<0.134719] yes=73,no=74,missing=73
						73:leaf=0.00248872
						74:leaf=0.00712932
				18:[D_TITLEMD5_COEC<0.206185] yes=37,no=38,missing=37
					37:[IMAGE_COUNT<0.999999] yes=75,no=76,missing=76
						75:leaf=-0.00174396
						76:leaf=0.00838634
					38:[D_TITLEMD5_C<1.00401] yes=77,no=78,missing=78
						77:leaf=0.00444839
						78:leaf=0.0115233
		4:[C_D_U_CATEGORY_UID_MACRO_MEAN_COEC<0.176015] yes=9,no=10,missing=9
			9:[C_D_U_GROUPID_CATEGORY_MICRO_MEAN_COEC<0.053486] yes=19,no=20,missing=20
				19:[KW_REL<0.001585] yes=39,no=40,missing=40
					39:[D_GROUPID_COEC<0.031907] yes=79,no=80,missing=80
						79:leaf=-0.00132207
						80:leaf=0.00229456
					40:[CAT_REL<0.000962] yes=81,no=82,missing=82
						81:leaf=0.00197203
						82:leaf=0.00588125
				20:[C_D_U_KEYWORD_UID_MACRO_MEAN_COEC<0.08186] yes=41,no=42,missing=42
					41:[D_TITLEMD5_COEC<0.09056] yes=83,no=84,missing=83
						83:leaf=0.00441427
						84:leaf=0.00775482
					42:[D_TITLEMD5_COEC<0.102794] yes=85,no=86,missing=85
						85:leaf=0.00766953
						86:leaf=0.010316
			10:[C_D_U_GROUPID_CATEGORY_MICRO_MEAN_COEC<0.043351] yes=21,no=22,missing=22
				21:[C_D_U_KEYWORD_UID_MACRO_MEAN_COEC<0.164362] yes=43,no=44,missing=44
					43:[U_CATEGORY_MICRO_MAX_COEC<0.106469] yes=87,no=88,missing=88
						87:leaf=0.00447077
						88:leaf=0.00726449
					44:[C_D_U_CATEGORY_UID_MEAN_C<2.01746] yes=89,no=90,missing=90
						89:leaf=0.00762445
						90:leaf=0.0106618
				22:[C_D_U_KEYWORD_UID_MACRO_MEAN_COEC<0.103326] yes=45,no=46,missing=46
					45:[D_TITLEMD5_C<21.1838] yes=91,no=92,missing=91
						91:leaf=0.00740219
						92:leaf=0.00949538
					46:[C_D_U_CATEGORY_UID_MEAN_C<1.1883] yes=93,no=94,missing=94
						93:leaf=0.00957939
						94:leaf=0.0109354
	2:[C_D_U_TITLEMD5_CATEGORY_MICRO_MEAN_COEC<0.154442] yes=5,no=6,missing=5
		5:[C_D_U_KEYWORD_UID_MICRO_MEAN_COEC<0.11916] yes=11,no=12,missing=11
			11:[D_TITLEMD5_C<38.4642] yes=23,no=24,missing=23
				23:[C_D_U_CATEGORY_UID_MACRO_MEAN_COEC<0.077497] yes=47,no=48,missing=47
					47:[KW_REL<0.001059] yes=95,no=96,missing=96
						95:leaf=0.000523767
						96:leaf=0.00476496
					48:[D_TITLEMD5_COEC<0.047819] yes=97,no=98,missing=98
						97:leaf=0.0038901
						98:leaf=0.00777439
				24:[CAT_REL<0.000962] yes=49,no=50,missing=50
					49:[D_TITLEMD5_C<353.522] yes=99,no=100,missing=100
						99:leaf=0.00557243
						100:leaf=0.0080399
					50:[C_D_U_CATEGORY_UID_MACRO_MEAN_COEC<0.150374] yes=101,no=102,missing=101
						101:leaf=0.00871702
						102:leaf=0.0109126
			12:[C_D_U_CATEGORY_UID_MICRO_MEAN_COEC<0.230822] yes=25,no=26,missing=25
				25:[CAT_REL<0.000962] yes=51,no=52,missing=52
					51:[D_TITLEMD5_C<44.7455] yes=103,no=104,missing=104
						103:leaf=0.00619352
						104:leaf=0.0095317
					52:[D_TITLEMD5_C<23.9801] yes=105,no=106,missing=106
						105:leaf=0.00923747
						106:leaf=0.0111349
				26:[C_D_U_TITLEMD5_CATEGORY_MICRO_MEAN_COEC<0.116099] yes=53,no=54,missing=53
					53:[C_D_U_KEYWORD_UID_MACRO_MEAN_COEC<0.090269] yes=107,no=108,missing=108
						107:leaf=0.0103382
						108:leaf=0.0115962
					54:[CAT_REL<0.000962] yes=109,no=110,missing=110
						109:leaf=0.0114718
						110:leaf=0.012517
		6:[C_D_U_TITLEMD5_CATEGORY_MEAN_C<0.137132] yes=13,no=14,missing=14
			13:[C_D_U_KEYWORD_UID_MACRO_MEAN_COEC<0.045894] yes=27,no=28,missing=27
				27:[D_TITLEMD5_COEC<0.09056] yes=55,no=56,missing=56
					55:[C_D_U_CATEGORY_UID_MACRO_MEAN_COEC<0.096828] yes=111,no=112,missing=111
						111:leaf=-0.000315228
						112:leaf=0.00566159
					56:[C_D_U_KEYWORD_CATEGORY_MICRO_MEAN_COEC<0.103084] yes=113,no=114,missing=114
						113:leaf=0.00548931
						114:leaf=0.0100673
				28:[C_D_U_CATEGORY_UID_MACRO_MEAN_COEC<0.216103] yes=57,no=58,missing=57
					57:[D_TITLEMD5_COEC<0.07989] yes=115,no=116,missing=116
						115:leaf=0.00667293
						116:leaf=0.01044
					58:[D_TITLEMD5_COEC<0.085367] yes=117,no=118,missing=118
						117:leaf=0.0108209
						118:leaf=0.0125983
			14:[C_D_U_KEYWORD_UID_MICRO_MAX_COEC<0.278985] yes=29,no=30,missing=29
				29:[C_D_U_GROUPID_CATEGORY_MICRO_MEAN_COEC<0.20447] yes=59,no=60,missing=60
					59:[M_D_U_KEYWORD_KEYWORD_MICRO_MAX_COEC<0.103492] yes=119,no=120,missing=119
						119:leaf=0.00960221
						120:leaf=0.0112891
					60:[U_CAT_LEN<12] yes=121,no=122,missing=122
						121:leaf=0.0113756
						122:leaf=0.0126691
				30:[C_D_U_TITLEMD5_CATEGORY_MICRO_MEAN_COEC<0.21108] yes=61,no=62,missing=62
					61:[C_D_U_CATEGORY_UID_MICRO_MAX_COEC<0.16713] yes=123,no=124,missing=124
						123:leaf=0.0116508
						124:leaf=0.0129514
					62:[C_D_U_CATEGORY_UID_MICRO_MEAN_COEC<0.201632] yes=125,no=126,missing=125
						125:leaf=0.013241
						126:leaf=0.0138858
booster[38]:
0:[C_D_U_GROUPID_CATEGORY_MICRO_MEAN_COEC<0.092832] yes=1,no=2,missing=1
	1:[C_D_U_KEYWORD_UID_MACRO_MEAN_COEC<0.052164] yes=3,no=4,missing=3
		3:[D_KEYWORD_MACRO_MEAN_COEC<0.096495] yes=7,no=8,missing=8
			7:[C_D_U_GROUPID_CATEGORY_MICRO_MEAN_COEC<0.042509] yes=15,no=16,missing=15
				15:[D_GROUPID_COEC<0.086443] yes=31,no=32,missing=31
					31:[C_D_U_CATEGORY_UID_MACRO_MEAN_COEC<0.064672] yes=63,no=64,missing=63
						63:leaf=-0.00387349
						64:leaf=0.000895653
					32:[D_TITLEMD5_C<569.707] yes=65,no=66,missing=65
						65:leaf=0.00104758
						66:leaf=0.00533398
				16:[C_D_U_CATEGORY_UID_MICRO_MEAN_COEC<0.119861] yes=33,no=34,missing=33
					33:[D_TITLEMD5_C<44.4913] yes=67,no=68,missing=67
						67:leaf=0.000357155
						68:leaf=0.00357701
					34:[D_TITLEMD5_C<37.6069] yes=69,no=70,missing=69
						69:leaf=0.00554984
						70:leaf=0.00777528
			8:[D_TITLEMD5_COEC<0.179385] yes=17,no=18,missing=17
				17:[D_TITLEMD5_COEC<0.132664] yes=35,no=36,missing=36
					35:[D_KEYWORD_MAX_C<16.3455] yes=71,no=72,missing=72
						71:leaf=0.0107334
						72:leaf=0.00285247
					36:[D_CATEGORY_MEAN_C<31899.2] yes=73,no=74,missing=73
						73:leaf=0.00783953
						74:leaf=0.00533868
				18:[D_KEYWORD_MICRO_MAX_COEC<0.223062] yes=37,no=38,missing=37
					37:[WORD_COUNT<1758] yes=75,no=76,missing=76
						75:leaf=0.00830162
						76:leaf=0.010027
					38:[D_KEYWORD_MICRO_MEAN_COEC<0.099849] yes=77,no=78,missing=78
						77:leaf=0.00511449
						78:leaf=0.0117741
		4:[C_D_U_CATEGORY_UID_MACRO_MEAN_COEC<0.172786] yes=9,no=10,missing=9
			9:[C_D_U_GROUPID_CATEGORY_MICRO_MEAN_COEC<0.057252] yes=19,no=20,missing=20
				19:[CAT_REL<0.003245] yes=39,no=40,missing=40
					39:[D_GROUPID_COEC<0.03195] yes=79,no=80,missing=80
						79:leaf=-0.00167808
						80:leaf=0.00223064
					40:[C_D_U_KEYWORD_UID_MACRO_MEAN_COEC<0.106668] yes=81,no=82,missing=82
						81:leaf=0.00340615
						82:leaf=0.00658436
				20:[D_TITLEMD5_COEC<0.088321] yes=41,no=42,missing=41
					41:[CAT_REL<0.000884] yes=83,no=84,missing=84
						83:leaf=0.00376576
						84:leaf=0.00737071
					42:[D_TITLEMD5_COEC<0.144522] yes=85,no=86,missing=86
						85:leaf=0.00827382
						86:leaf=0.011239
			10:[C_D_U_GROUPID_CATEGORY_MICRO_MEAN_COEC<0.048867] yes=21,no=22,missing=22
				21:[C_D_U_KEYWORD_UID_MACRO_MEAN_COEC<0.171781] yes=43,no=44,missing=44
					43:[IMAGE_COUNT<0.999999] yes=87,no=88,missing=88
						87:leaf=0.0029634
						88:leaf=0.00698167
					44:[C_D_U_CATEGORY_UID_MEAN_C<1.06882] yes=89,no=90,missing=90
						89:leaf=0.00684755
						90:leaf=0.010217
				22:[C_D_U_KEYWORD_UID_MICRO_MEAN_COEC<0.231012] yes=45,no=46,missing=46
					45:[CAT_REL<0.003245] yes=91,no=92,missing=92
						91:leaf=0.00773716
						92:leaf=0.0093862
					46:[C_D_U_CATEGORY_UID_MEAN_C<1.06882] yes=93,no=94,missing=94
						93:leaf=0.00938604
						94:leaf=0.0111395
	2:[C_D_U_TITLEMD5_CATEGORY_MICRO_MEAN_COEC<0.148383] yes=5,no=6,missing=5
		5:[C_D_U_KEYWORD_UID_MICRO_MEAN_COEC<0.077759] yes=11,no=12,missing=11
			11:[D_TITLEMD5_C<107.715] yes=23,no=24,missing=23
				23:[CAT_REL<0.003245] yes=47,no=48,missing=48
					47:[C_D_U_CATEGORY_UID_MACRO_MAX_COEC<0.062821] yes=95,no=96,missing=96
						95:leaf=0.000498892
						96:leaf=0.00423635
					48:[D_TITLEMD5_C<5.93045] yes=97,no=98,missing=98
						97:leaf=0.00236373
						98:leaf=0.00672489
				24:[CAT_REL<0.000884] yes=49,no=50,missing=50
					49:[C_D_U_GROUPID_CATEGORY_MICRO_MEAN_COEC<0.117716] yes=99,no=100,missing=100
						99:leaf=0.00554087
						100:leaf=0.0077672
					50:[U_CAT_LEN<12] yes=101,no=102,missing=102
						101:leaf=0.00752061
						102:leaf=0.0096734
			12:[C_D_U_CATEGORY_UID_MICRO_MEAN_COEC<0.160201] yes=25,no=26,missing=25
				25:[D_TITLEMD5_C<34.233] yes=51,no=52,missing=52
					51:[CAT_REL<0.003245] yes=103,no=104,missing=104
						103:leaf=0.00447011
						104:leaf=0.00830434
					52:[CAT_REL<0.000884] yes=105,no=106,missing=106
						105:leaf=0.00877054
						106:leaf=0.0105481
				26:[C_D_U_CATEGORY_UID_MICRO_MEAN_COEC<0.286985] yes=53,no=54,missing=54
					53:[C_D_U_TITLEMD5_CATEGORY_MICRO_MEAN_COEC<0.11483] yes=107,no=108,missing=107
						107:leaf=0.00995825
						108:leaf=0.0111826
					54:[C_D_U_CATEGORY_UID_MEAN_C<1.06882] yes=109,no=110,missing=110
						109:leaf=0.0111481
						110:leaf=0.0122537
		6:[C_D_U_TITLEMD5_CATEGORY_MEAN_C<0.190752] yes=13,no=14,missing=14
			13:[C_D_U_KEYWORD_UID_MICRO_MEAN_COEC<0.082054] yes=27,no=28,missing=27
				27:[D_TITLEMD5_COEC<0.097652] yes=55,no=56,missing=56
					55:[D_GROUPID_COEC<0.05743] yes=111,no=112,missing=112
						111:leaf=-0.0022048
						112:leaf=0.0035517
					56:[C_D_U_KEYWORD_CATEGORY_MICRO_MEAN_COEC<0.076409] yes=113,no=114,missing=114
						113:leaf=0.003303
						114:leaf=0.0084582
				28:[C_D_U_KEYWORD_UID_MACRO_MEAN_COEC<0.087236] yes=57,no=58,missing=58
					57:[D_TITLEMD5_COEC<0.077656] yes=115,no=116,missing=116
						115:leaf=0.00527455
						116:leaf=0.00991067
					58:[C_D_U_CATEGORY_UID_MACRO_MEAN_COEC<0.214845] yes=117,no=118,missing=117
						117:leaf=0.0109181
						118:leaf=0.0125625
			14:[C_D_U_KEYWORD_UID_MICRO_MAX_COEC<0.282131] yes=29,no=30,missing=29
				29:[C_D_U_GROUPID_CATEGORY_MICRO_MEAN_COEC<0.20453] yes=59,no=60,missing=60
					59:[M_D_U_KEYWORD_KEYWORD_MICRO_MAX_COEC<0.103856] yes=119,no=120,missing=119
						119:leaf=0.00943957
						120:leaf=0.0111203
					60:[U_CAT_LEN<11] yes=121,no=122,missing=122
						121:leaf=0.0112614
						122:leaf=0.0125834
				30:[C_D_U_TITLEMD5_CATEGORY_MICRO_MEAN_COEC<0.19469] yes=61,no=62,missing=62
					61:[C_D_U_CATEGORY_UID_MICRO_MAX_COEC<0.170839] yes=123,no=124,missing=124
						123:leaf=0.0113481
						124:leaf=0.0127165
					62:[C_D_U_CATEGORY_UID_MICRO_MEAN_COEC<0.205046] yes=125,no=126,missing=125
						125:leaf=0.0130009
						126:leaf=0.013703
booster[39]:
0:[C_D_U_TITLEMD5_CATEGORY_MICRO_MEAN_COEC<0.095527] yes=1,no=2,missing=1
	1:[C_D_U_KEYWORD_UID_MICRO_MEAN_COEC<0.093498] yes=3,no=4,missing=3
		3:[D_KEYWORD_MACRO_MEAN_COEC<0.104545] yes=7,no=8,missing=8
			7:[D_TITLEMD5_C<26.6437] yes=15,no=16,missing=15
				15:[C_D_U_CATEGORY_UID_MACRO_MEAN_COEC<0.047136] yes=31,no=32,missing=31
					31:[C_D_U_GROUPID_CATEGORY_MICRO_MEAN_COEC<0.024692] yes=63,no=64,missing=63
						63:leaf=-0.00539756
						64:leaf=-0.00133758
					32:[D_TITLEMD5_COEC<0.019323] yes=65,no=66,missing=66
						65:leaf=-0.00164025
						66:leaf=0.00255056
				16:[CAT_REL<0.000768] yes=33,no=34,missing=34
					33:[D_TITLEMD5_COEC<0.105966] yes=67,no=68,missing=68
						67:leaf=-0.000324921
						68:leaf=0.00402798
					34:[C_D_U_TITLEMD5_CATEGORY_MICRO_MEAN_COEC<0.061781] yes=69,no=70,missing=70
						69:leaf=0.00284955
						70:leaf=0.00610552
			8:[D_TITLEMD5_COEC<0.199063] yes=17,no=18,missing=17
				17:[D_GROUPID_COEC<0.154569] yes=35,no=36,missing=36
					35:[D_KEYWORD_MAX_C<15.426] yes=71,no=72,missing=72
						71:leaf=0.0103234
						72:leaf=0.00417963
					36:[U_CAT_LEN<11] yes=73,no=74,missing=74
						73:leaf=0.00756081
						74:leaf=0.00967269
				18:[C_D_U_KEYWORD_CATEGORY_MICRO_MEAN_COEC<0.108661] yes=37,no=38,missing=38
					37:[D_PUBLISHER_COEC<0.065448] yes=75,no=76,missing=76
						75:leaf=-0.00185273
						76:leaf=0.00473099
					38:[D_TITLEMD5_COEC<0.236781] yes=77,no=78,missing=78
						77:leaf=0.0100976
						78:leaf=0.0119023
		4:[C_D_U_CATEGORY_UID_MACRO_MEAN_COEC<0.16857] yes=9,no=10,missing=9
			9:[D_GROUPID_COEC<0.040719] yes=19,no=20,missing=20
				19:[CAT_REL<0.000768] yes=39,no=40,missing=40
					39:[C_D_U_KEYWORD_UID_MACRO_MEAN_COEC<0.086693] yes=79,no=80,missing=80
						79:leaf=-0.00292251
						80:leaf=0.000925839
					40:[KW_REL<0.001743] yes=81,no=82,missing=82
						81:leaf=0.00158687
						82:leaf=0.00545599
				20:[C_D_U_KEYWORD_UID_MACRO_MEAN_COEC<0.10311] yes=41,no=42,missing=42
					41:[D_GROUPID_COEC<0.089281] yes=83,no=84,missing=83
						83:leaf=0.00438764
						84:leaf=0.00744357
					42:[M_D_U_KEYWORD_KEYWORD_MICRO_MAX_COEC<0.107932] yes=85,no=86,missing=85
						85:leaf=0.0070096
						86:leaf=0.0090078
			10:[C_D_U_GROUPID_CATEGORY_MICRO_MEAN_COEC<0.043146] yes=21,no=22,missing=22
				21:[C_D_U_KEYWORD_UID_MACRO_MEAN_COEC<0.111761] yes=43,no=44,missing=44
					43:[IMAGE_COUNT<0.999999] yes=87,no=88,missing=88
						87:leaf=0.000814902
						88:leaf=0.00558611
					44:[C_D_U_CATEGORY_UID_MEAN_C<2.03415] yes=89,no=90,missing=90
						89:leaf=0.00699777
						90:leaf=0.00966622
				22:[C_D_U_KEYWORD_UID_MACRO_MEAN_COEC<0.10311] yes=45,no=46,missing=46
					45:[D_TITLEMD5_C<31.1909] yes=91,no=92,missing=91
						91:leaf=0.00719614
						92:leaf=0.00937073
					46:[C_D_U_CATEGORY_UID_MACRO_MEAN_COEC<0.333653] yes=93,no=94,missing=94
						93:leaf=0.00952694
						94:leaf=0.0108407
	2:[C_D_U_GROUPID_CATEGORY_MICRO_MEAN_COEC<0.143298] yes=5,no=6,missing=5
		5:[C_D_U_CATEGORY_UID_MICRO_MEAN_COEC<0.119066] yes=11,no=12,missing=11
			11:[D_TITLEMD5_C<26.6437] yes=23,no=24,missing=24
				23:[KW_REL<0.001565] yes=47,no=48,missing=48
					47:[C_D_U_KEYWORD_UID_MICRO_MEAN_COEC<0.040183] yes=95,no=96,missing=96
						95:leaf=-0.000720164
						96:leaf=0.00303161
					48:[C_D_U_KEYWORD_UID_MICRO_MEAN_COEC<0.078723] yes=97,no=98,missing=98
						97:leaf=0.00431934
						98:leaf=0.00765038
				24:[KW_REL<0.001026] yes=49,no=50,missing=50
					49:[D_CATEGORY_MEAN_C<25885] yes=99,no=100,missing=99
						99:leaf=0.00654727
						100:leaf=0.00281423
					50:[C_D_U_KEYWORD_UID_MICRO_MEAN_COEC<0.126586] yes=101,no=102,missing=101
						101:leaf=0.00798516
						102:leaf=0.0103441
			12:[C_D_U_KEYWORD_UID_MICRO_MEAN_COEC<0.167161] yes=25,no=26,missing=25
				25:[D_TITLEMD5_C<18.4946] yes=51,no=52,missing=52
					51:[KW_REL<0.001504] yes=103,no=104,missing=104
						103:leaf=0.00592398
						104:leaf=0.00856339
					52:[C_D_U_CATEGORY_UID_MACRO_MEAN_COEC<0.230413] yes=105,no=106,missing=106
						105:leaf=0.00944114
						106:leaf=0.010767
				26:[KW_REL<0.001844] yes=53,no=54,missing=54
					53:[C_D_U_CATEGORY_UID_MACRO_MEAN_COEC<0.289147] yes=107,no=108,missing=108
						107:leaf=0.00990694
						108:leaf=0.011343
					54:[C_D_U_CATEGORY_UID_MACRO_MEAN_COEC<0.333653] yes=109,no=110,missing=110
						109:leaf=0.0114919
						110:leaf=0.0124501
		6:[C_D_U_CATEGORY_UID_MICRO_MEAN_COEC<0.136843] yes=13,no=14,missing=13
			13:[D_GROUPID_C<23.6977] yes=27,no=28,missing=28
				27:[C_D_U_KEYWORD_CATEGORY_MICRO_MEAN_COEC<0.101681] yes=55,no=56,missing=56
					55:[KW_REL<0.001394] yes=111,no=112,missing=112
						111:leaf=0.00170583
						112:leaf=0.00697428
					56:[D_TITLEMD5_COEC<0.144111] yes=113,no=114,missing=114
						113:leaf=0.00742459
						114:leaf=0.0113877
				28:[C_D_U_TITLEMD5_CATEGORY_MICRO_MEAN_COEC<0.205483] yes=57,no=58,missing=58
					57:[M_D_U_KEYWORD_KEYWORD_MICRO_MAX_COEC<0.099795] yes=115,no=116,missing=115
						115:leaf=0.00956362
						116:leaf=0.0112219
					58:[C_D_U_GROUPID_CATEGORY_MICRO_MEAN_COEC<0.254647] yes=117,no=118,missing=118
						117:leaf=0.0119329
						118:leaf=0.0130627
			14:[D_TITLEMD5_C<4.92084] yes=29,no=30,missing=30
				29:[C_D_U_KEYWORD_UID_MACRO_MEAN_COEC<0.074644] yes=59,no=60,missing=59
					59:[D_GROUPID_COEC<0.075302] yes=119,no=120,missing=120
						119:leaf=0.00470944
						120:leaf=0.00897829
					60:[KW_REL<0.001504] yes=121,no=122,missing=122
						121:leaf=0.00942055
						122:leaf=0.0117178
				30:[C_D_U_TITLEMD5_CATEGORY_MICRO_MEAN_COEC<0.181885] yes=61,no=62,missing=62
					61:[C_D_U_KEYWORD_UID_MICRO_MEAN_COEC<0.152696] yes=123,no=124,missing=123
						123:leaf=0.0115063
						124:leaf=0.0126145
					62:[C_D_U_CATEGORY_UID_MICRO_MAX_COEC<0.295615] yes=125,no=126,missing=126
						125:leaf=0.0128628
						126:leaf=0.013521
booster[40]:
0:[C_D_U_GROUPID_CATEGORY_MICRO_MEAN_COEC<0.093178] yes=1,no=2,missing=1
	1:[C_D_U_CATEGORY_UID_MACRO_MEAN_COEC<0.087055] yes=3,no=4,missing=3
		3:[D_KEYWORD_MACRO_MEAN_COEC<0.111035] yes=7,no=8,missing=8
			7:[D_TITLEMD5_COEC<0.039164] yes=15,no=16,missing=15
				15:[U_CATEGORY_MICRO_MEAN_COEC<0.077941] yes=31,no=32,missing=31
					31:[IMAGE_COUNT<0.999999] yes=63,no=64,missing=64
						63:leaf=-0.010008
						64:leaf=-0.00544637
					32:[C_D_U_KEYWORD_UID_MACRO_MEAN_COEC<0.062624] yes=65,no=66,missing=65
						65:leaf=-0.00244682
						66:leaf=0.00259871
				16:[C_D_U_KEYWORD_UID_MICRO_MEAN_COEC<0.053261] yes=33,no=34,missing=33
					33:[D_TITLEMD5_C<121.832] yes=67,no=68,missing=68
						67:leaf=-0.000829497
						68:leaf=0.00290247
					34:[C_D_U_GROUPID_CATEGORY_MICRO_MEAN_COEC<0.06196] yes=69,no=70,missing=70
						69:leaf=0.00263815
						70:leaf=0.00573109
			8:[D_TITLEMD5_COEC<0.205122] yes=17,no=18,missing=17
				17:[D_KEYWORD_MACRO_MEAN_COEC<0.131827] yes=35,no=36,missing=36
					35:[D_TITLEMD5_COEC<0.140154] yes=71,no=72,missing=71
						71:leaf=0.00320552
						72:leaf=0.00701111
					36:[C_D_U_KEYWORD_UID_MAX_C<0.000181] yes=73,no=74,missing=73
						73:leaf=0.00812763
						74:leaf=0.0114952
				18:[D_CATEGORY_MAX_C<35076.5] yes=37,no=38,missing=37
					37:[D_TITLEMD5_C<1.24572] yes=75,no=76,missing=76
						75:leaf=0.00521749
						76:leaf=0.0118907
					38:[D_KEYWORD_MICRO_MEAN_COEC<0.165362] yes=77,no=78,missing=78
						77:leaf=0.00890044
						78:leaf=0.0108224
		4:[C_D_U_KEYWORD_UID_MACRO_MEAN_COEC<0.071607] yes=9,no=10,missing=9
			9:[D_TITLEMD5_C<20.7385] yes=19,no=20,missing=19
				19:[D_TITLEMD5_COEC<0.043724] yes=39,no=40,missing=40
					39:[U_CATEGORY_MICRO_MEAN_COEC<0.076617] yes=79,no=80,missing=79
						79:leaf=-0.002344
						80:leaf=0.00190313
					40:[C_D_U_KEYWORD_UID_MICRO_MEAN_COEC<0.058104] yes=81,no=82,missing=82
						81:leaf=0.00299498
						82:leaf=0.00584442
				20:[D_TITLEMD5_COEC<0.140154] yes=41,no=42,missing=42
					41:[CAT_REL<0.011662] yes=83,no=84,missing=84
						83:leaf=0.00540394
						84:leaf=0.00778568
					42:[D_TITLEMD5_COEC<0.190433] yes=85,no=86,missing=86
						85:leaf=0.00970125
						86:leaf=0.0126316
			10:[C_D_U_CATEGORY_UID_MACRO_MEAN_COEC<0.232566] yes=21,no=22,missing=22
				21:[D_TITLEMD5_COEC<0.055887] yes=43,no=44,missing=44
					43:[M_D_U_KEYWORD_KEYWORD_MICRO_MAX_COEC<0.078874] yes=87,no=88,missing=87
						87:leaf=0.00395655
						88:leaf=0.00692072
					44:[M_D_U_KEYWORD_KEYWORD_MACRO_MEAN_COEC<8.7e-05] yes=89,no=90,missing=89
						89:leaf=0.00747565
						90:leaf=0.00925065
				22:[C_D_U_CATEGORY_UID_MAX_C<1.00029] yes=45,no=46,missing=46
					45:[D_TITLEMD5_COEC<0.039164] yes=91,no=92,missing=91
						91:leaf=0.00546524
						92:leaf=0.00905251
					46:[C_D_U_CATEGORY_UID_MACRO_MEAN_COEC<0.402231] yes=93,no=94,missing=94
						93:leaf=0.00965903
						94:leaf=0.0113447
	2:[C_D_U_TITLEMD5_CATEGORY_MICRO_MEAN_COEC<0.148706] yes=5,no=6,missing=5
		5:[C_D_U_KEYWORD_UID_MICRO_MEAN_COEC<0.079714] yes=11,no=12,missing=11
			11:[D_TITLEMD5_C<106.23] yes=23,no=24,missing=23
				23:[CAT_REL<0.000975] yes=47,no=48,missing=48
					47:[D_KEYWORD_MACRO_MEAN_COEC<0.070767] yes=95,no=96,missing=96
						95:leaf=0.00012428
						96:leaf=0.0038722
					48:[D_TITLEMD5_C<6.97502] yes=97,no=98,missing=97
						97:leaf=0.00273224
						98:leaf=0.00668454
				24:[CAT_REL<0.000975] yes=49,no=50,missing=50
					49:[C_D_U_GROUPID_CATEGORY_MICRO_MEAN_COEC<0.117396] yes=99,no=100,missing=100
						99:leaf=0.00543619
						100:leaf=0.00766437
					50:[U_CAT_LEN<12] yes=101,no=102,missing=102
						101:leaf=0.0073932
						102:leaf=0.00955812
			12:[C_D_U_CATEGORY_UID_MACRO_MEAN_COEC<0.169003] yes=25,no=26,missing=25
				25:[D_TITLEMD5_C<33.6617] yes=51,no=52,missing=52
					51:[CAT_REL<0.006866] yes=103,no=104,missing=104
						103:leaf=0.00461117
						104:leaf=0.00836683
					52:[CAT_REL<0.000975] yes=105,no=106,missing=106
						105:leaf=0.00868776
						106:leaf=0.0104687
				26:[C_D_U_KEYWORD_UID_MICRO_MEAN_COEC<0.238875] yes=53,no=54,missing=54
					53:[C_D_U_TITLEMD5_CATEGORY_MICRO_MEAN_COEC<0.117094] yes=107,no=108,missing=107
						107:leaf=0.00993506
						108:leaf=0.0111826
					54:[M_D_U_KEYWORD_KEYWORD_MICRO_MAX_COEC<0.078874] yes=109,no=110,missing=109
						109:leaf=0.0108457
						110:leaf=0.0119967
		6:[D_TITLEMD5_C<20.7385] yes=13,no=14,missing=14
			13:[C_D_U_KEYWORD_UID_MACRO_MEAN_COEC<0.051499] yes=27,no=28,missing=27
				27:[D_TITLEMD5_COEC<0.112611] yes=55,no=56,missing=56
					55:[CAT_REL<0.003292] yes=111,no=112,missing=112
						111:leaf=-0.00102106
						112:leaf=0.00502598
					56:[C_D_U_KEYWORD_CATEGORY_MICRO_MEAN_COEC<0.096633] yes=113,no=114,missing=114
						113:leaf=0.00581282
						114:leaf=0.0099738
				28:[C_D_U_KEYWORD_UID_MACRO_MEAN_COEC<0.132379] yes=57,no=58,missing=58
					57:[D_TITLEMD5_COEC<0.103643] yes=115,no=116,missing=116
						115:leaf=0.00805083
						116:leaf=0.0108728
					58:[M_D_U_KEYWORD_KEYWORD_MICRO_MAX_COEC<0.097816] yes=117,no=118,missing=117
						117:leaf=0.0107308
						118:leaf=0.0125104
			14:[C_D_U_KEYWORD_UID_MICRO_MEAN_COEC<0.068385] yes=29,no=30,missing=29
				29:[C_D_U_GROUPID_CATEGORY_MICRO_MEAN_COEC<0.198857] yes=59,no=60,missing=60
					59:[M_D_U_KEYWORD_KEYWORD_MICRO_MAX_COEC<0.103904] yes=119,no=120,missing=119
						119:leaf=0.00931788
						120:leaf=0.0109681
					60:[C_D_U_GROUPID_CATEGORY_MICRO_MEAN_COEC<0.255108] yes=121,no=122,missing=122
						121:leaf=0.0116387
						122:leaf=0.0128595
				30:[C_D_U_TITLEMD5_CATEGORY_MICRO_MEAN_COEC<0.194001] yes=61,no=62,missing=62
					61:[C_D_U_CATEGORY_UID_MICRO_MAX_COEC<0.176826] yes=123,no=124,missing=124
						123:leaf=0.0113096
						124:leaf=0.0125781
					62:[C_D_U_TITLEMD5_CATEGORY_MICRO_MEAN_COEC<0.250136] yes=125,no=126,missing=126
						125:leaf=0.0129694
						126:leaf=0.0136919
booster[41]:
0:[C_D_U_GROUPID_CATEGORY_MICRO_MEAN_COEC<0.081782] yes=1,no=2,missing=1
	1:[D_KEYWORD_MACRO_MEAN_COEC<0.111756] yes=3,no=4,missing=4
		3:[C_D_U_KEYWORD_UID_MACRO_MEAN_COEC<0.034791] yes=7,no=8,missing=7
			7:[D_TITLEMD5_C<30.7952] yes=15,no=16,missing=15
				15:[C_D_U_GROUPID_CATEGORY_MICRO_MEAN_COEC<0.025166] yes=31,no=32,missing=31
					31:[C_D_U_CATEGORY_UID_MACRO_MEAN_COEC<0.067166] yes=63,no=64,missing=63
						63:leaf=-0.00520004
						64:leaf=-0.000592334
					32:[CAT_REL<0.000863] yes=65,no=66,missing=66
						65:leaf=-0.00285618
						66:leaf=0.00116625
				16:[D_TITLEMD5_COEC<0.10883] yes=33,no=34,missing=34
					33:[CAT_REL<0.000863] yes=67,no=68,missing=68
						67:leaf=-0.000584805
						68:leaf=0.00409401
					34:[D_GROUPID_COEC<0.135637] yes=69,no=70,missing=69
						69:leaf=0.00375037
						70:leaf=0.00654327
			8:[C_D_U_CATEGORY_UID_MACRO_MEAN_COEC<0.155175] yes=17,no=18,missing=17
				17:[D_TITLEMD5_COEC<0.048161] yes=35,no=36,missing=36
					35:[CAT_REL<0.000863] yes=71,no=72,missing=72
						71:leaf=-0.00107554
						72:leaf=0.00312261
					36:[C_D_U_KEYWORD_UID_MACRO_MEAN_COEC<0.093693] yes=73,no=74,missing=74
						73:leaf=0.0041749
						74:leaf=0.00696076
				18:[C_D_U_KEYWORD_UID_MACRO_MEAN_COEC<0.131419] yes=37,no=38,missing=38
					37:[D_TITLEMD5_COEC<0.025538] yes=75,no=76,missing=76
						75:leaf=0.00392807
						76:leaf=0.00773968
					38:[C_D_U_CATEGORY_UID_MAX_C<1.04057] yes=77,no=78,missing=78
						77:leaf=0.00801806
						78:leaf=0.0100714
		4:[D_TITLEMD5_COEC<0.202846] yes=9,no=10,missing=9
			9:[C_D_U_KEYWORD_UID_MEAN_C<0.000167] yes=19,no=20,missing=19
				19:[D_GROUPID_COEC<0.159884] yes=39,no=40,missing=40
					39:[D_KEYWORD_MAX_C<23.9914] yes=79,no=80,missing=80
						79:leaf=0.00985695
						80:leaf=0.00443147
					40:[KW_REL<0.000751] yes=81,no=82,missing=82
						81:leaf=0.00746776
						82:leaf=0.00964354
				20:[C_D_U_KEYWORD_CATEGORY_MEAN_C<0.210127] yes=41,no=42,missing=41
					41:[D_KEYWORD_MEAN_C<48.7294] yes=83,no=84,missing=84
						83:leaf=0.0137336
						84:leaf=0.01027
					42:[C_D_U_CATEGORY_UID_MICRO_MEAN_COEC<0.122341] yes=85,no=86,missing=85
						85:leaf=0.00181459
						86:leaf=0.00814921
			10:[D_KEYWORD_MICRO_MEAN_COEC<0.209415] yes=21,no=22,missing=21
				21:[D_PUBLISHER_COEC<0.0777] yes=43,no=44,missing=44
					43:[D_KEYWORD_MICRO_MEAN_COEC<0.087854] yes=87,no=88,missing=88
						87:leaf=-0.00123279
						88:leaf=0.00650636
					44:[WORD_COUNT<1534] yes=89,no=90,missing=90
						89:leaf=0.00992544
						90:leaf=0.0116128
				22:[C_D_U_KEYWORD_UID_MEAN_C<0.000167] yes=45,no=46,missing=45
					45:[D_TITLEMD5_C<2.5314] yes=91,no=92,missing=92
						91:leaf=0.0101146
						92:leaf=0.012327
					46:[D_KEYWORD_MACRO_MEAN_COEC<0.233234] yes=93,no=94,missing=94
						93:leaf=0.0137652
						94:leaf=0.0147209
	2:[C_D_U_TITLEMD5_CATEGORY_MICRO_MEAN_COEC<0.13171] yes=5,no=6,missing=5
		5:[C_D_U_KEYWORD_UID_MICRO_MEAN_COEC<0.110833] yes=11,no=12,missing=11
			11:[C_D_U_CATEGORY_UID_MICRO_MEAN_COEC<0.13093] yes=23,no=24,missing=23
				23:[D_TITLEMD5_C<102.844] yes=47,no=48,missing=47
					47:[KW_REL<0.001471] yes=95,no=96,missing=96
						95:leaf=0.00166769
						96:leaf=0.00517725
					48:[CAT_REL<0.000863] yes=97,no=98,missing=98
						97:leaf=0.0053323
						98:leaf=0.0079452
				24:[D_TITLEMD5_C<41.2418] yes=49,no=50,missing=49
					49:[D_TITLEMD5_COEC<0.054842] yes=99,no=100,missing=100
						99:leaf=0.00518316
						100:leaf=0.00767031
					50:[C_D_U_CATEGORY_UID_MACRO_MEAN_COEC<0.224651] yes=101,no=102,missing=102
						101:leaf=0.00851904
						102:leaf=0.0100593
			12:[C_D_U_CATEGORY_UID_MICRO_MEAN_COEC<0.207824] yes=25,no=26,missing=25
				25:[CAT_REL<0.000863] yes=51,no=52,missing=52
					51:[D_TITLEMD5_C<96.8958] yes=103,no=104,missing=104
						103:leaf=0.00596422
						104:leaf=0.00842245
					52:[D_TITLEMD5_C<26.9101] yes=105,no=106,missing=106
						105:leaf=0.00817599
						106:leaf=0.0101312
				26:[CAT_REL<0.000863] yes=53,no=54,missing=54
					53:[C_D_U_KEYWORD_UID_MACRO_MEAN_COEC<0.095331] yes=107,no=108,missing=108
						107:leaf=0.00892946
						108:leaf=0.0104401
					54:[C_D_U_CATEGORY_UID_MACRO_MEAN_COEC<0.339902] yes=109,no=110,missing=110
						109:leaf=0.0107865
						110:leaf=0.011746
		6:[C_D_U_CATEGORY_UID_MICRO_MEAN_COEC<0.13791] yes=13,no=14,missing=13
			13:[D_TITLEMD5_C<30.7952] yes=27,no=28,missing=28
				27:[KW_REL<0.001414] yes=55,no=56,missing=56
					55:[D_KEYWORD_MACRO_MEAN_COEC<0.102634] yes=111,no=112,missing=112
						111:leaf=0.00261077
						112:leaf=0.0104624
					56:[C_D_U_KEYWORD_UID_MICRO_MEAN_COEC<0.076377] yes=113,no=114,missing=114
						113:leaf=0.00658447
						114:leaf=0.00964871
				28:[C_D_U_GROUPID_CATEGORY_MICRO_MEAN_COEC<0.172172] yes=57,no=58,missing=58
					57:[KW_REL<0.001009] yes=115,no=116,missing=116
						115:leaf=0.00803441
						116:leaf=0.0101756
					58:[C_D_U_TITLEMD5_CATEGORY_MICRO_MEAN_COEC<0.230114] yes=117,no=118,missing=118
						117:leaf=0.0111857
						118:leaf=0.0126027
			14:[C_D_U_GROUPID_CATEGORY_MICRO_MEAN_COEC<0.172172] yes=29,no=30,missing=30
				29:[C_D_U_KEYWORD_UID_MICRO_MEAN_COEC<0.1933] yes=59,no=60,missing=59
					59:[D_TITLEMD5_C<23.7654] yes=119,no=120,missing=120
						119:leaf=0.00930835
						120:leaf=0.0113459
					60:[M_D_U_KEYWORD_KEYWORD_MICRO_MAX_COEC<0.085129] yes=121,no=122,missing=121
						121:leaf=0.0114696
						122:leaf=0.012554
				30:[D_GROUPID_C<5.82294] yes=61,no=62,missing=62
					61:[C_D_U_KEYWORD_UID_MACRO_MEAN_COEC<0.111698] yes=123,no=124,missing=123
						123:leaf=0.0089307
						124:leaf=0.0116737
					62:[C_D_U_TITLEMD5_CATEGORY_MICRO_MEAN_COEC<0.21652] yes=125,no=126,missing=126
						125:leaf=0.012668
						126:leaf=0.0133838
booster[42]:
0:[C_D_U_GROUPID_CATEGORY_MICRO_MEAN_COEC<0.09459] yes=1,no=2,missing=1
	1:[C_D_U_CATEGORY_UID_MACRO_MEAN_COEC<0.111938] yes=3,no=4,missing=3
		3:[D_KEYWORD_MACRO_MEAN_COEC<0.105815] yes=7,no=8,missing=8
			7:[C_D_U_GROUPID_CATEGORY_MICRO_MEAN_COEC<0.053328] yes=15,no=16,missing=15
				15:[D_TITLEMD5_COEC<0.099982] yes=31,no=32,missing=31
					31:[C_D_U_KEYWORD_UID_MICRO_MEAN_COEC<0.045171] yes=63,no=64,missing=63
						63:leaf=-0.00334095
						64:leaf=0.00090632
					32:[D_KEYWORD_MACRO_MEAN_COEC<0.077341] yes=65,no=66,missing=66
						65:leaf=-8.62988e-05
						66:leaf=0.00396218
				16:[C_D_U_KEYWORD_UID_MICRO_MEAN_COEC<0.073458] yes=33,no=34,missing=33
					33:[CAT_REL<0.003312] yes=67,no=68,missing=68
						67:leaf=0.000747749
						68:leaf=0.00384741
					34:[CAT_REL<0.000977] yes=69,no=70,missing=70
						69:leaf=0.0043625
						70:leaf=0.0070281
			8:[D_TITLEMD5_COEC<0.198415] yes=17,no=18,missing=17
				17:[D_TITLEMD5_COEC<0.153352] yes=35,no=36,missing=36
					35:[D_KEYWORD_MAX_C<15.9191] yes=71,no=72,missing=72
						71:leaf=0.0107172
						72:leaf=0.00404938
					36:[D_CATEGORY_MAX_C<21670.1] yes=73,no=74,missing=73
						73:leaf=0.00829895
						74:leaf=0.00660342
				18:[D_CATEGORY_MAX_C<35478.2] yes=37,no=38,missing=37
					37:[D_KEYWORD_MICRO_MEAN_COEC<0.087274] yes=75,no=76,missing=75
						75:leaf=0.0032366
						76:leaf=0.0116252
					38:[WORD_COUNT<1814] yes=77,no=78,missing=78
						77:leaf=0.00885145
						78:leaf=0.0108674
		4:[C_D_U_KEYWORD_UID_MACRO_MEAN_COEC<0.078258] yes=9,no=10,missing=9
			9:[D_GROUPID_COEC<0.031942] yes=19,no=20,missing=19
				19:[U_CATEGORY_MICRO_MEAN_COEC<0.075588] yes=39,no=40,missing=39
					39:[D_KEYWORD_MICRO_MAX_COEC<0.270368] yes=79,no=80,missing=80
						79:leaf=-0.00249685
						80:leaf=0.0118856
					40:[C_D_U_GROUPID_CATEGORY_MICRO_MEAN_COEC<0.032249] yes=81,no=82,missing=81
						81:leaf=0.00192277
						82:leaf=0.00556363
				20:[D_TITLEMD5_C<85.4629] yes=41,no=42,missing=41
					41:[C_D_U_GROUPID_CATEGORY_MICRO_MEAN_COEC<0.061477] yes=83,no=84,missing=83
						83:leaf=0.0044371
						84:leaf=0.00690307
					42:[D_TITLEMD5_COEC<0.164523] yes=85,no=86,missing=86
						85:leaf=0.00785444
						86:leaf=0.0116194
			10:[C_D_U_CATEGORY_UID_MACRO_MEAN_COEC<0.266303] yes=21,no=22,missing=22
				21:[D_TITLEMD5_COEC<0.047925] yes=43,no=44,missing=44
					43:[KW_REL<0.001246] yes=87,no=88,missing=88
						87:leaf=0.00350803
						88:leaf=0.00692762
					44:[M_D_U_KEYWORD_KEYWORD_MICRO_MAX_COEC<0.083721] yes=89,no=90,missing=89
						89:leaf=0.00740873
						90:leaf=0.00912854
				22:[C_D_U_CATEGORY_UID_MAX_C<1.06339] yes=45,no=46,missing=46
					45:[D_TITLEMD5_COEC<0.043547] yes=91,no=92,missing=91
						91:leaf=0.00595608
						92:leaf=0.00916231
					46:[C_D_U_CATEGORY_UID_MICRO_MEAN_COEC<0.414591] yes=93,no=94,missing=94
						93:leaf=0.00983656
						94:leaf=0.0112919
	2:[C_D_U_TITLEMD5_CATEGORY_MICRO_MEAN_COEC<0.154199] yes=5,no=6,missing=5
		5:[C_D_U_KEYWORD_UID_MICRO_MEAN_COEC<0.07747] yes=11,no=12,missing=11
			11:[D_TITLEMD5_C<107.735] yes=23,no=24,missing=23
				23:[CAT_REL<0.000977] yes=47,no=48,missing=48
					47:[D_TITLEMD5_COEC<0.06704] yes=95,no=96,missing=96
						95:leaf=-0.00253944
						96:leaf=0.00312559
					48:[D_TITLEMD5_C<7.32769] yes=97,no=98,missing=97
						97:leaf=0.00276826
						98:leaf=0.0066755
				24:[CAT_REL<0.000977] yes=49,no=50,missing=50
					49:[C_D_U_GROUPID_CATEGORY_MICRO_MEAN_COEC<0.117084] yes=99,no=100,missing=100
						99:leaf=0.00537869
						100:leaf=0.00762872
					50:[U_CAT_LEN<12] yes=101,no=102,missing=102
						101:leaf=0.00750718
						102:leaf=0.00957214
			12:[C_D_U_CATEGORY_UID_MICRO_MEAN_COEC<0.180497] yes=25,no=26,missing=25
				25:[D_TITLEMD5_C<34.3859] yes=51,no=52,missing=52
					51:[CAT_REL<0.007041] yes=103,no=104,missing=104
						103:leaf=0.00475928
						104:leaf=0.00835693
					52:[CAT_REL<0.000977] yes=105,no=106,missing=106
						105:leaf=0.00868795
						106:leaf=0.0104351
				26:[C_D_U_TITLEMD5_CATEGORY_MICRO_MEAN_COEC<0.117224] yes=53,no=54,missing=53
					53:[C_D_U_KEYWORD_UID_MICRO_MEAN_COEC<0.260006] yes=107,no=108,missing=108
						107:leaf=0.00992536
						108:leaf=0.0111449
					54:[C_D_U_CATEGORY_UID_MICRO_MEAN_COEC<0.309992] yes=109,no=110,missing=110
						109:leaf=0.0110975
						110:leaf=0.0120479
		6:[C_D_U_TITLEMD5_CATEGORY_MEAN_C<0.13405] yes=13,no=14,missing=14
			13:[C_D_U_KEYWORD_UID_MICRO_MEAN_COEC<0.07747] yes=27,no=28,missing=27
				27:[D_TITLEMD5_COEC<0.090492] yes=55,no=56,missing=56
					55:[C_D_U_CATEGORY_UID_MACRO_MEAN_COEC<0.072548] yes=111,no=112,missing=111
						111:leaf=-0.000760896
						112:leaf=0.0046546
					56:[C_D_U_KEYWORD_CATEGORY_MICRO_MEAN_COEC<0.094185] yes=113,no=114,missing=114
						113:leaf=0.00438767
						114:leaf=0.00877419
				28:[C_D_U_KEYWORD_UID_MACRO_MEAN_COEC<0.115076] yes=57,no=58,missing=58
					57:[D_TITLEMD5_COEC<0.081632] yes=115,no=116,missing=116
						115:leaf=0.00552491
						116:leaf=0.00971445
					58:[D_TITLEMD5_COEC<0.104325] yes=117,no=118,missing=118
						117:leaf=0.010527
						118:leaf=0.0122068
			14:[C_D_U_KEYWORD_UID_MICRO_MEAN_COEC<0.068276] yes=29,no=30,missing=29
				29:[C_D_U_GROUPID_CATEGORY_MICRO_MEAN_COEC<0.204251] yes=59,no=60,missing=60
					59:[D_TITLEMD5_C<113.784] yes=119,no=120,missing=120
						119:leaf=0.00816148
						120:leaf=0.0104683
					60:[U_CAT_LEN<11] yes=121,no=122,missing=122
						121:leaf=0.0109382
						122:leaf=0.0122634
				30:[C_D_U_TITLEMD5_CATEGORY_MICRO_MEAN_COEC<0.210231] yes=61,no=62,missing=62
					61:[C_D_U_CATEGORY_UID_MICRO_MAX_COEC<0.256503] yes=123,no=124,missing=123
						123:leaf=0.0116773
						124:leaf=0.012807
					62:[C_D_U_CATEGORY_UID_MICRO_MAX_COEC<0.275614] yes=125,no=126,missing=125
						125:leaf=0.0129195
						126:leaf=0.0135366
booster[43]:
0:[C_D_U_GROUPID_CATEGORY_MICRO_MEAN_COEC<0.093197] yes=1,no=2,missing=1
	1:[C_D_U_KEYWORD_UID_MICRO_MEAN_COEC<0.104596] yes=3,no=4,missing=3
		3:[D_KEYWORD_MACRO_MEAN_COEC<0.098542] yes=7,no=8,missing=8
			7:[C_D_U_GROUPID_CATEGORY_MICRO_MEAN_COEC<0.048493] yes=15,no=16,missing=15
				15:[D_TITLEMD5_COEC<0.093185] yes=31,no=32,missing=31
					31:[C_D_U_CATEGORY_UID_MACRO_MEAN_COEC<0.064189] yes=63,no=64,missing=63
						63:leaf=-0.00345208
						64:leaf=0.0011569
					32:[D_KEYWORD_MACRO_MEAN_COEC<0.072389] yes=65,no=66,missing=66
						65:leaf=-0.00106575
						66:leaf=0.00300804
				16:[CAT_REL<0.000715] yes=33,no=34,missing=34
					33:[D_TITLEMD5_C<53.062] yes=67,no=68,missing=67
						67:leaf=-0.0012303
						68:leaf=0.00226323
					34:[D_TITLEMD5_C<26.4224] yes=69,no=70,missing=69
						69:leaf=0.002427
						70:leaf=0.00567676
			8:[D_TITLEMD5_COEC<0.1906] yes=17,no=18,missing=17
				17:[D_GROUPID_COEC<0.136116] yes=35,no=36,missing=36
					35:[D_KEYWORD_MAX_C<15.4532] yes=71,no=72,missing=72
						71:leaf=0.00981047
						72:leaf=0.00287362
					36:[D_CATEGORY_MAX_C<17393.6] yes=73,no=74,missing=73
						73:leaf=0.00777744
						74:leaf=0.00585302
				18:[D_KEYWORD_MICRO_MAX_COEC<0.220216] yes=37,no=38,missing=37
					37:[D_TITLEMD5_C<61.1491] yes=75,no=76,missing=76
						75:leaf=0.00483688
						76:leaf=0.00909881
					38:[D_TITLEMD5_C<1.44814] yes=77,no=78,missing=78
						77:leaf=0.00476592
						78:leaf=0.0113072
		4:[C_D_U_CATEGORY_UID_MACRO_MEAN_COEC<0.173256] yes=9,no=10,missing=9
			9:[D_TITLEMD5_COEC<0.047499] yes=19,no=20,missing=20
				19:[KW_REL<0.001107] yes=39,no=40,missing=40
					39:[C_D_U_GROUPID_CATEGORY_MICRO_MEAN_COEC<0.032008] yes=79,no=80,missing=79
						79:leaf=-0.00200836
						80:leaf=0.00209847
					40:[C_D_U_PUBLISHER_UID_C<0.202097] yes=81,no=82,missing=81
						81:leaf=0.00306092
						82:leaf=0.00668405
				20:[C_D_U_KEYWORD_UID_MACRO_MEAN_COEC<0.083588] yes=41,no=42,missing=42
					41:[D_GROUPID_COEC<0.111266] yes=83,no=84,missing=83
						83:leaf=0.00458775
						84:leaf=0.00897922
					42:[D_TITLEMD5_COEC<0.10266] yes=85,no=86,missing=85
						85:leaf=0.00716695
						86:leaf=0.00977045
			10:[C_D_U_GROUPID_CATEGORY_MICRO_MEAN_COEC<0.042895] yes=21,no=22,missing=22
				21:[C_D_U_KEYWORD_UID_MACRO_MEAN_COEC<0.105695] yes=43,no=44,missing=44
					43:[IMAGE_COUNT<0.999999] yes=87,no=88,missing=88
						87:leaf=0.000791401
						88:leaf=0.00543375
					44:[C_D_U_CATEGORY_UID_MEAN_C<3.11634] yes=89,no=90,missing=90
						89:leaf=0.00698464
						90:leaf=0.0096316
				22:[C_D_U_KEYWORD_UID_MACRO_MEAN_COEC<0.15432] yes=45,no=46,missing=46
					45:[D_TITLEMD5_COEC<0.090291] yes=91,no=92,missing=91
						91:leaf=0.00810064
						92:leaf=0.0100296
					46:[C_D_U_CATEGORY_UID_MAX_C<1.05763] yes=93,no=94,missing=94
						93:leaf=0.00919953
						94:leaf=0.0107607
	2:[C_D_U_TITLEMD5_CATEGORY_MICRO_MEAN_COEC<0.147917] yes=5,no=6,missing=5
		5:[C_D_U_KEYWORD_UID_MICRO_MEAN_COEC<0.11892] yes=11,no=12,missing=11
			11:[C_D_U_CATEGORY_UID_MICRO_MEAN_COEC<0.117551] yes=23,no=24,missing=23
				23:[D_TITLEMD5_C<114.282] yes=47,no=48,missing=47
					47:[KW_REL<0.00146] yes=95,no=96,missing=96
						95:leaf=0.00235781
						96:leaf=0.00587318
					48:[CAT_REL<0.000715] yes=97,no=98,missing=98
						97:leaf=0.00626854
						98:leaf=0.00855968
				24:[D_TITLEMD5_C<26.4224] yes=49,no=50,missing=49
					49:[D_TITLEMD5_COEC<0.055493] yes=99,no=100,missing=100
						99:leaf=0.00472775
						100:leaf=0.00773043
					50:[C_D_U_CATEGORY_UID_MICRO_MEAN_COEC<0.229723] yes=101,no=102,missing=102
						101:leaf=0.00889503
						102:leaf=0.0104036
			12:[C_D_U_CATEGORY_UID_MICRO_MEAN_COEC<0.229723] yes=25,no=26,missing=25
				25:[M_D_U_KEYWORD_KEYWORD_MICRO_MAX_COEC<0.105299] yes=51,no=52,missing=51
					51:[D_TITLEMD5_C<23.6239] yes=103,no=104,missing=104
						103:leaf=0.00642733
						104:leaf=0.00896053
					52:[C_D_U_TITLEMD5_CATEGORY_MICRO_MEAN_COEC<0.115941] yes=105,no=106,missing=106
						105:leaf=0.00943817
						106:leaf=0.0107872
				26:[C_D_U_KEYWORD_UID_MACRO_MEAN_COEC<0.101798] yes=53,no=54,missing=54
					53:[CAT_REL<0.000715] yes=107,no=108,missing=108
						107:leaf=0.00949996
						108:leaf=0.0109405
					54:[C_D_U_TITLEMD5_CATEGORY_MICRO_MEAN_COEC<0.116921] yes=109,no=110,missing=109
						109:leaf=0.0111418
						110:leaf=0.0120462
		6:[C_D_U_KEYWORD_UID_MICRO_MEAN_COEC<0.11892] yes=13,no=14,missing=13
			13:[D_TITLEMD5_C<26.4224] yes=27,no=28,missing=28
				27:[D_GROUPID_C<2.995] yes=55,no=56,missing=56
					55:[C_D_U_CATEGORY_UID_MACRO_MEAN_COEC<0.051576] yes=111,no=112,missing=111
						111:leaf=0.000390403
						112:leaf=0.005748
					56:[CAT_REL<0.002929] yes=113,no=114,missing=114
						113:leaf=0.00406933
						114:leaf=0.00867874
				28:[C_D_U_TITLEMD5_CATEGORY_MICRO_MEAN_COEC<0.203893] yes=57,no=58,missing=58
					57:[KW_REL<0.000436] yes=115,no=116,missing=116
						115:leaf=0.00830223
						116:leaf=0.0104751
					58:[C_D_U_TITLEMD5_CATEGORY_MICRO_MEAN_COEC<0.261444] yes=117,no=118,missing=118
						117:leaf=0.0116573
						118:leaf=0.0128037
			14:[C_D_U_TITLEMD5_CATEGORY_MEAN_C<0.090718] yes=29,no=30,missing=30
				29:[C_D_U_KEYWORD_UID_MACRO_MEAN_COEC<0.124594] yes=59,no=60,missing=60
					59:[D_TITLEMD5_COEC<0.094159] yes=119,no=120,missing=120
						119:leaf=0.00637107
						120:leaf=0.00989964
					60:[M_D_U_KEYWORD_KEYWORD_MICRO_MAX_COEC<0.093415] yes=121,no=122,missing=121
						121:leaf=0.0102144
						122:leaf=0.0119953
				30:[C_D_U_TITLEMD5_CATEGORY_MICRO_MEAN_COEC<0.19477] yes=61,no=62,missing=62
					61:[C_D_U_CATEGORY_UID_MICRO_MAX_COEC<0.29544] yes=123,no=124,missing=123
						123:leaf=0.0116274
						124:leaf=0.0127026
					62:[C_D_U_KEYWORD_UID_MACRO_MEAN_COEC<0.463428] yes=125,no=126,missing=126
						125:leaf=0.0130836
						126:leaf=0.0116157
booster[44]:
0:[C_D_U_GROUPID_CATEGORY_MICRO_MEAN_COEC<0.093255] yes=1,no=2,missing=1
	1:[C_D_U_KEYWORD_UID_MICRO_MEAN_COEC<0.106256] yes=3,no=4,missing=3
		3:[D_KEYWORD_MACRO_MEAN_COEC<0.096135] yes=7,no=8,missing=8
			7:[C_D_U_GROUPID_CATEGORY_MICRO_MEAN_COEC<0.038158] yes=15,no=16,missing=15
				15:[D_GROUPID_COEC<0.08527] yes=31,no=32,missing=31
					31:[C_D_U_CATEGORY_UID_MACRO_MEAN_COEC<0.054552] yes=63,no=64,missing=63
						63:leaf=-0.00405043
						64:leaf=0.000443971
					32:[D_KEYWORD_MACRO_MEAN_COEC<0.073487] yes=65,no=66,missing=66
						65:leaf=-0.00106539
						66:leaf=0.00266997
				16:[CAT_REL<0.000717] yes=33,no=34,missing=34
					33:[D_TITLEMD5_C<38.3859] yes=67,no=68,missing=67
						67:leaf=-0.00184161
						68:leaf=0.00170026
					34:[D_TITLEMD5_C<26.5236] yes=69,no=70,missing=69
						69:leaf=0.00213131
						70:leaf=0.00544307
			8:[D_TITLEMD5_COEC<0.166935] yes=17,no=18,missing=18
				17:[D_CATEGORY_MEAN_C<29378.1] yes=35,no=36,missing=35
					35:[D_GROUPID_COEC<0.127454] yes=71,no=72,missing=71
						71:leaf=0.00437679
						72:leaf=0.00694715
					36:[C_D_U_CATEGORY_UID_MACRO_MEAN_COEC<0.116221] yes=73,no=74,missing=73
						73:leaf=0.00151629
						74:leaf=0.0063496
				18:[D_TITLEMD5_COEC<0.211442] yes=37,no=38,missing=37
					37:[C_D_U_GROUPID_AGE_COEC<0.178988] yes=75,no=76,missing=75
						75:leaf=0.00759816
						76:leaf=0.00949493
					38:[D_PUBLISHER_COEC<0.078531] yes=77,no=78,missing=78
						77:leaf=0.00345736
						78:leaf=0.0110296
		4:[C_D_U_CATEGORY_UID_MACRO_MEAN_COEC<0.178734] yes=9,no=10,missing=9
			9:[D_TITLEMD5_COEC<0.043364] yes=19,no=20,missing=20
				19:[CAT_REL<0.005073] yes=39,no=40,missing=40
					39:[C_D_U_KEYWORD_CATEGORY_MICRO_MEAN_COEC<0.082135] yes=79,no=80,missing=79
						79:leaf=-0.00222926
						80:leaf=0.00144136
					40:[C_D_U_KEYWORD_UID_MACRO_MEAN_COEC<0.096585] yes=81,no=82,missing=82
						81:leaf=0.00238096
						82:leaf=0.00611081
				20:[C_D_U_KEYWORD_UID_MACRO_MEAN_COEC<0.084358] yes=41,no=42,missing=42
					41:[D_GROUPID_COEC<0.106295] yes=83,no=84,missing=83
						83:leaf=0.00445241
						84:leaf=0.00847063
					42:[D_TITLEMD5_COEC<0.088822] yes=85,no=86,missing=85
						85:leaf=0.00689879
						86:leaf=0.00912512
			10:[C_D_U_GROUPID_CATEGORY_MICRO_MEAN_COEC<0.048223] yes=21,no=22,missing=22
				21:[C_D_U_KEYWORD_UID_MACRO_MEAN_COEC<0.15372] yes=43,no=44,missing=44
					43:[IMAGE_COUNT<0.999999] yes=87,no=88,missing=88
						87:leaf=0.0015745
						88:leaf=0.00612285
					44:[C_D_U_CATEGORY_UID_MEAN_C<1.19222] yes=89,no=90,missing=90
						89:leaf=0.00657374
						90:leaf=0.00970037
				22:[C_D_U_CATEGORY_UID_MAX_C<1.04773] yes=45,no=46,missing=46
					45:[D_TITLEMD5_C<73.2183] yes=91,no=92,missing=91
						91:leaf=0.00733741
						92:leaf=0.00933592
					46:[C_D_U_CATEGORY_UID_MACRO_MEAN_COEC<0.336613] yes=93,no=94,missing=94
						93:leaf=0.00918588
						94:leaf=0.0109427
	2:[C_D_U_TITLEMD5_CATEGORY_MICRO_MEAN_COEC<0.147412] yes=5,no=6,missing=5
		5:[C_D_U_KEYWORD_UID_MICRO_MEAN_COEC<0.118234] yes=11,no=12,missing=11
			11:[D_TITLEMD5_C<38.3859] yes=23,no=24,missing=23
				23:[C_D_U_CATEGORY_UID_MACRO_MEAN_COEC<0.075516] yes=47,no=48,missing=47
					47:[KW_REL<0.001028] yes=95,no=96,missing=96
						95:leaf=6.50739e-05
						96:leaf=0.00414546
					48:[D_TITLEMD5_COEC<0.047579] yes=97,no=98,missing=98
						97:leaf=0.00340206
						98:leaf=0.00719051
				24:[CAT_REL<0.000717] yes=49,no=50,missing=50
					49:[D_TITLEMD5_C<267.732] yes=99,no=100,missing=100
						99:leaf=0.00471922
						100:leaf=0.00718377
					50:[C_D_U_CATEGORY_UID_MACRO_MEAN_COEC<0.116221] yes=101,no=102,missing=101
						101:leaf=0.00795961
						102:leaf=0.0100361
			12:[C_D_U_CATEGORY_UID_MICRO_MEAN_COEC<0.226257] yes=25,no=26,missing=25
				25:[KW_REL<0.001309] yes=51,no=52,missing=52
					51:[D_TITLEMD5_C<22.8009] yes=103,no=104,missing=103
						103:leaf=0.00513761
						104:leaf=0.00859304
					52:[C_D_U_TITLEMD5_CATEGORY_MICRO_MEAN_COEC<0.115608] yes=105,no=106,missing=105
						105:leaf=0.009184
						106:leaf=0.0105385
				26:[CAT_REL<0.000717] yes=53,no=54,missing=54
					53:[C_D_U_KEYWORD_UID_MACRO_MEAN_COEC<0.096585] yes=107,no=108,missing=108
						107:leaf=0.00932718
						108:leaf=0.0107418
					54:[C_D_U_TITLEMD5_CATEGORY_MICRO_MEAN_COEC<0.115608] yes=109,no=110,missing=109
						109:leaf=0.0109608
						110:leaf=0.0118741
		6:[C_D_U_KEYWORD_UID_MICRO_MEAN_COEC<0.128654] yes=13,no=14,missing=13
			13:[D_TITLEMD5_C<27.4684] yes=27,no=28,missing=28
				27:[D_GROUPID_C<2.97025] yes=55,no=56,missing=56
					55:[C_D_U_CATEGORY_UID_MACRO_MEAN_COEC<0.076805] yes=111,no=112,missing=111
						111:leaf=0.000529935
						112:leaf=0.0059549
					56:[CAT_REL<0.000717] yes=113,no=114,missing=114
						113:leaf=0.00411774
						114:leaf=0.00867243
				28:[C_D_U_TITLEMD5_CATEGORY_MICRO_MEAN_COEC<0.204784] yes=57,no=58,missing=58
					57:[KW_REL<0.000642] yes=115,no=116,missing=116
						115:leaf=0.00859276
						116:leaf=0.0105106
					58:[C_D_U_GROUPID_CATEGORY_MICRO_MEAN_COEC<0.254465] yes=117,no=118,missing=118
						117:leaf=0.0115752
						118:leaf=0.0126726
			14:[C_D_U_TITLEMD5_CATEGORY_MEAN_C<0.100192] yes=29,no=30,missing=30
				29:[C_D_U_KEYWORD_UID_MACRO_MEAN_COEC<0.116239] yes=59,no=60,missing=60
					59:[D_GROUPID_COEC<0.083887] yes=119,no=120,missing=120
						119:leaf=0.00628267
						120:leaf=0.00981835
					60:[D_TITLEMD5_COEC<0.093957] yes=121,no=122,missing=122
						121:leaf=0.0101045
						122:leaf=0.0119307
				30:[C_D_U_TITLEMD5_CATEGORY_MICRO_MEAN_COEC<0.19438] yes=61,no=62,missing=62
					61:[C_D_U_CATEGORY_UID_MICRO_MAX_COEC<0.292694] yes=123,no=124,missing=123
						123:leaf=0.0115848
						124:leaf=0.0126303
					62:[C_D_U_KEYWORD_UID_MACRO_MEAN_COEC<0.467447] yes=125,no=126,missing=126
						125:leaf=0.0130325
						126:leaf=0.0114947
booster[45]:
0:[C_D_U_TITLEMD5_CATEGORY_MICRO_MEAN_COEC<0.09507] yes=1,no=2,missing=1
	1:[C_D_U_CATEGORY_UID_MACRO_MEAN_COEC<0.101678] yes=3,no=4,missing=3
		3:[D_KEYWORD_MACRO_MEAN_COEC<0.11115] yes=7,no=8,missing=8
			7:[D_GROUPID_COEC<0.036436] yes=15,no=16,missing=15
				15:[U_CATEGORY_MICRO_MEAN_COEC<0.078156] yes=31,no=32,missing=31
					31:[IMAGE_COUNT<0.999999] yes=63,no=64,missing=64
						63:leaf=-0.00983116
						64:leaf=-0.00558075
					32:[C_D_U_KEYWORD_UID_MACRO_MEAN_COEC<0.061271] yes=65,no=66,missing=65
						65:leaf=-0.00245641
						66:leaf=0.00262667
				16:[C_D_U_KEYWORD_UID_MICRO_MAX_COEC<0.233785] yes=33,no=34,missing=33
					33:[D_TITLEMD5_C<181.901] yes=67,no=68,missing=67
						67:leaf=-0.000701064
						68:leaf=0.00310887
					34:[D_TITLEMD5_C<124.575] yes=69,no=70,missing=70
						69:leaf=0.00340138
						70:leaf=0.0063239
			8:[D_TITLEMD5_COEC<0.200276] yes=17,no=18,missing=17
				17:[D_CATEGORY_MEAN_C<19871.1] yes=35,no=36,missing=35
					35:[C_D_U_KEYWORD_UID_MAX_C<0.000168] yes=71,no=72,missing=71
						71:leaf=0.00760793
						72:leaf=0.0105763
					36:[D_GROUPID_COEC<0.159144] yes=73,no=74,missing=73
						73:leaf=0.00310189
						74:leaf=0.00685592
				18:[D_CATEGORY_MAX_C<31647.6] yes=37,no=38,missing=37
					37:[C_D_U_KEYWORD_CATEGORY_MICRO_MEAN_COEC<0.108434] yes=75,no=76,missing=76
						75:leaf=0.00222543
						76:leaf=0.0114159
					38:[D_KEYWORD_MICRO_MEAN_COEC<0.1629] yes=77,no=78,missing=78
						77:leaf=0.00850481
						78:leaf=0.0103424
		4:[C_D_U_KEYWORD_UID_MICRO_MEAN_COEC<0.147864] yes=9,no=10,missing=9
			9:[D_GROUPID_COEC<0.036436] yes=19,no=20,missing=19
				19:[KW_REL<0.001085] yes=39,no=40,missing=40
					39:[C_D_U_TITLEMD5_CATEGORY_MICRO_MEAN_COEC<0.026236] yes=79,no=80,missing=79
						79:leaf=-0.00159393
						80:leaf=0.00359776
					40:[D_TITLEMD5_C<15.7619] yes=81,no=82,missing=82
						81:leaf=0.00257273
						82:leaf=0.00605203
				20:[D_TITLEMD5_C<104.29] yes=41,no=42,missing=41
					41:[CAT_REL<0.006934] yes=83,no=84,missing=84
						83:leaf=0.00354664
						84:leaf=0.00614258
					42:[D_GROUPID_COEC<0.169668] yes=85,no=86,missing=86
						85:leaf=0.00748035
						86:leaf=0.0114576
			10:[C_D_U_GROUPID_CATEGORY_MICRO_MEAN_COEC<0.043048] yes=21,no=22,missing=22
				21:[C_D_U_KEYWORD_UID_MACRO_MEAN_COEC<0.155929] yes=43,no=44,missing=44
					43:[IMAGE_COUNT<0.999999] yes=87,no=88,missing=88
						87:leaf=0.00106887
						88:leaf=0.00560409
					44:[C_D_U_CATEGORY_UID_MEAN_C<3.01821] yes=89,no=90,missing=90
						89:leaf=0.00712393
						90:leaf=0.0100209
				22:[C_D_U_CATEGORY_UID_MACRO_MEAN_COEC<0.256694] yes=45,no=46,missing=46
					45:[KW_REL<0.001453] yes=91,no=92,missing=92
						91:leaf=0.00681697
						92:leaf=0.00878564
					46:[C_D_U_CATEGORY_UID_MAX_C<1.06734] yes=93,no=94,missing=94
						93:leaf=0.00852351
						94:leaf=0.0104954
	2:[C_D_U_GROUPID_CATEGORY_MICRO_MEAN_COEC<0.136526] yes=5,no=6,missing=5
		5:[C_D_U_CATEGORY_UID_MICRO_MEAN_COEC<0.126572] yes=11,no=12,missing=11
			11:[KW_REL<0.001085] yes=23,no=24,missing=24
				23:[D_TITLEMD5_C<89.8318] yes=47,no=48,missing=48
					47:[C_D_U_KEYWORD_UID_MICRO_MEAN_COEC<0.063816] yes=95,no=96,missing=95
						95:leaf=0.000805086
						96:leaf=0.00448179
					48:[D_CATEGORY_MEAN_C<26710.4] yes=97,no=98,missing=97
						97:leaf=0.00649152
						98:leaf=0.00246248
				24:[C_D_U_KEYWORD_UID_MICRO_MEAN_COEC<0.139438] yes=49,no=50,missing=49
					49:[D_TITLEMD5_C<104.29] yes=99,no=100,missing=100
						99:leaf=0.00544955
						100:leaf=0.00795133
					50:[D_TITLEMD5_C<59.6229] yes=101,no=102,missing=102
						101:leaf=0.00845009
						102:leaf=0.0100359
			12:[C_D_U_KEYWORD_UID_MICRO_MEAN_COEC<0.190024] yes=25,no=26,missing=25
				25:[D_TITLEMD5_C<22.5235] yes=51,no=52,missing=52
					51:[KW_REL<0.001453] yes=103,no=104,missing=104
						103:leaf=0.00585632
						104:leaf=0.00842014
					52:[KW_REL<0.000942] yes=105,no=106,missing=106
						105:leaf=0.00846655
						106:leaf=0.0100006
				26:[KW_REL<0.001907] yes=53,no=54,missing=54
					53:[C_D_U_CATEGORY_UID_MACRO_MEAN_COEC<0.295275] yes=107,no=108,missing=108
						107:leaf=0.00945362
						108:leaf=0.0108726
					54:[C_D_U_CATEGORY_UID_MICRO_MEAN_COEC<0.338367] yes=109,no=110,missing=110
						109:leaf=0.01106
						110:leaf=0.011952
		6:[C_D_U_CATEGORY_UID_MICRO_MEAN_COEC<0.148745] yes=13,no=14,missing=13
			13:[D_GROUPID_C<25.4399] yes=27,no=28,missing=28
				27:[C_D_U_KEYWORD_CATEGORY_MICRO_MEAN_COEC<0.091977] yes=55,no=56,missing=56
					55:[KW_REL<0.001453] yes=111,no=112,missing=112
						111:leaf=0.00102653
						112:leaf=0.00627044
					56:[D_TITLEMD5_COEC<0.132193] yes=113,no=114,missing=114
						113:leaf=0.00641494
						114:leaf=0.0101404
				28:[C_D_U_TITLEMD5_CATEGORY_MICRO_MEAN_COEC<0.187437] yes=57,no=58,missing=58
					57:[D_CATEGORY_MAX_C<25186.7] yes=115,no=116,missing=115
						115:leaf=0.0101618
						116:leaf=0.00811626
					58:[C_D_U_GROUPID_CATEGORY_MICRO_MEAN_COEC<0.24313] yes=117,no=118,missing=118
						117:leaf=0.0111509
						118:leaf=0.0124682
			14:[C_D_U_TITLEMD5_CATEGORY_MICRO_MEAN_COEC<0.177435] yes=29,no=30,missing=30
				29:[C_D_U_KEYWORD_UID_MACRO_MEAN_COEC<0.075662] yes=59,no=60,missing=59
					59:[D_GROUPID_C<20.474] yes=119,no=120,missing=120
						119:leaf=0.00855358
						120:leaf=0.0110961
					60:[C_D_U_CATEGORY_UID_MICRO_MEAN_COEC<0.303928] yes=121,no=122,missing=122
						121:leaf=0.0115133
						122:leaf=0.0124263
				30:[D_TITLEMD5_C<5.99] yes=61,no=62,missing=62
					61:[KW_REL<0.001453] yes=123,no=124,missing=124
						123:leaf=0.00815957
						124:leaf=0.0111307
					62:[C_D_U_TITLEMD5_CATEGORY_MICRO_MEAN_COEC<0.222694] yes=125,no=126,missing=126
						125:leaf=0.0124776
						126:leaf=0.0131509
booster[46]:
0:[C_D_U_GROUPID_CATEGORY_MICRO_MEAN_COEC<0.095087] yes=1,no=2,missing=1
	1:[C_D_U_CATEGORY_UID_MACRO_MEAN_COEC<0.091167] yes=3,no=4,missing=3
		3:[D_KEYWORD_MACRO_MEAN_COEC<0.108514] yes=7,no=8,missing=8
			7:[D_GROUPID_COEC<0.036172] yes=15,no=16,missing=15
				15:[U_CATEGORY_MICRO_MEAN_COEC<0.078325] yes=31,no=32,missing=31
					31:[IMAGE_COUNT<0.999999] yes=63,no=64,missing=64
						63:leaf=-0.009835
						64:leaf=-0.00550106
					32:[KW_REL<0.001569] yes=65,no=66,missing=66
						65:leaf=-0.00316542
						66:leaf=0.00049385
				16:[C_D_U_GROUPID_CATEGORY_MICRO_MEAN_COEC<0.065334] yes=33,no=34,missing=33
					33:[D_TITLEMD5_C<393.475] yes=67,no=68,missing=67
						67:leaf=-0.000342227
						68:leaf=0.00431077
					34:[C_D_U_KEYWORD_UID_MICRO_MEAN_COEC<0.105587] yes=69,no=70,missing=69
						69:leaf=0.00318294
						70:leaf=0.00663506
			8:[D_TITLEMD5_COEC<0.200802] yes=17,no=18,missing=17
				17:[D_CATEGORY_MAX_C<19457] yes=35,no=36,missing=35
					35:[D_KEYWORD_MACRO_MEAN_COEC<0.120751] yes=71,no=72,missing=72
						71:leaf=0.00606218
						72:leaf=0.00821319
					36:[D_GROUPID_COEC<0.15659] yes=73,no=74,missing=74
						73:leaf=0.00279204
						74:leaf=0.00663391
				18:[D_CATEGORY_MAX_C<31396.4] yes=37,no=38,missing=37
					37:[D_TITLEMD5_C<1.18078] yes=75,no=76,missing=76
						75:leaf=0.00489478
						76:leaf=0.0113819
					38:[D_KEYWORD_MICRO_MEAN_COEC<0.16498] yes=77,no=78,missing=78
						77:leaf=0.00843383
						78:leaf=0.010303
		4:[C_D_U_KEYWORD_UID_MICRO_MEAN_COEC<0.153187] yes=9,no=10,missing=9
			9:[D_GROUPID_COEC<0.03779] yes=19,no=20,missing=19
				19:[KW_REL<0.001039] yes=39,no=40,missing=40
					39:[C_D_U_TITLEMD5_CATEGORY_MICRO_MEAN_COEC<0.016933] yes=79,no=80,missing=79
						79:leaf=-0.00204227
						80:leaf=0.0026819
					40:[D_TITLEMD5_C<13.3826] yes=81,no=82,missing=82
						81:leaf=0.00254884
						82:leaf=0.00606823
				20:[D_TITLEMD5_C<83.7196] yes=41,no=42,missing=41
					41:[CAT_REL<0.005514] yes=83,no=84,missing=84
						83:leaf=0.00340255
						84:leaf=0.00612956
					42:[D_TITLEMD5_COEC<0.163017] yes=85,no=86,missing=86
						85:leaf=0.00729157
						86:leaf=0.0109922
			10:[C_D_U_GROUPID_CATEGORY_MICRO_MEAN_COEC<0.048198] yes=21,no=22,missing=22
				21:[C_D_U_KEYWORD_UID_MACRO_MEAN_COEC<0.151663] yes=43,no=44,missing=44
					43:[C_D_U_PUBLISHER_UID_COEC<0.024863] yes=87,no=88,missing=87
						87:leaf=0.0043739
						88:leaf=0.00715558
					44:[C_D_U_CATEGORY_UID_MEAN_C<3.51775] yes=89,no=90,missing=90
						89:leaf=0.00736011
						90:leaf=0.0100519
				22:[KW_REL<0.001338] yes=45,no=46,missing=46
					45:[D_TITLEMD5_COEC<0.105748] yes=91,no=92,missing=91
						91:leaf=0.00725978
						92:leaf=0.0103852
					46:[C_D_U_CATEGORY_UID_MACRO_MEAN_COEC<0.284934] yes=93,no=94,missing=94
						93:leaf=0.00904477
						94:leaf=0.0105514
	2:[C_D_U_TITLEMD5_CATEGORY_MICRO_MEAN_COEC<0.154092] yes=5,no=6,missing=5
		5:[C_D_U_KEYWORD_UID_MICRO_MEAN_COEC<0.099381] yes=11,no=12,missing=11
			11:[D_TITLEMD5_C<36.3333] yes=23,no=24,missing=23
				23:[CAT_REL<0.008958] yes=47,no=48,missing=48
					47:[D_TITLEMD5_COEC<0.072958] yes=95,no=96,missing=96
						95:leaf=-0.0017708
						96:leaf=0.00265706
					48:[D_TITLEMD5_C<3.55407] yes=97,no=98,missing=98
						97:leaf=0.00178321
						98:leaf=0.00586869
				24:[CAT_REL<0.000832] yes=49,no=50,missing=50
					49:[D_TITLEMD5_C<358.878] yes=99,no=100,missing=100
						99:leaf=0.00495028
						100:leaf=0.00741912
					50:[D_TITLEMD5_C<255.292] yes=101,no=102,missing=102
						101:leaf=0.00765626
						102:leaf=0.00943275
			12:[C_D_U_CATEGORY_UID_MICRO_MEAN_COEC<0.204138] yes=25,no=26,missing=25
				25:[KW_REL<0.001452] yes=51,no=52,missing=52
					51:[D_TITLEMD5_C<71.7674] yes=103,no=104,missing=103
						103:leaf=0.00625971
						104:leaf=0.00883924
					52:[C_D_U_TITLEMD5_CATEGORY_MICRO_MEAN_COEC<0.114887] yes=105,no=106,missing=105
						105:leaf=0.00885966
						106:leaf=0.0103324
				26:[C_D_U_TITLEMD5_CATEGORY_MICRO_MEAN_COEC<0.117145] yes=53,no=54,missing=53
					53:[CAT_REL<0.000832] yes=107,no=108,missing=108
						107:leaf=0.00935979
						108:leaf=0.0107383
					54:[C_D_U_KEYWORD_UID_MACRO_MEAN_COEC<0.118259] yes=109,no=110,missing=110
						109:leaf=0.0108841
						110:leaf=0.0118278
		6:[C_D_U_TITLEMD5_CATEGORY_MEAN_C<0.172519] yes=13,no=14,missing=14
			13:[C_D_U_CATEGORY_UID_MACRO_MEAN_COEC<0.099975] yes=27,no=28,missing=27
				27:[C_D_U_KEYWORD_CATEGORY_MICRO_MEAN_COEC<0.093306] yes=55,no=56,missing=56
					55:[D_GROUPID_C<3.5304] yes=111,no=112,missing=112
						111:leaf=-0.000227359
						112:leaf=0.00492509
					56:[C_D_U_KEYWORD_CATEGORY_MICRO_MEAN_COEC<0.156362] yes=113,no=114,missing=114
						113:leaf=0.00709117
						114:leaf=0.0124283
				28:[C_D_U_KEYWORD_UID_MICRO_MEAN_COEC<0.168437] yes=57,no=58,missing=58
					57:[D_TITLEMD5_COEC<0.097509] yes=115,no=116,missing=116
						115:leaf=0.0068596
						116:leaf=0.00999309
					58:[D_TITLEMD5_C<2.68513] yes=117,no=118,missing=118
						117:leaf=0.010156
						118:leaf=0.0119055
			14:[C_D_U_KEYWORD_UID_MICRO_MAX_COEC<0.26916] yes=29,no=30,missing=29
				29:[C_D_U_GROUPID_CATEGORY_MICRO_MEAN_COEC<0.209506] yes=59,no=60,missing=60
					59:[M_D_U_KEYWORD_KEYWORD_MICRO_MAX_COEC<0.109092] yes=119,no=120,missing=119
						119:leaf=0.00908534
						120:leaf=0.0107283
					60:[U_CAT_LEN<11] yes=121,no=122,missing=122
						121:leaf=0.0106928
						122:leaf=0.0119971
				30:[C_D_U_TITLEMD5_CATEGORY_MICRO_MEAN_COEC<0.210225] yes=61,no=62,missing=62
					61:[C_D_U_CATEGORY_UID_MICRO_MAX_COEC<0.197732] yes=123,no=124,missing=124
						123:leaf=0.0110437
						124:leaf=0.0123008
					62:[C_D_U_CATEGORY_UID_MICRO_MEAN_COEC<0.222108] yes=125,no=126,missing=125
						125:leaf=0.0125829
						126:leaf=0.0132178
booster[47]:
0:[C_D_U_TITLEMD5_CATEGORY_MICRO_MEAN_COEC<0.098696] yes=1,no=2,missing=1
	1:[C_D_U_KEYWORD_UID_MICRO_MEAN_COEC<0.090109] yes=3,no=4,missing=3
		3:[D_KEYWORD_MACRO_MEAN_COEC<0.105362] yes=7,no=8,missing=8
			7:[D_TITLEMD5_C<29.8353] yes=15,no=16,missing=15
				15:[CAT_REL<0.000678] yes=31,no=32,missing=32
					31:[D_KEYWORD_MACRO_MEAN_COEC<0.06265] yes=63,no=64,missing=64
						63:leaf=-0.0058973
						64:leaf=-0.00213828
					32:[D_TITLEMD5_COEC<0.027399] yes=65,no=66,missing=66
						65:leaf=-0.00302932
						66:leaf=0.00132319
				16:[CAT_REL<0.000678] yes=33,no=34,missing=34
					33:[D_TITLEMD5_COEC<0.108488] yes=67,no=68,missing=68
						67:leaf=-0.000100312
						68:leaf=0.00412189
					34:[C_D_U_TITLEMD5_CATEGORY_MICRO_MEAN_COEC<0.065794] yes=69,no=70,missing=70
						69:leaf=0.00292969
						70:leaf=0.0059362
			8:[D_TITLEMD5_COEC<0.20051] yes=17,no=18,missing=17
				17:[D_TITLEMD5_COEC<0.1512] yes=35,no=36,missing=36
					35:[D_KEYWORD_MEAN_C<29.8715] yes=71,no=72,missing=72
						71:leaf=0.0101704
						72:leaf=0.00360554
					36:[U_CAT_LEN<11] yes=73,no=74,missing=74
						73:leaf=0.00699427
						74:leaf=0.00913827
				18:[C_D_U_KEYWORD_CATEGORY_MICRO_MEAN_COEC<0.130032] yes=37,no=38,missing=38
					37:[D_PUBLISHER_COEC<0.078677] yes=75,no=76,missing=76
						75:leaf=-0.000174107
						76:leaf=0.00565239
					38:[D_GROUPID_COEC<0.244933] yes=77,no=78,missing=77
						77:leaf=0.00976172
						78:leaf=0.0114923
		4:[C_D_U_CATEGORY_UID_MACRO_MEAN_COEC<0.167626] yes=9,no=10,missing=9
			9:[D_GROUPID_COEC<0.044525] yes=19,no=20,missing=20
				19:[KW_REL<0.001108] yes=39,no=40,missing=40
					39:[C_D_U_GROUPID_CATEGORY_MICRO_MEAN_COEC<0.032038] yes=79,no=80,missing=79
						79:leaf=-0.00227594
						80:leaf=0.00163373
					40:[CAT_REL<0.003413] yes=81,no=82,missing=82
						81:leaf=0.000465077
						82:leaf=0.00472239
				20:[C_D_U_KEYWORD_UID_MACRO_MEAN_COEC<0.104919] yes=41,no=42,missing=42
					41:[D_TITLEMD5_COEC<0.091057] yes=83,no=84,missing=83
						83:leaf=0.00421682
						84:leaf=0.00705084
					42:[CAT_REL<0.016685] yes=85,no=86,missing=86
						85:leaf=0.00670882
						86:leaf=0.00864683
			10:[C_D_U_GROUPID_CATEGORY_MICRO_MEAN_COEC<0.04332] yes=21,no=22,missing=22
				21:[C_D_U_KEYWORD_UID_MACRO_MEAN_COEC<0.109667] yes=43,no=44,missing=44
					43:[D_PUBLISHER_COEC<0.039433] yes=87,no=88,missing=88
						87:leaf=0.00205019
						88:leaf=0.00537817
					44:[C_D_U_CATEGORY_UID_MEAN_C<1.2164] yes=89,no=90,missing=90
						89:leaf=0.00579459
						90:leaf=0.00876296
				22:[C_D_U_KEYWORD_UID_MACRO_MEAN_COEC<0.123946] yes=45,no=46,missing=46
					45:[D_TITLEMD5_C<20.5537] yes=91,no=92,missing=91
						91:leaf=0.00675131
						92:leaf=0.00887239
					46:[C_D_U_CATEGORY_UID_MICRO_MEAN_COEC<0.34397] yes=93,no=94,missing=94
						93:leaf=0.00914757
						94:leaf=0.0103854
	2:[C_D_U_GROUPID_CATEGORY_MICRO_MEAN_COEC<0.144437] yes=5,no=6,missing=5
		5:[C_D_U_KEYWORD_UID_MACRO_MEAN_COEC<0.055443] yes=11,no=12,missing=11
			11:[D_TITLEMD5_C<20.5537] yes=23,no=24,missing=24
				23:[CAT_REL<0.019894] yes=47,no=48,missing=48
					47:[D_TITLEMD5_COEC<0.075522] yes=95,no=96,missing=96
						95:leaf=-0.00269905
						96:leaf=0.00220419
					48:[D_TITLEMD5_C<3.68602] yes=97,no=98,missing=98
						97:leaf=0.00203866
						98:leaf=0.00585613
				24:[CAT_REL<0.000678] yes=49,no=50,missing=50
					49:[D_TITLEMD5_C<218.177] yes=99,no=100,missing=100
						99:leaf=0.0043223
						100:leaf=0.00698656
					50:[C_D_U_CATEGORY_UID_MICRO_MEAN_COEC<0.150074] yes=101,no=102,missing=101
						101:leaf=0.00783075
						102:leaf=0.0100334
			12:[C_D_U_CATEGORY_UID_MICRO_MEAN_COEC<0.154687] yes=25,no=26,missing=26
				25:[M_D_U_KEYWORD_KEYWORD_MICRO_MAX_COEC<0.097346] yes=51,no=52,missing=51
					51:[D_TITLEMD5_C<20.5537] yes=103,no=104,missing=104
						103:leaf=0.00511724
						104:leaf=0.0080521
					52:[C_D_U_KEYWORD_UID_MICRO_MEAN_COEC<0.191372] yes=105,no=106,missing=106
						105:leaf=0.00877726
						106:leaf=0.0104444
				26:[C_D_U_CATEGORY_UID_MACRO_MEAN_COEC<0.286035] yes=53,no=54,missing=53
					53:[M_D_U_KEYWORD_KEYWORD_MICRO_MAX_COEC<0.084595] yes=107,no=108,missing=107
						107:leaf=0.00926533
						108:leaf=0.010582
					54:[C_D_U_CATEGORY_UID_MAX_C<1.08775] yes=109,no=110,missing=110
						109:leaf=0.0107792
						110:leaf=0.0117912
		6:[C_D_U_KEYWORD_UID_MICRO_MEAN_COEC<0.090109] yes=13,no=14,missing=13
			13:[D_GROUPID_C<26.8355] yes=27,no=28,missing=28
				27:[D_GROUPID_COEC<0.106086] yes=55,no=56,missing=56
					55:[CAT_REL<0.003413] yes=111,no=112,missing=112
						111:leaf=-0.00130712
						112:leaf=0.00467441
					56:[C_D_U_KEYWORD_CATEGORY_MICRO_MEAN_COEC<0.11246] yes=113,no=114,missing=114
						113:leaf=0.00619299
						114:leaf=0.010681
				28:[C_D_U_TITLEMD5_CATEGORY_MICRO_MEAN_COEC<0.20337] yes=57,no=58,missing=58
					57:[KW_REL<0.000439] yes=115,no=116,missing=116
						115:leaf=0.00795473
						116:leaf=0.010063
					58:[C_D_U_GROUPID_CATEGORY_MICRO_MEAN_COEC<0.254452] yes=117,no=118,missing=118
						117:leaf=0.0112221
						118:leaf=0.0123767
			14:[C_D_U_GROUPID_CATEGORY_MEAN_C<0.09697] yes=29,no=30,missing=30
				29:[C_D_U_CATEGORY_UID_MACRO_MEAN_COEC<0.187292] yes=59,no=60,missing=59
					59:[D_GROUPID_COEC<0.094727] yes=119,no=120,missing=120
						119:leaf=0.0057886
						120:leaf=0.00945213
					60:[C_D_U_KEYWORD_UID_MACRO_MEAN_COEC<0.164316] yes=121,no=122,missing=122
						121:leaf=0.0102342
						122:leaf=0.0119832
				30:[C_D_U_TITLEMD5_CATEGORY_MICRO_MEAN_COEC<0.189987] yes=61,no=62,missing=62
					61:[C_D_U_CATEGORY_UID_MICRO_MAX_COEC<0.291657] yes=123,no=124,missing=123
						123:leaf=0.0111299
						124:leaf=0.0122961
					62:[C_D_U_CATEGORY_UID_MICRO_MAX_COEC<0.291657] yes=125,no=126,missing=125
						125:leaf=0.0123645
						126:leaf=0.0130537
booster[48]:
0:[C_D_U_TITLEMD5_CATEGORY_MICRO_MEAN_COEC<0.097112] yes=1,no=2,missing=1
	1:[C_D_U_KEYWORD_UID_MACRO_MEAN_COEC<0.049163] yes=3,no=4,missing=3
		3:[D_KEYWORD_MACRO_MEAN_COEC<0.099714] yes=7,no=8,missing=8
			7:[C_D_U_TITLEMD5_CATEGORY_MICRO_MEAN_COEC<0.040792] yes=15,no=16,missing=15
				15:[D_GROUPID_COEC<0.086769] yes=31,no=32,missing=31
					31:[C_D_U_CATEGORY_UID_MACRO_MEAN_COEC<0.070025] yes=63,no=64,missing=63
						63:leaf=-0.00376363
						64:leaf=0.000618542
					32:[D_TITLEMD5_C<554.829] yes=65,no=66,missing=66
						65:leaf=0.00106591
						66:leaf=0.00501167
				16:[CAT_REL<0.001053] yes=33,no=34,missing=34
					33:[D_TITLEMD5_C<42.8106] yes=67,no=68,missing=68
						67:leaf=-0.00175196
						68:leaf=0.00191759
					34:[D_TITLEMD5_C<20.7463] yes=69,no=70,missing=70
						69:leaf=0.00155166
						70:leaf=0.00523502
			8:[D_TITLEMD5_COEC<0.190472] yes=17,no=18,missing=17
				17:[D_GROUPID_COEC<0.134425] yes=35,no=36,missing=36
					35:[D_KEYWORD_MAX_C<10.367] yes=71,no=72,missing=72
						71:leaf=0.0100347
						72:leaf=0.0025876
					36:[D_CATEGORY_MEAN_C<16400.2] yes=73,no=74,missing=73
						73:leaf=0.00749884
						74:leaf=0.00576739
				18:[D_TITLEMD5_COEC<0.236028] yes=37,no=38,missing=38
					37:[WORD_COUNT<1768] yes=75,no=76,missing=76
						75:leaf=0.00864957
						76:leaf=0.00998744
					38:[D_KEYWORD_MICRO_MEAN_COEC<0.092435] yes=77,no=78,missing=78
						77:leaf=0.00122315
						78:leaf=0.0112479
		4:[C_D_U_CATEGORY_UID_MACRO_MEAN_COEC<0.177816] yes=9,no=10,missing=9
			9:[C_D_U_GROUPID_CATEGORY_MICRO_MEAN_COEC<0.057734] yes=19,no=20,missing=20
				19:[CAT_REL<0.003322] yes=39,no=40,missing=40
					39:[D_GROUPID_COEC<0.032055] yes=79,no=80,missing=80
						79:leaf=-0.00174601
						80:leaf=0.00182424
					40:[C_D_U_KEYWORD_UID_MACRO_MEAN_COEC<0.10146] yes=81,no=82,missing=82
						81:leaf=0.00299291
						82:leaf=0.00601823
				20:[C_D_U_KEYWORD_UID_MICRO_MEAN_COEC<0.145678] yes=41,no=42,missing=42
					41:[CAT_REL<0.003322] yes=83,no=84,missing=84
						83:leaf=0.00362766
						84:leaf=0.00603472
					42:[M_D_U_KEYWORD_KEYWORD_MICRO_MAX_COEC<0.091585] yes=85,no=86,missing=85
						85:leaf=0.00633586
						86:leaf=0.00839858
			10:[C_D_U_GROUPID_CATEGORY_MICRO_MEAN_COEC<0.053033] yes=21,no=22,missing=22
				21:[C_D_U_KEYWORD_UID_MACRO_MEAN_COEC<0.164756] yes=43,no=44,missing=44
					43:[C_D_U_PUBLISHER_UID_COEC<0.044888] yes=87,no=88,missing=87
						87:leaf=0.00529707
						88:leaf=0.00745713
					44:[C_D_U_CATEGORY_UID_MEAN_C<1.21128] yes=89,no=90,missing=90
						89:leaf=0.00648961
						90:leaf=0.00952781
				22:[C_D_U_KEYWORD_UID_MICRO_MEAN_COEC<0.207894] yes=45,no=46,missing=46
					45:[D_TITLEMD5_C<29.4746] yes=91,no=92,missing=91
						91:leaf=0.0073035
						92:leaf=0.00885622
					46:[C_D_U_CATEGORY_UID_MEAN_C<2.10425] yes=93,no=94,missing=94
						93:leaf=0.00901398
						94:leaf=0.0105191
	2:[C_D_U_GROUPID_CATEGORY_MICRO_MEAN_COEC<0.144875] yes=5,no=6,missing=5
		5:[C_D_U_CATEGORY_UID_MACRO_MEAN_COEC<0.11693] yes=11,no=12,missing=11
			11:[D_TITLEMD5_C<29.4746] yes=23,no=24,missing=24
				23:[KW_REL<0.001579] yes=47,no=48,missing=48
					47:[C_D_U_KEYWORD_UID_MICRO_MEAN_COEC<0.040137] yes=95,no=96,missing=96
						95:leaf=-0.000649671
						96:leaf=0.00294628
					48:[CAT_REL<0.008945] yes=97,no=98,missing=98
						97:leaf=0.00268003
						98:leaf=0.00652729
				24:[KW_REL<0.001034] yes=49,no=50,missing=50
					49:[D_CATEGORY_MEAN_C<31664] yes=99,no=100,missing=99
						99:leaf=0.00618148
						100:leaf=0.00234011
					50:[C_D_U_KEYWORD_UID_MICRO_MEAN_COEC<0.134488] yes=101,no=102,missing=101
						101:leaf=0.00756157
						102:leaf=0.00985457
			12:[C_D_U_KEYWORD_UID_MICRO_MEAN_COEC<0.167247] yes=25,no=26,missing=25
				25:[D_TITLEMD5_C<17.796] yes=51,no=52,missing=52
					51:[D_TITLEMD5_COEC<0.072889] yes=103,no=104,missing=104
						103:leaf=0.00548899
						104:leaf=0.0081426
					52:[C_D_U_CATEGORY_UID_MACRO_MEAN_COEC<0.226346] yes=105,no=106,missing=106
						105:leaf=0.00885906
						106:leaf=0.0101561
				26:[KW_REL<0.001608] yes=53,no=54,missing=54
					53:[C_D_U_CATEGORY_UID_MACRO_MEAN_COEC<0.29245] yes=107,no=108,missing=108
						107:leaf=0.00915113
						108:leaf=0.0106129
					54:[C_D_U_CATEGORY_UID_MACRO_MEAN_COEC<0.335969] yes=109,no=110,missing=110
						109:leaf=0.0107986
						110:leaf=0.0117724
		6:[C_D_U_CATEGORY_UID_MICRO_MEAN_COEC<0.137678] yes=13,no=14,missing=13
			13:[D_GROUPID_C<25.6967] yes=27,no=28,missing=28
				27:[C_D_U_KEYWORD_CATEGORY_MICRO_MEAN_COEC<0.091128] yes=55,no=56,missing=56
					55:[KW_REL<0.001461] yes=111,no=112,missing=112
						111:leaf=0.00084968
						112:leaf=0.00601202
					56:[D_TITLEMD5_COEC<0.146118] yes=113,no=114,missing=114
						113:leaf=0.00639739
						114:leaf=0.0101516
				28:[C_D_U_TITLEMD5_CATEGORY_MICRO_MEAN_COEC<0.209783] yes=57,no=58,missing=58
					57:[M_D_U_KEYWORD_KEYWORD_MICRO_MAX_COEC<0.102301] yes=115,no=116,missing=115
						115:leaf=0.00899395
						116:leaf=0.0106524
					58:[C_D_U_GROUPID_CATEGORY_MICRO_MEAN_COEC<0.269908] yes=117,no=118,missing=118
						117:leaf=0.0114028
						118:leaf=0.0125663
			14:[D_TITLEMD5_C<4.8916] yes=29,no=30,missing=30
				29:[C_D_U_KEYWORD_UID_MACRO_MEAN_COEC<0.075531] yes=59,no=60,missing=59
					59:[D_GROUPID_COEC<0.075573] yes=119,no=120,missing=120
						119:leaf=0.00395734
						120:leaf=0.00837928
					60:[KW_REL<0.001461] yes=121,no=122,missing=122
						121:leaf=0.0087203
						122:leaf=0.0110055
				30:[C_D_U_TITLEMD5_CATEGORY_MICRO_MEAN_COEC<0.183812] yes=61,no=62,missing=62
					61:[C_D_U_KEYWORD_UID_MICRO_MEAN_COEC<0.177906] yes=123,no=124,missing=123
						123:leaf=0.01096
						124:leaf=0.012011
					62:[C_D_U_CATEGORY_UID_MICRO_MAX_COEC<0.29223] yes=125,no=126,missing=126
						125:leaf=0.0122052
						126:leaf=0.0128597
booster[49]:
0:[C_D_U_GROUPID_CATEGORY_MICRO_MEAN_COEC<0.095398] yes=1,no=2,missing=1
	1:[C_D_U_KEYWORD_UID_MACRO_MEAN_COEC<0.051707] yes=3,no=4,missing=3
		3:[D_KEYWORD_MACRO_MEAN_COEC<0.096155] yes=7,no=8,missing=8
			7:[C_D_U_GROUPID_CATEGORY_MICRO_MEAN_COEC<0.043256] yes=15,no=16,missing=15
				15:[D_GROUPID_COEC<0.084012] yes=31,no=32,missing=31
					31:[C_D_U_CATEGORY_UID_MICRO_MEAN_COEC<0.060566] yes=63,no=64,missing=63
						63:leaf=-0.00360826
						64:leaf=0.00054535
					32:[D_KEYWORD_MACRO_MEAN_COEC<0.06951] yes=65,no=66,missing=66
						65:leaf=-0.00163086
						66:leaf=0.00243965
				16:[CAT_REL<0.00104] yes=33,no=34,missing=34
					33:[D_TITLEMD5_C<35.8403] yes=67,no=68,missing=67
						67:leaf=-0.00168139
						68:leaf=0.00193109
					34:[D_TITLEMD5_C<20.6349] yes=69,no=70,missing=69
						69:leaf=0.00189576
						70:leaf=0.00536079
			8:[D_TITLEMD5_COEC<0.168268] yes=17,no=18,missing=18
				17:[D_CATEGORY_MEAN_C<31308.6] yes=35,no=36,missing=35
					35:[D_TITLEMD5_COEC<0.127622] yes=71,no=72,missing=72
						71:leaf=0.00435926
						72:leaf=0.00686297
					36:[C_D_U_CATEGORY_UID_MICRO_MAX_COEC<0.133497] yes=73,no=74,missing=73
						73:leaf=0.00154065
						74:leaf=0.00680737
				18:[D_TITLEMD5_COEC<0.209958] yes=37,no=38,missing=37
					37:[C_D_U_KEYWORD_UID_MEAN_C<0.000196] yes=75,no=76,missing=75
						75:leaf=0.00745738
						76:leaf=0.0103424
					38:[D_KEYWORD_MICRO_MEAN_COEC<0.088218] yes=77,no=78,missing=77
						77:leaf=0.00274154
						78:leaf=0.0106657
		4:[C_D_U_CATEGORY_UID_MACRO_MEAN_COEC<0.181264] yes=9,no=10,missing=9
			9:[D_TITLEMD5_COEC<0.067012] yes=19,no=20,missing=20
				19:[CAT_REL<0.003205] yes=39,no=40,missing=40
					39:[C_D_U_GROUPID_CATEGORY_MICRO_MEAN_COEC<0.036974] yes=79,no=80,missing=79
						79:leaf=-0.000792693
						80:leaf=0.00268429
					40:[C_D_U_KEYWORD_UID_MACRO_MEAN_COEC<0.098586] yes=81,no=82,missing=82
						81:leaf=0.00353585
						82:leaf=0.00624576
				20:[CAT_REL<0.003205] yes=41,no=42,missing=42
					41:[D_TITLEMD5_COEC<0.112221] yes=83,no=84,missing=83
						83:leaf=0.00475323
						84:leaf=0.00897024
					42:[M_D_U_KEYWORD_KEYWORD_MICRO_MAX_COEC<0.084167] yes=85,no=86,missing=85
						85:leaf=0.00623419
						86:leaf=0.0085484
			10:[C_D_U_GROUPID_CATEGORY_MICRO_MEAN_COEC<0.061336] yes=21,no=22,missing=21
				21:[D_TITLEMD5_COEC<0.105688] yes=43,no=44,missing=43
					43:[C_D_U_CATEGORY_UID_MAX_C<1.00054] yes=87,no=88,missing=88
						87:leaf=0.00534084
						88:leaf=0.00804896
					44:[D_KEYWORD_MACRO_MEAN_COEC<0.131223] yes=89,no=90,missing=90
						89:leaf=0.0101686
						90:leaf=0.0126306
				22:[C_D_U_KEYWORD_UID_MICRO_MEAN_COEC<0.235446] yes=45,no=46,missing=46
					45:[CAT_REL<0.006899] yes=91,no=92,missing=92
						91:leaf=0.00746907
						92:leaf=0.00917715
					46:[C_D_U_CATEGORY_UID_MAX_C<1.00054] yes=93,no=94,missing=94
						93:leaf=0.0092012
						94:leaf=0.0106726
	2:[C_D_U_TITLEMD5_CATEGORY_MICRO_MEAN_COEC<0.153421] yes=5,no=6,missing=5
		5:[C_D_U_KEYWORD_UID_MICRO_MEAN_COEC<0.076157] yes=11,no=12,missing=11
			11:[D_TITLEMD5_C<96.0938] yes=23,no=24,missing=23
				23:[CAT_REL<0.00104] yes=47,no=48,missing=48
					47:[D_TITLEMD5_COEC<0.088294] yes=95,no=96,missing=95
						95:leaf=-5.68451e-05
						96:leaf=0.00362417
					48:[D_TITLEMD5_C<5.91582] yes=97,no=98,missing=97
						97:leaf=0.00205574
						98:leaf=0.00615186
				24:[CAT_REL<0.00104] yes=49,no=50,missing=50
					49:[D_TITLEMD5_C<555.103] yes=99,no=100,missing=100
						99:leaf=0.00531112
						100:leaf=0.00749974
					50:[U_CAT_LEN<11] yes=101,no=102,missing=102
						101:leaf=0.00675498
						102:leaf=0.00898713
			12:[C_D_U_CATEGORY_UID_MICRO_MEAN_COEC<0.203017] yes=25,no=26,missing=25
				25:[C_D_U_KEYWORD_UID_MACRO_MEAN_COEC<0.088976] yes=51,no=52,missing=52
					51:[D_TITLEMD5_C<72.2396] yes=103,no=104,missing=103
						103:leaf=0.00655501
						104:leaf=0.0088259
					52:[C_D_U_TITLEMD5_CATEGORY_MICRO_MEAN_COEC<0.116372] yes=105,no=106,missing=106
						105:leaf=0.00886452
						106:leaf=0.0102689
				26:[C_D_U_KEYWORD_UID_MACRO_MEAN_COEC<0.104916] yes=53,no=54,missing=54
					53:[D_TITLEMD5_C<46.0378] yes=107,no=108,missing=107
						107:leaf=0.00902309
						108:leaf=0.0105159
					54:[C_D_U_TITLEMD5_CATEGORY_MICRO_MEAN_COEC<0.116372] yes=109,no=110,missing=109
						109:leaf=0.0105959
						110:leaf=0.0115399
		6:[D_TITLEMD5_C<5.91582] yes=13,no=14,missing=14
			13:[C_D_U_KEYWORD_UID_MACRO_MEAN_COEC<0.038513] yes=27,no=28,missing=27
				27:[C_D_U_KEYWORD_CATEGORY_MICRO_MEAN_COEC<0.1108] yes=55,no=56,missing=56
					55:[CAT_REL<0.023708] yes=111,no=112,missing=112
						111:leaf=-0.00220769
						112:leaf=0.00330526
					56:[C_D_U_KEYWORD_CATEGORY_MICRO_MEAN_COEC<0.173883] yes=113,no=114,missing=114
						113:leaf=0.00596193
						114:leaf=0.0116637
				28:[C_D_U_CATEGORY_UID_MACRO_MEAN_COEC<0.127559] yes=57,no=58,missing=57
					57:[M_D_U_KEYWORD_KEYWORD_MACRO_MEAN_COEC<9.1e-05] yes=115,no=116,missing=115
						115:leaf=0.00464993
						116:leaf=0.00864423
					58:[C_D_U_KEYWORD_UID_MACRO_MEAN_COEC<0.13306] yes=117,no=118,missing=118
						117:leaf=0.00910329
						118:leaf=0.0111319
			14:[C_D_U_KEYWORD_UID_MICRO_MEAN_COEC<0.090784] yes=29,no=30,missing=29
				29:[D_TITLEMD5_C<170.837] yes=59,no=60,missing=60
					59:[CAT_REL<0.00104] yes=119,no=120,missing=120
						119:leaf=0.00636237
						120:leaf=0.00946141
					60:[C_D_U_TITLEMD5_CATEGORY_MICRO_MEAN_COEC<0.215938] yes=121,no=122,missing=122
						121:leaf=0.0101817
						122:leaf=0.0118251
				30:[C_D_U_TITLEMD5_CATEGORY_MICRO_MEAN_COEC<0.209536] yes=61,no=62,missing=62
					61:[C_D_U_CATEGORY_UID_MICRO_MAX_COEC<0.240861] yes=123,no=124,missing=123
						123:leaf=0.011125
						124:leaf=0.0122368
					62:[C_D_U_TITLEMD5_CATEGORY_MEAN_C<0.25665] yes=125,no=126,missing=126
						125:leaf=0.0116708
						126:leaf=0.0127528
booster[50]:
0:[C_D_U_GROUPID_CATEGORY_MICRO_MEAN_COEC<0.081757] yes=1,no=2,missing=1
	1:[D_TITLEMD5_COEC<0.126994] yes=3,no=4,missing=3
		3:[C_D_U_KEYWORD_UID_MACRO_MEAN_COEC<0.03821] yes=7,no=8,missing=7
			7:[D_TITLEMD5_C<33.5978] yes=15,no=16,missing=16
				15:[C_D_U_TITLEMD5_CATEGORY_MICRO_MEAN_COEC<0.026465] yes=31,no=32,missing=31
					31:[D_KEYWORD_MICRO_MAX_COEC<0.268981] yes=63,no=64,missing=63
						63:leaf=-0.00442411
						64:leaf=0.00799229
					32:[CAT_REL<0.000978] yes=65,no=66,missing=66
						65:leaf=-0.00268403
						66:leaf=0.00123907
				16:[CAT_REL<0.000978] yes=33,no=34,missing=34
					33:[D_TITLEMD5_C<381.376] yes=67,no=68,missing=67
						67:leaf=-0.000580366
						68:leaf=0.00314094
					34:[U_KEYWORD_MICRO_MEAN_COEC<0.089737] yes=69,no=70,missing=70
						69:leaf=0.00048206
						70:leaf=0.00454157
			8:[C_D_U_CATEGORY_UID_MACRO_MEAN_COEC<0.171739] yes=17,no=18,missing=17
				17:[C_D_U_KEYWORD_UID_MACRO_MEAN_COEC<0.095967] yes=35,no=36,missing=36
					35:[C_D_U_GROUPID_CATEGORY_MICRO_MEAN_COEC<0.038308] yes=71,no=72,missing=72
						71:leaf=0.000240288
						72:leaf=0.0037979
					36:[M_D_U_KEYWORD_KEYWORD_MICRO_MAX_COEC<0.10807] yes=73,no=74,missing=73
						73:leaf=0.00434847
						74:leaf=0.00727101
				18:[C_D_U_KEYWORD_UID_MACRO_MEAN_COEC<0.163149] yes=37,no=38,missing=38
					37:[C_D_U_GROUPID_CATEGORY_MICRO_MEAN_COEC<0.043719] yes=75,no=76,missing=75
						75:leaf=0.00552479
						76:leaf=0.00800123
					38:[C_D_U_CATEGORY_UID_MAX_C<1.00096] yes=77,no=78,missing=78
						77:leaf=0.00737336
						78:leaf=0.00970882
		4:[D_KEYWORD_MACRO_MEAN_COEC<0.129961] yes=9,no=10,missing=9
			9:[C_D_U_KEYWORD_UID_MICRO_MAX_COEC<0.231382] yes=19,no=20,missing=19
				19:[D_TITLEMD5_C<38.0117] yes=39,no=40,missing=40
					39:[KW_REL<0.001341] yes=79,no=80,missing=80
						79:leaf=-0.000222984
						80:leaf=0.00498045
					40:[WORD_COUNT<2053] yes=81,no=82,missing=82
						81:leaf=0.00476907
						82:leaf=0.00742973
				20:[C_D_U_KEYWORD_CATEGORY_MICRO_MEAN_COEC<0.086538] yes=41,no=42,missing=42
					41:[C_D_U_CATEGORY_UID_MACRO_MAX_COEC<0.063226] yes=83,no=84,missing=83
						83:leaf=0.00412558
						84:leaf=0.00812167
					42:[C_D_U_CATEGORY_UID_MICRO_MEAN_COEC<0.172559] yes=85,no=86,missing=86
						85:leaf=0.00826629
						86:leaf=0.0104669
			10:[D_KEYWORD_MICRO_MAX_COEC<0.223054] yes=21,no=22,missing=22
				21:[WORD_COUNT<1677] yes=43,no=44,missing=44
					43:[D_TITLEMD5_COEC<0.186237] yes=87,no=88,missing=88
						87:leaf=0.00594149
						88:leaf=0.00833824
					44:[C_D_U_KEYWORD_UID_MEAN_C<0.000192] yes=89,no=90,missing=89
						89:leaf=0.00915137
						90:leaf=0.0121564
				22:[C_D_U_KEYWORD_UID_MEAN_C<0.000192] yes=45,no=46,missing=45
					45:[D_KEYWORD_MICRO_MEAN_COEC<0.078705] yes=91,no=92,missing=92
						91:leaf=-0.00490883
						92:leaf=0.010643
					46:[C_D_U_KEYWORD_CATEGORY_MICRO_MEAN_COEC<0.102702] yes=93,no=94,missing=94
						93:leaf=0.00489299
						94:leaf=0.0128467
	2:[C_D_U_GROUPID_CATEGORY_MICRO_MEAN_COEC<0.131541] yes=5,no=6,missing=6
		5:[C_D_U_CATEGORY_UID_MICRO_MEAN_COEC<0.112785] yes=11,no=12,missing=11
			11:[KW_REL<0.001174] yes=23,no=24,missing=24
				23:[D_TITLEMD5_C<113.442] yes=47,no=48,missing=47
					47:[C_D_U_KEYWORD_UID_MICRO_MEAN_COEC<0.060232] yes=95,no=96,missing=95
						95:leaf=0.000697396
						96:leaf=0.00429938
					48:[D_CATEGORY_MEAN_C<26027.6] yes=97,no=98,missing=97
						97:leaf=0.00583561
						98:leaf=0.00172309
				24:[C_D_U_KEYWORD_UID_MICRO_MEAN_COEC<0.139666] yes=49,no=50,missing=49
					49:[D_TITLEMD5_C<159.742] yes=99,no=100,missing=99
						99:leaf=0.0050133
						100:leaf=0.00744727
					50:[CAT_REL<0.000978] yes=101,no=102,missing=102
						101:leaf=0.0079847
						102:leaf=0.00949899
			12:[C_D_U_KEYWORD_UID_MICRO_MEAN_COEC<0.166431] yes=25,no=26,missing=25
				25:[D_TITLEMD5_C<33.5978] yes=51,no=52,missing=51
					51:[KW_REL<0.00127] yes=103,no=104,missing=104
						103:leaf=0.00542107
						104:leaf=0.0076743
					52:[CAT_REL<0.006035] yes=105,no=106,missing=106
						105:leaf=0.00789626
						106:leaf=0.00939209
				26:[C_D_U_CATEGORY_UID_MACRO_MEAN_COEC<0.295319] yes=53,no=54,missing=54
					53:[KW_REL<0.00231] yes=107,no=108,missing=108
						107:leaf=0.00890808
						108:leaf=0.0103438
					54:[C_D_U_CATEGORY_UID_MAX_C<1.00096] yes=109,no=110,missing=110
						109:leaf=0.0100097
						110:leaf=0.0113845
		6:[C_D_U_CATEGORY_UID_MICRO_MEAN_COEC<0.135374] yes=13,no=14,missing=13
			13:[D_TITLEMD5_C<73.9342] yes=27,no=28,missing=27
				27:[M_D_U_KEYWORD_KEYWORD_MICRO_MAX_COEC<0.09551] yes=55,no=56,missing=55
					55:[D_GROUPID_C<4.49548] yes=111,no=112,missing=112
						111:leaf=0.000667919
						112:leaf=0.00579481
					56:[M_D_U_KEYWORD_KEYWORD_MICRO_MAX_COEC<0.17855] yes=113,no=114,missing=114
						113:leaf=0.00787458
						114:leaf=0.0114558
				28:[C_D_U_TITLEMD5_CATEGORY_MICRO_MEAN_COEC<0.181632] yes=57,no=58,missing=58
					57:[D_CATEGORY_MEAN_C<26027.6] yes=115,no=116,missing=115
						115:leaf=0.00982201
						116:leaf=0.00747634
					58:[C_D_U_TITLEMD5_CATEGORY_MICRO_MEAN_COEC<0.239539] yes=117,no=118,missing=118
						117:leaf=0.0107755
						118:leaf=0.0120991
			14:[C_D_U_TITLEMD5_CATEGORY_MICRO_MEAN_COEC<0.173315] yes=29,no=30,missing=29
				29:[C_D_U_CATEGORY_UID_MICRO_MEAN_COEC<0.29146] yes=59,no=60,missing=60
					59:[M_D_U_KEYWORD_KEYWORD_MICRO_MAX_COEC<0.085049] yes=119,no=120,missing=119
						119:leaf=0.0093765
						120:leaf=0.0107733
					60:[M_D_U_KEYWORD_KEYWORD_MICRO_MAX_COEC<0.08971] yes=121,no=122,missing=121
						121:leaf=0.0109038
						122:leaf=0.0118941
				30:[D_GROUPID_C<5.96037] yes=61,no=62,missing=62
					61:[C_D_U_KEYWORD_UID_MACRO_MEAN_COEC<0.109906] yes=123,no=124,missing=123
						123:leaf=0.00821885
						124:leaf=0.0110128
					62:[C_D_U_GROUPID_CATEGORY_MICRO_MEAN_COEC<0.223887] yes=125,no=126,missing=126
						125:leaf=0.012058
						126:leaf=0.0128031
booster[51]:
0:[C_D_U_TITLEMD5_CATEGORY_MICRO_MEAN_COEC<0.099227] yes=1,no=2,missing=1
	1:[C_D_U_KEYWORD_UID_MICRO_MEAN_COEC<0.089106] yes=3,no=4,missing=3
		3:[D_KEYWORD_MACRO_MEAN_COEC<0.106799] yes=7,no=8,missing=8
			7:[D_TITLEMD5_C<28.8514] yes=15,no=16,missing=15
				15:[C_D_U_KEYWORD_CATEGORY_MICRO_MEAN_COEC<0.066748] yes=31,no=32,missing=31
					31:[D_GROUPID_COEC<0.026226] yes=63,no=64,missing=63
						63:leaf=-0.0068601
						64:leaf=-0.00333001
					32:[C_D_U_CATEGORY_UID_MICRO_MEAN_COEC<0.085272] yes=65,no=66,missing=65
						65:leaf=-0.00128585
						66:leaf=0.00284916
				16:[CAT_REL<0.000876] yes=33,no=34,missing=34
					33:[D_TITLEMD5_COEC<0.108044] yes=67,no=68,missing=68
						67:leaf=-0.000170406
						68:leaf=0.0039824
					34:[C_D_U_GROUPID_CATEGORY_MICRO_MEAN_COEC<0.064951] yes=69,no=70,missing=69
						69:leaf=0.00276818
						70:leaf=0.00578029
			8:[D_TITLEMD5_COEC<0.200698] yes=17,no=18,missing=17
				17:[D_TITLEMD5_COEC<0.151681] yes=35,no=36,missing=36
					35:[D_KEYWORD_MAX_C<16.2815] yes=71,no=72,missing=72
						71:leaf=0.0100036
						72:leaf=0.00350312
					36:[KW_REL<0.001243] yes=73,no=74,missing=74
						73:leaf=0.00682961
						74:leaf=0.00929057
				18:[D_GROUPID_COEC<0.244925] yes=37,no=38,missing=37
					37:[D_CATEGORY_MAX_C<31558.1] yes=75,no=76,missing=75
						75:leaf=0.0101143
						76:leaf=0.00860041
					38:[D_TITLEMD5_C<1.09665] yes=77,no=78,missing=78
						77:leaf=0.00383441
						78:leaf=0.0112893
		4:[C_D_U_CATEGORY_UID_MACRO_MEAN_COEC<0.156488] yes=9,no=10,missing=9
			9:[D_GROUPID_COEC<0.044011] yes=19,no=20,missing=20
				19:[CAT_REL<0.000876] yes=39,no=40,missing=40
					39:[C_D_U_KEYWORD_UID_MACRO_MEAN_COEC<0.096549] yes=79,no=80,missing=80
						79:leaf=-0.0024328
						80:leaf=0.0012626
					40:[KW_REL<0.001581] yes=81,no=82,missing=82
						81:leaf=0.00115098
						82:leaf=0.00483119
				20:[C_D_U_KEYWORD_UID_MACRO_MEAN_COEC<0.090029] yes=41,no=42,missing=42
					41:[D_TITLEMD5_COEC<0.091909] yes=83,no=84,missing=83
						83:leaf=0.0038902
						84:leaf=0.00674018
					42:[D_TITLEMD5_COEC<0.100963] yes=85,no=86,missing=85
						85:leaf=0.00670406
						86:leaf=0.0091092
			10:[C_D_U_GROUPID_CATEGORY_MICRO_MEAN_COEC<0.050075] yes=21,no=22,missing=22
				21:[C_D_U_KEYWORD_UID_MACRO_MEAN_COEC<0.141793] yes=43,no=44,missing=44
					43:[IMAGE_COUNT<0.999999] yes=87,no=88,missing=88
						87:leaf=0.00118926
						88:leaf=0.00541457
					44:[C_D_U_CATEGORY_UID_MEAN_C<3.48411] yes=89,no=90,missing=90
						89:leaf=0.00703667
						90:leaf=0.00952381
				22:[C_D_U_KEYWORD_UID_MACRO_MEAN_COEC<0.154694] yes=45,no=46,missing=46
					45:[D_TITLEMD5_C<20.403] yes=91,no=92,missing=91
						91:leaf=0.00678781
						92:leaf=0.00872762
					46:[C_D_U_CATEGORY_UID_MEAN_C<2.47854] yes=93,no=94,missing=94
						93:leaf=0.00905587
						94:leaf=0.0103527
	2:[C_D_U_GROUPID_CATEGORY_MICRO_MEAN_COEC<0.150832] yes=5,no=6,missing=5
		5:[C_D_U_KEYWORD_UID_MACRO_MEAN_COEC<0.049261] yes=11,no=12,missing=11
			11:[D_TITLEMD5_C<34.7366] yes=23,no=24,missing=24
				23:[CAT_REL<0.003012] yes=47,no=48,missing=48
					47:[D_KEYWORD_MACRO_MEAN_COEC<0.070545] yes=95,no=96,missing=96
						95:leaf=-0.00162698
						96:leaf=0.00308383
					48:[D_TITLEMD5_C<3.92077] yes=97,no=98,missing=98
						97:leaf=0.00170374
						98:leaf=0.0058209
				24:[CAT_REL<0.000876] yes=49,no=50,missing=50
					49:[D_TITLEMD5_C<235.023] yes=99,no=100,missing=100
						99:leaf=0.00443671
						100:leaf=0.00689844
					50:[U_CAT_LEN<12] yes=101,no=102,missing=102
						101:leaf=0.0067401
						102:leaf=0.00878094
			12:[C_D_U_CATEGORY_UID_MICRO_MEAN_COEC<0.215851] yes=25,no=26,missing=25
				25:[M_D_U_KEYWORD_KEYWORD_MICRO_MAX_COEC<0.10056] yes=51,no=52,missing=51
					51:[D_TITLEMD5_C<24.121] yes=103,no=104,missing=104
						103:leaf=0.00566654
						104:leaf=0.00850211
					52:[C_D_U_KEYWORD_UID_MICRO_MEAN_COEC<0.188816] yes=105,no=106,missing=106
						105:leaf=0.0088801
						106:leaf=0.0104649
				26:[C_D_U_CATEGORY_UID_MACRO_MEAN_COEC<0.338996] yes=53,no=54,missing=54
					53:[KW_REL<0.002024] yes=107,no=108,missing=108
						107:leaf=0.00973417
						108:leaf=0.010795
					54:[C_D_U_CATEGORY_UID_MAX_C<1.04932] yes=109,no=110,missing=110
						109:leaf=0.010604
						110:leaf=0.0117499
		6:[D_GROUPID_C<14.6258] yes=13,no=14,missing=14
			13:[C_D_U_KEYWORD_UID_MACRO_MEAN_COEC<0.04608] yes=27,no=28,missing=27
				27:[D_GROUPID_COEC<0.106216] yes=55,no=56,missing=56
					55:[CAT_REL<0.010209] yes=111,no=112,missing=112
						111:leaf=-0.00216334
						112:leaf=0.00338615
					56:[C_D_U_KEYWORD_CATEGORY_MICRO_MEAN_COEC<0.132019] yes=113,no=114,missing=114
						113:leaf=0.00580851
						114:leaf=0.0115257
				28:[CAT_REL<0.018104] yes=57,no=58,missing=58
					57:[C_D_U_KEYWORD_CATEGORY_MICRO_MEAN_COEC<0.139658] yes=115,no=116,missing=116
						115:leaf=0.0063171
						116:leaf=0.0119432
					58:[C_D_U_KEYWORD_UID_MACRO_MEAN_COEC<0.131084] yes=117,no=118,missing=118
						117:leaf=0.00953558
						118:leaf=0.0114802
			14:[C_D_U_KEYWORD_UID_MICRO_MAX_COEC<0.268509] yes=29,no=30,missing=29
				29:[C_D_U_TITLEMD5_CATEGORY_MICRO_MEAN_COEC<0.209089] yes=59,no=60,missing=60
					59:[M_D_U_KEYWORD_KEYWORD_MICRO_MAX_COEC<0.10375] yes=119,no=120,missing=119
						119:leaf=0.00859673
						120:leaf=0.0102412
					60:[C_D_U_GROUPID_CATEGORY_MICRO_MEAN_COEC<0.254483] yes=121,no=122,missing=122
						121:leaf=0.0107972
						122:leaf=0.0119023
				30:[C_D_U_TITLEMD5_CATEGORY_MICRO_MEAN_COEC<0.203384] yes=61,no=62,missing=62
					61:[C_D_U_CATEGORY_UID_MICRO_MAX_COEC<0.174186] yes=123,no=124,missing=124
						123:leaf=0.0105061
						124:leaf=0.0118178
					62:[C_D_U_CATEGORY_UID_MICRO_MEAN_COEC<0.200388] yes=125,no=126,missing=125
						125:leaf=0.0121097
						126:leaf=0.0128057
booster[52]:
0:[C_D_U_GROUPID_CATEGORY_MICRO_MEAN_COEC<0.095323] yes=1,no=2,missing=1
	1:[C_D_U_CATEGORY_UID_MACRO_MEAN_COEC<0.111352] yes=3,no=4,missing=3
		3:[D_KEYWORD_MACRO_MEAN_COEC<0.076246] yes=7,no=8,missing=8
			7:[C_D_U_GROUPID_CATEGORY_MICRO_MEAN_COEC<0.031564] yes=15,no=16,missing=15
				15:[C_D_U_KEYWORD_UID_MACRO_MEAN_COEC<0.018045] yes=31,no=32,missing=31
					31:[D_TITLEMD5_COEC<0.027875] yes=63,no=64,missing=63
						63:leaf=-0.00612291
						64:leaf=-0.0027526
					32:[C_D_U_KEYWORD_UID_MACRO_MEAN_COEC<0.067377] yes=65,no=66,missing=66
						65:leaf=-0.00123045
						66:leaf=0.00225999
				16:[CAT_REL<0.00102] yes=33,no=34,missing=34
					33:[C_D_U_KEYWORD_UID_MICRO_MAX_COEC<0.268934] yes=67,no=68,missing=67
						67:leaf=-0.00106946
						68:leaf=0.00241393
					34:[D_TITLEMD5_C<19.6996] yes=69,no=70,missing=69
						69:leaf=0.0014627
						70:leaf=0.00468265
			8:[D_TITLEMD5_COEC<0.153009] yes=17,no=18,missing=18
				17:[C_D_U_KEYWORD_UID_MICRO_MEAN_COEC<0.067671] yes=35,no=36,missing=35
					35:[D_CATEGORY_MEAN_C<25670.9] yes=71,no=72,missing=71
						71:leaf=0.00312743
						72:leaf=-0.000171041
					36:[D_TITLEMD5_COEC<0.083825] yes=73,no=74,missing=74
						73:leaf=0.00437734
						74:leaf=0.0070025
				18:[D_GROUPID_COEC<0.204178] yes=37,no=38,missing=37
					37:[C_D_U_GROUPID_AGE_COEC<0.177746] yes=75,no=76,missing=75
						75:leaf=0.00668491
						76:leaf=0.00882142
					38:[D_TITLEMD5_C<1.28556] yes=77,no=78,missing=77
						77:leaf=0.00296089
						78:leaf=0.010413
		4:[C_D_U_KEYWORD_UID_MACRO_MEAN_COEC<0.085519] yes=9,no=10,missing=9
			9:[D_TITLEMD5_COEC<0.027875] yes=19,no=20,missing=19
				19:[CAT_REL<0.016614] yes=39,no=40,missing=40
					39:[D_KEYWORD_MICRO_MEAN_COEC<0.152309] yes=79,no=80,missing=80
						79:leaf=-0.00230894
						80:leaf=0.0101314
					40:[C_D_U_PUBLISHER_UID_COEC<0.084439] yes=81,no=82,missing=81
						81:leaf=0.00143235
						82:leaf=0.00526218
				20:[D_TITLEMD5_C<41.8784] yes=41,no=42,missing=42
					41:[CAT_REL<0.005006] yes=83,no=84,missing=84
						83:leaf=0.00284629
						84:leaf=0.00571122
					42:[D_TITLEMD5_COEC<0.165493] yes=85,no=86,missing=86
						85:leaf=0.00707516
						86:leaf=0.0110447
			10:[C_D_U_CATEGORY_UID_MACRO_MEAN_COEC<0.282521] yes=21,no=22,missing=22
				21:[D_TITLEMD5_COEC<0.057337] yes=43,no=44,missing=44
					43:[M_D_U_KEYWORD_KEYWORD_MICRO_MAX_COEC<0.068884] yes=87,no=88,missing=87
						87:leaf=0.00384139
						88:leaf=0.00678164
					44:[CAT_REL<0.005006] yes=89,no=90,missing=90
						89:leaf=0.00699006
						90:leaf=0.00878394
				22:[C_D_U_CATEGORY_UID_MEAN_C<1.19812] yes=45,no=46,missing=46
					45:[D_TITLEMD5_COEC<0.0475] yes=91,no=92,missing=91
						91:leaf=0.00572399
						92:leaf=0.00868986
					46:[C_D_U_CATEGORY_UID_MACRO_MEAN_COEC<0.510485] yes=93,no=94,missing=94
						93:leaf=0.00954248
						94:leaf=0.0110644
	2:[C_D_U_TITLEMD5_CATEGORY_MICRO_MEAN_COEC<0.156468] yes=5,no=6,missing=5
		5:[C_D_U_KEYWORD_UID_MICRO_MEAN_COEC<0.085911] yes=11,no=12,missing=11
			11:[D_TITLEMD5_C<73.1897] yes=23,no=24,missing=23
				23:[CAT_REL<0.00102] yes=47,no=48,missing=48
					47:[D_TITLEMD5_COEC<0.08838] yes=95,no=96,missing=95
						95:leaf=-0.000228743
						96:leaf=0.00352678
					48:[D_TITLEMD5_C<4.95512] yes=97,no=98,missing=97
						97:leaf=0.00195772
						98:leaf=0.0059237
				24:[CAT_REL<0.00102] yes=49,no=50,missing=50
					49:[D_TITLEMD5_C<518.192] yes=99,no=100,missing=100
						99:leaf=0.00512735
						100:leaf=0.00735219
					50:[U_CAT_LEN<11] yes=101,no=102,missing=102
						101:leaf=0.00652685
						102:leaf=0.00875055
			12:[C_D_U_CATEGORY_UID_MICRO_MEAN_COEC<0.237636] yes=25,no=26,missing=25
				25:[CAT_REL<0.00102] yes=51,no=52,missing=52
					51:[D_TITLEMD5_C<47.0469] yes=103,no=104,missing=103
						103:leaf=0.00484309
						104:leaf=0.00832199
					52:[D_TITLEMD5_C<60.5582] yes=105,no=106,missing=105
						105:leaf=0.00843453
						106:leaf=0.0101295
				26:[C_D_U_TITLEMD5_CATEGORY_MICRO_MEAN_COEC<0.119707] yes=53,no=54,missing=53
					53:[CAT_REL<0.00102] yes=107,no=108,missing=108
						107:leaf=0.00907162
						108:leaf=0.010479
					54:[C_D_U_KEYWORD_UID_MACRO_MEAN_COEC<0.114519] yes=109,no=110,missing=110
						109:leaf=0.0106236
						110:leaf=0.0115225
		6:[D_TITLEMD5_C<4.95512] yes=13,no=14,missing=14
			13:[C_D_U_KEYWORD_UID_MACRO_MEAN_COEC<0.043712] yes=27,no=28,missing=27
				27:[C_D_U_KEYWORD_CATEGORY_MICRO_MEAN_COEC<0.104807] yes=55,no=56,missing=56
					55:[C_D_U_CATEGORY_UID_MACRO_MAX_COEC<0.091542] yes=111,no=112,missing=111
						111:leaf=7.493e-05
						112:leaf=0.0056218
					56:[D_KEYWORD_MACRO_MEAN_COEC<0.134217] yes=113,no=114,missing=114
						113:leaf=0.00527696
						114:leaf=0.0111267
				28:[C_D_U_KEYWORD_UID_MACRO_MEAN_COEC<0.114519] yes=57,no=58,missing=58
					57:[D_TITLEMD5_COEC<0.079466] yes=115,no=116,missing=116
						115:leaf=0.00413776
						116:leaf=0.00833085
					58:[M_D_U_KEYWORD_KEYWORD_MICRO_MAX_COEC<0.094802] yes=117,no=118,missing=117
						117:leaf=0.00841688
						118:leaf=0.0108617
			14:[C_D_U_KEYWORD_UID_MICRO_MEAN_COEC<0.085911] yes=29,no=30,missing=29
				29:[D_TITLEMD5_C<157.796] yes=59,no=60,missing=60
					59:[CAT_REL<0.00102] yes=119,no=120,missing=120
						119:leaf=0.00611596
						120:leaf=0.00920566
					60:[C_D_U_TITLEMD5_CATEGORY_MICRO_MEAN_COEC<0.215065] yes=121,no=122,missing=122
						121:leaf=0.0100009
						122:leaf=0.0115881
				30:[C_D_U_TITLEMD5_CATEGORY_MICRO_MEAN_COEC<0.209042] yes=61,no=62,missing=62
					61:[C_D_U_CATEGORY_UID_MICRO_MAX_COEC<0.252555] yes=123,no=124,missing=123
						123:leaf=0.0109535
						124:leaf=0.0120772
					62:[C_D_U_TITLEMD5_CATEGORY_MEAN_C<0.2495] yes=125,no=126,missing=126
						125:leaf=0.0113399
						126:leaf=0.0125287
booster[53]:
0:[C_D_U_TITLEMD5_CATEGORY_MICRO_MEAN_COEC<0.099743] yes=1,no=2,missing=1
	1:[C_D_U_KEYWORD_UID_MICRO_MEAN_COEC<0.094184] yes=3,no=4,missing=3
		3:[D_KEYWORD_MACRO_MEAN_COEC<0.108594] yes=7,no=8,missing=8
			7:[D_TITLEMD5_C<26.681] yes=15,no=16,missing=15
				15:[CAT_REL<0.000973] yes=31,no=32,missing=32
					31:[D_KEYWORD_MACRO_MEAN_COEC<0.06025] yes=63,no=64,missing=64
						63:leaf=-0.00601534
						64:leaf=-0.00236217
					32:[D_TITLEMD5_COEC<0.02832] yes=65,no=66,missing=66
						65:leaf=-0.0027871
						66:leaf=0.00133647
				16:[CAT_REL<0.000973] yes=33,no=34,missing=34
					33:[D_TITLEMD5_COEC<0.109088] yes=67,no=68,missing=68
						67:leaf=-0.000108113
						68:leaf=0.00404882
					34:[C_D_U_GROUPID_CATEGORY_MICRO_MEAN_COEC<0.06472] yes=69,no=70,missing=69
						69:leaf=0.00267082
						70:leaf=0.005661
			8:[D_TITLEMD5_COEC<0.203881] yes=17,no=18,missing=17
				17:[D_TITLEMD5_COEC<0.153469] yes=35,no=36,missing=36
					35:[D_KEYWORD_MAX_C<30.02] yes=71,no=72,missing=72
						71:leaf=0.00963714
						72:leaf=0.00354784
					36:[C_D_U_GROUPID_AGE_COEC<0.178214] yes=73,no=74,missing=73
						73:leaf=0.00677943
						74:leaf=0.00879461
				18:[C_D_U_KEYWORD_CATEGORY_MICRO_MEAN_COEC<0.109187] yes=37,no=38,missing=38
					37:[D_TITLEMD5_C<1.16693] yes=75,no=76,missing=76
						75:leaf=-0.000937049
						76:leaf=0.00622086
					38:[D_CATEGORY_MAX_C<36164.8] yes=77,no=78,missing=77
						77:leaf=0.0108451
						78:leaf=0.00905639
		4:[C_D_U_CATEGORY_UID_MACRO_MEAN_COEC<0.175176] yes=9,no=10,missing=9
			9:[D_GROUPID_COEC<0.044173] yes=19,no=20,missing=20
				19:[CAT_REL<0.000973] yes=39,no=40,missing=40
					39:[C_D_U_KEYWORD_UID_MACRO_MEAN_COEC<0.085033] yes=79,no=80,missing=80
						79:leaf=-0.00235813
						80:leaf=0.00103078
					40:[KW_REL<0.001756] yes=81,no=82,missing=82
						81:leaf=0.00155474
						82:leaf=0.00506566
				20:[CAT_REL<0.003256] yes=41,no=42,missing=42
					41:[D_TITLEMD5_COEC<0.106717] yes=83,no=84,missing=83
						83:leaf=0.00356106
						84:leaf=0.00810227
					42:[KW_REL<0.001271] yes=85,no=86,missing=86
						85:leaf=0.0051076
						86:leaf=0.00758812
			10:[D_GROUPID_COEC<0.036364] yes=21,no=22,missing=22
				21:[U_CATEGORY_MICRO_MEAN_COEC<0.075624] yes=43,no=44,missing=43
					43:[D_PUBLISHER_COEC<0.039173] yes=87,no=88,missing=87
						87:leaf=-0.00302999
						88:leaf=0.00204899
					44:[C_D_U_KEYWORD_UID_MACRO_MEAN_COEC<0.164906] yes=89,no=90,missing=90
						89:leaf=0.005352
						90:leaf=0.00881881
				22:[C_D_U_KEYWORD_UID_MACRO_MEAN_COEC<0.136019] yes=45,no=46,missing=46
					45:[D_TITLEMD5_COEC<0.086096] yes=91,no=92,missing=91
						91:leaf=0.00727012
						92:leaf=0.00906244
					46:[C_D_U_CATEGORY_UID_MEAN_C<1.18662] yes=93,no=94,missing=94
						93:leaf=0.0084589
						94:leaf=0.00984418
	2:[C_D_U_GROUPID_CATEGORY_MICRO_MEAN_COEC<0.154769] yes=5,no=6,missing=5
		5:[C_D_U_CATEGORY_UID_MICRO_MEAN_COEC<0.11864] yes=11,no=12,missing=11
			11:[D_TITLEMD5_C<30.7197] yes=23,no=24,missing=24
				23:[KW_REL<0.001564] yes=47,no=48,missing=48
					47:[D_TITLEMD5_COEC<0.054648] yes=95,no=96,missing=96
						95:leaf=-0.00338599
						96:leaf=0.00206372
					48:[CAT_REL<0.018422] yes=97,no=98,missing=98
						97:leaf=0.00297658
						98:leaf=0.00656739
				24:[KW_REL<0.001096] yes=49,no=50,missing=50
					49:[D_CATEGORY_MEAN_C<28330.3] yes=99,no=100,missing=99
						99:leaf=0.00634917
						100:leaf=0.00265262
					50:[C_D_U_KEYWORD_UID_MICRO_MEAN_COEC<0.137835] yes=101,no=102,missing=101
						101:leaf=0.00764874
						102:leaf=0.00978495
			12:[C_D_U_KEYWORD_UID_MICRO_MEAN_COEC<0.188044] yes=25,no=26,missing=25
				25:[D_TITLEMD5_C<20.2006] yes=51,no=52,missing=52
					51:[KW_REL<0.00139] yes=103,no=104,missing=104
						103:leaf=0.00543225
						104:leaf=0.00805383
					52:[C_D_U_TITLEMD5_CATEGORY_MICRO_MEAN_COEC<0.121232] yes=105,no=106,missing=106
						105:leaf=0.00867868
						106:leaf=0.0099575
				26:[KW_REL<0.001913] yes=53,no=54,missing=54
					53:[C_D_U_CATEGORY_UID_MICRO_MEAN_COEC<0.303671] yes=107,no=108,missing=108
						107:leaf=0.00922447
						108:leaf=0.0105686
					54:[C_D_U_CATEGORY_UID_MICRO_MAX_COEC<0.341017] yes=109,no=110,missing=110
						109:leaf=0.010748
						110:leaf=0.0115917
		6:[D_GROUPID_C<5.98007] yes=13,no=14,missing=14
			13:[C_D_U_KEYWORD_UID_MACRO_MEAN_COEC<0.038572] yes=27,no=28,missing=27
				27:[C_D_U_KEYWORD_CATEGORY_MICRO_MEAN_COEC<0.096366] yes=55,no=56,missing=56
					55:[C_D_U_CATEGORY_UID_MACRO_MAX_COEC<0.074231] yes=111,no=112,missing=111
						111:leaf=-0.000573235
						112:leaf=0.00500396
					56:[C_D_U_KEYWORD_CATEGORY_MICRO_MEAN_COEC<0.174633] yes=113,no=114,missing=114
						113:leaf=0.00481683
						114:leaf=0.0115254
				28:[C_D_U_CATEGORY_UID_MACRO_MEAN_COEC<0.112053] yes=57,no=58,missing=57
					57:[D_GROUPID_COEC<0.105568] yes=115,no=116,missing=116
						115:leaf=0.0042387
						116:leaf=0.00815616
					58:[C_D_U_KEYWORD_UID_MACRO_MEAN_COEC<0.122682] yes=117,no=118,missing=118
						117:leaf=0.00870698
						118:leaf=0.0108521
			14:[C_D_U_KEYWORD_UID_MICRO_MAX_COEC<0.272491] yes=29,no=30,missing=29
				29:[C_D_U_GROUPID_CATEGORY_MICRO_MEAN_COEC<0.216004] yes=59,no=60,missing=60
					59:[D_TITLEMD5_C<72.9929] yes=119,no=120,missing=120
						119:leaf=0.0068826
						120:leaf=0.00969954
					60:[C_D_U_KEYWORD_CATEGORY_MICRO_MEAN_COEC<0.102783] yes=121,no=122,missing=122
						121:leaf=0.00888159
						122:leaf=0.0113704
				30:[C_D_U_TITLEMD5_CATEGORY_MICRO_MEAN_COEC<0.204261] yes=61,no=62,missing=62
					61:[C_D_U_CATEGORY_UID_MICRO_MAX_COEC<0.202919] yes=123,no=124,missing=124
						123:leaf=0.0104537
						124:leaf=0.0117551
					62:[C_D_U_TITLEMD5_CATEGORY_MEAN_C<0.276326] yes=125,no=126,missing=126
						125:leaf=0.0111552
						126:leaf=0.0123883
booster[54]:
0:[C_D_U_GROUPID_CATEGORY_MICRO_MEAN_COEC<0.097396] yes=1,no=2,missing=1
	1:[C_D_U_CATEGORY_UID_MACRO_MEAN_COEC<0.088994] yes=3,no=4,missing=3
		3:[D_KEYWORD_MACRO_MEAN_COEC<0.072063] yes=7,no=8,missing=8
			7:[C_D_U_GROUPID_CATEGORY_MICRO_MEAN_COEC<0.03124] yes=15,no=16,missing=15
				15:[C_D_U_KEYWORD_UID_MACRO_MEAN_COEC<0.018051] yes=31,no=32,missing=31
					31:[D_GROUPID_COEC<0.025901] yes=63,no=64,missing=63
						63:leaf=-0.00632553
						64:leaf=-0.0030827
					32:[C_D_U_KEYWORD_UID_MACRO_MEAN_COEC<0.079668] yes=65,no=66,missing=66
						65:leaf=-0.00137873
						66:leaf=0.0021523
				16:[CAT_REL<0.000852] yes=33,no=34,missing=34
					33:[C_D_U_KEYWORD_UID_MICRO_MAX_COEC<0.321485] yes=67,no=68,missing=67
						67:leaf=-0.00125324
						68:leaf=0.00225156
					34:[D_TITLEMD5_C<20.0503] yes=69,no=70,missing=69
						69:leaf=0.00102285
						70:leaf=0.00440986
			8:[D_TITLEMD5_COEC<0.153017] yes=17,no=18,missing=18
				17:[C_D_U_KEYWORD_UID_MICRO_MEAN_COEC<0.060747] yes=35,no=36,missing=35
					35:[D_TITLEMD5_C<377.557] yes=71,no=72,missing=72
						71:leaf=0.00109238
						72:leaf=0.00401271
					36:[D_TITLEMD5_COEC<0.07627] yes=73,no=74,missing=74
						73:leaf=0.00353567
						74:leaf=0.00643558
				18:[D_GROUPID_COEC<0.219864] yes=37,no=38,missing=37
					37:[D_PUBLISHER_COEC<0.070617] yes=75,no=76,missing=76
						75:leaf=0.00259382
						76:leaf=0.00718808
					38:[D_PUBLISHER_COEC<0.077695] yes=77,no=78,missing=77
						77:leaf=0.00131249
						78:leaf=0.0104554
		4:[C_D_U_KEYWORD_UID_MICRO_MEAN_COEC<0.15179] yes=9,no=10,missing=9
			9:[D_GROUPID_COEC<0.031552] yes=19,no=20,missing=19
				19:[KW_REL<0.001264] yes=39,no=40,missing=40
					39:[C_D_U_PUBLISHER_UID_COEC<0.080806] yes=79,no=80,missing=79
						79:leaf=-0.00166669
						80:leaf=0.00281735
					40:[C_D_U_PUBLISHER_UID_COEC<0.065979] yes=81,no=82,missing=81
						81:leaf=0.00210813
						82:leaf=0.00522493
				20:[D_TITLEMD5_C<143.87] yes=41,no=42,missing=41
					41:[C_D_U_TITLEMD5_CATEGORY_MICRO_MEAN_COEC<0.061643] yes=83,no=84,missing=83
						83:leaf=0.00380155
						84:leaf=0.00614152
					42:[D_GROUPID_COEC<0.18095] yes=85,no=86,missing=86
						85:leaf=0.00742574
						86:leaf=0.0113056
			10:[C_D_U_GROUPID_CATEGORY_MICRO_MEAN_COEC<0.052204] yes=21,no=22,missing=22
				21:[C_D_U_KEYWORD_UID_MEAN_C<0.020336] yes=43,no=44,missing=44
					43:[D_TITLEMD5_COEC<0.019031] yes=87,no=88,missing=88
						87:leaf=0.00182729
						88:leaf=0.00540286
					44:[C_D_U_KEYWORD_UID_MACRO_MEAN_COEC<0.197354] yes=89,no=90,missing=90
						89:leaf=0.0065577
						90:leaf=0.00901807
				22:[KW_REL<0.001421] yes=45,no=46,missing=46
					45:[D_TITLEMD5_COEC<0.106057] yes=91,no=92,missing=91
						91:leaf=0.00694203
						92:leaf=0.009829
					46:[C_D_U_CATEGORY_UID_MACRO_MEAN_COEC<0.283973] yes=93,no=94,missing=94
						93:leaf=0.00866634
						94:leaf=0.0100896
	2:[C_D_U_TITLEMD5_CATEGORY_MICRO_MEAN_COEC<0.157426] yes=5,no=6,missing=5
		5:[C_D_U_KEYWORD_UID_MICRO_MEAN_COEC<0.064416] yes=11,no=12,missing=11
			11:[D_TITLEMD5_C<92.59] yes=23,no=24,missing=23
				23:[KW_REL<0.001799] yes=47,no=48,missing=48
					47:[C_D_U_CATEGORY_UID_MACRO_MEAN_COEC<0.10761] yes=95,no=96,missing=95
						95:leaf=0.00179211
						96:leaf=0.00619306
					48:[C_D_U_CATEGORY_UID_MICRO_MAX_COEC<0.111144] yes=97,no=98,missing=98
						97:leaf=0.00467985
						98:leaf=0.00724393
				24:[CAT_REL<0.000852] yes=49,no=50,missing=50
					49:[D_TITLEMD5_C<563.266] yes=99,no=100,missing=100
						99:leaf=0.00505382
						100:leaf=0.00723162
					50:[U_CAT_LEN<12] yes=101,no=102,missing=102
						101:leaf=0.00672936
						102:leaf=0.00877187
			12:[C_D_U_CATEGORY_UID_MACRO_MEAN_COEC<0.170094] yes=25,no=26,missing=25
				25:[D_TITLEMD5_C<71.9399] yes=51,no=52,missing=52
					51:[CAT_REL<0.006887] yes=103,no=104,missing=104
						103:leaf=0.00506056
						104:leaf=0.00791205
					52:[CAT_REL<0.000852] yes=105,no=106,missing=106
						105:leaf=0.00816239
						106:leaf=0.0098809
				26:[C_D_U_CATEGORY_UID_MICRO_MEAN_COEC<0.308371] yes=53,no=54,missing=54
					53:[KW_REL<0.001581] yes=107,no=108,missing=108
						107:leaf=0.00890119
						108:leaf=0.0101874
					54:[C_D_U_CATEGORY_UID_MAX_C<1.00005] yes=109,no=110,missing=110
						109:leaf=0.0101964
						110:leaf=0.0113098
		6:[D_TITLEMD5_C<10.8808] yes=13,no=14,missing=14
			13:[C_D_U_KEYWORD_UID_MICRO_MEAN_COEC<0.071251] yes=27,no=28,missing=27
				27:[D_TITLEMD5_COEC<0.097653] yes=55,no=56,missing=56
					55:[KW_REL<0.00165] yes=111,no=112,missing=112
						111:leaf=-0.00241847
						112:leaf=0.00292826
					56:[C_D_U_KEYWORD_CATEGORY_MICRO_MEAN_COEC<0.121569] yes=113,no=114,missing=114
						113:leaf=0.00455151
						114:leaf=0.0102276
				28:[C_D_U_KEYWORD_UID_MACRO_MEAN_COEC<0.100705] yes=57,no=58,missing=58
					57:[D_TITLEMD5_COEC<0.079428] yes=115,no=116,missing=116
						115:leaf=0.00406853
						116:leaf=0.00853765
					58:[M_D_U_KEYWORD_KEYWORD_MICRO_MAX_COEC<0.091717] yes=117,no=118,missing=117
						117:leaf=0.00894839
						118:leaf=0.0110585
			14:[C_D_U_KEYWORD_UID_MICRO_MEAN_COEC<0.08165] yes=29,no=30,missing=29
				29:[C_D_U_GROUPID_CATEGORY_MICRO_MEAN_COEC<0.215695] yes=59,no=60,missing=60
					59:[D_TITLEMD5_C<112.057] yes=119,no=120,missing=120
						119:leaf=0.00757454
						120:leaf=0.0098421
					60:[C_D_U_KEYWORD_CATEGORY_MICRO_MEAN_COEC<0.099309] yes=121,no=122,missing=122
						121:leaf=0.00913085
						122:leaf=0.0113929
				30:[C_D_U_TITLEMD5_CATEGORY_MICRO_MEAN_COEC<0.209493] yes=61,no=62,missing=62
					61:[C_D_U_CATEGORY_UID_MICRO_MAX_COEC<0.254334] yes=123,no=124,missing=123
						123:leaf=0.0108888
						124:leaf=0.0119856
					62:[C_D_U_KEYWORD_UID_MACRO_MEAN_COEC<0.470773] yes=125,no=126,missing=126
						125:leaf=0.0123973
						126:leaf=0.0106858
booster[55]:
0:[C_D_U_TITLEMD5_CATEGORY_MICRO_MEAN_COEC<0.101699] yes=1,no=2,missing=1
	1:[C_D_U_KEYWORD_UID_MACRO_MEAN_COEC<0.047958] yes=3,no=4,missing=3
		3:[D_KEYWORD_MACRO_MEAN_COEC<0.077506] yes=7,no=8,missing=8
			7:[C_D_U_GROUPID_CATEGORY_MICRO_MEAN_COEC<0.031801] yes=15,no=16,missing=15
				15:[D_TITLEMD5_COEC<0.028679] yes=31,no=32,missing=32
					31:[U_CATEGORY_MICRO_MEAN_COEC<0.078276] yes=63,no=64,missing=63
						63:leaf=-0.00688584
						64:leaf=-0.00309883
					32:[C_D_U_CATEGORY_UID_MACRO_MAX_COEC<0.055639] yes=65,no=66,missing=65
						65:leaf=-0.00248977
						66:leaf=0.00169392
				16:[CAT_REL<0.001081] yes=33,no=34,missing=34
					33:[C_D_U_TITLEMD5_CATEGORY_MEAN_C<0.219684] yes=67,no=68,missing=67
						67:leaf=-0.00180082
						68:leaf=0.00146185
					34:[D_TITLEMD5_C<20.3111] yes=69,no=70,missing=69
						69:leaf=0.00113365
						70:leaf=0.00470451
			8:[D_TITLEMD5_COEC<0.152232] yes=17,no=18,missing=18
				17:[C_D_U_CATEGORY_UID_MICRO_MEAN_COEC<0.198037] yes=35,no=36,missing=35
					35:[D_CATEGORY_MEAN_C<25253.1] yes=71,no=72,missing=71
						71:leaf=0.00351731
						72:leaf=0.000350968
					36:[D_TITLEMD5_COEC<0.103499] yes=73,no=74,missing=74
						73:leaf=0.00586214
						74:leaf=0.00774032
				18:[D_TITLEMD5_COEC<0.211079] yes=37,no=38,missing=37
					37:[C_D_U_GROUPID_AGE_COEC<0.1743] yes=75,no=76,missing=75
						75:leaf=0.00653839
						76:leaf=0.00863368
					38:[D_PUBLISHER_COEC<0.076835] yes=77,no=78,missing=78
						77:leaf=0.00192894
						78:leaf=0.0102416
		4:[C_D_U_CATEGORY_UID_MACRO_MEAN_COEC<0.176278] yes=9,no=10,missing=9
			9:[C_D_U_GROUPID_CATEGORY_MICRO_MEAN_COEC<0.061014] yes=19,no=20,missing=20
				19:[CAT_REL<0.002921] yes=39,no=40,missing=40
					39:[D_GROUPID_COEC<0.031986] yes=79,no=80,missing=80
						79:leaf=-0.00176573
						80:leaf=0.00180876
					40:[C_D_U_KEYWORD_UID_MACRO_MEAN_COEC<0.100054] yes=81,no=82,missing=82
						81:leaf=0.00280946
						82:leaf=0.00565255
				20:[C_D_U_KEYWORD_UID_MICRO_MEAN_COEC<0.138679] yes=41,no=42,missing=42
					41:[CAT_REL<0.004906] yes=83,no=84,missing=84
						83:leaf=0.00358599
						84:leaf=0.00582551
					42:[M_D_U_KEYWORD_KEYWORD_MICRO_MAX_COEC<0.091005] yes=85,no=86,missing=85
						85:leaf=0.00604746
						86:leaf=0.00808545
			10:[C_D_U_GROUPID_CATEGORY_MICRO_MEAN_COEC<0.052581] yes=21,no=22,missing=22
				21:[C_D_U_KEYWORD_UID_MACRO_MEAN_COEC<0.172896] yes=43,no=44,missing=44
					43:[C_D_U_PUBLISHER_UID_C<0.189348] yes=87,no=88,missing=87
						87:leaf=0.00490625
						88:leaf=0.00709351
					44:[C_D_U_CATEGORY_UID_MAX_C<1.02308] yes=89,no=90,missing=90
						89:leaf=0.00605373
						90:leaf=0.00912662
				22:[C_D_U_KEYWORD_UID_MICRO_MEAN_COEC<0.208558] yes=45,no=46,missing=46
					45:[CAT_REL<0.001081] yes=91,no=92,missing=92
						91:leaf=0.00662518
						92:leaf=0.00829166
					46:[C_D_U_CATEGORY_UID_MAX_C<1.02308] yes=93,no=94,missing=94
						93:leaf=0.00828244
						94:leaf=0.00986469
	2:[C_D_U_GROUPID_CATEGORY_MICRO_MEAN_COEC<0.153218] yes=5,no=6,missing=5
		5:[C_D_U_CATEGORY_UID_MICRO_MEAN_COEC<0.126773] yes=11,no=12,missing=11
			11:[D_TITLEMD5_C<26.2694] yes=23,no=24,missing=24
				23:[KW_REL<0.00156] yes=47,no=48,missing=48
					47:[C_D_U_KEYWORD_CATEGORY_MICRO_MEAN_COEC<0.07541] yes=95,no=96,missing=95
						95:leaf=-0.00139546
						96:leaf=0.00244206
					48:[CAT_REL<0.001081] yes=97,no=98,missing=98
						97:leaf=0.00211903
						98:leaf=0.00630315
				24:[KW_REL<0.00106] yes=49,no=50,missing=50
					49:[D_CATEGORY_MEAN_C<28004.6] yes=99,no=100,missing=99
						99:leaf=0.00622593
						100:leaf=0.00260105
					50:[C_D_U_KEYWORD_UID_MICRO_MEAN_COEC<0.127064] yes=101,no=102,missing=101
						101:leaf=0.00749604
						102:leaf=0.0095876
			12:[C_D_U_KEYWORD_UID_MICRO_MEAN_COEC<0.190624] yes=25,no=26,missing=25
				25:[D_TITLEMD5_C<17.6226] yes=51,no=52,missing=52
					51:[D_TITLEMD5_COEC<0.086485] yes=103,no=104,missing=104
						103:leaf=0.00592508
						104:leaf=0.00841411
					52:[C_D_U_TITLEMD5_CATEGORY_MICRO_MEAN_COEC<0.121881] yes=105,no=106,missing=106
						105:leaf=0.00867673
						106:leaf=0.00987932
				26:[KW_REL<0.001676] yes=53,no=54,missing=54
					53:[C_D_U_CATEGORY_UID_MICRO_MEAN_COEC<0.311916] yes=107,no=108,missing=108
						107:leaf=0.0090436
						108:leaf=0.010379
					54:[C_D_U_CATEGORY_UID_MICRO_MEAN_COEC<0.338372] yes=109,no=110,missing=110
						109:leaf=0.0106019
						110:leaf=0.0114558
		6:[D_GROUPID_C<7.93525] yes=13,no=14,missing=14
			13:[C_D_U_CATEGORY_UID_MACRO_MEAN_COEC<0.085046] yes=27,no=28,missing=27
				27:[C_D_U_KEYWORD_CATEGORY_MICRO_MEAN_COEC<0.10554] yes=55,no=56,missing=56
					55:[KW_REL<0.001643] yes=111,no=112,missing=112
						111:leaf=-0.000632464
						112:leaf=0.00455113
					56:[C_D_U_KEYWORD_CATEGORY_MICRO_MEAN_COEC<0.17265] yes=113,no=114,missing=114
						113:leaf=0.00593821
						114:leaf=0.0115001
				28:[C_D_U_KEYWORD_UID_MACRO_MEAN_COEC<0.075204] yes=57,no=58,missing=57
					57:[D_GROUPID_COEC<0.078473] yes=115,no=116,missing=116
						115:leaf=0.00373101
						116:leaf=0.00811843
					58:[M_D_U_KEYWORD_KEYWORD_MICRO_MAX_COEC<0.117093] yes=117,no=118,missing=117
						117:leaf=0.00932087
						118:leaf=0.0110366
			14:[C_D_U_KEYWORD_UID_MICRO_MAX_COEC<0.286044] yes=29,no=30,missing=29
				29:[C_D_U_GROUPID_CATEGORY_MICRO_MEAN_COEC<0.208602] yes=59,no=60,missing=60
					59:[D_TITLEMD5_C<95.7932] yes=119,no=120,missing=120
						119:leaf=0.00710051
						120:leaf=0.00951494
					60:[C_D_U_KEYWORD_CATEGORY_MICRO_MEAN_COEC<0.101408] yes=121,no=122,missing=122
						121:leaf=0.00880419
						122:leaf=0.0111365
				30:[C_D_U_TITLEMD5_CATEGORY_MICRO_MEAN_COEC<0.208325] yes=61,no=62,missing=62
					61:[C_D_U_CATEGORY_UID_MICRO_MAX_COEC<0.194747] yes=123,no=124,missing=124
						123:leaf=0.0103417
						124:leaf=0.0116188
					62:[C_D_U_CATEGORY_UID_MICRO_MEAN_COEC<0.203017] yes=125,no=126,missing=125
						125:leaf=0.0118332
						126:leaf=0.0125481
booster[56]:
0:[C_D_U_GROUPID_CATEGORY_MICRO_MEAN_COEC<0.097644] yes=1,no=2,missing=1
	1:[C_D_U_CATEGORY_UID_MACRO_MEAN_COEC<0.087485] yes=3,no=4,missing=3
		3:[D_KEYWORD_MACRO_MEAN_COEC<0.072374] yes=7,no=8,missing=8
			7:[C_D_U_TITLEMD5_CATEGORY_MICRO_MEAN_COEC<0.034444] yes=15,no=16,missing=15
				15:[C_D_U_KEYWORD_UID_MICRO_MEAN_COEC<0.048504] yes=31,no=32,missing=31
					31:[D_GROUPID_COEC<0.026203] yes=63,no=64,missing=63
						63:leaf=-0.00609766
						64:leaf=-0.00292698
					32:[KW_REL<0.001826] yes=65,no=66,missing=66
						65:leaf=-0.001349
						66:leaf=0.00207204
				16:[CAT_REL<0.000768] yes=33,no=34,missing=34
					33:[D_TITLEMD5_C<26.6084] yes=67,no=68,missing=68
						67:leaf=-0.00247621
						68:leaf=0.000998703
					34:[D_TITLEMD5_C<23.7817] yes=69,no=70,missing=70
						69:leaf=0.00123462
						70:leaf=0.00449865
			8:[D_TITLEMD5_COEC<0.151163] yes=17,no=18,missing=18
				17:[C_D_U_KEYWORD_UID_MICRO_MEAN_COEC<0.059414] yes=35,no=36,missing=35
					35:[D_TITLEMD5_C<187.566] yes=71,no=72,missing=72
						71:leaf=0.000597905
						72:leaf=0.00325136
					36:[D_TITLEMD5_COEC<0.079274] yes=73,no=74,missing=74
						73:leaf=0.00369218
						74:leaf=0.00644808
				18:[D_GROUPID_COEC<0.203571] yes=37,no=38,missing=37
					37:[D_PUBLISHER_COEC<0.070942] yes=75,no=76,missing=76
						75:leaf=0.00271866
						76:leaf=0.00685923
					38:[D_PUBLISHER_COEC<0.07709] yes=77,no=78,missing=77
						77:leaf=0.00148516
						78:leaf=0.0100708
		4:[C_D_U_KEYWORD_UID_MICRO_MEAN_COEC<0.152432] yes=9,no=10,missing=9
			9:[D_TITLEMD5_C<20.5447] yes=19,no=20,missing=19
				19:[KW_REL<0.001188] yes=39,no=40,missing=40
					39:[D_GROUPID_COEC<0.040107] yes=79,no=80,missing=79
						79:leaf=-0.00100564
						80:leaf=0.00275647
					40:[D_TITLEMD5_COEC<0.051405] yes=81,no=82,missing=82
						81:leaf=0.00278825
						82:leaf=0.00579481
				20:[D_TITLEMD5_C<204.107] yes=41,no=42,missing=42
					41:[CAT_REL<0.015389] yes=83,no=84,missing=84
						83:leaf=0.00445886
						84:leaf=0.006857
					42:[D_TITLEMD5_COEC<0.183632] yes=85,no=86,missing=86
						85:leaf=0.00759133
						86:leaf=0.011191
			10:[C_D_U_GROUPID_CATEGORY_MICRO_MEAN_COEC<0.047525] yes=21,no=22,missing=22
				21:[C_D_U_KEYWORD_UID_MACRO_MEAN_COEC<0.110271] yes=43,no=44,missing=44
					43:[IMAGE_COUNT<0.999999] yes=87,no=88,missing=88
						87:leaf=-4.57698e-05
						88:leaf=0.00475732
					44:[C_D_U_CATEGORY_UID_MEAN_C<3.82748] yes=89,no=90,missing=90
						89:leaf=0.00637181
						90:leaf=0.00896342
				22:[KW_REL<0.001388] yes=45,no=46,missing=46
					45:[D_TITLEMD5_COEC<0.106352] yes=91,no=92,missing=91
						91:leaf=0.00679458
						92:leaf=0.00970342
					46:[C_D_U_CATEGORY_UID_MACRO_MEAN_COEC<0.283865] yes=93,no=94,missing=94
						93:leaf=0.008473
						94:leaf=0.00990991
	2:[C_D_U_TITLEMD5_CATEGORY_MICRO_MEAN_COEC<0.155982] yes=5,no=6,missing=5
		5:[C_D_U_KEYWORD_UID_MICRO_MEAN_COEC<0.117523] yes=11,no=12,missing=11
			11:[D_TITLEMD5_C<37.442] yes=23,no=24,missing=23
				23:[C_D_U_CATEGORY_UID_MACRO_MEAN_COEC<0.074298] yes=47,no=48,missing=47
					47:[CAT_REL<0.0192] yes=95,no=96,missing=96
						95:leaf=0.000278939
						96:leaf=0.00407581
					48:[D_TITLEMD5_COEC<0.053937] yes=97,no=98,missing=98
						97:leaf=0.00359647
						98:leaf=0.0067621
				24:[CAT_REL<0.000768] yes=49,no=50,missing=50
					49:[D_TITLEMD5_C<350.721] yes=99,no=100,missing=100
						99:leaf=0.00467673
						100:leaf=0.0069485
					50:[U_CAT_LEN<11] yes=101,no=102,missing=102
						101:leaf=0.00626572
						102:leaf=0.00847963
			12:[C_D_U_CATEGORY_UID_MICRO_MEAN_COEC<0.229066] yes=25,no=26,missing=25
				25:[M_D_U_KEYWORD_KEYWORD_MICRO_MAX_COEC<0.101496] yes=51,no=52,missing=51
					51:[D_TITLEMD5_C<48.5646] yes=103,no=104,missing=103
						103:leaf=0.00632018
						104:leaf=0.00848022
					52:[C_D_U_TITLEMD5_CATEGORY_MICRO_MEAN_COEC<0.121987] yes=105,no=106,missing=105
						105:leaf=0.00878128
						106:leaf=0.0100899
				26:[CAT_REL<0.000768] yes=53,no=54,missing=54
					53:[D_TITLEMD5_C<26.6084] yes=107,no=108,missing=107
						107:leaf=0.00740506
						108:leaf=0.0098391
					54:[C_D_U_TITLEMD5_CATEGORY_MICRO_MEAN_COEC<0.114186] yes=109,no=110,missing=109
						109:leaf=0.0101315
						110:leaf=0.0111058
		6:[C_D_U_TITLEMD5_CATEGORY_MEAN_C<0.132162] yes=13,no=14,missing=14
			13:[C_D_U_CATEGORY_UID_MACRO_MEAN_COEC<0.113528] yes=27,no=28,missing=27
				27:[C_D_U_KEYWORD_CATEGORY_MICRO_MEAN_COEC<0.087432] yes=55,no=56,missing=56
					55:[D_GROUPID_C<2.98007] yes=111,no=112,missing=112
						111:leaf=-0.00120859
						112:leaf=0.00384217
					56:[D_TITLEMD5_COEC<0.135034] yes=113,no=114,missing=114
						113:leaf=0.00470016
						114:leaf=0.00877966
				28:[C_D_U_KEYWORD_UID_MACRO_MEAN_COEC<0.128748] yes=57,no=58,missing=57
					57:[D_TITLEMD5_COEC<0.096471] yes=115,no=116,missing=116
						115:leaf=0.00654194
						116:leaf=0.00958036
					58:[D_TITLEMD5_COEC<0.086406] yes=117,no=118,missing=118
						117:leaf=0.00969019
						118:leaf=0.0113788
			14:[C_D_U_KEYWORD_UID_MICRO_MAX_COEC<0.270979] yes=29,no=30,missing=29
				29:[C_D_U_GROUPID_CATEGORY_MICRO_MEAN_COEC<0.209217] yes=59,no=60,missing=60
					59:[M_D_U_KEYWORD_KEYWORD_MICRO_MAX_COEC<0.103231] yes=119,no=120,missing=119
						119:leaf=0.00830628
						120:leaf=0.00998764
					60:[U_CAT_LEN<12] yes=121,no=122,missing=122
						121:leaf=0.00999955
						122:leaf=0.0113176
				30:[C_D_U_TITLEMD5_CATEGORY_MICRO_MEAN_COEC<0.210133] yes=61,no=62,missing=62
					61:[C_D_U_CATEGORY_UID_MICRO_MAX_COEC<0.195259] yes=123,no=124,missing=124
						123:leaf=0.0103581
						124:leaf=0.0116153
					62:[C_D_U_CATEGORY_UID_MICRO_MEAN_COEC<0.207447] yes=125,no=126,missing=125
						125:leaf=0.01183
						126:leaf=0.0125077
booster[57]:
0:[C_D_U_GROUPID_CATEGORY_MICRO_MEAN_COEC<0.099776] yes=1,no=2,missing=1
	1:[C_D_U_CATEGORY_UID_MACRO_MEAN_COEC<0.098881] yes=3,no=4,missing=3
		3:[D_KEYWORD_MACRO_MEAN_COEC<0.072353] yes=7,no=8,missing=8
			7:[C_D_U_GROUPID_CATEGORY_MICRO_MEAN_COEC<0.031277] yes=15,no=16,missing=15
				15:[C_D_U_KEYWORD_UID_MACRO_MEAN_COEC<0.019147] yes=31,no=32,missing=31
					31:[D_GROUPID_COEC<0.025122] yes=63,no=64,missing=63
						63:leaf=-0.00612466
						64:leaf=-0.00296094
					32:[C_D_U_KEYWORD_UID_MACRO_MEAN_COEC<0.074092] yes=65,no=66,missing=66
						65:leaf=-0.0013409
						66:leaf=0.00210399
				16:[CAT_REL<0.000781] yes=33,no=34,missing=34
					33:[D_TITLEMD5_C<26.4853] yes=67,no=68,missing=67
						67:leaf=-0.00259583
						68:leaf=0.000946163
					34:[D_TITLEMD5_C<20.5669] yes=69,no=70,missing=69
						69:leaf=0.00116883
						70:leaf=0.00440777
			8:[D_TITLEMD5_COEC<0.152503] yes=17,no=18,missing=18
				17:[C_D_U_KEYWORD_UID_MICRO_MEAN_COEC<0.059364] yes=35,no=36,missing=35
					35:[D_TITLEMD5_C<202.435] yes=71,no=72,missing=72
						71:leaf=0.000702094
						72:leaf=0.00336627
					36:[D_TITLEMD5_COEC<0.072794] yes=73,no=74,missing=74
						73:leaf=0.00325396
						74:leaf=0.00628862
				18:[D_GROUPID_COEC<0.203112] yes=37,no=38,missing=37
					37:[D_PUBLISHER_COEC<0.071051] yes=75,no=76,missing=76
						75:leaf=0.00299925
						76:leaf=0.00681691
					38:[D_TITLEMD5_C<1.35164] yes=77,no=78,missing=77
						77:leaf=0.00265064
						78:leaf=0.0100172
		4:[C_D_U_KEYWORD_UID_MACRO_MEAN_COEC<0.085295] yes=9,no=10,missing=9
			9:[D_TITLEMD5_C<20.5669] yes=19,no=20,missing=19
				19:[D_TITLEMD5_COEC<0.043305] yes=39,no=40,missing=40
					39:[U_CATEGORY_MICRO_MEAN_COEC<0.075316] yes=79,no=80,missing=79
						79:leaf=-0.00241888
						80:leaf=0.00197128
					40:[KW_REL<0.001012] yes=81,no=82,missing=82
						81:leaf=0.00271659
						82:leaf=0.00561249
				20:[C_D_U_GROUPID_CATEGORY_MICRO_MEAN_COEC<0.052599] yes=41,no=42,missing=42
					41:[C_D_U_GROUPID_CATEGORY_MICRO_MEAN_COEC<0.024875] yes=83,no=84,missing=84
						83:leaf=0.00120999
						84:leaf=0.00494409
					42:[C_D_U_CATEGORY_UID_MACRO_MEAN_COEC<0.231901] yes=85,no=86,missing=86
						85:leaf=0.00610842
						86:leaf=0.00797467
			10:[C_D_U_CATEGORY_UID_MACRO_MEAN_COEC<0.271228] yes=21,no=22,missing=22
				21:[D_TITLEMD5_COEC<0.054577] yes=43,no=44,missing=44
					43:[M_D_U_KEYWORD_KEYWORD_MICRO_MAX_COEC<0.078744] yes=87,no=88,missing=87
						87:leaf=0.0035735
						88:leaf=0.00646842
					44:[M_D_U_KEYWORD_KEYWORD_MICRO_MAX_COEC<0.078744] yes=89,no=90,missing=89
						89:leaf=0.0066366
						90:leaf=0.0084117
				22:[C_D_U_CATEGORY_UID_MAX_C<1.03452] yes=45,no=46,missing=46
					45:[D_TITLEMD5_COEC<0.045965] yes=91,no=92,missing=91
						91:leaf=0.0052111
						92:leaf=0.00839779
					46:[C_D_U_CATEGORY_UID_MACRO_MEAN_COEC<0.50973] yes=93,no=94,missing=94
						93:leaf=0.00921391
						94:leaf=0.0107777
	2:[C_D_U_TITLEMD5_CATEGORY_MICRO_MEAN_COEC<0.159192] yes=5,no=6,missing=5
		5:[C_D_U_KEYWORD_UID_MICRO_MEAN_COEC<0.116761] yes=11,no=12,missing=11
			11:[D_TITLEMD5_C<108.916] yes=23,no=24,missing=23
				23:[CAT_REL<0.000781] yes=47,no=48,missing=48
					47:[C_D_U_CATEGORY_UID_MICRO_MEAN_COEC<0.08565] yes=95,no=96,missing=95
						95:leaf=0.00151758
						96:leaf=0.00579353
					48:[D_TITLEMD5_C<8.65874] yes=97,no=98,missing=97
						97:leaf=0.00323876
						98:leaf=0.00660303
				24:[CAT_REL<0.000781] yes=49,no=50,missing=50
					49:[C_D_U_CATEGORY_UID_MICRO_MEAN_COEC<0.139444] yes=99,no=100,missing=99
						99:leaf=0.00598923
						100:leaf=0.00885155
					50:[U_CAT_LEN<12] yes=101,no=102,missing=102
						101:leaf=0.00697801
						102:leaf=0.0090213
			12:[C_D_U_CATEGORY_UID_MACRO_MEAN_COEC<0.236059] yes=25,no=26,missing=25
				25:[M_D_U_KEYWORD_KEYWORD_MICRO_MAX_COEC<0.102558] yes=51,no=52,missing=51
					51:[D_TITLEMD5_C<35.7508] yes=103,no=104,missing=103
						103:leaf=0.00616998
						104:leaf=0.00848428
					52:[C_D_U_TITLEMD5_CATEGORY_MICRO_MEAN_COEC<0.121388] yes=105,no=106,missing=105
						105:leaf=0.00879327
						106:leaf=0.0100809
				26:[CAT_REL<0.000781] yes=53,no=54,missing=54
					53:[D_TITLEMD5_C<26.4853] yes=107,no=108,missing=107
						107:leaf=0.00760574
						108:leaf=0.00989736
					54:[C_D_U_TITLEMD5_CATEGORY_MICRO_MEAN_COEC<0.125938] yes=109,no=110,missing=109
						109:leaf=0.0103915
						110:leaf=0.0112476
		6:[D_TITLEMD5_C<5.98502] yes=13,no=14,missing=14
			13:[C_D_U_KEYWORD_UID_MACRO_MEAN_COEC<0.044903] yes=27,no=28,missing=27
				27:[C_D_U_KEYWORD_CATEGORY_MICRO_MEAN_COEC<0.10231] yes=55,no=56,missing=56
					55:[C_D_U_CATEGORY_UID_MACRO_MAX_COEC<0.083227] yes=111,no=112,missing=111
						111:leaf=0.000210551
						112:leaf=0.00548572
					56:[C_D_U_KEYWORD_CATEGORY_MICRO_MEAN_COEC<0.171249] yes=113,no=114,missing=114
						113:leaf=0.0054188
						114:leaf=0.0110584
				28:[C_D_U_KEYWORD_UID_MACRO_MEAN_COEC<0.114755] yes=57,no=58,missing=58
					57:[D_TITLEMD5_COEC<0.079322] yes=115,no=116,missing=116
						115:leaf=0.00401721
						116:leaf=0.00820538
					58:[M_D_U_KEYWORD_KEYWORD_MICRO_MAX_COEC<0.150627] yes=117,no=118,missing=117
						117:leaf=0.00950354
						118:leaf=0.0115727
			14:[C_D_U_KEYWORD_UID_MICRO_MEAN_COEC<0.085672] yes=29,no=30,missing=29
				29:[D_TITLEMD5_C<156.839] yes=59,no=60,missing=60
					59:[CAT_REL<0.000781] yes=119,no=120,missing=120
						119:leaf=0.00595926
						120:leaf=0.00902547
					60:[C_D_U_TITLEMD5_CATEGORY_MICRO_MEAN_COEC<0.215507] yes=121,no=122,missing=122
						121:leaf=0.00972116
						122:leaf=0.0112561
				30:[C_D_U_TITLEMD5_CATEGORY_MICRO_MEAN_COEC<0.208708] yes=61,no=62,missing=62
					61:[C_D_U_CATEGORY_UID_MICRO_MAX_COEC<0.253254] yes=123,no=124,missing=123
						123:leaf=0.0106686
						124:leaf=0.0117811
					62:[C_D_U_TITLEMD5_CATEGORY_MEAN_C<0.259524] yes=125,no=126,missing=126
						125:leaf=0.0111007
						126:leaf=0.0121978
booster[58]:
0:[C_D_U_TITLEMD5_CATEGORY_MICRO_MEAN_COEC<0.099046] yes=1,no=2,missing=1
	1:[C_D_U_KEYWORD_UID_MACRO_MEAN_COEC<0.048476] yes=3,no=4,missing=3
		3:[D_KEYWORD_MACRO_MEAN_COEC<0.107376] yes=7,no=8,missing=8
			7:[D_TITLEMD5_C<30.1692] yes=15,no=16,missing=15
				15:[C_D_U_KEYWORD_CATEGORY_MICRO_MEAN_COEC<0.066677] yes=31,no=32,missing=31
					31:[D_GROUPID_COEC<0.026027] yes=63,no=64,missing=63
						63:leaf=-0.00645437
						64:leaf=-0.00302418
					32:[C_D_U_CATEGORY_UID_MICRO_MEAN_COEC<0.116614] yes=65,no=66,missing=65
						65:leaf=-0.00102781
						66:leaf=0.00335109
				16:[CAT_REL<0.00092] yes=33,no=34,missing=34
					33:[D_TITLEMD5_COEC<0.105753] yes=67,no=68,missing=68
						67:leaf=-9.22109e-05
						68:leaf=0.00370854
					34:[C_D_U_GROUPID_CATEGORY_MICRO_MEAN_COEC<0.064538] yes=69,no=70,missing=69
						69:leaf=0.00274915
						70:leaf=0.00564331
			8:[D_TITLEMD5_COEC<0.200104] yes=17,no=18,missing=17
				17:[D_KEYWORD_MACRO_MEAN_COEC<0.130692] yes=35,no=36,missing=36
					35:[D_GROUPID_COEC<0.138451] yes=71,no=72,missing=71
						71:leaf=0.00280916
						72:leaf=0.00589544
					36:[D_TITLEMD5_C<11.1043] yes=73,no=74,missing=74
						73:leaf=0.0102219
						74:leaf=0.00696838
				18:[D_GROUPID_COEC<0.244504] yes=37,no=38,missing=37
					37:[WORD_COUNT<1529] yes=75,no=76,missing=76
						75:leaf=0.00835853
						76:leaf=0.00981818
					38:[D_KEYWORD_MICRO_MEAN_COEC<0.095927] yes=77,no=78,missing=78
						77:leaf=0.0018897
						78:leaf=0.0108224
		4:[C_D_U_CATEGORY_UID_MACRO_MEAN_COEC<0.172523] yes=9,no=10,missing=9
			9:[C_D_U_GROUPID_CATEGORY_MICRO_MEAN_COEC<0.061292] yes=19,no=20,missing=20
				19:[CAT_REL<0.003156] yes=39,no=40,missing=40
					39:[D_GROUPID_COEC<0.031852] yes=79,no=80,missing=80
						79:leaf=-0.00168792
						80:leaf=0.00170935
					40:[C_D_U_KEYWORD_UID_MACRO_MEAN_COEC<0.093332] yes=81,no=82,missing=82
						81:leaf=0.00263333
						82:leaf=0.00544778
				20:[C_D_U_KEYWORD_UID_MICRO_MEAN_COEC<0.131799] yes=41,no=42,missing=42
					41:[D_TITLEMD5_COEC<0.077709] yes=83,no=84,missing=83
						83:leaf=0.00370482
						84:leaf=0.00588513
					42:[D_TITLEMD5_COEC<0.107298] yes=85,no=86,missing=85
						85:leaf=0.00645555
						86:leaf=0.00907389
			10:[C_D_U_GROUPID_CATEGORY_MICRO_MEAN_COEC<0.051661] yes=21,no=22,missing=22
				21:[C_D_U_KEYWORD_UID_MACRO_MEAN_COEC<0.172796] yes=43,no=44,missing=44
					43:[C_D_U_PUBLISHER_UID_COEC<0.103129] yes=87,no=88,missing=87
						87:leaf=0.00476492
						88:leaf=0.00695762
					44:[C_D_U_CATEGORY_UID_MEAN_C<2.10077] yes=89,no=90,missing=90
						89:leaf=0.00660735
						90:leaf=0.00924218
				22:[C_D_U_KEYWORD_UID_MICRO_MEAN_COEC<0.226224] yes=45,no=46,missing=46
					45:[D_TITLEMD5_C<41.5282] yes=91,no=92,missing=91
						91:leaf=0.00692823
						92:leaf=0.00839588
					46:[C_D_U_CATEGORY_UID_MEAN_C<2.10077] yes=93,no=94,missing=94
						93:leaf=0.00841332
						94:leaf=0.00993191
	2:[C_D_U_GROUPID_CATEGORY_MICRO_MEAN_COEC<0.141399] yes=5,no=6,missing=5
		5:[C_D_U_CATEGORY_UID_MICRO_MEAN_COEC<0.136622] yes=11,no=12,missing=11
			11:[M_D_U_KEYWORD_KEYWORD_MICRO_MAX_COEC<0.101643] yes=23,no=24,missing=23
				23:[D_TITLEMD5_C<30.1692] yes=47,no=48,missing=48
					47:[C_D_U_KEYWORD_UID_MICRO_MEAN_COEC<0.052398] yes=95,no=96,missing=95
						95:leaf=0.000375165
						96:leaf=0.00399907
					48:[D_CATEGORY_MEAN_C<25832.9] yes=97,no=98,missing=97
						97:leaf=0.00617449
						98:leaf=0.0027266
				24:[C_D_U_KEYWORD_UID_MICRO_MEAN_COEC<0.138063] yes=49,no=50,missing=49
					49:[D_TITLEMD5_C<109.467] yes=99,no=100,missing=100
						99:leaf=0.00567263
						100:leaf=0.00774695
					50:[C_D_U_KEYWORD_UID_MACRO_MEAN_COEC<0.099728] yes=101,no=102,missing=102
						101:leaf=0.00835083
						102:leaf=0.00980981
			12:[C_D_U_KEYWORD_UID_MICRO_MEAN_COEC<0.180611] yes=25,no=26,missing=25
				25:[D_TITLEMD5_C<17.4942] yes=51,no=52,missing=52
					51:[D_TITLEMD5_COEC<0.070672] yes=103,no=104,missing=104
						103:leaf=0.00504017
						104:leaf=0.0076687
					52:[KW_REL<0.001283] yes=105,no=106,missing=106
						105:leaf=0.00809708
						106:leaf=0.00943892
				26:[KW_REL<0.001853] yes=53,no=54,missing=54
					53:[C_D_U_CATEGORY_UID_MACRO_MEAN_COEC<0.334491] yes=107,no=108,missing=108
						107:leaf=0.00885877
						108:leaf=0.0101088
					54:[C_D_U_CATEGORY_UID_MACRO_MEAN_COEC<0.334491] yes=109,no=110,missing=110
						109:leaf=0.0102472
						110:leaf=0.0111418
		6:[C_D_U_KEYWORD_UID_MICRO_MEAN_COEC<0.119675] yes=13,no=14,missing=13
			13:[D_TITLEMD5_C<53.1474] yes=27,no=28,missing=28
				27:[D_GROUPID_C<2.98502] yes=55,no=56,missing=56
					55:[KW_REL<0.001651] yes=111,no=112,missing=112
						111:leaf=-0.00049312
						112:leaf=0.00433074
					56:[CAT_REL<0.00092] yes=113,no=114,missing=114
						113:leaf=0.0044068
						114:leaf=0.00813971
				28:[C_D_U_TITLEMD5_CATEGORY_MICRO_MEAN_COEC<0.187734] yes=57,no=58,missing=58
					57:[KW_REL<0.000594] yes=115,no=116,missing=116
						115:leaf=0.00730373
						116:leaf=0.0093402
					58:[C_D_U_TITLEMD5_CATEGORY_MICRO_MEAN_COEC<0.238392] yes=117,no=118,missing=118
						117:leaf=0.0102948
						118:leaf=0.0115386
			14:[C_D_U_GROUPID_CATEGORY_MEAN_C<0.08726] yes=29,no=30,missing=30
				29:[C_D_U_CATEGORY_UID_MACRO_MEAN_COEC<0.213496] yes=59,no=60,missing=59
					59:[D_GROUPID_COEC<0.094677] yes=119,no=120,missing=120
						119:leaf=0.0056093
						120:leaf=0.0089657
					60:[C_D_U_KEYWORD_CATEGORY_MICRO_MEAN_COEC<0.104441] yes=121,no=122,missing=122
						121:leaf=0.00955953
						122:leaf=0.0112383
				30:[C_D_U_TITLEMD5_CATEGORY_MICRO_MEAN_COEC<0.179936] yes=61,no=62,missing=62
					61:[C_D_U_CATEGORY_UID_MICRO_MEAN_COEC<0.296335] yes=123,no=124,missing=123
						123:leaf=0.0103683
						124:leaf=0.0114891
					62:[C_D_U_CATEGORY_UID_MICRO_MAX_COEC<0.289099] yes=125,no=126,missing=125
						125:leaf=0.0115723
						126:leaf=0.0122632
booster[59]:
0:[C_D_U_TITLEMD5_CATEGORY_MICRO_MEAN_COEC<0.101515] yes=1,no=2,missing=1
	1:[C_D_U_KEYWORD_UID_MICRO_MEAN_COEC<0.084482] yes=3,no=4,missing=3
		3:[D_KEYWORD_MACRO_MEAN_COEC<0.111364] yes=7,no=8,missing=8
			7:[D_TITLEMD5_C<30.0511] yes=15,no=16,missing=15
				15:[CAT_REL<0.000796] yes=31,no=32,missing=32
					31:[D_TITLEMD5_COEC<0.028177] yes=63,no=64,missing=63
						63:leaf=-0.00674534
						64:leaf=-0.00314584
					32:[D_TITLEMD5_COEC<0.019192] yes=65,no=66,missing=66
						65:leaf=-0.00334353
						66:leaf=0.000983928
				16:[CAT_REL<0.003274] yes=33,no=34,missing=34
					33:[D_TITLEMD5_COEC<0.105934] yes=67,no=68,missing=68
						67:leaf=-0.00015693
						68:leaf=0.00360664
					34:[C_D_U_GROUPID_CATEGORY_MICRO_MEAN_COEC<0.064206] yes=69,no=70,missing=69
						69:leaf=0.00248448
						70:leaf=0.00543747
			8:[D_TITLEMD5_COEC<0.195302] yes=17,no=18,missing=17
				17:[D_GROUPID_COEC<0.163132] yes=35,no=36,missing=36
					35:[D_KEYWORD_MAX_C<20.516] yes=71,no=72,missing=72
						71:leaf=0.00938118
						72:leaf=0.00396886
					36:[KW_REL<0.001394] yes=73,no=74,missing=74
						73:leaf=0.00652213
						74:leaf=0.00892487
				18:[D_GROUPID_COEC<0.245589] yes=37,no=38,missing=37
					37:[WORD_COUNT<1529] yes=75,no=76,missing=76
						75:leaf=0.00818356
						76:leaf=0.00967496
					38:[D_KEYWORD_MICRO_MEAN_COEC<0.09729] yes=77,no=78,missing=78
						77:leaf=0.000953148
						78:leaf=0.0107261
		4:[C_D_U_CATEGORY_UID_MACRO_MEAN_COEC<0.154968] yes=9,no=10,missing=9
			9:[D_GROUPID_COEC<0.047438] yes=19,no=20,missing=20
				19:[CAT_REL<0.003274] yes=39,no=40,missing=40
					39:[C_D_U_GROUPID_CATEGORY_MICRO_MEAN_COEC<0.031665] yes=79,no=80,missing=79
						79:leaf=-0.0022815
						80:leaf=0.00086246
					40:[KW_REL<0.001759] yes=81,no=82,missing=82
						81:leaf=0.00141263
						82:leaf=0.00466153
				20:[CAT_REL<0.003274] yes=41,no=42,missing=42
					41:[D_TITLEMD5_COEC<0.105934] yes=83,no=84,missing=83
						83:leaf=0.00335103
						84:leaf=0.00758834
					42:[KW_REL<0.00151] yes=85,no=86,missing=86
						85:leaf=0.00509654
						86:leaf=0.00735309
			10:[C_D_U_GROUPID_CATEGORY_MICRO_MEAN_COEC<0.052806] yes=21,no=22,missing=22
				21:[C_D_U_KEYWORD_UID_MACRO_MEAN_COEC<0.133288] yes=43,no=44,missing=44
					43:[D_TITLEMD5_COEC<0.028177] yes=87,no=88,missing=88
						87:leaf=0.00322045
						88:leaf=0.00563867
					44:[C_D_U_CATEGORY_UID_MEAN_C<2.4848] yes=89,no=90,missing=90
						89:leaf=0.00642372
						90:leaf=0.0087191
				22:[C_D_U_KEYWORD_UID_MACRO_MEAN_COEC<0.133288] yes=45,no=46,missing=46
					45:[D_TITLEMD5_C<30.0511] yes=91,no=92,missing=91
						91:leaf=0.00635419
						92:leaf=0.00831201
					46:[C_D_U_CATEGORY_UID_MICRO_MEAN_COEC<0.337758] yes=93,no=94,missing=94
						93:leaf=0.00848943
						94:leaf=0.00972339
	2:[C_D_U_GROUPID_CATEGORY_MICRO_MEAN_COEC<0.153474] yes=5,no=6,missing=5
		5:[C_D_U_CATEGORY_UID_MICRO_MEAN_COEC<0.128349] yes=11,no=12,missing=11
			11:[D_TITLEMD5_C<30.0511] yes=23,no=24,missing=24
				23:[KW_REL<0.001864] yes=47,no=48,missing=48
					47:[C_D_U_KEYWORD_UID_MICRO_MEAN_COEC<0.055775] yes=95,no=96,missing=95
						95:leaf=0.000282884
						96:leaf=0.00381824
					48:[CAT_REL<0.018452] yes=97,no=98,missing=98
						97:leaf=0.00306847
						98:leaf=0.00660951
				24:[KW_REL<0.0012] yes=49,no=50,missing=50
					49:[D_CATEGORY_MEAN_C<30007.1] yes=99,no=100,missing=99
						99:leaf=0.00619081
						100:leaf=0.00262552
					50:[C_D_U_KEYWORD_UID_MICRO_MEAN_COEC<0.125445] yes=101,no=102,missing=101
						101:leaf=0.00735365
						102:leaf=0.00937966
			12:[C_D_U_KEYWORD_UID_MICRO_MEAN_COEC<0.196232] yes=25,no=26,missing=25
				25:[D_TITLEMD5_C<16.6546] yes=51,no=52,missing=52
					51:[D_TITLEMD5_COEC<0.086224] yes=103,no=104,missing=104
						103:leaf=0.00562756
						104:leaf=0.00822722
					52:[KW_REL<0.001299] yes=105,no=106,missing=106
						105:leaf=0.00830543
						106:leaf=0.00957405
				26:[KW_REL<0.002059] yes=53,no=54,missing=54
					53:[C_D_U_CATEGORY_UID_MACRO_MEAN_COEC<0.291277] yes=107,no=108,missing=108
						107:leaf=0.00899057
						108:leaf=0.0102375
					54:[C_D_U_CATEGORY_UID_MICRO_MEAN_COEC<0.337758] yes=109,no=110,missing=110
						109:leaf=0.0104411
						110:leaf=0.0112489
		6:[D_GROUPID_C<9.79199] yes=13,no=14,missing=14
			13:[C_D_U_KEYWORD_UID_MACRO_MEAN_COEC<0.037862] yes=27,no=28,missing=27
				27:[D_GROUPID_COEC<0.090222] yes=55,no=56,missing=56
					55:[CAT_REL<0.003274] yes=111,no=112,missing=112
						111:leaf=-0.00444537
						112:leaf=0.00100519
					56:[C_D_U_KEYWORD_CATEGORY_MICRO_MEAN_COEC<0.105587] yes=113,no=114,missing=114
						113:leaf=0.0035335
						114:leaf=0.00863776
				28:[C_D_U_CATEGORY_UID_MACRO_MEAN_COEC<0.115999] yes=57,no=58,missing=57
					57:[D_GROUPID_COEC<0.076646] yes=115,no=116,missing=116
						115:leaf=0.00296251
						116:leaf=0.00782922
					58:[C_D_U_KEYWORD_UID_MACRO_MEAN_COEC<0.133288] yes=117,no=118,missing=118
						117:leaf=0.00889956
						118:leaf=0.010781
			14:[C_D_U_KEYWORD_UID_MICRO_MAX_COEC<0.269188] yes=29,no=30,missing=29
				29:[C_D_U_TITLEMD5_CATEGORY_MICRO_MEAN_COEC<0.208693] yes=59,no=60,missing=60
					59:[M_D_U_KEYWORD_KEYWORD_MICRO_MAX_COEC<0.103065] yes=119,no=120,missing=119
						119:leaf=0.00804176
						120:leaf=0.00973451
					60:[C_D_U_KEYWORD_CATEGORY_MICRO_MEAN_COEC<0.101385] yes=121,no=122,missing=122
						121:leaf=0.00861784
						122:leaf=0.0108451
				30:[C_D_U_TITLEMD5_CATEGORY_MICRO_MEAN_COEC<0.208693] yes=61,no=62,missing=62
					61:[C_D_U_CATEGORY_UID_MICRO_MAX_COEC<0.201759] yes=123,no=124,missing=124
						123:leaf=0.0101023
						124:leaf=0.0113839
					62:[C_D_U_CATEGORY_UID_MICRO_MEAN_COEC<0.200802] yes=125,no=126,missing=125
						125:leaf=0.0115869
						126:leaf=0.0123102
