booster[0]:
0:[D_CONID_COEC<0.124462] yes=1,no=2,missing=1,gain=177695,cover=970167
	1:[CAT_REL<0.000606726] yes=3,no=4,missing=3,gain=51933.5,cover=782169
		3:[D_CATEGORY_MACRO_MAX_COEC<0.0579277] yes=7,no=8,missing=8,gain=22479.5,cover=383548
			7:[D_CONID_COEC<0.0847075] yes=15,no=16,missing=15,gain=10544.4,cover=134153
				15:leaf=-0.0456871,cover=115370
				16:leaf=-0.00529028,cover=18783.7
			8:[D_CONID_COEC<0.00836695] yes=17,no=18,missing=17,gain=11823.6,cover=249395
				17:leaf=-0.0554675,cover=16561.6
				18:leaf=-0.0117451,cover=232833
		4:[D_CONID_COEC<0.00390139] yes=9,no=10,missing=10,gain=21056.6,cover=398621
			9:[KW_REL<1.57027e-05] yes=19,no=20,missing=19,gain=1351.53,cover=21003.7
				19:leaf=-0.05609,cover=13343.5
				20:leaf=-0.0297332,cover=7660.11
			10:[D_CONID_COEC<0.116316] yes=21,no=22,missing=21,gain=11397.4,cover=377617
				21:leaf=0.00282351,cover=356157
				22:leaf=0.0403422,cover=21460.6
	2:[KW_REL<1.26915e-05] yes=5,no=6,missing=5,gain=8574.22,cover=187998
		5:[D_CONID_COEC<0.170467] yes=11,no=12,missing=12,gain=4104.22,cover=108725
			11:[CAT_REL<0.00149115] yes=23,no=24,missing=23,gain=2409.21,cover=62688.5
				23:leaf=0.0178417,cover=35928.4
				24:leaf=0.0376595,cover=26760.1
			12:[D_PUBLISHER_COEC<0.047164] yes=25,no=26,missing=26,gain=2368.59,cover=46036.6
				25:leaf=-0.0288725,cover=1032.97
				26:leaf=0.0476821,cover=45003.7
		6:[D_CONID_COEC<0.170901] yes=13,no=14,missing=14,gain=2211.3,cover=79272.5
			13:[CAT_REL<0.11652] yes=27,no=28,missing=27,gain=740.397,cover=41179.2
				27:leaf=0.04129,cover=19934.3
				28:leaf=0.0547137,cover=21245
			14:[C_D_U_CATEGORY_GENDER_MACRO_MAX_COEC<0.0426074] yes=29,no=30,missing=29,gain=531.462,cover=38093.2
				29:leaf=-0.0191554,cover=186.57
				30:leaf=0.06535,cover=37906.7
booster[1]:
0:[D_CONID_COEC<0.131226] yes=1,no=2,missing=1,gain=150895,cover=968143
	1:[CAT_REL<0.000414881] yes=3,no=4,missing=3,gain=50378.4,cover=805268
		3:[D_CATEGORY_MACRO_MAX_COEC<0.0630316] yes=7,no=8,missing=8,gain=21746.2,cover=392246
			7:[D_CONID_COEC<0.0847075] yes=15,no=16,missing=15,gain=11465.7,cover=150895
				15:leaf=-0.0428748,cover=125770
				16:leaf=-0.00587765,cover=25125.1
			8:[D_CONID_COEC<0.00948841] yes=17,no=18,missing=17,gain=10507.6,cover=241351
				17:leaf=-0.0513495,cover=16246.1
				18:leaf=-0.00971369,cover=225105
		4:[D_CONID_COEC<0.00395599] yes=9,no=10,missing=9,gain=21161.3,cover=413022
			9:[KW_REL<1.27874e-05] yes=19,no=20,missing=19,gain=2056.65,cover=29252.7
				19:leaf=-0.04806,cover=18291.2
				20:leaf=-0.0206682,cover=10961.5
			10:[D_CONID_COEC<0.116316] yes=21,no=22,missing=22,gain=15320.1,cover=383769
				21:leaf=0.00307542,cover=347156
				22:leaf=0.037081,cover=36612.8
	2:[KW_REL<1.53353e-05] yes=5,no=6,missing=5,gain=6154.47,cover=162875
		5:[D_PUBLISHER_COEC<0.0482846] yes=11,no=12,missing=12,gain=2529.07,cover=93128.5
			11:[C_D_U_CATEGORY_CITY_MICRO_MEAN_COEC<0.0594806] yes=23,no=24,missing=23,gain=991.825,cover=3131.41
				23:leaf=-0.0427156,cover=1276.22
				24:leaf=0.0145322,cover=1855.19
			12:[D_CONID_COEC<0.181961] yes=25,no=26,missing=26,gain=2563.21,cover=89997.1
				25:leaf=0.0301225,cover=54703
				26:leaf=0.0474072,cover=35294.1
		6:[D_CONID_COEC<0.18229] yes=13,no=14,missing=14,gain=1406.33,cover=69746.6
			13:[CAT_REL<0.00145356] yes=27,no=28,missing=27,gain=568.264,cover=39135.4
				27:leaf=0.0339486,cover=5586.73
				28:leaf=0.0511848,cover=33548.7
			14:[C_D_U_PUBLISHER_AGE_COEC<0.0576287] yes=29,no=30,missing=29,gain=609.628,cover=30611.1
				29:leaf=0.0221498,cover=886.568
				30:leaf=0.0642569,cover=29724.5
booster[2]:
0:[D_CONID_COEC<0.130378] yes=1,no=2,missing=1,gain=136604,cover=969478
	1:[CAT_REL<0.000238791] yes=3,no=4,missing=3,gain=44794.4,cover=803732
		3:[D_CATEGORY_MACRO_MAX_COEC<0.056698] yes=7,no=8,missing=8,gain=18677.2,cover=391768
			7:[D_CONID_COEC<0.0808579] yes=15,no=16,missing=15,gain=9349.02,cover=127630
				15:leaf=-0.0423477,cover=106300
				16:leaf=-0.00607587,cover=21330.1
			8:[D_CONID_COEC<0.00872501] yes=17,no=18,missing=17,gain=10182.1,cover=264138
				17:leaf=-0.050751,cover=16722.4
				18:leaf=-0.0104394,cover=247415
		4:[D_CONID_COEC<0.00479227] yes=9,no=10,missing=10,gain=18265.8,cover=411964
			9:[KW_REL<1.27874e-05] yes=19,no=20,missing=19,gain=1358.35,cover=21215.9
				19:leaf=-0.0518478,cover=13361.5
				20:leaf=-0.025641,cover=7854.39
			10:[D_CONID_COEC<0.116315] yes=21,no=22,missing=21,gain=13528,cover=390748
				21:leaf=0.00259579,cover=356313
				22:leaf=0.0354139,cover=34435.2
	2:[KW_REL<1.41945e-05] yes=5,no=6,missing=5,gain=6004.69,cover=165746
		5:[D_CONID_COEC<0.174949] yes=11,no=12,missing=12,gain=2654.37,cover=94545.6
			11:[CAT_REL<0.00706893] yes=23,no=24,missing=23,gain=1394.33,cover=52223.9
				23:leaf=0.018743,cover=30737.4
				24:leaf=0.0353466,cover=21486.5
			12:[C_D_U_PUBLISHER_AGE_COEC<0.0481234] yes=25,no=26,missing=25,gain=2023.76,cover=42321.7
				25:leaf=-0.027965,cover=996.46
				26:leaf=0.0441221,cover=41325.2
		6:[D_CONID_COEC<0.171511] yes=13,no=14,missing=14,gain=1540.43,cover=71200.1
			13:[CAT_REL<0.00479085] yes=27,no=28,missing=27,gain=457.937,cover=33374.5
				27:leaf=0.0297564,cover=4549.6
				28:leaf=0.0468386,cover=28824.9
			14:[C_D_U_CATEGORY_GENDER_MACRO_MAX_COEC<0.0433078] yes=29,no=30,missing=29,gain=426.63,cover=37825.6
				29:leaf=-0.0153104,cover=190.502
				30:leaf=0.0596315,cover=37635.1
booster[3]:
0:[D_CONID_COEC<0.129078] yes=1,no=2,missing=1,gain=127605,cover=965906
	1:[CAT_REL<0.000568594] yes=3,no=4,missing=3,gain=40701,cover=795802
		3:[C_D_U_CATEGORY_AGE_MICRO_MEAN_COEC<0.0448141] yes=7,no=8,missing=8,gain=16449.3,cover=387953
			7:[D_CONID_COEC<0.0513841] yes=15,no=16,missing=15,gain=7292.32,cover=64214.4
				15:leaf=-0.0559418,cover=41224.4
				16:leaf=-0.0207949,cover=22990
			8:[D_PUBLISHER_COEC<0.0744906] yes=17,no=18,missing=17,gain=10926.1,cover=323738
				17:leaf=-0.0219445,cover=220438
				18:leaf=-0.0022382,cover=103300
		4:[D_CONID_COEC<0.00525295] yes=9,no=10,missing=9,gain=17317,cover=407850
			9:[D_CONID_COEC<0.0104927] yes=19,no=20,missing=20,gain=1470.48,cover=29511.3
				19:leaf=-0.0415976,cover=21028.1
				20:leaf=-0.0169337,cover=8483.18
			10:[D_CONID_COEC<0.116316] yes=21,no=22,missing=22,gain=10247.8,cover=378338
				21:leaf=0.0028002,cover=347360
				22:leaf=0.0328125,cover=30978.6
	2:[KW_REL<1.41945e-05] yes=5,no=6,missing=5,gain=5646.23,cover=170104
		5:[D_PUBLISHER_COEC<0.0433081] yes=11,no=12,missing=12,gain=2329.72,cover=97621.4
			11:[D_CATEGORY_MICRO_MEAN_COEC<0.062479] yes=23,no=24,missing=23,gain=483.235,cover=1911.15
				23:leaf=-0.0479509,cover=979.125
				24:leaf=0.00233377,cover=932.022
			12:[D_CONID_COEC<0.170418] yes=25,no=26,missing=26,gain=2224.03,cover=95710.2
				25:leaf=0.0251281,cover=50746.7
				26:leaf=0.040401,cover=44963.5
		6:[D_CONID_COEC<0.192793] yes=13,no=14,missing=14,gain=1339.52,cover=72482.5
			13:[CAT_REL<0.00141239] yes=27,no=28,missing=27,gain=499.584,cover=48490.4
				27:leaf=0.0329236,cover=7444.25
				28:leaf=0.0470126,cover=41046.2
			14:[D_PUBLISHER_COEC<0.053599] yes=29,no=30,missing=30,gain=790.701,cover=23992.1
				29:leaf=-0.00707959,cover=440.194
				30:leaf=0.0605407,cover=23551.9
booster[4]:
0:[D_CONID_COEC<0.128245] yes=1,no=2,missing=1,gain=115327,cover=967589
	1:[CAT_REL<0.000438344] yes=3,no=4,missing=3,gain=36665.6,cover=795171
		3:[D_CATEGORY_MACRO_MAX_COEC<0.0566003] yes=7,no=8,missing=8,gain=15339.5,cover=387913
			7:[D_CONID_COEC<0.0784654] yes=15,no=16,missing=15,gain=8513.57,cover=126523
				15:leaf=-0.0395747,cover=101991
				16:leaf=-0.00676745,cover=24531.6
			8:[D_CONID_COEC<0.00874092] yes=17,no=18,missing=17,gain=8694.68,cover=261390
				17:leaf=-0.0468652,cover=16740.4
				18:leaf=-0.00961959,cover=244650
		4:[D_CONID_COEC<0.00479715] yes=9,no=10,missing=10,gain=14772.4,cover=407258
			9:[KW_REL<1.27874e-05] yes=19,no=20,missing=19,gain=1043.63,cover=20907.4
				19:leaf=-0.0469253,cover=13187.2
				20:leaf=-0.0237727,cover=7720.25
			10:[D_CONID_COEC<0.116316] yes=21,no=22,missing=21,gain=9488.95,cover=386350
				21:leaf=0.00251001,cover=356626
				22:leaf=0.0319138,cover=29723.9
	2:[KW_REL<1.41945e-05] yes=5,no=6,missing=5,gain=5314.88,cover=172418
		5:[D_CONID_COEC<0.182001] yes=11,no=12,missing=12,gain=2367.74,cover=98982
			11:[CAT_REL<0.0622047] yes=23,no=24,missing=23,gain=1489.19,cover=62896.1
				23:leaf=0.0183697,cover=42157.2
				24:leaf=0.0347361,cover=20738.8
			12:[D_PUBLISHER_COEC<0.0528875] yes=25,no=26,missing=26,gain=2065.62,cover=36085.9
				25:leaf=-0.0285392,cover=1071.16
				26:leaf=0.0419271,cover=35014.7
		6:[D_CONID_COEC<0.170795] yes=13,no=14,missing=14,gain=1257.2,cover=73436.4
			13:[CAT_REL<0.108812] yes=27,no=28,missing=27,gain=556.741,cover=35733.8
				27:leaf=0.0339929,cover=16712.3
				28:leaf=0.0465082,cover=19021.5
			14:[D_PUBLISHER_COEC<0.0437741] yes=29,no=30,missing=30,gain=397.908,cover=37702.6
				29:leaf=0.00496262,cover=413.572
				30:leaf=0.0542904,cover=37289
booster[5]:
0:[D_CONID_COEC<0.13335] yes=1,no=2,missing=1,gain=99110.3,cover=967229
	1:[CAT_REL<0.000672902] yes=3,no=4,missing=3,gain=33893.3,cover=812398
		3:[D_PUBLISHER_COEC<0.0733206] yes=7,no=8,missing=8,gain=14814.2,cover=394444
			7:[D_CONID_COEC<0.101874] yes=15,no=16,missing=15,gain=10668.4,cover=270570
				15:leaf=-0.0268287,cover=249884
				16:leaf=0.0105348,cover=20686
			8:[D_CONID_COEC<0.109934] yes=17,no=18,missing=17,gain=5746.84,cover=123874
				17:leaf=-0.00924263,cover=93428.8
				18:leaf=0.0157704,cover=30445.6
		4:[D_CONID_COEC<0.00479914] yes=9,no=10,missing=9,gain=14829.5,cover=417954
			9:[KW_REL<0.0110396] yes=19,no=20,missing=19,gain=1310.51,cover=29355.2
				19:leaf=-0.03381,cover=27724.8
				20:leaf=0.0123104,cover=1630.37
			10:[D_CONID_COEC<0.116316] yes=21,no=22,missing=22,gain=11480.8,cover=388599
				21:leaf=0.00267489,cover=348085
				22:leaf=0.0307976,cover=40514
	2:[CAT_REL<0.0009235] yes=5,no=6,missing=5,gain=4248.83,cover=154831
		5:[D_CONID_COEC<0.16885] yes=11,no=12,missing=12,gain=2168.13,cover=66535.3
			11:[DOC_AGE<0.5] yes=23,no=24,missing=23,gain=615.832,cover=28082.3
				23:leaf=-0.0257574,cover=830.255
				24:leaf=0.0179341,cover=27252.1
			12:[D_CATEGORY_MACRO_MAX_COEC<0.0440363] yes=25,no=26,missing=25,gain=1216.26,cover=38453
				25:leaf=-0.0201017,cover=978.317
				26:leaf=0.0363543,cover=37474.7
		6:[D_CONID_COEC<0.17432] yes=13,no=14,missing=14,gain=1496.99,cover=88295.9
			13:[DOC_AGE<0.5] yes=27,no=28,missing=27,gain=614.507,cover=45632.3
				27:leaf=0.0028485,cover=1235.03
				28:leaf=0.0386073,cover=44397.3
			14:[D_PUBLISHER_COEC<0.0421031] yes=29,no=30,missing=30,gain=721.715,cover=42663.5
				29:leaf=-0.0117614,cover=457.592
				30:leaf=0.0513481,cover=42206
booster[6]:
0:[D_CONID_COEC<0.131226] yes=1,no=2,missing=1,gain=94051.9,cover=963711
	1:[CAT_REL<0.000238791] yes=3,no=4,missing=3,gain=31933.7,cover=802588
		3:[C_D_U_CATEGORY_AGE_MICRO_MAX_COEC<0.0552578] yes=7,no=8,missing=8,gain=13923.2,cover=389339
			7:[D_CONID_COEC<0.080859] yes=15,no=16,missing=15,gain=6471.72,cover=110226
				15:leaf=-0.0376591,cover=92632.8
				16:leaf=-0.00457864,cover=17593.2
			8:[D_CONID_COEC<0.00882924] yes=17,no=18,missing=17,gain=8324.2,cover=279113
				17:leaf=-0.0449454,cover=17334.8
				18:leaf=-0.00916907,cover=261778
		4:[D_CONID_COEC<0.00479914] yes=9,no=10,missing=10,gain=13271.2,cover=413249
			9:[KW_REL<1.44051e-05] yes=19,no=20,missing=19,gain=640.556,cover=20661.1
				19:leaf=-0.0431048,cover=13127.3
				20:leaf=-0.0248075,cover=7533.84
			10:[D_CONID_COEC<0.116316] yes=21,no=22,missing=21,gain=9021.15,cover=392588
				21:leaf=0.00226641,cover=356490
				22:leaf=0.0284964,cover=36098
	2:[CAT_REL<0.00414011] yes=5,no=6,missing=5,gain=4113.95,cover=161123
		5:[D_CONID_COEC<0.168819] yes=11,no=12,missing=12,gain=1926.44,cover=68999.4
			11:[D_CATEGORY_MACRO_MAX_COEC<0.0927834] yes=23,no=24,missing=24,gain=681.571,cover=30764.4
				23:leaf=0.0101873,cover=18482.1
				24:leaf=0.0253841,cover=12282.3
			12:[C_D_U_CATEGORY_AGE_MACRO_MAX_COEC<0.0459921] yes=25,no=26,missing=25,gain=1248.37,cover=38235
				25:leaf=-0.0205582,cover=1054.84
				26:leaf=0.0345858,cover=37180.1
		6:[D_CONID_COEC<0.174949] yes=13,no=14,missing=14,gain=1365.81,cover=92123.1
			13:[DOC_AGE<0.5] yes=27,no=28,missing=27,gain=551.223,cover=50465.2
				27:leaf=0.00382758,cover=1283.08
				28:leaf=0.0370277,cover=49182.2
			14:[D_PUBLISHER_COEC<0.0533937] yes=29,no=30,missing=30,gain=734.182,cover=41657.9
				29:leaf=0.0148567,cover=1569.16
				30:leaf=0.0497321,cover=40088.7
booster[7]:
0:[D_CONID_COEC<0.122829] yes=1,no=2,missing=1,gain=91194.6,cover=961619
	1:[CAT_REL<0.000713383] yes=3,no=4,missing=3,gain=25959.5,cover=770922
		3:[D_CATEGORY_MACRO_MEAN_COEC<0.0627133] yes=7,no=8,missing=8,gain=12055.3,cover=377560
			7:[D_CONID_COEC<0.0847075] yes=15,no=16,missing=15,gain=6551.86,cover=145890
				15:leaf=-0.032971,cover=122065
				16:leaf=-0.00430605,cover=23825.7
			8:[D_CONID_COEC<0.108556] yes=17,no=18,missing=17,gain=8762.25,cover=231670
				17:leaf=-0.0134933,cover=204393
				18:leaf=0.0166768,cover=27276.7
		4:[D_CONID_COEC<0.00283939] yes=9,no=10,missing=10,gain=11348.7,cover=393362
			9:[KW_REL<1.27874e-05] yes=19,no=20,missing=19,gain=933.09,cover=20260.7
				19:leaf=-0.0433577,cover=12748.6
				20:leaf=-0.021138,cover=7512.1
			10:[D_PUBLISHER_COEC<0.0744906] yes=21,no=22,missing=22,gain=6895.13,cover=373101
				21:leaf=-0.00121746,cover=258716
				22:leaf=0.0135246,cover=114385
	2:[KW_REL<1.21258e-05] yes=5,no=6,missing=5,gain=4844.7,cover=190697
		5:[D_CONID_COEC<0.168078] yes=11,no=12,missing=12,gain=2249.98,cover=111963
			11:[CAT_REL<0.00277183] yes=23,no=24,missing=23,gain=1199.42,cover=64870.1
				23:leaf=0.0123174,cover=36950.4
				24:leaf=0.0260493,cover=27919.7
			12:[D_PUBLISHER_COEC<0.0482877] yes=25,no=26,missing=26,gain=1436.15,cover=47092.4
				25:leaf=-0.0229105,cover=1136.93
				26:leaf=0.0339601,cover=45955.4
		6:[D_CONID_COEC<0.181927] yes=13,no=14,missing=14,gain=1315.63,cover=78734.8
			13:[CAT_REL<0.13057] yes=27,no=28,missing=27,gain=483.975,cover=49091.6
				27:leaf=0.0307726,cover=26124.4
				28:leaf=0.0407272,cover=22967.3
			14:[C_D_U_PUBLISHER_AGE_COEC<0.0578543] yes=29,no=30,missing=29,gain=414.366,cover=29643.2
				29:leaf=0.0147358,cover=868.968
				30:leaf=0.049801,cover=28774.2
booster[8]:
0:[D_CONID_COEC<0.124462] yes=1,no=2,missing=1,gain=83158.6,cover=959932
	1:[CAT_REL<0.000414881] yes=3,no=4,missing=3,gain=23455.5,cover=776152
		3:[D_CONID_COEC<0.00337577] yes=7,no=8,missing=7,gain=11937.1,cover=379182
			7:[KW_REL<1.50774e-05] yes=15,no=16,missing=15,gain=1117.55,cover=27687.6
				15:leaf=-0.0514567,cover=24281.9
				16:leaf=-0.0208639,cover=3405.72
			8:[C_D_U_CATEGORY_GENDER_MACRO_MAX_COEC<0.0662559] yes=17,no=18,missing=18,gain=8837.37,cover=351494
				17:leaf=-0.0229014,cover=147835
				18:leaf=-0.00684121,cover=203660
		4:[D_CONID_COEC<0.00479351] yes=9,no=10,missing=9,gain=10429.4,cover=396970
			9:[KW_REL<1.50877e-05] yes=19,no=20,missing=19,gain=1925.31,cover=29030.9
				19:leaf=-0.0376813,cover=17928.7
				20:leaf=-0.0111848,cover=11102.2
			10:[D_PUBLISHER_COEC<0.0744906] yes=21,no=22,missing=22,gain=6758.94,cover=367939
				21:leaf=-0.000994137,cover=252809
				22:leaf=0.0136211,cover=115130
	2:[KW_REL<1.26915e-05] yes=5,no=6,missing=5,gain=4584.52,cover=183780
		5:[C_D_U_PUBLISHER_GENDER_COEC<0.0457077] yes=11,no=12,missing=11,gain=2237.7,cover=107426
			11:[C_D_U_CATEGORY_CITY_MICRO_MEAN_COEC<0.0617232] yes=23,no=24,missing=23,gain=523.911,cover=2765.56
				23:leaf=-0.0435498,cover=1322.75
				24:leaf=7.53435e-06,cover=1442.81
			12:[D_CONID_COEC<0.158514] yes=25,no=26,missing=26,gain=2040.2,cover=104661
				25:leaf=0.0175191,cover=50664
				26:leaf=0.0314888,cover=53996.7
		6:[D_CONID_COEC<0.169225] yes=13,no=14,missing=14,gain=1142.64,cover=76354.2
			13:[CAT_REL<0.192429] yes=27,no=28,missing=27,gain=448.498,cover=38894.8
				27:leaf=0.0296097,cover=25183.3
				28:leaf=0.0408532,cover=13711.5
			14:[D_PUBLISHER_COEC<0.0431883] yes=29,no=30,missing=30,gain=328.012,cover=37459.4
				29:leaf=-0.000334644,cover=381.134
				30:leaf=0.0462871,cover=37078.2
booster[9]:
0:[D_CONID_COEC<0.128104] yes=1,no=2,missing=1,gain=70578.3,cover=957728
	1:[CAT_REL<0.000414881] yes=3,no=4,missing=3,gain=22352.7,cover=789340
		3:[D_CONID_COEC<0.00279982] yes=7,no=8,missing=7,gain=10694.6,cover=384048
			7:[KW_REL<0.00565767] yes=15,no=16,missing=15,gain=973.778,cover=27406.2
				15:leaf=-0.0466356,cover=26726.2
				16:leaf=0.0139367,cover=679.99
			8:[KW_REL<1.02412e-05] yes=17,no=18,missing=17,gain=10232.7,cover=356642
				17:leaf=-0.0161835,cover=305567
				18:leaf=0.00799449,cover=51075.5
		4:[D_CONID_COEC<0.00479953] yes=9,no=10,missing=9,gain=10038.9,cover=405292
			9:[D_CONID_COEC<0.0095877] yes=19,no=20,missing=20,gain=723.113,cover=28731.6
				19:leaf=-0.0318162,cover=20261.9
				20:leaf=-0.0144165,cover=8469.74
			10:[D_CONID_COEC<0.116316] yes=21,no=22,missing=22,gain=6282.16,cover=376560
				21:leaf=0.00210855,cover=347566
				22:leaf=0.0263333,cover=28994.4
	2:[CAT_REL<0.00403382] yes=5,no=6,missing=5,gain=3596.43,cover=168388
		5:[D_CONID_COEC<0.168307] yes=11,no=12,missing=12,gain=1718.15,cover=72028
			11:[D_PUBLISHER_COEC<0.0380782] yes=23,no=24,missing=24,gain=549.051,cover=34206.4
				23:leaf=-0.051549,cover=328.433
				24:leaf=0.0133174,cover=33877.9
			12:[C_D_U_CATEGORY_AGE_MACRO_MAX_COEC<0.0459921] yes=25,no=26,missing=25,gain=934.799,cover=37821.7
				25:leaf=-0.0175225,cover=1087.14
				26:leaf=0.0295101,cover=36734.5
		6:[D_CONID_COEC<0.18229] yes=13,no=14,missing=14,gain=1556.91,cover=96359.8
			13:[KW_REL<1.49157e-05] yes=27,no=28,missing=27,gain=457.917,cover=61642.6
				27:leaf=0.0257619,cover=25982.1
				28:leaf=0.0344925,cover=35660.5
			14:[D_PUBLISHER_COEC<0.0528677] yes=29,no=30,missing=30,gain=942.132,cover=34717.2
				29:leaf=-0.00555726,cover=931.096
				30:leaf=0.0454208,cover=33786.1
booster[10]:
0:[D_CONID_COEC<0.129078] yes=1,no=2,missing=1,gain=61895,cover=957146
	1:[CAT_REL<0.000215327] yes=3,no=4,missing=3,gain=21048.2,cover=793084
		3:[D_PUBLISHER_COEC<0.0733194] yes=7,no=8,missing=8,gain=11227.6,cover=384752
			7:[D_CONID_COEC<0.100119] yes=15,no=16,missing=15,gain=8781.94,cover=265482
				15:leaf=-0.0225555,cover=243918
				16:leaf=0.0107321,cover=21565
			8:[D_CONID_COEC<0.0341129] yes=17,no=18,missing=17,gain=5894.94,cover=119270
				17:leaf=-0.0427616,cover=8027.14
				18:leaf=0.00160268,cover=111243
		4:[D_CONID_COEC<0.00479945] yes=9,no=10,missing=9,gain=9316.89,cover=408332
			9:[D_CONID_COEC<0.0095877] yes=19,no=20,missing=20,gain=742.62,cover=28718
				19:leaf=-0.0304752,cover=20276.7
				20:leaf=-0.0128238,cover=8441.3
			10:[D_PUBLISHER_COEC<0.0744906] yes=21,no=22,missing=22,gain=6278.6,cover=379614
				21:leaf=-0.000186107,cover=257244
				22:leaf=0.0135721,cover=122370
	2:[CAT_REL<0.00146523] yes=5,no=6,missing=5,gain=3414.27,cover=164062
		5:[D_CONID_COEC<0.168646] yes=11,no=12,missing=12,gain=1509.58,cover=70201.9
			11:[D_CATEGORY_MACRO_MAX_COEC<0.0933411] yes=23,no=24,missing=24,gain=494.335,cover=32997.2
				23:leaf=0.0071477,cover=20664
				24:leaf=0.0197975,cover=12333.2
			12:[C_D_U_CATEGORY_AGE_MACRO_MAX_COEC<0.0459921] yes=25,no=26,missing=25,gain=1177.63,cover=37204.6
				25:leaf=-0.0260611,cover=1032.69
				26:leaf=0.0280704,cover=36171.9
		6:[D_CONID_COEC<0.172443] yes=13,no=14,missing=14,gain=1399.13,cover=93859.9
			13:[DOC_AGE<0.5] yes=27,no=28,missing=27,gain=523.465,cover=51170.3
				27:leaf=-0.00188995,cover=1364.32
				28:leaf=0.029501,cover=49805.9
			14:[DOC_AGE<0.5] yes=29,no=30,missing=29,gain=607.638,cover=42689.6
				29:leaf=0.0131573,cover=1884.33
				30:leaf=0.0422073,cover=40805.3
booster[11]:
0:[D_CONID_COEC<0.129078] yes=1,no=2,missing=1,gain=58406.1,cover=955776
	1:[D_CONID_COEC<0.00134419] yes=3,no=4,missing=3,gain=17783.8,cover=791354
		3:[CAT_REL<0.00412995] yes=7,no=8,missing=7,gain=1759.22,cover=55462.1
			7:[KW_REL<1.6115e-05] yes=15,no=16,missing=15,gain=1115.66,cover=27281.8
				15:leaf=-0.0457474,cover=23823.8
				16:leaf=-0.0153501,cover=3457.98
			8:[KW_REL<0.0123101] yes=17,no=18,missing=17,gain=642.039,cover=28180.3
				17:leaf=-0.0257445,cover=26874.9
				18:leaf=0.0101549,cover=1305.47
		4:[CAT_REL<0.000635284] yes=9,no=10,missing=9,gain=15801.1,cover=735892
			9:[KW_REL<1.01846e-05] yes=19,no=20,missing=19,gain=9363.02,cover=357614
				19:leaf=-0.0143295,cover=306344
				20:leaf=0.00875625,cover=51270.9
			10:[D_CONID_COEC<0.116316] yes=21,no=22,missing=22,gain=5452.56,cover=378277
				21:leaf=0.0018651,cover=347884
				22:leaf=0.0239485,cover=30392.8
	2:[KW_REL<1.21258e-05] yes=5,no=6,missing=5,gain=3456.25,cover=164422
		5:[DOC_AGE<0.5] yes=11,no=12,missing=11,gain=1687.29,cover=95328.7
			11:[C_D_U_PUBLISHER_CITY_COEC<0.0588929] yes=23,no=24,missing=23,gain=470.651,cover=3411.24
				23:leaf=-0.0367566,cover=1326.84
				24:leaf=0.00132967,cover=2084.39
			12:[D_CONID_COEC<0.182262] yes=25,no=26,missing=26,gain=1341.45,cover=91917.5
				25:leaf=0.017842,cover=59347
				26:leaf=0.0304711,cover=32570.5
		6:[D_CONID_COEC<0.18208] yes=13,no=14,missing=14,gain=866.555,cover=69093.1
			13:[CAT_REL<0.104139] yes=27,no=28,missing=27,gain=309.15,cover=40287.9
				27:leaf=0.0264101,cover=19276.2
				28:leaf=0.0351833,cover=21011.7
			14:[D_PUBLISHER_COEC<0.0528677] yes=29,no=30,missing=30,gain=408.349,cover=28805.2
				29:leaf=0.000322476,cover=566.704
				30:leaf=0.0431899,cover=28238.5
booster[12]:
0:[D_CONID_COEC<0.133356] yes=1,no=2,missing=1,gain=50173.7,cover=952738
	1:[D_PUBLISHER_COEC<0.0744906] yes=3,no=4,missing=3,gain=18644.3,cover=804679
		3:[D_CONID_COEC<0.101873] yes=7,no=8,missing=7,gain=18855.8,cover=556895
			7:[CAT_REL<0.000757802] yes=15,no=16,missing=15,gain=10854.9,cover=507112
				15:leaf=-0.0202798,cover=251313
				16:leaf=-0.00564867,cover=255799
			8:[KW_REL<1.16137e-05] yes=17,no=18,missing=17,gain=1707.14,cover=49782.3
				17:leaf=0.0122136,cover=31241.1
				18:leaf=0.0313658,cover=18541.2
		4:[D_CONID_COEC<0.110313] yes=9,no=10,missing=9,gain=8471.54,cover=247784
			9:[D_CONID_COEC<0.0233884] yes=19,no=20,missing=20,gain=4571.6,cover=182481
				19:leaf=-0.0366704,cover=7736.48
				20:leaf=0.0026043,cover=174745
			10:[KW_REL<1.21258e-05] yes=21,no=22,missing=21,gain=1968.1,cover=65303.3
				21:leaf=0.0156601,cover=42943.9
				22:leaf=0.0339534,cover=22359.4
	2:[KW_REL<1.26915e-05] yes=5,no=6,missing=5,gain=2742.55,cover=148059
		5:[DOC_AGE<0.5] yes=11,no=12,missing=11,gain=1419.31,cover=85773.2
			11:[D_CATEGORY_MACRO_MAX_COEC<0.097487] yes=23,no=24,missing=23,gain=496.127,cover=3235.55
				23:leaf=-0.0213505,cover=2587.28
				24:leaf=0.0275351,cover=648.266
			12:[D_CONID_COEC<0.184414] yes=25,no=26,missing=26,gain=1242.09,cover=82537.7
				25:leaf=0.0174901,cover=51885.7
				26:leaf=0.0301856,cover=30651.9
		6:[D_CONID_COEC<0.192793] yes=13,no=14,missing=14,gain=680.49,cover=62285.4
			13:[CAT_REL<0.16262] yes=27,no=28,missing=27,gain=231.223,cover=40465.3
				27:leaf=0.0280332,cover=25856.3
				28:leaf=0.0359087,cover=14608.9
			14:[D_PUBLISHER_COEC<0.053587] yes=29,no=30,missing=30,gain=455.883,cover=21820.2
				29:leaf=-0.00792739,cover=450.44
				30:leaf=0.042885,cover=21369.7
booster[13]:
0:[D_CONID_COEC<0.124544] yes=1,no=2,missing=1,gain=50114.6,cover=950802
	1:[C_D_U_CATEGORY_AGE_MICRO_MEAN_COEC<0.0466848] yes=3,no=4,missing=4,gain=15103.3,cover=772707
		3:[D_CONID_COEC<0.0682305] yes=7,no=8,missing=7,gain=6925.64,cover=106165
			7:[CAT_REL<0.00122694] yes=15,no=16,missing=15,gain=2491.78,cover=87917.9
				15:leaf=-0.0356769,cover=53427
				16:leaf=-0.0184362,cover=34490.9
			8:[CAT_REL<0.0108259] yes=17,no=18,missing=17,gain=904.591,cover=18247.2
				17:leaf=-0.00343351,cover=11658.3
				18:leaf=0.0197429,cover=6588.83
		4:[D_CONID_COEC<0.00389801] yes=9,no=10,missing=10,gain=11261.5,cover=666542
			9:[KW_REL<1.46913e-05] yes=19,no=20,missing=19,gain=1506.73,cover=30080.7
				19:leaf=-0.0397004,cover=21593.4
				20:leaf=-0.0148331,cover=8487.28
			10:[CAT_REL<0.000714328] yes=21,no=22,missing=21,gain=8316.29,cover=636461
				21:leaf=-0.00747531,cover=297652
				22:leaf=0.00397951,cover=338809
	2:[KW_REL<1.39208e-05] yes=5,no=6,missing=5,gain=3355.54,cover=178095
		5:[C_D_U_PUBLISHER_AGE_COEC<0.0470116] yes=11,no=12,missing=11,gain=1818.23,cover=104587
			11:[D_CATEGORY_MICRO_MEAN_COEC<0.0596503] yes=23,no=24,missing=23,gain=489.403,cover=3283.18
				23:leaf=-0.0412154,cover=1378.04
				24:leaf=-0.00210624,cover=1905.13
			12:[D_CONID_COEC<0.185073] yes=25,no=26,missing=26,gain=1313.63,cover=101304
				25:leaf=0.0155408,cover=70853.5
				26:leaf=0.027959,cover=30450.8
		6:[D_CONID_COEC<0.169079] yes=13,no=14,missing=14,gain=885.641,cover=73507.9
			13:[CAT_REL<0.194582] yes=27,no=28,missing=27,gain=451.02,cover=37483.5
				27:leaf=0.0226197,cover=24366.9
				28:leaf=0.0341224,cover=13116.6
			14:[CAT_REL<0.0014362] yes=29,no=30,missing=29,gain=331.98,cover=36024.4
				29:leaf=0.0268824,cover=6001.97
				30:leaf=0.0397736,cover=30022.4
booster[14]:
0:[D_CONID_COEC<0.124462] yes=1,no=2,missing=1,gain=45555.7,cover=948330
	1:[D_CONID_COEC<0.00310557] yes=3,no=4,missing=3,gain=15110.7,cover=771293
		3:[KW_REL<1.27874e-05] yes=7,no=8,missing=7,gain=3176.57,cover=54479.3
			7:[CAT_REL<0.013663] yes=15,no=16,missing=15,gain=699.257,cover=40406.4
				15:leaf=-0.0432171,cover=24379.4
				16:leaf=-0.0297665,cover=16027
			8:[KW_REL<0.012575] yes=17,no=18,missing=17,gain=517.555,cover=14072.9
				17:leaf=-0.0137349,cover=12471.3
				18:leaf=0.0164508,cover=1601.61
		4:[CAT_REL<0.000238791] yes=9,no=10,missing=9,gain=11880.8,cover=716814
			9:[KW_REL<1.10092e-05] yes=19,no=20,missing=19,gain=7573.78,cover=348867
				19:leaf=-0.0130686,cover=298818
				20:leaf=0.00794753,cover=50048.9
			10:[D_PUBLISHER_COEC<0.0744906] yes=21,no=22,missing=22,gain=4559.62,cover=367947
				21:leaf=-0.000917111,cover=253399
				22:leaf=0.0111036,cover=114547
	2:[KW_REL<1.21258e-05] yes=5,no=6,missing=5,gain=3317.85,cover=177037
		5:[DOC_AGE<0.5] yes=11,no=12,missing=11,gain=1593.22,cover=104051
			11:[D_PUBLISHER_COEC<0.0716037] yes=23,no=24,missing=24,gain=441.152,cover=3847.18
				23:leaf=-0.0306647,cover=2018.39
				24:leaf=0.00323366,cover=1828.8
			12:[D_CONID_COEC<0.160197] yes=25,no=26,missing=26,gain=1517.6,cover=100203
				25:leaf=0.0121715,cover=50873.1
				26:leaf=0.0244799,cover=49330.3
		6:[D_CONID_COEC<0.168957] yes=13,no=14,missing=14,gain=742.757,cover=72986.5
			13:[CAT_REL<0.200882] yes=27,no=28,missing=27,gain=331.152,cover=37605.2
				27:leaf=0.0226971,cover=25001.9
				28:leaf=0.0326407,cover=12603.3
			14:[CAT_REL<0.00401] yes=29,no=30,missing=29,gain=287.539,cover=35381.3
				29:leaf=0.0261619,cover=6019.97
				30:leaf=0.0381675,cover=29361.3
booster[15]:
0:[D_CONID_COEC<0.13194] yes=1,no=2,missing=1,gain=37903.4,cover=947483
	1:[D_PUBLISHER_COEC<0.0744906] yes=3,no=4,missing=4,gain=15209,cover=797615
		3:[D_CONID_COEC<0.102136] yes=7,no=8,missing=7,gain=15622.5,cover=553191
			7:[CAT_REL<0.000755158] yes=15,no=16,missing=15,gain=8687.9,cover=505464
				15:leaf=-0.0181634,cover=249490
				16:leaf=-0.00505204,cover=255974
			8:[KW_REL<1.30366e-05] yes=17,no=18,missing=17,gain=1324.17,cover=47726.8
				17:leaf=0.0120003,cover=30001.3
				18:leaf=0.0292375,cover=17725.5
		4:[D_CONID_COEC<0.110402] yes=9,no=10,missing=9,gain=6656.01,cover=244424
			9:[D_CONID_COEC<0.0219097] yes=19,no=20,missing=20,gain=3277.7,cover=182748
				19:leaf=-0.0317262,cover=7239.67
				20:leaf=0.0026014,cover=175508
			10:[KW_REL<1.39208e-05] yes=21,no=22,missing=21,gain=1500.09,cover=61675.7
				21:leaf=0.0146427,cover=40719.4
				22:leaf=0.031107,cover=20956.3
	2:[CAT_REL<0.000884765] yes=5,no=6,missing=5,gain=2546.17,cover=149868
		5:[D_CATEGORY_MACRO_MAX_COEC<0.0946949] yes=11,no=12,missing=11,gain=1268.1,cover=65233.3
			11:[C_D_U_PUBLISHER_GENDER_COEC<0.0633336] yes=23,no=24,missing=23,gain=1055.43,cover=40620
				23:leaf=-0.0118042,cover=4803.15
				24:leaf=0.0131541,cover=35816.8
			12:[D_CONID_COEC<0.155819] yes=25,no=26,missing=26,gain=457.522,cover=24613.3
				25:leaf=0.0108381,cover=4859.58
				26:leaf=0.0279664,cover=19753.8
		6:[D_CONID_COEC<0.171406] yes=13,no=14,missing=14,gain=799.877,cover=84635
			13:[DOC_AGE<0.5] yes=27,no=28,missing=27,gain=370.471,cover=43283.7
				27:leaf=-0.00355768,cover=1184.01
				28:leaf=0.0247985,cover=42099.7
			14:[C_D_U_PUBLISHER_AGE_COEC<0.0466823] yes=29,no=30,missing=29,gain=497.502,cover=41351.4
				29:leaf=-0.0025061,cover=924.941
				30:leaf=0.0345783,cover=40426.4
booster[16]:
0:[D_CONID_COEC<0.131697] yes=1,no=2,missing=1,gain=35129.8,cover=944737
	1:[D_PUBLISHER_COEC<0.0744906] yes=3,no=4,missing=3,gain=13485.5,cover=795214
		3:[D_CONID_COEC<0.101873] yes=7,no=8,missing=7,gain=13741.5,cover=551955
			7:[CAT_REL<0.000841802] yes=15,no=16,missing=15,gain=8087.72,cover=504244
				15:leaf=-0.0173339,cover=248294
				16:leaf=-0.0046678,cover=255950
			8:[KW_REL<1.30366e-05] yes=17,no=18,missing=17,gain=1360.84,cover=47711.1
				17:leaf=0.010672,cover=29970.5
				18:leaf=0.0281447,cover=17740.6
		4:[D_CONID_COEC<0.094685] yes=9,no=10,missing=9,gain=14809.3,cover=243259
			9:[CAT_REL<0.0932922] yes=19,no=20,missing=19,gain=1830.71,cover=128828
				19:leaf=-0.0100431,cover=87879.1
				20:leaf=0.00275714,cover=40949.1
			10:[KW_REL<1.08694e-05] yes=21,no=22,missing=21,gain=2905.38,cover=114431
				21:leaf=0.0132609,cover=77668
				22:leaf=0.0303226,cover=36762.8
	2:[CAT_REL<0.0009235] yes=5,no=6,missing=5,gain=2554.22,cover=149523
		5:[C_D_U_CATEGORY_AGE_MACRO_MAX_COEC<0.0916377] yes=11,no=12,missing=11,gain=1276.69,cover=64966.2
			11:[C_D_U_PUBLISHER_AGE_COEC<0.0643532] yes=23,no=24,missing=23,gain=762.764,cover=38107.7
				23:leaf=-0.00823992,cover=5534.65
				24:leaf=0.0118358,cover=32573.1
			12:[D_CONID_COEC<0.196187] yes=25,no=26,missing=26,gain=488.306,cover=26858.5
				25:leaf=0.0177051,cover=16251.5
				26:leaf=0.0314991,cover=10607
		6:[DOC_AGE<0.5] yes=13,no=14,missing=13,gain=775.193,cover=84556.8
			13:[C_D_U_PUBLISHER_CITY_COEC<0.0643043] yes=27,no=28,missing=27,gain=267.411,cover=3026.29
				27:leaf=-0.0136484,cover=1329.32
				28:leaf=0.0162894,cover=1696.97
			14:[D_CONID_COEC<0.195178] yes=29,no=30,missing=30,gain=920.829,cover=81530.6
				29:leaf=0.0255494,cover=58235.8
				30:leaf=0.0373137,cover=23294.7
booster[17]:
0:[D_CONID_COEC<0.124462] yes=1,no=2,missing=1,gain=34091.2,cover=943697
	1:[D_CONID_COEC<0.00209618] yes=3,no=4,missing=3,gain=12717.9,cover=769200
		3:[KW_REL<1.46913e-05] yes=7,no=8,missing=7,gain=2931.69,cover=53792.8
			7:[DOC_AGE<0.5] yes=15,no=16,missing=15,gain=574.809,cover=39791.6
				15:leaf=-0.0270477,cover=14826.6
				16:leaf=-0.0394817,cover=24964.9
			8:[D_CONID_COEC<0.00131861] yes=17,no=18,missing=18,gain=455.404,cover=14001.2
				17:leaf=-0.014311,cover=9640.8
				18:leaf=0.00516062,cover=4360.42
		4:[C_D_U_CATEGORY_AGE_MACRO_MAX_COEC<0.0466848] yes=9,no=10,missing=10,gain=9696.93,cover=715408
			9:[D_CONID_COEC<0.0682925] yes=19,no=20,missing=20,gain=5572.82,cover=103195
				19:leaf=-0.0225978,cover=83162.6
				20:leaf=0.00677896,cover=20032
			10:[CAT_REL<0.309011] yes=21,no=22,missing=21,gain=5467.65,cover=612213
				21:leaf=-0.00179677,cover=558191
				22:leaf=0.014862,cover=54021.8
	2:[KW_REL<1.21258e-05] yes=5,no=6,missing=5,gain=2375.01,cover=174496
		5:[C_D_U_PUBLISHER_GENDER_COEC<0.0458931] yes=11,no=12,missing=11,gain=1518.83,cover=103597
			11:[D_CATEGORY_MICRO_MEAN_COEC<0.0585943] yes=23,no=24,missing=23,gain=301.913,cover=2793.37
				23:leaf=-0.0396056,cover=1237.9
				24:leaf=-0.00651753,cover=1555.47
			12:[D_CONID_COEC<0.181961] yes=25,no=26,missing=26,gain=1266.93,cover=100804
				25:leaf=0.0122442,cover=67507
				26:leaf=0.0241627,cover=33297.1
		6:[D_CONID_COEC<0.18208] yes=13,no=14,missing=14,gain=760.165,cover=70899
			13:[CAT_REL<0.109803] yes=27,no=28,missing=27,gain=330.087,cover=44265
				27:leaf=0.0185578,cover=21346.6
				28:leaf=0.0272012,cover=22918.3
			14:[C_D_U_PUBLISHER_AGE_COEC<0.0578543] yes=29,no=30,missing=29,gain=348.71,cover=26634
				29:leaf=0.00230759,cover=854.969
				30:leaf=0.0347677,cover=25779
booster[18]:
0:[D_CONID_COEC<0.124548] yes=1,no=2,missing=1,gain=30325.1,cover=942452
	1:[CAT_REL<0.000726391] yes=3,no=4,missing=3,gain=10939.2,cover=769483
		3:[C_D_U_CATEGORY_AGE_MICRO_MAX_COEC<0.0445895] yes=7,no=8,missing=8,gain=7688.76,cover=372390
			7:[D_CONID_COEC<0.0594334] yes=15,no=16,missing=15,gain=5053.1,cover=60466.1
				15:leaf=-0.0352645,cover=44757.5
				16:leaf=-0.00230321,cover=15708.6
			8:[D_CONID_COEC<0.00927507] yes=17,no=18,missing=18,gain=4430.27,cover=311923
				17:leaf=-0.034476,cover=14228.3
				18:leaf=-0.00591763,cover=297695
		4:[D_CONID_COEC<0.00476194] yes=9,no=10,missing=10,gain=4815.41,cover=397093
			9:[KW_REL<0.00938315] yes=19,no=20,missing=19,gain=589.925,cover=19640.2
				19:leaf=-0.0248144,cover=18427.7
				20:leaf=0.0111825,cover=1212.54
			10:[D_PUBLISHER_COEC<0.0744906] yes=21,no=22,missing=21,gain=3578.15,cover=377453
				21:leaf=-0.00045538,cover=260742
				22:leaf=0.010078,cover=116711
	2:[KW_REL<1.21258e-05] yes=5,no=6,missing=5,gain=2525.89,cover=172969
		5:[DOC_AGE<0.5] yes=11,no=12,missing=11,gain=1321.95,cover=102774
			11:[D_CATEGORY_MACRO_MAX_COEC<0.097487] yes=23,no=24,missing=23,gain=380.424,cover=3852.14
				23:leaf=-0.0219466,cover=3189.49
				24:leaf=0.0196653,cover=662.655
			12:[D_CONID_COEC<0.21209] yes=25,no=26,missing=26,gain=1122.61,cover=98921.5
				25:leaf=0.0128839,cover=84694.6
				26:leaf=0.0280631,cover=14227
		6:[D_CONID_COEC<0.193589] yes=13,no=14,missing=14,gain=687.8,cover=70195.4
			13:[CAT_REL<0.263061] yes=27,no=28,missing=27,gain=250.592,cover=50024
				27:leaf=0.0212575,cover=39284.2
				28:leaf=0.0298794,cover=10739.8
			14:[D_PUBLISHER_COEC<0.053599] yes=29,no=30,missing=30,gain=403.671,cover=20171.4
				29:leaf=-0.0136811,cover=432.993
				30:leaf=0.0350958,cover=19738.4
booster[19]:
0:[D_CONID_COEC<0.124462] yes=1,no=2,missing=1,gain=26790.9,cover=940721
	1:[C_D_U_CATEGORY_AGE_MICRO_MEAN_COEC<0.0452691] yes=3,no=4,missing=4,gain=10837.5,cover=769211
		3:[KW_REL<1.27175e-05] yes=7,no=8,missing=7,gain=4292.75,cover=100724
			7:[D_CONID_COEC<0.0601504] yes=15,no=16,missing=15,gain=7272.1,cover=82677.8
				15:leaf=-0.0326718,cover=61653.3
				16:leaf=0.00138092,cover=21024.5
			8:[D_CONID_COEC<0.0492693] yes=17,no=18,missing=17,gain=1503.03,cover=18045.8
				17:leaf=-0.00906813,cover=10688.2
				18:leaf=0.0202946,cover=7357.6
		4:[D_CONID_COEC<0.00606743] yes=9,no=10,missing=10,gain=8113.24,cover=668488
			9:[KW_REL<1.27874e-05] yes=19,no=20,missing=19,gain=992.079,cover=29470.8
				19:leaf=-0.0330584,cover=21029.2
				20:leaf=-0.0127648,cover=8441.68
			10:[D_CONID_COEC<0.116511] yes=21,no=22,missing=21,gain=5645.48,cover=639017
				21:leaf=-0.00155885,cover=603221
				22:leaf=0.0188781,cover=35795.8
	2:[KW_REL<1.21258e-05] yes=5,no=6,missing=5,gain=2396.27,cover=171509
		5:[D_CATEGORY_MACRO_MAX_COEC<0.0949867] yes=11,no=12,missing=11,gain=1336.59,cover=102017
			11:[DOC_AGE<0.5] yes=23,no=24,missing=23,gain=1215.18,cover=71614
				23:leaf=-0.0207936,cover=3194.27
				24:leaf=0.0107532,cover=68419.7
			12:[D_CONID_COEC<0.199069] yes=25,no=26,missing=26,gain=620.216,cover=30403.1
				25:leaf=0.016232,cover=18762.3
				26:leaf=0.0309252,cover=11640.8
		6:[D_CONID_COEC<0.19515] yes=13,no=14,missing=14,gain=664.677,cover=69492.4
			13:[CAT_REL<0.202114] yes=27,no=28,missing=27,gain=266.153,cover=50397.8
				27:leaf=0.0196954,cover=35033.5
				28:leaf=0.0275911,cover=15364.3
			14:[C_D_U_PUBLISHER_AGE_COEC<0.0582962] yes=29,no=30,missing=29,gain=378.128,cover=19094.6
				29:leaf=-0.00751769,cover=557.061
				30:leaf=0.0342788,cover=18537.5
booster[20]:
0:[D_CONID_COEC<0.128642] yes=1,no=2,missing=1,gain=23720.6,cover=939499
	1:[D_PUBLISHER_COEC<0.0744906] yes=3,no=4,missing=3,gain=10184.5,cover=783325
		3:[D_CONID_COEC<0.101873] yes=7,no=8,missing=7,gain=10729,cover=546964
			7:[CAT_REL<0.000688753] yes=15,no=16,missing=15,gain=6679.99,cover=502776
				15:leaf=-0.0151412,cover=246063
				16:leaf=-0.00361203,cover=256713
			8:[CAT_REL<0.0482087] yes=17,no=18,missing=17,gain=947.918,cover=44188.1
				17:leaf=0.0101063,cover=25272
				18:leaf=0.0249071,cover=18916.1
		4:[D_CONID_COEC<0.110402] yes=9,no=10,missing=9,gain=4818.34,cover=236361
			9:[C_D_U_CATEGORY_GENDER_MACRO_MAX_COEC<0.0318815] yes=19,no=20,missing=20,gain=1811.92,cover=182312
				19:leaf=-0.040157,cover=2590.28
				20:leaf=0.00195358,cover=179722
			10:[KW_REL<1.2801e-05] yes=21,no=22,missing=21,gain=1104.75,cover=54048.7
				21:leaf=0.0132259,cover=35690.7
				22:leaf=0.0283204,cover=18358
	2:[CAT_REL<0.000884765] yes=5,no=6,missing=5,gain=2207.33,cover=156174
		5:[D_CATEGORY_MICRO_MAX_COEC<0.0932773] yes=11,no=12,missing=11,gain=1058.84,cover=68333.4
			11:[D_PUBLISHER_COEC<0.0757803] yes=23,no=24,missing=24,gain=866.285,cover=41851.1
				23:leaf=-0.00686749,cover=9711.25
				24:leaf=0.0101729,cover=32139.9
			12:[D_CONID_COEC<0.158615] yes=25,no=26,missing=26,gain=313.908,cover=26482.3
				25:leaf=0.00983959,cover=6920.25
				26:leaf=0.022232,cover=19562
		6:[IMAGE_COUNT<0.5] yes=13,no=14,missing=13,gain=832.921,cover=87840.8
			13:[CAT_REL<0.0139216] yes=27,no=28,missing=27,gain=105.683,cover=344.996
				27:leaf=0.0360123,cover=29.034
				28:leaf=-0.0626669,cover=315.962
			14:[D_CONID_COEC<0.200024] yes=29,no=30,missing=30,gain=718.01,cover=87495.8
				29:leaf=0.0209709,cover=67227.2
				30:leaf=0.0317084,cover=20268.6
booster[21]:
0:[D_CONID_COEC<0.128642] yes=1,no=2,missing=1,gain=22325.5,cover=936819
	1:[D_CONID_COEC<0.00279982] yes=3,no=4,missing=3,gain=10033.3,cover=780917
		3:[KW_REL<1.46913e-05] yes=7,no=8,missing=7,gain=2904.27,cover=52570.7
			7:[CAT_REL<0.00644176] yes=15,no=16,missing=15,gain=434.885,cover=38576.7
				15:leaf=-0.0361885,cover=22112.4
				16:leaf=-0.0254507,cover=16464.3
			8:[C_D_U_PUBLISHER_AGE_COEC<0.0804192] yes=17,no=18,missing=18,gain=406.975,cover=13994
				17:leaf=-0.00814966,cover=12328.8
				18:leaf=0.018178,cover=1665.27
		4:[C_D_U_CATEGORY_AGE_MICRO_MEAN_COEC<0.0464899] yes=9,no=10,missing=10,gain=7796.6,cover=728346
			9:[D_CONID_COEC<0.0685879] yes=19,no=20,missing=20,gain=4086.63,cover=90558.8
				19:leaf=-0.0209605,cover=72389.4
				20:leaf=0.00556147,cover=18169.4
			10:[CAT_REL<0.000775192] yes=21,no=22,missing=21,gain=4955.28,cover=637788
				21:leaf=-0.00468427,cover=296866
				22:leaf=0.00415129,cover=340921
	2:[CAT_REL<0.00265268] yes=5,no=6,missing=5,gain=1803.1,cover=155902
		5:[D_CONID_COEC<0.177012] yes=11,no=12,missing=12,gain=955.69,cover=68348.9
			11:[D_PUBLISHER_COEC<0.0409768] yes=23,no=24,missing=24,gain=500.794,cover=38290.1
				23:leaf=-0.0403587,cover=573.684
				24:leaf=0.00667128,cover=37716.4
			12:[C_D_U_CATEGORY_GENDER_MACRO_MAX_COEC<0.0446471] yes=25,no=26,missing=25,gain=801.442,cover=30058.8
				25:leaf=-0.0351568,cover=694.999
				26:leaf=0.0191336,cover=29363.8
		6:[D_CONID_COEC<0.153944] yes=13,no=14,missing=14,gain=732.332,cover=87552.8
			13:[IMAGE_COUNT<0.5] yes=27,no=28,missing=27,gain=240.828,cover=35837
				27:leaf=-0.0518187,cover=127.413
				28:leaf=0.0167927,cover=35709.6
			14:[DOC_AGE<0.5] yes=29,no=30,missing=29,gain=447.049,cover=51715.8
				29:leaf=0.00358214,cover=2160.42
				30:leaf=0.026819,cover=49555.4
booster[22]:
0:[D_CONID_COEC<0.13194] yes=1,no=2,missing=1,gain=19262.9,cover=934924
	1:[C_D_U_CATEGORY_AGE_MICRO_MEAN_COEC<0.0464899] yes=3,no=4,missing=4,gain=9338.27,cover=791278
		3:[D_CONID_COEC<0.0676725] yes=7,no=8,missing=7,gain=4662.63,cover=103075
			7:[KW_REL<1.20416e-05] yes=15,no=16,missing=15,gain=3983.54,cover=84036.4
				15:leaf=-0.0273151,cover=68747.2
				16:leaf=0.000902371,cover=15289.1
			8:[IMAGE_COUNT<0.5] yes=17,no=18,missing=17,gain=670.538,cover=19038.5
				17:leaf=-0.0658313,cover=325.358
				18:leaf=0.006461,cover=18713.2
		4:[D_CONID_COEC<0.00606743] yes=9,no=10,missing=10,gain=6718.72,cover=688203
			9:[KW_REL<1.27874e-05] yes=19,no=20,missing=19,gain=576.442,cover=28660.6
				19:leaf=-0.029188,cover=20414.7
				20:leaf=-0.0135215,cover=8245.88
			10:[D_PUBLISHER_COEC<0.0744906] yes=21,no=22,missing=21,gain=4976.11,cover=659543
				21:leaf=-0.00306518,cover=435736
				22:leaf=0.00610731,cover=223807
	2:[KW_REL<1.21258e-05] yes=5,no=6,missing=5,gain=1701.29,cover=143646
		5:[C_D_U_PUBLISHER_AGE_COEC<0.0466828] yes=11,no=12,missing=11,gain=924.672,cover=84827.9
			11:[WORD_COUNT<1934] yes=23,no=24,missing=23,gain=316.28,cover=2706.45
				23:leaf=-0.03691,cover=1112.58
				24:leaf=-0.00217895,cover=1593.87
			12:[D_CONID_COEC<0.184495] yes=25,no=26,missing=26,gain=761.517,cover=82121.4
				25:leaf=0.00961612,cover=52487.2
				26:leaf=0.0196421,cover=29634.3
		6:[D_CONID_COEC<0.165227] yes=13,no=14,missing=14,gain=443.814,cover=58818.1
			13:[CAT_REL<0.133188] yes=27,no=28,missing=27,gain=201.298,cover=24115.9
				27:leaf=0.0138919,cover=12935
				28:leaf=0.023055,cover=11180.9
			14:[WORD_COUNT<799.5] yes=29,no=30,missing=29,gain=229.169,cover=34702.2
				29:leaf=0.00982646,cover=1846.32
				30:leaf=0.027937,cover=32855.9
booster[23]:
0:[D_CONID_COEC<0.124462] yes=1,no=2,missing=1,gain=19403.6,cover=934830
	1:[C_D_U_CATEGORY_AGE_MACRO_MEAN_COEC<0.0466848] yes=3,no=4,missing=4,gain=7966.14,cover=765429
		3:[KW_REL<1.20416e-05] yes=7,no=8,missing=7,gain=4205.56,cover=102699
			7:[D_CONID_COEC<0.067593] yes=15,no=16,missing=15,gain=3283.85,cover=83681.9
				15:leaf=-0.0255548,cover=68754.8
				16:leaf=0.000317624,cover=14927.1
			8:[D_CONID_COEC<0.0491058] yes=17,no=18,missing=17,gain=1388.54,cover=19016.6
				17:leaf=-0.00635395,cover=11057.7
				18:leaf=0.0210324,cover=7958.92
		4:[D_CONID_COEC<0.00408569] yes=9,no=10,missing=10,gain=5737,cover=662730
			9:[KW_REL<1.56376e-05] yes=19,no=20,missing=19,gain=565.409,cover=28074.9
				19:leaf=-0.0278159,cover=19902.3
				20:leaf=-0.0121937,cover=8172.6
			10:[D_PUBLISHER_COEC<0.0323473] yes=21,no=22,missing=22,gain=5262.05,cover=634655
				21:leaf=-0.032386,cover=12427.7
				22:leaf=0.000471053,cover=622228
	2:[CAT_REL<0.00320137] yes=5,no=6,missing=5,gain=2018.2,cover=169401
		5:[D_CONID_COEC<0.157584] yes=11,no=12,missing=12,gain=978.729,cover=73771.7
			11:[WORD_COUNT<1334] yes=23,no=24,missing=23,gain=492.888,cover=32310.4
				23:leaf=-0.00419442,cover=14143.5
				24:leaf=0.00825313,cover=18166.9
			12:[C_D_U_CATEGORY_AGE_MACRO_MEAN_COEC<0.0483092] yes=25,no=26,missing=25,gain=547.946,cover=41461.3
				25:leaf=-0.0148597,cover=1538.62
				26:leaf=0.0155408,cover=39922.7
		6:[DOC_AGE<0.5] yes=13,no=14,missing=13,gain=783.188,cover=95629.2
			13:[C_D_U_PUBLISHER_CITY_COEC<0.0621552] yes=27,no=28,missing=27,gain=262.068,cover=3431.16
				27:leaf=-0.0203266,cover=1344.43
				28:leaf=0.0079716,cover=2086.72
			14:[D_CONID_COEC<0.192747] yes=29,no=30,missing=30,gain=802.673,cover=92198.1
				29:leaf=0.0185399,cover=69475
				30:leaf=0.0293666,cover=22723.1
booster[24]:
0:[D_CONID_COEC<0.124548] yes=1,no=2,missing=1,gain=16251.5,cover=930914
	1:[D_PUBLISHER_COEC<0.0744906] yes=3,no=4,missing=4,gain=7672.79,cover=764358
		3:[KW_REL<1.02412e-05] yes=7,no=8,missing=7,gain=24508,cover=537962
			7:[D_CONID_COEC<0.101874] yes=15,no=16,missing=15,gain=5848.68,cover=374043
				15:leaf=-0.0150142,cover=349567
				16:leaf=0.0102681,cover=24476.3
			8:[D_CONID_COEC<0.0981219] yes=17,no=18,missing=17,gain=3485.9,cover=163919
				17:leaf=0.00724017,cover=145606
				18:leaf=0.0303856,cover=18312.9
		4:[D_CONID_COEC<0.0917819] yes=9,no=10,missing=9,gain=12995.7,cover=226396
			9:[CAT_REL<0.0813807] yes=19,no=20,missing=19,gain=1156.09,cover=119548
				19:leaf=-0.0101828,cover=78816.3
				20:leaf=0.000191507,cover=40732
			10:[KW_REL<1.08694e-05] yes=21,no=22,missing=21,gain=2268.28,cover=106848
				21:leaf=0.0123523,cover=72672.7
				22:leaf=0.0279718,cover=34175
	2:[CAT_REL<0.0004915] yes=5,no=6,missing=5,gain=1776.24,cover=166556
		5:[D_CATEGORY_MACRO_MAX_COEC<0.0936909] yes=11,no=12,missing=11,gain=802.57,cover=72720.3
			11:[D_PUBLISHER_COEC<0.0455075] yes=23,no=24,missing=24,gain=584.221,cover=46284.5
				23:leaf=-0.0246809,cover=1668.86
				24:leaf=0.00544225,cover=44615.6
			12:[D_CONID_COEC<0.217881] yes=25,no=26,missing=26,gain=318.382,cover=26435.8
				25:leaf=0.0122863,cover=20388.7
				26:leaf=0.0253511,cover=6047.13
		6:[D_CONID_COEC<0.174949] yes=13,no=14,missing=14,gain=798.375,cover=93836
			13:[C_D_U_PUBLISHER_GENDER_COEC<0.0388037] yes=27,no=28,missing=27,gain=354.758,cover=59068.9
				27:leaf=-0.0241116,cover=567.586
				28:leaf=0.0155796,cover=58501.3
			14:[C_D_U_PUBLISHER_AGE_COEC<0.0567193] yes=29,no=30,missing=29,gain=502.187,cover=34767
				29:leaf=0.000223451,cover=1969.13
				30:leaf=0.0262207,cover=32797.9
booster[25]:
0:[D_CONID_COEC<0.124329] yes=1,no=2,missing=1,gain=15739.5,cover=930400
	1:[D_CONID_COEC<0.00136824] yes=3,no=4,missing=3,gain=7011.42,cover=762808
		3:[CAT_REL<0.0513966] yes=7,no=8,missing=7,gain=1070.47,cover=51367.9
			7:[D_CATEGORY_MACRO_MAX_COEC<0.0673868] yes=15,no=16,missing=16,gain=623.058,cover=32434.6
				15:leaf=-0.0325004,cover=17992.4
				16:leaf=-0.018554,cover=14442.1
			8:[D_CONID_COEC<0.00255936] yes=17,no=18,missing=18,gain=432.867,cover=18933.3
				17:leaf=-0.0162755,cover=13256.5
				18:leaf=0.000224623,cover=5676.78
		4:[CAT_REL<0.000782944] yes=9,no=10,missing=9,gain=5557.11,cover=711440
			9:[KW_REL<1.01846e-05] yes=19,no=20,missing=19,gain=6347.69,cover=344271
				19:leaf=-0.00902323,cover=293901
				20:leaf=0.0101873,cover=50369.9
			10:[D_PUBLISHER_COEC<0.0323473] yes=21,no=22,missing=22,gain=3182.63,cover=367169
				21:leaf=-0.0245401,cover=10469.8
				22:leaf=0.00342762,cover=356699
	2:[KW_REL<1.21258e-05] yes=5,no=6,missing=5,gain=1684.58,cover=167592
		5:[IMAGE_COUNT<0.5] yes=11,no=12,missing=11,gain=1184.63,cover=100773
			11:[C_D_U_PUBLISHER_CITY_COEC<0.183229] yes=23,no=24,missing=23,gain=67.3025,cover=504.365
				23:leaf=-0.0699406,cover=486.69
				24:leaf=0.0280359,cover=17.6758
			12:[D_CATEGORY_MACRO_MAX_COEC<0.0949867] yes=25,no=26,missing=25,gain=913.426,cover=100268
				25:leaf=0.0071927,cover=70578.1
				26:leaf=0.0176459,cover=29690.4
		6:[WORD_COUNT<1341.5] yes=13,no=14,missing=13,gain=511.446,cover=66819.6
			13:[CAT_REL<0.200626] yes=27,no=28,missing=27,gain=374.583,cover=23672.8
				27:leaf=0.00889326,cover=13755.2
				28:leaf=0.0216418,cover=9917.62
			14:[D_CONID_COEC<0.200024] yes=29,no=30,missing=30,gain=310.477,cover=43146.8
				29:leaf=0.0206454,cover=30474.6
				30:leaf=0.0299609,cover=12672.1
booster[26]:
0:[D_CONID_COEC<0.128642] yes=1,no=2,missing=1,gain=13815.2,cover=927461
	1:[C_D_U_CATEGORY_AGE_MACRO_MAX_COEC<0.0474588] yes=3,no=4,missing=4,gain=6305.48,cover=776286
		3:[D_CONID_COEC<0.0721827] yes=7,no=8,missing=7,gain=3266.53,cover=116168
			7:[CAT_REL<0.0796829] yes=15,no=16,missing=15,gain=1679.04,cover=98942.7
				15:leaf=-0.0196956,cover=83876.1
				16:leaf=-0.00156685,cover=15066.6
			8:[CAT_REL<0.00578894] yes=17,no=18,missing=17,gain=647.681,cover=17225.2
				17:leaf=-0.00131074,cover=10281.2
				18:leaf=0.0184537,cover=6944.03
		4:[D_CONID_COEC<0.00408572] yes=9,no=10,missing=10,gain=4558.52,cover=660118
			9:[KW_REL<1.27874e-05] yes=19,no=20,missing=19,gain=631.565,cover=27477.4
				19:leaf=-0.0256408,cover=19380.3
				20:leaf=-0.00901211,cover=8097.13
			10:[CAT_REL<0.301076] yes=21,no=22,missing=21,gain=4590.58,cover=632641
				21:leaf=-0.00131565,cover=572759
				22:leaf=0.0132338,cover=59881.8
	2:[CAT_REL<0.00361895] yes=5,no=6,missing=5,gain=1679.74,cover=151175
		5:[D_CATEGORY_MICRO_MAX_COEC<0.0933411] yes=11,no=12,missing=11,gain=779.088,cover=66778.3
			11:[D_PUBLISHER_COEC<0.0670445] yes=23,no=24,missing=24,gain=637.157,cover=41168
				23:leaf=-0.0112123,cover=6141.59
				24:leaf=0.00624614,cover=35026.4
			12:[D_CONID_COEC<0.206669] yes=25,no=26,missing=26,gain=304.77,cover=25610.3
				25:leaf=0.0112321,cover=18094.8
				26:leaf=0.0232118,cover=7515.48
		6:[D_CATEGORY_MACRO_MAX_COEC<0.0952289] yes=13,no=14,missing=14,gain=623.302,cover=84396.8
			13:[DOC_AGE<0.5] yes=27,no=28,missing=27,gain=544.115,cover=60228.9
				27:leaf=-0.007156,cover=2476.31
				28:leaf=0.0167763,cover=57752.6
			14:[D_CONID_COEC<0.275233] yes=29,no=30,missing=30,gain=273.792,cover=24167.9
				29:leaf=0.0232376,cover=21022.4
				30:leaf=0.0390595,cover=3145.44
booster[27]:
0:[D_PUBLISHER_COEC<0.0744906] yes=1,no=2,missing=1,gain=13032.4,cover=926905
	1:[KW_REL<1.00643e-05] yes=3,no=4,missing=3,gain=22397.7,cover=577371
		3:[D_CONID_COEC<0.101874] yes=7,no=8,missing=7,gain=7169.39,cover=395725
			7:[IMAGE_COUNT<0.5] yes=15,no=16,missing=15,gain=2988.99,cover=347658
				15:leaf=-0.040282,cover=10303.9
				16:leaf=-0.012945,cover=337354
			8:[D_PUBLISHER_COEC<0.0486372] yes=17,no=18,missing=18,gain=924.614,cover=48067.1
				17:leaf=-0.0109023,cover=6365.17
				18:leaf=0.00955577,cover=41701.9
		4:[D_CONID_COEC<0.0981219] yes=9,no=10,missing=9,gain=2881.58,cover=181646
			9:[CAT_REL<0.163774] yes=19,no=20,missing=19,gain=1590.7,cover=145988
				19:leaf=0.00360863,cover=105498
				20:leaf=0.0152667,cover=40489.8
			10:[D_CONID_COEC<0.116772] yes=21,no=22,missing=22,gain=515.218,cover=35657.9
				21:leaf=0.0302985,cover=13717.3
				22:leaf=0.0179431,cover=21940.6
	2:[D_CONID_COEC<0.110402] yes=5,no=6,missing=5,gain=6382.67,cover=349534
		5:[D_CONID_COEC<0.0204501] yes=11,no=12,missing=12,gain=1676.79,cover=181319
			11:[D_CONID_COEC<0.00228051] yes=23,no=24,missing=24,gain=545.866,cover=6449.47
				23:leaf=-0.0140932,cover=4438.23
				24:leaf=-0.0454939,cover=2011.24
			12:[CAT_REL<0.202001] yes=25,no=26,missing=25,gain=1397.46,cover=174870
				25:leaf=-2.78259e-05,cover=143363
				26:leaf=0.0116019,cover=31507.3
		6:[KW_REL<1.21258e-05] yes=13,no=14,missing=13,gain=1381.56,cover=168214
			13:[C_D_U_CATEGORY_AGE_MACRO_MAX_COEC<0.100671] yes=27,no=28,missing=28,gain=715.251,cover=105453
				27:leaf=0.0089208,cover=81210
				28:leaf=0.0187075,cover=24243
			14:[WORD_COUNT<1338.5] yes=29,no=30,missing=29,gain=509.546,cover=62761.4
				29:leaf=0.0148794,cover=24342.2
				30:leaf=0.0241268,cover=38419.2
booster[28]:
0:[D_PUBLISHER_COEC<0.0744906] yes=1,no=2,missing=1,gain=11464.7,cover=924791
	1:[D_CONID_COEC<0.0981219] yes=3,no=4,missing=3,gain=13662.5,cover=576883
		3:[CAT_REL<0.000755158] yes=7,no=8,missing=7,gain=3780.81,cover=484863
			7:[D_CONID_COEC<0.00650833] yes=15,no=16,missing=16,gain=2431.16,cover=236172
				15:leaf=-0.0312765,cover=15694.4
				16:leaf=-0.0109095,cover=220478
			8:[D_CONID_COEC<0.0958857] yes=17,no=18,missing=17,gain=1772.68,cover=248690
				17:leaf=-0.00400254,cover=244194
				18:leaf=0.0276771,cover=4496.13
		4:[DOC_AGE<0.5] yes=9,no=10,missing=9,gain=1656.3,cover=92020.6
			9:[C_D_U_CATEGORY_GENDER_MICRO_MAX_COEC<0.0756633] yes=19,no=20,missing=19,gain=252.536,cover=6610.06
				19:leaf=-0.0183832,cover=4137.28
				20:leaf=0.00181206,cover=2472.78
			10:[CAT_REL<0.0502292] yes=21,no=22,missing=21,gain=1252.48,cover=85410.5
				21:leaf=0.00986075,cover=48456.7
				22:leaf=0.022082,cover=36953.8
	2:[D_CONID_COEC<0.110313] yes=5,no=6,missing=5,gain=5935.91,cover=347908
		5:[CAT_REL<0.17655] yes=11,no=12,missing=11,gain=1546.2,cover=180521
			11:[D_CONID_COEC<0.033964] yes=23,no=24,missing=24,gain=4057.43,cover=143312
				23:leaf=-0.0341731,cover=8928.06
				24:leaf=0.000633547,cover=134384
			12:[D_CONID_COEC<0.0704912] yes=25,no=26,missing=26,gain=3592.37,cover=37208.9
				25:leaf=-0.0113098,cover=12989.1
				26:leaf=0.0212812,cover=24219.8
		6:[KW_REL<1.24148e-05] yes=13,no=14,missing=13,gain=1394.98,cover=167387
			13:[D_CONID_COEC<0.215108] yes=27,no=28,missing=28,gain=741.415,cover=104845
				27:leaf=0.00896838,cover=94380.3
				28:leaf=0.0229953,cover=10464.9
			14:[WORD_COUNT<1338.5] yes=29,no=30,missing=29,gain=461.511,cover=62542
				29:leaf=0.0144386,cover=24431.6
				30:leaf=0.0232433,cover=38110.4
booster[29]:
0:[D_PUBLISHER_COEC<0.0744906] yes=1,no=2,missing=1,gain=10868.2,cover=923143
	1:[D_CONID_COEC<0.101873] yes=3,no=4,missing=3,gain=8760.02,cover=574667
		3:[CAT_REL<0.200305] yes=7,no=8,missing=7,gain=4802.86,cover=495626
			7:[IMAGE_COUNT<0.5] yes=15,no=16,missing=15,gain=3238.57,cover=431134
				15:leaf=-0.0344362,cover=11775.3
				16:leaf=-0.00784996,cover=419359
			8:[D_CONID_COEC<0.0865038] yes=17,no=18,missing=17,gain=3676.3,cover=64491.2
				17:leaf=0.000812607,cover=54070.4
				18:leaf=0.033245,cover=10420.8
		4:[DOC_AGE<0.5] yes=9,no=10,missing=9,gain=1406.23,cover=79041.1
			9:[C_D_U_CATEGORY_CITY_MICRO_MAX_COEC<0.0643265] yes=19,no=20,missing=19,gain=314.926,cover=5945.19
				19:leaf=-0.0232439,cover=3075.96
				20:leaf=-0.000216188,cover=2869.23
			10:[IMAGE_COUNT<0.5] yes=21,no=22,missing=21,gain=1136.36,cover=73095.9
				21:leaf=-0.038293,cover=1056.91
				22:leaf=0.0139084,cover=72039
	2:[D_CONID_COEC<0.108396] yes=5,no=6,missing=5,gain=5865.61,cover=348476
		5:[D_CONID_COEC<0.0233884] yes=11,no=12,missing=12,gain=1490.7,cover=175786
			11:[D_CONID_COEC<0.00228036] yes=23,no=24,missing=24,gain=702.512,cover=7125.53
				23:leaf=-0.00954526,cover=4416.51
				24:leaf=-0.041886,cover=2709.03
			12:[CAT_REL<0.12083] yes=25,no=26,missing=25,gain=1188.41,cover=168661
				25:leaf=-0.00106806,cover=122689
				26:leaf=0.0083575,cover=45972.2
		6:[WORD_COUNT<1337] yes=13,no=14,missing=13,gain=1395.73,cover=172689
			13:[CAT_REL<0.18811] yes=27,no=28,missing=27,gain=1172.84,cover=76494.7
				27:leaf=0.00451528,cover=54184.9
				28:leaf=0.0181365,cover=22309.8
			14:[KW_REL<1.21258e-05] yes=29,no=30,missing=29,gain=740.131,cover=96194.7
				29:leaf=0.0139354,cover=57450.4
				30:leaf=0.0228783,cover=38744.4
booster[30]:
0:[D_PUBLISHER_COEC<0.0744906] yes=1,no=2,missing=2,gain=10169.3,cover=919983
	1:[D_CONID_COEC<0.105752] yes=3,no=4,missing=3,gain=7126.41,cover=572862
		3:[D_CONID_COEC<0.00135003] yes=7,no=8,missing=7,gain=3649.97,cover=502120
			7:[KW_REL<1.50877e-05] yes=15,no=16,missing=15,gain=1345.43,cover=42055
				15:leaf=-0.0259993,cover=30664.6
				16:leaf=-0.00587444,cover=11390.4
			8:[CAT_REL<0.277082] yes=17,no=18,missing=17,gain=2651.01,cover=460065
				17:leaf=-0.00628188,cover=423120
				18:leaf=0.00768417,cover=36944.6
		4:[D_PUBLISHER_COEC<0.0411665] yes=9,no=10,missing=10,gain=1098.11,cover=70742.4
			9:[CAT_REL<0.032467] yes=19,no=20,missing=19,gain=257.923,cover=3425.69
				19:leaf=-0.0304147,cover=1764.7
				20:leaf=-0.00296468,cover=1660.99
			10:[KW_REL<1.46902e-05] yes=21,no=22,missing=21,gain=875.411,cover=67316.8
				21:leaf=0.00727154,cover=40533.9
				22:leaf=0.018921,cover=26782.9
	2:[KW_REL<1.0303e-05] yes=5,no=6,missing=5,gain=7212.34,cover=347121
		5:[D_CONID_COEC<0.102328] yes=11,no=12,missing=11,gain=8391.15,cover=226171
			11:[D_CONID_COEC<0.0264858] yes=23,no=24,missing=24,gain=1216.93,cover=101528
				23:leaf=-0.0317519,cover=5769.39
				24:leaf=-0.00810835,cover=95758.6
			12:[C_D_U_CATEGORY_AGE_MACRO_MAX_COEC<0.100156] yes=25,no=26,missing=26,gain=678.464,cover=124643
				25:leaf=0.00793559,cover=96876.5
				26:leaf=0.0168011,cover=27766.9
		6:[D_CONID_COEC<0.057553] yes=13,no=14,missing=14,gain=3608.66,cover=120950
			13:[DAY_OF_WEEK<3.5] yes=27,no=28,missing=27,gain=173.617,cover=11955
				27:leaf=-0.00640376,cover=9161.66
				28:leaf=-0.0206425,cover=2793.36
			14:[CAT_REL<0.293202] yes=29,no=30,missing=29,gain=654.129,cover=108995
				29:leaf=0.0173023,cover=87812.6
				30:leaf=0.0270923,cover=21182
booster[31]:
0:[D_PUBLISHER_COEC<0.0744906] yes=1,no=2,missing=2,gain=8903.41,cover=919500
	1:[D_CONID_COEC<0.106301] yes=3,no=4,missing=3,gain=6655.02,cover=573573
		3:[CAT_REL<0.000662002] yes=7,no=8,missing=7,gain=3494.1,cover=503585
			7:[C_D_U_CATEGORY_AGE_MICRO_MAX_COEC<0.0552578] yes=15,no=16,missing=16,gain=2546.04,cover=244033
				15:leaf=-0.0174192,cover=81669.4
				16:leaf=-0.00659608,cover=162364
			8:[D_CONID_COEC<0.0958857] yes=17,no=18,missing=17,gain=4973.1,cover=259552
				17:leaf=-0.00368251,cover=243144
				18:leaf=0.0247573,cover=16407.8
		4:[DOC_AGE<0.5] yes=9,no=10,missing=9,gain=1231.21,cover=69988.2
			9:[C_D_U_CATEGORY_CITY_MACRO_MEAN_COEC<0.0543295] yes=19,no=20,missing=20,gain=237.002,cover=5520.54
				19:leaf=-0.033076,cover=1084.09
				20:leaf=-0.00700425,cover=4436.45
			10:[IMAGE_COUNT<0.5] yes=21,no=22,missing=21,gain=1100.32,cover=64467.6
				21:leaf=-0.0416375,cover=925.09
				22:leaf=0.0132606,cover=63542.6
	2:[D_CONID_COEC<0.109737] yes=5,no=6,missing=5,gain=4317.61,cover=345927
		5:[CAT_REL<0.173292] yes=11,no=12,missing=11,gain=1013.33,cover=179470
			11:[C_D_U_CATEGORY_AGE_MACRO_MAX_COEC<0.103825] yes=23,no=24,missing=24,gain=1424.54,cover=142025
				23:leaf=-0.00377587,cover=109885
				24:leaf=0.00819122,cover=32140.5
			12:[D_CONID_COEC<0.0703018] yes=25,no=26,missing=26,gain=3608.05,cover=37444.9
				25:leaf=-0.0131129,cover=12992.8
				26:leaf=0.0194918,cover=24452
		6:[D_CONID_COEC<0.20292] yes=13,no=14,missing=14,gain=1080.25,cover=166456
			13:[D_CATEGORY_MACRO_MEAN_COEC<0.0531175] yes=27,no=28,missing=27,gain=915.827,cover=140709
				27:leaf=0.0223403,cover=14237.7
				28:leaf=0.0089646,cover=126471
			14:[WORD_COUNT<824.5] yes=29,no=30,missing=29,gain=189.566,cover=25747.8
				29:leaf=-0.00659858,cover=587.908
				30:leaf=0.0221133,cover=25159.9
booster[32]:
0:[D_PUBLISHER_COEC<0.0744906] yes=1,no=2,missing=2,gain=7933.31,cover=918628
	1:[D_CONID_COEC<0.101873] yes=3,no=4,missing=3,gain=6627.84,cover=572698
		3:[IMAGE_COUNT<0.5] yes=7,no=8,missing=7,gain=3115.17,cover=494163
			7:[D_CONID_COEC<0.0673985] yes=15,no=16,missing=15,gain=725.11,cover=14044
				15:leaf=-0.0347957,cover=11141.2
				16:leaf=-0.00673608,cover=2902.76
			8:[CAT_REL<0.000414881] yes=17,no=18,missing=17,gain=2750.96,cover=480119
				17:leaf=-0.00899548,cover=233579
				18:leaf=-0.00142322,cover=246540
		4:[IMAGE_COUNT<0.5] yes=9,no=10,missing=9,gain=1035.11,cover=78534.7
			9:[C_D_U_CATEGORY_CITY_MACRO_MAX_COEC<0.0562172] yes=19,no=20,missing=19,gain=102.109,cover=1155.4
				19:leaf=-0.0546113,cover=483.874
				20:leaf=-0.0244298,cover=671.528
			10:[KW_REL<1.16137e-05] yes=21,no=22,missing=21,gain=884.074,cover=77379.3
				21:leaf=0.00631914,cover=47550
				22:leaf=0.0172999,cover=29829.4
	2:[D_CONID_COEC<0.109737] yes=5,no=6,missing=5,gain=4010.82,cover=345930
		5:[C_D_U_CATEGORY_GENDER_MACRO_MAX_COEC<0.0327483] yes=11,no=12,missing=12,gain=1229.61,cover=179686
			11:[WORD_COUNT<5726.5] yes=23,no=24,missing=23,gain=130.713,cover=2530.03
				23:leaf=-0.0376363,cover=2275.21
				24:leaf=0.000125206,cover=254.82
			12:[D_CONID_COEC<0.0265958] yes=25,no=26,missing=26,gain=1490.88,cover=177156
				25:leaf=-0.0216847,cover=6804.58
				26:leaf=0.00218057,cover=170351
		6:[WORD_COUNT<1337] yes=13,no=14,missing=13,gain=1180.15,cover=166244
			13:[CAT_REL<0.198303] yes=27,no=28,missing=27,gain=986.755,cover=73746.2
				27:leaf=0.00325026,cover=53345.7
				28:leaf=0.0161794,cover=20400.5
			14:[KW_REL<1.21258e-05] yes=29,no=30,missing=29,gain=705.692,cover=92497.8
				29:leaf=0.0117124,cover=55148.6
				30:leaf=0.0206138,cover=37349.2
booster[33]:
0:[D_CONID_COEC<0.117831] yes=1,no=2,missing=1,gain=8977.9,cover=917999
	1:[C_D_U_CATEGORY_AGE_MICRO_MAX_COEC<0.0318745] yes=3,no=4,missing=4,gain=4455.09,cover=727932
		3:[D_CONID_COEC<0.0374343] yes=7,no=8,missing=7,gain=2033.48,cover=26528
			7:[KW_REL<0.000260289] yes=15,no=16,missing=15,gain=630.661,cover=16282.5
				15:leaf=-0.0374551,cover=14029.2
				16:leaf=-0.00895347,cover=2253.33
			8:[C_D_U_PUBLISHER_AGE_COEC<0.0436993] yes=17,no=18,missing=17,gain=522.707,cover=10245.5
				17:leaf=-0.0188581,cover=4116.1
				18:leaf=0.00417605,cover=6129.36
		4:[D_CONID_COEC<0.00269311] yes=9,no=10,missing=10,gain=3397.23,cover=701404
			9:[DOC_AGE<0.5] yes=19,no=20,missing=19,gain=599.305,cover=30857.8
				19:leaf=-0.0064127,cover=8324.25
				20:leaf=-0.0221132,cover=22533.6
			10:[CAT_REL<0.000719979] yes=21,no=22,missing=21,gain=2801.14,cover=670546
				21:leaf=-0.00431378,cover=317973
				22:leaf=0.00215812,cover=352573
	2:[CAT_REL<0.000927528] yes=5,no=6,missing=5,gain=1103.33,cover=190067
		5:[WORD_COUNT<1334] yes=11,no=12,missing=11,gain=641.91,cover=84768.6
			11:[C_D_U_PUBLISHER_GENDER_COEC<0.0444541] yes=23,no=24,missing=23,gain=435.238,cover=31335.6
				23:leaf=-0.0487869,cover=452.181
				24:leaf=0.000571463,cover=30883.4
			12:[C_D_U_CATEGORY_AGE_MICRO_MEAN_COEC<0.0652306] yes=25,no=26,missing=26,gain=511.041,cover=53433.1
				25:leaf=-0.00739244,cover=4429.01
				26:leaf=0.0103413,cover=49004
		6:[D_CATEGORY_MACRO_MAX_COEC<0.0961933] yes=13,no=14,missing=14,gain=687.149,cover=105298
			13:[CAT_REL<0.166179] yes=27,no=28,missing=27,gain=628.913,cover=79874.2
				27:leaf=0.00653772,cover=40393.5
				28:leaf=0.015412,cover=39480.7
			14:[D_CONID_COEC<0.274862] yes=29,no=30,missing=30,gain=228.573,cover=25423.8
				29:leaf=0.0186794,cover=22582.6
				30:leaf=0.0337301,cover=2841.18
booster[34]:
0:[D_PUBLISHER_COEC<0.0744906] yes=1,no=2,missing=1,gain=6995.06,cover=916125
	1:[D_CONID_COEC<0.101873] yes=3,no=4,missing=3,gain=5901.35,cover=571905
		3:[D_CONID_COEC<0.00269214] yes=7,no=8,missing=8,gain=3045.36,cover=493512
			7:[KW_REL<1.46913e-05] yes=15,no=16,missing=15,gain=679.292,cover=29796.8
				15:leaf=-0.0254253,cover=21696.9
				16:leaf=-0.00845542,cover=8099.83
			8:[CAT_REL<0.263319] yes=17,no=18,missing=17,gain=2661.93,cover=463715
				17:leaf=-0.00549434,cover=423230
				18:leaf=0.00792574,cover=40484.9
		4:[KW_REL<1.16137e-05] yes=9,no=10,missing=9,gain=883.997,cover=78393
			9:[D_PUBLISHER_COEC<0.0486311] yes=19,no=20,missing=20,gain=767.071,cover=48264
				19:leaf=-0.010892,cover=6382.18
				20:leaf=0.00771496,cover=41881.8
			10:[D_CONID_COEC<0.122567] yes=21,no=22,missing=22,gain=337.031,cover=30129
				21:leaf=0.022338,cover=12763.5
				22:leaf=0.0116347,cover=17365.5
	2:[D_CONID_COEC<0.109737] yes=5,no=6,missing=5,gain=3231.45,cover=344220
		5:[WORD_COUNT<991.5] yes=11,no=12,missing=11,gain=985.856,cover=179342
			11:[D_CONID_COEC<0.0731484] yes=23,no=24,missing=24,gain=2862.85,cover=48841.8
				23:leaf=-0.0205347,cover=18418.6
				24:leaf=0.0044414,cover=30423.2
			12:[D_CONID_COEC<0.0816141] yes=25,no=26,missing=25,gain=7447.43,cover=130501
				25:leaf=-0.00866424,cover=64870.1
				26:leaf=0.0152249,cover=65630.5
		6:[KW_REL<1.24148e-05] yes=13,no=14,missing=13,gain=1114.45,cover=164878
			13:[D_CONID_COEC<0.215955] yes=27,no=28,missing=28,gain=572.515,cover=104261
				27:leaf=0.00644784,cover=94405.3
				28:leaf=0.0191118,cover=9855.7
			14:[D_CONID_COEC<0.119493] yes=29,no=30,missing=30,gain=410.828,cover=60616.7
				29:leaf=0.0251649,cover=10498.6
				30:leaf=0.0142863,cover=50118.1
booster[35]:
0:[D_CONID_COEC<0.117831] yes=1,no=2,missing=1,gain=7541.23,cover=913765
	1:[D_CATEGORY_MICRO_MEAN_COEC<0.0291001] yes=3,no=4,missing=4,gain=4105.81,cover=724626
		3:[D_CONID_COEC<0.0348921] yes=7,no=8,missing=7,gain=1378.97,cover=21471.6
			7:[CAT_REL<0.018063] yes=15,no=16,missing=15,gain=583.742,cover=13509.9
				15:leaf=-0.0390339,cover=10678.2
				16:leaf=-0.013493,cover=2831.73
			8:[KW_REL<0.000268944] yes=17,no=18,missing=17,gain=409.082,cover=7961.67
				17:leaf=-0.0124443,cover=6666.2
				18:leaf=0.0182524,cover=1295.47
		4:[CAT_REL<0.307407] yes=9,no=10,missing=9,gain=3046.83,cover=703154
			9:[D_PUBLISHER_COEC<0.0323473] yes=19,no=20,missing=20,gain=5093.78,cover=645506
				19:leaf=-0.0262213,cover=22303.5
				20:leaf=-0.00190316,cover=623202
			10:[KW_REL<1.08694e-05] yes=21,no=22,missing=21,gain=3103.84,cover=57648.3
				21:leaf=-0.00380012,cover=25441.1
				22:leaf=0.0195647,cover=32207.2
	2:[KW_REL<1.24148e-05] yes=5,no=6,missing=5,gain=1237.97,cover=189140
		5:[D_PUBLISHER_COEC<0.0432018] yes=11,no=12,missing=12,gain=760.688,cover=116653
			11:[D_CATEGORY_MICRO_MEAN_COEC<0.0736913] yes=23,no=24,missing=23,gain=205.044,cover=2099.96
				23:leaf=-0.0373015,cover=1233.05
				24:leaf=-0.00556567,cover=866.914
			12:[IMAGE_COUNT<0.5] yes=25,no=26,missing=25,gain=500.043,cover=114553
				25:leaf=-0.0622948,cover=265.223
				26:leaf=0.0063112,cover=114288
		6:[WORD_COUNT<1341.5] yes=13,no=14,missing=13,gain=369.42,cover=72486.3
			13:[CAT_REL<0.201518] yes=27,no=28,missing=27,gain=323.049,cover=26624.6
				27:leaf=0.00468786,cover=15819.5
				28:leaf=0.0159039,cover=10805.1
			14:[IMAGE_COUNT<0.5] yes=29,no=30,missing=29,gain=269.922,cover=45861.7
				29:leaf=-0.0514107,cover=144.296
				30:leaf=0.0168611,cover=45717.4
booster[36]:
0:[D_PUBLISHER_COEC<0.0744906] yes=1,no=2,missing=2,gain=5994.27,cover=911663
	1:[D_CONID_COEC<0.101873] yes=3,no=4,missing=3,gain=4549.66,cover=569246
		3:[IMAGE_COUNT<0.5] yes=7,no=8,missing=7,gain=2682.23,cover=491663
			7:[D_CONID_COEC<0.0673919] yes=15,no=16,missing=15,gain=833.739,cover=13716
				15:leaf=-0.0331955,cover=10744.7
				16:leaf=-0.00326981,cover=2971.24
			8:[KW_REL<0.0351788] yes=17,no=18,missing=17,gain=2450.14,cover=477947
				17:leaf=-0.00463475,cover=473517
				18:leaf=0.0327193,cover=4430
		4:[DOC_AGE<0.5] yes=9,no=10,missing=9,gain=1232.2,cover=77583.4
			9:[C_D_U_CATEGORY_AGE_MICRO_MEAN_COEC<0.0756633] yes=19,no=20,missing=19,gain=290.211,cover=5823.47
				19:leaf=-0.0228137,cover=3587.46
				20:leaf=0.000135273,cover=2236.01
			10:[IMAGE_COUNT<0.5] yes=21,no=22,missing=21,gain=845.302,cover=71760
				21:leaf=-0.0343884,cover=1060.07
				22:leaf=0.010574,cover=70699.9
	2:[D_CONID_COEC<0.109737] yes=5,no=6,missing=5,gain=2795.1,cover=342416
		5:[CAT_REL<0.194059] yes=11,no=12,missing=11,gain=1088.67,cover=178889
			11:[D_CONID_COEC<0.0293541] yes=23,no=24,missing=24,gain=1623.41,cover=144838
				23:leaf=-0.0241488,cover=7182.73
				24:leaf=0.000232381,cover=137655
			12:[D_CONID_COEC<0.0703014] yes=25,no=26,missing=26,gain=2606.5,cover=34051.6
				25:leaf=-0.00991844,cover=11896.8
				26:leaf=0.0190955,cover=22154.8
		6:[WORD_COUNT<1337] yes=13,no=14,missing=13,gain=1093.87,cover=163527
			13:[CAT_REL<0.126896] yes=27,no=28,missing=27,gain=801.417,cover=72561.4
				27:leaf=0.00122842,cover=44679.2
				28:leaf=0.0120311,cover=27882.2
			14:[KW_REL<1.24148e-05] yes=29,no=30,missing=29,gain=501.089,cover=90965.5
				29:leaf=0.0105815,cover=54595.5
				30:leaf=0.0181575,cover=36370
booster[37]:
0:[D_PUBLISHER_COEC<0.0744906] yes=1,no=2,missing=2,gain=5339.78,cover=912166
	1:[D_CONID_COEC<0.104548] yes=3,no=4,missing=3,gain=3853.53,cover=569220
		3:[D_CONID_COEC<0.00254123] yes=7,no=8,missing=8,gain=2866.75,cover=497111
			7:[KW_REL<1.50877e-05] yes=15,no=16,missing=15,gain=770.416,cover=29155.8
				15:leaf=-0.0247569,cover=21080.5
				16:leaf=-0.00659348,cover=8075.32
			8:[CAT_REL<0.247688] yes=17,no=18,missing=17,gain=2666.88,cover=467955
				17:leaf=-0.00480557,cover=422487
				18:leaf=0.00793852,cover=45468.2
		4:[DOC_AGE<0.5] yes=9,no=10,missing=9,gain=887.848,cover=72108.6
			9:[D_CATEGORY_MACRO_MAX_COEC<0.0843021] yes=19,no=20,missing=19,gain=284.995,cover=5704.31
				19:leaf=-0.0182237,cover=4047.58
				20:leaf=0.00639105,cover=1656.74
			10:[CAT_REL<0.0356719] yes=21,no=22,missing=21,gain=770.137,cover=66404.3
				21:leaf=0.00436378,cover=34902.6
				22:leaf=0.0151473,cover=31501.7
	2:[D_CONID_COEC<0.110313] yes=5,no=6,missing=5,gain=2640.83,cover=342946
		5:[CAT_REL<0.112559] yes=11,no=12,missing=11,gain=1018.11,cover=180383
			11:[C_D_U_CATEGORY_CITY_MICRO_MAX_COEC<0.115346] yes=23,no=24,missing=24,gain=1055.89,cover=128950
				23:leaf=-0.00380963,cover=103897
				24:leaf=0.00762585,cover=25052.5
			12:[D_CONID_COEC<0.0705567] yes=25,no=26,missing=26,gain=3379.92,cover=51433.8
				25:leaf=-0.0107536,cover=17976.4
				26:leaf=0.0161272,cover=33457.4
		6:[D_CONID_COEC<0.202735] yes=13,no=14,missing=14,gain=805.542,cover=162562
			13:[CAT_REL<0.197939] yes=27,no=28,missing=27,gain=795.079,cover=137680
				27:leaf=0.00606423,cover=107556
				28:leaf=0.0152548,cover=30123.2
			14:[D_CATEGORY_MACRO_MAX_COEC<0.0466433] yes=29,no=30,missing=29,gain=202.79,cover=24882.7
				29:leaf=-0.0984582,cover=36.4443
				30:leaf=0.0180253,cover=24846.3
booster[38]:
0:[C_D_U_CATEGORY_AGE_MACRO_MAX_COEC<0.0552564] yes=1,no=2,missing=2,gain=4941.17,cover=909648
	1:[D_CONID_COEC<0.0841178] yes=3,no=4,missing=3,gain=4843.45,cover=221613
		3:[CAT_REL<0.14078] yes=7,no=8,missing=7,gain=2082.84,cover=183667
			7:[C_D_U_CATEGORY_GENDER_MICRO_MEAN_COEC<0.025243] yes=15,no=16,missing=16,gain=1327.03,cover=160354
				15:leaf=-0.0280837,cover=11843
				16:leaf=-0.0106924,cover=148511
			8:[D_CONID_COEC<0.0549585] yes=17,no=18,missing=17,gain=1855.71,cover=23312.6
				17:leaf=-0.00834658,cover=13184.3
				18:leaf=0.0201115,cover=10128.4
		4:[CAT_REL<0.0106993] yes=9,no=10,missing=9,gain=1413.76,cover=37946.3
			9:[C_D_U_PUBLISHER_AGE_COEC<0.0603729] yes=19,no=20,missing=19,gain=534.616,cover=19063.6
				19:leaf=-0.0129244,cover=5592.34
				20:leaf=0.00546467,cover=13471.3
			10:[KW_REL<0.000221517] yes=21,no=22,missing=21,gain=464.574,cover=18882.7
				21:leaf=0.0123249,cover=10450.2
				22:leaf=0.0281023,cover=8432.55
	2:[D_CONID_COEC<0.146886] yes=5,no=6,missing=5,gain=3290.31,cover=688035
		5:[D_CONID_COEC<0.00606823] yes=11,no=12,missing=12,gain=2476.19,cover=595381
			11:[KW_REL<0.00943453] yes=23,no=24,missing=23,gain=446.784,cover=21270.8
				23:leaf=-0.0176448,cover=20367
				24:leaf=0.018266,cover=903.825
			12:[WORD_COUNT<931.5] yes=25,no=26,missing=25,gain=2255.57,cover=574110
				25:leaf=-0.00504142,cover=114015
				26:leaf=0.00281437,cover=460096
		6:[CAT_REL<0.00235533] yes=13,no=14,missing=13,gain=473.047,cover=92653.3
			13:[WORD_COUNT<2169] yes=27,no=28,missing=27,gain=257.663,cover=43186.1
				27:leaf=0.00391907,cover=26804.3
				28:leaf=0.0118786,cover=16381.8
			14:[D_CATEGORY_MACRO_MAX_COEC<0.0957378] yes=29,no=30,missing=30,gain=328.751,cover=49467.1
				29:leaf=0.0112863,cover=33502.7
				30:leaf=0.0200057,cover=15964.4
booster[39]:
0:[C_D_U_CATEGORY_GENDER_MACRO_MAX_COEC<0.0595468] yes=1,no=2,missing=2,gain=4894.64,cover=909469
	1:[KW_REL<1.20416e-05] yes=3,no=4,missing=3,gain=8512.6,cover=293291
		3:[D_CONID_COEC<0.0847017] yes=7,no=8,missing=7,gain=5027.63,cover=205686
			7:[D_CATEGORY_MICRO_MAX_COEC<0.0252503] yes=15,no=16,missing=16,gain=1030.62,cover=165861
				15:leaf=-0.0296236,cover=10808.7
				16:leaf=-0.0136551,cover=155053
			8:[IMAGE_COUNT<0.5] yes=17,no=18,missing=17,gain=613.054,cover=39825.1
				17:leaf=-0.0352869,cover=917.549
				18:leaf=0.00604054,cover=38907.6
		4:[D_CONID_COEC<0.0698498] yes=9,no=10,missing=9,gain=6143.8,cover=87604.3
			9:[CAT_REL<0.107062] yes=19,no=20,missing=19,gain=1275.25,cover=54429.9
				19:leaf=-0.00837351,cover=34650.2
				20:leaf=0.00753816,cover=19779.7
			10:[CAT_REL<0.141665] yes=21,no=22,missing=21,gain=1035.31,cover=33174.4
				21:leaf=0.0190767,cover=23594.5
				22:leaf=0.0385686,cover=9579.93
	2:[D_CONID_COEC<0.144799] yes=5,no=6,missing=5,gain=2665.6,cover=616178
		5:[WORD_COUNT<920.5] yes=11,no=12,missing=11,gain=1902.77,cover=522971
			11:[D_CONID_COEC<0.0747002] yes=23,no=24,missing=24,gain=5336.21,cover=103540
				23:leaf=-0.0194621,cover=39190.6
				24:leaf=0.00394095,cover=64349.2
			12:[D_CONID_COEC<0.00658075] yes=25,no=26,missing=26,gain=1654.12,cover=419431
				25:leaf=-0.0133943,cover=15468.7
				26:leaf=0.00326565,cover=403963
		6:[D_CONID_COEC<0.206095] yes=13,no=14,missing=14,gain=456.953,cover=93207
			13:[TIME_OF_DAY<16.5] yes=27,no=28,missing=27,gain=277.365,cover=67606.3
				27:leaf=0.00661698,cover=54653
				28:leaf=0.0147546,cover=12953.3
			14:[D_CATEGORY_MACRO_MAX_COEC<0.0698633] yes=29,no=30,missing=29,gain=721.048,cover=25600.6
				29:leaf=-0.0389102,cover=582.892
				30:leaf=0.0173014,cover=25017.7
booster[40]:
0:[IMAGE_COUNT<0.5] yes=1,no=2,missing=1,gain=4425.3,cover=908687
	1:[KW_REL<1.82751e-05] yes=3,no=4,missing=3,gain=1131.54,cover=17580.6
		3:[D_CONID_COEC<0.0533502] yes=7,no=8,missing=7,gain=346.954,cover=12262.7
			7:[D_CONID_COEC<0.00647158] yes=15,no=16,missing=16,gain=234.099,cover=7571.99
				15:leaf=-0.0278892,cover=2691.13
				16:leaf=-0.046279,cover=4880.86
			8:[WORD_COUNT<1370] yes=17,no=18,missing=17,gain=297.776,cover=4690.72
				17:leaf=-0.0128741,cover=2978.41
				18:leaf=-0.0390433,cover=1712.31
		4:[D_CONID_COEC<0.0595402] yes=9,no=10,missing=10,gain=202.346,cover=5317.87
			9:[TIME_OF_DAY<3.5] yes=19,no=20,missing=19,gain=118.303,cover=2864.8
				19:leaf=0.00718624,cover=513.948
				20:leaf=-0.0192826,cover=2350.85
			10:[D_CONID_COEC<0.111472] yes=21,no=22,missing=21,gain=283.216,cover=2453.07
				21:leaf=0.0115301,cover=2140.1
				22:leaf=-0.0393217,cover=312.97
	2:[CAT_REL<0.000414881] yes=5,no=6,missing=5,gain=3958.11,cover=891106
		5:[C_D_U_CATEGORY_AGE_MACRO_MAX_COEC<0.0629614] yes=11,no=12,missing=12,gain=4203.59,cover=422890
			11:[D_CONID_COEC<0.0847057] yes=23,no=24,missing=23,gain=1946.68,cover=141973
				23:leaf=-0.0131631,cover=109291
				24:leaf=0.000745059,cover=32682.5
			12:[WORD_COUNT<920.5] yes=25,no=26,missing=25,gain=1457.38,cover=280917
				25:leaf=-0.0073019,cover=48368.9
				26:leaf=0.00223708,cover=232548
		6:[D_CONID_COEC<0.116315] yes=13,no=14,missing=13,gain=1981.37,cover=468216
			13:[DOC_AGE<19.5] yes=27,no=28,missing=27,gain=1300.8,cover=363444
				27:leaf=0.00317844,cover=313005
				28:leaf=-0.00547385,cover=50439.1
			14:[D_CATEGORY_MACRO_MAX_COEC<0.0956648] yes=29,no=30,missing=30,gain=481.668,cover=104773
				29:leaf=0.0078344,cover=78779.3
				30:leaf=0.0156839,cover=25993.2
booster[41]:
0:[IMAGE_COUNT<0.5] yes=1,no=2,missing=1,gain=3891.12,cover=907200
	1:[KW_REL<1.82751e-05] yes=3,no=4,missing=3,gain=889.409,cover=17646.5
		3:[C_D_U_CATEGORY_CITY_MACRO_MEAN_COEC<0.0362161] yes=7,no=8,missing=8,gain=260.694,cover=12277.1
			7:[D_CATEGORY_MACRO_MAX_COEC<0.00827677] yes=15,no=16,missing=16,gain=65.6625,cover=2609.51
				15:leaf=0.00464173,cover=65.6814
				16:leaf=-0.0459249,cover=2543.83
			8:[WORD_COUNT<1433.5] yes=17,no=18,missing=17,gain=202.863,cover=9667.59
				17:leaf=-0.0200103,cover=5128.25
				18:leaf=-0.0345319,cover=4539.34
		4:[D_CONID_COEC<0.0673142] yes=9,no=10,missing=10,gain=263.383,cover=5369.39
			9:[CAT_REL<0.250573] yes=19,no=20,missing=19,gain=137.223,cover=3109.25
				19:leaf=-0.0220312,cover=2273.25
				20:leaf=0.00165666,cover=835.993
			10:[D_CONID_COEC<0.106666] yes=21,no=22,missing=22,gain=190.692,cover=2260.14
				21:leaf=0.0166686,cover=1542.22
				22:leaf=-0.0145104,cover=717.923
	2:[D_CONID_COEC<0.144649] yes=5,no=6,missing=5,gain=3305.84,cover=889553
		5:[D_CONID_COEC<0.00301202] yes=11,no=12,missing=12,gain=2581.5,cover=788052
			11:[KW_REL<1.27874e-05] yes=23,no=24,missing=23,gain=567.922,cover=29102.6
				23:leaf=-0.0195605,cover=20933.1
				24:leaf=-0.00401585,cover=8169.47
			12:[CAT_REL<0.000215327] yes=25,no=26,missing=25,gain=2275.11,cover=758950
				25:leaf=-0.00289253,cover=361624
				26:leaf=0.00258866,cover=397326
		6:[DOC_AGE<0.5] yes=13,no=14,missing=13,gain=567.607,cover=101501
			13:[D_CATEGORY_MACRO_MAX_COEC<0.097487] yes=27,no=28,missing=27,gain=272.011,cover=3718.68
				27:leaf=-0.0178914,cover=2803.7
				28:leaf=0.0134935,cover=914.981
			14:[CAT_REL<0.00810739] yes=29,no=30,missing=29,gain=530.431,cover=97782.2
				29:leaf=0.00586544,cover=46502.5
				30:leaf=0.0132396,cover=51279.8
booster[42]:
0:[C_D_U_CATEGORY_AGE_MICRO_MEAN_COEC<0.031471] yes=1,no=2,missing=2,gain=3735.88,cover=904682
	1:[D_CONID_COEC<0.040173] yes=3,no=4,missing=3,gain=1407.82,cover=25435.5
		3:[CAT_REL<0.0350802] yes=7,no=8,missing=7,gain=702.546,cover=16631.6
			7:[D_CONID_COEC<0.0356665] yes=15,no=16,missing=15,gain=253.841,cover=13899.4
				15:leaf=-0.0346734,cover=12206.9
				16:leaf=-0.0139994,cover=1692.46
			8:[KW_REL<0.00328721] yes=17,no=18,missing=17,gain=369.566,cover=2732.24
				17:leaf=-0.0119115,cover=2343.77
				18:leaf=0.0406848,cover=388.464
		4:[IMAGE_COUNT<0.5] yes=9,no=10,missing=9,gain=366.826,cover=8803.9
			9:[KW_REL<0.0046177] yes=19,no=20,missing=19,gain=75.2775,cover=498.487
				19:leaf=-0.04822,cover=480.992
				20:leaf=0.0551094,cover=17.4946
			10:[C_D_U_PUBLISHER_AGE_COEC<0.0470743] yes=21,no=22,missing=22,gain=289.349,cover=8305.41
				21:leaf=-0.0104011,cover=3853.78
				22:leaf=0.00831031,cover=4451.63
	2:[D_PUBLISHER_COEC<0.0744906] yes=5,no=6,missing=5,gain=3161.96,cover=879246
		5:[D_CONID_COEC<0.103021] yes=11,no=12,missing=11,gain=2780.3,cover=542506
			11:[KW_REL<0.0380457] yes=23,no=24,missing=23,gain=1887.4,cover=468434
				23:leaf=-0.00367809,cover=464658
				24:leaf=0.0318119,cover=3775.66
			12:[DOC_AGE<0.5] yes=25,no=26,missing=25,gain=821.713,cover=74072.1
				25:leaf=-0.0111141,cover=5752.8
				26:leaf=0.00856094,cover=68319.3
		6:[D_CONID_COEC<0.110816] yes=13,no=14,missing=13,gain=1700.49,cover=336741
			13:[D_CONID_COEC<0.0288363] yes=27,no=28,missing=28,gain=1034.17,cover=178078
				27:leaf=-0.0175217,cover=7346.5
				28:leaf=0.00163611,cover=170731
			14:[D_CATEGORY_MACRO_MEAN_COEC<0.0531746] yes=29,no=30,missing=29,gain=754.006,cover=158663
				29:leaf=0.0190935,cover=13885.1
				30:leaf=0.00689621,cover=144778
booster[43]:
0:[IMAGE_COUNT<0.5] yes=1,no=2,missing=1,gain=3557.38,cover=905927
	1:[KW_REL<1.82751e-05] yes=3,no=4,missing=3,gain=932.599,cover=17425.8
		3:[D_CATEGORY_MICRO_MAX_COEC<0.0874889] yes=7,no=8,missing=7,gain=232.075,cover=12060
			7:[C_D_U_CATEGORY_AGE_MICRO_MEAN_COEC<0.0691785] yes=15,no=16,missing=15,gain=277.739,cover=10499.8
				15:leaf=-0.0310048,cover=8700.15
				16:leaf=-0.00941981,cover=1799.63
			8:[CAT_REL<0.253506] yes=17,no=18,missing=17,gain=50.8295,cover=1560.2
				17:leaf=-0.0451022,cover=1421.61
				18:leaf=-0.0770045,cover=138.591
		4:[D_CONID_COEC<0.063525] yes=9,no=10,missing=10,gain=222.074,cover=5365.86
			9:[C_D_U_CATEGORY_AGE_MACRO_MAX_COEC<0.0423131] yes=19,no=20,missing=20,gain=144.424,cover=2965.66
				19:leaf=0.0092201,cover=542.855
				20:leaf=-0.0192984,cover=2422.8
			10:[WORD_COUNT<1791.5] yes=21,no=22,missing=21,gain=204.381,cover=2400.21
				21:leaf=0.0149503,cover=1784.07
				22:leaf=-0.0184303,cover=616.138
	2:[CAT_REL<0.000662713] yes=5,no=6,missing=5,gain=3005.62,cover=888501
		5:[C_D_U_CATEGORY_AGE_MACRO_MAX_COEC<0.065307] yes=11,no=12,missing=12,gain=3290.46,cover=422069
			11:[D_CONID_COEC<0.0859352] yes=23,no=24,missing=23,gain=1664.21,cover=147485
				23:leaf=-0.0114588,cover=113277
				24:leaf=0.00112495,cover=34208.3
			12:[D_PUBLISHER_COEC<0.0352245] yes=25,no=26,missing=26,gain=1417.81,cover=274584
				25:leaf=-0.0203191,cover=7780.32
				26:leaf=0.00133277,cover=266804
		6:[D_PUBLISHER_COEC<0.0673415] yes=13,no=14,missing=13,gain=3312.3,cover=466432
			13:[D_CONID_COEC<0.0844149] yes=27,no=28,missing=27,gain=10302.6,cover=227119
				27:leaf=-0.00700689,cover=172547
				28:leaf=0.0179178,cover=54571.7
			14:[WORD_COUNT<1248.5] yes=29,no=30,missing=29,gain=1348.41,cover=239313
				29:leaf=0.00309751,cover=103092
				30:leaf=0.0106769,cover=136221
booster[44]:
0:[D_PUBLISHER_COEC<0.0744906] yes=1,no=2,missing=1,gain=3229.52,cover=903329
	1:[D_CONID_COEC<0.100627] yes=3,no=4,missing=3,gain=3064.66,cover=564308
		3:[WORD_COUNT<985.5] yes=7,no=8,missing=7,gain=1575.68,cover=484458
			7:[D_CONID_COEC<0.0670146] yes=15,no=16,missing=15,gain=5765.84,cover=85659.1
				15:leaf=-0.019128,cover=57388.1
				16:leaf=0.00845878,cover=28271.1
			8:[KW_REL<0.0323399] yes=17,no=18,missing=17,gain=1909.53,cover=398799
				17:leaf=-0.00292157,cover=394229
				18:leaf=0.0295801,cover=4570.53
		4:[DOC_AGE<0.5] yes=9,no=10,missing=9,gain=763.001,cover=79849.2
			9:[C_D_U_CATEGORY_CITY_MICRO_MEAN_COEC<0.0777516] yes=19,no=20,missing=19,gain=220.228,cover=5957.74
				19:leaf=-0.0175643,cover=3871.99
				20:leaf=0.00258705,cover=2085.75
			10:[KW_REL<1.16137e-05] yes=21,no=22,missing=21,gain=625.097,cover=73891.4
				21:leaf=0.00448681,cover=45794.4
				22:leaf=0.0139602,cover=28097.1
	2:[KW_REL<1.0303e-05] yes=5,no=6,missing=5,gain=5019.87,cover=339021
		5:[D_CONID_COEC<0.111771] yes=11,no=12,missing=11,gain=2375.48,cover=221994
			11:[WORD_COUNT<1885.5] yes=23,no=24,missing=23,gain=739.013,cover=122607
				23:leaf=-0.00821101,cover=77982.2
				24:leaf=-0.000142968,cover=44624.4
			12:[D_CATEGORY_MACRO_MAX_COEC<0.0692859] yes=25,no=26,missing=25,gain=408.382,cover=99387.2
				25:leaf=0.0116022,cover=19556.8
				26:leaf=0.0035404,cover=79830.4
		6:[D_CONID_COEC<0.0541379] yes=13,no=14,missing=14,gain=1871.11,cover=117027
			13:[KW_REL<0.0217666] yes=27,no=28,missing=27,gain=157.34,cover=9902.24
				27:leaf=-0.010195,cover=9316.82
				28:leaf=0.0165092,cover=585.42
			14:[D_CATEGORY_MACRO_MAX_COEC<0.0545957] yes=29,no=30,missing=29,gain=734.796,cover=107125
				29:leaf=0.024149,cover=15554.9
				30:leaf=0.0123946,cover=91570.1
booster[45]:
0:[C_D_U_CATEGORY_AGE_MACRO_MAX_COEC<0.0552578] yes=1,no=2,missing=2,gain=3271.31,cover=901425
	1:[D_CONID_COEC<0.0829508] yes=3,no=4,missing=3,gain=3465.11,cover=217791
		3:[CAT_REL<0.109997] yes=7,no=8,missing=7,gain=2092.45,cover=178425
			7:[KW_REL<1.27175e-05] yes=15,no=16,missing=15,gain=1510.5,cover=147695
				15:leaf=-0.0135248,cover=115923
				16:leaf=-0.00121909,cover=31772
			8:[D_CONID_COEC<0.0647648] yes=17,no=18,missing=17,gain=1670.37,cover=30730.3
				17:leaf=-0.00330762,cover=22979.6
				18:leaf=0.0235332,cover=7750.68
		4:[CAT_REL<0.0108173] yes=9,no=10,missing=9,gain=1440.58,cover=39366.2
			9:[C_D_U_PUBLISHER_AGE_COEC<0.0579103] yes=19,no=20,missing=19,gain=450.968,cover=19535.5
				19:leaf=-0.014002,cover=5364.03
				20:leaf=0.00301835,cover=14171.4
			10:[KW_REL<2.4148e-05] yes=21,no=22,missing=21,gain=394.337,cover=19830.7
				21:leaf=0.0111136,cover=10935.5
				22:leaf=0.0252918,cover=8895.21
	2:[D_PUBLISHER_COEC<0.0323481] yes=5,no=6,missing=6,gain=3150.43,cover=683634
		5:[D_CONID_COEC<0.0476507] yes=11,no=12,missing=12,gain=402.068,cover=12183
			11:[KW_REL<0.00736102] yes=23,no=24,missing=23,gain=291.414,cover=7589.85
				23:leaf=-0.0336302,cover=6955.58
				24:leaf=0.00176961,cover=634.273
			12:[KW_REL<0.000186453] yes=25,no=26,missing=25,gain=194.86,cover=4593.14
				25:leaf=-0.0187258,cover=3198.23
				26:leaf=0.0036662,cover=1394.91
		6:[WORD_COUNT<931.5] yes=13,no=14,missing=13,gain=1884.52,cover=671451
			13:[D_CONID_COEC<0.0731927] yes=27,no=28,missing=27,gain=5228.02,cover=130330
				27:leaf=-0.0172976,cover=44327.5
				28:leaf=0.00384046,cover=86003
			14:[D_CONID_COEC<0.112123] yes=29,no=30,missing=29,gain=1919.39,cover=541120
				29:leaf=0.00148388,cover=388727
				30:leaf=0.00810441,cover=152394
booster[46]:
0:[CAT_REL<0.000215327] yes=1,no=2,missing=1,gain=2659.19,cover=900800
	1:[D_CATEGORY_MICRO_MAX_COEC<0.0653262] yes=3,no=4,missing=4,gain=3117.48,cover=427145
		3:[D_PUBLISHER_COEC<0.0563356] yes=7,no=8,missing=8,gain=2032.95,cover=146517
			7:[D_CONID_COEC<0.0723203] yes=15,no=16,missing=15,gain=592.927,cover=69648.5
				15:leaf=-0.0171399,cover=57411.1
				16:leaf=-0.00501713,cover=12237.4
			8:[D_CONID_COEC<0.0697309] yes=17,no=18,missing=17,gain=2065.58,cover=76868.4
				17:leaf=-0.0126231,cover=33172.4
				18:leaf=0.00392507,cover=43696
		4:[D_PUBLISHER_COEC<0.0400267] yes=9,no=10,missing=10,gain=1869.95,cover=280628
			9:[D_CONID_COEC<0.0622176] yes=19,no=20,missing=20,gain=1017.44,cover=18568.3
				19:leaf=-0.0227262,cover=13092.4
				20:leaf=0.00293999,cover=5475.87
			10:[WORD_COUNT<920.5] yes=21,no=22,missing=21,gain=1356.93,cover=262060
				21:leaf=-0.00650813,cover=46267.8
				22:leaf=0.00292785,cover=215792
	2:[D_PUBLISHER_COEC<0.0323473] yes=5,no=6,missing=6,gain=1886.06,cover=473655
		5:[KW_REL<1.53309e-05] yes=11,no=12,missing=11,gain=572.441,cover=14476.1
			11:[D_CONID_COEC<0.0466841] yes=23,no=24,missing=24,gain=265.232,cover=8566.88
				23:leaf=-0.0297154,cover=5712.45
				24:leaf=-0.0110455,cover=2854.43
			12:[C_D_U_CATEGORY_GENDER_MACRO_MAX_COEC<0.0388484] yes=25,no=26,missing=26,gain=378.765,cover=5909.2
				25:leaf=0.0209676,cover=1265.82
				26:leaf=-0.0098767,cover=4643.38
		6:[DOC_AGE<20.5] yes=13,no=14,missing=13,gain=1529.06,cover=459179
			13:[D_CONID_COEC<0.101738] yes=27,no=28,missing=27,gain=3522.67,cover=401745
				27:leaf=0.00107156,cover=278805
				28:leaf=0.0112313,cover=122940
			14:[D_CONID_COEC<0.0879928] yes=29,no=30,missing=29,gain=1587.51,cover=57433.7
				29:leaf=-0.0113796,cover=34253
				30:leaf=0.00556343,cover=23180.7
booster[47]:
0:[CAT_REL<0.000238791] yes=1,no=2,missing=1,gain=2900.79,cover=900568
	1:[D_CATEGORY_MACRO_MAX_COEC<0.0652368] yes=3,no=4,missing=4,gain=2223.36,cover=425984
		3:[D_CONID_COEC<0.0847075] yes=7,no=8,missing=7,gain=1257.1,cover=147482
			7:[D_PUBLISHER_COEC<0.0279805] yes=15,no=16,missing=16,gain=782.167,cover=112744
				15:leaf=-0.0299444,cover=4936.37
				16:leaf=-0.00959234,cover=107808
			8:[C_D_U_PUBLISHER_AGE_COEC<0.0592567] yes=17,no=18,missing=18,gain=347.338,cover=34738.1
				17:leaf=-0.00862232,cover=8167.35
				18:leaf=0.00316689,cover=26570.8
		4:[KW_REL<0.0207691] yes=9,no=10,missing=9,gain=1154.08,cover=278501
			9:[D_PUBLISHER_COEC<0.0336775] yes=19,no=20,missing=19,gain=1155.01,cover=276007
				19:leaf=-0.0215273,cover=6459.44
				20:leaf=-0.000134101,cover=269547
			10:[D_PUBLISHER_COEC<0.0596999] yes=21,no=22,missing=22,gain=175.093,cover=2494.32
				21:leaf=0.0462178,cover=1299.99
				22:leaf=0.0196761,cover=1194.33
	2:[IMAGE_COUNT<0.5] yes=5,no=6,missing=5,gain=1299.12,cover=474585
		5:[KW_REL<1.82751e-05] yes=11,no=12,missing=11,gain=635.627,cover=9706.36
			11:[C_D_U_CATEGORY_GENDER_MACRO_MAX_COEC<0.0974926] yes=23,no=24,missing=24,gain=186.822,cover=4971.14
				23:leaf=-0.0246018,cover=4468.56
				24:leaf=-0.0567527,cover=502.58
			12:[D_CONID_COEC<0.0683951] yes=25,no=26,missing=26,gain=209.003,cover=4735.23
				25:leaf=-0.0110311,cover=2791.16
				26:leaf=0.0103177,cover=1944.06
		6:[DOC_AGE<17.5] yes=13,no=14,missing=13,gain=1288.41,cover=464878
			13:[D_CONID_COEC<0.0847072] yes=27,no=28,missing=27,gain=12587.1,cover=386483
				27:leaf=-0.00369532,cover=216746
				28:leaf=0.0144863,cover=169737
			14:[D_CONID_COEC<0.0886315] yes=29,no=30,missing=29,gain=2109.61,cover=78395.1
				29:leaf=-0.00953183,cover=46507.3
				30:leaf=0.0071651,cover=31887.8
booster[48]:
0:[IMAGE_COUNT<0.5] yes=1,no=2,missing=1,gain=3006.29,cover=899127
	1:[KW_REL<1.8885e-05] yes=3,no=4,missing=3,gain=733.976,cover=17119.7
		3:[D_CONID_COEC<0.0714809] yes=7,no=8,missing=7,gain=259.975,cover=11779.7
			7:[D_CATEGORY_MICRO_MAX_COEC<0.0767455] yes=15,no=16,missing=15,gain=145.473,cover=8631.42
				15:leaf=-0.0288942,cover=6868.31
				16:leaf=-0.0450137,cover=1763.11
			8:[WORD_COUNT<1402.5] yes=17,no=18,missing=17,gain=386.793,cover=3148.31
				17:leaf=-0.00483786,cover=2310.39
				18:leaf=-0.0444787,cover=837.918
		4:[WORD_COUNT<1369.5] yes=9,no=10,missing=9,gain=191.555,cover=5339.94
			9:[WORD_COUNT<1014.5] yes=19,no=20,missing=19,gain=197.106,cover=2643.98
				19:leaf=-0.00960864,cover=1306.09
				20:leaf=0.0176872,cover=1337.88
			10:[U_GENDER<4.00001] yes=21,no=22,missing=22,gain=132.09,cover=2695.96
				21:leaf=-0.0269249,cover=1217.21
				22:leaf=-0.0046861,cover=1478.75
	2:[D_CONID_COEC<0.00171592] yes=5,no=6,missing=5,gain=2225.63,cover=882007
		5:[KW_REL<0.0120674] yes=11,no=12,missing=11,gain=564.435,cover=42029.7
			11:[DOC_AGE<0.5] yes=23,no=24,missing=23,gain=487.658,cover=40601.4
				23:leaf=-0.00525208,cover=16438.7
				24:leaf=-0.0164157,cover=24162.7
			12:[KW_REL<0.0392637] yes=25,no=26,missing=25,gain=153.023,cover=1428.31
				25:leaf=0.0113153,cover=1111.56
				26:leaf=0.0506779,cover=316.757
		6:[CAT_REL<0.000215327] yes=13,no=14,missing=13,gain=1943.16,cover=839977
			13:[KW_REL<1.01846e-05] yes=27,no=28,missing=27,gain=2976.69,cover=399625
				27:leaf=-0.00332842,cover=341243
				28:leaf=0.00888925,cover=58382.1
			14:[D_PUBLISHER_COEC<0.0323485] yes=29,no=30,missing=30,gain=1624.14,cover=440352
				29:leaf=-0.0177313,cover=9014.9
				30:leaf=0.0037109,cover=431338
booster[49]:
0:[IMAGE_COUNT<0.5] yes=1,no=2,missing=1,gain=2432.81,cover=899680
	1:[KW_REL<1.8885e-05] yes=3,no=4,missing=3,gain=550.37,cover=16967.3
		3:[WORD_COUNT<1369.5] yes=7,no=8,missing=7,gain=315.291,cover=11723
			7:[D_CONID_COEC<0.0631582] yes=15,no=16,missing=15,gain=283.267,cover=6109.08
				15:leaf=-0.0260187,cover=3527.43
				16:leaf=-0.00422201,cover=2581.66
			8:[D_CONID_COEC<0.00647844] yes=17,no=18,missing=17,gain=249.91,cover=5613.91
				17:leaf=-0.0178017,cover=1790.97
				18:leaf=-0.0404499,cover=3822.94
		4:[CAT_REL<0.168138] yes=9,no=10,missing=9,gain=267.35,cover=5244.33
			9:[C_D_U_CATEGORY_CITY_MACRO_MAX_COEC<0.173755] yes=19,no=20,missing=19,gain=143.041,cover=3053.42
				19:leaf=-0.0163935,cover=2984.97
				20:leaf=0.0562154,cover=68.4499
			10:[D_CATEGORY_MACRO_MAX_COEC<0.0866393] yes=21,no=22,missing=22,gain=215.555,cover=2190.91
				21:leaf=0.0149701,cover=1841.59
				22:leaf=-0.0278198,cover=349.316
	2:[D_CONID_COEC<0.0021266] yes=5,no=6,missing=5,gain=1973.54,cover=882713
		5:[KW_REL<0.0108462] yes=11,no=12,missing=11,gain=605.153,cover=41815.9
			11:[C_D_U_PUBLISHER_GENDER_COEC<0.0775299] yes=23,no=24,missing=23,gain=469.668,cover=40206.9
				23:leaf=-0.0133538,cover=35320.2
				24:leaf=0.0031841,cover=4886.68
			12:[D_CATEGORY_MACRO_MAX_COEC<0.0624686] yes=25,no=26,missing=26,gain=178.21,cover=1609.06
				25:leaf=0.00665452,cover=984.69
				26:leaf=0.0407933,cover=624.367
		6:[WORD_COUNT<931.5] yes=13,no=14,missing=13,gain=1702.8,cover=840897
			13:[D_CONID_COEC<0.0684527] yes=27,no=28,missing=28,gain=6756.39,cover=156074
				27:leaf=-0.0182506,cover=52910.6
				28:leaf=0.00372577,cover=103163
			14:[D_CONID_COEC<0.112123] yes=29,no=30,missing=30,gain=1916.18,cover=684823
				29:leaf=0.000599356,cover=524320
				30:leaf=0.00684297,cover=160503
booster[50]:
0:[C_D_U_CATEGORY_AGE_MICRO_MEAN_COEC<0.0335226] yes=1,no=2,missing=2,gain=2179.73,cover=897084
	1:[D_CONID_COEC<0.0396492] yes=3,no=4,missing=3,gain=1442.22,cover=26365.1
		3:[CAT_REL<0.0224632] yes=7,no=8,missing=7,gain=769.838,cover=16173.9
			7:[C_D_U_CATEGORY_GENDER_MACRO_MAX_COEC<0.00188009] yes=15,no=16,missing=16,gain=153.392,cover=12659.9
				15:leaf=0.000706718,cover=411.945
				16:leaf=-0.0303111,cover=12248
			8:[KW_REL<0.00380487] yes=17,no=18,missing=17,gain=377.382,cover=3514.02
				17:leaf=-0.00894808,cover=3086.85
				18:leaf=0.041142,cover=427.17
		4:[DOC_AGE<0.5] yes=9,no=10,missing=9,gain=339.334,cover=10191.2
			9:[KW_REL<0.000722494] yes=19,no=20,missing=19,gain=143.531,cover=684.488
				19:leaf=-0.0437666,cover=569.977
				20:leaf=0.0174427,cover=114.51
			10:[D_CATEGORY_MICRO_MAX_COEC<0.0424207] yes=21,no=22,missing=22,gain=291.758,cover=9506.69
				21:leaf=0.0065834,cover=8084.36
				22:leaf=-0.0179661,cover=1422.32
	2:[D_PUBLISHER_COEC<0.0323481] yes=5,no=6,missing=5,gain=3354.19,cover=870719
		5:[D_CONID_COEC<0.0483298] yes=11,no=12,missing=12,gain=645.439,cover=22835
			11:[D_CONID_COEC<0.00399213] yes=23,no=24,missing=24,gain=335.9,cover=14789.2
				23:leaf=-0.0135768,cover=4603.4
				24:leaf=-0.0298559,cover=10185.8
			12:[D_CONID_COEC<0.110687] yes=25,no=26,missing=25,gain=271.25,cover=8045.8
				25:leaf=-0.00433585,cover=7336.91
				26:leaf=-0.0367047,cover=708.894
		6:[WORD_COUNT<931.5] yes=13,no=14,missing=13,gain=2035.55,cover=847884
			13:[D_CONID_COEC<0.0684527] yes=27,no=28,missing=27,gain=5545.46,cover=159331
				27:leaf=-0.0168398,cover=56548.1
				28:leaf=0.00265491,cover=102783
			14:[D_CONID_COEC<0.112123] yes=29,no=30,missing=29,gain=1760.65,cover=688553
				29:leaf=0.000616489,cover=528596
				30:leaf=0.00660351,cover=159957
booster[51]:
0:[IMAGE_COUNT<0.5] yes=1,no=2,missing=1,gain=2292.92,cover=896251
	1:[KW_REL<1.82751e-05] yes=3,no=4,missing=3,gain=502.225,cover=16859.8
		3:[C_D_U_CATEGORY_CITY_MACRO_MEAN_COEC<0.0362126] yes=7,no=8,missing=8,gain=176.38,cover=11613.1
			7:[C_D_U_CATEGORY_GENDER_MACRO_MAX_COEC<0.000169063] yes=15,no=16,missing=16,gain=114.009,cover=2402.57
				15:leaf=0.0287879,cover=65.0491
				16:leaf=-0.0379768,cover=2337.52
			8:[WORD_COUNT<1382] yes=17,no=18,missing=17,gain=198.929,cover=9210.56
				17:leaf=-0.0139489,cover=4838.48
				18:leaf=-0.0286689,cover=4372.07
		4:[C_D_U_PUBLISHER_GENDER_COEC<0.0347617] yes=9,no=10,missing=9,gain=224.63,cover=5246.63
			9:[D_PUBLISHER_COEC<0.0244092] yes=19,no=20,missing=20,gain=89.8448,cover=1412.18
				19:leaf=-0.00387569,cover=444.702
				20:leaf=-0.0310332,cover=967.475
			10:[DOC_AGE<24.5] yes=21,no=22,missing=21,gain=133.723,cover=3834.45
				21:leaf=-0.00338595,cover=3185.49
				22:leaf=0.021499,cover=648.962
	2:[CAT_REL<0.346862] yes=5,no=6,missing=5,gain=1982.71,cover=879391
		5:[DOC_AGE<1.5] yes=11,no=12,missing=11,gain=1814.19,cover=821717
			11:[KW_REL<1.10092e-05] yes=23,no=24,missing=23,gain=2645.42,cover=96122.4
				23:leaf=-0.0123104,cover=66389.1
				24:leaf=0.00563513,cover=29733.3
			12:[D_CONID_COEC<0.00350652] yes=25,no=26,missing=26,gain=1528.82,cover=725595
				25:leaf=-0.0159692,cover=13738.9
				26:leaf=0.000869425,cover=711856
		6:[KW_REL<1.08694e-05] yes=13,no=14,missing=13,gain=2269.56,cover=57673.8
			13:[D_CONID_COEC<0.0595964] yes=27,no=28,missing=27,gain=1811.31,cover=24834.6
				27:leaf=-0.0237661,cover=6956.05
				28:leaf=0.00630311,cover=17878.5
			14:[D_CONID_COEC<0.052062] yes=29,no=30,missing=30,gain=1171.69,cover=32839.2
				29:leaf=-0.00198991,cover=6036.41
				30:leaf=0.0223931,cover=26802.8
booster[52]:
0:[D_CATEGORY_MICRO_MEAN_COEC<0.0325897] yes=1,no=2,missing=2,gain=2080.08,cover=896412
	1:[D_CONID_COEC<0.0356665] yes=3,no=4,missing=3,gain=1299.36,cover=22789.2
		3:[CAT_REL<0.035689] yes=7,no=8,missing=7,gain=502.501,cover=13685.8
			7:[D_CATEGORY_MACRO_MEAN_COEC<0.0160211] yes=15,no=16,missing=16,gain=174.89,cover=11399.5
				15:leaf=-0.0035606,cover=651.003
				16:leaf=-0.0302553,cover=10748.5
			8:[KW_REL<0.00213786] yes=17,no=18,missing=17,gain=421.231,cover=2286.39
				17:leaf=-0.0138165,cover=1826.6
				18:leaf=0.0396778,cover=459.785
		4:[C_D_U_PUBLISHER_GENDER_COEC<0.0469684] yes=9,no=10,missing=10,gain=415.798,cover=9103.38
			9:[WORD_COUNT<1755.5] yes=19,no=20,missing=19,gain=186.949,cover=4152.77
				19:leaf=-0.0261934,cover=1451.94
				20:leaf=-0.00394925,cover=2700.83
			10:[IMAGE_COUNT<0.5] yes=21,no=22,missing=21,gain=404.291,cover=4950.61
				21:leaf=-0.0571829,cover=214.989
				22:leaf=0.0127697,cover=4735.62
	2:[D_PUBLISHER_COEC<0.0323473] yes=5,no=6,missing=6,gain=2660.81,cover=873623
		5:[D_CONID_COEC<0.0482655] yes=11,no=12,missing=12,gain=585.894,cover=23013.6
			11:[D_CATEGORY_MACRO_MAX_COEC<0.0372331] yes=23,no=24,missing=23,gain=374.832,cover=14878.7
				23:leaf=-0.00810871,cover=3631.8
				24:leaf=-0.0265868,cover=11246.9
			12:[KW_REL<0.000231631] yes=25,no=26,missing=25,gain=233.148,cover=8134.92
				25:leaf=-0.0107241,cover=5821.33
				26:leaf=0.00803625,cover=2313.6
		6:[WORD_COUNT<2915.5] yes=13,no=14,missing=13,gain=1715.47,cover=850609
			13:[CAT_REL<0.343325] yes=27,no=28,missing=27,gain=1370.59,cover=696863
				27:leaf=-0.000621095,cover=646720
				28:leaf=0.00795974,cover=50143
			14:[D_CONID_COEC<0.0802578] yes=29,no=30,missing=29,gain=4607.77,cover=153746
				29:leaf=-0.00286576,cover=76506.8
				30:leaf=0.0144462,cover=77238.8
booster[53]:
0:[CAT_REL<0.000215327] yes=1,no=2,missing=1,gain=2096.34,cover=898058
	1:[C_D_U_CATEGORY_AGE_MACRO_MAX_COEC<0.065307] yes=3,no=4,missing=4,gain=2044.31,cover=425416
		3:[D_CONID_COEC<0.0847072] yes=7,no=8,missing=7,gain=1198.04,cover=149717
			7:[D_CATEGORY_MICRO_MEAN_COEC<0.0267517] yes=15,no=16,missing=16,gain=877.825,cover=113092
				15:leaf=-0.0236169,cover=10148.7
				16:leaf=-0.00820436,cover=102943
			8:[C_D_U_PUBLISHER_AGE_COEC<0.0600137] yes=17,no=18,missing=17,gain=477.666,cover=36624.9
				17:leaf=-0.00940095,cover=8714.68
				18:leaf=0.00400792,cover=27910.3
		4:[KW_REL<0.0225795] yes=9,no=10,missing=9,gain=854.049,cover=275699
			9:[WORD_COUNT<1368.5] yes=19,no=20,missing=19,gain=851.661,cover=273510
				19:leaf=-0.00348106,cover=108249
				20:leaf=0.0022244,cover=165262
			10:[C_D_U_CATEGORY_AGE_MACRO_MAX_COEC<0.110024] yes=21,no=22,missing=22,gain=228.666,cover=2188.5
				21:leaf=0.00103983,cover=485.379
				22:leaf=0.0399422,cover=1703.12
	2:[DOC_AGE<16.5] yes=5,no=6,missing=5,gain=1078.37,cover=472642
		5:[D_CONID_COEC<0.101738] yes=11,no=12,missing=11,gain=2411.76,cover=383975
			11:[KW_REL<0.0347414] yes=23,no=24,missing=23,gain=1382.65,cover=271084
				23:leaf=0.00068295,cover=267612
				24:leaf=0.0324382,cover=3471.31
			12:[D_CONID_COEC<0.116316] yes=25,no=26,missing=26,gain=768.628,cover=112892
				25:leaf=0.0166089,cover=30235.2
				26:leaf=0.00729201,cover=82656.7
		6:[KW_REL<1.0303e-05] yes=13,no=14,missing=13,gain=1731.64,cover=88667
			13:[D_CONID_COEC<0.0842942] yes=27,no=28,missing=27,gain=1549.79,cover=42169.4
				27:leaf=-0.0177188,cover=25083.1
				28:leaf=0.00180587,cover=17086.3
			14:[D_CONID_COEC<0.0813477] yes=29,no=30,missing=29,gain=715.31,cover=46497.6
				29:leaf=-0.00196949,cover=23431.6
				30:leaf=0.0104338,cover=23066
booster[54]:
0:[IMAGE_COUNT<0.5] yes=1,no=2,missing=1,gain=1735.97,cover=893831
	1:[KW_REL<1.82751e-05] yes=3,no=4,missing=3,gain=484.723,cover=16776.3
		3:[D_CATEGORY_MICRO_MAX_COEC<0.08888] yes=7,no=8,missing=7,gain=255.834,cover=11457.4
			7:[C_D_U_CATEGORY_AGE_MICRO_MEAN_COEC<0.0701782] yes=15,no=16,missing=15,gain=393.853,cover=10045.8
				15:leaf=-0.0236078,cover=8290.56
				16:leaf=0.0024621,cover=1755.27
			8:[DOC_AGE<98.5] yes=17,no=18,missing=17,gain=47.4654,cover=1411.58
				17:leaf=-0.0423065,cover=1407.59
				18:leaf=0.113261,cover=3.99294
		4:[CAT_REL<0.223483] yes=9,no=10,missing=9,gain=273.596,cover=5318.85
			9:[D_CONID_COEC<0.0500959] yes=19,no=20,missing=20,gain=119.104,cover=3601.21
				19:leaf=-0.0218758,cover=1550.47
				20:leaf=-0.00351296,cover=2050.74
			10:[C_D_U_PUBLISHER_AGE_COEC<0.0350241] yes=21,no=22,missing=21,gain=190.153,cover=1717.64
				21:leaf=-0.0162192,cover=423.757
				22:leaf=0.0223402,cover=1293.88
	2:[WORD_COUNT<931.5] yes=5,no=6,missing=5,gain=1657,cover=877055
		5:[D_CONID_COEC<0.0820107] yes=11,no=12,missing=12,gain=3893.38,cover=161566
			11:[KW_REL<1.28107e-05] yes=23,no=24,missing=23,gain=1563.21,cover=76606.2
				23:leaf=-0.0169323,cover=55845.4
				24:leaf=-0.00086306,cover=20760.7
			12:[CAT_REL<0.198933] yes=25,no=26,missing=25,gain=561.536,cover=84959.4
				25:leaf=0.000627684,cover=63827.6
				26:leaf=0.0100311,cover=21131.9
		6:[D_CONID_COEC<0.112123] yes=13,no=14,missing=13,gain=1697.96,cover=715489
			13:[D_PUBLISHER_COEC<0.0202796] yes=27,no=28,missing=28,gain=1202.01,cover=556484
				27:leaf=-0.0273899,cover=4004.81
				28:leaf=9.84257e-05,cover=552479
			14:[D_CATEGORY_MACRO_MAX_COEC<0.0932925] yes=29,no=30,missing=30,gain=523.29,cover=159005
				29:leaf=0.00344026,cover=96157.5
				30:leaf=0.00930721,cover=62847.9
booster[55]:
0:[IMAGE_COUNT<0.5] yes=1,no=2,missing=1,gain=1724.69,cover=893005
	1:[KW_REL<1.99311e-05] yes=3,no=4,missing=3,gain=465.122,cover=16512.5
		3:[D_CONID_COEC<0.0556625] yes=7,no=8,missing=7,gain=177.432,cover=11226
			7:[U_GENDER<4.00001] yes=15,no=16,missing=16,gain=111.148,cover=6938.27
				15:leaf=-0.0343487,cover=2859.03
				16:leaf=-0.0214768,cover=4079.24
			8:[C_D_U_CATEGORY_AGE_MACRO_MEAN_COEC<0.0674855] yes=17,no=18,missing=17,gain=354.716,cover=4287.75
				17:leaf=-0.025245,cover=2631.95
				18:leaf=0.00428865,cover=1655.8
		4:[D_CONID_COEC<0.153834] yes=9,no=10,missing=9,gain=201.944,cover=5286.47
			9:[D_CONID_COEC<0.0677557] yes=19,no=20,missing=19,gain=191.506,cover=5178.69
				19:leaf=-0.0096098,cover=3327.31
				20:leaf=0.0104479,cover=1851.38
			10:[C_D_U_CATEGORY_GENDER_MACRO_MEAN_COEC<0.0545562] yes=21,no=22,missing=22,gain=76.3107,cover=107.781
				21:leaf=-0.0296605,cover=55.561
				22:leaf=-0.114166,cover=52.2196
	2:[CAT_REL<0.302328] yes=5,no=6,missing=5,gain=1554.15,cover=876492
		5:[WORD_COUNT<1237.5] yes=11,no=12,missing=11,gain=1394.11,cover=801918
			11:[D_CONID_COEC<0.103693] yes=23,no=24,missing=23,gain=1162.95,cover=271053
				23:leaf=-0.00554182,cover=186375
				24:leaf=0.00152454,cover=84678.7
			12:[D_CONID_COEC<0.102264] yes=25,no=26,missing=25,gain=2452.47,cover=530865
				25:leaf=-0.000986959,cover=388229
				26:leaf=0.00667968,cover=142635
		6:[KW_REL<1.27874e-05] yes=13,no=14,missing=13,gain=2153.17,cover=74574.6
			13:[D_CONID_COEC<0.0651193] yes=27,no=28,missing=27,gain=2323.36,cover=32881.3
				27:leaf=-0.0216457,cover=10645
				28:leaf=0.00675849,cover=22236.3
			14:[D_CONID_COEC<0.0716686] yes=29,no=30,missing=30,gain=1145.21,cover=41693.3
				29:leaf=0.00312468,cover=14169.5
				30:leaf=0.0206198,cover=27523.8
booster[56]:
0:[DOC_AGE<1.5] yes=1,no=2,missing=1,gain=1728.38,cover=893852
	1:[D_CONID_COEC<0.0545552] yes=3,no=4,missing=4,gain=2332.94,cover=105467
		3:[D_CONID_COEC<0.00165228] yes=7,no=8,missing=8,gain=804.178,cover=34659.4
			7:[CAT_REL<0.0191348] yes=15,no=16,missing=15,gain=418.393,cover=13663.9
				15:leaf=-0.0154555,cover=7239.16
				16:leaf=0.00207343,cover=6424.78
			8:[KW_REL<0.00715216] yes=17,no=18,missing=17,gain=452.41,cover=20995.4
				17:leaf=-0.0247457,cover=19616
				18:leaf=0.00487485,cover=1379.45
		4:[KW_REL<1.19037e-05] yes=9,no=10,missing=9,gain=1706.69,cover=70807.5
			9:[D_CATEGORY_MACRO_MAX_COEC<0.0976958] yes=19,no=20,missing=19,gain=418.755,cover=46312.1
				19:leaf=-0.00767948,cover=43494.2
				20:leaf=0.012207,cover=2817.87
			10:[CAT_REL<0.0863759] yes=21,no=22,missing=21,gain=276.986,cover=24495.4
				21:leaf=0.00461572,cover=12441.6
				22:leaf=0.0152511,cover=12053.8
	2:[DOC_AGE<18.5] yes=5,no=6,missing=5,gain=1397.54,cover=788386
		5:[D_CONID_COEC<0.100601] yes=11,no=12,missing=11,gain=3011.75,cover=633346
			11:[D_CONID_COEC<0.00411716] yes=23,no=24,missing=24,gain=1547.03,cover=442820
				23:leaf=-0.0164508,cover=14573.8
				24:leaf=0.000113958,cover=428246
			12:[D_CONID_COEC<0.116659] yes=25,no=26,missing=26,gain=1139.41,cover=190526
				25:leaf=0.0128701,cover=58857.3
				26:leaf=0.00450161,cover=131668
		6:[D_PUBLISHER_COEC<0.0673415] yes=13,no=14,missing=14,gain=868.764,cover=155040
			13:[D_CONID_COEC<0.076774] yes=27,no=28,missing=27,gain=2521.45,cover=70781.3
				27:leaf=-0.0135451,cover=50427
				28:leaf=0.007304,cover=20354.3
			14:[D_CONID_COEC<0.0364396] yes=29,no=30,missing=29,gain=977.854,cover=84258.4
				29:leaf=-0.0262559,cover=3410.82
				30:leaf=0.00107099,cover=80847.6
booster[57]:
0:[C_D_U_CATEGORY_AGE_MICRO_MEAN_COEC<0.0335226] yes=1,no=2,missing=2,gain=1712.78,cover=891891
	1:[KW_REL<1.44051e-05] yes=3,no=4,missing=3,gain=721.161,cover=25347.5
		3:[D_CONID_COEC<0.0319575] yes=7,no=8,missing=7,gain=1230.57,cover=21202.1
			7:[C_D_U_CATEGORY_CITY_MACRO_MAX_COEC<0.848832] yes=15,no=16,missing=16,gain=171.546,cover=10274.2
				15:leaf=-0.0291949,cover=10265.1
				16:leaf=0.177235,cover=9.09372
			8:[DAY_OF_WEEK<3.5] yes=17,no=18,missing=17,gain=218.053,cover=10928
				17:leaf=-0.000348648,cover=7729.88
				18:leaf=-0.0158705,cover=3198.08
		4:[CAT_REL<0.0159655] yes=9,no=10,missing=9,gain=159.052,cover=4145.38
			9:[C_D_U_PUBLISHER_AGE_COEC<0.110583] yes=19,no=20,missing=20,gain=102.93,cover=2156.1
				19:leaf=-0.00477261,cover=2112.01
				20:leaf=0.0715749,cover=44.0897
			10:[DOC_AGE<11.5] yes=21,no=22,missing=21,gain=114.523,cover=1989.28
				21:leaf=0.0242709,cover=1392.41
				22:leaf=-0.00190164,cover=596.866
	2:[DOC_AGE<1.5] yes=5,no=6,missing=5,gain=1374.12,cover=866543
		5:[KW_REL<1.11199e-05] yes=11,no=12,missing=11,gain=2199.54,cover=99833.2
			11:[D_CONID_COEC<0.0537184] yes=23,no=24,missing=24,gain=1441.28,cover=66592.9
				23:leaf=-0.0210569,cover=21540.5
				24:leaf=-0.00533265,cover=45052.3
			12:[D_CONID_COEC<0.0669601] yes=25,no=26,missing=26,gain=545.59,cover=33240.3
				25:leaf=-0.00286183,cover=12615.2
				26:leaf=0.0103384,cover=20625.1
		6:[DOC_AGE<16.5] yes=13,no=14,missing=13,gain=1538.96,cover=766710
			13:[D_CONID_COEC<0.100601] yes=27,no=28,missing=27,gain=2714.9,cover=587082
				27:leaf=3.65548e-05,cover=406853
				28:leaf=0.00740821,cover=180229
			14:[D_PUBLISHER_COEC<0.0673415] yes=29,no=30,missing=29,gain=812.198,cover=179628
				29:leaf=-0.00676302,cover=79486
				30:leaf=6.10787e-06,cover=100142
booster[58]:
0:[CAT_REL<0.000215327] yes=1,no=2,missing=1,gain=1592.86,cover=891440
	1:[C_D_U_CATEGORY_AGE_MACRO_MAX_COEC<0.065307] yes=3,no=4,missing=4,gain=1819.51,cover=422822
		3:[C_D_U_PUBLISHER_AGE_COEC<0.0223429] yes=7,no=8,missing=7,gain=672.139,cover=147547
			7:[D_CONID_COEC<0.02867] yes=15,no=16,missing=16,gain=192.713,cover=2916.2
				15:leaf=-0.0430012,cover=1498.39
				16:leaf=-0.0172687,cover=1417.81
			8:[LARGE_IMAGE<0.5] yes=17,no=18,missing=17,gain=553.771,cover=144631
				17:leaf=-0.00411642,cover=97745.5
				18:leaf=-0.0107264,cover=46885.2
		4:[KW_REL<0.0273533] yes=9,no=10,missing=9,gain=653.999,cover=275276
			9:[C_D_U_PUBLISHER_GENDER_COEC<0.0950976] yes=19,no=20,missing=19,gain=620.778,cover=273760
				19:leaf=-0.00141905,cover=204885
				20:leaf=0.00406793,cover=68875.6
			10:[C_D_U_PUBLISHER_GENDER_COEC<0.0720358] yes=21,no=22,missing=22,gain=216.867,cover=1515.39
				21:leaf=0.0423261,cover=1212.98
				22:leaf=-0.00498072,cover=302.416
	2:[DOC_AGE<21.5] yes=5,no=6,missing=5,gain=997.355,cover=468618
		5:[D_CONID_COEC<0.102147] yes=11,no=12,missing=11,gain=1415.47,cover=415431
			11:[KW_REL<0.0362934] yes=23,no=24,missing=23,gain=881.075,cover=294557
				23:leaf=0.000641075,cover=291308
				24:leaf=0.02682,cover=3248.89
			12:[D_CONID_COEC<0.116316] yes=25,no=26,missing=26,gain=833.917,cover=120874
				25:leaf=0.0143245,cover=31676.4
				26:leaf=0.00488057,cover=89197.4
		6:[D_CONID_COEC<0.0883579] yes=13,no=14,missing=13,gain=618.618,cover=53186.8
			13:[C_D_U_CATEGORY_GENDER_MACRO_MAX_COEC<0.104577] yes=27,no=28,missing=28,gain=294.511,cover=33147.6
				27:leaf=-0.00728441,cover=30529.9
				28:leaf=-0.0247574,cover=2617.74
			14:[D_CONID_COEC<0.11761] yes=29,no=30,missing=30,gain=424.199,cover=20039.2
				29:leaf=0.00974054,cover=10014.8
				30:leaf=-0.00480816,cover=10024.4
booster[59]:
0:[CAT_REL<0.000611058] yes=1,no=2,missing=1,gain=1471.93,cover=891087
	1:[C_D_U_CATEGORY_CITY_MICRO_MAX_COEC<0.124721] yes=3,no=4,missing=4,gain=1245.77,cover=422213
		3:[D_CONID_COEC<0.00287728] yes=7,no=8,missing=7,gain=910.397,cover=309647
			7:[C_D_U_CATEGORY_AGE_MICRO_MEAN_COEC<0.0443557] yes=15,no=16,missing=16,gain=142.242,cover=12009.2
				15:leaf=-0.0234793,cover=5191.79
				16:leaf=-0.0124914,cover=6817.42
			8:[D_CONID_COEC<0.181445] yes=17,no=18,missing=18,gain=709.775,cover=297638
				17:leaf=-0.00388594,cover=275991
				18:leaf=0.00551609,cover=21646.8
		4:[D_CONID_COEC<0.0742391] yes=9,no=10,missing=9,gain=8123.29,cover=112566
			9:[U_CAT_LEN<0.5] yes=19,no=20,missing=19,gain=810.538,cover=58222.6
				19:leaf=-0.0247614,cover=8589.71
				20:leaf=-0.00812658,cover=49632.9
			10:[U_CAT_LEN<0.5] yes=21,no=22,missing=21,gain=1130.98,cover=54343.4
				21:leaf=0.00184267,cover=10833.9
				22:leaf=0.0198974,cover=43509.5
	2:[DOC_AGE<17.5] yes=5,no=6,missing=5,gain=1039.59,cover=468874
		5:[D_CONID_COEC<0.101738] yes=11,no=12,missing=11,gain=1352.87,cover=389397
			11:[KW_REL<0.0322407] yes=23,no=24,missing=23,gain=1425.28,cover=276003
				23:leaf=0.00068516,cover=271740
				24:leaf=0.0298186,cover=4263.02
			12:[D_CONID_COEC<0.116316] yes=25,no=26,missing=26,gain=1013.31,cover=113394
				25:leaf=0.0153622,cover=30799.5
				26:leaf=0.00473581,cover=82594.6
		6:[D_CONID_COEC<0.0886316] yes=13,no=14,missing=13,gain=958.691,cover=79476.9
			13:[CAT_REL<0.129205] yes=27,no=28,missing=27,gain=641.839,cover=48222.6
				27:leaf=-0.0129696,cover=26156.6
				28:leaf=-0.00139106,cover=22066
			14:[D_CONID_COEC<0.116554] yes=29,no=30,missing=30,gain=480.884,cover=31254.2
				29:leaf=0.010151,cover=14701.8
				30:leaf=-0.00227457,cover=16552.5
booster[60]:
0:[CAT_REL<0.000238791] yes=1,no=2,missing=1,gain=1511.63,cover=891632
	1:[C_D_U_CATEGORY_GENDER_MICRO_MAX_COEC<0.0658931] yes=3,no=4,missing=4,gain=1230.08,cover=421991
		3:[D_CONID_COEC<0.0877009] yes=7,no=8,missing=7,gain=794.521,cover=148574
			7:[D_CONID_COEC<0.00350652] yes=15,no=16,missing=16,gain=625.189,cover=114472
				15:leaf=-0.0241105,cover=5534.92
				16:leaf=-0.00688576,cover=108937
			8:[C_D_U_PUBLISHER_AGE_COEC<0.0581058] yes=17,no=18,missing=17,gain=528.472,cover=34102.8
				17:leaf=-0.0118137,cover=6529.48
				18:leaf=0.00400472,cover=27573.3
		4:[KW_REL<0.0207786] yes=9,no=10,missing=9,gain=651.914,cover=273417
			9:[WORD_COUNT<1368.5] yes=19,no=20,missing=19,gain=686.22,cover=271048
				19:leaf=-0.0034048,cover=107403
				20:leaf=0.00173875,cover=163645
			10:[C_D_U_CATEGORY_AGE_MICRO_MAX_COEC<0.0687255] yes=21,no=22,missing=21,gain=237.749,cover=2368.75
				21:leaf=0.0355156,cover=1744.05
				22:leaf=-0.000428776,cover=624.706
	2:[DOC_AGE<17.5] yes=5,no=6,missing=5,gain=1019.12,cover=469641
		5:[D_CONID_COEC<0.0847075] yes=11,no=12,missing=11,gain=8710.24,cover=389881
			11:[KW_REL<0.0349666] yes=23,no=24,missing=23,gain=878.61,cover=221610
				23:leaf=-0.00375243,cover=218813
				24:leaf=0.024446,cover=2796.73
			12:[D_CONID_COEC<0.116316] yes=25,no=26,missing=26,gain=2894.8,cover=168271
				25:leaf=0.0181407,cover=85551.8
				26:leaf=0.00502273,cover=82719.2
		6:[D_PUBLISHER_COEC<0.0479003] yes=13,no=14,missing=13,gain=947.641,cover=79759.9
			13:[D_CONID_COEC<0.0601434] yes=27,no=28,missing=27,gain=526.841,cover=13302.7
				27:leaf=-0.0208782,cover=10093.8
				28:leaf=0.00237885,cover=3208.94
			14:[D_CONID_COEC<0.0298161] yes=29,no=30,missing=30,gain=1098.34,cover=66457.2
				29:leaf=-0.0291681,cover=3211.77
				30:leaf=0.000799878,cover=63245.4
booster[61]:
0:[DOC_AGE<1.5] yes=1,no=2,missing=1,gain=1411.88,cover=890083
	1:[D_CONID_COEC<0.0545552] yes=3,no=4,missing=4,gain=1798.57,cover=104497
		3:[D_CONID_COEC<0.00165228] yes=7,no=8,missing=8,gain=1084.53,cover=34126
			7:[KW_REL<0.00592946] yes=15,no=16,missing=15,gain=270.025,cover=13473.7
				15:leaf=-0.00575118,cover=12551.3
				16:leaf=0.0222643,cover=922.393
			8:[D_CONID_COEC<0.0394088] yes=17,no=18,missing=18,gain=459.636,cover=20652.3
				17:leaf=-0.0304449,cover=9132.3
				18:leaf=-0.0154234,cover=11520
		4:[CAT_REL<0.0468859] yes=9,no=10,missing=9,gain=573.955,cover=70370.8
			9:[DOC_AGE<-0.5] yes=19,no=20,missing=19,gain=316.89,cover=40312.7
				19:leaf=0.0151694,cover=1896.18
				20:leaf=-0.00576418,cover=38416.5
			10:[KW_REL<1.19037e-05] yes=21,no=22,missing=21,gain=760.69,cover=30058.1
				21:leaf=-0.0038043,cover=14656.8
				22:leaf=0.0121084,cover=15401.3
	2:[D_CONID_COEC<0.00163958] yes=5,no=6,missing=6,gain=1226.11,cover=785586
		5:[DOC_AGE<13.5] yes=11,no=12,missing=11,gain=384.57,cover=16642
			11:[U_GENDER<4.00001] yes=23,no=24,missing=24,gain=245.902,cover=13267
				23:leaf=-0.0255595,cover=4801.92
				24:leaf=-0.0113927,cover=8465.11
			12:[C_D_U_PUBLISHER_GENDER_COEC<0.0779434] yes=25,no=26,missing=25,gain=216.522,cover=3374.94
				25:leaf=-0.00182825,cover=3039.96
				26:leaf=0.0404701,cover=334.979
		6:[DOC_AGE<14.5] yes=13,no=14,missing=13,gain=1303.71,cover=768944
			13:[D_CONID_COEC<0.099829] yes=27,no=28,missing=27,gain=2490.34,cover=551847
				27:leaf=5.85141e-05,cover=379701
				28:leaf=0.00730852,cover=172146
			14:[C_D_U_CATEGORY_GENDER_MACRO_MAX_COEC<0.0595468] yes=29,no=30,missing=30,gain=413.67,cover=217098
				29:leaf=-0.00581936,cover=59168.5
				30:leaf=-0.000917662,cover=157929
booster[62]:
0:[IMAGE_COUNT<0.5] yes=1,no=2,missing=1,gain=1369.81,cover=889642
	1:[KW_REL<1.8885e-05] yes=3,no=4,missing=3,gain=287.906,cover=16187.1
		3:[WORD_COUNT<1384.5] yes=7,no=8,missing=7,gain=200.233,cover=11013.1
			7:[WORD_COUNT<1354.5] yes=15,no=16,missing=15,gain=263.677,cover=5799.47
				15:leaf=-0.0163133,cover=5136.71
				16:leaf=0.0171782,cover=662.766
			8:[D_CONID_COEC<0.00723486] yes=17,no=18,missing=17,gain=156.039,cover=5213.58
				17:leaf=-0.0129621,cover=1597.1
				18:leaf=-0.0317384,cover=3616.48
		4:[CAT_REL<0.159988] yes=9,no=10,missing=9,gain=162.055,cover=5174.03
			9:[D_CONID_COEC<0.107748] yes=19,no=20,missing=19,gain=134.421,cover=2938.39
				19:leaf=-0.00946422,cover=2747.21
				20:leaf=-0.0527281,cover=191.179
			10:[C_D_U_PUBLISHER_GENDER_COEC<0.137111] yes=21,no=22,missing=21,gain=118.634,cover=2235.65
				21:leaf=0.0023409,cover=2074.26
				22:leaf=0.04672,cover=161.389
	2:[CAT_REL<0.000720707] yes=5,no=6,missing=5,gain=1312.64,cover=873455
		5:[C_D_U_CATEGORY_AGE_MACRO_MAX_COEC<0.0758406] yes=11,no=12,missing=12,gain=1227.18,cover=413935
			11:[LARGE_IMAGE<0.5] yes=23,no=24,missing=23,gain=704.676,cover=186646
				23:leaf=-0.0026141,cover=128653
				24:leaf=-0.00925271,cover=57992.6
			12:[D_PUBLISHER_COEC<0.035226] yes=25,no=26,missing=25,gain=822.481,cover=227289
				25:leaf=-0.0162221,cover=6884.89
				26:leaf=0.00132612,cover=220404
		6:[DOC_AGE<17.5] yes=13,no=14,missing=13,gain=777.446,cover=459520
			13:[D_CONID_COEC<0.0847072] yes=27,no=28,missing=27,gain=6878.09,cover=381702
				27:leaf=-0.00273296,cover=216247
				28:leaf=0.0108111,cover=165454
			14:[D_PUBLISHER_COEC<0.0479003] yes=29,no=30,missing=30,gain=690.811,cover=77818.6
				29:leaf=-0.0132411,cover=12255.5
				30:leaf=-0.000308627,cover=65563.1
booster[63]:
0:[WORD_COUNT<931.5] yes=1,no=2,missing=1,gain=1318.1,cover=887149
	1:[D_CONID_COEC<0.0800436] yes=3,no=4,missing=4,gain=2777.16,cover=164503
		3:[KW_REL<1.37774e-05] yes=7,no=8,missing=7,gain=1335.52,cover=75897.2
			7:[D_CONID_COEC<0.0604942] yes=15,no=16,missing=16,gain=1368.7,cover=55221.3
				15:leaf=-0.0210361,cover=35279.2
				16:leaf=-0.00464765,cover=19942.1
			8:[D_CONID_COEC<0.0559228] yes=17,no=18,missing=18,gain=670.438,cover=20675.9
				17:leaf=-0.00840473,cover=11320.5
				18:leaf=0.00968349,cover=9355.43
		4:[D_CATEGORY_MICRO_MAX_COEC<0.064274] yes=9,no=10,missing=9,gain=663.443,cover=88606
			9:[D_CONID_COEC<0.129776] yes=19,no=20,missing=20,gain=422.531,cover=24569.2
				19:leaf=0.0118277,cover=20617.5
				20:leaf=-0.00601875,cover=3951.71
			10:[CAT_REL<0.177317] yes=21,no=22,missing=21,gain=521.943,cover=64036.8
				21:leaf=-0.00401851,cover=41635.7
				22:leaf=0.00544648,cover=22401.1
	2:[D_PUBLISHER_COEC<0.0200377] yes=5,no=6,missing=6,gain=1120.83,cover=722646
		5:[KW_REL<0.00017641] yes=11,no=12,missing=11,gain=193.855,cover=4622.25
			11:[D_CONID_COEC<0.00452856] yes=23,no=24,missing=23,gain=125.627,cover=3724.84
				23:leaf=-0.0192079,cover=1814.71
				24:leaf=-0.0375978,cover=1910.13
			12:[D_CATEGORY_MACRO_MAX_COEC<0.0768901] yes=25,no=26,missing=25,gain=80.2926,cover=897.411
				25:leaf=0.00441917,cover=729.946
				26:leaf=-0.0338719,cover=167.465
		6:[CAT_REL<0.000238791] yes=13,no=14,missing=13,gain=1006.03,cover=718024
			13:[C_D_U_CATEGORY_CITY_MICRO_MAX_COEC<0.124721] yes=27,no=28,missing=28,gain=897.997,cover=346039
				27:leaf=-0.00240044,cover=253688
				28:leaf=0.00335789,cover=92351.4
			14:[DOC_AGE<19.5] yes=29,no=30,missing=29,gain=698.858,cover=371984
				29:leaf=0.00375244,cover=320307
				30:leaf=-0.00251357,cover=51677.1
booster[64]:
0:[D_CATEGORY_MICRO_MEAN_COEC<0.0291001] yes=1,no=2,missing=2,gain=1243.31,cover=888805
	1:[D_CONID_COEC<0.0407979] yes=3,no=4,missing=3,gain=684.446,cover=18989.7
		3:[KW_REL<0.000254469] yes=7,no=8,missing=7,gain=377.209,cover=13457.3
			7:[C_D_U_CATEGORY_CITY_MACRO_MAX_COEC<0.848832] yes=15,no=16,missing=16,gain=157.143,cover=11456.5
				15:leaf=-0.0222592,cover=11445.5
				16:leaf=0.158703,cover=11.0241
			8:[CAT_REL<0.140242] yes=17,no=18,missing=17,gain=215.104,cover=2000.72
				17:leaf=-0.00556898,cover=1690.71
				18:leaf=0.0396742,cover=310.013
		4:[D_CONID_COEC<0.114592] yes=9,no=10,missing=10,gain=240.644,cover=5532.46
			9:[DAY_OF_WEEK<3.5] yes=19,no=20,missing=19,gain=200.257,cover=5334.02
				19:leaf=0.0113766,cover=3489.02
				20:leaf=-0.00898682,cover=1845
			10:[TIME_OF_DAY<20.5] yes=21,no=22,missing=21,gain=70.8792,cover=198.438
				21:leaf=-0.0626968,cover=174.287
				22:leaf=0.0277284,cover=24.1511
	2:[WORD_COUNT<931.5] yes=5,no=6,missing=5,gain=1260.15,cover=869815
		5:[D_CONID_COEC<0.0684537] yes=11,no=12,missing=12,gain=3241.08,cover=162153
			11:[D_CATEGORY_MACRO_MAX_COEC<0.0510471] yes=23,no=24,missing=23,gain=515.041,cover=56896
				23:leaf=-0.00695108,cover=21111.2
				24:leaf=-0.016799,cover=35784.8
			12:[D_CATEGORY_MICRO_MEAN_COEC<0.0656952] yes=25,no=26,missing=25,gain=695.06,cover=105257
				25:leaf=0.00734875,cover=35610.5
				26:leaf=-0.00123868,cover=69646.5
		6:[LARGE_IMAGE<0.5] yes=13,no=14,missing=13,gain=770.192,cover=707662
			13:[KW_REL<1.02412e-05] yes=27,no=28,missing=27,gain=6797.74,cover=495150
				27:leaf=-0.00175105,cover=327698
				28:leaf=0.0106323,cover=167452
			14:[D_CONID_COEC<0.084104] yes=29,no=30,missing=29,gain=6262.66,cover=212512
				29:leaf=-0.00785552,cover=132144
				30:leaf=0.00984445,cover=80368.6
booster[65]:
0:[IMAGE_COUNT<0.5] yes=1,no=2,missing=1,gain=1457.44,cover=886279
	1:[KW_REL<1.82751e-05] yes=3,no=4,missing=3,gain=368.039,cover=15941.8
		3:[D_CATEGORY_MICRO_MAX_COEC<0.0874943] yes=7,no=8,missing=7,gain=164.283,cover=10722.1
			7:[D_CATEGORY_MACRO_MAX_COEC<0.0576704] yes=15,no=16,missing=15,gain=212.099,cover=9327.03
				15:leaf=-0.0226304,cover=6762.34
				16:leaf=-0.00574122,cover=2564.69
			8:[D_CATEGORY_MACRO_MAX_COEC<0.115678] yes=17,no=18,missing=18,gain=59.8248,cover=1395.1
				17:leaf=-0.0388768,cover=1318.76
				18:leaf=0.00657025,cover=76.333
		4:[CAT_REL<0.168806] yes=9,no=10,missing=9,gain=197.226,cover=5219.69
			9:[D_CATEGORY_MACRO_MAX_COEC<0.0567001] yes=19,no=20,missing=19,gain=101.901,cover=3031.06
				19:leaf=-0.0212974,cover=1569.03
				20:leaf=-0.00295102,cover=1462.03
			10:[D_CATEGORY_MACRO_MAX_COEC<0.0866169] yes=21,no=22,missing=22,gain=143.686,cover=2188.63
				21:leaf=0.0125395,cover=1869.1
				22:leaf=-0.0236954,cover=319.527
	2:[DOC_AGE<1.5] yes=5,no=6,missing=5,gain=1224.91,cover=870337
		5:[KW_REL<1.11199e-05] yes=11,no=12,missing=11,gain=1796.54,cover=101062
			11:[D_CONID_COEC<0.0615329] yes=23,no=24,missing=24,gain=890.85,cover=68005.8
				23:leaf=-0.0166077,cover=27449.3
				24:leaf=-0.00494363,cover=40556.4
			12:[KW_REL<0.0263839] yes=25,no=26,missing=25,gain=336.621,cover=33055.8
				25:leaf=0.00347379,cover=31598.7
				26:leaf=0.0280463,cover=1457.08
		6:[D_CONID_COEC<0.00268932] yes=13,no=14,missing=14,gain=1055.47,cover=769276
			13:[KW_REL<0.00705929] yes=27,no=28,missing=27,gain=471.49,cover=14325
				27:leaf=-0.0149977,cover=13385.1
				28:leaf=0.0216223,cover=939.883
			14:[DOC_AGE<12.5] yes=29,no=30,missing=29,gain=1206.12,cover=754951
				29:leaf=0.00252994,cover=500765
				30:leaf=-0.001699,cover=254186
booster[66]:
0:[WORD_COUNT<2913.5] yes=1,no=2,missing=1,gain=1238.25,cover=887560
	1:[TIME_OF_DAY<19.5] yes=3,no=4,missing=3,gain=1014.82,cover=724432
		3:[D_PUBLISHER_COEC<0.0673415] yes=7,no=8,missing=7,gain=1951.94,cover=700953
			7:[D_CONID_COEC<0.0848618] yes=15,no=16,missing=15,gain=6445.38,cover=344048
				15:leaf=-0.00741339,cover=267973
				16:leaf=0.00907718,cover=76074.6
			8:[WORD_COUNT<1341.5] yes=17,no=18,missing=17,gain=744.811,cover=356905
				17:leaf=-0.00061761,cover=191025
				18:leaf=0.00396198,cover=165880
		4:[D_CONID_COEC<0.0483817] yes=9,no=10,missing=10,gain=1384.12,cover=23479.4
			9:[C_D_U_CATEGORY_AGE_MACRO_MAX_COEC<0.0496179] yes=19,no=20,missing=19,gain=152.911,cover=5012.6
				19:leaf=-0.0048648,cover=2446.56
				20:leaf=-0.0223364,cover=2566.04
			10:[DOC_AGE<2.5] yes=21,no=22,missing=21,gain=306.663,cover=18466.8
				21:leaf=-0.0105477,cover=1040.52
				22:leaf=0.0173868,cover=17426.3
	2:[KW_REL<1.0303e-05] yes=5,no=6,missing=5,gain=2967.43,cover=163128
		5:[D_CONID_COEC<0.0773277] yes=11,no=12,missing=11,gain=3123.27,cover=103128
			11:[D_CATEGORY_MACRO_MAX_COEC<0.0767861] yes=23,no=24,missing=24,gain=777.618,cover=52654.8
				23:leaf=-0.00514943,cover=34387.9
				24:leaf=-0.0179149,cover=18266.9
			12:[C_D_U_CATEGORY_AGE_MICRO_MAX_COEC<0.0448518] yes=25,no=26,missing=26,gain=397.943,cover=50473.7
				25:leaf=-0.0256347,cover=872.151
				26:leaf=0.00841699,cover=49601.5
		6:[D_CONID_COEC<0.0650187] yes=13,no=14,missing=14,gain=1167.69,cover=59999.1
			13:[D_CATEGORY_MICRO_MAX_COEC<0.076563] yes=27,no=28,missing=27,gain=498.457,cover=19864.6
				27:leaf=0.00771915,cover=14677.7
				28:leaf=-0.0103113,cover=5186.95
			14:[D_CONID_COEC<0.115759] yes=29,no=30,missing=30,gain=848.649,cover=40134.5
				29:leaf=0.0229585,cover=26810.3
				30:leaf=0.00751873,cover=13324.2
booster[67]:
0:[IMAGE_COUNT<0.5] yes=1,no=2,missing=1,gain=1133.3,cover=886450
	1:[KW_REL<1.82751e-05] yes=3,no=4,missing=3,gain=339.543,cover=15896.4
		3:[WORD_COUNT<1369.5] yes=7,no=8,missing=7,gain=185.442,cover=10665.2
			7:[C_D_U_CATEGORY_GENDER_MACRO_MAX_COEC<0.0585759] yes=15,no=16,missing=16,gain=173.319,cover=5604.95
				15:leaf=-0.0203183,cover=2929.95
				16:leaf=-0.00271555,cover=2675.01
			8:[D_CONID_COEC<0.00720904] yes=17,no=18,missing=17,gain=168.656,cover=5060.29
				17:leaf=-0.0114402,cover=1559.6
				18:leaf=-0.0312183,cover=3500.69
		4:[U_GENDER<4.00001] yes=9,no=10,missing=10,gain=180.676,cover=5231.11
			9:[C_D_U_PUBLISHER_CITY_COEC<0.0817782] yes=19,no=20,missing=20,gain=157.657,cover=2242.54
				19:leaf=-0.0205142,cover=1736.39
				20:leaf=0.0111796,cover=506.143
			10:[DOC_AGE<15.5] yes=21,no=22,missing=21,gain=161.595,cover=2988.58
				21:leaf=-0.00236557,cover=2064.65
				22:leaf=0.022782,cover=923.924
	2:[D_PUBLISHER_COEC<0.0200253] yes=5,no=6,missing=6,gain=928.049,cover=870554
		5:[KW_REL<0.00365615] yes=11,no=12,missing=11,gain=269.884,cover=4103.05
			11:[D_KW_LEN<6.5] yes=23,no=24,missing=23,gain=119.759,cover=3864.9
				23:leaf=0.188118,cover=5.50456
				24:leaf=-0.026858,cover=3859.4
			12:[D_CATEGORY_MACRO_MAX_COEC<0.0182098] yes=25,no=26,missing=25,gain=85.7191,cover=238.142
				25:leaf=0.077317,cover=63.8953
				26:leaf=0.00992387,cover=174.247
		6:[WORD_COUNT<1237.5] yes=13,no=14,missing=13,gain=904.989,cover=866451
			13:[D_CONID_COEC<0.0770641] yes=27,no=28,missing=27,gain=4596.07,cover=302706
				27:leaf=-0.00838705,cover=138786
				28:leaf=0.00397764,cover=163920
			14:[LARGE_IMAGE<0.5] yes=29,no=30,missing=29,gain=950.92,cover=563745
				29:leaf=0.00303959,cover=395093
				30:leaf=-0.00144516,cover=168651
booster[68]:
0:[IMAGE_COUNT<0.5] yes=1,no=2,missing=1,gain=1123.1,cover=885853
	1:[KW_REL<1.82751e-05] yes=3,no=4,missing=3,gain=348.903,cover=15821.7
		3:[WORD_COUNT<1382] yes=7,no=8,missing=7,gain=256.329,cover=10588.4
			7:[DOC_AGE<13.5] yes=15,no=16,missing=15,gain=262.091,cover=5622.01
				15:leaf=-0.0187884,cover=3723.31
				16:leaf=0.00403573,cover=1898.7
			8:[C_D_U_CATEGORY_CITY_MACRO_MAX_COEC<0.197156] yes=17,no=18,missing=17,gain=101.613,cover=4966.38
				17:leaf=-0.0274199,cover=4913.06
				18:leaf=0.0414374,cover=53.3222
		4:[D_PUBLISHER_COEC<0.0510616] yes=9,no=10,missing=10,gain=152.855,cover=5233.31
			9:[TIME_OF_DAY<14.5] yes=19,no=20,missing=19,gain=164.555,cover=2969.57
				19:leaf=-0.00264186,cover=2123.88
				20:leaf=-0.028712,cover=845.685
			10:[CAT_REL<0.458327] yes=21,no=22,missing=21,gain=151.58,cover=2263.74
				21:leaf=0.00299587,cover=2051.18
				22:leaf=0.0472601,cover=212.566
	2:[C_D_U_CATEGORY_GENDER_MICRO_MEAN_COEC<0.025243] yes=5,no=6,missing=6,gain=897.535,cover=870031
		5:[D_CONID_COEC<0.0334186] yes=11,no=12,missing=12,gain=310.748,cover=10386.4
			11:[KW_REL<0.00483425] yes=23,no=24,missing=23,gain=166.401,cover=5367.76
				23:leaf=-0.0242676,cover=5204.11
				24:leaf=0.0268185,cover=163.647
			12:[D_PUBLISHER_COEC<0.0331957] yes=25,no=26,missing=26,gain=135.256,cover=5018.61
				25:leaf=-0.0236979,cover=839.626
				26:leaf=-0.00171643,cover=4178.98
		6:[WORD_COUNT<1368.5] yes=13,no=14,missing=13,gain=869.369,cover=859644
			13:[CAT_REL<0.287816] yes=27,no=28,missing=27,gain=923.608,cover=349352
				27:leaf=-0.00243915,cover=306640
				28:leaf=0.00540866,cover=42712.7
			14:[WORD_COUNT<1399.5] yes=29,no=30,missing=29,gain=1382.61,cover=510292
				29:leaf=0.0150033,cover=18968.1
				30:leaf=0.00124632,cover=491324
booster[69]:
0:[DOC_AGE<1.5] yes=1,no=2,missing=1,gain=1230.84,cover=885031
	1:[KW_REL<1.10092e-05] yes=3,no=4,missing=3,gain=1929.51,cover=103337
		3:[D_CONID_COEC<0.0548629] yes=7,no=8,missing=8,gain=857.777,cover=69457.6
			7:[D_CONID_COEC<0.00165228] yes=15,no=16,missing=16,gain=626.223,cover=23888.2
				15:leaf=-0.00717487,cover=9156.18
				16:leaf=-0.0238266,cover=14732
			8:[DOC_AGE<-1.5] yes=17,no=18,missing=17,gain=328.947,cover=45569.5
				17:leaf=0.0155893,cover=1736.63
				18:leaf=-0.00659292,cover=43832.8
		4:[CAT_REL<0.0520033] yes=9,no=10,missing=9,gain=288.747,cover=33879.4
			9:[C_D_U_CATEGORY_AGE_MICRO_MAX_COEC<0.0739768] yes=19,no=20,missing=20,gain=304.628,cover=13687.7
				19:leaf=-0.00785256,cover=7248.46
				20:leaf=0.00709078,cover=6439.27
			10:[C_D_U_CATEGORY_AGE_MICRO_MEAN_COEC<0.0800759] yes=21,no=22,missing=22,gain=285.281,cover=20191.6
				21:leaf=0.0128842,cover=13252.9
				22:leaf=0.000370289,cover=6938.71
	2:[TIME_OF_DAY<17.5] yes=5,no=6,missing=5,gain=927.17,cover=781694
		5:[D_PUBLISHER_COEC<0.0673415] yes=11,no=12,missing=12,gain=1242.09,cover=691631
			11:[KW_REL<1.01846e-05] yes=23,no=24,missing=23,gain=6703.76,cover=328642
				23:leaf=-0.00701591,cover=221252
				24:leaf=0.00820929,cover=107391
			12:[D_CATEGORY_MICRO_MAX_COEC<0.0533655] yes=25,no=26,missing=25,gain=868.25,cover=362988
				25:leaf=0.0077854,cover=58425.9
				26:leaf=0.00113121,cover=304563
		6:[D_CONID_COEC<0.0654482] yes=13,no=14,missing=13,gain=5369.79,cover=90063.5
			13:[C_D_U_CATEGORY_AGE_MACRO_MAX_COEC<0.103302] yes=27,no=28,missing=27,gain=362.656,cover=35014.6
				27:leaf=-0.00876262,cover=33798.3
				28:leaf=-0.0365425,cover=1216.26
			14:[D_CONID_COEC<0.124335] yes=29,no=30,missing=30,gain=628.853,cover=55048.9
				29:leaf=0.0186166,cover=39850.2
				30:leaf=0.00666238,cover=15198.7
booster[70]:
0:[WORD_COUNT<2913.5] yes=1,no=2,missing=1,gain=1056.66,cover=884127
	1:[D_CONID_COEC<0.182001] yes=3,no=4,missing=3,gain=874.347,cover=721658
		3:[CAT_REL<0.355203] yes=7,no=8,missing=7,gain=853.83,cover=679635
			7:[C_D_U_CATEGORY_CITY_MICRO_MAX_COEC<0.122942] yes=15,no=16,missing=16,gain=803.565,cover=634902
				15:leaf=-0.00249545,cover=540372
				16:leaf=0.00250144,cover=94530.5
			8:[KW_REL<1.24148e-05] yes=17,no=18,missing=17,gain=894.422,cover=44732.7
				17:leaf=-0.00241391,cover=20149.2
				18:leaf=0.0117962,cover=24583.5
		4:[C_D_U_CATEGORY_GENDER_MACRO_MAX_COEC<0.0449392] yes=9,no=10,missing=9,gain=398.831,cover=42022.9
			9:[D_PUBLISHER_COEC<0.0324928] yes=19,no=20,missing=20,gain=155.572,cover=522.766
				19:leaf=0.0231586,cover=88.124
				20:leaf=-0.0494731,cover=434.642
			10:[C_D_U_PUBLISHER_GENDER_COEC<0.0587829] yes=21,no=22,missing=21,gain=225.912,cover=41500.2
				21:leaf=-0.0126148,cover=1460.09
				22:leaf=0.00740232,cover=40040.1
	2:[D_CONID_COEC<0.0775662] yes=5,no=6,missing=5,gain=3407.89,cover=162468
		5:[KW_REL<1.18213e-05] yes=11,no=12,missing=11,gain=1866.85,cover=80643.6
			11:[D_CATEGORY_MACRO_MAX_COEC<0.0877239] yes=23,no=24,missing=24,gain=738.935,cover=52385.7
				23:leaf=-0.00578261,cover=38972.5
				24:leaf=-0.0193886,cover=13413.2
			12:[C_D_U_CATEGORY_AGE_MICRO_MEAN_COEC<0.0726831] yes=25,no=26,missing=25,gain=813.316,cover=28257.8
				25:leaf=0.0121156,cover=20028.5
				26:leaf=-0.00655443,cover=8229.33
		6:[D_CONID_COEC<0.124189] yes=13,no=14,missing=14,gain=864.156,cover=81824.9
			13:[KW_REL<1.22075e-05] yes=27,no=28,missing=27,gain=814.844,cover=57494.9
				27:leaf=0.00959736,cover=36298.6
				28:leaf=0.0219358,cover=21196.2
			14:[WORD_COUNT<4923.5] yes=29,no=30,missing=29,gain=274.851,cover=24330
				29:leaf=0.00389235,cover=23518.6
				30:leaf=-0.0256879,cover=811.431
booster[71]:
0:[CAT_REL<0.000714493] yes=1,no=2,missing=1,gain=991.777,cover=883321
	1:[KW_REL<1.11036e-05] yes=3,no=4,missing=3,gain=2391.04,cover=418058
		3:[C_D_U_PUBLISHER_GENDER_COEC<0.103291] yes=7,no=8,missing=7,gain=736.1,cover=356413
			7:[C_D_U_CATEGORY_AGE_MICRO_MAX_COEC<0.036784] yes=15,no=16,missing=16,gain=545.229,cover=304742
				15:leaf=-0.012187,cover=21092
				16:leaf=-0.0038546,cover=283650
			8:[D_CONID_COEC<0.062792] yes=17,no=18,missing=18,gain=895.078,cover=51671.2
				17:leaf=-0.0219137,cover=3630.16
				18:leaf=0.0038317,cover=48041
		4:[D_CONID_COEC<0.0670793] yes=9,no=10,missing=10,gain=1977.56,cover=61644.8
			9:[D_CATEGORY_MACRO_MAX_COEC<0.0534905] yes=19,no=20,missing=19,gain=454.722,cover=20915.5
				19:leaf=-0.000999958,cover=15555.9
				20:leaf=-0.0178863,cover=5359.58
			10:[C_D_U_CATEGORY_CITY_MICRO_MAX_COEC<0.865414] yes=21,no=22,missing=22,gain=1472.93,cover=40729.3
				21:leaf=0.00518814,cover=22880.7
				22:leaf=0.0243518,cover=17848.7
	2:[D_PUBLISHER_COEC<0.0673415] yes=5,no=6,missing=6,gain=800.355,cover=465264
		5:[CAT_REL<0.264295] yes=11,no=12,missing=11,gain=662.873,cover=231035
			11:[KW_REL<0.0296016] yes=23,no=24,missing=23,gain=1039.52,cover=191651
				23:leaf=-0.00236971,cover=188181
				24:leaf=0.0252472,cover=3469.25
			12:[D_CONID_COEC<0.0800266] yes=25,no=26,missing=25,gain=1170.81,cover=39384.8
				25:leaf=-0.000802973,cover=26373.5
				26:leaf=0.0175252,cover=13011.3
		6:[WORD_COUNT<1248.5] yes=13,no=14,missing=13,gain=738.843,cover=234228
			13:[D_CONID_COEC<0.0715517] yes=27,no=28,missing=28,gain=1040.57,cover=101741
				27:leaf=-0.0087795,cover=24135.5
				28:leaf=0.00310749,cover=77605.9
			14:[D_CONID_COEC<0.0638751] yes=29,no=30,missing=29,gain=4150.85,cover=132487
				29:leaf=-0.0108088,cover=28882.4
				30:leaf=0.0106258,cover=103604
booster[72]:
0:[IMAGE_COUNT<0.5] yes=1,no=2,missing=1,gain=853.088,cover=882055
	1:[WORD_COUNT<1370.5] yes=3,no=4,missing=3,gain=307.13,cover=15756.7
		3:[WORD_COUNT<1354.5] yes=7,no=8,missing=7,gain=453.573,cover=8170.83
			7:[C_D_U_PUBLISHER_AGE_COEC<0.128477] yes=15,no=16,missing=16,gain=219.323,cover=7169.33
				15:leaf=-0.0118269,cover=6586.9
				16:leaf=0.0201603,cover=582.433
			8:[D_PUBLISHER_COEC<0.0658711] yes=17,no=18,missing=18,gain=80.7828,cover=1001.5
				17:leaf=0.0285057,cover=985.745
				18:leaf=-0.0824173,cover=15.7515
		4:[D_CONID_COEC<0.00300971] yes=9,no=10,missing=9,gain=254.89,cover=7585.9
			9:[U_GENDER<4.00001] yes=19,no=20,missing=20,gain=187.588,cover=2235.82
				19:leaf=-0.0241359,cover=792.828
				20:leaf=0.00612275,cover=1442.99
			10:[DOC_AGE<41.5] yes=21,no=22,missing=21,gain=158.476,cover=5350.08
				21:leaf=-0.0277761,cover=4749.8
				22:leaf=-0.000509782,cover=600.28
	2:[CAT_REL<0.353316] yes=5,no=6,missing=5,gain=1051.23,cover=866298
		5:[WORD_COUNT<1237.5] yes=11,no=12,missing=11,gain=849.088,cover=811641
			11:[D_CONID_COEC<0.0940217] yes=23,no=24,missing=23,gain=1178.67,cover=276142
				23:leaf=-0.00511991,cover=168758
				24:leaf=0.00158092,cover=107384
			12:[LARGE_IMAGE<0.5] yes=25,no=26,missing=25,gain=924.997,cover=535499
				25:leaf=0.00225606,cover=375441
				26:leaf=-0.00228345,cover=160058
		6:[D_CONID_COEC<0.0612143] yes=13,no=14,missing=14,gain=1818.91,cover=54657.1
			13:[KW_REL<1.27874e-05] yes=27,no=28,missing=27,gain=624.132,cover=14901.2
				27:leaf=-0.0195432,cover=6554.14
				28:leaf=0.00107136,cover=8347.04
			14:[KW_REL<1.08694e-05] yes=29,no=30,missing=29,gain=550.679,cover=39755.9
				29:leaf=0.00578314,cover=17306.4
				30:leaf=0.0176525,cover=22449.5
booster[73]:
0:[D_CATEGORY_MICRO_MEAN_COEC<0.0304893] yes=1,no=2,missing=2,gain=903.124,cover=882330
	1:[D_CONID_COEC<0.0319562] yes=3,no=4,missing=3,gain=1057.11,cover=20920.1
		3:[CAT_REL<0.035171] yes=7,no=8,missing=7,gain=585.699,cover=11048.2
			7:[D_CATEGORY_MACRO_MEAN_COEC<0.0159432] yes=15,no=16,missing=16,gain=244.525,cover=9032.77
				15:leaf=0.00601664,cover=547.227
				16:leaf=-0.0284573,cover=8485.55
			8:[D_CONID_COEC<0.00318941] yes=17,no=18,missing=17,gain=203.146,cover=2015.38
				17:leaf=0.0256469,cover=680.733
				18:leaf=-0.00789755,cover=1334.65
		4:[D_CONID_COEC<0.103541] yes=9,no=10,missing=10,gain=339.07,cover=9871.98
			9:[C_D_U_PUBLISHER_AGE_COEC<0.0394427] yes=19,no=20,missing=20,gain=281.232,cover=9584.68
				19:leaf=-0.00917027,cover=3108.61
				20:leaf=0.00912325,cover=6476.07
			10:[CAT_REL<0.02504] yes=21,no=22,missing=21,gain=80.1999,cover=287.307
				21:leaf=-0.0630968,cover=242.911
				22:leaf=0.00976355,cover=44.3965
	2:[WORD_COUNT<931.5] yes=5,no=6,missing=5,gain=798.847,cover=861410
		5:[D_CONID_COEC<0.0890384] yes=11,no=12,missing=12,gain=908.126,cover=160983
			11:[KW_REL<1.07583e-05] yes=23,no=24,missing=23,gain=1202.89,cover=85796.1
				23:leaf=-0.0101888,cover=61662.2
				24:leaf=0.00297827,cover=24133.9
			12:[D_CONID_COEC<0.124324] yes=25,no=26,missing=26,gain=568.948,cover=75186.6
				25:leaf=0.00525691,cover=38774.5
				26:leaf=-0.00344622,cover=36412.1
		6:[D_CONID_COEC<0.201558] yes=13,no=14,missing=13,gain=721.881,cover=700427
			13:[TIME_OF_DAY<18.5] yes=27,no=28,missing=27,gain=644.353,cover=674513
				27:leaf=0.000247931,cover=637203
				28:leaf=0.00700829,cover=37310
			14:[D_PUBLISHER_COEC<0.0640595] yes=29,no=30,missing=30,gain=439.718,cover=25914.1
				29:leaf=-0.0172553,cover=1487.95
				30:leaf=0.0107333,cover=24426.2
booster[74]:
0:[CAT_REL<0.347888] yes=1,no=2,missing=1,gain=854.545,cover=880827
	1:[C_D_U_CATEGORY_CITY_MICRO_MAX_COEC<0.130417] yes=3,no=4,missing=4,gain=833.454,cover=823608
		3:[TIME_OF_DAY<17.5] yes=7,no=8,missing=7,gain=731.401,cover=702150
			7:[D_PUBLISHER_COEC<0.0673415] yes=15,no=16,missing=16,gain=880.41,cover=623205
				15:leaf=-0.00362554,cover=304240
				16:leaf=0.000134117,cover=318965
			8:[D_CONID_COEC<0.0654482] yes=17,no=18,missing=17,gain=3481.14,cover=78945.2
				17:leaf=-0.00957542,cover=31216.6
				18:leaf=0.0118982,cover=47728.6
		4:[D_CONID_COEC<0.0755872] yes=9,no=10,missing=9,gain=5643.18,cover=121458
			9:[U_CAT_LEN<0.5] yes=19,no=20,missing=19,gain=917.732,cover=62534.4
				19:leaf=-0.022387,cover=8487.38
				20:leaf=-0.0047023,cover=54047
			10:[U_CAT_LEN<0.5] yes=21,no=22,missing=21,gain=1110.29,cover=58923.9
				21:leaf=-0.000746871,cover=9970.14
				22:leaf=0.0175589,cover=48953.8
	2:[KW_REL<1.36653e-05] yes=5,no=6,missing=5,gain=1245.93,cover=57218.8
		5:[D_CONID_COEC<0.0615343] yes=11,no=12,missing=11,gain=1206.19,cover=24824.4
			11:[D_CONID_COEC<0.0470346] yes=23,no=24,missing=24,gain=214.158,cover=7436.14
				23:leaf=-0.0277691,cover=3780.93
				24:leaf=-0.0107926,cover=3655.2
			12:[CAT_REL<0.632205] yes=25,no=26,missing=25,gain=203.479,cover=17388.2
				25:leaf=0.00713999,cover=14313
				26:leaf=-0.00703429,cover=3075.25
		6:[D_CONID_COEC<0.0520614] yes=13,no=14,missing=14,gain=691.047,cover=32394.5
			13:[C_D_U_CATEGORY_GENDER_MICRO_MEAN_COEC<0.0789122] yes=27,no=28,missing=28,gain=331.793,cover=6311.9
				27:leaf=0.00922064,cover=3076.85
				28:leaf=-0.0137104,cover=3235.06
			14:[D_CONID_COEC<0.118812] yes=29,no=30,missing=29,gain=345.763,cover=26082.6
				29:leaf=0.0193684,cover=19149.7
				30:leaf=0.00633569,cover=6932.91
booster[75]:
0:[WORD_COUNT<2913.5] yes=1,no=2,missing=1,gain=848.853,cover=881218
	1:[TIME_OF_DAY<19.5] yes=3,no=4,missing=3,gain=658.672,cover=719206
		3:[D_PUBLISHER_COEC<0.0673415] yes=7,no=8,missing=8,gain=1121.55,cover=696045
			7:[KW_REL<1.00643e-05] yes=15,no=16,missing=15,gain=4594.02,cover=341351
				15:leaf=-0.00695188,cover=235762
				16:leaf=0.0055974,cover=105589
			8:[D_CATEGORY_MACRO_MAX_COEC<0.0509736] yes=17,no=18,missing=17,gain=666.098,cover=354694
				17:leaf=0.00618852,cover=51728.6
				18:leaf=4.94807e-05,cover=302965
		4:[D_CONID_COEC<0.0562247] yes=9,no=10,missing=10,gain=1083.94,cover=23160.8
			9:[D_CONID_COEC<0.0342514] yes=19,no=20,missing=20,gain=131.184,cover=6801.04
				19:leaf=-0.0182394,cover=2533.38
				20:leaf=-0.00387662,cover=4267.66
			10:[DOC_AGE<3.5] yes=21,no=22,missing=21,gain=209.334,cover=16359.7
				21:leaf=-0.00290592,cover=1558.77
				22:leaf=0.0163561,cover=14801
	2:[D_CONID_COEC<0.0784575] yes=5,no=6,missing=5,gain=2757.27,cover=162012
		5:[KW_REL<1.10092e-05] yes=11,no=12,missing=11,gain=1533.33,cover=82181.2
			11:[D_CATEGORY_MICRO_MEAN_COEC<0.0732699] yes=23,no=24,missing=24,gain=669.711,cover=53335.2
				23:leaf=-0.00391288,cover=33678.6
				24:leaf=-0.0155271,cover=19656.6
			12:[D_CONID_COEC<0.0481359] yes=25,no=26,missing=26,gain=1342.66,cover=28846
				25:leaf=-0.00984445,cover=9044.68
				26:leaf=0.0134061,cover=19801.3
		6:[D_CONID_COEC<0.11729] yes=13,no=14,missing=14,gain=632.372,cover=79831.1
			13:[KW_REL<1.0303e-05] yes=27,no=28,missing=27,gain=731.983,cover=51231
				27:leaf=0.00860016,cover=32170.1
				28:leaf=0.0209653,cover=19060.9
			14:[KW_REL<0.0143058] yes=29,no=30,missing=29,gain=267.082,cover=28600.1
				29:leaf=0.00249864,cover=26323.6
				30:leaf=0.0203465,cover=2276.5
booster[76]:
0:[DOC_AGE<1.5] yes=1,no=2,missing=1,gain=830.858,cover=881027
	1:[D_CONID_COEC<0.0545552] yes=3,no=4,missing=4,gain=768.239,cover=103085
		3:[D_CONID_COEC<0.00165228] yes=7,no=8,missing=8,gain=876.948,cover=33382.9
			7:[C_D_U_PUBLISHER_CITY_COEC<0.14077] yes=15,no=16,missing=15,gain=267.503,cover=13060.9
				15:leaf=-0.00127285,cover=12806.3
				16:leaf=0.0503914,cover=254.545
			8:[C_D_U_CATEGORY_GENDER_MACRO_MAX_COEC<0.0462563] yes=17,no=18,missing=18,gain=298.381,cover=20322
				17:leaf=-0.00761056,cover=6096.14
				18:leaf=-0.0208334,cover=14225.9
		4:[KW_REL<1.19037e-05] yes=9,no=10,missing=9,gain=721.707,cover=69701.7
			9:[DOC_AGE<-0.5] yes=19,no=20,missing=19,gain=264.654,cover=45864.9
				19:leaf=0.0120546,cover=2211.96
				20:leaf=-0.00566962,cover=43652.9
			10:[D_CONID_COEC<0.116706] yes=21,no=22,missing=21,gain=340.39,cover=23836.8
				21:leaf=0.00973355,cover=16912.3
				22:leaf=-0.00342683,cover=6924.56
	2:[DOC_AGE<18.5] yes=5,no=6,missing=5,gain=753.122,cover=777942
		5:[D_CONID_COEC<0.00385774] yes=11,no=12,missing=12,gain=1100.45,cover=625244
			11:[KW_REL<0.0113711] yes=23,no=24,missing=23,gain=225.989,cover=13656.5
				23:leaf=-0.013907,cover=13135
				24:leaf=0.0196299,cover=521.446
			12:[D_PUBLISHER_COEC<0.0264696] yes=25,no=26,missing=26,gain=828.796,cover=611587
				25:leaf=-0.0203072,cover=4237.78
				26:leaf=0.00187907,cover=607350
		6:[KW_REL<1.11209e-05] yes=13,no=14,missing=13,gain=501.493,cover=152699
			13:[U_KW_LEN<0.5] yes=27,no=28,missing=27,gain=669.634,cover=105848
				27:leaf=0.00055474,cover=41358.2
				28:leaf=-0.0075961,cover=64489.3
			14:[D_CONID_COEC<0.0802435] yes=29,no=30,missing=29,gain=341.608,cover=46851.2
				29:leaf=-0.00249185,cover=23292.5
				30:leaf=0.00604706,cover=23558.8
booster[77]:
0:[WORD_COUNT<931.5] yes=1,no=2,missing=1,gain=717.791,cover=880772
	1:[D_CONID_COEC<0.0731927] yes=3,no=4,missing=4,gain=1867.84,cover=163024
		3:[D_CATEGORY_MICRO_MAX_COEC<0.0513329] yes=7,no=8,missing=7,gain=337.446,cover=63965.9
			7:[D_CONID_COEC<0.0415185] yes=15,no=16,missing=16,gain=1166.55,cover=22026.2
				15:leaf=-0.0174261,cover=9780.71
				16:leaf=0.00573188,cover=12245.5
			8:[D_CONID_COEC<0.0535566] yes=17,no=18,missing=18,gain=911.112,cover=41939.7
				17:leaf=-0.0188294,cover=23164.8
				18:leaf=-0.00400873,cover=18774.9
		4:[D_CATEGORY_MICRO_MAX_COEC<0.0678697] yes=9,no=10,missing=9,gain=691.712,cover=99058.5
			9:[DOC_AGE<1.5] yes=19,no=20,missing=19,gain=382.259,cover=35487.4
				19:leaf=-0.00486436,cover=5706.6
				20:leaf=0.00926125,cover=29780.8
			10:[CAT_REL<0.175333] yes=21,no=22,missing=21,gain=609.327,cover=63571.1
				21:leaf=-0.00563234,cover=38823.3
				22:leaf=0.00440695,cover=24747.8
	2:[D_CATEGORY_MICRO_MAX_COEC<0.0250758] yes=5,no=6,missing=6,gain=636.425,cover=717748
		5:[D_CONID_COEC<0.0353716] yes=11,no=12,missing=11,gain=289.403,cover=9857.56
			11:[CAT_REL<0.0453786] yes=23,no=24,missing=23,gain=230.435,cover=6202.05
				23:leaf=-0.0225773,cover=5229.05
				24:leaf=0.00391859,cover=972.995
			12:[D_CATEGORY_MACRO_MAX_COEC<0.00681617] yes=25,no=26,missing=26,gain=157.501,cover=3655.52
				25:leaf=0.0269287,cover=451.517
				26:leaf=-0.0045831,cover=3204
		6:[TIME_OF_DAY<8.5] yes=13,no=14,missing=13,gain=641.53,cover=707890
			13:[D_PUBLISHER_COEC<0.0509501] yes=27,no=28,missing=27,gain=1106.39,cover=258693
				27:leaf=-0.00682965,cover=62488.4
				28:leaf=0.000809754,cover=196204
			14:[D_PUBLISHER_COEC<0.0542563] yes=29,no=30,missing=30,gain=3220.05,cover=449198
				29:leaf=-0.00411221,cover=142757
				30:leaf=0.00497952,cover=306440
booster[78]:
0:[WORD_COUNT<2924.5] yes=1,no=2,missing=1,gain=709.552,cover=881196
	1:[TIME_OF_DAY<19.5] yes=3,no=4,missing=3,gain=681.613,cover=720907
		3:[D_PUBLISHER_COEC<0.0673415] yes=7,no=8,missing=8,gain=741.211,cover=697694
			7:[KW_REL<1.01846e-05] yes=15,no=16,missing=15,gain=4267.87,cover=341896
				15:leaf=-0.00622353,cover=235995
				16:leaf=0.00585792,cover=105901
			8:[C_D_U_CATEGORY_AGE_MACRO_MAX_COEC<0.0974876] yes=17,no=18,missing=18,gain=573.258,cover=355797
				17:leaf=-0.000250824,cover=281676
				18:leaf=0.00469112,cover=74121.1
		4:[D_CONID_COEC<0.0440813] yes=9,no=10,missing=10,gain=963.628,cover=23213.4
			9:[D_CATEGORY_MACRO_MAX_COEC<0.0387781] yes=19,no=20,missing=19,gain=145.896,cover=4097.38
				19:leaf=-0.000484365,cover=1327.87
				20:leaf=-0.0206424,cover=2769.51
			10:[DOC_AGE<2.5] yes=21,no=22,missing=21,gain=261.418,cover=19116
				21:leaf=-0.0114637,cover=1064.47
				22:leaf=0.0140265,cover=18051.5
	2:[D_CONID_COEC<0.0802575] yes=5,no=6,missing=6,gain=1872.77,cover=160289
		5:[KW_REL<1.10092e-05] yes=11,no=12,missing=11,gain=1744.88,cover=81642.1
			11:[D_CATEGORY_MACRO_MAX_COEC<0.0770114] yes=23,no=24,missing=24,gain=959.137,cover=52473
				23:leaf=-0.00281904,cover=34906
				24:leaf=-0.0171434,cover=17567
			12:[D_CONID_COEC<0.0445872] yes=25,no=26,missing=26,gain=1270.15,cover=29169.1
				25:leaf=-0.00999605,cover=7562.48
				26:leaf=0.0138114,cover=21606.6
		6:[D_CONID_COEC<0.11729] yes=13,no=14,missing=14,gain=710.107,cover=78646.8
			13:[KW_REL<1.38759e-05] yes=27,no=28,missing=27,gain=371.636,cover=47600.9
				27:leaf=0.00915428,cover=30367.6
				28:leaf=0.0183476,cover=17233.3
			14:[KW_REL<0.014796] yes=29,no=30,missing=29,gain=264.825,cover=31046
				29:leaf=0.00148242,cover=28830.3
				30:leaf=0.0194168,cover=2215.67
booster[79]:
0:[WORD_COUNT<1368.5] yes=1,no=2,missing=1,gain=658.639,cover=879824
	1:[CAT_REL<0.270112] yes=3,no=4,missing=3,gain=664.377,cover=356156
		3:[KW_REL<0.0295837] yes=7,no=8,missing=7,gain=510.706,cover=308723
			7:[WORD_COUNT<1347.5] yes=15,no=16,missing=15,gain=347.263,cover=306653
				15:leaf=-0.00237612,cover=304315
				16:leaf=-0.0217158,cover=2337.99
			8:[C_D_U_PUBLISHER_AGE_COEC<0.0770344] yes=17,no=18,missing=17,gain=215.442,cover=2070.43
				17:leaf=0.0277995,cover=1860.9
				18:leaf=-0.0255888,cover=209.526
		4:[D_CONID_COEC<0.059596] yes=9,no=10,missing=10,gain=1335.62,cover=47433.1
			9:[KW_REL<0.00847043] yes=19,no=20,missing=19,gain=441.344,cover=11089.7
				19:leaf=-0.0146462,cover=9900.42
				20:leaf=0.0175798,cover=1189.3
			10:[KW_REL<1.30366e-05] yes=21,no=22,missing=21,gain=366.367,cover=36343.4
				21:leaf=0.00340196,cover=17422.2
				22:leaf=0.0134509,cover=18921.2
	2:[WORD_COUNT<1399.5] yes=5,no=6,missing=5,gain=1233.03,cover=523667
		5:[D_CONID_COEC<0.0478924] yes=11,no=12,missing=11,gain=716.356,cover=19724.1
			11:[C_D_U_PUBLISHER_GENDER_COEC<0.0811385] yes=23,no=24,missing=24,gain=189.136,cover=1172.97
				23:leaf=-0.0338445,cover=958.016
				24:leaf=0.0179811,cover=214.958
			12:[D_PUBLISHER_COEC<0.0753895] yes=25,no=26,missing=26,gain=474.388,cover=18551.1
				25:leaf=0.0203696,cover=14189.1
				26:leaf=0.00151556,cover=4362.03
		6:[LARGE_IMAGE<0.5] yes=13,no=14,missing=13,gain=761.297,cover=503943
			13:[KW_REL<1.0303e-05] yes=27,no=28,missing=27,gain=3230.85,cover=358095
				27:leaf=-0.00132222,cover=238674
				28:leaf=0.00875133,cover=119422
			14:[D_CONID_COEC<0.066097] yes=29,no=30,missing=29,gain=7669.85,cover=145848
				29:leaf=-0.0141977,cover=69912.7
				30:leaf=0.00875379,cover=75935.1
booster[80]:
0:[TIME_OF_DAY<15.5] yes=1,no=2,missing=1,gain=822.404,cover=879737
	1:[U_AGE_1<0.5] yes=3,no=4,missing=3,gain=827.203,cover=648956
		3:[D_PUBLISHER_COEC<0.0673415] yes=7,no=8,missing=8,gain=614.771,cover=633195
			7:[KW_REL<1.01846e-05] yes=15,no=16,missing=15,gain=3831.55,cover=307212
				15:leaf=-0.00612287,cover=204780
				16:leaf=0.00572152,cover=102432
			8:[D_CONID_COEC<0.0893141] yes=17,no=18,missing=18,gain=1570.57,cover=325982
				17:leaf=-0.00336626,cover=128229
				18:leaf=0.00373833,cover=197754
		4:[D_CONID_COEC<0.0402232] yes=9,no=10,missing=10,gain=367.066,cover=15761.9
			9:[D_CATEGORY_MICRO_MAX_COEC<0.0378711] yes=19,no=20,missing=19,gain=193.27,cover=1776.25
				19:leaf=-0.0108471,cover=613.757
				20:leaf=-0.0455463,cover=1162.49
			10:[C_D_U_PUBLISHER_AGE_COEC<0.0346431] yes=21,no=22,missing=21,gain=177.89,cover=13985.6
				21:leaf=-0.0248344,cover=1654.47
				22:leaf=-0.00737697,cover=12331.2
	2:[D_CONID_COEC<0.0834826] yes=5,no=6,missing=5,gain=2510.52,cover=230781
		5:[D_PUBLISHER_COEC<0.042546] yes=11,no=12,missing=11,gain=1170.29,cover=132956
			11:[D_CONID_COEC<0.0408402] yes=23,no=24,missing=24,gain=1270.4,cover=23959.8
				23:leaf=-0.0238045,cover=11532.3
				24:leaf=-0.000762292,cover=12427.5
			12:[D_CATEGORY_MACRO_MAX_COEC<0.080932] yes=25,no=26,missing=25,gain=625.265,cover=108996
				25:leaf=0.00212917,cover=89305.1
				26:leaf=-0.00771388,cover=19690.6
		6:[D_CONID_COEC<0.100819] yes=13,no=14,missing=14,gain=1004.82,cover=97825.4
			13:[KW_REL<1.29088e-05] yes=27,no=28,missing=27,gain=607.159,cover=33735.1
				27:leaf=0.0111064,cover=23002.9
				28:leaf=0.0255091,cover=10732.1
			14:[DOC_AGE<3.5] yes=29,no=30,missing=29,gain=186.104,cover=64090.3
				29:leaf=-0.000626589,cover=11859.4
				30:leaf=0.0063116,cover=52230.9
booster[81]:
0:[D_PUBLISHER_COEC<0.020295] yes=1,no=2,missing=2,gain=702.877,cover=878563
	1:[DOC_AGE<94.5] yes=3,no=4,missing=3,gain=178.533,cover=5053.03
		3:[KW_REL<0.00875225] yes=7,no=8,missing=7,gain=142.855,cover=4992.35
			7:[D_CATEGORY_MACRO_MAX_COEC<0.0167261] yes=15,no=16,missing=16,gain=122.227,cover=4849.61
				15:leaf=0.028434,cover=120.778
				16:leaf=-0.0223357,cover=4728.83
			8:[C_D_U_PUBLISHER_CITY_COEC<0.021609] yes=17,no=18,missing=18,gain=70.5941,cover=142.743
				17:leaf=0.0442055,cover=121.616
				18:leaf=-0.0530653,cover=21.1269
		4:[C_D_U_CATEGORY_AGE_MACRO_MAX_COEC<0.0432498] yes=9,no=10,missing=10,gain=88.8137,cover=60.6804
			9:[CAT_REL<0.0116305] yes=19,no=20,missing=19,gain=11.6012,cover=16.9191
				19:leaf=-0.055938,cover=11.787
				20:leaf=0.0289369,cover=5.13211
			10:[C_D_U_PUBLISHER_CITY_COEC<0.0235868] yes=21,no=22,missing=22,gain=65.3892,cover=43.7613
				21:leaf=0.125144,cover=38.553
				22:leaf=-0.0548482,cover=5.2083
	2:[WORD_COUNT<931.5] yes=5,no=6,missing=5,gain=586.621,cover=873510
		5:[D_CONID_COEC<0.0684527] yes=11,no=12,missing=12,gain=1735.36,cover=161754
			11:[D_CATEGORY_MICRO_MAX_COEC<0.0515154] yes=23,no=24,missing=24,gain=519.974,cover=56815.2
				23:leaf=3.94713e-05,cover=11173
				24:leaf=-0.0119949,cover=45642.2
			12:[D_CATEGORY_MICRO_MAX_COEC<0.0656952] yes=25,no=26,missing=25,gain=564.964,cover=104939
				25:leaf=0.00633883,cover=35616.5
				26:leaf=-0.00140902,cover=69322.8
		6:[DOC_AGE<15.5] yes=13,no=14,missing=13,gain=457.939,cover=711756
			13:[D_CONID_COEC<0.0847068] yes=27,no=28,missing=27,gain=7072.71,cover=549858
				27:leaf=-0.00336888,cover=320186
				28:leaf=0.00812938,cover=229672
			14:[KW_REL<1.0303e-05] yes=29,no=30,missing=29,gain=727.814,cover=161898
				29:leaf=-0.00392589,cover=109034
				30:leaf=0.00322299,cover=52863.5
booster[82]:
0:[CAT_REL<0.000414881] yes=1,no=2,missing=1,gain=699.232,cover=877865
	1:[C_D_U_CATEGORY_CITY_MICRO_MAX_COEC<0.128491] yes=3,no=4,missing=4,gain=835.896,cover=414973
		3:[U_KW_LEN<0.5] yes=7,no=8,missing=7,gain=737.447,cover=304499
			7:[C_D_U_PUBLISHER_GENDER_COEC<0.0242994] yes=15,no=16,missing=15,gain=474.303,cover=146144
				15:leaf=-0.0292061,cover=1405.9
				16:leaf=-3.41034e-05,cover=144738
			8:[TIME_OF_DAY<14.5] yes=17,no=18,missing=17,gain=433.538,cover=158355
				17:leaf=-0.00695073,cover=110928
				18:leaf=-0.00123899,cover=47426.6
		4:[D_CONID_COEC<0.0748767] yes=9,no=10,missing=10,gain=4639.96,cover=110474
			9:[KW_REL<0.0110755] yes=19,no=20,missing=19,gain=546.298,cover=55423.8
				19:leaf=-0.0089504,cover=53509.4
				20:leaf=0.0182266,cover=1914.41
			10:[U_CAT_LEN<0.5] yes=21,no=22,missing=21,gain=1050.04,cover=55050.6
				21:leaf=-0.00181115,cover=10417.1
				22:leaf=0.0158186,cover=44633.5
	2:[D_PUBLISHER_COEC<0.0323473] yes=5,no=6,missing=6,gain=626.027,cover=462892
		5:[D_CATEGORY_MACRO_MAX_COEC<0.0371715] yes=11,no=12,missing=12,gain=252.997,cover=13449.2
			11:[CAT_REL<0.0338875] yes=23,no=24,missing=23,gain=314.309,cover=2706.45
				23:leaf=-0.0213814,cover=824.989
				24:leaf=0.0156154,cover=1881.46
			12:[D_CONID_COEC<0.047315] yes=25,no=26,missing=26,gain=207.826,cover=10742.7
				25:leaf=-0.0180394,cover=6823.33
				26:leaf=-0.00359196,cover=3919.41
		6:[DOC_AGE<17.5] yes=13,no=14,missing=13,gain=632.936,cover=449442
			13:[D_CATEGORY_MACRO_MEAN_COEC<0.0770114] yes=27,no=28,missing=28,gain=580.471,cover=372715
				27:leaf=0.0042314,cover=207562
				28:leaf=0.000259193,cover=165153
			14:[CAT_REL<0.122689] yes=29,no=30,missing=29,gain=515.713,cover=76727.6
				29:leaf=-0.00671189,cover=37464.2
				30:leaf=0.00148866,cover=39263.5
booster[83]:
0:[DOC_AGE<1.5] yes=1,no=2,missing=1,gain=643.992,cover=878092
	1:[D_CONID_COEC<0.0545552] yes=3,no=4,missing=4,gain=540.646,cover=102369
		3:[D_CONID_COEC<0.00678403] yes=7,no=8,missing=8,gain=753.635,cover=33049
			7:[C_D_U_PUBLISHER_CITY_COEC<0.0238721] yes=15,no=16,missing=16,gain=256.66,cover=12906.6
				15:leaf=-0.0179412,cover=1646.81
				16:leaf=0.00318641,cover=11259.8
			8:[KW_REL<1.11199e-05] yes=17,no=18,missing=17,gain=531.75,cover=20142.4
				17:leaf=-0.0202562,cover=14177.1
				18:leaf=-0.00246209,cover=5965.34
		4:[KW_REL<0.0165598] yes=9,no=10,missing=9,gain=345.869,cover=69319.7
			9:[DOC_AGE<0.5] yes=19,no=20,missing=19,gain=324.106,cover=67157.4
				19:leaf=-0.00595323,cover=27682.2
				20:leaf=0.00110332,cover=39475.1
			10:[D_CONID_COEC<0.102161] yes=21,no=22,missing=21,gain=96.4768,cover=2162.34
				21:leaf=0.0246838,cover=1610.7
				22:leaf=0.000457464,cover=551.646
	2:[TIME_OF_DAY<17.5] yes=5,no=6,missing=5,gain=688.322,cover=775724
		5:[DOC_AGE<9.5] yes=11,no=12,missing=11,gain=728.926,cover=686610
			11:[D_CONID_COEC<0.0845099] yes=23,no=24,missing=24,gain=5207.25,cover=380202
				23:leaf=-0.00370856,cover=213404
				24:leaf=0.00808333,cover=166798
			12:[TIME_OF_DAY<3.5] yes=25,no=26,missing=25,gain=819.637,cover=306407
				25:leaf=0.00260929,cover=78088.4
				26:leaf=-0.00332494,cover=228319
		6:[D_CONID_COEC<0.0654487] yes=13,no=14,missing=13,gain=3424.97,cover=89114.2
			13:[D_CONID_COEC<0.0224322] yes=27,no=28,missing=28,gain=427.131,cover=34527
				27:leaf=-0.0223601,cover=4317.9
				28:leaf=-0.00554913,cover=30209.1
			14:[D_CONID_COEC<0.101869] yes=29,no=30,missing=30,gain=506.865,cover=54587.2
				29:leaf=0.016799,cover=30194.8
				30:leaf=0.00710762,cover=24392.4
booster[84]:
0:[U_AGE_1<0.5] yes=1,no=2,missing=1,gain=685.694,cover=876134
	1:[WORD_COUNT<931.5] yes=3,no=4,missing=3,gain=527.748,cover=854052
		3:[D_CONID_COEC<0.0804293] yes=7,no=8,missing=8,gain=818.483,cover=157430
			7:[KW_REL<1.07583e-05] yes=15,no=16,missing=15,gain=534.743,cover=72848.6
				15:leaf=-0.00894543,cover=52703.8
				16:leaf=0.000631999,cover=20144.7
			8:[D_CONID_COEC<0.123734] yes=17,no=18,missing=18,gain=471.029,cover=84581.1
				17:leaf=0.00413653,cover=48696
				18:leaf=-0.00341302,cover=35885.2
		4:[D_PUBLISHER_COEC<0.0180741] yes=9,no=10,missing=10,gain=552.834,cover=696622
			9:[KW_REL<0.00817916] yes=19,no=20,missing=19,gain=219.116,cover=3482.45
				19:leaf=-0.0212972,cover=3376.97
				20:leaf=0.0515747,cover=105.478
			10:[LARGE_IMAGE<0.5] yes=21,no=22,missing=21,gain=453.85,cover=693140
				21:leaf=0.00172998,cover=485370
				22:leaf=-0.00106261,cover=207770
	2:[D_CONID_COEC<0.0462722] yes=5,no=6,missing=5,gain=417.291,cover=22082.6
		5:[DOC_AGE<122.5] yes=11,no=12,missing=11,gain=107.475,cover=3641.41
			11:[C_D_U_CATEGORY_GENDER_MICRO_MAX_COEC<0.0478021] yes=23,no=24,missing=23,gain=117.061,cover=3578.67
				23:leaf=-0.0156729,cover=1675.12
				24:leaf=-0.0338107,cover=1903.55
			12:[U_GENDER<1.5] yes=25,no=26,missing=26,gain=90.2909,cover=62.7455
				25:leaf=0.00379745,cover=46.4148
				26:leaf=0.13763,cover=16.3307
		6:[KW_REL<1.75298e-05] yes=13,no=14,missing=13,gain=137.798,cover=18441.2
			13:[WORD_COUNT<12271.5] yes=27,no=28,missing=27,gain=149.906,cover=13935
				27:leaf=-0.00847631,cover=13871.9
				28:leaf=0.0681299,cover=63.1669
			14:[D_CONID_COEC<0.126955] yes=29,no=30,missing=30,gain=108.306,cover=4506.18
				29:leaf=0.00590722,cover=3568.61
				30:leaf=-0.0131806,cover=937.563
booster[85]:
0:[D_PUBLISHER_COEC<0.0179053] yes=1,no=2,missing=2,gain=593.041,cover=876816
	1:[KW_REL<0.00308368] yes=3,no=4,missing=3,gain=156.216,cover=3832.56
		3:[D_CONID_COEC<0.00399213] yes=7,no=8,missing=7,gain=116.04,cover=3559.12
			7:[CAT_REL<0.00943367] yes=15,no=16,missing=15,gain=147.428,cover=1886.12
				15:leaf=-0.0262553,cover=1052.06
				16:leaf=0.00188317,cover=834.066
			8:[D_CONID_COEC<0.0102486] yes=17,no=18,missing=18,gain=58.2032,cover=1672.99
				17:leaf=-0.0579641,cover=190.058
				18:leaf=-0.028542,cover=1482.93
		4:[TIME_OF_DAY<6.5] yes=9,no=10,missing=9,gain=148.759,cover=273.441
			9:[CAT_REL<0.130085] yes=19,no=20,missing=19,gain=77.6672,cover=128.569
				19:leaf=0.072808,cover=107.654
				20:leaf=-0.0311935,cover=20.9152
			10:[KW_REL<0.034903] yes=21,no=22,missing=21,gain=47.0768,cover=144.873
				21:leaf=-0.0291412,cover=125.439
				22:leaf=0.0527645,cover=19.4337
	2:[U_AGE_1<0.5] yes=5,no=6,missing=5,gain=581.053,cover=872984
		5:[CAT_REL<0.333868] yes=11,no=12,missing=11,gain=585.565,cover=850925
			11:[KW_REL<0.0382854] yes=23,no=24,missing=23,gain=605.136,cover=792517
				23:leaf=-7.02424e-05,cover=788630
				24:leaf=0.0197055,cover=3886.44
			12:[KW_REL<1.24148e-05] yes=25,no=26,missing=25,gain=842.788,cover=58408
				25:leaf=-0.00161513,cover=25472.9
				26:leaf=0.0104962,cover=32935.1
		6:[D_CONID_COEC<0.0490974] yes=13,no=14,missing=13,gain=498.539,cover=22059.3
			13:[D_CATEGORY_MACRO_MAX_COEC<0.0409798] yes=27,no=28,missing=27,gain=139.518,cover=4018.74
				27:leaf=-0.0126332,cover=1658.17
				28:leaf=-0.0315673,cover=2360.57
			14:[C_D_U_CATEGORY_AGE_MACRO_MAX_COEC<0.047996] yes=29,no=30,missing=30,gain=200.26,cover=18040.6
				29:leaf=-0.0135525,cover=4406.93
				30:leaf=-0.00129266,cover=13633.7
booster[86]:
0:[C_D_U_CATEGORY_CITY_MICRO_MAX_COEC<0.130179] yes=1,no=2,missing=2,gain=611.36,cover=876671
	1:[CAT_REL<0.000714122] yes=3,no=4,missing=3,gain=723.467,cover=754407
		3:[TIME_OF_DAY<16.5] yes=7,no=8,missing=7,gain=615.832,cover=305465
			7:[D_PUBLISHER_COEC<0.044219] yes=15,no=16,missing=16,gain=576.527,cover=230350
				15:leaf=-0.00977972,cover=33043.6
				16:leaf=-0.0026437,cover=197306
			8:[D_CONID_COEC<0.065201] yes=17,no=18,missing=17,gain=1693.99,cover=75115.2
				17:leaf=-0.0086571,cover=26388.2
				18:leaf=0.00707159,cover=48727
		4:[DOC_AGE<12.5] yes=9,no=10,missing=9,gain=586.304,cover=448942
			9:[D_CONID_COEC<0.0847096] yes=19,no=20,missing=19,gain=2992.09,cover=326546
				19:leaf=-0.00216564,cover=190651
				20:leaf=0.00754409,cover=135895
			10:[D_CONID_COEC<0.0880139] yes=21,no=22,missing=21,gain=558,cover=122396
				21:leaf=-0.00502364,cover=71648.7
				22:leaf=0.00182897,cover=50747.6
	2:[D_CONID_COEC<0.082861] yes=5,no=6,missing=5,gain=2967.36,cover=122264
		5:[U_CAT_LEN<0.5] yes=11,no=12,missing=11,gain=678.821,cover=71749.5
			11:[D_CONID_COEC<0.0599906] yes=23,no=24,missing=24,gain=702.559,cover=9744.52
				23:leaf=-0.0268743,cover=5672.07
				24:leaf=0.000344861,cover=4072.45
			12:[D_CONID_COEC<0.0229004] yes=25,no=26,missing=26,gain=287.751,cover=62005
				25:leaf=-0.0100133,cover=8225.89
				26:leaf=2.75502e-05,cover=53779.1
		6:[D_CONID_COEC<0.121759] yes=13,no=14,missing=14,gain=975.853,cover=50514
			13:[U_CAT_LEN<0.5] yes=27,no=28,missing=27,gain=722.385,cover=38372
				27:leaf=0.000668775,cover=6069.46
				28:leaf=0.0194693,cover=32302.5
			14:[D_CATEGORY_MACRO_MAX_COEC<0.146787] yes=29,no=30,missing=30,gain=164.892,cover=12142.1
				29:leaf=0.00491298,cover=7379.29
				30:leaf=-0.00701972,cover=4762.79
booster[87]:
0:[U_AGE_1<0.5] yes=1,no=2,missing=1,gain=577.663,cover=876034
	1:[D_CATEGORY_MICRO_MEAN_COEC<0.0271422] yes=3,no=4,missing=4,gain=499.777,cover=854016
		3:[D_CONID_COEC<0.0337001] yes=7,no=8,missing=7,gain=342.181,cover=13780.4
			7:[KW_REL<0.00520054] yes=15,no=16,missing=15,gain=340.565,cover=8147.87
				15:leaf=-0.017548,cover=7902.16
				16:leaf=0.0421166,cover=245.708
			8:[WORD_COUNT<1712.5] yes=17,no=18,missing=17,gain=263.588,cover=5632.57
				17:leaf=-0.0219207,cover=1079.37
				18:leaf=0.00555003,cover=4553.2
		4:[WORD_COUNT<2913.5] yes=9,no=10,missing=9,gain=502.015,cover=840236
			9:[TIME_OF_DAY<17.5] yes=19,no=20,missing=19,gain=432.586,cover=687504
				19:leaf=-0.000609895,cover=612264
				20:leaf=0.00340755,cover=75239
			10:[KW_REL<1.10092e-05] yes=21,no=22,missing=21,gain=1264.33,cover=152732
				21:leaf=-0.000513693,cover=95687.8
				22:leaf=0.00889064,cover=57044.3
	2:[D_CONID_COEC<0.0386443] yes=5,no=6,missing=6,gain=391.25,cover=22018
		5:[DOC_AGE<0.5] yes=11,no=12,missing=11,gain=145.641,cover=2203.12
			11:[TIME_OF_DAY<12.5] yes=23,no=24,missing=23,gain=80.398,cover=173.746
				23:leaf=0.0407985,cover=112.807
				24:leaf=-0.0300354,cover=60.9389
			12:[D_CATEGORY_MICRO_MAX_COEC<0.0404322] yes=25,no=26,missing=26,gain=98.3363,cover=2029.37
				25:leaf=-0.0159816,cover=669.794
				26:leaf=-0.0394212,cover=1359.58
		6:[C_D_U_CATEGORY_AGE_MACRO_MAX_COEC<0.0479] yes=13,no=14,missing=14,gain=219.84,cover=19814.9
			13:[D_CATEGORY_MICRO_MAX_COEC<0.0426966] yes=27,no=28,missing=28,gain=293.478,cover=5239.6
				27:leaf=0.00444034,cover=1469.56
				28:leaf=-0.0218975,cover=3770.04
			14:[C_D_U_CATEGORY_CITY_MACRO_MAX_COEC<0.0193677] yes=29,no=30,missing=30,gain=176.077,cover=14575.3
				29:leaf=-0.041951,cover=277.418
				30:leaf=-0.00180309,cover=14297.9
booster[88]:
0:[D_CATEGORY_MACRO_MEAN_COEC<0.0870289] yes=1,no=2,missing=1,gain=560.526,cover=875429
	1:[CAT_REL<0.341581] yes=3,no=4,missing=3,gain=840.963,cover=679008
		3:[D_CONID_COEC<0.247021] yes=7,no=8,missing=7,gain=627.852,cover=644064
			7:[C_D_U_CATEGORY_CITY_MICRO_MAX_COEC<0.120205] yes=15,no=16,missing=15,gain=533.987,cover=642870
				15:leaf=0.000101505,cover=632389
				16:leaf=0.0114798,cover=10481.4
			8:[DAY_OF_WEEK<2.5] yes=17,no=18,missing=17,gain=148.915,cover=1194.36
				17:leaf=-0.0174396,cover=569.338
				18:leaf=-0.05282,cover=625.027
		4:[D_CONID_COEC<0.0652576] yes=9,no=10,missing=10,gain=872.595,cover=34943.3
			9:[KW_REL<3.94465e-05] yes=19,no=20,missing=19,gain=445.677,cover=12600.6
				19:leaf=-0.0133692,cover=5301.7
				20:leaf=0.00567683,cover=7298.92
			10:[CAT_REL<0.877721] yes=21,no=22,missing=21,gain=306.148,cover=22342.7
				21:leaf=0.0151249,cover=21699.9
				22:leaf=-0.019869,cover=642.717
	2:[D_CONID_COEC<0.0813762] yes=5,no=6,missing=6,gain=3543.95,cover=196421
		5:[KW_REL<1.00643e-05] yes=11,no=12,missing=11,gain=769.063,cover=51784.4
			11:[D_CONID_COEC<0.00187531] yes=23,no=24,missing=24,gain=233.329,cover=33347.2
				23:leaf=-0.00328317,cover=2443.65
				24:leaf=-0.0193341,cover=30903.6
			12:[D_CONID_COEC<0.0480397] yes=25,no=26,missing=26,gain=647.853,cover=18437.1
				25:leaf=-0.0188472,cover=6046.88
				26:leaf=0.00111568,cover=12390.3
		6:[D_CONID_COEC<0.109789] yes=13,no=14,missing=14,gain=778.3,cover=144637
			13:[WORD_COUNT<1339.5] yes=27,no=28,missing=27,gain=321.797,cover=43115.9
				27:leaf=0.00243673,cover=19263.9
				28:leaf=0.0111253,cover=23852
			14:[D_CONID_COEC<0.214921] yes=29,no=30,missing=29,gain=755.381,cover=101521
				29:leaf=-0.00253151,cover=87075.9
				30:leaf=0.00981404,cover=14444.9
booster[89]:
0:[IMAGE_COUNT<0.5] yes=1,no=2,missing=1,gain=687.916,cover=874019
	1:[U_GENDER<4.00001] yes=3,no=4,missing=4,gain=239.087,cover=15322.9
		3:[C_D_U_PUBLISHER_AGE_COEC<0.132173] yes=7,no=8,missing=7,gain=162.611,cover=6391.1
			7:[CAT_REL<0.219009] yes=15,no=16,missing=15,gain=133.072,cover=6128.93
				15:leaf=-0.0232656,cover=4974.89
				16:leaf=-0.00441629,cover=1154.04
			8:[WORD_COUNT<1051] yes=17,no=18,missing=17,gain=97.395,cover=262.171
				17:leaf=0.0290846,cover=243.046
				18:leaf=-0.0854531,cover=19.125
		4:[DOC_AGE<32.5] yes=9,no=10,missing=9,gain=238.7,cover=8931.81
			9:[CAT_REL<0.141161] yes=19,no=20,missing=19,gain=151.56,cover=7877.76
				19:leaf=-0.0125378,cover=5802.54
				20:leaf=0.00320479,cover=2075.22
			10:[DAY_OF_WEEK<1.5] yes=21,no=22,missing=21,gain=125.523,cover=1054.06
				21:leaf=0.0433548,cover=314.263
				22:leaf=0.00566805,cover=739.793
	2:[D_CATEGORY_MACRO_MEAN_COEC<0.0803834] yes=5,no=6,missing=5,gain=552.303,cover=858697
		5:[CAT_REL<0.247947] yes=11,no=12,missing=11,gain=902.224,cover=586425
			11:[C_D_U_CATEGORY_GENDER_MACRO_MAX_COEC<0.0822478] yes=23,no=24,missing=23,gain=715.677,cover=545865
				23:leaf=3.7677e-05,cover=531756
				24:leaf=0.0114469,cover=14108.6
			12:[KW_REL<1.08694e-05] yes=25,no=26,missing=25,gain=868.986,cover=40560.1
				25:leaf=-0.000140227,cover=17978.9
				26:leaf=0.0145919,cover=22581.2
		6:[D_CONID_COEC<0.0203717] yes=13,no=14,missing=14,gain=1000.22,cover=272272
			13:[D_CONID_COEC<0.00139789] yes=27,no=28,missing=28,gain=1339.64,cover=7763.18
				27:leaf=-0.00501412,cover=5212.56
				28:leaf=-0.0492312,cover=2550.61
			14:[D_CONID_COEC<0.207606] yes=29,no=30,missing=29,gain=660.862,cover=264508
				29:leaf=-0.00203554,cover=245424
				30:leaf=0.0076237,cover=19083.8
booster[90]:
0:[IMAGE_COUNT<0.5] yes=1,no=2,missing=1,gain=524.797,cover=875915
	1:[D_CONID_COEC<0.105132] yes=3,no=4,missing=3,gain=209.933,cover=15342.9
		3:[D_CONID_COEC<0.0673975] yes=7,no=8,missing=7,gain=202.887,cover=14054.7
			7:[TIME_OF_DAY<10.5] yes=15,no=16,missing=15,gain=126.926,cover=10228.5
				15:leaf=-0.00564928,cover=5297.32
				16:leaf=-0.0167971,cover=4931.15
			8:[D_CATEGORY_MACRO_MAX_COEC<0.0564654] yes=17,no=18,missing=17,gain=311.778,cover=3826.25
				17:leaf=-0.01726,cover=1313.67
				18:leaf=0.0127896,cover=2512.58
		4:[D_CATEGORY_MICRO_MAX_COEC<0.0772963] yes=9,no=10,missing=9,gain=64.3049,cover=1288.13
			9:[C_D_U_PUBLISHER_AGE_COEC<0.154433] yes=19,no=20,missing=20,gain=62.698,cover=988.409
				19:leaf=-0.0361033,cover=974.6
				20:leaf=0.0679466,cover=13.8099
			10:[D_CATEGORY_MACRO_MAX_COEC<0.0773609] yes=21,no=22,missing=22,gain=50.3687,cover=299.725
				21:leaf=0.0586702,cover=24.8483
				22:leaf=-0.014342,cover=274.876
	2:[D_PUBLISHER_COEC<0.0200137] yes=5,no=6,missing=6,gain=494.998,cover=860572
		5:[KW_REL<0.00662053] yes=11,no=12,missing=11,gain=176.746,cover=3753.5
			11:[C_D_U_CATEGORY_AGE_MICRO_MAX_COEC<0.0252828] yes=23,no=24,missing=24,gain=98.3377,cover=3614.15
				23:leaf=0.000328646,cover=508.991
				24:leaf=-0.0233804,cover=3105.16
			12:[C_D_U_CATEGORY_CITY_MACRO_MAX_COEC<0.0756295] yes=25,no=26,missing=26,gain=90.4413,cover=139.353
				25:leaf=-0.010037,cover=58.6628
				26:leaf=0.0711866,cover=80.6903
		6:[D_CATEGORY_MACRO_MEAN_COEC<0.0770114] yes=13,no=14,missing=13,gain=493.965,cover=856818
			13:[CAT_REL<0.186829] yes=27,no=28,missing=27,gain=2385.41,cover=525263
				27:leaf=0.00024156,cover=482903
				28:leaf=0.0126161,cover=42360.1
			14:[D_PUBLISHER_COEC<0.042713] yes=29,no=30,missing=29,gain=745.558,cover=331555
				29:leaf=-0.012835,cover=13274.1
				30:leaf=-0.000741125,cover=318281
booster[91]:
0:[WORD_COUNT<1237.5] yes=1,no=2,missing=1,gain=505.166,cover=874367
	1:[CAT_REL<0.262786] yes=3,no=4,missing=3,gain=618.988,cover=305481
		3:[WORD_COUNT<1136.5] yes=7,no=8,missing=7,gain=549.057,cover=262021
			7:[WORD_COUNT<1068.5] yes=15,no=16,missing=15,gain=279.976,cover=239171
				15:leaf=-0.0025207,cover=205608
				16:leaf=0.00240456,cover=33563.1
			8:[KW_REL<0.0100394] yes=17,no=18,missing=17,gain=647.459,cover=22850.4
				17:leaf=-0.0125811,cover=20804.6
				18:leaf=0.0168924,cover=2045.77
		4:[D_CONID_COEC<0.0568548] yes=9,no=10,missing=10,gain=1079.79,cover=43460.2
			9:[KW_REL<0.00747111] yes=19,no=20,missing=19,gain=282.563,cover=8928.05
				19:leaf=-0.0148051,cover=7898.17
				20:leaf=0.0130307,cover=1029.87
			10:[D_CATEGORY_MICRO_MAX_COEC<0.0577301] yes=21,no=22,missing=22,gain=311.761,cover=34532.2
				21:leaf=0.0227641,cover=3205.05
				22:leaf=0.00639328,cover=31327.1
	2:[WORD_COUNT<1240.5] yes=5,no=6,missing=5,gain=678.831,cover=568885
		5:[C_D_U_CATEGORY_GENDER_MACRO_MAX_COEC<0.0602838] yes=11,no=12,missing=12,gain=282.779,cover=3292.9
			11:[C_D_U_CATEGORY_GENDER_MACRO_MAX_COEC<0.0454878] yes=23,no=24,missing=24,gain=119.145,cover=195.201
				23:leaf=0.0163477,cover=71.8467
				24:leaf=-0.0643383,cover=123.355
			12:[CAT_REL<0.0788527] yes=25,no=26,missing=25,gain=139.741,cover=3097.7
				25:leaf=0.0205312,cover=2222.16
				26:leaf=0.0441295,cover=875.534
		6:[IMAGE_COUNT<0.5] yes=13,no=14,missing=13,gain=492.367,cover=565592
			13:[WORD_COUNT<1370.5] yes=27,no=28,missing=27,gain=313.269,cover=8606.03
				27:leaf=0.0114192,cover=1308.86
				28:leaf=-0.0151389,cover=7297.17
			14:[D_CONID_COEC<0.201841] yes=29,no=30,missing=29,gain=379.328,cover=556986
				29:leaf=0.000691574,cover=535659
				30:leaf=0.00749102,cover=21327.8
booster[92]:
0:[DOC_AGE<1.5] yes=1,no=2,missing=1,gain=445.924,cover=874677
	1:[KW_REL<1.10092e-05] yes=3,no=4,missing=3,gain=903.943,cover=102506
		3:[DOC_AGE<-0.5] yes=7,no=8,missing=7,gain=296.471,cover=68694.4
			7:[C_D_U_CATEGORY_CITY_MACRO_MAX_COEC<0.0208521] yes=15,no=16,missing=15,gain=73.2096,cover=2855.64
				15:leaf=-0.0282796,cover=122.342
				16:leaf=0.0111103,cover=2733.3
			8:[D_CONID_COEC<0.00165228] yes=17,no=18,missing=18,gain=284.305,cover=65838.7
				17:leaf=0.0013492,cover=8754.94
				18:leaf=-0.00832719,cover=57083.8
		4:[CAT_REL<0.0520126] yes=9,no=10,missing=9,gain=230.948,cover=33811.7
			9:[C_D_U_PUBLISHER_AGE_COEC<0.0840252] yes=19,no=20,missing=19,gain=199.561,cover=13604.4
				19:leaf=-0.0040353,cover=11446.8
				20:leaf=0.0125389,cover=2157.61
			10:[D_CATEGORY_MACRO_MEAN_COEC<0.0770114] yes=21,no=22,missing=22,gain=212.814,cover=20207.3
				21:leaf=0.0112721,cover=11981.2
				22:leaf=0.000827952,cover=8226.04
	2:[C_D_U_CATEGORY_CITY_MICRO_MAX_COEC<0.140437] yes=5,no=6,missing=6,gain=531.668,cover=772171
		5:[TIME_OF_DAY<17.5] yes=11,no=12,missing=11,gain=515.935,cover=670801
			11:[DOC_AGE<8.5] yes=23,no=24,missing=23,gain=489.163,cover=592129
				23:leaf=0.00086481,cover=296978
				24:leaf=-0.00200941,cover=295151
			12:[D_CONID_COEC<0.0654482] yes=25,no=26,missing=26,gain=2073.27,cover=78671.7
				25:leaf=-0.00665504,cover=29791.7
				26:leaf=0.0100785,cover=48880.1
		6:[D_CONID_COEC<0.0723466] yes=13,no=14,missing=14,gain=4512.26,cover=101370
			13:[U_CAT_LEN<0.5] yes=27,no=28,missing=27,gain=396.894,cover=47314.2
				27:leaf=-0.0189872,cover=6441.82
				28:leaf=-0.00563456,cover=40872.4
			14:[U_CAT_LEN<0.5] yes=29,no=30,missing=29,gain=857.183,cover=54055.9
				29:leaf=-0.000315928,cover=9085.73
				30:leaf=0.0165218,cover=44970.1
booster[93]:
0:[TIME_OF_DAY<17.5] yes=1,no=2,missing=1,gain=424.475,cover=874838
	1:[C_D_U_CATEGORY_CITY_MICRO_MAX_COEC<0.129636] yes=3,no=4,missing=4,gain=412.082,cover=779352
		3:[CAT_REL<0.000716906] yes=7,no=8,missing=7,gain=643.623,cover=668922
			7:[U_KW_LEN<0.5] yes=15,no=16,missing=15,gain=585.836,cover=261309
				15:leaf=-9.94926e-05,cover=116614
				16:leaf=-0.00486197,cover=144695
			8:[DOC_AGE<9.5] yes=17,no=18,missing=17,gain=537.678,cover=407613
				17:leaf=0.00182508,cover=258001
				18:leaf=-0.00194248,cover=149611
		4:[D_CONID_COEC<0.0893149] yes=9,no=10,missing=9,gain=1243.76,cover=110430
			9:[U_CAT_LEN<0.5] yes=19,no=20,missing=19,gain=609.483,cover=73212.9
				19:leaf=-0.0133455,cover=9164.67
				20:leaf=0.000439673,cover=64048.3
			10:[D_CONID_COEC<0.117284] yes=21,no=22,missing=22,gain=800.629,cover=37217.4
				21:leaf=0.0154079,cover=23917.7
				22:leaf=0.000104973,cover=13299.7
	2:[D_CONID_COEC<0.0569012] yes=5,no=6,missing=6,gain=3539.08,cover=95485
		5:[D_CATEGORY_MACRO_MAX_COEC<0.0430379] yes=11,no=12,missing=12,gain=274.224,cover=28934.3
			11:[D_CONID_COEC<0.030853] yes=23,no=24,missing=24,gain=375.844,cover=7124.61
				23:leaf=-0.0180391,cover=2597.52
				24:leaf=0.00581684,cover=4527.09
			12:[CAT_REL<0.148302] yes=25,no=26,missing=25,gain=233.492,cover=21809.7
				25:leaf=-0.0166592,cover=17738.8
				26:leaf=-0.0033806,cover=4070.9
		6:[D_CONID_COEC<0.125349] yes=13,no=14,missing=14,gain=388.506,cover=66550.7
			13:[KW_REL<1.54375e-05] yes=27,no=28,missing=27,gain=374.042,cover=49805.9
				27:leaf=0.00916293,cover=36632.5
				28:leaf=0.0189873,cover=13173.4
			14:[C_D_U_CATEGORY_AGE_MACRO_MAX_COEC<0.0356389] yes=29,no=30,missing=29,gain=112.306,cover=16744.7
				29:leaf=-0.0208155,cover=481.488
				30:leaf=0.00366293,cover=16263.3
booster[94]:
0:[WORD_COUNT<616.5] yes=1,no=2,missing=1,gain=525.027,cover=872948
	1:[D_CONID_COEC<0.0586317] yes=3,no=4,missing=4,gain=791.078,cover=52183.4
		3:[D_CATEGORY_MACRO_MEAN_COEC<0.0482303] yes=7,no=8,missing=8,gain=317.903,cover=13202.3
			7:[C_D_U_PUBLISHER_AGE_COEC<0.0303918] yes=15,no=16,missing=16,gain=118.072,cover=2209.61
				15:leaf=-0.0288104,cover=275.241
				16:leaf=0.00613368,cover=1934.37
			8:[D_CONID_COEC<0.0010959] yes=17,no=18,missing=18,gain=232.141,cover=10992.7
				17:leaf=0.00166932,cover=1207.51
				18:leaf=-0.0215656,cover=9785.15
		4:[WORD_COUNT<548.5] yes=9,no=10,missing=9,gain=203.923,cover=38981.1
			9:[D_PUBLISHER_COEC<0.0745802] yes=19,no=20,missing=19,gain=208.83,cover=35024.7
				19:leaf=0.00568079,cover=10652.1
				20:leaf=-0.00271127,cover=24372.7
			10:[D_CONID_COEC<0.0830549] yes=21,no=22,missing=21,gain=133.971,cover=3956.4
				21:leaf=-0.00804736,cover=3306.2
				22:leaf=-0.032864,cover=650.201
	2:[D_CATEGORY_MICRO_MAX_COEC<0.0250758] yes=5,no=6,missing=6,gain=481.162,cover=820765
		5:[D_CATEGORY_MACRO_MAX_COEC<0.00527822] yes=11,no=12,missing=12,gain=284.323,cover=10359.9
			11:[TIME_OF_DAY<4.5] yes=23,no=24,missing=23,gain=138.646,cover=717.761
				23:leaf=0.050622,cover=241.524
				24:leaf=0.00416834,cover=476.237
			12:[CAT_REL<0.018163] yes=25,no=26,missing=25,gain=296.462,cover=9642.1
				25:leaf=-0.0177655,cover=7265.9
				26:leaf=0.00257802,cover=2376.2
		6:[D_CATEGORY_MACRO_MEAN_COEC<0.0832663] yes=13,no=14,missing=13,gain=419.516,cover=810405
			13:[CAT_REL<0.272569] yes=27,no=28,missing=27,gain=894.259,cover=585231
				27:leaf=0.000530092,cover=545526
				28:leaf=0.00830206,cover=39704.8
			14:[D_CONID_COEC<0.0813762] yes=29,no=30,missing=30,gain=2791.51,cover=225174
				29:leaf=-0.0101935,cover=65295.3
				30:leaf=0.00207552,cover=159879
booster[95]:
0:[D_CATEGORY_MACRO_MEAN_COEC<0.0204487] yes=1,no=2,missing=2,gain=589.814,cover=873468
	1:[C_D_U_CATEGORY_GENDER_MACRO_MAX_COEC<0.00188009] yes=3,no=4,missing=4,gain=202.66,cover=5912.83
		3:[TIME_OF_DAY<4.5] yes=7,no=8,missing=7,gain=75.3619,cover=720.643
			7:[C_D_U_PUBLISHER_GENDER_COEC<0.0442089] yes=15,no=16,missing=15,gain=92.8134,cover=230.191
				15:leaf=0.0563347,cover=147.479
				16:leaf=-0.00965311,cover=82.7128
			8:[WORD_COUNT<2676.5] yes=17,no=18,missing=17,gain=68.7179,cover=490.451
				17:leaf=-0.0232476,cover=212.927
				18:leaf=0.0144338,cover=277.524
		4:[CAT_REL<0.104676] yes=9,no=10,missing=9,gain=171.244,cover=5192.19
			9:[D_CONID_COEC<0.0192614] yes=19,no=20,missing=20,gain=113.846,cover=4789.78
				19:leaf=-0.0315297,cover=1839.4
				20:leaf=-0.0156709,cover=2950.38
			10:[C_D_U_CATEGORY_CITY_MACRO_MAX_COEC<0.0167765] yes=21,no=22,missing=22,gain=82.9704,cover=402.411
				21:leaf=-0.024203,cover=112.183
				22:leaf=0.026262,cover=290.228
	2:[DOC_AGE<1.5] yes=5,no=6,missing=5,gain=502.18,cover=867556
		5:[KW_REL<0.0262158] yes=11,no=12,missing=11,gain=364.577,cover=100309
			11:[U_GENDER<4.00001] yes=23,no=24,missing=24,gain=366.397,cover=98827.3
				23:leaf=-0.00733853,cover=38631.1
				24:leaf=-0.00109932,cover=60196.2
			12:[C_D_U_PUBLISHER_GENDER_COEC<0.0404777] yes=25,no=26,missing=26,gain=55.5895,cover=1481.88
				25:leaf=0.0413841,cover=282.204
				26:leaf=0.016717,cover=1199.67
		6:[D_CATEGORY_MICRO_MAX_COEC<0.0872067] yes=13,no=14,missing=13,gain=481.327,cover=767246
			13:[CAT_REL<0.260958] yes=27,no=28,missing=27,gain=884.751,cover=588915
				27:leaf=0.000681804,cover=537373
				28:leaf=0.00753959,cover=51542.1
			14:[D_CONID_COEC<0.0982336] yes=29,no=30,missing=30,gain=664.774,cover=178331
				29:leaf=-0.00547602,cover=70102.6
				30:leaf=0.000773982,cover=108229
booster[96]:
0:[CAT_REL<0.353432] yes=1,no=2,missing=1,gain=499.825,cover=874655
	1:[KW_REL<0.0401173] yes=3,no=4,missing=3,gain=551.159,cover=819820
		3:[TIME_OF_DAY<1.5] yes=7,no=8,missing=7,gain=499.509,cover=816213
			7:[D_CONID_COEC<0.0450286] yes=15,no=16,missing=15,gain=1200.77,cover=45231
				15:leaf=-0.0142526,cover=7000.98
				16:leaf=0.0082696,cover=38230
			8:[TIME_OF_DAY<8.5] yes=17,no=18,missing=17,gain=528.541,cover=770982
				17:leaf=-0.00248309,cover=255388
				18:leaf=0.000298396,cover=515593
		4:[DOC_AGE<15.5] yes=9,no=10,missing=9,gain=153.13,cover=3607.07
			9:[DAY_OF_WEEK<2.5] yes=19,no=20,missing=19,gain=86.4069,cover=2632.81
				19:leaf=0.0176692,cover=1505.52
				20:leaf=0.0359955,cover=1127.29
			10:[KW_REL<0.041004] yes=21,no=22,missing=21,gain=73.1545,cover=974.257
				21:leaf=-0.0688473,cover=33.8218
				22:leaf=0.00495301,cover=940.435
	2:[D_CONID_COEC<0.0642576] yes=5,no=6,missing=6,gain=825.834,cover=54835.7
		5:[KW_REL<1.27874e-05] yes=11,no=12,missing=11,gain=329.151,cover=16877.8
			11:[D_CONID_COEC<0.0452679] yes=23,no=24,missing=24,gain=308.656,cover=7340.23
				23:leaf=-0.0238474,cover=3287.8
				24:leaf=-0.00322991,cover=4052.43
			12:[C_D_U_CATEGORY_GENDER_MICRO_MEAN_COEC<0.0776192] yes=25,no=26,missing=26,gain=159.705,cover=9537.54
				25:leaf=0.00906646,cover=4100.54
				26:leaf=-0.0040013,cover=5437
		6:[D_CONID_COEC<0.119445] yes=13,no=14,missing=13,gain=448.855,cover=37957.9
			13:[KW_REL<1.08694e-05] yes=27,no=28,missing=27,gain=371.721,cover=26821.7
				27:leaf=0.00559086,cover=11690.2
				28:leaf=0.0174619,cover=15131.5
			14:[CAT_REL<0.675559] yes=29,no=30,missing=29,gain=210.9,cover=11136.2
				29:leaf=0.0027503,cover=9925.67
				30:leaf=-0.0193476,cover=1210.5
booster[97]:
0:[TIME_OF_DAY<1.5] yes=1,no=2,missing=1,gain=435.515,cover=871652
	1:[D_CONID_COEC<0.0550534] yes=3,no=4,missing=3,gain=1057.52,cover=47471
		3:[C_D_U_CATEGORY_GENDER_MACRO_MAX_COEC<0.0478713] yes=7,no=8,missing=7,gain=370.915,cover=11185
			7:[KW_REL<8.19371e-05] yes=15,no=16,missing=15,gain=108.038,cover=5173.19
				15:leaf=-0.00313075,cover=3947.73
				16:leaf=0.0138582,cover=1225.46
			8:[C_D_U_CATEGORY_CITY_MACRO_MAX_COEC<0.0591018] yes=17,no=18,missing=18,gain=153.77,cover=6011.78
				17:leaf=-0.0269662,cover=2461.95
				18:leaf=-0.0107011,cover=3549.83
		4:[D_CONID_COEC<0.1051] yes=9,no=10,missing=10,gain=341.89,cover=36286.1
			9:[KW_REL<1.32594e-05] yes=19,no=20,missing=19,gain=273.678,cover=20789.1
				19:leaf=0.00870852,cover=13659
				20:leaf=0.0207943,cover=7130.17
			10:[C_D_U_PUBLISHER_AGE_COEC<0.0533466] yes=21,no=22,missing=22,gain=143.12,cover=15496.9
				21:leaf=-0.0167192,cover=864.093
				22:leaf=0.00421068,cover=14632.8
	2:[TIME_OF_DAY<15.5] yes=5,no=6,missing=5,gain=545.708,cover=824181
		5:[D_PUBLISHER_COEC<0.0442187] yes=11,no=12,missing=12,gain=1280.52,cover=595718
			11:[D_CONID_COEC<0.0657267] yes=23,no=24,missing=24,gain=1905.31,cover=89957.2
				23:leaf=-0.0113683,cover=63707.3
				24:leaf=0.00463858,cover=26249.9
			12:[D_CATEGORY_MACRO_MAX_COEC<0.0768871] yes=25,no=26,missing=25,gain=464.699,cover=505761
				25:leaf=0.00109733,cover=287506
				26:leaf=-0.00196267,cover=218255
		6:[D_CONID_COEC<0.0828613] yes=13,no=14,missing=13,gain=1896.34,cover=228463
			13:[D_PUBLISHER_COEC<0.0412678] yes=27,no=28,missing=27,gain=803.937,cover=129863
				27:leaf=-0.0117402,cover=19200.1
				28:leaf=-0.000657137,cover=110663
			14:[D_CONID_COEC<0.101869] yes=29,no=30,missing=30,gain=768.021,cover=98599.7
				29:leaf=0.0126864,cover=36267.4
				30:leaf=0.00353516,cover=62332.4
booster[98]:
0:[WORD_COUNT<2913.5] yes=1,no=2,missing=1,gain=464.414,cover=871929
	1:[CAT_REL<0.36055] yes=3,no=4,missing=3,gain=404.829,cover=712456
		3:[C_D_U_CATEGORY_CITY_MICRO_MEAN_COEC<0.233296] yes=7,no=8,missing=7,gain=435.028,cover=667592
			7:[D_PUBLISHER_COEC<0.027452] yes=15,no=16,missing=16,gain=424.987,cover=664250
				15:leaf=-0.0132137,cover=7180.3
				16:leaf=-0.000983944,cover=657070
			8:[D_CONID_COEC<0.0593789] yes=17,no=18,missing=18,gain=152.88,cover=3341.27
				17:leaf=-0.00472831,cover=652.922
				18:leaf=0.0222372,cover=2688.35
		4:[KW_REL<1.24148e-05] yes=9,no=10,missing=9,gain=361.245,cover=44864.7
			9:[D_CONID_COEC<0.048561] yes=19,no=20,missing=19,gain=500.793,cover=20341.4
				19:leaf=-0.0180633,cover=3564.35
				20:leaf=0.00257101,cover=16777
			10:[D_CONID_COEC<0.0602558] yes=21,no=22,missing=22,gain=222.41,cover=24523.3
				21:leaf=0.00031553,cover=6846.24
				22:leaf=0.0109301,cover=17677
	2:[KW_REL<1.26087e-05] yes=5,no=6,missing=5,gain=1068.2,cover=159473
		5:[D_CONID_COEC<0.0784575] yes=11,no=12,missing=11,gain=1018.17,cover=101064
			11:[D_CATEGORY_MACRO_MAX_COEC<0.0770114] yes=23,no=24,missing=24,gain=481.862,cover=52381.8
				23:leaf=-0.00225447,cover=34680.5
				24:leaf=-0.0123929,cover=17701.3
			12:[C_D_U_CATEGORY_AGE_MICRO_MAX_COEC<0.0448518] yes=25,no=26,missing=26,gain=345.264,cover=48681.8
				25:leaf=-0.0290943,cover=758.09
				26:leaf=0.00489295,cover=47923.8
		6:[D_CONID_COEC<0.040617] yes=13,no=14,missing=14,gain=1168.57,cover=58408.9
			13:[D_CATEGORY_MACRO_MAX_COEC<0.0407912] yes=27,no=28,missing=27,gain=296.694,cover=6201.14
				27:leaf=0.00271372,cover=2046.6
				28:leaf=-0.0205427,cover=4154.54
			14:[C_D_U_CATEGORY_AGE_MACRO_MEAN_COEC<0.0693941] yes=29,no=30,missing=29,gain=487.14,cover=52207.7
				29:leaf=0.0144409,cover=28810.5
				30:leaf=0.00472874,cover=23397.2
booster[99]:
0:[TIME_OF_DAY<15.5] yes=1,no=2,missing=1,gain=443.388,cover=873612
	1:[TIME_OF_DAY<2.5] yes=3,no=4,missing=3,gain=512.449,cover=644919
		3:[D_CONID_COEC<0.0632406] yes=7,no=8,missing=7,gain=2237.68,cover=88130.4
			7:[D_CATEGORY_MACRO_MAX_COEC<0.0559056] yes=15,no=16,missing=15,gain=505.907,cover=28686.3
				15:leaf=-0.00192667,cover=14557.5
				16:leaf=-0.0152081,cover=14128.8
			8:[D_CONID_COEC<0.124096] yes=17,no=18,missing=18,gain=485.354,cover=59444.1
				17:leaf=0.0115551,cover=41084.8
				18:leaf=0.00177618,cover=18359.3
		4:[D_PUBLISHER_COEC<0.0586556] yes=9,no=10,missing=10,gain=1431.18,cover=556789
			9:[D_CONID_COEC<0.0707924] yes=19,no=20,missing=19,gain=3774.72,cover=194673
				19:leaf=-0.0092151,cover=134538
				20:leaf=0.00585366,cover=60134.5
			10:[D_PUBLISHER_COEC<0.0734736] yes=21,no=22,missing=21,gain=937.947,cover=362116
				21:leaf=0.00400735,cover=137537
				22:leaf=-0.00123574,cover=224579
	2:[D_CONID_COEC<0.0828625] yes=5,no=6,missing=5,gain=1511.42,cover=228693
		5:[KW_REL<1.20416e-05] yes=11,no=12,missing=11,gain=856.424,cover=129787
			11:[D_PUBLISHER_COEC<0.042546] yes=23,no=24,missing=24,gain=586.538,cover=93776.1
				23:leaf=-0.0123772,cover=17238.1
				24:leaf=-0.00216849,cover=76538
			12:[D_CONID_COEC<0.0602315] yes=25,no=26,missing=26,gain=1872.35,cover=36011
				25:leaf=-0.00499721,cover=20312
				26:leaf=0.0179938,cover=15699
		6:[D_CONID_COEC<0.100819] yes=13,no=14,missing=14,gain=609.047,cover=98905.5
			13:[D_PUBLISHER_COEC<0.0745707] yes=27,no=28,missing=28,gain=407.67,cover=35167.6
				27:leaf=0.0163828,cover=20989.7
				28:leaf=0.00540781,cover=14177.9
			14:[D_PUBLISHER_COEC<0.0500273] yes=29,no=30,missing=30,gain=192.802,cover=63737.9
				29:leaf=-0.00803793,cover=3282.62
				30:leaf=0.00440265,cover=60455.3
