booster[0]:
0:[C_D_U_TITLEMD5_CATEGORY_MICRO_MEAN_COEC<0.102066] yes=1,no=2,missing=1
	1:[D_KEYWORD_MACRO_MEAN_COEC<0.112251] yes=3,no=4,missing=4
		3:[C_D_U_TITLEMD5_CATEGORY_MICRO_MEAN_COEC<0.0603521] yes=7,no=8,missing=7
			7:[D_KEYWORD_MACRO_MEAN_COEC<0.0789653] yes=15,no=16,missing=16
				15:[CAT_REL<0.000969] yes=31,no=32,missing=32
					31:[D_TITLEMD5_COEC<0.037636] yes=63,no=64,missing=63
						63:leaf=-0.143572
						64:leaf=-0.11182
					32:[M_D_U_KEYWORD_KEYWORD_MICRO_MAX_COEC<0.101172] yes=65,no=66,missing=65
						65:leaf=-0.0963728
						66:leaf=-0.0552763
				16:[D_TITLEMD5_COEC<0.108267] yes=33,no=34,missing=34
					33:[M_D_U_KEYWORD_KEYWORD_MICRO_MAX_COEC<0.105078] yes=67,no=68,missing=67
						67:leaf=-0.0915397
						68:leaf=-0.0532255
					34:[D_TITLEMD5_C<27.9001] yes=69,no=70,missing=70
						69:leaf=-0.0710757
						70:leaf=-0.0372305
			8:[CAT_REL<0.000969] yes=17,no=18,missing=18
				17:[C_D_U_TITLEMD5_CATEGORY_MICRO_MEAN_COEC<0.0859923] yes=35,no=36,missing=36
					35:[M_D_U_KEYWORD_KEYWORD_MICRO_MEAN_COEC<0.0882491] yes=71,no=72,missing=71
						71:leaf=-0.0866094
						72:leaf=-0.054976
					36:[KW_REL<0.00136908] yes=73,no=74,missing=74
						73:leaf=-0.0618586
						74:leaf=-0.0275401
				18:[KW_REL<0.0011529] yes=37,no=38,missing=38
					37:[D_TITLEMD5_C<46.7518] yes=75,no=76,missing=76
						75:leaf=-0.0669248
						76:leaf=-0.0242383
					38:[U_KEYWORD_MACRO_MAX_COEC<0.0017199] yes=77,no=78,missing=78
						77:leaf=0.0155622
						78:leaf=-0.0193488
		4:[D_KEYWORD_MICRO_MEAN_COEC<0.153195] yes=9,no=10,missing=9
			9:[D_TITLEMD5_C<6.88572] yes=19,no=20,missing=19
				19:[C_D_U_CATEGORY_CATEGORY_MICRO_MEAN_COEC<0.0944564] yes=39,no=40,missing=39
					39:[KW_REL<0.00179902] yes=79,no=80,missing=80
						79:leaf=-0.129656
						80:leaf=-0.0598958
					40:[U_KEYWORD_MACRO_MAX_COEC<0.00158702] yes=81,no=82,missing=82
						81:leaf=-0.00943292
						82:leaf=-0.0770926
				20:[D_TITLEMD5_COEC<0.196989] yes=41,no=42,missing=42
					41:[D_TITLEMD5_COEC<0.1403] yes=83,no=84,missing=84
						83:leaf=-0.0266042
						84:leaf=0.008004
					42:[D_TITLEMD5_COEC<0.223145] yes=85,no=86,missing=86
						85:leaf=0.0381263
						86:leaf=0.0724771
			10:[D_KEYWORD_MACRO_MEAN_COEC<0.143136] yes=21,no=22,missing=22
				21:[D_KEYWORD_MEAN_C<490.464] yes=43,no=44,missing=44
					43:[U_KEYWORD_MEAN_EC<607.524] yes=87,no=88,missing=88
						87:leaf=0.0725968
						88:leaf=0.00252425
					44:[D_TITLEMD5_COEC<0.0717409] yes=89,no=90,missing=89
						89:leaf=-0.114206
						90:leaf=-0.0259312
				22:[D_TITLEMD5_EC<122.909] yes=45,no=46,missing=46
					45:[D_TITLEMD5_C<1.995] yes=91,no=92,missing=92
						91:leaf=0.0729244
						92:leaf=0.122902
					46:[D_PUBLISHER_C<9571.42] yes=93,no=94,missing=93
						93:leaf=0.0545167
						94:leaf=0.105544
	2:[C_D_U_TITLEMD5_CATEGORY_MICRO_MEAN_COEC<0.155545] yes=5,no=6,missing=6
		5:[CAT_REL<0.000969] yes=11,no=12,missing=12
			11:[D_TITLEMD5_C<39.9457] yes=23,no=24,missing=24
				23:[C_D_U_KEYWORD_CATEGORY_MICRO_MEAN_COEC<0.0871233] yes=47,no=48,missing=48
					47:[D_TITLEMD5_C<20.6926] yes=95,no=96,missing=96
						95:leaf=-0.100232
						96:leaf=-0.0621864
					48:[KW_REL<0.000931974] yes=97,no=98,missing=98
						97:leaf=-0.0657517
						98:leaf=-0.0200461
				24:[U_KEYWORD_MACRO_MAX_COEC<0.00174639] yes=49,no=50,missing=50
					49:[C_D_U_TITLEMD5_CATEGORY_MICRO_MEAN_COEC<0.121582] yes=99,no=100,missing=100
						99:leaf=0.00782087
						100:leaf=0.0443789
					50:[C_D_U_TITLEMD5_CATEGORY_MICRO_MEAN_COEC<0.126521] yes=101,no=102,missing=102
						101:leaf=-0.0197533
						102:leaf=0.0114081
			12:[M_D_U_KEYWORD_KEYWORD_MICRO_MAX_COEC<0.110205] yes=25,no=26,missing=25
				25:[D_TITLEMD5_C<27.9001] yes=51,no=52,missing=52
					51:[U_KEYWORD_MACRO_MAX_COEC<0.00174639] yes=103,no=104,missing=104
						103:leaf=0.0016879
						104:leaf=-0.0470932
					52:[U_KEYWORD_MACRO_MAX_COEC<0.00174639] yes=105,no=106,missing=106
						105:leaf=0.0584566
						106:leaf=0.0156184
				26:[U_KEYWORD_MACRO_MAX_COEC<0.0017199] yes=53,no=54,missing=54
					53:[D_TITLEMD5_C<35.8917] yes=107,no=108,missing=108
						107:leaf=0.0515048
						108:leaf=0.0836354
					54:[M_D_U_KEYWORD_KEYWORD_MICRO_MAX_COEC<0.197574] yes=109,no=110,missing=110
						109:leaf=0.0422184
						110:leaf=0.0882841
		6:[D_TITLEMD5_C<20.6926] yes=13,no=14,missing=14
			13:[C_D_U_KEYWORD_CATEGORY_MICRO_MEAN_COEC<0.100147] yes=27,no=28,missing=27
				27:[CAT_REL<0.000969] yes=55,no=56,missing=56
					55:[C_D_U_CATEGORY_CATEGORY_MICRO_MAX_COEC<0.106921] yes=111,no=112,missing=112
						111:leaf=-0.0914463
						112:leaf=-0.0445867
					56:[KW_REL<0.00174578] yes=113,no=114,missing=114
						113:leaf=-0.0283272
						114:leaf=0.0330906
				28:[M_D_U_KEYWORD_KEYWORD_MICRO_MAX_COEC<0.14666] yes=57,no=58,missing=57
					57:[D_TITLEMD5_C<2.97515] yes=115,no=116,missing=116
						115:leaf=0.00771563
						116:leaf=0.0602001
					58:[D_TITLEMD5_COEC<0.123919] yes=117,no=118,missing=118
						117:leaf=0.0737408
						118:leaf=0.119939
			14:[C_D_U_TITLEMD5_CATEGORY_MICRO_MEAN_COEC<0.203221] yes=29,no=30,missing=30
				29:[U_KEYWORD_MACRO_MAX_COEC<0.00179648] yes=59,no=60,missing=60
					59:[CAT_REL<0.000969] yes=119,no=120,missing=120
						119:leaf=0.0837547
						120:leaf=0.112819
					60:[M_D_U_KEYWORD_KEYWORD_MICRO_MAX_COEC<0.120338] yes=121,no=122,missing=121
						121:leaf=0.0545461
						122:leaf=0.0890092
				30:[U_KEYWORD_MACRO_MAX_COEC<0.00178354] yes=61,no=62,missing=62
					61:[CAT_REL<0.000969] yes=123,no=124,missing=124
						123:leaf=0.124368
						124:leaf=0.143247
					62:[CAT_REL<0.000969] yes=125,no=126,missing=126
						125:leaf=0.0940836
						126:leaf=0.117898
booster[1]:
0:[C_D_U_TITLEMD5_CATEGORY_MICRO_MEAN_COEC<0.103444] yes=1,no=2,missing=1
	1:[C_D_U_TITLEMD5_CATEGORY_MICRO_MEAN_COEC<0.0699624] yes=3,no=4,missing=3
		3:[D_KEYWORD_MACRO_MEAN_COEC<0.110198] yes=7,no=8,missing=8
			7:[M_D_U_KEYWORD_KEYWORD_MICRO_MAX_COEC<0.105049] yes=15,no=16,missing=15
				15:[D_TITLEMD5_COEC<0.101538] yes=31,no=32,missing=31
					31:[C_D_U_TITLEMD5_CATEGORY_MICRO_MEAN_COEC<0.0399782] yes=63,no=64,missing=63
						63:leaf=-0.107245
						64:leaf=-0.0763064
					32:[D_TITLEMD5_C<18.8306] yes=65,no=66,missing=66
						65:leaf=-0.091522
						66:leaf=-0.0444936
				16:[CAT_REL<0.000983] yes=33,no=34,missing=34
					33:[C_D_U_TITLEMD5_CATEGORY_MICRO_MEAN_COEC<0.0457814] yes=67,no=68,missing=68
						67:leaf=-0.0989018
						68:leaf=-0.0641879
					34:[D_TITLEMD5_COEC<0.0425669] yes=69,no=70,missing=70
						69:leaf=-0.0609308
						70:leaf=-0.0246978
			8:[D_KEYWORD_MACRO_MEAN_COEC<0.142349] yes=17,no=18,missing=17
				17:[D_TITLEMD5_COEC<0.141053] yes=35,no=36,missing=35
					35:[D_KEYWORD_MEAN_C<4.9054] yes=71,no=72,missing=71
						71:leaf=0.0330791
						72:leaf=-0.0411804
					36:[D_TITLEMD5_EC<14.98] yes=73,no=74,missing=74
						73:leaf=-0.0778994
						74:leaf=0.0108463
				18:[D_KEYWORD_MICRO_MEAN_COEC<0.0971616] yes=37,no=38,missing=38
					37:[D_TITLEMD5_EC<100.372] yes=75,no=76,missing=75
						75:leaf=-0.110809
						76:leaf=0.0766986
					38:[D_KEYWORD_MICRO_MAX_COEC<0.214524] yes=77,no=78,missing=78
						77:leaf=0.0225348
						78:leaf=0.0641456
		4:[CAT_REL<0.000983] yes=9,no=10,missing=10
			9:[D_TITLEMD5_C<28.029] yes=19,no=20,missing=20
				19:[C_D_U_KEYWORD_CATEGORY_MICRO_MEAN_COEC<0.0841981] yes=39,no=40,missing=40
					39:[KW_REL<0.00102212] yes=79,no=80,missing=80
						79:leaf=-0.11896
						80:leaf=-0.09044
					40:[D_TITLEMD5_COEC<0.0977057] yes=81,no=82,missing=82
						81:leaf=-0.0767018
						82:leaf=-0.0278796
				20:[M_D_U_KEYWORD_KEYWORD_MICRO_MAX_COEC<0.106515] yes=41,no=42,missing=41
					41:[C_D_U_TITLEMD5_CATEGORY_MICRO_MEAN_COEC<0.0917344] yes=83,no=84,missing=84
						83:leaf=-0.0627398
						84:leaf=-0.0370677
					42:[KW_REL<0.00219326] yes=85,no=86,missing=86
						85:leaf=-0.0336223
						86:leaf=-0.00703757
			10:[KW_REL<0.00131909] yes=21,no=22,missing=22
				21:[D_TITLEMD5_C<45.9412] yes=43,no=44,missing=44
					43:[U_KEYWORD_MACRO_MAX_COEC<0.00175239] yes=87,no=88,missing=88
						87:leaf=-0.0389137
						88:leaf=-0.0790019
					44:[U_KEYWORD_MACRO_MAX_COEC<0.00181853] yes=89,no=90,missing=90
						89:leaf=0.00304328
						90:leaf=-0.0354642
				22:[U_KEYWORD_MACRO_MAX_COEC<0.00171664] yes=45,no=46,missing=46
					45:[D_TITLEMD5_C<56.9613] yes=91,no=92,missing=92
						91:leaf=0.00607868
						92:leaf=0.0350146
					46:[M_D_U_KEYWORD_KEYWORD_MICRO_MAX_COEC<0.144681] yes=93,no=94,missing=93
						93:leaf=-0.0171948
						94:leaf=0.0201433
	2:[C_D_U_TITLEMD5_CATEGORY_MICRO_MEAN_COEC<0.15219] yes=5,no=6,missing=6
		5:[KW_REL<0.0015194] yes=11,no=12,missing=12
			11:[D_TITLEMD5_C<61.1631] yes=23,no=24,missing=24
				23:[CAT_REL<0.000983] yes=47,no=48,missing=48
					47:[D_TITLEMD5_C<13.8905] yes=95,no=96,missing=96
						95:leaf=-0.0938813
						96:leaf=-0.047986
					48:[U_KEYWORD_MACRO_MAX_COEC<0.00171664] yes=97,no=98,missing=98
						97:leaf=0.00311915
						98:leaf=-0.0428061
				24:[CAT_REL<0.000983] yes=49,no=50,missing=50
					49:[C_D_U_TITLEMD5_CATEGORY_MICRO_MEAN_COEC<0.128885] yes=99,no=100,missing=100
						99:leaf=-0.0121083
						100:leaf=0.0170109
					50:[C_D_U_KEYWORD_CATEGORY_MEAN_EC<15.8976] yes=101,no=102,missing=102
						101:leaf=0.049747
						102:leaf=0.00361083
			12:[CAT_REL<0.000983] yes=25,no=26,missing=26
				25:[D_TITLEMD5_C<32.9418] yes=51,no=52,missing=52
					51:[D_TITLEMD5_C<11.5692] yes=103,no=104,missing=104
						103:leaf=-0.0650128
						104:leaf=-0.0183863
					52:[U_KEYWORD_MACRO_MAX_COEC<0.00167066] yes=105,no=106,missing=106
						105:leaf=0.043127
						106:leaf=0.00886477
				26:[U_KEYWORD_MACRO_MAX_COEC<0.00209593] yes=53,no=54,missing=54
					53:[D_TITLEMD5_C<28.029] yes=107,no=108,missing=108
						107:leaf=0.0347156
						108:leaf=0.0681174
					54:[M_D_U_KEYWORD_KEYWORD_MICRO_MAX_COEC<0.137292] yes=109,no=110,missing=109
						109:leaf=0.0110894
						110:leaf=0.0464808
		6:[C_D_U_TITLEMD5_CATEGORY_MEAN_C<0.180013] yes=13,no=14,missing=14
			13:[C_D_U_KEYWORD_CATEGORY_MICRO_MEAN_COEC<0.101241] yes=27,no=28,missing=28
				27:[KW_REL<0.00128171] yes=55,no=56,missing=56
					55:[C_D_U_CATEGORY_CATEGORY_MICRO_MAX_COEC<0.13079] yes=111,no=112,missing=111
						111:leaf=-0.0617061
						112:leaf=-0.00310219
					56:[D_TITLEMD5_C<4.54425] yes=113,no=114,missing=114
						113:leaf=-0.0173348
						114:leaf=0.0324382
				28:[M_D_U_KEYWORD_KEYWORD_MICRO_MAX_COEC<0.194733] yes=57,no=58,missing=57
					57:[D_TITLEMD5_COEC<0.116264] yes=115,no=116,missing=116
						115:leaf=0.0202897
						116:leaf=0.0628496
					58:[M_D_U_KEYWORD_KEYWORD_MICRO_MAX_COEC<0.245746] yes=117,no=118,missing=118
						117:leaf=0.0951843
						118:leaf=0.129406
			14:[U_KEYWORD_MACRO_MAX_COEC<0.00202737] yes=29,no=30,missing=30
				29:[C_D_U_TITLEMD5_CATEGORY_MICRO_MEAN_COEC<0.1937] yes=59,no=60,missing=60
					59:[M_D_U_KEYWORD_KEYWORD_MICRO_MAX_COEC<0.0946902] yes=119,no=120,missing=119
						119:leaf=0.0694177
						120:leaf=0.0979214
					60:[C_D_U_TITLEMD5_CATEGORY_MICRO_MEAN_COEC<0.235015] yes=121,no=122,missing=122
						121:leaf=0.108184
						122:leaf=0.127921
				30:[C_D_U_TITLEMD5_CATEGORY_MICRO_MEAN_COEC<0.201196] yes=61,no=62,missing=62
					61:[M_D_U_KEYWORD_KEYWORD_MICRO_MAX_COEC<0.133429] yes=123,no=124,missing=123
						123:leaf=0.0403419
						124:leaf=0.0746235
					62:[C_D_U_KEYWORD_CATEGORY_MICRO_MEAN_COEC<0.100465] yes=125,no=126,missing=125
						125:leaf=0.0383893
						126:leaf=0.090417
booster[2]:
0:[C_D_U_TITLEMD5_CATEGORY_MICRO_MEAN_COEC<0.108431] yes=1,no=2,missing=1
	1:[C_D_U_TITLEMD5_CATEGORY_MICRO_MEAN_COEC<0.0712602] yes=3,no=4,missing=3
		3:[D_KEYWORD_MACRO_MEAN_COEC<0.108508] yes=7,no=8,missing=8
			7:[M_D_U_KEYWORD_KEYWORD_MICRO_MAX_COEC<0.103137] yes=15,no=16,missing=15
				15:[D_TITLEMD5_COEC<0.101937] yes=31,no=32,missing=31
					31:[C_D_U_TITLEMD5_CATEGORY_MICRO_MEAN_COEC<0.0429455] yes=63,no=64,missing=63
						63:leaf=-0.0971035
						64:leaf=-0.0677229
					32:[D_TITLEMD5_C<21.7519] yes=65,no=66,missing=66
						65:leaf=-0.0823802
						66:leaf=-0.0401698
				16:[KW_REL<0.0019623] yes=33,no=34,missing=34
					33:[C_D_U_TITLEMD5_CATEGORY_MICRO_MEAN_COEC<0.0429455] yes=67,no=68,missing=68
						67:leaf=-0.0855528
						68:leaf=-0.0477465
					34:[M_D_U_KEYWORD_KEYWORD_MICRO_MAX_COEC<0.165249] yes=69,no=70,missing=70
						69:leaf=-0.0376191
						70:leaf=0.0150679
			8:[D_TITLEMD5_COEC<0.18756] yes=17,no=18,missing=17
				17:[D_KEYWORD_MAX_EC<790.866] yes=35,no=36,missing=35
					35:[C_D_U_KEYWORD_CATEGORY_MICRO_MAX_COEC<0.429726] yes=71,no=72,missing=72
						71:leaf=-0.0698606
						72:leaf=0.0141742
					36:[D_TITLEMD5_COEC<0.113291] yes=73,no=74,missing=74
						73:leaf=-0.068355
						74:leaf=-0.0126851
				18:[D_KEYWORD_MICRO_MEAN_COEC<0.0958339] yes=37,no=38,missing=38
					37:[D_TITLEMD5_C<36.8354] yes=75,no=76,missing=76
						75:leaf=-0.0903702
						76:leaf=0.0450174
					38:[D_KEYWORD_MAX_C<11.0447] yes=77,no=78,missing=78
						77:leaf=0.0959297
						78:leaf=0.043585
		4:[CAT_REL<0.00081] yes=9,no=10,missing=10
			9:[D_TITLEMD5_C<62.0154] yes=19,no=20,missing=20
				19:[KW_REL<0.00103121] yes=39,no=40,missing=40
					39:[D_KEYWORD_MACRO_MEAN_COEC<0.0781453] yes=79,no=80,missing=80
						79:leaf=-0.0937132
						80:leaf=-0.0645899
					40:[C_D_U_KEYWORD_CATEGORY_MICRO_MEAN_COEC<0.0862546] yes=81,no=82,missing=82
						81:leaf=-0.067903
						82:leaf=-0.0340437
				20:[M_D_U_KEYWORD_KEYWORD_MICRO_MEAN_COEC<0.0882033] yes=41,no=42,missing=41
					41:[C_D_U_TITLEMD5_CATEGORY_MICRO_MEAN_COEC<0.0889669] yes=83,no=84,missing=84
						83:leaf=-0.0562999
						84:leaf=-0.031396
					42:[U_KEYWORD_MACRO_MAX_COEC<0.00151289] yes=85,no=86,missing=86
						85:leaf=0.00327963
						86:leaf=-0.0241264
			10:[M_D_U_KEYWORD_KEYWORD_MICRO_MAX_COEC<0.103137] yes=21,no=22,missing=21
				21:[D_TITLEMD5_C<28.5589] yes=43,no=44,missing=44
					43:[U_KEYWORD_MACRO_MAX_COEC<0.00166446] yes=87,no=88,missing=88
						87:leaf=-0.0279794
						88:leaf=-0.0639486
					44:[U_KEYWORD_MACRO_MAX_COEC<0.00196206] yes=89,no=90,missing=90
						89:leaf=0.00617201
						90:leaf=-0.0306603
				22:[U_KEYWORD_MACRO_MAX_COEC<0.00162673] yes=45,no=46,missing=46
					45:[D_TITLEMD5_C<62.0154] yes=91,no=92,missing=92
						91:leaf=0.0162605
						92:leaf=0.0414899
					46:[KW_REL<0.00428436] yes=93,no=94,missing=94
						93:leaf=-0.0089199
						94:leaf=0.0201183
	2:[C_D_U_TITLEMD5_CATEGORY_MICRO_MEAN_COEC<0.16254] yes=5,no=6,missing=6
		5:[M_D_U_KEYWORD_KEYWORD_MICRO_MAX_COEC<0.0937624] yes=11,no=12,missing=11
			11:[D_TITLEMD5_C<28.5589] yes=23,no=24,missing=24
				23:[CAT_REL<0.004333] yes=47,no=48,missing=48
					47:[D_TITLEMD5_COEC<0.0804821] yes=95,no=96,missing=96
						95:leaf=-0.0900785
						96:leaf=-0.0489922
					48:[D_TITLEMD5_C<6.92557] yes=97,no=98,missing=98
						97:leaf=-0.0474506
						98:leaf=-0.000210059
				24:[U_KEYWORD_MACRO_MAX_COEC<0.00156483] yes=49,no=50,missing=50
					49:[CAT_REL<0.00081] yes=99,no=100,missing=100
						99:leaf=0.021425
						100:leaf=0.0548586
					50:[C_D_U_TITLEMD5_CATEGORY_MICRO_MEAN_COEC<0.134269] yes=101,no=102,missing=102
						101:leaf=-0.00627712
						102:leaf=0.0218103
			12:[CAT_REL<0.00081] yes=25,no=26,missing=26
				25:[D_TITLEMD5_C<30.6993] yes=51,no=52,missing=52
					51:[C_D_U_KEYWORD_CATEGORY_MICRO_MEAN_COEC<0.103088] yes=103,no=104,missing=104
						103:leaf=-0.0432645
						104:leaf=0.00325221
					52:[U_KEYWORD_MACRO_MAX_COEC<0.00170001] yes=105,no=106,missing=106
						105:leaf=0.0431626
						106:leaf=0.0149961
				26:[D_TITLEMD5_C<24.8405] yes=53,no=54,missing=54
					53:[KW_REL<0.00282648] yes=107,no=108,missing=108
						107:leaf=0.00671285
						108:leaf=0.0456578
					54:[U_KEYWORD_MACRO_MAX_COEC<0.00156483] yes=109,no=110,missing=110
						109:leaf=0.0753141
						110:leaf=0.0508929
		6:[D_TITLEMD5_C<13.9003] yes=13,no=14,missing=14
			13:[C_D_U_KEYWORD_CATEGORY_MICRO_MEAN_COEC<0.0905307] yes=27,no=28,missing=27
				27:[CAT_REL<0.004333] yes=55,no=56,missing=56
					55:[C_D_U_CATEGORY_CATEGORY_MICRO_MAX_COEC<0.112256] yes=111,no=112,missing=112
						111:leaf=-0.091361
						112:leaf=-0.0483203
					56:[KW_REL<0.000793123] yes=113,no=114,missing=114
						113:leaf=-0.0645392
						114:leaf=0.000854703
				28:[KW_REL<0.00182011] yes=57,no=58,missing=58
					57:[C_D_U_KEYWORD_CATEGORY_MICRO_MEAN_COEC<0.179867] yes=115,no=116,missing=116
						115:leaf=-0.00490649
						116:leaf=0.105065
					58:[M_D_U_KEYWORD_KEYWORD_MICRO_MAX_COEC<0.169586] yes=117,no=118,missing=117
						117:leaf=0.0494415
						118:leaf=0.0978111
			14:[U_KEYWORD_MACRO_MAX_COEC<0.0017507] yes=29,no=30,missing=30
				29:[C_D_U_TITLEMD5_CATEGORY_MICRO_MEAN_COEC<0.213264] yes=59,no=60,missing=60
					59:[CAT_REL<0.00081] yes=119,no=120,missing=120
						119:leaf=0.0720927
						120:leaf=0.097008
					60:[C_D_U_TITLEMD5_CATEGORY_MEAN_C<0.326736] yes=121,no=122,missing=122
						121:leaf=0.0827033
						122:leaf=0.116589
				30:[C_D_U_TITLEMD5_CATEGORY_MICRO_MEAN_COEC<0.222228] yes=61,no=62,missing=62
					61:[KW_REL<0.000702402] yes=123,no=124,missing=124
						123:leaf=0.0387028
						124:leaf=0.0702151
					62:[CAT_REL<0.00081] yes=125,no=126,missing=126
						125:leaf=0.0815942
						126:leaf=0.103081
booster[3]:
0:[C_D_U_TITLEMD5_CATEGORY_MICRO_MEAN_COEC<0.0992714] yes=1,no=2,missing=1
	1:[D_KEYWORD_MACRO_MEAN_COEC<0.11514] yes=3,no=4,missing=4
		3:[C_D_U_TITLEMD5_CATEGORY_MICRO_MEAN_COEC<0.0566371] yes=7,no=8,missing=7
			7:[D_KEYWORD_MACRO_MEAN_COEC<0.0833486] yes=15,no=16,missing=16
				15:[CAT_REL<0.001226] yes=31,no=32,missing=32
					31:[D_TITLEMD5_COEC<0.0472279] yes=63,no=64,missing=63
						63:leaf=-0.108945
						64:leaf=-0.0809214
					32:[U_CATEGORY_MEAN_EC<13156.9] yes=65,no=66,missing=66
						65:leaf=-0.0458996
						66:leaf=-0.0816488
				16:[D_TITLEMD5_COEC<0.121161] yes=33,no=34,missing=34
					33:[U_KEYWORD_MACRO_MAX_COEC<0.00178635] yes=67,no=68,missing=67
						67:leaf=-0.0485825
						68:leaf=-0.0818841
					34:[D_TITLEMD5_C<24.6653] yes=69,no=70,missing=70
						69:leaf=-0.0491006
						70:leaf=-0.0105613
			8:[CAT_REL<0.001226] yes=17,no=18,missing=18
				17:[D_TITLEMD5_C<28.6346] yes=35,no=36,missing=36
					35:[C_D_U_KEYWORD_CATEGORY_MICRO_MEAN_COEC<0.0838743] yes=71,no=72,missing=72
						71:leaf=-0.0938657
						72:leaf=-0.062174
					36:[KW_REL<0.00119563] yes=73,no=74,missing=74
						73:leaf=-0.0576618
						74:leaf=-0.0313993
				18:[KW_REL<0.00160398] yes=37,no=38,missing=38
					37:[D_TITLEMD5_C<56.414] yes=75,no=76,missing=76
						75:leaf=-0.0455107
						76:leaf=-0.0118245
					38:[U_KEYWORD_MACRO_MAX_COEC<0.00193046] yes=77,no=78,missing=78
						77:leaf=0.0108256
						78:leaf=-0.0207487
		4:[D_KEYWORD_MICRO_MEAN_COEC<0.153945] yes=9,no=10,missing=9
			9:[D_TITLEMD5_C<6.93517] yes=19,no=20,missing=19
				19:[KW_REL<0.00137277] yes=39,no=40,missing=40
					39:[D_KEYWORD_MICRO_MEAN_COEC<0.12517] yes=79,no=80,missing=80
						79:leaf=-0.101034
						80:leaf=-0.028279
					40:[C_D_U_CATEGORY_CATEGORY_MICRO_MEAN_COEC<0.0726211] yes=81,no=82,missing=82
						81:leaf=-0.0909173
						82:leaf=-0.00132503
				20:[D_TITLEMD5_COEC<0.192176] yes=41,no=42,missing=42
					41:[D_CATEGORY_MEAN_EC<268504] yes=83,no=84,missing=83
						83:leaf=0.00872463
						84:leaf=-0.0167643
					42:[D_KEYWORD_MICRO_MAX_COEC<0.224901] yes=85,no=86,missing=86
						85:leaf=0.0288631
						86:leaf=0.0591594
			10:[D_TITLEMD5_COEC<0.265042] yes=21,no=22,missing=21
				21:[D_KEYWORD_MACRO_MEAN_COEC<0.142639] yes=43,no=44,missing=44
					43:[C_D_U_KEYWORD_CATEGORY_MEAN_C<0.180606] yes=87,no=88,missing=88
						87:leaf=0.0570139
						88:leaf=-0.0289454
					44:[M_D_U_KEYWORD_KEYWORD_MICRO_MAX_COEC<0.233916] yes=89,no=90,missing=89
						89:leaf=0.0403034
						90:leaf=0.0930817
				22:[D_CATEGORY_MEAN_C<26134.6] yes=45,no=46,missing=45
					45:[D_TITLEMD5_C<2.99] yes=91,no=92,missing=92
						91:leaf=0.0576459
						92:leaf=0.0933495
					46:[D_KEYWORD_MAX_C<229.461] yes=93,no=94,missing=94
						93:leaf=0.0665167
						94:leaf=0.0256461
	2:[C_D_U_TITLEMD5_CATEGORY_MICRO_MEAN_COEC<0.145312] yes=5,no=6,missing=6
		5:[KW_REL<0.00127178] yes=11,no=12,missing=12
			11:[D_TITLEMD5_C<94.8721] yes=23,no=24,missing=24
				23:[C_D_U_KEYWORD_CATEGORY_MEAN_EC<8.43812] yes=47,no=48,missing=47
					47:[CAT_REL<0.011144] yes=95,no=96,missing=96
						95:leaf=-0.0385883
						96:leaf=0.00251973
					48:[C_D_U_KEYWORD_CATEGORY_MICRO_MEAN_COEC<0.074393] yes=97,no=98,missing=98
						97:leaf=-0.0816654
						98:leaf=-0.0449153
				24:[CAT_REL<0.001226] yes=49,no=50,missing=50
					49:[D_CATEGORY_MAX_EC<111886] yes=99,no=100,missing=99
						99:leaf=0.00622247
						100:leaf=-0.0214709
					50:[C_D_U_KEYWORD_CATEGORY_MEAN_EC<11.5474] yes=101,no=102,missing=102
						101:leaf=0.0410265
						102:leaf=0.00333193
			12:[U_KEYWORD_MACRO_MAX_COEC<0.00202737] yes=25,no=26,missing=26
				25:[M_D_U_KEYWORD_KEYWORD_MICRO_MAX_COEC<0.148247] yes=51,no=52,missing=51
					51:[D_TITLEMD5_C<87.1615] yes=103,no=104,missing=104
						103:leaf=0.0182952
						104:leaf=0.0428323
					52:[M_D_U_KEYWORD_KEYWORD_MICRO_MAX_COEC<0.233916] yes=105,no=106,missing=106
						105:leaf=0.0581573
						106:leaf=0.103655
				26:[M_D_U_KEYWORD_KEYWORD_MICRO_MAX_COEC<0.120931] yes=53,no=54,missing=53
					53:[D_TITLEMD5_C<37.6129] yes=107,no=108,missing=108
						107:leaf=-0.0433983
						108:leaf=0.000784528
					54:[M_D_U_KEYWORD_KEYWORD_MICRO_MAX_COEC<0.233916] yes=109,no=110,missing=110
						109:leaf=0.0176505
						110:leaf=0.0753435
		6:[D_TITLEMD5_C<24.6653] yes=13,no=14,missing=14
			13:[C_D_U_KEYWORD_CATEGORY_MICRO_MEAN_COEC<0.0962755] yes=27,no=28,missing=27
				27:[CAT_REL<0.004769] yes=55,no=56,missing=56
					55:[C_D_U_KEYWORD_CATEGORY_MICRO_MEAN_COEC<0.0731202] yes=111,no=112,missing=112
						111:leaf=-0.0881274
						112:leaf=-0.0449218
					56:[D_TITLEMD5_C<3.98502] yes=113,no=114,missing=114
						113:leaf=-0.0303387
						114:leaf=0.0239839
				28:[M_D_U_KEYWORD_KEYWORD_MICRO_MAX_COEC<0.142111] yes=57,no=58,missing=57
					57:[CAT_REL<0.004769] yes=115,no=116,missing=116
						115:leaf=-0.0142086
						116:leaf=0.0405567
					58:[M_D_U_KEYWORD_KEYWORD_MICRO_MAX_COEC<0.233916] yes=117,no=118,missing=118
						117:leaf=0.0676625
						118:leaf=0.109362
			14:[C_D_U_TITLEMD5_CATEGORY_MICRO_MEAN_COEC<0.187792] yes=29,no=30,missing=30
				29:[KW_REL<0.000662492] yes=59,no=60,missing=60
					59:[C_D_U_CATEGORY_CATEGORY_MAX_EC<192.76] yes=119,no=120,missing=119
						119:leaf=0.0441949
						120:leaf=0.0143057
					60:[U_KEYWORD_MACRO_MAX_COEC<0.00175349] yes=121,no=122,missing=122
						121:leaf=0.0768913
						122:leaf=0.0521689
				30:[U_KEYWORD_MACRO_MAX_COEC<0.00193046] yes=61,no=62,missing=62
					61:[C_D_U_TITLEMD5_CATEGORY_MICRO_MEAN_COEC<0.260877] yes=123,no=124,missing=124
						123:leaf=0.0931115
						124:leaf=0.113965
					62:[C_D_U_TITLEMD5_CATEGORY_MICRO_MEAN_COEC<0.246454] yes=125,no=126,missing=126
						125:leaf=0.0628712
						126:leaf=0.0876077
booster[4]:
0:[C_D_U_TITLEMD5_CATEGORY_MICRO_MEAN_COEC<0.110538] yes=1,no=2,missing=1
	1:[C_D_U_TITLEMD5_CATEGORY_MICRO_MEAN_COEC<0.0756385] yes=3,no=4,missing=3
		3:[D_KEYWORD_MACRO_MEAN_COEC<0.104364] yes=7,no=8,missing=8
			7:[KW_REL<0.00161814] yes=15,no=16,missing=16
				15:[D_TITLEMD5_C<21.3896] yes=31,no=32,missing=31
					31:[U_CATEGORY_MICRO_MEAN_COEC<0.0944666] yes=63,no=64,missing=63
						63:leaf=-0.0938306
						64:leaf=-0.0579822
					32:[D_TITLEMD5_COEC<0.103617] yes=65,no=66,missing=66
						65:leaf=-0.065378
						66:leaf=-0.0325174
				16:[C_D_U_CATEGORY_CATEGORY_MICRO_MEAN_COEC<0.0690459] yes=33,no=34,missing=34
					33:[C_D_U_TITLEMD5_CATEGORY_MICRO_MEAN_COEC<0.0345763] yes=67,no=68,missing=68
						67:leaf=-0.0840113
						68:leaf=-0.0429649
					34:[U_KEYWORD_MACRO_MAX_COEC<0.00156854] yes=69,no=70,missing=70
						69:leaf=-0.0101751
						70:leaf=-0.0416041
			8:[D_TITLEMD5_COEC<0.175173] yes=17,no=18,missing=17
				17:[D_TITLEMD5_COEC<0.139801] yes=35,no=36,missing=35
					35:[C_D_U_KEYWORD_CATEGORY_MEAN_EC<0.18407] yes=71,no=72,missing=72
						71:leaf=0.061206
						72:leaf=-0.0318231
					36:[D_CATEGORY_MEAN_C<26950.9] yes=73,no=74,missing=73
						73:leaf=0.00773122
						74:leaf=-0.0210268
				18:[D_KEYWORD_MICRO_MEAN_COEC<0.0950969] yes=37,no=38,missing=38
					37:[D_TITLEMD5_C<41.1529] yes=75,no=76,missing=76
						75:leaf=-0.0702988
						76:leaf=0.0336295
					38:[D_KEYWORD_MICRO_MAX_COEC<0.214618] yes=77,no=78,missing=78
						77:leaf=0.0198451
						78:leaf=0.0478606
		4:[CAT_REL<0.000725] yes=9,no=10,missing=10
			9:[D_TITLEMD5_C<63.0478] yes=19,no=20,missing=20
				19:[C_D_U_KEYWORD_CATEGORY_MICRO_MEAN_COEC<0.0848886] yes=39,no=40,missing=40
					39:[D_TITLEMD5_COEC<0.0865059] yes=79,no=80,missing=80
						79:leaf=-0.0807276
						80:leaf=-0.0522568
					40:[KW_REL<0.00198586] yes=81,no=82,missing=82
						81:leaf=-0.0517991
						82:leaf=-0.0168213
				20:[KW_REL<0.00161814] yes=41,no=42,missing=42
					41:[D_KEYWORD_MEAN_EC<4489.28] yes=83,no=84,missing=83
						83:leaf=-0.0268716
						84:leaf=-0.0547152
					42:[U_KEYWORD_MACRO_MAX_COEC<0.00153814] yes=85,no=86,missing=86
						85:leaf=0.00570396
						86:leaf=-0.0190625
			10:[M_D_U_KEYWORD_KEYWORD_MICRO_MAX_COEC<0.107419] yes=21,no=22,missing=21
				21:[D_TITLEMD5_C<32.6667] yes=43,no=44,missing=44
					43:[U_KEYWORD_MACRO_MAX_COEC<0.00216845] yes=87,no=88,missing=88
						87:leaf=-0.0243596
						88:leaf=-0.0657987
					44:[U_KEYWORD_MACRO_MAX_COEC<0.00165404] yes=89,no=90,missing=90
						89:leaf=0.0149135
						90:leaf=-0.0149557
				22:[M_D_U_KEYWORD_KEYWORD_MICRO_MAX_COEC<0.195649] yes=45,no=46,missing=46
					45:[U_KEYWORD_MACRO_MAX_COEC<0.00153814] yes=91,no=92,missing=92
						91:leaf=0.027865
						92:leaf=0.00357436
					46:[D_CATEGORY_MAX_C<21375.2] yes=93,no=94,missing=94
						93:leaf=0.0697627
						94:leaf=0.0178403
	2:[C_D_U_KEYWORD_CATEGORY_MICRO_MEAN_COEC<0.109594] yes=5,no=6,missing=6
		5:[KW_REL<0.00136633] yes=11,no=12,missing=12
			11:[D_TITLEMD5_C<36.1783] yes=23,no=24,missing=24
				23:[CAT_REL<0.000725] yes=47,no=48,missing=48
					47:[D_KEYWORD_MACRO_MEAN_COEC<0.0782813] yes=95,no=96,missing=96
						95:leaf=-0.0754694
						96:leaf=-0.0387987
					48:[D_TITLEMD5_C<6.95022] yes=97,no=98,missing=98
						97:leaf=-0.0493648
						98:leaf=0.0014102
				24:[KW_REL<0.000194253] yes=49,no=50,missing=50
					49:[U_KEYWORD_MEAN_C<2.00199] yes=99,no=100,missing=100
						99:leaf=-0.133572
						100:leaf=-0.0151221
					50:[C_D_U_TITLEMD5_CATEGORY_MICRO_MEAN_COEC<0.138738] yes=101,no=102,missing=102
						101:leaf=0.00953362
						102:leaf=0.0353663
			12:[D_TITLEMD5_C<11.861] yes=25,no=26,missing=26
				25:[CAT_REL<0.021948] yes=51,no=52,missing=52
					51:[C_D_U_KEYWORD_CATEGORY_MAX_EC<3.92545] yes=103,no=104,missing=104
						103:leaf=-0.0309912
						104:leaf=-0.0731912
					52:[U_KEYWORD_MACRO_MAX_COEC<0.002087] yes=105,no=106,missing=106
						105:leaf=0.0236942
						106:leaf=-0.024757
				26:[C_D_U_TITLEMD5_CATEGORY_MICRO_MEAN_COEC<0.133933] yes=53,no=54,missing=54
					53:[CAT_REL<0.000725] yes=107,no=108,missing=108
						107:leaf=0.00877069
						108:leaf=0.0392513
					54:[U_KEYWORD_MACRO_MAX_COEC<0.00224232] yes=109,no=110,missing=110
						109:leaf=0.0635989
						110:leaf=0.0283361
		6:[C_D_U_TITLEMD5_CATEGORY_MICRO_MEAN_COEC<0.177714] yes=13,no=14,missing=14
			13:[KW_REL<0.00059576] yes=27,no=28,missing=28
				27:[D_CATEGORY_MEAN_EC<294344] yes=55,no=56,missing=55
					55:[D_KEYWORD_MACRO_MEAN_COEC<0.0905976] yes=111,no=112,missing=112
						111:leaf=-0.00152081
						112:leaf=0.0319868
					56:[D_TITLEMD5_COEC<0.116953] yes=113,no=114,missing=114
						113:leaf=-0.0323995
						114:leaf=0.00677066
				28:[M_D_U_KEYWORD_KEYWORD_MICRO_MAX_COEC<0.211679] yes=57,no=58,missing=57
					57:[U_KEYWORD_MACRO_MAX_COEC<0.00151632] yes=115,no=116,missing=116
						115:leaf=0.0612462
						116:leaf=0.0389394
					58:[D_CATEGORY_MICRO_MEAN_COEC<0.0832795] yes=117,no=118,missing=117
						117:leaf=0.104725
						118:leaf=0.0750176
			14:[U_KEYWORD_MACRO_MAX_COEC<0.00156854] yes=29,no=30,missing=30
				29:[C_D_U_TITLEMD5_CATEGORY_MICRO_MEAN_COEC<0.232206] yes=59,no=60,missing=60
					59:[M_D_U_KEYWORD_KEYWORD_MICRO_MAX_COEC<0.0947641] yes=119,no=120,missing=119
						119:leaf=0.073561
						120:leaf=0.0930386
					60:[D_TITLEMD5_C<8.37168] yes=121,no=122,missing=122
						121:leaf=0.0564
						122:leaf=0.106113
				30:[C_D_U_TITLEMD5_CATEGORY_MICRO_MEAN_COEC<0.246894] yes=61,no=62,missing=62
					61:[KW_REL<0.000757004] yes=123,no=124,missing=124
						123:leaf=0.0474408
						124:leaf=0.0729422
					62:[D_TITLEMD5_C<3] yes=125,no=126,missing=126
						125:leaf=0.0268878
						126:leaf=0.0874931
booster[5]:
0:[C_D_U_TITLEMD5_CATEGORY_MICRO_MEAN_COEC<0.0947952] yes=1,no=2,missing=1
	1:[D_KEYWORD_MACRO_MEAN_COEC<0.109862] yes=3,no=4,missing=4
		3:[C_D_U_TITLEMD5_CATEGORY_MICRO_MEAN_COEC<0.0506436] yes=7,no=8,missing=7
			7:[D_TITLEMD5_COEC<0.0909589] yes=15,no=16,missing=16
				15:[C_D_U_CATEGORY_CATEGORY_MICRO_MEAN_COEC<0.0722109] yes=31,no=32,missing=31
					31:[D_TITLEMD5_COEC<0.0316359] yes=63,no=64,missing=64
						63:leaf=-0.0985748
						64:leaf=-0.0727715
					32:[U_KEYWORD_MACRO_MAX_COEC<0.00172106] yes=65,no=66,missing=66
						65:leaf=-0.0362942
						66:leaf=-0.072356
				16:[C_D_U_CATEGORY_CATEGORY_MICRO_MEAN_COEC<0.0642653] yes=33,no=34,missing=34
					33:[KW_REL<0.000916778] yes=67,no=68,missing=68
						67:leaf=-0.0909995
						68:leaf=-0.0635959
					34:[KW_REL<0.00237849] yes=69,no=70,missing=70
						69:leaf=-0.0379631
						70:leaf=0.00894239
			8:[CAT_REL<0.000815] yes=17,no=18,missing=18
				17:[M_D_U_KEYWORD_KEYWORD_MICRO_MEAN_COEC<0.0896727] yes=35,no=36,missing=35
					35:[D_TITLEMD5_C<45.4852] yes=71,no=72,missing=72
						71:leaf=-0.0717858
						72:leaf=-0.0483815
					36:[U_KEYWORD_MICRO_MEAN_COEC<0.0954708] yes=73,no=74,missing=74
						73:leaf=-0.0513088
						74:leaf=-0.0230182
				18:[U_KEYWORD_MACRO_MAX_COEC<0.00224232] yes=37,no=38,missing=38
					37:[D_TITLEMD5_EC<1504.51] yes=75,no=76,missing=76
						75:leaf=-0.0125506
						76:leaf=0.0147515
					38:[M_D_U_KEYWORD_KEYWORD_MICRO_MAX_COEC<0.128931] yes=77,no=78,missing=77
						77:leaf=-0.0514259
						78:leaf=-0.0132028
		4:[D_TITLEMD5_COEC<0.175953] yes=9,no=10,missing=9
			9:[D_CATEGORY_MAX_EC<370798] yes=19,no=20,missing=19
				19:[D_PUBLISHER_COEC<0.075994] yes=39,no=40,missing=39
					39:[C_D_U_KEYWORD_CATEGORY_MEAN_EC<0.18407] yes=79,no=80,missing=80
						79:leaf=0.0378964
						80:leaf=-0.0486042
					40:[D_PUBLISHER_EC<53155.2] yes=81,no=82,missing=82
						81:leaf=-4.87441e-05
						82:leaf=0.028117
				20:[D_TITLEMD5_EC<55.0366] yes=41,no=42,missing=42
					41:[D_KEYWORD_MEAN_C<79.9496] yes=83,no=84,missing=84
						83:leaf=0.070082
						84:leaf=-0.0024859
					42:[D_TITLEMD5_COEC<0.150346] yes=85,no=86,missing=86
						85:leaf=-0.038842
						86:leaf=-0.0161717
			10:[D_KEYWORD_MICRO_MEAN_COEC<0.0968302] yes=21,no=22,missing=22
				21:[D_TITLEMD5_C<45.4852] yes=43,no=44,missing=44
					43:[U_CATEGORY_MEAN_EC<12697] yes=87,no=88,missing=88
						87:leaf=-0.034175
						88:leaf=-0.0873984
					44:[D_TITLEMD5_COEC<0.220003] yes=89,no=90,missing=90
						89:leaf=0.0128349
						90:leaf=0.0534806
				22:[D_TITLEMD5_COEC<0.220003] yes=45,no=46,missing=46
					45:[D_CATEGORY_MEAN_EC<233970] yes=91,no=92,missing=91
						91:leaf=0.0310995
						92:leaf=0.0060923
					46:[C_D_U_KEYWORD_CATEGORY_MICRO_MEAN_COEC<0.121925] yes=93,no=94,missing=94
						93:leaf=-0.0476233
						94:leaf=0.0483042
	2:[C_D_U_TITLEMD5_CATEGORY_MICRO_MEAN_COEC<0.141569] yes=5,no=6,missing=6
		5:[M_D_U_KEYWORD_KEYWORD_MICRO_MAX_COEC<0.0917741] yes=11,no=12,missing=11
			11:[D_TITLEMD5_C<16.188] yes=23,no=24,missing=24
				23:[C_D_U_CATEGORY_CATEGORY_MICRO_MEAN_COEC<0.0722109] yes=47,no=48,missing=48
					47:[CAT_REL<0.060028] yes=95,no=96,missing=96
						95:leaf=-0.0837458
						96:leaf=-0.0470198
					48:[U_KEYWORD_MACRO_MAX_COEC<0.00172106] yes=97,no=98,missing=98
						97:leaf=-0.0160621
						98:leaf=-0.0522138
				24:[CAT_REL<0.000815] yes=49,no=50,missing=50
					49:[D_TITLEMD5_COEC<0.104539] yes=99,no=100,missing=100
						99:leaf=-0.029197
						100:leaf=-0.0011213
					50:[U_KEYWORD_MACRO_MAX_COEC<0.00166532] yes=101,no=102,missing=102
						101:leaf=0.0277135
						102:leaf=-0.002307
			12:[CAT_REL<0.000815] yes=25,no=26,missing=26
				25:[D_TITLEMD5_COEC<0.100472] yes=51,no=52,missing=52
					51:[D_TITLEMD5_C<19.1419] yes=103,no=104,missing=104
						103:leaf=-0.0458782
						104:leaf=-0.00414181
					52:[U_KEYWORD_MICRO_MEAN_COEC<0.0956819] yes=105,no=106,missing=106
						105:leaf=-0.0116307
						106:leaf=0.0271322
				26:[U_KEYWORD_MACRO_MAX_COEC<0.00192825] yes=53,no=54,missing=54
					53:[D_TITLEMD5_C<130.086] yes=107,no=108,missing=108
						107:leaf=0.0301907
						108:leaf=0.0516604
					54:[M_D_U_KEYWORD_KEYWORD_MACRO_MEAN_COEC<0.00061745] yes=109,no=110,missing=110
						109:leaf=0.00462563
						110:leaf=0.0357242
		6:[D_TITLEMD5_C<33.0967] yes=13,no=14,missing=14
			13:[M_D_U_KEYWORD_KEYWORD_MICRO_MAX_COEC<0.121344] yes=27,no=28,missing=27
				27:[C_D_U_CATEGORY_CATEGORY_MICRO_MEAN_COEC<0.079447] yes=55,no=56,missing=56
					55:[C_D_U_KEYWORD_CATEGORY_MICRO_MEAN_COEC<0.161003] yes=111,no=112,missing=112
						111:leaf=-0.0416985
						112:leaf=0.0886504
					56:[U_KEYWORD_MACRO_MAX_COEC<0.00155733] yes=113,no=114,missing=114
						113:leaf=0.0310786
						114:leaf=-0.00773427
				28:[M_D_U_KEYWORD_KEYWORD_MICRO_MAX_COEC<0.174448] yes=57,no=58,missing=58
					57:[CAT_REL<0.00421885] yes=115,no=116,missing=116
						115:leaf=-0.0120456
						116:leaf=0.0464213
					58:[M_D_U_KEYWORD_KEYWORD_MICRO_MAX_COEC<0.231661] yes=117,no=118,missing=118
						117:leaf=0.0661937
						118:leaf=0.0950356
			14:[C_D_U_TITLEMD5_CATEGORY_MICRO_MEAN_COEC<0.185491] yes=29,no=30,missing=30
				29:[CAT_REL<0.000815] yes=59,no=60,missing=60
					59:[U_KEYWORD_MACRO_MAX_COEC<0.00155247] yes=119,no=120,missing=120
						119:leaf=0.0477579
						120:leaf=0.0195385
					60:[U_KEYWORD_MACRO_MAX_COEC<0.00253045] yes=121,no=122,missing=122
						121:leaf=0.0644518
						122:leaf=0.0258807
				30:[U_KEYWORD_MACRO_MAX_COEC<0.00163432] yes=61,no=62,missing=62
					61:[C_D_U_TITLEMD5_CATEGORY_MICRO_MEAN_COEC<0.221729] yes=123,no=124,missing=124
						123:leaf=0.0785272
						124:leaf=0.0956369
					62:[CAT_REL<0.000815] yes=125,no=126,missing=126
						125:leaf=0.0545675
						126:leaf=0.0762571
booster[6]:
0:[C_D_U_TITLEMD5_CATEGORY_MICRO_MEAN_COEC<0.114813] yes=1,no=2,missing=1
	1:[C_D_U_TITLEMD5_CATEGORY_MICRO_MEAN_COEC<0.0777953] yes=3,no=4,missing=3
		3:[D_KEYWORD_MACRO_MEAN_COEC<0.101757] yes=7,no=8,missing=8
			7:[M_D_U_KEYWORD_KEYWORD_MICRO_MAX_COEC<0.0991803] yes=15,no=16,missing=15
				15:[D_TITLEMD5_C<33.4004] yes=31,no=32,missing=31
					31:[U_CATEGORY_MAX_EC<3644.15] yes=63,no=64,missing=64
						63:leaf=-0.0498372
						64:leaf=-0.0793337
					32:[D_TITLEMD5_COEC<0.10882] yes=65,no=66,missing=66
						65:leaf=-0.0510527
						66:leaf=-0.0201124
				16:[CAT_REL<0.000700036] yes=33,no=34,missing=34
					33:[C_D_U_CATEGORY_CATEGORY_MICRO_MAX_COEC<0.0950851] yes=67,no=68,missing=68
						67:leaf=-0.0663103
						68:leaf=-0.0395053
					34:[C_D_U_TITLEMD5_CATEGORY_MICRO_MEAN_COEC<0.040122] yes=69,no=70,missing=70
						69:leaf=-0.0342655
						70:leaf=-0.0061243
			8:[D_KEYWORD_MACRO_MEAN_COEC<0.142221] yes=17,no=18,missing=17
				17:[D_TITLEMD5_COEC<0.140845] yes=35,no=36,missing=35
					35:[D_KEYWORD_MACRO_MAX_COEC<0.0454591] yes=71,no=72,missing=71
						71:leaf=-0.0166323
						72:leaf=-0.042078
					36:[WORD_COUNT<6040] yes=73,no=74,missing=74
						73:leaf=0.000737185
						74:leaf=0.0562083
				18:[D_KEYWORD_MICRO_MEAN_COEC<0.101539] yes=37,no=38,missing=38
					37:[D_TITLEMD5_C<46.1655] yes=75,no=76,missing=75
						75:leaf=-0.0751615
						76:leaf=0.0410296
					38:[D_KEYWORD_MICRO_MAX_COEC<0.21558] yes=77,no=78,missing=78
						77:leaf=0.0128136
						78:leaf=0.041923
		4:[KW_REL<0.0014481] yes=9,no=10,missing=10
			9:[U_KEYWORD_MICRO_MEAN_COEC<0.0952357] yes=19,no=20,missing=20
				19:[D_TITLEMD5_C<181.414] yes=39,no=40,missing=40
					39:[C_D_U_TITLEMD5_CITY_COEC<0.0414046] yes=79,no=80,missing=79
						79:leaf=-0.0709351
						80:leaf=-0.0459163
					40:[U_KEYWORD_MEAN_C<6.97201] yes=81,no=82,missing=82
						81:leaf=-0.117107
						82:leaf=-0.026797
				20:[D_TITLEMD5_C<71.513] yes=41,no=42,missing=42
					41:[C_D_U_KEYWORD_CATEGORY_MEAN_EC<7.55286] yes=83,no=84,missing=83
						83:leaf=-0.019925
						84:leaf=-0.0464414
					42:[D_KEYWORD_MEAN_EC<4524.17] yes=85,no=86,missing=85
						85:leaf=-0.000350836
						86:leaf=-0.0403193
			10:[U_KEYWORD_MACRO_MAX_COEC<0.00162838] yes=21,no=22,missing=22
				21:[CAT_REL<0.023197] yes=43,no=44,missing=44
					43:[D_TITLEMD5_COEC<0.101113] yes=87,no=88,missing=88
						87:leaf=-0.00578413
						88:leaf=0.0227512
					44:[D_TITLEMD5_C<127.829] yes=89,no=90,missing=90
						89:leaf=0.0205415
						90:leaf=0.0416058
				22:[M_D_U_KEYWORD_KEYWORD_MICRO_MAX_COEC<0.146247] yes=45,no=46,missing=45
					45:[U_KEYWORD_MACRO_MAX_COEC<0.00243934] yes=91,no=92,missing=92
						91:leaf=-0.00449114
						92:leaf=-0.0303129
					46:[M_D_U_KEYWORD_KEYWORD_MICRO_MAX_COEC<0.242681] yes=93,no=94,missing=94
						93:leaf=0.0139865
						94:leaf=0.0634874
	2:[C_D_U_KEYWORD_CATEGORY_MICRO_MEAN_COEC<0.107296] yes=5,no=6,missing=6
		5:[KW_REL<0.00169128] yes=11,no=12,missing=12
			11:[D_TITLEMD5_C<46.1655] yes=23,no=24,missing=24
				23:[CAT_REL<0.000700036] yes=47,no=48,missing=48
					47:[D_KEYWORD_MACRO_MEAN_COEC<0.0679239] yes=95,no=96,missing=96
						95:leaf=-0.0757952
						96:leaf=-0.0385261
					48:[D_TITLEMD5_C<8.62618] yes=97,no=98,missing=98
						97:leaf=-0.0380392
						98:leaf=0.00742317
				24:[U_KEYWORD_MACRO_MAX_COEC<0.00193657] yes=49,no=50,missing=50
					49:[CAT_REL<0.000700036] yes=99,no=100,missing=100
						99:leaf=0.0115418
						100:leaf=0.0394055
					50:[D_TITLEMD5_COEC<0.157757] yes=101,no=102,missing=102
						101:leaf=-0.00884378
						102:leaf=0.022062
			12:[D_TITLEMD5_C<8.62618] yes=25,no=26,missing=26
				25:[CAT_REL<0.046689] yes=51,no=52,missing=52
					51:[C_D_U_CATEGORY_CATEGORY_MICRO_MAX_COEC<0.121308] yes=103,no=104,missing=104
						103:leaf=-0.0595338
						104:leaf=-0.0134605
					52:[U_KEYWORD_MACRO_MAX_COEC<0.00201945] yes=105,no=106,missing=106
						105:leaf=0.0243383
						106:leaf=-0.0219463
				26:[U_KEYWORD_MACRO_MAX_COEC<0.00206092] yes=53,no=54,missing=54
					53:[CAT_REL<0.007075] yes=107,no=108,missing=108
						107:leaf=0.0295614
						108:leaf=0.0529698
					54:[CAT_REL<0.0159867] yes=109,no=110,missing=110
						109:leaf=-0.00106737
						110:leaf=0.026829
		6:[C_D_U_TITLEMD5_CATEGORY_MICRO_MEAN_COEC<0.180928] yes=13,no=14,missing=14
			13:[KW_REL<0.000814573] yes=27,no=28,missing=28
				27:[D_CATEGORY_MAX_EC<262686] yes=55,no=56,missing=55
					55:[C_D_U_CATEGORY_CATEGORY_MICRO_MAX_COEC<0.134814] yes=111,no=112,missing=112
						111:leaf=0.0135222
						112:leaf=0.0379736
					56:[D_TITLEMD5_COEC<0.149678] yes=113,no=114,missing=114
						113:leaf=-0.0146753
						114:leaf=0.013201
				28:[M_D_U_KEYWORD_KEYWORD_MICRO_MAX_COEC<0.242681] yes=57,no=58,missing=57
					57:[U_KEYWORD_MACRO_MAX_COEC<0.00151595] yes=115,no=116,missing=116
						115:leaf=0.0549371
						116:leaf=0.0355404
					58:[D_CATEGORY_MACRO_MEAN_COEC<0.0872889] yes=117,no=118,missing=117
						117:leaf=0.101735
						118:leaf=0.0752825
			14:[U_KEYWORD_MACRO_MAX_COEC<0.0018655] yes=29,no=30,missing=30
				29:[C_D_U_TITLEMD5_CATEGORY_MICRO_MEAN_COEC<0.231442] yes=59,no=60,missing=60
					59:[M_D_U_KEYWORD_KEYWORD_MICRO_MAX_COEC<0.104259] yes=119,no=120,missing=119
						119:leaf=0.0572813
						120:leaf=0.0777332
					60:[D_TITLEMD5_C<3.995] yes=121,no=122,missing=122
						121:leaf=0.0331237
						122:leaf=0.0878468
				30:[C_D_U_TITLEMD5_CATEGORY_MICRO_MEAN_COEC<0.24474] yes=61,no=62,missing=62
					61:[D_CATEGORY_MEAN_EC<231846] yes=123,no=124,missing=123
						123:leaf=0.0566355
						124:leaf=0.0327512
					62:[D_TITLEMD5_C<8.62618] yes=125,no=126,missing=126
						125:leaf=0.0301757
						126:leaf=0.0700919
booster[7]:
0:[C_D_U_TITLEMD5_CATEGORY_MICRO_MEAN_COEC<0.0944127] yes=1,no=2,missing=1
	1:[D_KEYWORD_MACRO_MEAN_COEC<0.106116] yes=3,no=4,missing=4
		3:[KW_REL<0.00121236] yes=7,no=8,missing=8
			7:[D_TITLEMD5_C<14.5147] yes=15,no=16,missing=15
				15:[U_KEYWORD_MICRO_MAX_COEC<0.111266] yes=31,no=32,missing=31
					31:[IMAGE_COUNT<0.999999] yes=63,no=64,missing=64
						63:leaf=-0.113016
						64:leaf=-0.0782764
					32:[U_CATEGORY_MICRO_MEAN_COEC<0.103428] yes=65,no=66,missing=65
						65:leaf=-0.0633273
						66:leaf=-0.0207293
				16:[D_TITLEMD5_COEC<0.104034] yes=33,no=34,missing=34
					33:[CAT_REL<0.00068] yes=67,no=68,missing=68
						67:leaf=-0.0567022
						68:leaf=-0.0279955
					34:[D_TITLEMD5_COEC<0.121873] yes=69,no=70,missing=70
						69:leaf=-0.0289259
						70:leaf=-0.00649284
			8:[C_D_U_TITLEMD5_CATEGORY_MICRO_MEAN_COEC<0.049281] yes=17,no=18,missing=18
				17:[C_D_U_KEYWORD_CATEGORY_MICRO_MEAN_COEC<0.0816467] yes=35,no=36,missing=36
					35:[U_CATEGORY_MAX_EC<4606.84] yes=71,no=72,missing=72
						71:leaf=-0.0460157
						72:leaf=-0.0717661
					36:[DOC_AGE<1.18944] yes=73,no=74,missing=74
						73:leaf=0.00776897
						74:leaf=-0.0345451
				18:[CAT_REL<0.00749] yes=37,no=38,missing=38
					37:[D_TITLEMD5_EC<6106.97] yes=75,no=76,missing=75
						75:leaf=-0.0331566
						76:leaf=0.00774922
					38:[C_D_U_TITLEMD5_CITY_C<1.87781] yes=77,no=78,missing=77
						77:leaf=-0.0101905
						78:leaf=0.0126098
		4:[D_TITLEMD5_COEC<0.178495] yes=9,no=10,missing=9
			9:[C_D_U_KEYWORD_CATEGORY_MEAN_EC<0.224034] yes=19,no=20,missing=20
				19:[KW_REL<0.000388004] yes=39,no=40,missing=40
					39:[D_TITLEMD5_EC<24.7811] yes=79,no=80,missing=80
						79:leaf=0.0325538
						80:leaf=-0.0405118
					40:[U_CATEGORY_MACRO_MEAN_COEC<0.0427125] yes=81,no=82,missing=82
						81:leaf=0.110285
						82:leaf=0.0572037
				20:[D_CATEGORY_MACRO_MAX_COEC<0.124441] yes=41,no=42,missing=42
					41:[D_TITLEMD5_COEC<0.14643] yes=83,no=84,missing=83
						83:leaf=-0.0223009
						84:leaf=-0.00289183
					42:[WORD_COUNT<3800] yes=85,no=86,missing=86
						85:leaf=0.00653907
						86:leaf=0.0403455
			10:[D_PUBLISHER_COEC<0.0775818] yes=21,no=22,missing=22
				21:[D_KEYWORD_MICRO_MEAN_COEC<0.168318] yes=43,no=44,missing=44
					43:[D_CATEGORY_MAX_EC<266739] yes=87,no=88,missing=87
						87:leaf=-0.0751982
						88:leaf=0.0161879
					44:[U_CATEGORY_MACRO_MEAN_COEC<0.0804607] yes=89,no=90,missing=89
						89:leaf=0.063228
						90:leaf=-0.222356
				22:[D_KEYWORD_MAX_EC<8.79432] yes=45,no=46,missing=46
					45:[D_TITLEMD5_EC<16.6171] yes=91,no=92,missing=92
						91:leaf=0.0524047
						92:leaf=0.0876151
					46:[D_TITLEMD5_EC<8.23275] yes=93,no=94,missing=94
						93:leaf=-0.037595
						94:leaf=0.0263981
	2:[C_D_U_TITLEMD5_CATEGORY_MICRO_MEAN_COEC<0.149913] yes=5,no=6,missing=6
		5:[KW_REL<0.000915368] yes=11,no=12,missing=12
			11:[D_TITLEMD5_C<160.524] yes=23,no=24,missing=24
				23:[D_KEYWORD_MEAN_EC<2093.36] yes=47,no=48,missing=47
					47:[D_TITLEMD5_C<19.0832] yes=95,no=96,missing=96
						95:leaf=-0.0450281
						96:leaf=-0.00918792
					48:[D_TITLEMD5_COEC<0.108653] yes=97,no=98,missing=98
						97:leaf=-0.0635566
						98:leaf=-0.0306974
				24:[D_KEYWORD_MAX_EC<832.436] yes=49,no=50,missing=49
					49:[CAT_REL<0.00068] yes=99,no=100,missing=100
						99:leaf=0.00511926
						100:leaf=0.0287909
					50:[D_TITLEMD5_C<726.578] yes=101,no=102,missing=102
						101:leaf=-0.020161
						102:leaf=0.0105711
			12:[U_KEYWORD_MACRO_MAX_COEC<0.00154109] yes=25,no=26,missing=26
				25:[CAT_REL<0.004361] yes=51,no=52,missing=52
					51:[D_TITLEMD5_COEC<0.100618] yes=103,no=104,missing=104
						103:leaf=-0.00196787
						104:leaf=0.0294459
					52:[D_TITLEMD5_C<8.82421] yes=105,no=106,missing=106
						105:leaf=0.00386037
						106:leaf=0.0410855
				26:[M_D_U_KEYWORD_KEYWORD_MACRO_MEAN_COEC<0.00047673] yes=53,no=54,missing=53
					53:[D_TITLEMD5_C<175.962] yes=107,no=108,missing=108
						107:leaf=-0.00876378
						108:leaf=0.0169681
					54:[U_KEYWORD_MACRO_MAX_COEC<0.00329646] yes=109,no=110,missing=110
						109:leaf=0.0373954
						110:leaf=-0.0103689
		6:[C_D_U_TITLEMD5_CATEGORY_MEAN_C<0.238449] yes=13,no=14,missing=14
			13:[C_D_U_KEYWORD_CATEGORY_MICRO_MEAN_COEC<0.0836381] yes=27,no=28,missing=28
				27:[C_D_U_CATEGORY_CATEGORY_MICRO_MEAN_COEC<0.0682618] yes=55,no=56,missing=56
					55:[C_D_U_KEYWORD_CATEGORY_MICRO_MEAN_COEC<0.0702946] yes=111,no=112,missing=112
						111:leaf=-0.0699214
						112:leaf=-0.0322504
					56:[U_CATEGORY_MEAN_EC<14224.8] yes=113,no=114,missing=114
						113:leaf=-0.000897726
						114:leaf=-0.042757
				28:[D_TITLEMD5_COEC<0.0958007] yes=57,no=58,missing=58
					57:[KW_REL<0.00196961] yes=115,no=116,missing=116
						115:leaf=-0.034715
						116:leaf=0.0097767
					58:[U_KEYWORD_MACRO_MAX_COEC<0.00151015] yes=117,no=118,missing=118
						117:leaf=0.0476655
						118:leaf=0.0150933
			14:[U_KEYWORD_MACRO_MAX_COEC<0.00220443] yes=29,no=30,missing=30
				29:[C_D_U_TITLEMD5_CATEGORY_MICRO_MEAN_COEC<0.21164] yes=59,no=60,missing=60
					59:[M_D_U_KEYWORD_KEYWORD_MICRO_MAX_COEC<0.119814] yes=119,no=120,missing=119
						119:leaf=0.0432823
						120:leaf=0.0650573
					60:[CAT_REL<0.00068] yes=121,no=122,missing=122
						121:leaf=0.0662149
						122:leaf=0.0838482
				30:[C_D_U_TITLEMD5_CATEGORY_MICRO_MEAN_COEC<0.198529] yes=61,no=62,missing=62
					61:[D_TITLEMD5_C<61.6487] yes=123,no=124,missing=124
						123:leaf=-0.0123181
						124:leaf=0.0243971
					62:[C_D_U_CATEGORY_CATEGORY_MICRO_MAX_COEC<0.150533] yes=125,no=126,missing=126
						125:leaf=0.0359212
						126:leaf=0.0586921
booster[8]:
0:[C_D_U_TITLEMD5_CATEGORY_MICRO_MEAN_COEC<0.118733] yes=1,no=2,missing=1
	1:[C_D_U_TITLEMD5_CATEGORY_MICRO_MEAN_COEC<0.0725224] yes=3,no=4,missing=3
		3:[D_KEYWORD_MACRO_MEAN_COEC<0.0986081] yes=7,no=8,missing=8
			7:[CAT_REL<0.000866] yes=15,no=16,missing=16
				15:[D_TITLEMD5_COEC<0.0782072] yes=31,no=32,missing=31
					31:[D_TITLEMD5_COEC<0.0373575] yes=63,no=64,missing=63
						63:leaf=-0.0822278
						64:leaf=-0.0593641
					32:[C_D_U_CATEGORY_CITY_MACRO_MAX_COEC<0.0884991] yes=65,no=66,missing=66
						65:leaf=-0.0530387
						66:leaf=-0.0266941
				16:[U_KEYWORD_MACRO_MAX_COEC<0.00172468] yes=33,no=34,missing=34
					33:[D_TITLEMD5_COEC<0.0325809] yes=67,no=68,missing=68
						67:leaf=-0.0386365
						68:leaf=-0.00793605
					34:[C_D_U_TITLEMD5_CATEGORY_MICRO_MEAN_COEC<0.035452] yes=69,no=70,missing=70
						69:leaf=-0.0629498
						70:leaf=-0.0353135
			8:[D_TITLEMD5_COEC<0.155179] yes=17,no=18,missing=17
				17:[C_D_U_KEYWORD_CATEGORY_MEAN_EC<0.190865] yes=35,no=36,missing=36
					35:[KW_REL<0.000379728] yes=71,no=72,missing=72
						71:leaf=0.00564949
						72:leaf=0.0683919
					36:[D_CATEGORY_MICRO_MAX_COEC<0.124178] yes=73,no=74,missing=74
						73:leaf=-0.0215389
						74:leaf=0.0111975
				18:[D_KEYWORD_MICRO_MEAN_COEC<0.0884239] yes=37,no=38,missing=37
					37:[D_TITLEMD5_EC<179.669] yes=75,no=76,missing=76
						75:leaf=-0.0579916
						76:leaf=0.0247181
					38:[D_TITLEMD5_COEC<0.218118] yes=77,no=78,missing=78
						77:leaf=0.00989942
						78:leaf=0.0332771
		4:[KW_REL<0.00220007] yes=9,no=10,missing=10
			9:[U_KEYWORD_MICRO_MEAN_COEC<0.0954657] yes=19,no=20,missing=20
				19:[D_TITLEMD5_C<139.986] yes=39,no=40,missing=40
					39:[C_D_U_KEYWORD_CATEGORY_MEAN_EC<12.1693] yes=79,no=80,missing=79
						79:leaf=-0.0362191
						80:leaf=-0.0624551
					40:[C_D_U_CATEGORY_CATEGORY_MEAN_EC<882.004] yes=81,no=82,missing=81
						81:leaf=-0.013652
						82:leaf=-0.0381702
				20:[D_TITLEMD5_EC<2166.56] yes=41,no=42,missing=42
					41:[C_D_U_KEYWORD_CATEGORY_MEAN_EC<14.9838] yes=83,no=84,missing=83
						83:leaf=-0.00873442
						84:leaf=-0.038461
					42:[CAT_REL<0.000866] yes=85,no=86,missing=86
						85:leaf=-0.00679073
						86:leaf=0.02221
			10:[M_D_U_KEYWORD_KEYWORD_MICRO_MAX_COEC<0.196831] yes=21,no=22,missing=21
				21:[U_KEYWORD_MACRO_MAX_COEC<0.00227721] yes=43,no=44,missing=44
					43:[TIME_OF_DAY<12] yes=87,no=88,missing=88
						87:leaf=0.0201383
						88:leaf=0.00243799
					44:[U_KEYWORD_MICRO_MAX_COEC<0.109949] yes=89,no=90,missing=90
						89:leaf=-0.0368015
						90:leaf=-0.00837428
				22:[D_CATEGORY_MEAN_C<20087.1] yes=45,no=46,missing=45
					45:[U_KEYWORD_MACRO_MAX_COEC<0.0014998] yes=91,no=92,missing=92
						91:leaf=0.0805202
						92:leaf=0.0471023
					46:[C_D_U_KEYWORD_CATEGORY_MEAN_EC<18.8053] yes=93,no=94,missing=94
						93:leaf=0.032576
						94:leaf=-0.000906017
	2:[C_D_U_KEYWORD_CATEGORY_MICRO_MEAN_COEC<0.111394] yes=5,no=6,missing=6
		5:[KW_REL<0.00189107] yes=11,no=12,missing=12
			11:[D_TITLEMD5_C<46.7756] yes=23,no=24,missing=24
				23:[U_KEYWORD_MACRO_MAX_COEC<0.00172468] yes=47,no=48,missing=48
					47:[CAT_REL<0.00895081] yes=95,no=96,missing=96
						95:leaf=-0.0321774
						96:leaf=0.00750817
					48:[D_TITLEMD5_COEC<0.0981427] yes=97,no=98,missing=98
						97:leaf=-0.0587369
						98:leaf=-0.0279911
				24:[C_D_U_KEYWORD_CATEGORY_MAX_C<0.237471] yes=49,no=50,missing=50
					49:[CAT_REL<0.000866] yes=99,no=100,missing=100
						99:leaf=0.0149272
						100:leaf=0.0398674
					50:[C_D_U_KEYWORD_CATEGORY_MAX_C<0.823255] yes=101,no=102,missing=102
						101:leaf=0.00727334
						102:leaf=-0.0195809
			12:[D_TITLEMD5_C<6.84242] yes=25,no=26,missing=26
				25:[C_D_U_CATEGORY_CATEGORY_MICRO_MEAN_COEC<0.0709747] yes=51,no=52,missing=52
					51:[U_CATEGORY_MEAN_EC<15858.4] yes=103,no=104,missing=104
						103:leaf=-0.0319161
						104:leaf=-0.0852428
					52:[CAT_REL<0.075599] yes=105,no=106,missing=106
						105:leaf=-0.0123113
						106:leaf=0.0208584
				26:[U_KEYWORD_MACRO_MAX_COEC<0.00279072] yes=53,no=54,missing=54
					53:[M_D_U_KEYWORD_KEYWORD_MICRO_MAX_COEC<0.147392] yes=107,no=108,missing=107
						107:leaf=0.0362274
						108:leaf=0.0602878
					54:[U_KEYWORD_MACRO_MAX_COEC<0.00475148] yes=109,no=110,missing=110
						109:leaf=0.0144645
						110:leaf=-0.0157756
		6:[C_D_U_TITLEMD5_CATEGORY_MICRO_MEAN_COEC<0.190666] yes=13,no=14,missing=14
			13:[KW_REL<0.00068777] yes=27,no=28,missing=28
				27:[D_CATEGORY_MAX_EC<84949.2] yes=55,no=56,missing=55
					55:[KW_REL<3.25954e-05] yes=111,no=112,missing=112
						111:leaf=0.0115294
						112:leaf=0.0335097
					56:[D_TITLEMD5_COEC<0.10974] yes=113,no=114,missing=114
						113:leaf=-0.0224703
						114:leaf=0.0102196
				28:[M_D_U_KEYWORD_KEYWORD_MICRO_MAX_COEC<0.196831] yes=57,no=58,missing=57
					57:[U_KEYWORD_MACRO_MAX_COEC<0.0012815] yes=115,no=116,missing=116
						115:leaf=0.0568445
						116:leaf=0.0348804
					58:[D_CATEGORY_MICRO_MEAN_COEC<0.0826988] yes=117,no=118,missing=117
						117:leaf=0.0801163
						118:leaf=0.055337
			14:[U_KEYWORD_MACRO_MAX_COEC<0.00156736] yes=29,no=30,missing=30
				29:[CAT_REL<0.000866] yes=59,no=60,missing=60
					59:[U_KEYWORD_MEAN_C<110.519] yes=119,no=120,missing=120
						119:leaf=0.0427096
						120:leaf=0.0682068
					60:[D_TITLEMD5_C<8.57114] yes=121,no=122,missing=122
						121:leaf=0.0413536
						122:leaf=0.0797785
				30:[CAT_REL<0.000866] yes=61,no=62,missing=62
					61:[C_D_U_TITLEMD5_CATEGORY_MICRO_MEAN_COEC<0.259318] yes=123,no=124,missing=124
						123:leaf=0.0369486
						124:leaf=0.0589645
					62:[U_KEYWORD_MACRO_MAX_COEC<0.00421357] yes=125,no=126,missing=126
						125:leaf=0.0646514
						126:leaf=0.0269221
booster[9]:
0:[C_D_U_TITLEMD5_CATEGORY_MICRO_MEAN_COEC<0.111777] yes=1,no=2,missing=1
	1:[C_D_U_TITLEMD5_CATEGORY_MICRO_MEAN_COEC<0.0673043] yes=3,no=4,missing=3
		3:[D_KEYWORD_MACRO_MEAN_COEC<0.0929945] yes=7,no=8,missing=8
			7:[CAT_REL<0.000773] yes=15,no=16,missing=16
				15:[D_TITLEMD5_COEC<0.08585] yes=31,no=32,missing=31
					31:[D_TITLEMD5_COEC<0.0380976] yes=63,no=64,missing=63
						63:leaf=-0.0760401
						64:leaf=-0.05453
					32:[C_D_U_CATEGORY_CITY_MACRO_MAX_COEC<0.084759] yes=65,no=66,missing=66
						65:leaf=-0.0488066
						66:leaf=-0.0227684
				16:[U_CATEGORY_MICRO_MAX_COEC<0.109359] yes=33,no=34,missing=34
					33:[C_D_U_TITLEMD5_CATEGORY_MICRO_MEAN_COEC<0.0270441] yes=67,no=68,missing=68
						67:leaf=-0.0600861
						68:leaf=-0.0284093
					34:[U_KEYWORD_MACRO_MAX_COEC<0.00138827] yes=69,no=70,missing=70
						69:leaf=0.00371356
						70:leaf=-0.0244439
			8:[D_TITLEMD5_COEC<0.155533] yes=17,no=18,missing=17
				17:[M_D_U_KEYWORD_KEYWORD_MICRO_MAX_COEC<0.233943] yes=35,no=36,missing=35
					35:[D_TITLEMD5_COEC<0.112141] yes=71,no=72,missing=71
						71:leaf=-0.0298194
						72:leaf=-0.0084313
					36:[U_CATEGORY_MAX_EC<3144.45] yes=73,no=74,missing=74
						73:leaf=0.0947017
						74:leaf=0.0508795
				18:[D_PUBLISHER_COEC<0.0801042] yes=37,no=38,missing=38
					37:[D_TITLEMD5_C<5.24004] yes=75,no=76,missing=76
						75:leaf=-0.0583995
						76:leaf=0.00634559
					38:[D_KEYWORD_MEAN_C<27.7548] yes=77,no=78,missing=78
						77:leaf=0.0585626
						78:leaf=0.0160846
		4:[CAT_REL<0.012588] yes=9,no=10,missing=10
			9:[D_TITLEMD5_C<20.0236] yes=19,no=20,missing=20
				19:[C_D_U_CATEGORY_CATEGORY_MICRO_MEAN_COEC<0.0742844] yes=39,no=40,missing=40
					39:[C_D_U_KEYWORD_CATEGORY_MICRO_MEAN_COEC<0.0690627] yes=79,no=80,missing=80
						79:leaf=-0.0859793
						80:leaf=-0.0577924
					40:[D_TITLEMD5_COEC<0.0938545] yes=81,no=82,missing=82
						81:leaf=-0.0446808
						82:leaf=-0.00246797
				20:[U_KEYWORD_MACRO_MAX_COEC<0.0014267] yes=41,no=42,missing=42
					41:[D_TITLEMD5_COEC<0.103702] yes=83,no=84,missing=84
						83:leaf=-0.00956758
						84:leaf=0.0179359
					42:[D_TITLEMD5_COEC<0.100405] yes=85,no=86,missing=86
						85:leaf=-0.0313052
						86:leaf=-0.0136299
			10:[U_KEYWORD_MACRO_MAX_COEC<0.00232413] yes=21,no=22,missing=22
				21:[D_TITLEMD5_C<33.6968] yes=43,no=44,missing=44
					43:[D_TITLEMD5_COEC<0.0725003] yes=87,no=88,missing=88
						87:leaf=-0.0166053
						88:leaf=0.0097774
					44:[TIME_OF_DAY<12] yes=89,no=90,missing=90
						89:leaf=0.0252258
						90:leaf=0.00555266
				22:[U_KEYWORD_MICRO_MAX_COEC<0.114375] yes=45,no=46,missing=46
					45:[D_TITLEMD5_C<13.8217] yes=91,no=92,missing=92
						91:leaf=-0.0679415
						92:leaf=-0.0304699
					46:[C_D_U_TITLEMD5_AGE_C<61.9771] yes=93,no=94,missing=93
						93:leaf=-0.0144874
						94:leaf=0.0233195
	2:[C_D_U_TITLEMD5_CATEGORY_MICRO_MEAN_COEC<0.167991] yes=5,no=6,missing=6
		5:[M_D_U_KEYWORD_KEYWORD_MICRO_MAX_COEC<0.110119] yes=11,no=12,missing=11
			11:[D_TITLEMD5_C<158.997] yes=23,no=24,missing=24
				23:[CAT_REL<0.000773] yes=47,no=48,missing=48
					47:[D_TITLEMD5_C<16.9744] yes=95,no=96,missing=96
						95:leaf=-0.0540419
						96:leaf=-0.0201988
					48:[U_KEYWORD_MACRO_MAX_COEC<0.00148156] yes=97,no=98,missing=98
						97:leaf=0.0194767
						98:leaf=-0.00809077
				24:[U_KEYWORD_MICRO_MEAN_COEC<0.094001] yes=49,no=50,missing=50
					49:[U_KEYWORD_MEAN_C<2.63507] yes=99,no=100,missing=100
						99:leaf=-0.121631
						100:leaf=-0.0057391
					50:[U_KEYWORD_MACRO_MAX_COEC<0.00158094] yes=101,no=102,missing=102
						101:leaf=0.0351568
						102:leaf=0.0141531
			12:[M_D_U_KEYWORD_KEYWORD_MICRO_MAX_COEC<0.233943] yes=25,no=26,missing=26
				25:[U_KEYWORD_MACRO_MAX_COEC<0.00174566] yes=51,no=52,missing=52
					51:[C_D_U_TITLEMD5_CATEGORY_MEAN_C<0.14791] yes=103,no=104,missing=104
						103:leaf=0.0108452
						104:leaf=0.0376905
					52:[U_KEYWORD_MACRO_MAX_COEC<0.00357184] yes=105,no=106,missing=106
						105:leaf=0.0195174
						106:leaf=-0.0127644
				26:[D_CATEGORY_MICRO_MEAN_COEC<0.0959769] yes=53,no=54,missing=54
					53:[DOC_AGE<33.3056] yes=107,no=108,missing=108
						107:leaf=0.080197
						108:leaf=0.0285778
					54:[U_KEYWORD_MAX_C<43.47] yes=109,no=110,missing=110
						109:leaf=0.0543919
						110:leaf=-0.0330527
		6:[D_TITLEMD5_C<6.876] yes=13,no=14,missing=14
			13:[M_D_U_KEYWORD_KEYWORD_MICRO_MAX_COEC<0.108614] yes=27,no=28,missing=27
				27:[C_D_U_KEYWORD_CATEGORY_MICRO_MEAN_COEC<0.176721] yes=55,no=56,missing=56
					55:[U_KEYWORD_MACRO_MAX_COEC<0.00158094] yes=111,no=112,missing=112
						111:leaf=-0.0102927
						112:leaf=-0.0470803
					56:[C_D_U_KEYWORD_CATEGORY_MICRO_MAX_COEC<0.454793] yes=113,no=114,missing=114
						113:leaf=-0.117125
						114:leaf=0.0770801
				28:[KW_REL<0.00247967] yes=57,no=58,missing=58
					57:[D_TITLEMD5_COEC<0.0749998] yes=115,no=116,missing=116
						115:leaf=-0.051653
						116:leaf=0.00319678
					58:[D_TITLEMD5_COEC<0.14346] yes=117,no=118,missing=118
						117:leaf=0.014274
						118:leaf=0.0461519
			14:[CAT_REL<0.000773] yes=29,no=30,missing=30
				29:[D_TITLEMD5_C<78.8994] yes=59,no=60,missing=60
					59:[D_KEYWORD_MACRO_MEAN_COEC<0.130271] yes=119,no=120,missing=119
						119:leaf=-0.0170057
						120:leaf=0.0654687
					60:[U_KEYWORD_MICRO_MEAN_COEC<0.0951845] yes=121,no=122,missing=122
						121:leaf=0.0196647
						122:leaf=0.0483509
				30:[U_KEYWORD_MACRO_MAX_COEC<0.00272761] yes=61,no=62,missing=62
					61:[C_D_U_TITLEMD5_CATEGORY_MICRO_MEAN_COEC<0.230809] yes=123,no=124,missing=124
						123:leaf=0.0563118
						124:leaf=0.0750565
					62:[U_KEYWORD_MACRO_MAX_COEC<0.00590042] yes=125,no=126,missing=126
						125:leaf=0.0355098
						126:leaf=0.000639582
booster[10]:
0:[C_D_U_TITLEMD5_CATEGORY_MICRO_MEAN_COEC<0.120424] yes=1,no=2,missing=1
	1:[C_D_U_TITLEMD5_CATEGORY_MICRO_MEAN_COEC<0.081555] yes=3,no=4,missing=3
		3:[D_TITLEMD5_COEC<0.114925] yes=7,no=8,missing=7
			7:[KW_REL<0.00111695] yes=15,no=16,missing=16
				15:[D_TITLEMD5_C<37.1828] yes=31,no=32,missing=31
					31:[D_KEYWORD_MEAN_EC<17.5621] yes=63,no=64,missing=63
						63:leaf=0.026133
						64:leaf=-0.059832
					32:[U_KEYWORD_MICRO_MEAN_COEC<0.0939402] yes=65,no=66,missing=66
						65:leaf=-0.0604256
						66:leaf=-0.0328694
				16:[M_D_U_KEYWORD_KEYWORD_MICRO_MAX_COEC<0.1516] yes=33,no=34,missing=33
					33:[U_CATEGORY_MEAN_EC<11518.4] yes=67,no=68,missing=68
						67:leaf=-0.0131918
						68:leaf=-0.0374834
					34:[M_D_U_KEYWORD_KEYWORD_MICRO_MAX_COEC<0.229056] yes=69,no=70,missing=70
						69:leaf=0.009265
						70:leaf=0.0676663
			8:[D_KEYWORD_MICRO_MEAN_COEC<0.0857759] yes=17,no=18,missing=18
				17:[KW_REL<0.00200892] yes=35,no=36,missing=36
					35:[D_TITLEMD5_EC<35.9351] yes=71,no=72,missing=72
						71:leaf=-0.0630891
						72:leaf=-0.0239059
					36:[M_D_U_KEYWORD_KEYWORD_MICRO_MAX_COEC<0.156459] yes=73,no=74,missing=73
						73:leaf=-0.00849433
						74:leaf=0.0654244
				18:[D_KEYWORD_MICRO_MEAN_COEC<0.155206] yes=37,no=38,missing=38
					37:[D_TITLEMD5_EC<16.97] yes=75,no=76,missing=76
						75:leaf=-0.0322126
						76:leaf=0.00267416
					38:[D_KEYWORD_MEAN_C<121.369] yes=77,no=78,missing=78
						77:leaf=0.0585794
						78:leaf=0.0227505
		4:[KW_REL<0.000873793] yes=9,no=10,missing=10
			9:[C_D_U_TITLEMD5_CITY_C<13.7674] yes=19,no=20,missing=19
				19:[D_KEYWORD_MEAN_EC<2116.28] yes=39,no=40,missing=39
					39:[D_TITLEMD5_C<14.3931] yes=79,no=80,missing=80
						79:leaf=-0.0473185
						80:leaf=-0.0140714
					40:[D_TITLEMD5_C<349.908] yes=81,no=82,missing=82
						81:leaf=-0.0496489
						82:leaf=-0.0224124
				20:[U_KEYWORD_MEAN_C<6.97201] yes=41,no=42,missing=42
					41:[U_AGE_EC<777621] yes=83,no=84,missing=84
						83:leaf=0.0759597
						84:leaf=-0.117782
					42:[U_KEYWORD_MICRO_MAX_COEC<0.114394] yes=85,no=86,missing=86
						85:leaf=-0.00925195
						86:leaf=0.0131535
			10:[U_KEYWORD_MACRO_MAX_COEC<0.00146306] yes=21,no=22,missing=22
				21:[CAT_REL<0.031602] yes=43,no=44,missing=44
					43:[D_TITLEMD5_COEC<0.0783083] yes=87,no=88,missing=88
						87:leaf=-0.0123615
						88:leaf=0.0144764
					44:[D_TITLEMD5_C<8.50831] yes=89,no=90,missing=90
						89:leaf=0.00203696
						90:leaf=0.0305535
				22:[CAT_REL<0.019755] yes=45,no=46,missing=46
					45:[D_TITLEMD5_COEC<0.0857298] yes=91,no=92,missing=92
						91:leaf=-0.0317621
						92:leaf=-0.00717256
					46:[D_TITLEMD5_C<100.765] yes=93,no=94,missing=94
						93:leaf=-0.00394282
						94:leaf=0.0167093
	2:[C_D_U_KEYWORD_CATEGORY_MICRO_MEAN_COEC<0.103331] yes=5,no=6,missing=6
		5:[D_TITLEMD5_C<50.7521] yes=11,no=12,missing=12
			11:[CAT_REL<0.00734875] yes=23,no=24,missing=24
				23:[C_D_U_KEYWORD_CATEGORY_MICRO_MEAN_COEC<0.0735616] yes=47,no=48,missing=48
					47:[C_D_U_CATEGORY_CATEGORY_MICRO_MAX_COEC<0.0981899] yes=95,no=96,missing=96
						95:leaf=-0.0671428
						96:leaf=-0.0351741
					48:[D_TITLEMD5_COEC<0.0868078] yes=97,no=98,missing=98
						97:leaf=-0.0445058
						98:leaf=-0.013343
				24:[D_TITLEMD5_C<4.8621] yes=49,no=50,missing=50
					49:[U_KEYWORD_MACRO_MAX_COEC<0.00203665] yes=99,no=100,missing=100
						99:leaf=-0.00948037
						100:leaf=-0.0497069
					50:[KW_REL<0.000810671] yes=101,no=102,missing=102
						101:leaf=-0.0155279
						102:leaf=0.0202652
			12:[CAT_REL<0.000745] yes=25,no=26,missing=26
				25:[U_KEYWORD_MEAN_C<114.696] yes=51,no=52,missing=52
					51:[D_CATEGORY_MEAN_EC<231187] yes=103,no=104,missing=103
						103:leaf=0.00317751
						104:leaf=-0.0257312
					52:[D_TITLEMD5_COEC<0.107114] yes=105,no=106,missing=106
						105:leaf=-0.0075669
						106:leaf=0.0272327
				26:[U_KEYWORD_MACRO_MAX_COEC<0.00198245] yes=53,no=54,missing=54
					53:[U_KEYWORD_MEAN_C<83.0506] yes=107,no=108,missing=108
						107:leaf=0.00701693
						108:leaf=0.0426896
					54:[KW_REL<0.00188736] yes=109,no=110,missing=110
						109:leaf=0.000973906
						110:leaf=0.0256348
		6:[C_D_U_TITLEMD5_CATEGORY_MICRO_MEAN_COEC<0.174879] yes=13,no=14,missing=14
			13:[CAT_REL<0.000745] yes=27,no=28,missing=28
				27:[C_D_U_CATEGORY_CATEGORY_MAX_C<25.7022] yes=55,no=56,missing=55
					55:[U_KEYWORD_MAX_EC<346.774] yes=111,no=112,missing=112
						111:leaf=0.0266852
						112:leaf=0.00527664
					56:[U_KEYWORD_MEAN_C<113.281] yes=113,no=114,missing=114
						113:leaf=-0.0147711
						114:leaf=0.0112264
				28:[WORD_COUNT<1409] yes=57,no=58,missing=58
					57:[M_D_U_KEYWORD_KEYWORD_MACRO_MEAN_COEC<0.000728147] yes=115,no=116,missing=115
						115:leaf=0.0205503
						116:leaf=0.0466369
					58:[U_KEYWORD_MACRO_MAX_COEC<0.00127257] yes=117,no=118,missing=118
						117:leaf=0.0597068
						118:leaf=0.038092
			14:[KW_REL<0.000907881] yes=29,no=30,missing=30
				29:[C_D_U_KEYWORD_CATEGORY_MICRO_MEAN_COEC<0.150454] yes=59,no=60,missing=60
					59:[D_TITLEMD5_C<54.792] yes=119,no=120,missing=120
						119:leaf=-0.0171787
						120:leaf=0.0273711
					60:[C_D_U_TITLEMD5_CATEGORY_MICRO_MAX_COEC<0.321581] yes=121,no=122,missing=122
						121:leaf=0.0353316
						122:leaf=0.0590004
				30:[U_KEYWORD_MACRO_MAX_COEC<0.00151008] yes=61,no=62,missing=62
					61:[C_D_U_TITLEMD5_CATEGORY_MEAN_C<0.110444] yes=123,no=124,missing=124
						123:leaf=0.0323296
						124:leaf=0.0650735
					62:[M_D_U_KEYWORD_KEYWORD_MICRO_MAX_COEC<0.209353] yes=125,no=126,missing=125
						125:leaf=0.0456628
						126:leaf=0.072462
booster[11]:
0:[C_D_U_TITLEMD5_CATEGORY_MICRO_MEAN_COEC<0.121835] yes=1,no=2,missing=1
	1:[C_D_U_TITLEMD5_CATEGORY_MICRO_MEAN_COEC<0.0647632] yes=3,no=4,missing=3
		3:[D_KEYWORD_MACRO_MEAN_COEC<0.0891449] yes=7,no=8,missing=8
			7:[C_D_U_CATEGORY_CATEGORY_MICRO_MAX_COEC<0.0989391] yes=15,no=16,missing=15
				15:[D_TITLEMD5_COEC<0.0438023] yes=31,no=32,missing=31
					31:[U_KEYWORD_MICRO_MAX_COEC<0.111155] yes=63,no=64,missing=63
						63:leaf=-0.0703031
						64:leaf=-0.0452474
					32:[U_CATEGORY_MEAN_EC<15197.3] yes=65,no=66,missing=65
						65:leaf=-0.0334281
						66:leaf=-0.0560078
				16:[U_KEYWORD_MACRO_MAX_COEC<0.00146752] yes=33,no=34,missing=34
					33:[U_CATEGORY_MICRO_MEAN_COEC<0.0945424] yes=67,no=68,missing=68
						67:leaf=-0.0166466
						68:leaf=0.0111564
					34:[KW_REL<0.00310665] yes=69,no=70,missing=70
						69:leaf=-0.0389806
						70:leaf=-0.0116037
			8:[D_TITLEMD5_COEC<0.134227] yes=17,no=18,missing=17
				17:[M_D_U_KEYWORD_KEYWORD_MICRO_MAX_COEC<0.225829] yes=35,no=36,missing=35
					35:[U_KEYWORD_MACRO_MAX_COEC<0.00167935] yes=71,no=72,missing=71
						71:leaf=-0.0153905
						72:leaf=-0.0432065
					36:[U_KEYWORD_MACRO_MAX_COEC<0.00136483] yes=73,no=74,missing=74
						73:leaf=0.0869272
						74:leaf=0.0426032
				18:[D_KEYWORD_MICRO_MEAN_COEC<0.151307] yes=37,no=38,missing=37
					37:[D_TITLEMD5_EC<17.7624] yes=75,no=76,missing=76
						75:leaf=-0.0404578
						76:leaf=0.00689389
					38:[D_KEYWORD_MEAN_C<63.4645] yes=77,no=78,missing=78
						77:leaf=0.0555015
						78:leaf=0.0207499
		4:[M_D_U_KEYWORD_KEYWORD_MICRO_MAX_COEC<0.0916598] yes=9,no=10,missing=9
			9:[U_KEYWORD_MICRO_MEAN_COEC<0.092924] yes=19,no=20,missing=20
				19:[U_KEYWORD_MEAN_EC<69.1528] yes=39,no=40,missing=40
					39:[D_KEYWORD_MICRO_MAX_COEC<0.259733] yes=79,no=80,missing=79
						79:leaf=-0.110449
						80:leaf=0.0898731
					40:[D_TITLEMD5_C<237.725] yes=81,no=82,missing=82
						81:leaf=-0.0495834
						82:leaf=-0.0251493
				20:[C_D_U_TITLEMD5_CITY_C<2.85296] yes=41,no=42,missing=41
					41:[CAT_REL<0.009256] yes=83,no=84,missing=84
						83:leaf=-0.0306771
						84:leaf=-0.0110211
					42:[D_KEYWORD_MAX_EC<953.592] yes=85,no=86,missing=85
						85:leaf=0.00938241
						86:leaf=-0.00880763
			10:[KW_REL<0.00344077] yes=21,no=22,missing=22
				21:[C_D_U_KEYWORD_CATEGORY_MEAN_EC<13.8159] yes=43,no=44,missing=44
					43:[D_TITLEMD5_C<14.7275] yes=87,no=88,missing=88
						87:leaf=-0.0144237
						88:leaf=0.0127928
					44:[D_TITLEMD5_EC<2977.93] yes=89,no=90,missing=90
						89:leaf=-0.0200455
						90:leaf=0.009365
				22:[M_D_U_KEYWORD_KEYWORD_MICRO_MAX_COEC<0.196866] yes=45,no=46,missing=46
					45:[U_KEYWORD_MACRO_MAX_COEC<0.00207473] yes=91,no=92,missing=92
						91:leaf=0.0189286
						92:leaf=-0.00509343
					46:[D_CATEGORY_MEAN_C<19536.6] yes=93,no=94,missing=93
						93:leaf=0.0535806
						94:leaf=0.0190154
	2:[C_D_U_KEYWORD_CATEGORY_MICRO_MEAN_COEC<0.11862] yes=5,no=6,missing=6
		5:[M_D_U_KEYWORD_KEYWORD_MICRO_MAX_COEC<0.0916598] yes=11,no=12,missing=11
			11:[D_TITLEMD5_C<51.8851] yes=23,no=24,missing=24
				23:[C_D_U_KEYWORD_CATEGORY_MICRO_MEAN_COEC<0.0787184] yes=47,no=48,missing=48
					47:[C_D_U_CATEGORY_CATEGORY_MICRO_MEAN_COEC<0.0865312] yes=95,no=96,missing=96
						95:leaf=-0.0478011
						96:leaf=-0.0122211
					48:[KW_REL<0.000332493] yes=97,no=98,missing=98
						97:leaf=-0.0342873
						98:leaf=-0.000302545
				24:[KW_REL<0.000129362] yes=49,no=50,missing=50
					49:[U_KEYWORD_MEAN_C<6.97201] yes=99,no=100,missing=100
						99:leaf=-0.108486
						100:leaf=-0.0100888
					50:[U_KEYWORD_MEAN_C<112.022] yes=101,no=102,missing=102
						101:leaf=0.00611225
						102:leaf=0.0252407
			12:[D_TITLEMD5_C<11.8359] yes=25,no=26,missing=26
				25:[CAT_REL<0.045544] yes=51,no=52,missing=52
					51:[D_TITLEMD5_COEC<0.0797263] yes=103,no=104,missing=104
						103:leaf=-0.0460774
						104:leaf=-0.0114611
					52:[U_KEYWORD_MACRO_MAX_COEC<0.00172269] yes=105,no=106,missing=106
						105:leaf=0.0278213
						106:leaf=-0.00340617
				26:[CAT_REL<0.0045095] yes=53,no=54,missing=54
					53:[D_TITLEMD5_COEC<0.121549] yes=107,no=108,missing=108
						107:leaf=0.00507735
						108:leaf=0.0283963
					54:[C_D_U_TITLEMD5_CATEGORY_MICRO_MEAN_COEC<0.158103] yes=109,no=110,missing=110
						109:leaf=0.0316183
						110:leaf=0.0490931
		6:[C_D_U_TITLEMD5_CATEGORY_MICRO_MAX_COEC<0.286159] yes=13,no=14,missing=14
			13:[KW_REL<0.000397874] yes=27,no=28,missing=28
				27:[U_KEYWORD_MEAN_EC<69.1528] yes=55,no=56,missing=56
					55:[C_D_U_KEYWORD_CATEGORY_MEAN_C<0.459091] yes=111,no=112,missing=112
						111:leaf=0.0861624
						112:leaf=-0.0992997
					56:[D_CATEGORY_MAX_EC<154739] yes=113,no=114,missing=113
						113:leaf=0.0185199
						114:leaf=-0.00169839
				28:[M_D_U_KEYWORD_KEYWORD_MICRO_MAX_COEC<0.196866] yes=57,no=58,missing=57
					57:[U_KEYWORD_MACRO_MAX_COEC<0.00160835] yes=115,no=116,missing=116
						115:leaf=0.0413368
						116:leaf=0.0252886
					58:[D_CATEGORY_MICRO_MEAN_COEC<0.0835872] yes=117,no=118,missing=117
						117:leaf=0.0685628
						118:leaf=0.0478843
			14:[KW_REL<0.000438363] yes=29,no=30,missing=30
				29:[D_KEYWORD_MACRO_MEAN_COEC<0.10918] yes=59,no=60,missing=60
					59:[D_KEYWORD_MEAN_C<212.833] yes=119,no=120,missing=120
						119:leaf=-0.00188589
						120:leaf=-0.0615499
					60:[C_D_U_TITLEMD5_CATEGORY_MICRO_MEAN_COEC<0.282183] yes=121,no=122,missing=122
						121:leaf=0.033278
						122:leaf=0.0562107
				30:[C_D_U_TITLEMD5_CATEGORY_MICRO_MEAN_COEC<0.256435] yes=61,no=62,missing=62
					61:[D_CATEGORY_MEAN_EC<299845] yes=123,no=124,missing=123
						123:leaf=0.0567097
						124:leaf=0.0407556
					62:[D_TITLEMD5_C<8.40946] yes=125,no=126,missing=126
						125:leaf=0.0366727
						126:leaf=0.068982
booster[12]:
0:[C_D_U_TITLEMD5_CATEGORY_MICRO_MEAN_COEC<0.0931326] yes=1,no=2,missing=1
	1:[D_TITLEMD5_C<161.516] yes=3,no=4,missing=3
		3:[C_D_U_KEYWORD_CATEGORY_MICRO_MEAN_COEC<0.0759342] yes=7,no=8,missing=7
			7:[D_TITLEMD5_COEC<0.0783499] yes=15,no=16,missing=15
				15:[IMAGE_COUNT<0.999999] yes=31,no=32,missing=32
					31:[U_CATEGORY_MACRO_MEAN_COEC<0.0571504] yes=63,no=64,missing=64
						63:leaf=-0.0701895
						64:leaf=-0.0930859
					32:[CAT_REL<0.004915] yes=65,no=66,missing=66
						65:leaf=-0.0545476
						66:leaf=-0.0359086
				16:[D_KEYWORD_MICRO_MEAN_COEC<0.170548] yes=33,no=34,missing=34
					33:[D_TITLEMD5_C<2.995] yes=67,no=68,missing=68
						67:leaf=-0.0610189
						68:leaf=-0.0263328
					34:[D_TITLEMD5_EC<6.89961] yes=69,no=70,missing=70
						69:leaf=3.19498e-05
						70:leaf=0.0556193
			8:[KW_REL<0.00080731] yes=17,no=18,missing=18
				17:[C_D_U_KEYWORD_CATEGORY_MAX_EC<0.523422] yes=35,no=36,missing=36
					35:[D_KEYWORD_MEAN_EC<17.8518] yes=71,no=72,missing=72
						71:leaf=0.0399488
						72:leaf=-0.0247216
					36:[D_TITLEMD5_C<2.995] yes=73,no=74,missing=73
						73:leaf=-0.0631757
						74:leaf=-0.0375632
				18:[M_D_U_KEYWORD_KEYWORD_MICRO_MAX_COEC<0.167579] yes=37,no=38,missing=37
					37:[U_KEYWORD_MACRO_MAX_COEC<0.00146772] yes=75,no=76,missing=76
						75:leaf=-0.000205508
						76:leaf=-0.0211673
					38:[M_D_U_KEYWORD_KEYWORD_MICRO_MAX_COEC<0.230948] yes=77,no=78,missing=78
						77:leaf=0.0187016
						78:leaf=0.0698543
		4:[D_TITLEMD5_COEC<0.152371] yes=9,no=10,missing=10
			9:[CAT_REL<0.00107081] yes=19,no=20,missing=20
				19:[D_TITLEMD5_C<703.856] yes=39,no=40,missing=40
					39:[C_D_U_TITLEMD5_CATEGORY_MICRO_MEAN_COEC<0.046526] yes=79,no=80,missing=80
						79:leaf=-0.0534567
						80:leaf=-0.0197043
					40:[TIME_OF_DAY<10] yes=81,no=82,missing=82
						81:leaf=0.0100845
						82:leaf=-0.0103783
				20:[U_KEYWORD_MICRO_MEAN_COEC<0.0946007] yes=41,no=42,missing=42
					41:[U_KEYWORD_MICRO_MEAN_COEC<0.0909865] yes=83,no=84,missing=84
						83:leaf=-0.0465175
						84:leaf=-0.0107779
					42:[TIME_OF_DAY<10] yes=85,no=86,missing=86
						85:leaf=0.0305788
						86:leaf=0.00325292
			10:[WORD_COUNT<3800] yes=21,no=22,missing=22
				21:[D_CATEGORY_MACRO_MAX_COEC<0.196183] yes=43,no=44,missing=43
					43:[WORD_COUNT<972] yes=87,no=88,missing=88
						87:leaf=-0.0026891
						88:leaf=0.0117329
					44:[C_D_U_PUBLISHER_CITY_C<5.58045] yes=89,no=90,missing=90
						89:leaf=0.0869283
						90:leaf=0.0538205
				22:[DOC_AGE<15.0508] yes=45,no=46,missing=46
					45:[D_CATEGORY_MAX_C<17079.4] yes=91,no=92,missing=92
						91:leaf=0.0578815
						92:leaf=-0.0203403
					46:[DOC_AGE<42.4772] yes=93,no=94,missing=94
						93:leaf=0.0355901
						94:leaf=0.0194116
	2:[C_D_U_TITLEMD5_CATEGORY_MICRO_MEAN_COEC<0.162553] yes=5,no=6,missing=6
		5:[KW_REL<0.0023007] yes=11,no=12,missing=12
			11:[D_TITLEMD5_C<135.098] yes=23,no=24,missing=24
				23:[C_D_U_KEYWORD_CATEGORY_MEAN_EC<8.7436] yes=47,no=48,missing=47
					47:[CAT_REL<0.01986] yes=95,no=96,missing=96
						95:leaf=-0.0138803
						96:leaf=0.012631
					48:[D_KEYWORD_MEAN_EC<4807.93] yes=97,no=98,missing=98
						97:leaf=-0.0194331
						98:leaf=-0.0515681
				24:[D_KEYWORD_MEAN_EC<4398.22] yes=49,no=50,missing=49
					49:[CAT_REL<0.00107081] yes=99,no=100,missing=100
						99:leaf=0.00318287
						100:leaf=0.0242341
					50:[D_TITLEMD5_EC<5597.91] yes=101,no=102,missing=102
						101:leaf=-0.0245309
						102:leaf=0.00519119
			12:[M_D_U_KEYWORD_KEYWORD_MICRO_MAX_COEC<0.190601] yes=25,no=26,missing=25
				25:[U_KEYWORD_MACRO_MAX_COEC<0.00167614] yes=51,no=52,missing=52
					51:[C_D_U_KEYWORD_CATEGORY_MAX_EC<1.47894] yes=103,no=104,missing=104
						103:leaf=0.0407252
						104:leaf=0.0201173
					52:[U_KEYWORD_MACRO_MAX_COEC<0.00337441] yes=105,no=106,missing=106
						105:leaf=0.00977529
						106:leaf=-0.0201388
				26:[WORD_COUNT<1130] yes=53,no=54,missing=54
					53:[M_D_U_KEYWORD_KEYWORD_MACRO_MEAN_COEC<0.000847499] yes=107,no=108,missing=108
						107:leaf=0.0137594
						108:leaf=0.0401692
					54:[M_D_U_KEYWORD_KEYWORD_MICRO_MAX_COEC<0.230948] yes=109,no=110,missing=110
						109:leaf=0.0437885
						110:leaf=0.0642121
		6:[C_D_U_TITLEMD5_CATEGORY_MEAN_C<0.318308] yes=13,no=14,missing=14
			13:[D_TITLEMD5_COEC<0.105588] yes=27,no=28,missing=28
				27:[CAT_REL<0.00107081] yes=55,no=56,missing=56
					55:[U_CATEGORY_MEAN_EC<13604.7] yes=111,no=112,missing=112
						111:leaf=-0.0387085
						112:leaf=-0.0783558
					56:[U_KEYWORD_MACRO_MAX_COEC<0.00127188] yes=113,no=114,missing=114
						113:leaf=0.0221786
						114:leaf=-0.020917
				28:[U_KEYWORD_MACRO_MAX_COEC<0.00150046] yes=57,no=58,missing=58
					57:[KW_REL<0.00119285] yes=115,no=116,missing=116
						115:leaf=0.0135976
						116:leaf=0.0409203
					58:[M_D_U_KEYWORD_KEYWORD_MICRO_MAX_COEC<0.145711] yes=117,no=118,missing=117
						117:leaf=-0.00582663
						118:leaf=0.0373659
			14:[U_KEYWORD_MACRO_MAX_COEC<0.00207214] yes=29,no=30,missing=30
				29:[C_D_U_TITLEMD5_CATEGORY_MICRO_MEAN_COEC<0.239599] yes=59,no=60,missing=60
					59:[CAT_REL<0.004915] yes=119,no=120,missing=120
						119:leaf=0.0303187
						120:leaf=0.0479338
					60:[CAT_REL<0.00107081] yes=121,no=122,missing=122
						121:leaf=0.0528098
						122:leaf=0.0684706
				30:[C_D_U_TITLEMD5_CATEGORY_MICRO_MEAN_COEC<0.239599] yes=61,no=62,missing=62
					61:[D_CATEGORY_MEAN_EC<266774] yes=123,no=124,missing=124
						123:leaf=0.0245283
						124:leaf=0.00230127
					62:[U_KEYWORD_MACRO_MAX_COEC<0.00415884] yes=125,no=126,missing=126
						125:leaf=0.0434411
						126:leaf=0.021116
booster[13]:
0:[C_D_U_TITLEMD5_CATEGORY_MICRO_MEAN_COEC<0.12638] yes=1,no=2,missing=1
	1:[D_TITLEMD5_C<23.8155] yes=3,no=4,missing=3
		3:[C_D_U_KEYWORD_CATEGORY_MICRO_MEAN_COEC<0.0850113] yes=7,no=8,missing=7
			7:[IMAGE_COUNT<0.999999] yes=15,no=16,missing=16
				15:[U_CATEGORY_MEAN_EC<15885.3] yes=31,no=32,missing=32
					31:[U_KEYWORD_MAX_EC<185.945] yes=63,no=64,missing=64
						63:leaf=-0.0958138
						64:leaf=-0.0610764
					32:[U_KEYWORD_MICRO_MAX_COEC<0.113859] yes=65,no=66,missing=65
						65:leaf=-0.0941911
						66:leaf=-0.0718099
				16:[D_KEYWORD_MICRO_MEAN_COEC<0.167399] yes=33,no=34,missing=34
					33:[CAT_REL<0.046135] yes=67,no=68,missing=68
						67:leaf=-0.0485096
						68:leaf=-0.0281272
					34:[D_TITLEMD5_EC<124.041] yes=69,no=70,missing=70
						69:leaf=0.0395455
						70:leaf=-0.0387143
			8:[KW_REL<0.00287969] yes=17,no=18,missing=18
				17:[U_KEYWORD_MACRO_MAX_COEC<0.00121894] yes=35,no=36,missing=36
					35:[U_CATEGORY_MICRO_MEAN_COEC<0.101423] yes=71,no=72,missing=72
						71:leaf=-0.00809132
						72:leaf=0.0395099
					36:[D_TITLEMD5_COEC<0.0713379] yes=73,no=74,missing=73
						73:leaf=-0.0355827
						74:leaf=-0.0108512
				18:[DOC_AGE<1.24028] yes=37,no=38,missing=38
					37:[M_D_U_KEYWORD_KEYWORD_MICRO_MAX_COEC<0.194155] yes=75,no=76,missing=75
						75:leaf=0.0301848
						76:leaf=0.0848607
					38:[D_KEYWORD_MAX_EC<1155.16] yes=77,no=78,missing=78
						77:leaf=0.018065
						78:leaf=-0.0131415
		4:[CAT_REL<0.000914376] yes=9,no=10,missing=10
			9:[D_TITLEMD5_COEC<0.102929] yes=19,no=20,missing=20
				19:[C_D_U_TITLEMD5_CATEGORY_MICRO_MEAN_COEC<0.0468858] yes=39,no=40,missing=40
					39:[U_KEYWORD_MICRO_MAX_COEC<0.113859] yes=79,no=80,missing=80
						79:leaf=-0.0589314
						80:leaf=-0.0380601
					40:[U_KEYWORD_MEAN_C<119.143] yes=81,no=82,missing=81
						81:leaf=-0.0303623
						82:leaf=-0.0112339
				20:[D_TITLEMD5_COEC<0.188309] yes=41,no=42,missing=42
					41:[D_CATEGORY_MEAN_C<25676.6] yes=83,no=84,missing=83
						83:leaf=0.000401541
						84:leaf=-0.0161806
					42:[WORD_COUNT<975] yes=85,no=86,missing=86
						85:leaf=0.00250169
						86:leaf=0.0247231
			10:[U_KEYWORD_MICRO_MEAN_COEC<0.0960195] yes=21,no=22,missing=22
				21:[U_CATEGORY_MACRO_MEAN_COEC<0.0502271] yes=43,no=44,missing=44
					43:[CAT_REL<0.034776] yes=87,no=88,missing=88
						87:leaf=-0.0144412
						88:leaf=0.00778439
					44:[C_D_U_TITLEMD5_CATEGORY_MICRO_MEAN_COEC<0.0734506] yes=89,no=90,missing=90
						89:leaf=-0.0426629
						90:leaf=-0.0203095
				22:[TIME_OF_DAY<10] yes=45,no=46,missing=46
					45:[U_KEYWORD_MACRO_MAX_COEC<0.0014374] yes=91,no=92,missing=92
						91:leaf=0.0359172
						92:leaf=0.0151693
					46:[U_KEYWORD_MACRO_MAX_COEC<0.00132038] yes=93,no=94,missing=94
						93:leaf=0.0197138
						94:leaf=6.41545e-05
	2:[D_TITLEMD5_C<57.8612] yes=5,no=6,missing=6
		5:[M_D_U_KEYWORD_KEYWORD_MICRO_MAX_COEC<0.140625] yes=11,no=12,missing=11
			11:[CAT_REL<0.004124] yes=23,no=24,missing=24
				23:[D_KEYWORD_MACRO_MEAN_COEC<0.13065] yes=47,no=48,missing=47
					47:[D_TITLEMD5_C<9.92017] yes=95,no=96,missing=96
						95:leaf=-0.047853
						96:leaf=-0.0187686
					48:[C_D_U_KEYWORD_CATEGORY_MEAN_EC<1.78426] yes=97,no=98,missing=98
						97:leaf=0.0718517
						98:leaf=0.0216585
				24:[D_TITLEMD5_C<2.98007] yes=49,no=50,missing=50
					49:[U_KEYWORD_MACRO_MAX_COEC<0.00253366] yes=99,no=100,missing=100
						99:leaf=-0.0194249
						100:leaf=-0.0642031
					50:[U_KEYWORD_MACRO_MAX_COEC<0.00121894] yes=101,no=102,missing=102
						101:leaf=0.041195
						102:leaf=0.00771126
			12:[M_D_U_KEYWORD_KEYWORD_MICRO_MAX_COEC<0.229471] yes=25,no=26,missing=26
				25:[KW_REL<0.00287969] yes=51,no=52,missing=52
					51:[U_KEYWORD_MACRO_MAX_COEC<0.00166504] yes=103,no=104,missing=104
						103:leaf=0.0200427
						104:leaf=-0.0186679
					52:[WORD_COUNT<1297] yes=105,no=106,missing=106
						105:leaf=0.0217642
						106:leaf=0.0432555
				26:[U_KEYWORD_MACRO_MAX_COEC<0.00120747] yes=53,no=54,missing=54
					53:[D_CATEGORY_MICRO_MAX_COEC<0.123137] yes=107,no=108,missing=107
						107:leaf=0.0902904
						108:leaf=0.000104599
					54:[KW_REL<0.00484974] yes=109,no=110,missing=110
						109:leaf=0.0517452
						110:leaf=0.0733937
		6:[U_KEYWORD_MACRO_MAX_COEC<0.00155025] yes=13,no=14,missing=14
			13:[C_D_U_TITLEMD5_CATEGORY_MICRO_MEAN_COEC<0.208265] yes=27,no=28,missing=28
				27:[CAT_REL<0.004124] yes=55,no=56,missing=56
					55:[U_KEYWORD_MEAN_C<111.548] yes=111,no=112,missing=112
						111:leaf=0.00219094
						112:leaf=0.0326574
					56:[WORD_COUNT<1892] yes=113,no=114,missing=114
						113:leaf=0.0357137
						114:leaf=0.0482613
				28:[U_KEYWORD_MEAN_C<77.8218] yes=57,no=58,missing=58
					57:[U_KEYWORD_MEAN_C<6.97201] yes=115,no=116,missing=116
						115:leaf=-0.148421
						116:leaf=0.0196462
					58:[C_D_U_TITLEMD5_CATEGORY_MICRO_MEAN_COEC<0.28775] yes=117,no=118,missing=118
						117:leaf=0.0557132
						118:leaf=0.0731513
			14:[C_D_U_TITLEMD5_CATEGORY_MICRO_MEAN_COEC<0.188603] yes=29,no=30,missing=30
				29:[CAT_REL<0.00665615] yes=59,no=60,missing=60
					59:[D_CATEGORY_MEAN_EC<258550] yes=119,no=120,missing=119
						119:leaf=0.0108103
						120:leaf=-0.012654
					60:[U_KEYWORD_MACRO_MAX_COEC<0.00357743] yes=121,no=122,missing=122
						121:leaf=0.0261299
						122:leaf=-0.00376807
				30:[CAT_REL<0.000914376] yes=61,no=62,missing=62
					61:[C_D_U_CATEGORY_CATEGORY_MAX_EC<72.0903] yes=123,no=124,missing=124
						123:leaf=0.0395799
						124:leaf=0.0197315
					62:[U_KEYWORD_MACRO_MAX_COEC<0.00415551] yes=125,no=126,missing=126
						125:leaf=0.0457822
						126:leaf=0.0161026
booster[14]:
0:[C_D_U_TITLEMD5_CATEGORY_MICRO_MEAN_COEC<0.0902807] yes=1,no=2,missing=1
	1:[C_D_U_KEYWORD_CATEGORY_MICRO_MEAN_COEC<0.0710967] yes=3,no=4,missing=4
		3:[C_D_U_TITLEMD5_CATEGORY_MICRO_MEAN_COEC<0.0277949] yes=7,no=8,missing=8
			7:[U_KEYWORD_MICRO_MAX_COEC<0.113824] yes=15,no=16,missing=16
				15:[U_CATEGORY_MEAN_EC<15672.4] yes=31,no=32,missing=32
					31:[TIME_OF_DAY<10] yes=63,no=64,missing=64
						63:leaf=-0.0430256
						64:leaf=-0.0644558
					32:[U_GENDER_COEC<0.0924302] yes=65,no=66,missing=66
						65:leaf=-0.0571237
						66:leaf=-0.0791691
				16:[C_D_U_CATEGORY_CATEGORY_MICRO_MAX_COEC<0.111955] yes=33,no=34,missing=34
					33:[DOC_AGE<0.974999] yes=67,no=68,missing=68
						67:leaf=-0.0308114
						68:leaf=-0.0544901
					34:[C_D_U_KEYWORD_CATEGORY_MICRO_MAX_COEC<0.266156] yes=69,no=70,missing=70
						69:leaf=-0.0237186
						70:leaf=0.0266641
			8:[CAT_REL<0.000773] yes=17,no=18,missing=18
				17:[C_D_U_TITLEMD5_CATEGORY_MEAN_C<0.783274] yes=35,no=36,missing=36
					35:[U_KEYWORD_MEAN_C<114.992] yes=71,no=72,missing=72
						71:leaf=-0.0561706
						72:leaf=-0.039102
					36:[TIME_OF_DAY<6] yes=73,no=74,missing=74
						73:leaf=-0.0056815
						74:leaf=-0.0332039
				18:[C_D_U_TITLEMD5_CITY_C<2.83951] yes=37,no=38,missing=37
					37:[U_CATEGORY_MAX_EC<5833.09] yes=75,no=76,missing=76
						75:leaf=-0.0207678
						76:leaf=-0.0489395
					38:[U_KEYWORD_MACRO_MAX_COEC<0.0019609] yes=77,no=78,missing=78
						77:leaf=0.00862631
						78:leaf=-0.0214423
		4:[D_TITLEMD5_C<134.94] yes=9,no=10,missing=10
			9:[KW_REL<0.000960452] yes=19,no=20,missing=20
				19:[D_KEYWORD_MICRO_MEAN_COEC<0.166347] yes=39,no=40,missing=40
					39:[D_TITLEMD5_C<9.94022] yes=79,no=80,missing=80
						79:leaf=-0.0491726
						80:leaf=-0.0273794
					40:[D_KEYWORD_MAX_C<24.431] yes=81,no=82,missing=81
						81:leaf=0.0431404
						82:leaf=-0.0550208
				20:[DOC_AGE<2.21611] yes=41,no=42,missing=42
					41:[U_KEYWORD_MACRO_MAX_COEC<0.00127282] yes=83,no=84,missing=84
						83:leaf=0.0381238
						84:leaf=0.0047804
					42:[C_D_U_KEYWORD_CATEGORY_MEAN_EC<6.96575] yes=85,no=86,missing=85
						85:leaf=0.00561013
						86:leaf=-0.0202425
			10:[D_TITLEMD5_COEC<0.194075] yes=21,no=22,missing=21
				21:[CAT_REL<0.023108] yes=43,no=44,missing=44
					43:[D_TITLEMD5_COEC<0.119273] yes=87,no=88,missing=87
						87:leaf=-0.0151969
						88:leaf=0.000864361
					44:[IMAGE_COUNT<0.999999] yes=89,no=90,missing=90
						89:leaf=-0.0541326
						90:leaf=0.0147059
				22:[WORD_COUNT<978] yes=45,no=46,missing=46
					45:[D_KEYWORD_MAX_C<72.8019] yes=91,no=92,missing=92
						91:leaf=0.050665
						92:leaf=-0.0028636
					46:[DOC_AGE<25.3644] yes=93,no=94,missing=94
						93:leaf=0.0292796
						94:leaf=0.0126694
	2:[C_D_U_TITLEMD5_CATEGORY_MICRO_MEAN_COEC<0.139025] yes=5,no=6,missing=6
		5:[KW_REL<0.000647456] yes=11,no=12,missing=12
			11:[D_TITLEMD5_COEC<0.097478] yes=23,no=24,missing=24
				23:[D_KEYWORD_MAX_EC<365.225] yes=47,no=48,missing=48
					47:[D_TITLEMD5_C<17.8066] yes=95,no=96,missing=96
						95:leaf=-0.0476017
						96:leaf=-0.0025154
					48:[D_TITLEMD5_EC<8621.19] yes=97,no=98,missing=98
						97:leaf=-0.0400389
						98:leaf=0.0216636
				24:[D_CATEGORY_MAX_C<9024.81] yes=49,no=50,missing=49
					49:[D_KEYWORD_MACRO_MEAN_COEC<0.0907166] yes=99,no=100,missing=100
						99:leaf=-0.00929444
						100:leaf=0.0104896
					50:[U_KEYWORD_MICRO_MAX_COEC<0.120595] yes=101,no=102,missing=102
						101:leaf=-0.0242705
						102:leaf=0.004744
			12:[U_KEYWORD_MACRO_MAX_COEC<0.00144911] yes=25,no=26,missing=26
				25:[C_D_U_TITLEMD5_CITY_C<12.5375] yes=51,no=52,missing=51
					51:[CAT_REL<0.033697] yes=103,no=104,missing=104
						103:leaf=0.00413302
						104:leaf=0.0226921
					52:[U_KEYWORD_MEAN_C<109.815] yes=105,no=106,missing=106
						105:leaf=0.00703604
						106:leaf=0.0355358
				26:[M_D_U_KEYWORD_KEYWORD_MACRO_MEAN_COEC<0.000554146] yes=53,no=54,missing=53
					53:[C_D_U_TITLEMD5_CITY_C<8.64381] yes=107,no=108,missing=107
						107:leaf=-0.00735606
						108:leaf=0.00991744
					54:[U_KEYWORD_MACRO_MAX_COEC<0.00280726] yes=109,no=110,missing=110
						109:leaf=0.028229
						110:leaf=-0.00684073
		6:[D_TITLEMD5_C<9.94022] yes=13,no=14,missing=14
			13:[D_TITLEMD5_COEC<0.097478] yes=27,no=28,missing=28
				27:[KW_REL<0.00239838] yes=55,no=56,missing=56
					55:[U_KEYWORD_MACRO_MAX_COEC<0.00140556] yes=111,no=112,missing=112
						111:leaf=-0.0215014
						112:leaf=-0.0565881
					56:[C_D_U_CATEGORY_CATEGORY_MICRO_MEAN_COEC<0.0711968] yes=113,no=114,missing=114
						113:leaf=-0.053074
						114:leaf=-0.00119997
				28:[KW_REL<0.00102004] yes=57,no=58,missing=58
					57:[C_D_U_KEYWORD_CATEGORY_MICRO_MEAN_COEC<0.158814] yes=115,no=116,missing=116
						115:leaf=-0.0259137
						116:leaf=0.0462654
					58:[IMAGE_COUNT<0.999999] yes=117,no=118,missing=118
						117:leaf=-0.0472184
						118:leaf=0.0193634
			14:[U_KEYWORD_MACRO_MAX_COEC<0.00169008] yes=29,no=30,missing=30
				29:[C_D_U_TITLEMD5_CATEGORY_MICRO_MEAN_COEC<0.206878] yes=59,no=60,missing=60
					59:[CAT_REL<0.011522] yes=119,no=120,missing=120
						119:leaf=0.0209862
						120:leaf=0.0371367
					60:[CAT_REL<0.000773] yes=121,no=122,missing=122
						121:leaf=0.0394222
						122:leaf=0.0552826
				30:[M_D_U_KEYWORD_KEYWORD_MICRO_MAX_COEC<0.143533] yes=61,no=62,missing=61
					61:[C_D_U_TITLEMD5_CATEGORY_MICRO_MEAN_COEC<0.227327] yes=123,no=124,missing=124
						123:leaf=0.00901693
						124:leaf=0.0323442
					62:[M_D_U_KEYWORD_KEYWORD_MICRO_MAX_COEC<0.234967] yes=125,no=126,missing=126
						125:leaf=0.0313045
						126:leaf=0.0590429
booster[15]:
0:[C_D_U_TITLEMD5_CATEGORY_MICRO_MEAN_COEC<0.0875859] yes=1,no=2,missing=1
	1:[U_KEYWORD_MICRO_MEAN_COEC<0.0959717] yes=3,no=4,missing=4
		3:[D_KEYWORD_MEAN_EC<16.6689] yes=7,no=8,missing=7
			7:[D_KEYWORD_MACRO_MEAN_COEC<0.111996] yes=15,no=16,missing=15
				15:[DOC_AGE<43.1617] yes=31,no=32,missing=32
					31:[C_D_U_CATEGORY_CATEGORY_MICRO_MAX_COEC<0.0801751] yes=63,no=64,missing=64
						63:leaf=0.0484015
						64:leaf=0.148685
					32:[U_KEYWORD_MACRO_MAX_COEC<0.00262911] yes=65,no=66,missing=66
						65:leaf=0.0355816
						66:leaf=-0.14604
				16:[IMAGE_COUNT<0.999999] yes=33,no=34,missing=34
					33:[U_CATEGORY_MAX_C<416.759] yes=67,no=68,missing=68
						67:leaf=-0.0171968
						68:leaf=-0.189799
					34:[DOC_AGE<48.8489] yes=69,no=70,missing=70
						69:leaf=0.0469442
						70:leaf=-0.0373043
			8:[C_D_U_TITLEMD5_CATEGORY_MICRO_MEAN_COEC<0.0363588] yes=17,no=18,missing=18
				17:[U_KEYWORD_MICRO_MEAN_COEC<0.0918235] yes=35,no=36,missing=36
					35:[M_D_U_KEYWORD_KEYWORD_MICRO_MAX_COEC<0.176743] yes=71,no=72,missing=71
						71:leaf=-0.0693765
						72:leaf=0.0319657
					36:[C_D_U_CATEGORY_CATEGORY_MICRO_MAX_COEC<0.0750435] yes=73,no=74,missing=74
						73:leaf=-0.0601333
						74:leaf=-0.0384966
				18:[U_KEYWORD_MICRO_MEAN_COEC<0.0925495] yes=37,no=38,missing=38
					37:[U_KEYWORD_MEAN_C<6.97201] yes=75,no=76,missing=76
						75:leaf=-0.0923242
						76:leaf=-0.0423492
					38:[DAY_OF_WEEK<0.999999] yes=77,no=78,missing=78
						77:leaf=-0.0100874
						78:leaf=-0.030467
		4:[D_TITLEMD5_COEC<0.0310268] yes=9,no=10,missing=10
			9:[U_KEYWORD_MACRO_MAX_COEC<0.00170664] yes=19,no=20,missing=20
				19:[M_D_U_KEYWORD_KEYWORD_MICRO_MAX_COEC<0.152205] yes=39,no=40,missing=39
					39:[U_CATEGORY_MICRO_MEAN_COEC<0.108389] yes=79,no=80,missing=80
						79:leaf=-0.0303865
						80:leaf=0.0214109
					40:[M_D_U_KEYWORD_KEYWORD_MICRO_MAX_COEC<0.208147] yes=81,no=82,missing=82
						81:leaf=0.00993489
						82:leaf=0.0762151
				20:[IMAGE_COUNT<0.999999] yes=41,no=42,missing=42
					41:[U_KEYWORD_MICRO_MAX_COEC<0.11624] yes=83,no=84,missing=83
						83:leaf=-0.0825046
						84:leaf=-0.0466053
					42:[D_KEYWORD_MEAN_EC<16.6689] yes=85,no=86,missing=86
						85:leaf=0.0277277
						86:leaf=-0.0490315
			10:[CAT_REL<0.016154] yes=21,no=22,missing=22
				21:[D_TITLEMD5_COEC<0.107058] yes=43,no=44,missing=43
					43:[C_D_U_CATEGORY_CITY_MICRO_MEAN_COEC<0.0863842] yes=87,no=88,missing=88
						87:leaf=-0.0339704
						88:leaf=-0.0171187
					44:[D_KEYWORD_MICRO_MEAN_COEC<0.0847254] yes=89,no=90,missing=90
						89:leaf=-0.0244972
						90:leaf=0.00306603
				22:[U_KEYWORD_MACRO_MAX_COEC<0.0016314] yes=45,no=46,missing=46
					45:[DOC_AGE<2.44167] yes=91,no=92,missing=92
						91:leaf=0.0315556
						92:leaf=0.00578834
					46:[M_D_U_KEYWORD_KEYWORD_MICRO_MAX_COEC<0.145216] yes=93,no=94,missing=93
						93:leaf=-0.0137846
						94:leaf=0.015395
	2:[C_D_U_KEYWORD_CATEGORY_MICRO_MEAN_COEC<0.0999152] yes=5,no=6,missing=6
		5:[KW_REL<0.000683098] yes=11,no=12,missing=12
			11:[C_D_U_TITLEMD5_CITY_COEC<0.0790177] yes=23,no=24,missing=23
				23:[D_TITLEMD5_C<18.1012] yes=47,no=48,missing=48
					47:[D_TITLEMD5_COEC<0.103925] yes=95,no=96,missing=96
						95:leaf=-0.0592179
						96:leaf=-0.0296524
					48:[U_KEYWORD_MEAN_C<6.97201] yes=97,no=98,missing=98
						97:leaf=-0.1147
						98:leaf=-0.0217525
				24:[U_KEYWORD_MEAN_C<6.97201] yes=49,no=50,missing=50
					49:[D_KEYWORD_MACRO_MEAN_COEC<0.0900313] yes=99,no=100,missing=100
						99:leaf=-0.128988
						100:leaf=-0.0671303
					50:[C_D_U_TITLEMD5_GENDER_COEC<0.109473] yes=101,no=102,missing=101
						101:leaf=-0.0117224
						102:leaf=0.00797017
			12:[C_D_U_TITLEMD5_CITY_C<4.79385] yes=25,no=26,missing=25
				25:[CAT_REL<0.022112] yes=51,no=52,missing=52
					51:[D_TITLEMD5_COEC<0.0797673] yes=103,no=104,missing=104
						103:leaf=-0.0345181
						104:leaf=-0.00660357
					52:[U_KEYWORD_MACRO_MAX_COEC<0.00248724] yes=105,no=106,missing=106
						105:leaf=0.00890573
						106:leaf=-0.0209546
				26:[U_KEYWORD_MEAN_C<117.632] yes=53,no=54,missing=54
					53:[CAT_REL<0.020042] yes=107,no=108,missing=108
						107:leaf=-0.00379008
						108:leaf=0.0134491
					54:[C_D_U_TITLEMD5_CITY_COEC<0.125059] yes=109,no=110,missing=110
						109:leaf=0.0177013
						110:leaf=0.0356548
		6:[C_D_U_TITLEMD5_CATEGORY_MICRO_MEAN_COEC<0.169077] yes=13,no=14,missing=14
			13:[WORD_COUNT<1416] yes=27,no=28,missing=28
				27:[U_KEYWORD_MICRO_MEAN_COEC<0.0964422] yes=55,no=56,missing=56
					55:[D_CATEGORY_MEAN_EC<239238] yes=111,no=112,missing=111
						111:leaf=-0.00173107
						112:leaf=-0.0321319
					56:[M_D_U_KEYWORD_KEYWORD_MACRO_MEAN_COEC<0.000688584] yes=113,no=114,missing=113
						113:leaf=0.00428639
						114:leaf=0.0291195
				28:[U_KEYWORD_MACRO_MAX_COEC<0.00122077] yes=57,no=58,missing=58
					57:[U_KEYWORD_MEAN_C<72.6633] yes=115,no=116,missing=116
						115:leaf=-0.0209854
						116:leaf=0.0423772
					58:[M_D_U_KEYWORD_KEYWORD_MACRO_MEAN_COEC<0.000526473] yes=117,no=118,missing=117
						117:leaf=0.0136801
						118:leaf=0.036299
			14:[U_KEYWORD_MACRO_MAX_COEC<0.00144948] yes=29,no=30,missing=30
				29:[C_D_U_TITLEMD5_CATEGORY_MEAN_C<0.120656] yes=59,no=60,missing=60
					59:[D_TITLEMD5_COEC<0.153654] yes=119,no=120,missing=120
						119:leaf=0.00258932
						120:leaf=0.0353548
					60:[C_D_U_TITLEMD5_CATEGORY_MICRO_MEAN_COEC<0.238318] yes=121,no=122,missing=122
						121:leaf=0.0400314
						122:leaf=0.056338
				30:[M_D_U_KEYWORD_KEYWORD_MICRO_MAX_COEC<0.120874] yes=61,no=62,missing=61
					61:[C_D_U_TITLEMD5_CATEGORY_MICRO_MEAN_COEC<0.254074] yes=123,no=124,missing=124
						123:leaf=0.0150698
						124:leaf=0.0343959
					62:[WORD_COUNT<1136] yes=125,no=126,missing=126
						125:leaf=0.0240693
						126:leaf=0.0415539
booster[16]:
0:[C_D_U_TITLEMD5_CATEGORY_MICRO_MEAN_COEC<0.123516] yes=1,no=2,missing=1
	1:[M_D_U_KEYWORD_KEYWORD_MICRO_MAX_COEC<0.114528] yes=3,no=4,missing=3
		3:[D_TITLEMD5_COEC<0.0782739] yes=7,no=8,missing=7
			7:[U_KEYWORD_MICRO_MAX_COEC<0.111365] yes=15,no=16,missing=15
				15:[D_TITLEMD5_C<16] yes=31,no=32,missing=31
					31:[IMAGE_COUNT<0.999999] yes=63,no=64,missing=64
						63:leaf=-0.0756536
						64:leaf=-0.0455744
					32:[CAT_REL<0.036989] yes=65,no=66,missing=66
						65:leaf=-0.0341585
						66:leaf=-0.0145144
				16:[C_D_U_TITLEMD5_CITY_C<0.990024] yes=33,no=34,missing=33
					33:[U_CATEGORY_MEAN_EC<1602.91] yes=67,no=68,missing=68
						67:leaf=0.132893
						68:leaf=-0.0221613
					34:[CAT_REL<0.004801] yes=69,no=70,missing=70
						69:leaf=-0.0160645
						70:leaf=0.00803083
			8:[D_CATEGORY_MICRO_MEAN_COEC<0.0803348] yes=17,no=18,missing=18
				17:[CAT_REL<0.01394] yes=35,no=36,missing=36
					35:[D_KEYWORD_MICRO_MEAN_COEC<0.096389] yes=71,no=72,missing=72
						71:leaf=-0.0251679
						72:leaf=3.13995e-05
					36:[U_CATEGORY_MEAN_EC<12634.8] yes=73,no=74,missing=74
						73:leaf=0.00772515
						74:leaf=-0.0147051
				18:[D_CATEGORY_MEAN_C<31938.6] yes=37,no=38,missing=37
					37:[U_KEYWORD_MICRO_MEAN_COEC<0.095207] yes=75,no=76,missing=76
						75:leaf=-0.0127486
						76:leaf=0.0071115
					38:[D_TITLEMD5_COEC<0.146998] yes=77,no=78,missing=78
						77:leaf=-0.0206344
						78:leaf=0.00195262
		4:[M_D_U_KEYWORD_KEYWORD_MICRO_MAX_COEC<0.231477] yes=9,no=10,missing=10
			9:[C_D_U_TITLEMD5_CITY_C<0.960692] yes=19,no=20,missing=19
				19:[KW_REL<0.00309836] yes=39,no=40,missing=40
					39:[D_TITLEMD5_C<18.15] yes=79,no=80,missing=80
						79:leaf=-0.0261316
						80:leaf=-0.00533469
					40:[DOC_AGE<2.40444] yes=81,no=82,missing=82
						81:leaf=0.0234964
						82:leaf=-0.00114116
				20:[U_KEYWORD_MICRO_MEAN_COEC<0.0955002] yes=41,no=42,missing=42
					41:[U_CATEGORY_MACRO_MEAN_COEC<0.0518061] yes=83,no=84,missing=83
						83:leaf=0.00102958
						84:leaf=-0.0216836
					42:[TIME_OF_DAY<9] yes=85,no=86,missing=86
						85:leaf=0.0273384
						86:leaf=0.0087102
			10:[U_KEYWORD_MACRO_MAX_COEC<0.00133427] yes=21,no=22,missing=22
				21:[C_D_U_PUBLISHER_AGE_COEC<0.0745586] yes=43,no=44,missing=43
					43:[U_KEYWORD_MAX_EC<315.136] yes=87,no=88,missing=88
						87:leaf=0.0741431
						88:leaf=-0.12238
					44:[U_KEYWORD_MACRO_MEAN_COEC<0.0197324] yes=89,no=90,missing=90
						89:leaf=0.127075
						90:leaf=0.0836033
				22:[M_D_U_KEYWORD_KEYWORD_MICRO_MAX_COEC<0.330121] yes=45,no=46,missing=46
					45:[U_KEYWORD_MACRO_MEAN_COEC<0.0311184] yes=91,no=92,missing=92
						91:leaf=0.0399962
						92:leaf=0.00103278
					46:[DOC_AGE<1.90472] yes=93,no=94,missing=94
						93:leaf=0.104544
						94:leaf=0.056884
	2:[U_KEYWORD_MICRO_MEAN_COEC<0.095207] yes=5,no=6,missing=6
		5:[M_D_U_KEYWORD_KEYWORD_MICRO_MAX_COEC<0.209199] yes=11,no=12,missing=11
			11:[D_TITLEMD5_C<117.571] yes=23,no=24,missing=24
				23:[D_KEYWORD_MICRO_MEAN_COEC<0.166648] yes=47,no=48,missing=48
					47:[D_CATEGORY_MEAN_EC<89295.8] yes=95,no=96,missing=95
						95:leaf=-0.0146392
						96:leaf=-0.0473401
					48:[C_D_U_KEYWORD_CATEGORY_MAX_EC<0.584868] yes=97,no=98,missing=97
						97:leaf=0.0605171
						98:leaf=-0.0325399
				24:[U_KEYWORD_MEAN_EC<27.5685] yes=49,no=50,missing=50
					49:[U_KEYWORD_MACRO_MAX_COEC<0.00309546] yes=99,no=100,missing=100
						99:leaf=-0.135031
						100:leaf=-0.0759875
					50:[C_D_U_CATEGORY_CATEGORY_MAX_EC<205.136] yes=101,no=102,missing=101
						101:leaf=0.0142542
						102:leaf=-0.00509475
			12:[C_D_U_TITLEMD5_CATEGORY_MICRO_MAX_COEC<0.202165] yes=25,no=26,missing=26
				25:[C_D_U_CATEGORY_CATEGORY_MACRO_MEAN_COEC<0.0893589] yes=51,no=52,missing=51
					51:[M_D_U_KEYWORD_KEYWORD_MACRO_MEAN_COEC<5.00921e-05] yes=103,no=104,missing=104
						103:leaf=-0.227539
						104:leaf=0.0349271
					52:[U_KEYWORD_MACRO_MEAN_COEC<0.0301006] yes=105,no=106,missing=106
						105:leaf=0.0258639
						106:leaf=-0.0646355
				26:[D_KEYWORD_MICRO_MAX_COEC<0.129132] yes=53,no=54,missing=54
					53:[U_KEYWORD_MEAN_EC<1629.79] yes=107,no=108,missing=108
						107:leaf=0.0714246
						108:leaf=-0.056151
					54:[D_KEYWORD_MEAN_C<339.452] yes=109,no=110,missing=110
						109:leaf=0.048368
						110:leaf=0.000465114
		6:[D_TITLEMD5_C<91.1027] yes=13,no=14,missing=14
			13:[KW_REL<0.00265996] yes=27,no=28,missing=28
				27:[D_KEYWORD_MEAN_C<318.022] yes=55,no=56,missing=55
					55:[D_TITLEMD5_C<2.99175] yes=111,no=112,missing=112
						111:leaf=-0.0261447
						112:leaf=0.00725956
					56:[D_KEYWORD_MEAN_EC<5589.43] yes=113,no=114,missing=114
						113:leaf=-0.0238069
						114:leaf=-0.0521082
				28:[M_D_U_KEYWORD_KEYWORD_MICRO_MAX_COEC<0.1506] yes=57,no=58,missing=57
					57:[CAT_REL<0.031404] yes=115,no=116,missing=116
						115:leaf=-0.00217018
						116:leaf=0.0210928
					58:[M_D_U_KEYWORD_KEYWORD_MICRO_MAX_COEC<0.231477] yes=117,no=118,missing=118
						117:leaf=0.0341467
						118:leaf=0.0638928
			14:[C_D_U_TITLEMD5_CATEGORY_MICRO_MAX_COEC<0.292735] yes=29,no=30,missing=30
				29:[CAT_REL<0.001178] yes=59,no=60,missing=60
					59:[U_KEYWORD_MAX_C<36.191] yes=119,no=120,missing=120
						119:leaf=0.0187973
						120:leaf=-0.000664005
					60:[M_D_U_KEYWORD_KEYWORD_MICRO_MAX_COEC<0.19322] yes=121,no=122,missing=121
						121:leaf=0.0259838
						122:leaf=0.0461818
				30:[CAT_REL<0.001178] yes=61,no=62,missing=62
					61:[WORD_COUNT<920] yes=123,no=124,missing=124
						123:leaf=0.0170698
						124:leaf=0.0398911
					62:[C_D_U_TITLEMD5_CATEGORY_MICRO_MEAN_COEC<0.277294] yes=125,no=126,missing=126
						125:leaf=0.0454431
						126:leaf=0.0608333
booster[17]:
0:[C_D_U_TITLEMD5_CATEGORY_MICRO_MEAN_COEC<0.0885329] yes=1,no=2,missing=1
	1:[C_D_U_CATEGORY_CATEGORY_MICRO_MEAN_COEC<0.0571037] yes=3,no=4,missing=4
		3:[C_D_U_TITLEMD5_CATEGORY_MICRO_MEAN_COEC<0.028798] yes=7,no=8,missing=8
			7:[U_KEYWORD_MICRO_MAX_COEC<0.114447] yes=15,no=16,missing=16
				15:[U_CATEGORY_MACRO_MEAN_COEC<0.0491939] yes=31,no=32,missing=32
					31:[C_D_U_CATEGORY_CATEGORY_MICRO_MEAN_COEC<0.0448228] yes=63,no=64,missing=64
						63:leaf=-0.0614552
						64:leaf=-0.0371814
					32:[LARGE_IMAGE<0.999999] yes=65,no=66,missing=66
						65:leaf=-0.0720052
						66:leaf=-0.0606287
				16:[C_D_U_PUBLISHER_AGE_COEC<0.0976101] yes=33,no=34,missing=33
					33:[C_D_U_CATEGORY_CATEGORY_MICRO_MAX_COEC<0.0489509] yes=67,no=68,missing=68
						67:leaf=-0.0630812
						68:leaf=-0.0323748
					34:[C_D_U_PUBLISHER_AGE_C<819.36] yes=69,no=70,missing=70
						69:leaf=0.0471495
						70:leaf=-0.015346
			8:[U_CATEGORY_MEAN_EC<11489.8] yes=17,no=18,missing=18
				17:[CAT_REL<0.0353622] yes=35,no=36,missing=36
					35:[TIME_OF_DAY<13] yes=71,no=72,missing=72
						71:leaf=-0.0147471
						72:leaf=-0.0420183
					36:[C_D_U_TITLEMD5_CITY_C<2.92092] yes=73,no=74,missing=73
						73:leaf=-0.00267261
						74:leaf=0.0251488
				18:[U_KEYWORD_MICRO_MAX_COEC<0.11614] yes=37,no=38,missing=38
					37:[C_D_U_TITLEMD5_CATEGORY_MEAN_C<0.465035] yes=75,no=76,missing=76
						75:leaf=-0.0492178
						76:leaf=-0.0301872
					38:[DOC_AGE<15.9169] yes=77,no=78,missing=78
						77:leaf=-0.0211479
						78:leaf=0.0044375
		4:[D_TITLEMD5_COEC<0.0326484] yes=9,no=10,missing=10
			9:[U_CATEGORY_MEAN_EC<14341.5] yes=19,no=20,missing=20
				19:[U_CATEGORY_MICRO_MEAN_COEC<0.10185] yes=39,no=40,missing=40
					39:[CAT_REL<0.107483] yes=79,no=80,missing=80
						79:leaf=-0.0297042
						80:leaf=0.00498228
					40:[U_KEYWORD_MACRO_MAX_COEC<0.00110069] yes=81,no=82,missing=82
						81:leaf=0.0714968
						82:leaf=-0.00234783
				20:[U_KEYWORD_MACRO_MAX_COEC<0.00105079] yes=41,no=42,missing=42
					41:[C_D_U_KEYWORD_CATEGORY_MACRO_MEAN_COEC<0.0594504] yes=83,no=84,missing=84
						83:leaf=-0.0322144
						84:leaf=0.152538
					42:[D_KEYWORD_MEAN_EC<18.7419] yes=85,no=86,missing=86
						85:leaf=0.0365897
						86:leaf=-0.049527
			10:[U_KEYWORD_MACRO_MAX_COEC<0.00156317] yes=21,no=22,missing=22
				21:[CAT_REL<0.046004] yes=43,no=44,missing=44
					43:[DOC_AGE<2.96028] yes=87,no=88,missing=88
						87:leaf=0.0134539
						88:leaf=-0.0103026
					44:[DOC_AGE<1.22722] yes=89,no=90,missing=90
						89:leaf=0.0412561
						90:leaf=0.0120766
				22:[D_TITLEMD5_COEC<0.119136] yes=45,no=46,missing=45
					45:[U_KEYWORD_MICRO_MAX_COEC<0.113781] yes=91,no=92,missing=91
						91:leaf=-0.0214911
						92:leaf=-0.00646441
					46:[D_TITLEMD5_C<3.98005] yes=93,no=94,missing=94
						93:leaf=-0.0273128
						94:leaf=0.00530759
	2:[C_D_U_TITLEMD5_CATEGORY_MICRO_MEAN_COEC<0.156994] yes=5,no=6,missing=6
		5:[U_KEYWORD_MICRO_MEAN_COEC<0.0952515] yes=11,no=12,missing=12
			11:[D_CATEGORY_MAX_EC<85374.7] yes=23,no=24,missing=23
				23:[C_D_U_CATEGORY_CATEGORY_MICRO_MEAN_COEC<0.0643189] yes=47,no=48,missing=48
					47:[D_TITLEMD5_C<49.08] yes=95,no=96,missing=96
						95:leaf=-0.050985
						96:leaf=-0.011594
					48:[U_CATEGORY_MACRO_MEAN_COEC<0.0504926] yes=97,no=98,missing=98
						97:leaf=0.00777536
						98:leaf=-0.0076563
				24:[D_TITLEMD5_C<94.7368] yes=49,no=50,missing=50
					49:[D_TITLEMD5_COEC<0.115074] yes=99,no=100,missing=100
						99:leaf=-0.0447987
						100:leaf=-0.0171224
					50:[U_KEYWORD_MICRO_MEAN_COEC<0.0925436] yes=101,no=102,missing=102
						101:leaf=-0.0283864
						102:leaf=-0.00728577
			12:[U_KEYWORD_MACRO_MAX_COEC<0.00143662] yes=25,no=26,missing=26
				25:[D_TITLEMD5_COEC<0.101016] yes=51,no=52,missing=52
					51:[CAT_REL<0.0378521] yes=103,no=104,missing=104
						103:leaf=0.00114755
						104:leaf=0.0205579
					52:[U_KEYWORD_MEAN_C<121.606] yes=105,no=106,missing=106
						105:leaf=0.0129689
						106:leaf=0.0325811
				26:[KW_REL<0.00463225] yes=53,no=54,missing=54
					53:[D_TITLEMD5_EC<3354.68] yes=107,no=108,missing=108
						107:leaf=-0.00632116
						108:leaf=0.0129545
					54:[U_KEYWORD_MACRO_MAX_COEC<0.00474463] yes=109,no=110,missing=110
						109:leaf=0.0205889
						110:leaf=-0.0274241
		6:[D_TITLEMD5_C<46.649] yes=13,no=14,missing=14
			13:[CAT_REL<0.016142] yes=27,no=28,missing=28
				27:[D_KEYWORD_MACRO_MEAN_COEC<0.130587] yes=55,no=56,missing=55
					55:[C_D_U_TITLEMD5_CITY_C<1.21192] yes=111,no=112,missing=111
						111:leaf=-0.0311558
						112:leaf=-0.0027562
					56:[D_PUBLISHER_COEC<0.0824545] yes=113,no=114,missing=114
						113:leaf=-0.00609757
						114:leaf=0.0462527
				28:[KW_REL<0.00277196] yes=57,no=58,missing=58
					57:[U_KEYWORD_MACRO_MAX_COEC<0.00161585] yes=115,no=116,missing=116
						115:leaf=0.0150943
						116:leaf=-0.0158277
					58:[M_D_U_KEYWORD_KEYWORD_MICRO_MAX_COEC<0.176281] yes=117,no=118,missing=117
						117:leaf=0.0217257
						118:leaf=0.0491973
			14:[U_KEYWORD_MICRO_MEAN_COEC<0.0942922] yes=29,no=30,missing=30
				29:[U_KEYWORD_MEAN_C<6.97201] yes=59,no=60,missing=60
					59:[C_D_U_CATEGORY_CATEGORY_MEAN_C<2.69617] yes=119,no=120,missing=119
						119:leaf=0.0477266
						120:leaf=-0.0947841
					60:[D_CATEGORY_MEAN_EC<217669] yes=121,no=122,missing=121
						121:leaf=0.0152955
						122:leaf=-0.00713287
				30:[U_KEYWORD_MACRO_MAX_COEC<0.00146752] yes=61,no=62,missing=62
					61:[C_D_U_TITLEMD5_CATEGORY_MICRO_MEAN_COEC<0.23813] yes=123,no=124,missing=124
						123:leaf=0.0352262
						124:leaf=0.0524052
					62:[C_D_U_TITLEMD5_CATEGORY_MICRO_MEAN_COEC<0.252256] yes=125,no=126,missing=126
						125:leaf=0.020916
						126:leaf=0.039306
booster[18]:
0:[C_D_U_KEYWORD_CATEGORY_MICRO_MEAN_COEC<0.0929976] yes=1,no=2,missing=1
	1:[D_TITLEMD5_C<78.7245] yes=3,no=4,missing=3
		3:[C_D_U_KEYWORD_CATEGORY_MICRO_MEAN_COEC<0.0702977] yes=7,no=8,missing=7
			7:[IMAGE_COUNT<0.999999] yes=15,no=16,missing=16
				15:[D_TITLEMD5_C<5.75453] yes=31,no=32,missing=31
					31:[U_KEYWORD_MEAN_C<97.0966] yes=63,no=64,missing=63
						63:leaf=-0.0845779
						64:leaf=-0.0636076
					32:[DOC_AGE<15.735] yes=65,no=66,missing=66
						65:leaf=-0.0621375
						66:leaf=-0.0211729
				16:[D_KEYWORD_MICRO_MEAN_COEC<0.197311] yes=33,no=34,missing=34
					33:[C_D_U_CATEGORY_CITY_MICRO_MEAN_COEC<0.0867523] yes=67,no=68,missing=68
						67:leaf=-0.0377958
						68:leaf=-0.0213224
					34:[D_TITLEMD5_EC<2.80347] yes=69,no=70,missing=69
						69:leaf=-0.0092372
						70:leaf=0.0424221
			8:[C_D_U_TITLEMD5_CITY_C<0.975248] yes=17,no=18,missing=17
				17:[CAT_REL<0.032904] yes=35,no=36,missing=36
					35:[D_TITLEMD5_COEC<0.0802489] yes=71,no=72,missing=71
						71:leaf=-0.0377768
						72:leaf=-0.0178611
					36:[U_CATEGORY_MEAN_EC<16204.7] yes=73,no=74,missing=74
						73:leaf=-0.00542729
						74:leaf=-0.0305315
				18:[CAT_REL<0.0307] yes=37,no=38,missing=38
					37:[U_KEYWORD_MEAN_C<108.998] yes=75,no=76,missing=76
						75:leaf=-0.0231578
						76:leaf=-0.0031749
					38:[U_KEYWORD_MACRO_MAX_COEC<0.00188395] yes=77,no=78,missing=78
						77:leaf=0.0148764
						78:leaf=-0.00663423
		4:[CAT_REL<0.016245] yes=9,no=10,missing=10
			9:[D_TITLEMD5_COEC<0.119465] yes=19,no=20,missing=20
				19:[C_D_U_TITLEMD5_CITY_C<17.2062] yes=39,no=40,missing=40
					39:[C_D_U_TITLEMD5_CATEGORY_MICRO_MEAN_COEC<0.0681591] yes=79,no=80,missing=79
						79:leaf=-0.0263196
						80:leaf=-0.0117421
					40:[C_D_U_TITLEMD5_CATEGORY_MICRO_MEAN_COEC<0.05119] yes=81,no=82,missing=82
						81:leaf=-0.0311111
						82:leaf=-0.00430853
				20:[D_CATEGORY_MEAN_C<30436.8] yes=41,no=42,missing=41
					41:[C_D_U_TITLEMD5_CITY_COEC<0.140808] yes=83,no=84,missing=84
						83:leaf=0.000965473
						84:leaf=0.0143526
					42:[D_TITLEMD5_COEC<0.179453] yes=85,no=86,missing=86
						85:leaf=-0.0154648
						86:leaf=0.00436936
			10:[U_KEYWORD_MACRO_MAX_COEC<0.00236703] yes=21,no=22,missing=22
				21:[U_KEYWORD_MEAN_C<112.692] yes=43,no=44,missing=44
					43:[M_D_U_KEYWORD_KEYWORD_MACRO_MAX_COEC<1.54072e-05] yes=87,no=88,missing=87
						87:leaf=-0.014846
						88:leaf=0.00717462
					44:[TIME_OF_DAY<9] yes=89,no=90,missing=90
						89:leaf=0.0345694
						90:leaf=0.0140878
				22:[U_KEYWORD_MICRO_MAX_COEC<0.11804] yes=45,no=46,missing=46
					45:[C_D_U_TITLEMD5_CITY_COEC<0.0939495] yes=91,no=92,missing=91
						91:leaf=-0.0261063
						92:leaf=-0.00287728
					46:[U_AGE_C<86262.1] yes=93,no=94,missing=94
						93:leaf=0.0318358
						94:leaf=-0.00218595
	2:[C_D_U_TITLEMD5_CATEGORY_MICRO_MEAN_COEC<0.135451] yes=5,no=6,missing=6
		5:[U_KEYWORD_MACRO_MAX_COEC<0.00120648] yes=11,no=12,missing=12
			11:[U_KEYWORD_MICRO_MEAN_COEC<0.101951] yes=23,no=24,missing=24
				23:[U_CATEGORY_MAX_EC<720.886] yes=47,no=48,missing=48
					47:[U_CITY_EC<5692.54] yes=95,no=96,missing=96
						95:leaf=0.208293
						96:leaf=0.0646468
					48:[M_D_U_KEYWORD_KEYWORD_MICRO_MAX_COEC<0.22839] yes=97,no=98,missing=97
						97:leaf=0.0125926
						98:leaf=0.0801675
				24:[U_CATEGORY_MACRO_MAX_COEC<0.00866291] yes=49,no=50,missing=50
					49:[U_CATEGORY_MICRO_MEAN_COEC<0.106582] yes=99,no=100,missing=100
						99:leaf=0.0425368
						100:leaf=0.141173
					50:[TIME_OF_DAY<15] yes=101,no=102,missing=102
						101:leaf=0.0474693
						102:leaf=0.0194131
			12:[KW_REL<0.004497] yes=25,no=26,missing=26
				25:[WORD_COUNT<1386] yes=51,no=52,missing=52
					51:[D_KEYWORD_MAX_EC<872.785] yes=103,no=104,missing=104
						103:leaf=-0.00469468
						104:leaf=-0.0230222
					52:[D_TITLEMD5_C<13.4261] yes=105,no=106,missing=106
						105:leaf=-0.0151076
						106:leaf=0.00540964
				26:[M_D_U_KEYWORD_KEYWORD_MICRO_MAX_COEC<0.22839] yes=53,no=54,missing=53
					53:[U_KEYWORD_MACRO_MAX_COEC<0.00331732] yes=107,no=108,missing=108
						107:leaf=0.015053
						108:leaf=-0.0247779
					54:[C_D_U_TITLEMD5_CATEGORY_MAX_C<2.40696] yes=109,no=110,missing=110
						109:leaf=0.0561544
						110:leaf=-0.0211119
		6:[KW_REL<0.000394771] yes=13,no=14,missing=14
			13:[D_KEYWORD_MACRO_MEAN_COEC<0.101253] yes=27,no=28,missing=28
				27:[D_KEYWORD_MEAN_EC<2100.2] yes=55,no=56,missing=56
					55:[D_CATEGORY_MAX_C<9701.04] yes=111,no=112,missing=112
						111:leaf=0.000554962
						112:leaf=-0.0265755
					56:[C_D_U_TITLEMD5_GENDER_COEC<0.117809] yes=113,no=114,missing=113
						113:leaf=-0.0636662
						114:leaf=-0.0198683
				28:[C_D_U_TITLEMD5_CATEGORY_MICRO_MEAN_COEC<0.276891] yes=57,no=58,missing=58
					57:[D_CATEGORY_MAX_C<8973.25] yes=115,no=116,missing=115
						115:leaf=0.0127377
						116:leaf=-0.00333025
					58:[C_D_U_TITLEMD5_CATEGORY_MICRO_MEAN_COEC<0.329415] yes=117,no=118,missing=118
						117:leaf=0.0225363
						118:leaf=0.0449005
			14:[WORD_COUNT<1149] yes=29,no=30,missing=30
				29:[U_KEYWORD_MEAN_C<118.317] yes=59,no=60,missing=60
					59:[C_D_U_TITLEMD5_CATEGORY_MICRO_MEAN_COEC<0.20542] yes=119,no=120,missing=120
						119:leaf=-0.00287232
						120:leaf=0.0173764
					60:[D_TITLEMD5_COEC<0.149007] yes=121,no=122,missing=122
						121:leaf=0.0111644
						122:leaf=0.0295772
				30:[M_D_U_KEYWORD_KEYWORD_MICRO_MAX_COEC<0.147207] yes=61,no=62,missing=61
					61:[C_D_U_CATEGORY_CATEGORY_MICRO_MAX_COEC<0.162961] yes=123,no=124,missing=124
						123:leaf=0.0189904
						124:leaf=0.0341221
					62:[U_KEYWORD_MACRO_MEAN_COEC<0.033098] yes=125,no=126,missing=126
						125:leaf=0.0407472
						126:leaf=0.00848551
booster[19]:
0:[C_D_U_KEYWORD_CATEGORY_MICRO_MEAN_COEC<0.0892435] yes=1,no=2,missing=1
	1:[D_TITLEMD5_C<45.4055] yes=3,no=4,missing=3
		3:[D_TITLEMD5_COEC<0.0678656] yes=7,no=8,missing=7
			7:[C_D_U_CATEGORY_CATEGORY_MICRO_MAX_COEC<0.0871292] yes=15,no=16,missing=15
				15:[IMAGE_COUNT<0.999999] yes=31,no=32,missing=32
					31:[D_PUBLISHER_EC<3667.86] yes=63,no=64,missing=63
						63:leaf=-0.0763871
						64:leaf=-0.0561947
					32:[C_D_U_CATEGORY_CATEGORY_MICRO_MEAN_COEC<0.0486665] yes=65,no=66,missing=66
						65:leaf=-0.054438
						66:leaf=-0.0329745
				16:[U_CATEGORY_MEAN_EC<14647.2] yes=33,no=34,missing=34
					33:[CAT_REL<0.090365] yes=67,no=68,missing=68
						67:leaf=-0.0223504
						68:leaf=0.00423969
					34:[C_D_U_TITLEMD5_CATEGORY_MEAN_EC<2.60027] yes=69,no=70,missing=70
						69:leaf=-0.046229
						70:leaf=-0.0240165
			8:[KW_REL<0.000929342] yes=17,no=18,missing=18
				17:[D_KEYWORD_MICRO_MEAN_COEC<0.16851] yes=35,no=36,missing=36
					35:[C_D_U_CATEGORY_CITY_MICRO_MEAN_COEC<0.0852616] yes=71,no=72,missing=72
						71:leaf=-0.0353623
						72:leaf=-0.0142199
					36:[D_TITLEMD5_EC<7.58739] yes=73,no=74,missing=74
						73:leaf=0.00516301
						74:leaf=0.0438847
				18:[C_D_U_KEYWORD_CATEGORY_MEAN_EC<13.3044] yes=37,no=38,missing=37
					37:[KW_REL<0.00306972] yes=75,no=76,missing=76
						75:leaf=0.00332623
						76:leaf=0.0343444
					38:[KW_REL<0.00344848] yes=77,no=78,missing=78
						77:leaf=-0.0208714
						78:leaf=0.000411952
		4:[U_KEYWORD_MICRO_MEAN_COEC<0.092878] yes=9,no=10,missing=10
			9:[U_KEYWORD_MAX_EC<11.0391] yes=19,no=20,missing=20
				19:[C_D_U_CATEGORY_AGE_MAX_EC<126189] yes=39,no=40,missing=39
					39:[U_KEYWORD_MACRO_MEAN_COEC<0.0490526] yes=79,no=80,missing=80
						79:leaf=-0.103352
						80:leaf=-0.0457178
					40:[C_D_U_CATEGORY_CATEGORY_MICRO_MAX_COEC<0.122273] yes=81,no=82,missing=82
						81:leaf=0.223153
						82:leaf=-0.0414748
				20:[C_D_U_TITLEMD5_CATEGORY_MICRO_MEAN_COEC<0.0549468] yes=41,no=42,missing=42
					41:[D_KEYWORD_MEAN_C<349.554] yes=83,no=84,missing=84
						83:leaf=-0.0367033
						84:leaf=-0.0548304
					42:[IMAGE_COUNT<3] yes=85,no=86,missing=86
						85:leaf=-0.0232853
						86:leaf=0.00129117
			10:[CAT_REL<0.035072] yes=21,no=22,missing=22
				21:[D_TITLEMD5_COEC<0.0998579] yes=43,no=44,missing=44
					43:[D_TITLEMD5_C<295.287] yes=87,no=88,missing=88
						87:leaf=-0.0189096
						88:leaf=-0.00018398
					44:[C_D_U_TITLEMD5_CITY_COEC<0.168312] yes=89,no=90,missing=90
						89:leaf=-0.00432194
						90:leaf=0.0090654
				22:[U_CATEGORY_MEAN_EC<10846.5] yes=45,no=46,missing=46
					45:[D_TITLEMD5_C<216.161] yes=91,no=92,missing=92
						91:leaf=0.0173077
						92:leaf=0.0348854
					46:[U_KEYWORD_MICRO_MEAN_COEC<0.102332] yes=93,no=94,missing=94
						93:leaf=-0.00071352
						94:leaf=0.0264718
	2:[C_D_U_TITLEMD5_CATEGORY_MICRO_MEAN_COEC<0.13735] yes=5,no=6,missing=6
		5:[U_KEYWORD_MACRO_MAX_COEC<0.00121888] yes=11,no=12,missing=12
			11:[U_KEYWORD_MICRO_MEAN_COEC<0.101864] yes=23,no=24,missing=24
				23:[U_CATEGORY_MAX_EC<720.886] yes=47,no=48,missing=48
					47:[U_CITY_C<1022.54] yes=95,no=96,missing=96
						95:leaf=0.185616
						96:leaf=0.0559591
					48:[M_D_U_KEYWORD_KEYWORD_MICRO_MAX_COEC<0.210952] yes=97,no=98,missing=97
						97:leaf=0.00976244
						98:leaf=0.0645527
				24:[U_CATEGORY_MACRO_MAX_COEC<0.00881003] yes=49,no=50,missing=50
					49:[U_CATEGORY_MICRO_MEAN_COEC<0.106452] yes=99,no=100,missing=100
						99:leaf=0.0409622
						100:leaf=0.122773
					50:[TIME_OF_DAY<15] yes=101,no=102,missing=102
						101:leaf=0.0409482
						102:leaf=0.0173177
			12:[TIME_OF_DAY<11] yes=25,no=26,missing=26
				25:[U_KEYWORD_MEAN_C<114.625] yes=51,no=52,missing=52
					51:[M_D_U_KEYWORD_KEYWORD_MICRO_MAX_COEC<0.210952] yes=103,no=104,missing=103
						103:leaf=-0.0056722
						104:leaf=0.0436955
					52:[U_KEYWORD_MACRO_MAX_COEC<0.00230699] yes=105,no=106,missing=106
						105:leaf=0.0185113
						106:leaf=-0.00862953
				26:[M_D_U_KEYWORD_KEYWORD_MACRO_MEAN_COEC<0.000622888] yes=53,no=54,missing=53
					53:[C_D_U_TITLEMD5_CITY_C<0.96552] yes=107,no=108,missing=107
						107:leaf=-0.0175773
						108:leaf=-0.00360213
					54:[M_D_U_KEYWORD_KEYWORD_MICRO_MAX_COEC<0.235105] yes=109,no=110,missing=110
						109:leaf=0.0116608
						110:leaf=0.0470164
		6:[U_KEYWORD_MACRO_MAX_COEC<0.00182084] yes=13,no=14,missing=14
			13:[M_D_U_KEYWORD_KEYWORD_MICRO_MAX_COEC<0.147457] yes=27,no=28,missing=27
				27:[U_KEYWORD_MEAN_C<111.545] yes=55,no=56,missing=56
					55:[D_CATEGORY_MEAN_EC<89747.3] yes=111,no=112,missing=111
						111:leaf=0.0185961
						112:leaf=-0.00545612
					56:[C_D_U_TITLEMD5_CATEGORY_MACRO_MEAN_COEC<0.0714425] yes=113,no=114,missing=114
						113:leaf=0.00915143
						114:leaf=0.0290909
				28:[WORD_COUNT<1429] yes=57,no=58,missing=58
					57:[M_D_U_KEYWORD_KEYWORD_MACRO_MEAN_COEC<0.000150629] yes=115,no=116,missing=116
						115:leaf=0.0111286
						116:leaf=0.0316407
					58:[M_D_U_KEYWORD_KEYWORD_MICRO_MAX_COEC<0.210952] yes=117,no=118,missing=118
						117:leaf=0.0377585
						118:leaf=0.0541578
			14:[D_CATEGORY_MEAN_C<31795.6] yes=29,no=30,missing=29
				29:[M_D_U_KEYWORD_KEYWORD_MICRO_MAX_COEC<0.20273] yes=59,no=60,missing=59
					59:[C_D_U_CATEGORY_CATEGORY_MICRO_MEAN_COEC<0.126126] yes=119,no=120,missing=120
						119:leaf=0.00646944
						120:leaf=0.0218758
					60:[DOC_AGE<33.0444] yes=121,no=122,missing=122
						121:leaf=0.0428106
						122:leaf=0.000471686
				30:[CAT_REL<0.000787057] yes=61,no=62,missing=62
					61:[C_D_U_TITLEMD5_CITY_COEC<0.166172] yes=123,no=124,missing=123
						123:leaf=-0.0253536
						124:leaf=-0.000679287
					62:[C_D_U_TITLEMD5_CITY_C<21.6167] yes=125,no=126,missing=125
						125:leaf=-0.000589757
						126:leaf=0.0209014
booster[20]:
0:[C_D_U_TITLEMD5_CATEGORY_MICRO_MEAN_COEC<0.0858127] yes=1,no=2,missing=1
	1:[U_KEYWORD_MICRO_MEAN_COEC<0.0954003] yes=3,no=4,missing=4
		3:[D_KEYWORD_MEAN_EC<18.519] yes=7,no=8,missing=7
			7:[D_KEYWORD_MACRO_MEAN_COEC<0.111893] yes=15,no=16,missing=15
				15:[D_TITLEMD5_COEC<0.0713164] yes=31,no=32,missing=32
					31:[U_CATEGORY_MICRO_MAX_COEC<0.0885532] yes=63,no=64,missing=63
						63:leaf=-0.0105684
						64:leaf=0.13993
					32:[DOC_AGE<23.0067] yes=65,no=66,missing=66
						65:leaf=0.0722242
						66:leaf=-0.070313
				16:[IMAGE_COUNT<0.999999] yes=33,no=34,missing=34
					33:[D_KEYWORD_MACRO_MAX_COEC<0.0388259] yes=67,no=68,missing=68
						67:leaf=0.0204429
						68:leaf=-0.135221
					34:[U_CITY_COEC<0.108695] yes=69,no=70,missing=70
						69:leaf=0.0426799
						70:leaf=-0.0199153
			8:[U_KEYWORD_MICRO_MEAN_COEC<0.0925041] yes=17,no=18,missing=18
				17:[C_D_U_TITLEMD5_CATEGORY_MACRO_MEAN_COEC<0.0226314] yes=35,no=36,missing=36
					35:[KW_REL<0.00261447] yes=71,no=72,missing=72
						71:leaf=-0.0576256
						72:leaf=-0.0272298
					36:[U_KEYWORD_MEAN_C<2.68733] yes=73,no=74,missing=74
						73:leaf=-0.0820428
						74:leaf=-0.0323844
				18:[DAY_OF_WEEK<0.999999] yes=37,no=38,missing=38
					37:[CAT_REL<0.01999] yes=75,no=76,missing=76
						75:leaf=-0.0249642
						76:leaf=-0.001756
					38:[C_D_U_TITLEMD5_CITY_C<0.96552] yes=77,no=78,missing=77
						77:leaf=-0.0379363
						78:leaf=-0.0185601
		4:[IMAGE_COUNT<0.999999] yes=9,no=10,missing=10
			9:[C_D_U_TITLEMD5_CATEGORY_MICRO_MAX_COEC<0.0358901] yes=19,no=20,missing=19
				19:[U_CATEGORY_MICRO_MAX_COEC<0.118278] yes=39,no=40,missing=39
					39:[D_PUBLISHER_EC<3650.49] yes=79,no=80,missing=79
						79:leaf=-0.0760182
						80:leaf=-0.0530834
					40:[DOC_AGE<0.964443] yes=81,no=82,missing=82
						81:leaf=-0.00942268
						82:leaf=-0.0394816
				20:[U_CATEGORY_MAX_EC<4601.47] yes=41,no=42,missing=42
					41:[D_TITLEMD5_C<0.975248] yes=83,no=84,missing=84
						83:leaf=-0.0848912
						84:leaf=-0.00149973
					42:[C_D_U_CATEGORY_CATEGORY_MEAN_C<439.54] yes=85,no=86,missing=85
						85:leaf=-0.0453498
						86:leaf=0.000136635
			10:[M_D_U_KEYWORD_KEYWORD_MICRO_MAX_COEC<0.149142] yes=21,no=22,missing=21
				21:[D_TITLEMD5_C<295.54] yes=43,no=44,missing=44
					43:[DOC_AGE<1.66889] yes=87,no=88,missing=88
						87:leaf=0.004143
						88:leaf=-0.0151963
					44:[U_CATEGORY_MAX_EC<3456.5] yes=89,no=90,missing=90
						89:leaf=0.0231995
						90:leaf=0.000607331
				22:[M_D_U_KEYWORD_KEYWORD_MICRO_MAX_COEC<0.234923] yes=45,no=46,missing=46
					45:[DOC_AGE<0.964443] yes=91,no=92,missing=92
						91:leaf=0.0468716
						92:leaf=0.0114619
					46:[U_KEYWORD_MACRO_MAX_COEC<0.00132062] yes=93,no=94,missing=94
						93:leaf=0.0964967
						94:leaf=0.0495299
	2:[C_D_U_TITLEMD5_CITY_COEC<0.122142] yes=5,no=6,missing=5
		5:[M_D_U_KEYWORD_KEYWORD_MICRO_MAX_COEC<0.120952] yes=11,no=12,missing=11
			11:[U_KEYWORD_MICRO_MEAN_COEC<0.0960097] yes=23,no=24,missing=24
				23:[D_CATEGORY_MEAN_EC<150263] yes=47,no=48,missing=47
					47:[D_TITLEMD5_C<191.542] yes=95,no=96,missing=96
						95:leaf=-0.0187616
						96:leaf=0.000378971
					48:[D_TITLEMD5_EC<5964.59] yes=97,no=98,missing=98
						97:leaf=-0.0337741
						98:leaf=-0.00810781
				24:[C_D_U_KEYWORD_CATEGORY_MAX_EC<1.08547] yes=49,no=50,missing=49
					49:[KW_REL<0.000878961] yes=99,no=100,missing=100
						99:leaf=2.40903e-05
						100:leaf=0.0202777
					50:[D_TITLEMD5_EC<3529.35] yes=101,no=102,missing=102
						101:leaf=-0.00890338
						102:leaf=0.0100785
			12:[M_D_U_KEYWORD_KEYWORD_MICRO_MAX_COEC<0.234923] yes=25,no=26,missing=26
				25:[WORD_COUNT<1294] yes=51,no=52,missing=52
					51:[KW_REL<0.00379] yes=103,no=104,missing=104
						103:leaf=-0.00703459
						104:leaf=0.00882807
					52:[KW_REL<0.00465144] yes=105,no=106,missing=106
						105:leaf=0.0117267
						106:leaf=0.0261319
				26:[U_CATEGORY_MAX_EC<4120.32] yes=53,no=54,missing=54
					53:[M_D_U_KEYWORD_KEYWORD_MICRO_MAX_COEC<0.321582] yes=107,no=108,missing=108
						107:leaf=0.0464036
						108:leaf=0.0692908
					54:[DOC_AGE<18.8089] yes=109,no=110,missing=110
						109:leaf=0.0400243
						110:leaf=0.010683
		6:[U_KEYWORD_MEAN_C<112.646] yes=13,no=14,missing=14
			13:[D_CATEGORY_MEAN_EC<267255] yes=27,no=28,missing=27
				27:[M_D_U_KEYWORD_KEYWORD_MICRO_MAX_COEC<0.201424] yes=55,no=56,missing=55
					55:[C_D_U_CATEGORY_CITY_MACRO_MEAN_COEC<0.0924917] yes=111,no=112,missing=112
						111:leaf=0.00207962
						112:leaf=0.0159755
					56:[D_CATEGORY_MACRO_MEAN_COEC<0.0828532] yes=113,no=114,missing=114
						113:leaf=0.0577748
						114:leaf=0.0330624
				28:[C_D_U_TITLEMD5_CATEGORY_MICRO_MEAN_COEC<0.251698] yes=57,no=58,missing=58
					57:[U_KEYWORD_MICRO_MEAN_COEC<0.0965582] yes=115,no=116,missing=116
						115:leaf=-0.0200134
						116:leaf=0.00240674
					58:[D_CATEGORY_MACRO_MAX_COEC<0.11423] yes=117,no=118,missing=118
						117:leaf=-0.00129041
						118:leaf=0.027538
			14:[U_KEYWORD_MACRO_MAX_COEC<0.00225751] yes=29,no=30,missing=30
				29:[C_D_U_KEYWORD_CATEGORY_MICRO_MAX_COEC<0.289718] yes=59,no=60,missing=60
					59:[TIME_OF_DAY<10] yes=119,no=120,missing=120
						119:leaf=0.0318838
						120:leaf=0.016863
					60:[C_D_U_TITLEMD5_CATEGORY_MICRO_MEAN_COEC<0.274634] yes=121,no=122,missing=122
						121:leaf=0.0334828
						122:leaf=0.0495973
				30:[U_CATEGORY_MAX_EC<6435.09] yes=61,no=62,missing=62
					61:[CAT_REL<0.007057] yes=123,no=124,missing=124
						123:leaf=0.00635738
						124:leaf=0.0232149
					62:[C_D_U_TITLEMD5_AGE_COEC<0.159908] yes=125,no=126,missing=125
						125:leaf=-0.00584675
						126:leaf=0.0133695
booster[21]:
0:[C_D_U_KEYWORD_CATEGORY_MICRO_MEAN_COEC<0.0928985] yes=1,no=2,missing=1
	1:[D_TITLEMD5_C<15.7863] yes=3,no=4,missing=3
		3:[D_TITLEMD5_COEC<0.0579271] yes=7,no=8,missing=8
			7:[U_CATEGORY_MEAN_EC<12603] yes=15,no=16,missing=16
				15:[CAT_REL<0.105898] yes=31,no=32,missing=32
					31:[U_CITY_COEC<0.0986468] yes=63,no=64,missing=63
						63:leaf=-0.0314195
						64:leaf=0.00912038
					32:[C_D_U_CATEGORY_CITY_MACRO_MAX_COEC<0.0490345] yes=65,no=66,missing=65
						65:leaf=-0.015076
						66:leaf=0.013644
				16:[D_KEYWORD_MEAN_EC<18.1984] yes=33,no=34,missing=34
					33:[D_KEYWORD_MACRO_MEAN_COEC<0.112624] yes=67,no=68,missing=68
						67:leaf=0.0924341
						68:leaf=0.0119195
					34:[U_KEYWORD_MICRO_MAX_COEC<0.111421] yes=69,no=70,missing=70
						69:leaf=-0.0532692
						70:leaf=-0.0373612
			8:[IMAGE_COUNT<0.999999] yes=17,no=18,missing=18
				17:[C_D_U_TITLEMD5_CATEGORY_MEAN_EC<0.297116] yes=35,no=36,missing=35
					35:[DOC_AGE<0.775555] yes=71,no=72,missing=72
						71:leaf=-0.0535429
						72:leaf=-0.077396
					36:[U_CATEGORY_MEAN_EC<15907.9] yes=73,no=74,missing=74
						73:leaf=-0.0254368
						74:leaf=-0.0625254
				18:[C_D_U_CATEGORY_CATEGORY_MICRO_MAX_COEC<0.0952594] yes=37,no=38,missing=37
					37:[C_D_U_CATEGORY_CATEGORY_MICRO_MEAN_COEC<0.050185] yes=75,no=76,missing=76
						75:leaf=-0.0435939
						76:leaf=-0.0173403
					38:[DOC_AGE<1.23305] yes=77,no=78,missing=78
						77:leaf=0.0140293
						78:leaf=-0.00875253
		4:[CAT_REL<0.015768] yes=9,no=10,missing=10
			9:[D_TITLEMD5_COEC<0.0934697] yes=19,no=20,missing=20
				19:[D_TITLEMD5_C<412.446] yes=39,no=40,missing=40
					39:[C_D_U_CATEGORY_CITY_MACRO_MAX_COEC<0.0855158] yes=79,no=80,missing=80
						79:leaf=-0.0262442
						80:leaf=-0.0126224
					40:[TIME_OF_DAY<9] yes=81,no=82,missing=82
						81:leaf=0.0228764
						82:leaf=-0.00687412
				20:[C_D_U_TITLEMD5_CITY_COEC<0.134061] yes=41,no=42,missing=42
					41:[WORD_COUNT<1352] yes=83,no=84,missing=84
						83:leaf=-0.0182326
						84:leaf=-0.0044239
					42:[C_D_U_CATEGORY_GENDER_MEAN_EC<77107.6] yes=85,no=86,missing=85
						85:leaf=0.00564918
						86:leaf=-0.0173246
			10:[U_KEYWORD_MACRO_MAX_COEC<0.00230069] yes=21,no=22,missing=22
				21:[U_KEYWORD_MEAN_C<111.483] yes=43,no=44,missing=44
					43:[U_KEYWORD_MEAN_EC<69.1528] yes=87,no=88,missing=88
						87:leaf=-0.0981205
						88:leaf=-0.000570638
					44:[TIME_OF_DAY<9] yes=89,no=90,missing=90
						89:leaf=0.0258752
						90:leaf=0.00869162
				22:[U_KEYWORD_MICRO_MAX_COEC<0.114546] yes=45,no=46,missing=46
					45:[C_D_U_TITLEMD5_CITY_COEC<0.0917251] yes=91,no=92,missing=91
						91:leaf=-0.0279617
						92:leaf=-0.00680114
					46:[C_D_U_TITLEMD5_GENDER_COEC<0.11529] yes=93,no=94,missing=93
						93:leaf=-0.000979589
						94:leaf=0.0324351
	2:[C_D_U_TITLEMD5_CATEGORY_MICRO_MEAN_COEC<0.171466] yes=5,no=6,missing=6
		5:[U_KEYWORD_MACRO_MAX_COEC<0.00127364] yes=11,no=12,missing=12
			11:[U_KEYWORD_MICRO_MEAN_COEC<0.103482] yes=23,no=24,missing=24
				23:[TIME_OF_DAY<11] yes=47,no=48,missing=48
					47:[U_KEYWORD_MACRO_MAX_COEC<0.00110596] yes=95,no=96,missing=96
						95:leaf=0.0391239
						96:leaf=0.0166727
					48:[D_TITLEMD5_COEC<0.0679352] yes=97,no=98,missing=98
						97:leaf=-0.00966879
						98:leaf=0.0109675
				24:[U_KEYWORD_MACRO_MAX_COEC<0.00105079] yes=49,no=50,missing=50
					49:[U_KEYWORD_MICRO_MAX_COEC<0.116939] yes=99,no=100,missing=100
						99:leaf=0.0513612
						100:leaf=0.122482
					50:[U_CITY_COEC<0.0946112] yes=101,no=102,missing=101
						101:leaf=0.0205795
						102:leaf=0.0471366
			12:[KW_REL<0.00385895] yes=25,no=26,missing=26
				25:[C_D_U_KEYWORD_CATEGORY_MAX_C<0.645186] yes=51,no=52,missing=52
					51:[D_CATEGORY_MAX_C<46173.7] yes=103,no=104,missing=103
						103:leaf=0.00466499
						104:leaf=-0.0163809
					52:[D_TITLEMD5_EC<3928.83] yes=105,no=106,missing=106
						105:leaf=-0.0261382
						106:leaf=0.000105247
				26:[WORD_COUNT<1352] yes=53,no=54,missing=54
					53:[D_TITLEMD5_COEC<0.0645541] yes=107,no=108,missing=108
						107:leaf=-0.016646
						108:leaf=0.00801697
					54:[U_KEYWORD_MACRO_MEAN_COEC<0.031728] yes=109,no=110,missing=110
						109:leaf=0.0205583
						110:leaf=-0.00529813
		6:[CAT_REL<0.000725] yes=13,no=14,missing=14
			13:[D_TITLEMD5_COEC<0.128062] yes=27,no=28,missing=28
				27:[KW_REL<0.00129079] yes=55,no=56,missing=56
					55:[C_D_U_KEYWORD_CATEGORY_MAX_C<0.157444] yes=111,no=112,missing=112
						111:leaf=-0.0255211
						112:leaf=-0.0690927
					56:[D_TITLEMD5_C<15.7863] yes=113,no=114,missing=114
						113:leaf=-0.0412883
						114:leaf=0.00234208
				28:[U_KEYWORD_MEAN_C<128.643] yes=57,no=58,missing=58
					57:[D_CATEGORY_MEAN_EC<232425] yes=115,no=116,missing=115
						115:leaf=0.0142081
						116:leaf=-0.00212987
					58:[U_KEYWORD_MACRO_MAX_COEC<0.00238581] yes=117,no=118,missing=118
						117:leaf=0.0281111
						118:leaf=0.000319213
			14:[D_TITLEMD5_C<2] yes=29,no=30,missing=30
				29:[D_PUBLISHER_COEC<0.0554239] yes=59,no=60,missing=60
					59:[M_D_U_KEYWORD_KEYWORD_MACRO_MAX_COEC<0.000613809] yes=119,no=120,missing=120
						119:leaf=-0.0338283
						120:leaf=-0.109894
					60:[M_D_U_KEYWORD_KEYWORD_MEAN_C<0.0129143] yes=121,no=122,missing=121
						121:leaf=-0.0150896
						122:leaf=0.0150125
				30:[U_KEYWORD_MACRO_MAX_COEC<0.00299366] yes=61,no=62,missing=62
					61:[C_D_U_TITLEMD5_CATEGORY_MICRO_MEAN_COEC<0.248452] yes=123,no=124,missing=124
						123:leaf=0.0252468
						124:leaf=0.0405337
					62:[U_KEYWORD_MICRO_MAX_COEC<0.116939] yes=125,no=126,missing=126
						125:leaf=-0.00629171
						126:leaf=0.0207878
booster[22]:
0:[C_D_U_TITLEMD5_CATEGORY_MICRO_MEAN_COEC<0.127545] yes=1,no=2,missing=1
	1:[KW_REL<0.00213504] yes=3,no=4,missing=4
		3:[D_TITLEMD5_C<13.3795] yes=7,no=8,missing=7
			7:[D_KEYWORD_MEAN_EC<15.9508] yes=15,no=16,missing=15
				15:[D_KEYWORD_MACRO_MEAN_COEC<0.11512] yes=31,no=32,missing=31
					31:[D_CATEGORY_MACRO_MEAN_COEC<0.0752895] yes=63,no=64,missing=63
						63:leaf=0.0441865
						64:leaf=0.105253
					32:[D_TITLEMD5_EC<2.92141] yes=65,no=66,missing=65
						65:leaf=-0.00541306
						66:leaf=0.0353476
				16:[U_KEYWORD_MICRO_MAX_COEC<0.113783] yes=33,no=34,missing=33
					33:[IMAGE_COUNT<0.999999] yes=67,no=68,missing=68
						67:leaf=-0.0583642
						68:leaf=-0.0306553
					34:[DOC_AGE<1.37667] yes=69,no=70,missing=70
						69:leaf=0.00362608
						70:leaf=-0.0231957
			8:[D_KEYWORD_MEAN_EC<4352.12] yes=17,no=18,missing=17
				17:[U_KEYWORD_MICRO_MEAN_COEC<0.0959648] yes=35,no=36,missing=36
					35:[KW_REL<0.00055692] yes=71,no=72,missing=72
						71:leaf=-0.0240664
						72:leaf=-0.00840738
					36:[U_KEYWORD_MACRO_MAX_COEC<0.00152446] yes=73,no=74,missing=74
						73:leaf=0.010285
						74:leaf=-0.00350315
				18:[D_TITLEMD5_C<368.308] yes=37,no=38,missing=38
					37:[D_CATEGORY_MACRO_MAX_COEC<0.0824497] yes=75,no=76,missing=76
						75:leaf=-0.0343502
						76:leaf=-0.0148742
					38:[D_TITLEMD5_EC<12004.1] yes=77,no=78,missing=78
						77:leaf=-0.0108078
						78:leaf=0.00740395
		4:[C_D_U_KEYWORD_CATEGORY_MAX_EC<3.39559] yes=9,no=10,missing=9
			9:[C_D_U_KEYWORD_CATEGORY_MAX_EC<1.14124] yes=19,no=20,missing=19
				19:[DOC_AGE<3.52639] yes=39,no=40,missing=40
					39:[U_KEYWORD_MACRO_MAX_COEC<0.00109686] yes=79,no=80,missing=80
						79:leaf=0.0764343
						80:leaf=0.0404792
					40:[U_KEYWORD_MICRO_MEAN_COEC<0.102144] yes=81,no=82,missing=82
						81:leaf=0.0193664
						82:leaf=0.0384784
				20:[KW_REL<0.00336425] yes=41,no=42,missing=42
					41:[C_D_U_TITLEMD5_CATEGORY_MEAN_C<0.650985] yes=83,no=84,missing=84
						83:leaf=-0.0036469
						84:leaf=0.0143215
					42:[U_KEYWORD_MICRO_MEAN_COEC<0.101953] yes=85,no=86,missing=86
						85:leaf=0.0142397
						86:leaf=0.0319281
			10:[KW_REL<0.00470933] yes=21,no=22,missing=22
				21:[D_TITLEMD5_EC<2412.87] yes=43,no=44,missing=43
					43:[D_KEYWORD_MEAN_EC<6019.38] yes=87,no=88,missing=88
						87:leaf=-0.00881948
						88:leaf=-0.0306437
					44:[U_KEYWORD_MICRO_MEAN_COEC<0.100263] yes=89,no=90,missing=90
						89:leaf=-0.00238291
						90:leaf=0.0188825
				22:[U_KEYWORD_MACRO_MAX_COEC<0.00320518] yes=45,no=46,missing=46
					45:[M_D_U_KEYWORD_KEYWORD_MACRO_MEAN_COEC<0.000861223] yes=91,no=92,missing=91
						91:leaf=0.00574867
						92:leaf=0.0286754
					46:[U_KEYWORD_MICRO_MAX_COEC<0.1152] yes=93,no=94,missing=94
						93:leaf=-0.0341865
						94:leaf=-0.00191227
	2:[C_D_U_TITLEMD5_CITY_C<1.96032] yes=5,no=6,missing=5
		5:[M_D_U_KEYWORD_KEYWORD_MICRO_MAX_COEC<0.120926] yes=11,no=12,missing=11
			11:[C_D_U_CATEGORY_CATEGORY_MICRO_MAX_COEC<0.168549] yes=23,no=24,missing=24
				23:[D_TITLEMD5_C<5.68058] yes=47,no=48,missing=48
					47:[IMAGE_COUNT<0.999999] yes=95,no=96,missing=96
						95:leaf=-0.0770031
						96:leaf=-0.022306
					48:[CAT_REL<0.00074293] yes=97,no=98,missing=98
						97:leaf=-0.0116228
						98:leaf=0.00341856
				24:[D_CATEGORY_MEAN_EC<297359] yes=49,no=50,missing=49
					49:[U_CATEGORY_MICRO_MEAN_COEC<0.101679] yes=99,no=100,missing=100
						99:leaf=0.01482
						100:leaf=0.0376905
					50:[D_TITLEMD5_COEC<0.148163] yes=101,no=102,missing=102
						101:leaf=-0.0140482
						102:leaf=0.0169448
			12:[M_D_U_KEYWORD_KEYWORD_MICRO_MAX_COEC<0.228595] yes=25,no=26,missing=26
				25:[U_KEYWORD_MACRO_MAX_COEC<0.0028182] yes=51,no=52,missing=52
					51:[KW_REL<0.00532456] yes=103,no=104,missing=104
						103:leaf=0.0102864
						104:leaf=0.0268893
					52:[U_KEYWORD_MICRO_MAX_COEC<0.121531] yes=105,no=106,missing=106
						105:leaf=-0.0252363
						106:leaf=0.011193
				26:[U_CATEGORY_MAX_EC<5193.09] yes=53,no=54,missing=54
					53:[M_D_U_KEYWORD_KEYWORD_MICRO_MAX_COEC<0.329887] yes=107,no=108,missing=108
						107:leaf=0.0390555
						108:leaf=0.0597043
					54:[D_KEYWORD_MICRO_MEAN_COEC<0.101036] yes=109,no=110,missing=110
						109:leaf=0.0327782
						110:leaf=0.00373794
		6:[U_KEYWORD_MICRO_MEAN_COEC<0.095533] yes=13,no=14,missing=14
			13:[WORD_COUNT<984] yes=27,no=28,missing=28
				27:[D_CATEGORY_MAX_C<17058.2] yes=55,no=56,missing=55
					55:[DAY_OF_WEEK<0.999999] yes=111,no=112,missing=112
						111:leaf=0.0165755
						112:leaf=-0.00609827
					56:[U_KEYWORD_MEAN_C<126.006] yes=113,no=114,missing=114
						113:leaf=-0.0257404
						114:leaf=-0.00264646
				28:[U_KEYWORD_MICRO_MEAN_COEC<0.0918235] yes=57,no=58,missing=58
					57:[U_KEYWORD_MEAN_EC<69.1528] yes=115,no=116,missing=116
						115:leaf=-0.0563637
						116:leaf=-0.00192472
					58:[DAY_OF_WEEK<0.999999] yes=117,no=118,missing=118
						117:leaf=0.0195974
						118:leaf=0.00638095
			14:[U_KEYWORD_MACRO_MAX_COEC<0.00135777] yes=29,no=30,missing=30
				29:[C_D_U_TITLEMD5_CATEGORY_MACRO_MEAN_COEC<0.0691047] yes=59,no=60,missing=60
					59:[D_CATEGORY_MAX_EC<399652] yes=119,no=120,missing=119
						119:leaf=0.0225638
						120:leaf=-0.0054542
					60:[U_KEYWORD_MEAN_C<73.1831] yes=121,no=122,missing=122
						121:leaf=-0.028496
						122:leaf=0.0353411
				30:[TIME_OF_DAY<9] yes=61,no=62,missing=62
					61:[C_D_U_TITLEMD5_CITY_C<48.2382] yes=123,no=124,missing=124
						123:leaf=0.0196818
						124:leaf=0.0320826
					62:[CAT_REL<0.00074293] yes=125,no=126,missing=126
						125:leaf=0.00429985
						126:leaf=0.0175846
booster[23]:
0:[D_TITLEMD5_COEC<0.101106] yes=1,no=2,missing=1
	1:[CAT_REL<0.034924] yes=3,no=4,missing=4
		3:[D_TITLEMD5_C<19.9338] yes=7,no=8,missing=7
			7:[U_CATEGORY_MAX_EC<573.001] yes=15,no=16,missing=16
				15:[U_CITY_COEC<0.100417] yes=31,no=32,missing=31
					31:[U_AGE_EC<831306] yes=63,no=64,missing=63
						63:leaf=0.0711467
						64:leaf=-0.076128
					32:[C_D_U_KEYWORD_CATEGORY_MICRO_MEAN_COEC<0.0926586] yes=65,no=66,missing=66
						65:leaf=0.223583
						66:leaf=0.177161
				16:[C_D_U_TITLEMD5_CITY_C<0.990024] yes=33,no=34,missing=33
					33:[D_KEYWORD_MAX_EC<9.3868] yes=67,no=68,missing=67
						67:leaf=0.023646
						68:leaf=-0.0339157
					34:[U_KEYWORD_MICRO_MEAN_COEC<0.0997596] yes=69,no=70,missing=69
						69:leaf=-0.0202958
						70:leaf=0.00318472
			8:[TIME_OF_DAY<10] yes=17,no=18,missing=18
				17:[U_KEYWORD_MEAN_C<110.321] yes=35,no=36,missing=35
					35:[U_KEYWORD_MICRO_MAX_COEC<0.118479] yes=71,no=72,missing=71
						71:leaf=-0.0165203
						72:leaf=0.0107826
					36:[D_TITLEMD5_EC<3727.9] yes=73,no=74,missing=74
						73:leaf=0.00249796
						74:leaf=0.0313107
				18:[C_D_U_TITLEMD5_CATEGORY_MICRO_MEAN_COEC<0.0545567] yes=37,no=38,missing=38
					37:[U_KEYWORD_MEAN_C<137.802] yes=75,no=76,missing=76
						75:leaf=-0.0380191
						76:leaf=-0.0199413
					38:[D_CATEGORY_MEAN_EC<12598.2] yes=77,no=78,missing=77
						77:leaf=0.00666463
						78:leaf=-0.0156223
		4:[U_KEYWORD_MACRO_MAX_COEC<0.00245709] yes=9,no=10,missing=10
			9:[D_TITLEMD5_C<7.85701] yes=19,no=20,missing=20
				19:[DOC_AGE<1.15528] yes=39,no=40,missing=40
					39:[U_KEYWORD_MICRO_MEAN_COEC<0.0966597] yes=79,no=80,missing=80
						79:leaf=-0.0156226
						80:leaf=0.0169786
					40:[M_D_U_KEYWORD_KEYWORD_MICRO_MAX_COEC<0.166054] yes=81,no=82,missing=81
						81:leaf=-0.0198785
						82:leaf=0.0174905
				20:[TIME_OF_DAY<13] yes=41,no=42,missing=42
					41:[D_TITLEMD5_EC<6806.32] yes=83,no=84,missing=83
						83:leaf=0.0147132
						84:leaf=0.0490404
					42:[M_D_U_KEYWORD_KEYWORD_MICRO_MAX_COEC<0.146497] yes=85,no=86,missing=85
						85:leaf=-0.000726899
						86:leaf=0.0164693
			10:[U_KEYWORD_MICRO_MAX_COEC<0.118479] yes=21,no=22,missing=22
				21:[U_KEYWORD_MACRO_MAX_COEC<0.00366663] yes=43,no=44,missing=44
					43:[KW_REL<0.00309272] yes=87,no=88,missing=88
						87:leaf=-0.0272757
						88:leaf=-0.0035212
					44:[C_D_U_TITLEMD5_AGE_C<1.01683] yes=89,no=90,missing=89
						89:leaf=-0.0519121
						90:leaf=-0.0274225
				22:[U_CATEGORY_MEAN_EC<23063.3] yes=45,no=46,missing=46
					45:[U_KEYWORD_MICRO_MAX_COEC<0.24434] yes=91,no=92,missing=92
						91:leaf=0.00593408
						92:leaf=0.042714
					46:[TIME_OF_DAY<18] yes=93,no=94,missing=94
						93:leaf=-0.0120894
						94:leaf=-0.0477374
	2:[U_KEYWORD_MEAN_C<115.801] yes=5,no=6,missing=5
		5:[U_KEYWORD_MICRO_MAX_COEC<0.118479] yes=11,no=12,missing=11
			11:[D_CATEGORY_MEAN_EC<277696] yes=23,no=24,missing=23
				23:[D_TITLEMD5_C<2.995] yes=47,no=48,missing=48
					47:[C_D_U_CATEGORY_CATEGORY_MICRO_MAX_COEC<0.134399] yes=95,no=96,missing=95
						95:leaf=-0.0319823
						96:leaf=0.0174588
					48:[C_D_U_PUBLISHER_AGE_COEC<0.0911094] yes=97,no=98,missing=97
						97:leaf=0.00117735
						98:leaf=0.013626
				24:[D_TITLEMD5_COEC<0.176124] yes=49,no=50,missing=50
					49:[U_KEYWORD_MICRO_MEAN_COEC<0.0954722] yes=99,no=100,missing=100
						99:leaf=-0.032076
						100:leaf=-0.010772
					50:[D_KEYWORD_MICRO_MAX_COEC<0.220046] yes=101,no=102,missing=102
						101:leaf=-0.00251863
						102:leaf=0.0141855
			12:[C_D_U_KEYWORD_CATEGORY_MAX_EC<0.257603] yes=25,no=26,missing=26
				25:[C_D_U_TITLEMD5_CITY_EC<16.2835] yes=51,no=52,missing=52
					51:[D_KEYWORD_MACRO_MAX_COEC<0.0228704] yes=103,no=104,missing=104
						103:leaf=-0.00919501
						104:leaf=0.071428
					52:[C_D_U_CATEGORY_GENDER_MEAN_EC<70335.3] yes=105,no=106,missing=106
						105:leaf=0.0173653
						106:leaf=0.0484431
				26:[U_KEYWORD_MEAN_C<6.97201] yes=53,no=54,missing=54
					53:[U_KEYWORD_MACRO_MEAN_COEC<0.0272932] yes=107,no=108,missing=108
						107:leaf=-0.098799
						108:leaf=-0.0389858
					54:[WORD_COUNT<1579] yes=109,no=110,missing=110
						109:leaf=0.0111709
						110:leaf=0.0240382
		6:[U_KEYWORD_MAX_C<33.0275] yes=13,no=14,missing=14
			13:[TIME_OF_DAY<10] yes=27,no=28,missing=28
				27:[U_KEYWORD_MACRO_MAX_COEC<0.00117906] yes=55,no=56,missing=56
					55:[U_CITY_EC<118786] yes=111,no=112,missing=112
						111:leaf=0.0376744
						112:leaf=0.0524109
					56:[U_KEYWORD_MEAN_C<139.782] yes=113,no=114,missing=114
						113:leaf=0.0239591
						114:leaf=0.0366221
				28:[C_D_U_KEYWORD_CATEGORY_MICRO_MAX_COEC<0.252306] yes=57,no=58,missing=57
					57:[KW_REL<0.000444637] yes=115,no=116,missing=116
						115:leaf=-0.00701845
						116:leaf=0.0138345
					58:[U_KEYWORD_MACRO_MAX_COEC<0.00121131] yes=117,no=118,missing=118
						117:leaf=0.0358917
						118:leaf=0.0203453
			14:[U_KEYWORD_MACRO_MAX_COEC<0.00234437] yes=29,no=30,missing=30
				29:[C_D_U_CATEGORY_GENDER_MEAN_C<13162.2] yes=59,no=60,missing=59
					59:[C_D_U_TITLEMD5_CITY_COEC<0.159837] yes=119,no=120,missing=119
						119:leaf=0.00847305
						120:leaf=0.0216992
					60:[C_D_U_TITLEMD5_AGE_COEC<0.195419] yes=121,no=122,missing=121
						121:leaf=-0.0217192
						122:leaf=0.0130999
				30:[U_KEYWORD_MICRO_MAX_COEC<0.11992] yes=61,no=62,missing=62
					61:[C_D_U_TITLEMD5_CITY_COEC<0.11469] yes=123,no=124,missing=123
						123:leaf=-0.0212812
						124:leaf=-0.00331379
					62:[C_D_U_CATEGORY_AGE_MEAN_EC<120963] yes=125,no=126,missing=126
						125:leaf=0.0365592
						126:leaf=0.0059089
booster[24]:
0:[D_TITLEMD5_COEC<0.0866491] yes=1,no=2,missing=1
	1:[CAT_REL<0.046095] yes=3,no=4,missing=4
		3:[C_D_U_TITLEMD5_CITY_C<8.59773] yes=7,no=8,missing=7
			7:[U_KEYWORD_MACRO_MAX_COEC<0.00122078] yes=15,no=16,missing=16
				15:[U_CATEGORY_MICRO_MEAN_COEC<0.0996469] yes=31,no=32,missing=32
					31:[U_CATEGORY_MACRO_MEAN_COEC<0.025025] yes=63,no=64,missing=64
						63:leaf=0.124668
						64:leaf=-0.0158518
					32:[U_CITY_COEC<0.109199] yes=65,no=66,missing=65
						65:leaf=0.0142588
						66:leaf=0.114359
				16:[U_KEYWORD_MICRO_MAX_COEC<0.112961] yes=33,no=34,missing=34
					33:[D_TITLEMD5_C<28.7591] yes=67,no=68,missing=67
						67:leaf=-0.0379569
						68:leaf=-0.0244094
					34:[C_D_U_CATEGORY_CITY_MICRO_MEAN_COEC<0.088324] yes=69,no=70,missing=70
						69:leaf=-0.0253174
						70:leaf=-0.0108018
			8:[C_D_U_TITLEMD5_CITY_COEC<0.15839] yes=17,no=18,missing=18
				17:[U_KEYWORD_MICRO_MEAN_COEC<0.0966015] yes=35,no=36,missing=35
					35:[D_TITLEMD5_C<334.793] yes=71,no=72,missing=72
						71:leaf=-0.0190711
						72:leaf=0.00047112
					36:[TIME_OF_DAY<14] yes=73,no=74,missing=74
						73:leaf=0.0171968
						74:leaf=-0.00793801
				18:[U_CITY_C<13835.2] yes=37,no=38,missing=38
					37:[C_D_U_TITLEMD5_CATEGORY_MICRO_MEAN_COEC<0.0765483] yes=75,no=76,missing=75
						75:leaf=0.12267
						76:leaf=0.0723939
					38:[U_KEYWORD_MICRO_MEAN_COEC<0.0967849] yes=77,no=78,missing=77
						77:leaf=-0.0449002
						78:leaf=0.0386742
		4:[D_TITLEMD5_C<6.91557] yes=9,no=10,missing=10
			9:[DOC_AGE<0.54611] yes=19,no=20,missing=20
				19:[U_KEYWORD_MACRO_MAX_COEC<0.00207943] yes=39,no=40,missing=40
					39:[C_D_U_PUBLISHER_CITY_COEC<0.0712056] yes=79,no=80,missing=79
						79:leaf=0.0136086
						80:leaf=0.039189
					40:[U_KEYWORD_MICRO_MAX_COEC<0.112929] yes=81,no=82,missing=82
						81:leaf=-0.0360206
						82:leaf=0.00212603
				20:[U_CATEGORY_MEAN_EC<12516.3] yes=41,no=42,missing=42
					41:[CAT_REL<0.105667] yes=83,no=84,missing=84
						83:leaf=-0.0169535
						84:leaf=0.0105107
					42:[U_KEYWORD_MACRO_MAX_COEC<0.00105872] yes=85,no=86,missing=86
						85:leaf=0.0846685
						86:leaf=-0.0312754
			10:[U_KEYWORD_MACRO_MAX_COEC<0.00275652] yes=21,no=22,missing=22
				21:[TIME_OF_DAY<13] yes=43,no=44,missing=44
					43:[D_TITLEMD5_EC<4006.02] yes=87,no=88,missing=87
						87:leaf=0.0124812
						88:leaf=0.0413864
					44:[KW_REL<0.000764518] yes=89,no=90,missing=90
						89:leaf=-0.0193351
						90:leaf=0.0038007
				22:[U_KEYWORD_MICRO_MAX_COEC<0.117452] yes=45,no=46,missing=46
					45:[U_KEYWORD_MACRO_MAX_COEC<0.00469279] yes=91,no=92,missing=92
						91:leaf=-0.0211091
						92:leaf=-0.0442735
					46:[U_CATEGORY_MEAN_C<2364.69] yes=93,no=94,missing=94
						93:leaf=0.00623889
						94:leaf=-0.0284629
	2:[CAT_REL<0.00074293] yes=5,no=6,missing=6
		5:[C_D_U_TITLEMD5_CITY_COEC<0.169457] yes=11,no=12,missing=11
			11:[U_KEYWORD_MEAN_C<125.805] yes=23,no=24,missing=24
				23:[U_KEYWORD_MICRO_MAX_COEC<0.118865] yes=47,no=48,missing=48
					47:[D_CATEGORY_MEAN_EC<245049] yes=95,no=96,missing=95
						95:leaf=-0.00885448
						96:leaf=-0.025651
					48:[DOC_AGE<16.6625] yes=97,no=98,missing=98
						97:leaf=0.00114765
						98:leaf=0.0225309
				24:[U_KEYWORD_MAX_C<30.8062] yes=49,no=50,missing=50
					49:[TIME_OF_DAY<10] yes=99,no=100,missing=100
						99:leaf=0.0231708
						100:leaf=0.0061646
					50:[C_D_U_CATEGORY_CITY_MACRO_MAX_COEC<0.131711] yes=101,no=102,missing=102
						101:leaf=-0.0101778
						102:leaf=0.00656969
			12:[C_D_U_KEYWORD_CATEGORY_MICRO_MAX_COEC<0.306141] yes=25,no=26,missing=25
				25:[D_CATEGORY_MEAN_EC<268811] yes=51,no=52,missing=51
					51:[C_D_U_PUBLISHER_AGE_COEC<0.0962009] yes=103,no=104,missing=103
						103:leaf=0.00749516
						104:leaf=0.0194339
					52:[WORD_COUNT<972] yes=105,no=106,missing=106
						105:leaf=-0.00832769
						106:leaf=0.00488287
				26:[KW_REL<3.95679e-05] yes=53,no=54,missing=54
					53:[U_KEYWORD_MICRO_MAX_COEC<0.102076] yes=107,no=108,missing=108
						107:leaf=-0.0450928
						108:leaf=0.00299267
					54:[U_KEYWORD_MEAN_C<127.607] yes=109,no=110,missing=110
						109:leaf=0.0181025
						110:leaf=0.0309379
		6:[U_CATEGORY_MEAN_EC<13927] yes=13,no=14,missing=14
			13:[C_D_U_KEYWORD_CATEGORY_MICRO_MAX_COEC<0.260158] yes=27,no=28,missing=28
				27:[WORD_COUNT<2080] yes=55,no=56,missing=56
					55:[KW_REL<0.00425656] yes=111,no=112,missing=112
						111:leaf=0.00459302
						112:leaf=0.0218603
					56:[IMAGE_COUNT<0.999999] yes=113,no=114,missing=114
						113:leaf=-0.0462811
						114:leaf=0.0210458
				28:[WORD_COUNT<1697] yes=57,no=58,missing=58
					57:[D_TITLEMD5_COEC<0.185533] yes=115,no=116,missing=116
						115:leaf=0.0171537
						116:leaf=0.0338106
					58:[C_D_U_CATEGORY_CATEGORY_MICRO_MAX_COEC<0.138061] yes=117,no=118,missing=118
						117:leaf=0.0230057
						118:leaf=0.0389636
			14:[C_D_U_TITLEMD5_CITY_COEC<0.133859] yes=29,no=30,missing=29
				29:[U_KEYWORD_MICRO_MEAN_COEC<0.101908] yes=59,no=60,missing=60
					59:[U_AGE_COEC<0.0969585] yes=119,no=120,missing=120
						119:leaf=0.00632242
						120:leaf=-0.0105133
					60:[KW_REL<0.0053228] yes=121,no=122,missing=122
						121:leaf=0.00585425
						122:leaf=0.0296084
				30:[U_KEYWORD_MICRO_MAX_COEC<0.113213] yes=61,no=62,missing=62
					61:[IMAGE_COUNT<3] yes=123,no=124,missing=124
						123:leaf=0.00461603
						124:leaf=0.0307681
					62:[C_D_U_TITLEMD5_CITY_C<1.84595] yes=125,no=126,missing=126
						125:leaf=0.00622619
						126:leaf=0.0226312
booster[25]:
0:[C_D_U_KEYWORD_CATEGORY_MICRO_MAX_COEC<0.201844] yes=1,no=2,missing=1
	1:[D_TITLEMD5_C<4.3671] yes=3,no=4,missing=4
		3:[DOC_AGE<0.767777] yes=7,no=8,missing=8
			7:[CAT_REL<0.024005] yes=15,no=16,missing=16
				15:[D_PUBLISHER_COEC<0.0667098] yes=31,no=32,missing=32
					31:[C_D_U_CATEGORY_CATEGORY_MICRO_MEAN_COEC<0.124421] yes=63,no=64,missing=63
						63:leaf=-0.0446382
						64:leaf=0.0619452
					32:[D_PUBLISHER_C<13532] yes=65,no=66,missing=66
						65:leaf=-0.0158121
						66:leaf=-0.0685298
				16:[U_CATEGORY_MICRO_MAX_COEC<0.105042] yes=33,no=34,missing=34
					33:[IMAGE_COUNT<0.999999] yes=67,no=68,missing=68
						67:leaf=-0.0553984
						68:leaf=-0.00569178
					34:[D_PUBLISHER_C<990.604] yes=69,no=70,missing=70
						69:leaf=0.0018585
						70:leaf=0.0266766
			8:[C_D_U_PUBLISHER_CITY_COEC<0.0669874] yes=17,no=18,missing=18
				17:[U_KEYWORD_MICRO_MAX_COEC<0.111283] yes=35,no=36,missing=35
					35:[D_KEYWORD_MICRO_MEAN_COEC<0.162869] yes=71,no=72,missing=71
						71:leaf=-0.0519339
						72:leaf=0.0213359
					36:[U_CATEGORY_MAX_EC<5848.63] yes=73,no=74,missing=74
						73:leaf=-0.0272441
						74:leaf=-0.0465694
				18:[D_KEYWORD_MICRO_MEAN_COEC<0.150114] yes=37,no=38,missing=37
					37:[M_D_U_KEYWORD_KEYWORD_MICRO_MAX_COEC<0.159185] yes=75,no=76,missing=75
						75:leaf=-0.0275871
						76:leaf=0.00978101
					38:[DOC_AGE<33.0017] yes=77,no=78,missing=78
						77:leaf=0.0357187
						78:leaf=-0.046368
		4:[CAT_REL<0.047561] yes=9,no=10,missing=10
			9:[D_TITLEMD5_COEC<0.103785] yes=19,no=20,missing=19
				19:[D_TITLEMD5_C<121.711] yes=39,no=40,missing=39
					39:[DOC_AGE<1.45778] yes=79,no=80,missing=80
						79:leaf=-0.00262727
						80:leaf=-0.019861
					40:[TIME_OF_DAY<9] yes=81,no=82,missing=82
						81:leaf=0.00371854
						82:leaf=-0.0111664
				20:[D_KEYWORD_MICRO_MAX_COEC<0.218342] yes=41,no=42,missing=42
					41:[D_CATEGORY_MEAN_C<26939.5] yes=83,no=84,missing=83
						83:leaf=0.00237446
						84:leaf=-0.00800611
					42:[D_KEYWORD_MEAN_EC<645.208] yes=85,no=86,missing=85
						85:leaf=0.0424044
						86:leaf=0.0145972
			10:[U_KEYWORD_MACRO_MAX_COEC<0.00275089] yes=21,no=22,missing=22
				21:[TIME_OF_DAY<9] yes=43,no=44,missing=44
					43:[U_KEYWORD_MEAN_C<108.461] yes=87,no=88,missing=88
						87:leaf=0.00601367
						88:leaf=0.0222632
					44:[KW_REL<0.00555354] yes=89,no=90,missing=90
						89:leaf=8.97554e-05
						90:leaf=0.0186366
				22:[U_KEYWORD_MICRO_MAX_COEC<0.119993] yes=45,no=46,missing=46
					45:[C_D_U_TITLEMD5_AGE_C<25.7328] yes=91,no=92,missing=91
						91:leaf=-0.0261786
						92:leaf=-0.00657722
					46:[U_CATEGORY_MEAN_C<2346.45] yes=93,no=94,missing=94
						93:leaf=0.0148955
						94:leaf=-0.01437
	2:[KW_REL<0.000932967] yes=5,no=6,missing=6
		5:[D_TITLEMD5_COEC<0.111956] yes=11,no=12,missing=11
			11:[C_D_U_KEYWORD_CATEGORY_MAX_EC<1.13545] yes=23,no=24,missing=24
				23:[CAT_REL<0.024005] yes=47,no=48,missing=48
					47:[C_D_U_TITLEMD5_GENDER_COEC<0.108273] yes=95,no=96,missing=95
						95:leaf=-0.016558
						96:leaf=0.00672459
					48:[D_TITLEMD5_C<21.4532] yes=97,no=98,missing=97
						97:leaf=-0.00722355
						98:leaf=0.0135968
				24:[D_KEYWORD_MEAN_C<417.194] yes=49,no=50,missing=50
					49:[D_TITLEMD5_C<262.763] yes=99,no=100,missing=99
						99:leaf=-0.0277765
						100:leaf=-0.000362755
					50:[DOC_AGE<23.0697] yes=101,no=102,missing=102
						101:leaf=-0.056217
						102:leaf=-0.0143846
			12:[IMAGE_COUNT<3] yes=25,no=26,missing=26
				25:[C_D_U_KEYWORD_CATEGORY_MICRO_MEAN_COEC<0.170074] yes=51,no=52,missing=52
					51:[D_CATEGORY_MEAN_EC<84190.1] yes=103,no=104,missing=103
						103:leaf=0.00683076
						104:leaf=-0.00681533
					52:[C_D_U_TITLEMD5_CATEGORY_MICRO_MEAN_COEC<0.326288] yes=105,no=106,missing=106
						105:leaf=0.0114944
						106:leaf=0.0403975
				26:[D_TITLEMD5_COEC<0.170099] yes=53,no=54,missing=54
					53:[CAT_REL<0.00068] yes=107,no=108,missing=108
						107:leaf=-0.00146777
						108:leaf=0.0225208
					54:[U_KEYWORD_MICRO_MEAN_COEC<0.0906943] yes=109,no=110,missing=110
						109:leaf=0.000374002
						110:leaf=0.0346367
		6:[U_KEYWORD_MACRO_MAX_COEC<0.00122022] yes=13,no=14,missing=14
			13:[U_CITY_COEC<0.101164] yes=27,no=28,missing=27
				27:[D_TITLEMD5_COEC<0.0714104] yes=55,no=56,missing=56
					55:[CAT_REL<0.092116] yes=111,no=112,missing=112
						111:leaf=0.00227969
						112:leaf=0.0440158
					56:[D_CATEGORY_MAX_EC<397025] yes=113,no=114,missing=113
						113:leaf=0.0319135
						114:leaf=0.0112953
				28:[U_CATEGORY_MEAN_C<174.864] yes=57,no=58,missing=58
					57:[U_KEYWORD_MEAN_C<136.948] yes=115,no=116,missing=116
						115:leaf=0.171112
						116:leaf=-0.0198486
					58:[U_CATEGORY_MACRO_MEAN_COEC<0.025025] yes=117,no=118,missing=118
						117:leaf=0.219592
						118:leaf=0.043555
			14:[D_TITLEMD5_COEC<0.0746787] yes=29,no=30,missing=30
				29:[CAT_REL<0.052436] yes=59,no=60,missing=60
					59:[C_D_U_TITLEMD5_CITY_C<0.990024] yes=119,no=120,missing=119
						119:leaf=-0.0241331
						120:leaf=-0.00284171
					60:[D_KEYWORD_MACRO_MAX_COEC<0.0231739] yes=121,no=122,missing=122
						121:leaf=0.0122461
						122:leaf=-0.0102394
				30:[D_CATEGORY_MAX_EC<261386] yes=61,no=62,missing=61
					61:[M_D_U_KEYWORD_KEYWORD_MICRO_MAX_COEC<0.22607] yes=123,no=124,missing=123
						123:leaf=0.0147944
						124:leaf=0.0427261
					62:[D_TITLEMD5_COEC<0.144628] yes=125,no=126,missing=126
						125:leaf=-0.00366101
						126:leaf=0.0135022
booster[26]:
0:[C_D_U_KEYWORD_CATEGORY_MICRO_MEAN_COEC<0.0830941] yes=1,no=2,missing=1
	1:[D_TITLEMD5_C<116.638] yes=3,no=4,missing=3
		3:[C_D_U_KEYWORD_CATEGORY_MICRO_MEAN_COEC<0.063825] yes=7,no=8,missing=8
			7:[C_D_U_TITLEMD5_CITY_C<0.990024] yes=15,no=16,missing=15
				15:[U_KEYWORD_MICRO_MAX_COEC<0.114688] yes=31,no=32,missing=32
					31:[U_KEYWORD_MEAN_C<116.335] yes=63,no=64,missing=64
						63:leaf=-0.0496668
						64:leaf=-0.0317617
					32:[C_D_U_CATEGORY_CATEGORY_MICRO_MAX_COEC<0.0886226] yes=65,no=66,missing=66
						65:leaf=-0.0290107
						66:leaf=-0.00680148
				16:[U_CATEGORY_MACRO_MEAN_COEC<0.0460496] yes=33,no=34,missing=34
					33:[DOC_AGE<19.7169] yes=67,no=68,missing=68
						67:leaf=-0.00779035
						68:leaf=0.0271642
					34:[C_D_U_CATEGORY_CATEGORY_MICRO_MEAN_COEC<0.0807182] yes=69,no=70,missing=70
						69:leaf=-0.0258173
						70:leaf=0.00915473
			8:[IMAGE_COUNT<0.999999] yes=17,no=18,missing=18
				17:[C_D_U_KEYWORD_CATEGORY_MAX_EC<1.8118] yes=35,no=36,missing=36
					35:[C_D_U_TITLEMD5_CITY_C<1.98502] yes=71,no=72,missing=71
						71:leaf=-0.0304149
						72:leaf=0.0219859
					36:[D_TITLEMD5_C<4.61556] yes=73,no=74,missing=73
						73:leaf=-0.062748
						74:leaf=-0.0355783
				18:[D_TITLEMD5_COEC<0.0825107] yes=37,no=38,missing=37
					37:[DOC_AGE<1.6825] yes=75,no=76,missing=76
						75:leaf=-0.000238946
						76:leaf=-0.0168039
					38:[U_KEYWORD_MACRO_MAX_COEC<0.00172199] yes=77,no=78,missing=78
						77:leaf=0.00755553
						78:leaf=-0.00639749
		4:[C_D_U_TITLEMD5_CATEGORY_MICRO_MEAN_COEC<0.04751] yes=9,no=10,missing=10
			9:[TIME_OF_DAY<10] yes=19,no=20,missing=20
				19:[U_KEYWORD_MEAN_C<116.335] yes=39,no=40,missing=40
					39:[U_KEYWORD_MAX_EC<283.395] yes=79,no=80,missing=80
						79:leaf=-0.0297164
						80:leaf=0.000382145
					40:[U_CATEGORY_MICRO_MAX_COEC<0.116054] yes=81,no=82,missing=82
						81:leaf=-0.000533764
						82:leaf=0.0492855
				20:[DOC_AGE<22.4458] yes=41,no=42,missing=42
					41:[U_KEYWORD_MICRO_MAX_COEC<0.111516] yes=83,no=84,missing=84
						83:leaf=-0.044598
						84:leaf=-0.0228775
					42:[U_AGE_EC<863135] yes=85,no=86,missing=85
						85:leaf=-0.0115066
						86:leaf=0.0626907
			10:[U_KEYWORD_MEAN_C<119.424] yes=21,no=22,missing=21
				21:[C_D_U_TITLEMD5_CITY_COEC<0.14644] yes=43,no=44,missing=44
					43:[IMAGE_COUNT<3] yes=87,no=88,missing=88
						87:leaf=-0.0108826
						88:leaf=0.00672527
					44:[C_D_U_TITLEMD5_GENDER_COEC<0.13044] yes=89,no=90,missing=90
						89:leaf=-0.0162847
						90:leaf=0.00656615
				22:[U_KEYWORD_MACRO_MAX_COEC<0.00211461] yes=45,no=46,missing=46
					45:[TIME_OF_DAY<10] yes=91,no=92,missing=92
						91:leaf=0.0257958
						92:leaf=0.00736891
					46:[U_KEYWORD_MICRO_MAX_COEC<0.115192] yes=93,no=94,missing=94
						93:leaf=-0.0127207
						94:leaf=0.0140054
	2:[TIME_OF_DAY<10] yes=5,no=6,missing=6
		5:[U_KEYWORD_MEAN_C<111.755] yes=11,no=12,missing=12
			11:[M_D_U_KEYWORD_KEYWORD_MICRO_MAX_COEC<0.19044] yes=23,no=24,missing=23
				23:[C_D_U_TITLEMD5_GENDER_COEC<0.112943] yes=47,no=48,missing=47
					47:[C_D_U_KEYWORD_CATEGORY_MAX_EC<0.253352] yes=95,no=96,missing=96
						95:leaf=0.0340915
						96:leaf=-0.00299423
					48:[CAT_REL<0.011894] yes=97,no=98,missing=98
						97:leaf=0.00678722
						98:leaf=0.0220734
				24:[M_D_U_KEYWORD_KEYWORD_MICRO_MAX_COEC<0.312622] yes=49,no=50,missing=50
					49:[U_KEYWORD_MACRO_MAX_COEC<0.00158] yes=99,no=100,missing=100
						99:leaf=0.0349657
						100:leaf=0.0113241
					50:[D_KEYWORD_MACRO_MEAN_COEC<0.102343] yes=101,no=102,missing=102
						101:leaf=0.0711747
						102:leaf=0.031457
			12:[U_KEYWORD_MACRO_MAX_COEC<0.00227771] yes=25,no=26,missing=26
				25:[C_D_U_TITLEMD5_CITY_C<21.215] yes=51,no=52,missing=51
					51:[U_KEYWORD_MACRO_MAX_COEC<0.00112064] yes=103,no=104,missing=104
						103:leaf=0.0392257
						104:leaf=0.0138754
					52:[U_KEYWORD_MACRO_MAX_COEC<0.00116353] yes=105,no=106,missing=106
						105:leaf=0.0516693
						106:leaf=0.0293311
				26:[C_D_U_TITLEMD5_AGE_C<4.95025] yes=53,no=54,missing=53
					53:[D_TITLEMD5_EC<6472.48] yes=107,no=108,missing=107
						107:leaf=-0.011711
						108:leaf=0.0105252
					54:[U_KEYWORD_MICRO_MAX_COEC<0.119277] yes=109,no=110,missing=110
						109:leaf=0.00593945
						110:leaf=0.0322899
		6:[M_D_U_KEYWORD_KEYWORD_MICRO_MAX_COEC<0.151154] yes=13,no=14,missing=13
			13:[U_KEYWORD_MEAN_C<129.089] yes=27,no=28,missing=28
				27:[D_KEYWORD_MEAN_EC<2367.86] yes=55,no=56,missing=56
					55:[D_TITLEMD5_C<6.94522] yes=111,no=112,missing=112
						111:leaf=-0.0176904
						112:leaf=0.00176521
					56:[KW_REL<0.0043039] yes=113,no=114,missing=114
						113:leaf=-0.0173798
						114:leaf=0.000209385
				28:[D_TITLEMD5_COEC<0.108476] yes=57,no=58,missing=57
					57:[CAT_REL<0.023892] yes=115,no=116,missing=116
						115:leaf=-0.0103833
						116:leaf=0.00326694
					58:[U_KEYWORD_MAX_EC<512.999] yes=117,no=118,missing=118
						117:leaf=0.0150325
						118:leaf=-0.0154683
			14:[M_D_U_KEYWORD_KEYWORD_MICRO_MAX_COEC<0.228172] yes=29,no=30,missing=30
				29:[DOC_AGE<5.28111] yes=59,no=60,missing=60
					59:[KW_REL<0.0056561] yes=119,no=120,missing=120
						119:leaf=0.0155373
						120:leaf=0.0347349
					60:[C_D_U_TITLEMD5_CATEGORY_MICRO_MEAN_COEC<0.174278] yes=121,no=122,missing=122
						121:leaf=0.00101915
						122:leaf=0.0170427
				30:[DOC_AGE<10.4636] yes=61,no=62,missing=62
					61:[D_CATEGORY_MEAN_C<23135] yes=123,no=124,missing=123
						123:leaf=0.0482794
						124:leaf=0.0195736
					62:[U_CATEGORY_MAX_EC<3791.94] yes=125,no=126,missing=126
						125:leaf=0.0295193
						126:leaf=0.00714258
booster[27]:
0:[C_D_U_TITLEMD5_CITY_COEC<0.0994003] yes=1,no=2,missing=1
	1:[KW_REL<0.0024036] yes=3,no=4,missing=4
		3:[D_TITLEMD5_C<2.995] yes=7,no=8,missing=7
			7:[D_KEYWORD_MEAN_EC<18.7419] yes=15,no=16,missing=15
				15:[D_KEYWORD_MACRO_MEAN_COEC<0.110686] yes=31,no=32,missing=31
					31:[D_PUBLISHER_COEC<0.0629039] yes=63,no=64,missing=64
						63:leaf=-0.00667355
						64:leaf=0.0843641
					32:[DOC_AGE<32.9097] yes=65,no=66,missing=66
						65:leaf=0.0234443
						66:leaf=-0.0260936
				16:[DOC_AGE<1.00028] yes=33,no=34,missing=34
					33:[U_CATEGORY_MICRO_MAX_COEC<0.1025] yes=67,no=68,missing=67
						67:leaf=-0.0265131
						68:leaf=0.000835222
					34:[DOC_AGE<76.0681] yes=69,no=70,missing=70
						69:leaf=-0.0377285
						70:leaf=-0.011379
			8:[D_KEYWORD_MEAN_EC<4356.53] yes=17,no=18,missing=17
				17:[U_KEYWORD_MICRO_MEAN_COEC<0.0926033] yes=35,no=36,missing=36
					35:[D_KEYWORD_MICRO_MAX_COEC<0.282943] yes=71,no=72,missing=72
						71:leaf=-0.0258625
						72:leaf=0.0324796
					36:[U_KEYWORD_MACRO_MAX_COEC<0.00156364] yes=73,no=74,missing=74
						73:leaf=0.00550654
						74:leaf=-0.00577773
				18:[C_D_U_TITLEMD5_CATEGORY_MEAN_EC<16.2359] yes=37,no=38,missing=38
					37:[D_KEYWORD_MEAN_C<447.981] yes=75,no=76,missing=76
						75:leaf=-0.0215126
						76:leaf=-0.0399432
					38:[U_CITY_COEC<0.0976206] yes=77,no=78,missing=78
						77:leaf=-0.0195669
						78:leaf=-0.00296355
		4:[C_D_U_KEYWORD_CATEGORY_MAX_EC<1.71618] yes=9,no=10,missing=10
			9:[CAT_REL<0.094206] yes=19,no=20,missing=20
				19:[U_KEYWORD_MACRO_MAX_COEC<0.00116353] yes=39,no=40,missing=40
					39:[U_CITY_COEC<0.11087] yes=79,no=80,missing=79
						79:leaf=0.0312404
						80:leaf=0.0951036
					40:[D_CATEGORY_MAX_C<5165.93] yes=81,no=82,missing=82
						81:leaf=0.00268653
						82:leaf=0.0174308
				20:[DOC_AGE<10.49] yes=41,no=42,missing=42
					41:[U_KEYWORD_MACRO_MAX_COEC<0.00187548] yes=83,no=84,missing=84
						83:leaf=0.0560533
						84:leaf=0.0213865
					42:[D_TITLEMD5_COEC<0.11404] yes=85,no=86,missing=86
						85:leaf=0.0297874
						86:leaf=-0.00226772
			10:[M_D_U_KEYWORD_KEYWORD_MICRO_MAX_COEC<0.147075] yes=21,no=22,missing=21
				21:[U_KEYWORD_MICRO_MAX_COEC<0.111855] yes=43,no=44,missing=44
					43:[D_TITLEMD5_COEC<0.0578173] yes=87,no=88,missing=88
						87:leaf=-0.0266173
						88:leaf=-0.00826892
					44:[KW_REL<0.00496976] yes=89,no=90,missing=90
						89:leaf=-0.00230026
						90:leaf=0.0107611
				22:[M_D_U_KEYWORD_KEYWORD_MICRO_MAX_COEC<0.310097] yes=45,no=46,missing=46
					45:[WORD_COUNT<1412] yes=91,no=92,missing=92
						91:leaf=0.00219811
						92:leaf=0.0176345
					46:[C_D_U_TITLEMD5_CATEGORY_MACRO_MEAN_COEC<0.0248458] yes=93,no=94,missing=94
						93:leaf=0.0950341
						94:leaf=0.0459753
	2:[U_KEYWORD_MICRO_MEAN_COEC<0.0992831] yes=5,no=6,missing=5
		5:[WORD_COUNT<978] yes=11,no=12,missing=12
			11:[D_CATEGORY_MAX_C<27188.7] yes=23,no=24,missing=23
				23:[DAY_OF_WEEK<0.999999] yes=47,no=48,missing=48
					47:[U_KEYWORD_MICRO_MEAN_COEC<0.0926033] yes=95,no=96,missing=96
						95:leaf=-0.00608749
						96:leaf=0.0175977
					48:[C_D_U_CATEGORY_CITY_MAX_EC<7930.01] yes=97,no=98,missing=98
						97:leaf=-0.0106949
						98:leaf=0.00324776
				24:[U_KEYWORD_MICRO_MAX_COEC<0.146238] yes=49,no=50,missing=49
					49:[DAY_OF_WEEK<2] yes=99,no=100,missing=100
						99:leaf=-0.00809117
						100:leaf=-0.0210097
					50:[U_KEYWORD_MICRO_MEAN_COEC<0.0920052] yes=101,no=102,missing=102
						101:leaf=-0.0205513
						102:leaf=0.0337652
			12:[C_D_U_TITLEMD5_AGE_COEC<0.119344] yes=25,no=26,missing=25
				25:[CAT_REL<0.009551] yes=51,no=52,missing=52
					51:[D_TITLEMD5_COEC<0.200317] yes=103,no=104,missing=104
						103:leaf=-0.00408942
						104:leaf=0.0118509
					52:[U_CATEGORY_MEAN_EC<11542] yes=105,no=106,missing=106
						105:leaf=0.0176087
						106:leaf=0.00219301
				26:[U_AGE_COEC<0.0969585] yes=53,no=54,missing=54
					53:[U_KEYWORD_MICRO_MEAN_COEC<0.0949994] yes=107,no=108,missing=108
						107:leaf=0.00989311
						108:leaf=0.0235246
					54:[U_KEYWORD_MACRO_MEAN_COEC<0.0249952] yes=109,no=110,missing=110
						109:leaf=-0.0104205
						110:leaf=0.0108659
		6:[U_KEYWORD_MACRO_MAX_COEC<0.00143805] yes=13,no=14,missing=14
			13:[D_KEYWORD_MAX_EC<941.642] yes=27,no=28,missing=28
				27:[KW_REL<0.00127876] yes=55,no=56,missing=56
					55:[U_KEYWORD_MEAN_EC<773.551] yes=111,no=112,missing=112
						111:leaf=-0.0462278
						112:leaf=0.023927
					56:[DOC_AGE<9.44417] yes=113,no=114,missing=114
						113:leaf=0.0432205
						114:leaf=0.02966
				28:[KW_REL<0.00195561] yes=57,no=58,missing=58
					57:[D_KEYWORD_MEAN_EC<4522.61] yes=115,no=116,missing=116
						115:leaf=0.0119307
						116:leaf=-0.0183215
					58:[D_CATEGORY_MICRO_MAX_COEC<0.116292] yes=117,no=118,missing=117
						117:leaf=0.0272302
						118:leaf=0.0123267
			14:[TIME_OF_DAY<9] yes=29,no=30,missing=30
				29:[C_D_U_TITLEMD5_CITY_C<9.88591] yes=59,no=60,missing=60
					59:[M_D_U_KEYWORD_KEYWORD_MACRO_MEAN_COEC<0.000585655] yes=119,no=120,missing=119
						119:leaf=0.00936275
						120:leaf=0.0326504
					60:[U_KEYWORD_MAX_C<45.1831] yes=121,no=122,missing=122
						121:leaf=0.0255179
						122:leaf=0.00402398
				30:[M_D_U_KEYWORD_KEYWORD_MACRO_MEAN_COEC<0.000658631] yes=61,no=62,missing=61
					61:[D_TITLEMD5_COEC<0.110523] yes=123,no=124,missing=124
						123:leaf=-0.0018176
						124:leaf=0.0103923
					62:[DOC_AGE<12.6361] yes=125,no=126,missing=126
						125:leaf=0.0324854
						126:leaf=0.00741753
booster[28]:
0:[D_TITLEMD5_COEC<0.103969] yes=1,no=2,missing=1
	1:[KW_REL<0.00159557] yes=3,no=4,missing=4
		3:[D_KEYWORD_MEAN_C<315.408] yes=7,no=8,missing=7
			7:[D_TITLEMD5_C<15.6984] yes=15,no=16,missing=15
				15:[U_CATEGORY_MEAN_EC<14347.3] yes=31,no=32,missing=31
					31:[C_D_U_CATEGORY_CITY_MACRO_MAX_COEC<0.0584769] yes=63,no=64,missing=64
						63:leaf=-0.0267835
						64:leaf=-0.00985101
					32:[U_KEYWORD_MICRO_MAX_COEC<0.121891] yes=65,no=66,missing=66
						65:leaf=-0.034517
						66:leaf=-0.00102289
				16:[D_KEYWORD_MEAN_C<129.154] yes=33,no=34,missing=33
					33:[KW_REL<0.000579269] yes=67,no=68,missing=68
						67:leaf=-0.00425352
						68:leaf=0.013458
					34:[IMAGE_COUNT<3] yes=69,no=70,missing=70
						69:leaf=-0.0124927
						70:leaf=0.00991419
			8:[C_D_U_TITLEMD5_CATEGORY_MEAN_EC<20.0941] yes=17,no=18,missing=18
				17:[D_CATEGORY_MACRO_MEAN_COEC<0.124282] yes=35,no=36,missing=36
					35:[U_KEYWORD_MICRO_MAX_COEC<0.123563] yes=71,no=72,missing=72
						71:leaf=-0.0398682
						72:leaf=-0.0114432
					36:[U_KEYWORD_MICRO_MEAN_COEC<0.100351] yes=73,no=74,missing=74
						73:leaf=-0.00898574
						74:leaf=0.0436401
				18:[D_TITLEMD5_EC<11212.5] yes=37,no=38,missing=37
					37:[U_CITY_COEC<0.091509] yes=75,no=76,missing=76
						75:leaf=-0.0285873
						76:leaf=-0.0102621
					38:[D_KEYWORD_MEAN_EC<5051.48] yes=77,no=78,missing=78
						77:leaf=0.0330401
						78:leaf=-0.00534279
		4:[C_D_U_KEYWORD_CATEGORY_MAX_EC<1.39046] yes=9,no=10,missing=9
			9:[CAT_REL<0.092748] yes=19,no=20,missing=20
				19:[C_D_U_KEYWORD_CATEGORY_MAX_EC<0.670566] yes=39,no=40,missing=40
					39:[U_KEYWORD_MACRO_MAX_COEC<0.00110599] yes=79,no=80,missing=80
						79:leaf=0.0422186
						80:leaf=0.0184269
					40:[U_KEYWORD_MICRO_MEAN_COEC<0.101092] yes=81,no=82,missing=82
						81:leaf=0.000938888
						82:leaf=0.0163521
				20:[KW_REL<0.00328408] yes=41,no=42,missing=42
					41:[C_D_U_KEYWORD_CATEGORY_MEAN_EC<6.99454] yes=83,no=84,missing=84
						83:leaf=0.0374484
						84:leaf=0.0205469
					42:[U_KEYWORD_MACRO_MAX_COEC<0.00128638] yes=85,no=86,missing=86
						85:leaf=0.0756407
						86:leaf=0.0429598
			10:[KW_REL<0.00461773] yes=21,no=22,missing=22
				21:[D_KEYWORD_MEAN_C<564.654] yes=43,no=44,missing=44
					43:[C_D_U_TITLEMD5_CITY_C<2.94077] yes=87,no=88,missing=87
						87:leaf=-0.00767415
						88:leaf=0.00773658
					44:[D_TITLEMD5_C<162.672] yes=89,no=90,missing=90
						89:leaf=-0.0336798
						90:leaf=-0.00872235
				22:[U_KEYWORD_MACRO_MEAN_COEC<0.0363055] yes=45,no=46,missing=46
					45:[M_D_U_KEYWORD_KEYWORD_MACRO_MEAN_COEC<0.000984036] yes=91,no=92,missing=91
						91:leaf=0.00802968
						92:leaf=0.0306143
					46:[U_KEYWORD_MICRO_MAX_COEC<0.113376] yes=93,no=94,missing=94
						93:leaf=-0.0366851
						94:leaf=-0.00789666
	2:[CAT_REL<0.000728] yes=5,no=6,missing=6
		5:[D_CATEGORY_MEAN_EC<262987] yes=11,no=12,missing=11
			11:[D_KEYWORD_MACRO_MEAN_COEC<0.0833306] yes=23,no=24,missing=24
				23:[D_PUBLISHER_COEC<0.085091] yes=47,no=48,missing=48
					47:[D_CATEGORY_MACRO_MAX_COEC<0.0809944] yes=95,no=96,missing=96
						95:leaf=-0.0237794
						96:leaf=-0.00206619
					48:[WORD_COUNT<5061] yes=97,no=98,missing=98
						97:leaf=0.00253982
						98:leaf=-0.0338888
				24:[U_KEYWORD_MICRO_MEAN_COEC<0.0992413] yes=49,no=50,missing=49
					49:[WORD_COUNT<8587] yes=99,no=100,missing=100
						99:leaf=0.00373115
						100:leaf=0.0296966
					50:[M_D_U_KEYWORD_KEYWORD_MICRO_MAX_COEC<0.0948653] yes=101,no=102,missing=101
						101:leaf=0.00997437
						102:leaf=0.0221965
			12:[D_TITLEMD5_COEC<0.169729] yes=25,no=26,missing=26
				25:[KW_REL<0.00297617] yes=51,no=52,missing=52
					51:[C_D_U_TITLEMD5_CATEGORY_MAX_EC<8.11446] yes=103,no=104,missing=104
						103:leaf=-0.0242458
						104:leaf=-0.00652022
					52:[U_KEYWORD_MICRO_MEAN_COEC<0.10187] yes=105,no=106,missing=106
						105:leaf=-0.00153537
						106:leaf=0.0316199
				26:[WORD_COUNT<957] yes=53,no=54,missing=54
					53:[D_TITLEMD5_COEC<0.318631] yes=107,no=108,missing=108
						107:leaf=-0.00680561
						108:leaf=0.0416319
					54:[C_D_U_TITLEMD5_CATEGORY_MICRO_MEAN_COEC<0.272685] yes=109,no=110,missing=109
						109:leaf=0.00532238
						110:leaf=0.0281142
		6:[U_CATEGORY_MEAN_EC<11068.5] yes=13,no=14,missing=14
			13:[C_D_U_PUBLISHER_CITY_COEC<0.087697] yes=27,no=28,missing=27
				27:[IMAGE_COUNT<0.999999] yes=55,no=56,missing=56
					55:[C_D_U_TITLEMD5_CATEGORY_MAX_EC<0.342772] yes=111,no=112,missing=112
						111:leaf=-0.0573293
						112:leaf=0.0270647
					56:[KW_REL<0.000439433] yes=113,no=114,missing=114
						113:leaf=-0.00956979
						114:leaf=0.0158868
				28:[WORD_COUNT<1575] yes=57,no=58,missing=58
					57:[D_TITLEMD5_COEC<0.206646] yes=115,no=116,missing=116
						115:leaf=0.0155009
						116:leaf=0.038441
					58:[KW_REL<0.000390655] yes=117,no=118,missing=118
						117:leaf=0.00496167
						118:leaf=0.031883
			14:[U_KEYWORD_MICRO_MEAN_COEC<0.0965919] yes=29,no=30,missing=30
				29:[DAY_OF_WEEK<0.999999] yes=59,no=60,missing=60
					59:[U_KEYWORD_MICRO_MAX_COEC<0.102145] yes=119,no=120,missing=120
						119:leaf=-0.0114202
						120:leaf=0.0131224
					60:[C_D_U_PUBLISHER_CITY_COEC<0.0824705] yes=121,no=122,missing=121
						121:leaf=-0.0151138
						122:leaf=-2.53815e-05
				30:[D_TITLEMD5_C<0.999999] yes=61,no=62,missing=62
					61:[C_D_U_PUBLISHER_AGE_COEC<0.0447124] yes=123,no=124,missing=124
						123:leaf=-0.107653
						124:leaf=-0.0347674
					62:[TIME_OF_DAY<10] yes=125,no=126,missing=126
						125:leaf=0.0176894
						126:leaf=0.00738628
booster[29]:
0:[U_KEYWORD_MICRO_MEAN_COEC<0.10156] yes=1,no=2,missing=1
	1:[D_TITLEMD5_COEC<0.0782053] yes=3,no=4,missing=3
		3:[C_D_U_TITLEMD5_CATEGORY_MEAN_C<0.330219] yes=7,no=8,missing=7
			7:[U_CATEGORY_MAX_EC<4062.62] yes=15,no=16,missing=15
				15:[CAT_REL<0.087527] yes=31,no=32,missing=32
					31:[C_D_U_PUBLISHER_CITY_COEC<0.0563317] yes=63,no=64,missing=64
						63:leaf=-0.0246508
						64:leaf=-0.00999742
					32:[U_CATEGORY_MEAN_C<690.352] yes=65,no=66,missing=66
						65:leaf=0.0255356
						66:leaf=0.00218245
				16:[DOC_AGE<1.01055] yes=33,no=34,missing=34
					33:[C_D_U_PUBLISHER_AGE_COEC<0.0602392] yes=67,no=68,missing=67
						67:leaf=-0.0165106
						68:leaf=0.0106772
					34:[DOC_AGE<18.1289] yes=69,no=70,missing=70
						69:leaf=-0.0332208
						70:leaf=-0.017839
			8:[TIME_OF_DAY<13] yes=17,no=18,missing=18
				17:[D_TITLEMD5_C<305.166] yes=35,no=36,missing=36
					35:[C_D_U_KEYWORD_CATEGORY_MEAN_EC<17.9771] yes=71,no=72,missing=72
						71:leaf=0.00843452
						72:leaf=-0.00686417
					36:[U_KEYWORD_MACRO_MAX_COEC<0.00204407] yes=73,no=74,missing=74
						73:leaf=0.0356658
						74:leaf=0.00104015
				18:[KW_REL<0.00121244] yes=37,no=38,missing=38
					37:[C_D_U_KEYWORD_CATEGORY_MEAN_EC<13.125] yes=75,no=76,missing=76
						75:leaf=-0.011666
						76:leaf=-0.0334183
					38:[D_KEYWORD_MAX_EC<657.485] yes=77,no=78,missing=78
						77:leaf=0.0115423
						78:leaf=-0.0102362
		4:[DAY_OF_WEEK<2] yes=9,no=10,missing=10
			9:[U_KEYWORD_MICRO_MEAN_COEC<0.0947525] yes=19,no=20,missing=19
				19:[C_D_U_PUBLISHER_CITY_COEC<0.0954567] yes=39,no=40,missing=40
					39:[M_D_U_KEYWORD_KEYWORD_MICRO_MAX_COEC<0.222535] yes=79,no=80,missing=79
						79:leaf=-0.00912515
						80:leaf=0.0338605
					40:[C_D_U_CATEGORY_CATEGORY_MEAN_EC<721.319] yes=81,no=82,missing=81
						81:leaf=0.00792891
						82:leaf=-0.00659361
				20:[TIME_OF_DAY<11] yes=41,no=42,missing=42
					41:[C_D_U_PUBLISHER_CITY_COEC<0.153827] yes=83,no=84,missing=83
						83:leaf=0.0162691
						84:leaf=0.0348904
					42:[DAY_OF_WEEK<0.999999] yes=85,no=86,missing=86
						85:leaf=0.016481
						86:leaf=0.00217443
			10:[U_KEYWORD_MICRO_MAX_COEC<0.107109] yes=21,no=22,missing=22
				21:[C_D_U_TITLEMD5_CITY_COEC<0.0974154] yes=43,no=44,missing=43
					43:[D_KEYWORD_MAX_EC<761.062] yes=87,no=88,missing=87
						87:leaf=-0.0143251
						88:leaf=-0.0309743
					44:[D_CATEGORY_MEAN_EC<241518] yes=89,no=90,missing=89
						89:leaf=-0.00440867
						90:leaf=-0.0205101
				22:[D_KEYWORD_MAX_EC<797.384] yes=45,no=46,missing=45
					45:[D_PUBLISHER_COEC<0.0773706] yes=91,no=92,missing=92
						91:leaf=-0.0077072
						92:leaf=0.00804198
					46:[M_D_U_KEYWORD_KEYWORD_MICRO_MAX_COEC<0.222535] yes=93,no=94,missing=93
						93:leaf=-0.00497828
						94:leaf=0.0266065
	2:[U_KEYWORD_MACRO_MAX_COEC<0.00144188] yes=5,no=6,missing=6
		5:[TIME_OF_DAY<13] yes=11,no=12,missing=12
			11:[U_KEYWORD_MACRO_MAX_COEC<0.00112588] yes=23,no=24,missing=24
				23:[U_KEYWORD_MICRO_MAX_COEC<0.116454] yes=47,no=48,missing=48
					47:[C_D_U_CATEGORY_CATEGORY_MEAN_C<716.906] yes=95,no=96,missing=96
						95:leaf=0.0294349
						96:leaf=0.102179
					48:[U_KEYWORD_MACRO_MEAN_COEC<0.0215944] yes=97,no=98,missing=98
						97:leaf=0.0741933
						98:leaf=-0.0380823
				24:[U_KEYWORD_MEAN_C<72.5082] yes=49,no=50,missing=50
					49:[M_D_U_KEYWORD_KEYWORD_MICRO_MAX_COEC<0.207261] yes=99,no=100,missing=99
						99:leaf=-0.0457136
						100:leaf=0.0721222
					50:[U_KEYWORD_MEAN_EC<1418.4] yes=101,no=102,missing=102
						101:leaf=0.0175438
						102:leaf=0.0316454
			12:[D_TITLEMD5_COEC<0.110658] yes=25,no=26,missing=26
				25:[KW_REL<0.00259509] yes=51,no=52,missing=52
					51:[D_KEYWORD_MEAN_C<405.096] yes=103,no=104,missing=104
						103:leaf=0.00131606
						104:leaf=-0.0351768
					52:[D_KEYWORD_MAX_EC<834.977] yes=105,no=106,missing=106
						105:leaf=0.0436971
						106:leaf=0.00983862
				26:[KW_REL<0.00116551] yes=53,no=54,missing=54
					53:[C_D_U_PUBLISHER_CITY_COEC<0.0665002] yes=107,no=108,missing=107
						107:leaf=-0.0148466
						108:leaf=0.0152044
					54:[D_KEYWORD_MEAN_C<538.909] yes=109,no=110,missing=110
						109:leaf=0.0298726
						110:leaf=0.00974223
		6:[D_TITLEMD5_C<114.541] yes=13,no=14,missing=13
			13:[M_D_U_KEYWORD_KEYWORD_MACRO_MEAN_COEC<0.000525656] yes=27,no=28,missing=27
				27:[C_D_U_CATEGORY_CATEGORY_MICRO_MEAN_COEC<0.136027] yes=55,no=56,missing=56
					55:[D_TITLEMD5_C<1.995] yes=111,no=112,missing=111
						111:leaf=-0.0240694
						112:leaf=-0.00470655
					56:[CAT_REL<0.129104] yes=113,no=114,missing=114
						113:leaf=0.00737664
						114:leaf=0.061935
				28:[DOC_AGE<3.48778] yes=57,no=58,missing=58
					57:[M_D_U_KEYWORD_KEYWORD_MACRO_MEAN_COEC<0.000875869] yes=115,no=116,missing=116
						115:leaf=0.0210847
						116:leaf=0.0447531
					58:[WORD_COUNT<2833] yes=117,no=118,missing=118
						117:leaf=0.0023222
						118:leaf=0.027828
			14:[M_D_U_KEYWORD_KEYWORD_MICRO_MAX_COEC<0.0883056] yes=29,no=30,missing=29
				29:[C_D_U_TITLEMD5_CATEGORY_MICRO_MEAN_COEC<0.27182] yes=59,no=60,missing=59
					59:[U_KEYWORD_MICRO_MAX_COEC<0.142856] yes=119,no=120,missing=120
						119:leaf=0.002559
						120:leaf=0.029484
					60:[C_D_U_TITLEMD5_CATEGORY_MICRO_MEAN_COEC<0.324127] yes=121,no=122,missing=122
						121:leaf=0.0215871
						122:leaf=0.0458444
				30:[WORD_COUNT<778] yes=61,no=62,missing=62
					61:[D_PUBLISHER_EC<50742.4] yes=123,no=124,missing=124
						123:leaf=0.00401741
						124:leaf=-0.0212885
					62:[TIME_OF_DAY<10] yes=125,no=126,missing=126
						125:leaf=0.0268279
						126:leaf=0.0153845
booster[30]:
0:[U_KEYWORD_MICRO_MAX_COEC<0.11301] yes=1,no=2,missing=1
	1:[D_TITLEMD5_COEC<0.0966055] yes=3,no=4,missing=3
		3:[IMAGE_COUNT<3] yes=7,no=8,missing=8
			7:[U_CATEGORY_MEAN_EC<14468.9] yes=15,no=16,missing=15
				15:[CAT_REL<0.058445] yes=31,no=32,missing=32
					31:[C_D_U_CATEGORY_CITY_MACRO_MEAN_COEC<0.0810658] yes=63,no=64,missing=64
						63:leaf=-0.01962
						64:leaf=-0.00725931
					32:[CAT_REL<0.117236] yes=65,no=66,missing=66
						65:leaf=-0.00215973
						66:leaf=0.0129782
				16:[M_D_U_KEYWORD_KEYWORD_MICRO_MAX_COEC<0.146649] yes=33,no=34,missing=33
					33:[C_D_U_TITLEMD5_CITY_C<0.994999] yes=67,no=68,missing=67
						67:leaf=-0.0308317
						68:leaf=-0.0166783
					34:[D_KEYWORD_MICRO_MEAN_COEC<0.091301] yes=69,no=70,missing=70
						69:leaf=0.0101243
						70:leaf=-0.0204003
			8:[C_D_U_TITLEMD5_CATEGORY_MICRO_MEAN_COEC<0.0570489] yes=17,no=18,missing=17
				17:[D_TITLEMD5_COEC<0.054603] yes=35,no=36,missing=36
					35:[U_KEYWORD_MACRO_MAX_COEC<0.000963461] yes=71,no=72,missing=72
						71:leaf=0.145574
						72:leaf=-0.0126365
					36:[D_CATEGORY_MACRO_MEAN_COEC<0.0799966] yes=73,no=74,missing=74
						73:leaf=0.0229561
						74:leaf=-0.00345654
				18:[U_KEYWORD_MACRO_MAX_COEC<0.00177435] yes=37,no=38,missing=38
					37:[DAY_OF_WEEK<3] yes=75,no=76,missing=76
						75:leaf=0.0341313
						76:leaf=0.0106886
					38:[D_CATEGORY_MICRO_MAX_COEC<0.119683] yes=77,no=78,missing=77
						77:leaf=0.0100707
						78:leaf=-0.0399888
		4:[U_KEYWORD_MACRO_MAX_COEC<0.00227651] yes=9,no=10,missing=9
			9:[U_KEYWORD_MEAN_C<118.219] yes=19,no=20,missing=19
				19:[C_D_U_CATEGORY_CITY_MICRO_MEAN_COEC<0.139313] yes=39,no=40,missing=40
					39:[C_D_U_TITLEMD5_AGE_COEC<0.121056] yes=79,no=80,missing=79
						79:leaf=-0.00615212
						80:leaf=0.00620955
					40:[C_D_U_CATEGORY_GENDER_MICRO_MEAN_COEC<0.126275] yes=81,no=82,missing=82
						81:leaf=-0.0156794
						82:leaf=0.0103223
				20:[U_KEYWORD_MAX_C<23.8749] yes=41,no=42,missing=42
					41:[IMAGE_COUNT<3] yes=83,no=84,missing=84
						83:leaf=0.0177756
						84:leaf=0.0380831
					42:[WORD_COUNT<902] yes=85,no=86,missing=86
						85:leaf=-0.00618535
						86:leaf=0.00967462
			10:[C_D_U_TITLEMD5_CITY_C<2.85478] yes=21,no=22,missing=21
				21:[C_D_U_TITLEMD5_CATEGORY_MEAN_C<6.30318] yes=43,no=44,missing=44
					43:[C_D_U_CATEGORY_CITY_MACRO_MAX_COEC<0.136544] yes=87,no=88,missing=87
						87:leaf=-0.0245802
						88:leaf=0.00698746
					44:[C_D_U_CATEGORY_CITY_MAX_EC<183.623] yes=89,no=90,missing=90
						89:leaf=0.00935224
						90:leaf=-0.0107407
				22:[U_GENDER_EC<710683] yes=45,no=46,missing=46
					45:[D_KEYWORD_MICRO_MEAN_COEC<0.0783136] yes=91,no=92,missing=92
						91:leaf=-0.0420667
						92:leaf=0.0167093
					46:[U_KEYWORD_MAX_EC<444.928] yes=93,no=94,missing=94
						93:leaf=-0.00295359
						94:leaf=-0.0148013
	2:[C_D_U_TITLEMD5_CITY_C<2.85478] yes=5,no=6,missing=5
		5:[U_KEYWORD_MACRO_MAX_COEC<0.00122389] yes=11,no=12,missing=12
			11:[U_CATEGORY_MICRO_MEAN_COEC<0.099245] yes=23,no=24,missing=24
				23:[U_CATEGORY_MACRO_MEAN_COEC<0.025025] yes=47,no=48,missing=48
					47:[U_CITY_C<7886.36] yes=95,no=96,missing=96
						95:leaf=0.225075
						96:leaf=0.0322018
					48:[C_D_U_CATEGORY_CATEGORY_MEAN_EC<4955.09] yes=97,no=98,missing=97
						97:leaf=0.0018331
						98:leaf=0.0740321
				24:[U_CITY_COEC<0.113109] yes=49,no=50,missing=49
					49:[U_CATEGORY_MACRO_MAX_COEC<0.00791273] yes=99,no=100,missing=100
						99:leaf=0.0705888
						100:leaf=0.0210927
					50:[U_CATEGORY_MACRO_MEAN_COEC<0.0384803] yes=101,no=102,missing=102
						101:leaf=0.143824
						102:leaf=0.053681
			12:[CAT_REL<0.054788] yes=25,no=26,missing=26
				25:[D_CATEGORY_MICRO_MAX_COEC<0.0806167] yes=51,no=52,missing=52
					51:[U_KEYWORD_MICRO_MAX_COEC<0.123155] yes=103,no=104,missing=104
						103:leaf=-0.0170453
						104:leaf=0.00574249
					52:[D_CATEGORY_MAX_EC<379852] yes=105,no=106,missing=105
						105:leaf=0.00388081
						106:leaf=-0.00984221
				26:[DOC_AGE<2.43333] yes=53,no=54,missing=54
					53:[U_CATEGORY_MAX_EC<5324.87] yes=107,no=108,missing=108
						107:leaf=0.0216082
						108:leaf=0.0026659
					54:[D_TITLEMD5_C<5.78378] yes=109,no=110,missing=109
						109:leaf=-0.0129397
						110:leaf=0.00495962
		6:[TIME_OF_DAY<12] yes=13,no=14,missing=14
			13:[U_KEYWORD_MACRO_MAX_COEC<0.00110287] yes=27,no=28,missing=28
				27:[U_GENDER_EC<205515] yes=55,no=56,missing=55
					55:[U_AGE_COEC<0.0962314] yes=111,no=112,missing=111
						111:leaf=0.0185802
						112:leaf=0.0611209
					56:[U_CATEGORY_MACRO_MEAN_COEC<0.050253] yes=113,no=114,missing=114
						113:leaf=0.0790839
						114:leaf=0.03479
				28:[U_KEYWORD_MEAN_C<6.97201] yes=57,no=58,missing=58
					57:[C_D_U_KEYWORD_CATEGORY_MEAN_EC<3.63609] yes=115,no=116,missing=116
						115:leaf=0.0432473
						116:leaf=-0.0687652
					58:[D_KEYWORD_MAX_EC<732.709] yes=117,no=118,missing=117
						117:leaf=0.0225274
						118:leaf=0.0125028
			14:[CAT_REL<0.003884] yes=29,no=30,missing=30
				29:[U_KEYWORD_MEAN_C<143.764] yes=59,no=60,missing=60
					59:[C_D_U_TITLEMD5_CITY_COEC<0.167612] yes=119,no=120,missing=120
						119:leaf=-0.0103394
						120:leaf=0.00414729
					60:[D_TITLEMD5_COEC<0.111074] yes=121,no=122,missing=122
						121:leaf=0.000158366
						122:leaf=0.0148063
				30:[C_D_U_KEYWORD_CATEGORY_MAX_C<0.790344] yes=61,no=62,missing=62
					61:[DOC_AGE<7.61667] yes=123,no=124,missing=124
						123:leaf=0.0210773
						124:leaf=0.0102611
					62:[KW_REL<0.00482228] yes=125,no=126,missing=126
						125:leaf=-0.00978612
						126:leaf=0.0151492
booster[31]:
0:[M_D_U_KEYWORD_KEYWORD_MICRO_MAX_COEC<0.147271] yes=1,no=2,missing=1
	1:[C_D_U_TITLEMD5_CITY_C<15.4648] yes=3,no=4,missing=3
		3:[U_KEYWORD_MICRO_MEAN_COEC<0.0936188] yes=7,no=8,missing=8
			7:[D_KEYWORD_MEAN_EC<18.6905] yes=15,no=16,missing=15
				15:[D_KEYWORD_MICRO_MEAN_COEC<0.101259] yes=31,no=32,missing=32
					31:[U_CATEGORY_MICRO_MAX_COEC<0.0952543] yes=63,no=64,missing=63
						63:leaf=0.0180241
						64:leaf=0.187595
					32:[C_D_U_CATEGORY_CITY_MICRO_MEAN_COEC<0.0741018] yes=65,no=66,missing=65
						65:leaf=0.0256063
						66:leaf=0.0593596
				16:[U_KEYWORD_MEAN_C<6.97619] yes=33,no=34,missing=34
					33:[D_KEYWORD_MICRO_MEAN_COEC<0.2642] yes=67,no=68,missing=68
						67:leaf=-0.0753677
						68:leaf=0.0629984
					34:[C_D_U_TITLEMD5_CATEGORY_MEAN_C<0.299661] yes=69,no=70,missing=70
						69:leaf=-0.0276434
						70:leaf=-0.0129327
			8:[C_D_U_KEYWORD_CATEGORY_MAX_EC<1.12485] yes=17,no=18,missing=18
				17:[KW_REL<0.000703458] yes=35,no=36,missing=36
					35:[C_D_U_TITLEMD5_CATEGORY_MEAN_C<0.0527038] yes=71,no=72,missing=72
						71:leaf=-0.0179753
						72:leaf=-0.000678751
					36:[D_KEYWORD_MEAN_EC<1169.19] yes=73,no=74,missing=74
						73:leaf=0.0230572
						74:leaf=0.00682322
				18:[D_TITLEMD5_C<5.91557] yes=37,no=38,missing=38
					37:[DOC_AGE<0.782777] yes=75,no=76,missing=76
						75:leaf=-0.000943718
						76:leaf=-0.022212
					38:[KW_REL<0.00393816] yes=77,no=78,missing=78
						77:leaf=-0.00553789
						78:leaf=0.00594645
		4:[U_KEYWORD_MEAN_C<126.014] yes=9,no=10,missing=9
			9:[TIME_OF_DAY<8] yes=19,no=20,missing=20
				19:[U_KEYWORD_MICRO_MAX_COEC<0.118494] yes=39,no=40,missing=39
					39:[D_TITLEMD5_EC<7536.84] yes=79,no=80,missing=80
						79:leaf=0.00368293
						80:leaf=0.0155565
					40:[U_KEYWORD_MEAN_C<6.97619] yes=81,no=82,missing=82
						81:leaf=-0.0607699
						82:leaf=0.027448
				20:[C_D_U_TITLEMD5_CITY_COEC<0.197833] yes=41,no=42,missing=42
					41:[C_D_U_CATEGORY_AGE_MAX_EC<122966] yes=83,no=84,missing=84
						83:leaf=0.00386174
						84:leaf=-0.00771
					42:[D_TITLEMD5_COEC<0.136613] yes=85,no=86,missing=86
						85:leaf=0.0679105
						86:leaf=0.00555662
			10:[TIME_OF_DAY<9] yes=21,no=22,missing=22
				21:[U_KEYWORD_MAX_C<44.0565] yes=43,no=44,missing=44
					43:[U_KEYWORD_MACRO_MAX_COEC<0.00116306] yes=87,no=88,missing=88
						87:leaf=0.0478317
						88:leaf=0.0238919
					44:[U_AGE_COEC<0.0994364] yes=89,no=90,missing=90
						89:leaf=0.0250262
						90:leaf=-0.00689006
				22:[U_KEYWORD_MAX_C<58.4848] yes=45,no=46,missing=46
					45:[C_D_U_TITLEMD5_CATEGORY_MICRO_MAX_COEC<0.31279] yes=91,no=92,missing=92
						91:leaf=0.00918144
						92:leaf=0.0233432
					46:[C_D_U_CATEGORY_CATEGORY_MEAN_C<239.279] yes=93,no=94,missing=93
						93:leaf=-0.00326884
						94:leaf=-0.0286707
	2:[M_D_U_KEYWORD_KEYWORD_MICRO_MAX_COEC<0.229894] yes=5,no=6,missing=6
		5:[WORD_COUNT<1409] yes=11,no=12,missing=12
			11:[M_D_U_KEYWORD_KEYWORD_MACRO_MEAN_COEC<0.000232756] yes=23,no=24,missing=24
				23:[D_TITLEMD5_COEC<0.141803] yes=47,no=48,missing=47
					47:[D_KEYWORD_MEAN_C<231.936] yes=95,no=96,missing=96
						95:leaf=-0.004148
						96:leaf=-0.0258968
					48:[C_D_U_KEYWORD_CATEGORY_MAX_C<0.312382] yes=97,no=98,missing=97
						97:leaf=0.0175984
						98:leaf=-0.0022502
				24:[D_TITLEMD5_COEC<0.0930279] yes=49,no=50,missing=50
					49:[D_KEYWORD_MACRO_MAX_COEC<0.0198626] yes=99,no=100,missing=100
						99:leaf=0.0150538
						100:leaf=-0.00532473
					50:[DOC_AGE<12.0236] yes=101,no=102,missing=102
						101:leaf=0.0194205
						102:leaf=0.00236983
			12:[U_KEYWORD_MACRO_MAX_COEC<0.00173299] yes=25,no=26,missing=26
				25:[C_D_U_TITLEMD5_CATEGORY_MACRO_MEAN_COEC<0.0724031] yes=51,no=52,missing=52
					51:[D_CATEGORY_MAX_EC<174453] yes=103,no=104,missing=104
						103:leaf=0.00922125
						104:leaf=0.0229399
					52:[U_KEYWORD_MICRO_MEAN_COEC<0.0936188] yes=105,no=106,missing=106
						105:leaf=-0.00437996
						106:leaf=0.0286222
				26:[M_D_U_KEYWORD_KEYWORD_MAX_EC<0.254036] yes=53,no=54,missing=54
					53:[C_D_U_KEYWORD_CATEGORY_MAX_C<0.943422] yes=107,no=108,missing=107
						107:leaf=0.00619947
						108:leaf=-0.0110395
					54:[D_TITLEMD5_C<108.173] yes=109,no=110,missing=110
						109:leaf=0.00486904
						110:leaf=0.0265509
		6:[M_D_U_KEYWORD_KEYWORD_MICRO_MAX_COEC<0.308788] yes=13,no=14,missing=14
			13:[D_KEYWORD_MICRO_MEAN_COEC<0.0876122] yes=27,no=28,missing=28
				27:[U_KEYWORD_MACRO_MAX_COEC<0.00125334] yes=55,no=56,missing=56
					55:[U_KEYWORD_MICRO_MAX_COEC<0.114715] yes=111,no=112,missing=112
						111:leaf=0.0483347
						112:leaf=0.0848081
					56:[KW_REL<0.00298641] yes=113,no=114,missing=114
						113:leaf=0.0114708
						114:leaf=0.036327
				28:[U_KEYWORD_MACRO_MEAN_COEC<0.0239161] yes=57,no=58,missing=58
					57:[DOC_AGE<8.71667] yes=115,no=116,missing=116
						115:leaf=0.0331049
						116:leaf=0.0156669
					58:[DOC_AGE<21.6878] yes=117,no=118,missing=118
						117:leaf=0.00894623
						118:leaf=-0.021127
			14:[DOC_AGE<20.2525] yes=29,no=30,missing=30
				29:[D_KEYWORD_MAX_C<275.063] yes=59,no=60,missing=60
					59:[D_KEYWORD_MACRO_MEAN_COEC<0.0999317] yes=119,no=120,missing=120
						119:leaf=0.0662451
						120:leaf=0.0377294
					60:[U_CATEGORY_MICRO_MEAN_COEC<0.0838344] yes=121,no=122,missing=121
						121:leaf=-0.0242468
						122:leaf=0.0375173
				30:[KW_REL<0.0108543] yes=61,no=62,missing=62
					61:[U_GENDER_C<72181.5] yes=123,no=124,missing=123
						123:leaf=0.0274861
						124:leaf=-0.0273547
					62:[D_TITLEMD5_COEC<0.227197] yes=125,no=126,missing=126
						125:leaf=-0.0225721
						126:leaf=-0.308033
booster[32]:
0:[U_KEYWORD_MICRO_MEAN_COEC<0.10193] yes=1,no=2,missing=1
	1:[C_D_U_TITLEMD5_CITY_COEC<0.122175] yes=3,no=4,missing=3
		3:[IMAGE_COUNT<0.999999] yes=7,no=8,missing=8
			7:[D_TITLEMD5_C<3] yes=15,no=16,missing=15
				15:[D_KEYWORD_MICRO_MEAN_COEC<0.0875108] yes=31,no=32,missing=32
					31:[C_D_U_KEYWORD_CATEGORY_MEAN_EC<16.9972] yes=63,no=64,missing=64
						63:leaf=-0.0261511
						64:leaf=-0.0517853
					32:[C_D_U_PUBLISHER_CITY_COEC<0.128011] yes=65,no=66,missing=65
						65:leaf=-0.0631899
						66:leaf=0.00480974
				16:[C_D_U_TITLEMD5_CATEGORY_MICRO_MEAN_COEC<0.0833239] yes=33,no=34,missing=34
					33:[DOC_AGE<13.5119] yes=67,no=68,missing=68
						67:leaf=-0.0195917
						68:leaf=0.0281124
					34:[C_D_U_CATEGORY_CATEGORY_MICRO_MEAN_COEC<0.085194] yes=69,no=70,missing=70
						69:leaf=-0.0675506
						70:leaf=-0.0284671
			8:[CAT_REL<0.053677] yes=17,no=18,missing=18
				17:[D_TITLEMD5_C<350.639] yes=35,no=36,missing=36
					35:[C_D_U_KEYWORD_CATEGORY_MEAN_EC<7.00058] yes=71,no=72,missing=71
						71:leaf=-0.00499745
						72:leaf=-0.0151307
					36:[WORD_COUNT<981] yes=73,no=74,missing=74
						73:leaf=-0.00877857
						74:leaf=0.00314017
				18:[U_CATEGORY_MEAN_EC<20642.5] yes=37,no=38,missing=38
					37:[U_CATEGORY_MEAN_EC<10737.8] yes=75,no=76,missing=76
						75:leaf=0.010907
						76:leaf=5.36985e-05
					38:[DAY_OF_WEEK<2] yes=77,no=78,missing=78
						77:leaf=-0.0030022
						78:leaf=-0.0215461
		4:[WORD_COUNT<981] yes=9,no=10,missing=10
			9:[CAT_REL<0.004714] yes=19,no=20,missing=20
				19:[C_D_U_TITLEMD5_CITY_COEC<0.210775] yes=39,no=40,missing=40
					39:[D_CATEGORY_MEAN_C<27143] yes=79,no=80,missing=80
						79:leaf=-0.00306622
						80:leaf=-0.0158126
					40:[D_KEYWORD_MAX_EC<342.531] yes=81,no=82,missing=82
						81:leaf=0.0276684
						82:leaf=-0.0007322
				20:[C_D_U_KEYWORD_CATEGORY_MAX_C<0.253459] yes=41,no=42,missing=42
					41:[C_D_U_TITLEMD5_CITY_C<1.98015] yes=83,no=84,missing=84
						83:leaf=0.000282042
						84:leaf=0.0155492
					42:[TIME_OF_DAY<9] yes=85,no=86,missing=86
						85:leaf=0.00760886
						86:leaf=-0.00469825
			10:[C_D_U_KEYWORD_CATEGORY_MEAN_EC<12.7005] yes=21,no=22,missing=22
				21:[KW_REL<0.000443871] yes=43,no=44,missing=44
					43:[D_KEYWORD_MACRO_MAX_COEC<0.0402415] yes=87,no=88,missing=88
						87:leaf=-0.00375785
						88:leaf=0.0146383
					44:[KW_REL<0.00277615] yes=89,no=90,missing=90
						89:leaf=0.0149727
						90:leaf=0.0285649
				22:[C_D_U_TITLEMD5_CITY_C<12.3888] yes=45,no=46,missing=46
					45:[KW_REL<0.00391189] yes=91,no=92,missing=92
						91:leaf=-0.00372225
						92:leaf=0.00945065
					46:[C_D_U_CATEGORY_AGE_MAX_C<15157.3] yes=93,no=94,missing=94
						93:leaf=0.015653
						94:leaf=0.00553331
	2:[TIME_OF_DAY<10] yes=5,no=6,missing=6
		5:[U_KEYWORD_MACRO_MAX_COEC<0.00120914] yes=11,no=12,missing=12
			11:[U_CATEGORY_MACRO_MAX_COEC<0.00934721] yes=23,no=24,missing=24
				23:[U_KEYWORD_MICRO_MEAN_COEC<0.103756] yes=47,no=48,missing=48
					47:[U_CITY_C<34033.2] yes=95,no=96,missing=95
						95:leaf=0.0465722
						96:leaf=-0.0893931
					48:[U_CITY_C<18147.9] yes=97,no=98,missing=98
						97:leaf=0.124822
						98:leaf=0.0617912
				24:[U_KEYWORD_MICRO_MEAN_COEC<0.106939] yes=49,no=50,missing=50
					49:[U_AGE_EC<831330] yes=99,no=100,missing=99
						99:leaf=0.0273562
						100:leaf=-0.0435999
					50:[U_CITY_C<1962.47] yes=101,no=102,missing=101
						101:leaf=-0.143024
						102:leaf=0.104019
			12:[U_KEYWORD_MEAN_EC<1010.19] yes=25,no=26,missing=26
				25:[M_D_U_KEYWORD_KEYWORD_MACRO_MEAN_COEC<0.000518474] yes=51,no=52,missing=51
					51:[U_KEYWORD_MAX_EC<345.442] yes=103,no=104,missing=104
						103:leaf=0.00136478
						104:leaf=-0.0267166
					52:[DOC_AGE<20.6542] yes=105,no=106,missing=106
						105:leaf=0.02655
						106:leaf=-0.0116385
				26:[D_TITLEMD5_EC<3721.02] yes=53,no=54,missing=53
					53:[DOC_AGE<2.87389] yes=107,no=108,missing=108
						107:leaf=0.0248646
						108:leaf=0.00926593
					54:[D_TITLEMD5_COEC<0.0779206] yes=109,no=110,missing=110
						109:leaf=0.0511788
						110:leaf=0.0235278
		6:[U_KEYWORD_MACRO_MAX_COEC<0.00127101] yes=13,no=14,missing=14
			13:[U_KEYWORD_MICRO_MAX_COEC<0.117351] yes=27,no=28,missing=28
				27:[U_KEYWORD_MAX_EC<137.223] yes=55,no=56,missing=56
					55:[U_CITY_C<313.733] yes=111,no=112,missing=112
						111:leaf=0.104276
						112:leaf=-0.0516218
					56:[C_D_U_KEYWORD_CATEGORY_MACRO_MEAN_COEC<0.0416611] yes=113,no=114,missing=114
						113:leaf=-0.000921564
						114:leaf=0.0186632
				28:[U_KEYWORD_MACRO_MAX_COEC<0.000963461] yes=57,no=58,missing=58
					57:[U_GENDER_EC<782418] yes=115,no=116,missing=116
						115:leaf=0.160193
						116:leaf=-0.0604153
					58:[U_CITY_COEC<0.123316] yes=117,no=118,missing=117
						117:leaf=0.0268128
						118:leaf=0.0908188
			14:[C_D_U_TITLEMD5_CATEGORY_MEAN_C<0.570113] yes=29,no=30,missing=30
				29:[DOC_AGE<2.68028] yes=59,no=60,missing=60
					59:[M_D_U_KEYWORD_KEYWORD_MACRO_MEAN_COEC<0.000637724] yes=119,no=120,missing=119
						119:leaf=0.000828772
						120:leaf=0.0304282
					60:[KW_REL<0.00288837] yes=121,no=122,missing=122
						121:leaf=-0.0170772
						122:leaf=-0.00310347
				30:[KW_REL<0.00607448] yes=61,no=62,missing=62
					61:[C_D_U_KEYWORD_CATEGORY_MAX_C<1.17013] yes=123,no=124,missing=123
						123:leaf=0.00768039
						124:leaf=-0.0101231
					62:[C_D_U_TITLEMD5_CATEGORY_MICRO_MAX_COEC<0.172521] yes=125,no=126,missing=126
						125:leaf=0.0143691
						126:leaf=0.0321848
booster[33]:
0:[KW_REL<0.00250012] yes=1,no=2,missing=2
	1:[D_TITLEMD5_C<304.638] yes=3,no=4,missing=3
		3:[D_KEYWORD_MEAN_C<316.242] yes=7,no=8,missing=7
			7:[D_TITLEMD5_C<5.87117] yes=15,no=16,missing=15
				15:[C_D_U_PUBLISHER_CITY_COEC<0.0774815] yes=31,no=32,missing=31
					31:[C_D_U_CATEGORY_CITY_MACRO_MAX_COEC<0.0610449] yes=63,no=64,missing=64
						63:leaf=-0.0312441
						64:leaf=-0.0152257
					32:[D_KEYWORD_MEAN_EC<18.0892] yes=65,no=66,missing=66
						65:leaf=0.0384126
						66:leaf=-0.00318104
				16:[DOC_AGE<2.72583] yes=33,no=34,missing=34
					33:[KW_REL<0.00065619] yes=67,no=68,missing=68
						67:leaf=0.000890545
						68:leaf=0.0179365
					34:[D_KEYWORD_MEAN_EC<1303.65] yes=69,no=70,missing=69
						69:leaf=0.00405767
						70:leaf=-0.00769491
			8:[U_KEYWORD_MICRO_MAX_COEC<0.119784] yes=17,no=18,missing=18
				17:[D_KEYWORD_MEAN_EC<5020.95] yes=35,no=36,missing=36
					35:[M_D_U_KEYWORD_KEYWORD_MEAN_EC<0.261201] yes=71,no=72,missing=71
						71:leaf=-0.0251169
						72:leaf=-0.00258857
					36:[C_D_U_KEYWORD_CATEGORY_MICRO_MEAN_COEC<0.0910796] yes=73,no=74,missing=73
						73:leaf=-0.027682
						74:leaf=-0.044107
				18:[C_D_U_PUBLISHER_CITY_COEC<0.127242] yes=37,no=38,missing=38
					37:[C_D_U_TITLEMD5_CATEGORY_MICRO_MEAN_COEC<0.120914] yes=75,no=76,missing=76
						75:leaf=-0.00147435
						76:leaf=-0.0195433
					38:[C_D_U_PUBLISHER_GENDER_COEC<0.129843] yes=77,no=78,missing=78
						77:leaf=-0.0249163
						78:leaf=0.0093364
		4:[D_KEYWORD_MEAN_EC<4357.5] yes=9,no=10,missing=9
			9:[CAT_REL<0.000669] yes=19,no=20,missing=20
				19:[WORD_COUNT<1008] yes=39,no=40,missing=40
					39:[C_D_U_TITLEMD5_GENDER_COEC<0.179752] yes=79,no=80,missing=80
						79:leaf=-0.0165429
						80:leaf=-0.00331746
					40:[TIME_OF_DAY<3] yes=81,no=82,missing=82
						81:leaf=0.0224538
						82:leaf=0.00426564
				20:[C_D_U_TITLEMD5_CATEGORY_MICRO_MAX_COEC<0.336598] yes=41,no=42,missing=42
					41:[WORD_COUNT<2469] yes=83,no=84,missing=84
						83:leaf=0.00665994
						84:leaf=0.0188781
					42:[C_D_U_TITLEMD5_CATEGORY_MICRO_MEAN_COEC<0.322897] yes=85,no=86,missing=86
						85:leaf=0.02599
						86:leaf=0.0446299
			10:[D_TITLEMD5_C<697.475] yes=21,no=22,missing=22
				21:[D_KEYWORD_MEAN_C<510.319] yes=43,no=44,missing=44
					43:[D_KEYWORD_MAX_C<139.041] yes=87,no=88,missing=88
						87:leaf=-0.0278368
						88:leaf=-0.00273843
					44:[U_KEYWORD_MICRO_MAX_COEC<0.120804] yes=89,no=90,missing=90
						89:leaf=-0.0292984
						90:leaf=-0.00679387
				22:[TIME_OF_DAY<3] yes=45,no=46,missing=46
					45:[U_KEYWORD_MEAN_C<98.0854] yes=91,no=92,missing=91
						91:leaf=0.0140562
						92:leaf=0.0351068
					46:[WORD_COUNT<882] yes=93,no=94,missing=94
						93:leaf=-0.0167391
						94:leaf=0.000337075
	2:[C_D_U_KEYWORD_CATEGORY_MAX_EC<4.74785] yes=5,no=6,missing=5
		5:[C_D_U_KEYWORD_CATEGORY_MAX_C<0.0926381] yes=11,no=12,missing=11
			11:[DOC_AGE<6.95139] yes=23,no=24,missing=24
				23:[D_KEYWORD_MEAN_C<216.712] yes=47,no=48,missing=48
					47:[C_D_U_KEYWORD_CATEGORY_MICRO_MEAN_COEC<0.0673199] yes=95,no=96,missing=96
						95:leaf=0.0102763
						96:leaf=0.0458612
					48:[M_D_U_KEYWORD_KEYWORD_MACRO_MEAN_COEC<0.000158495] yes=97,no=98,missing=97
						97:leaf=0.00755493
						98:leaf=0.0347514
				24:[CAT_REL<0.097701] yes=49,no=50,missing=50
					49:[D_CATEGORY_MAX_EC<76855] yes=99,no=100,missing=100
						99:leaf=0.00909009
						100:leaf=0.0240167
					50:[C_D_U_CATEGORY_AGE_MEAN_C<66.9389] yes=101,no=102,missing=102
						101:leaf=-0.0459181
						102:leaf=0.0387948
			12:[M_D_U_KEYWORD_KEYWORD_MICRO_MAX_COEC<0.225933] yes=25,no=26,missing=25
				25:[U_KEYWORD_MICRO_MEAN_COEC<0.101916] yes=51,no=52,missing=52
					51:[DAY_OF_WEEK<3] yes=103,no=104,missing=104
						103:leaf=0.0113219
						104:leaf=5.81632e-05
					52:[U_KEYWORD_MACRO_MAX_COEC<0.00122382] yes=105,no=106,missing=106
						105:leaf=0.0290242
						106:leaf=0.0153411
				26:[M_D_U_KEYWORD_KEYWORD_MICRO_MAX_COEC<0.307251] yes=53,no=54,missing=54
					53:[D_KEYWORD_MICRO_MEAN_COEC<0.0866255] yes=107,no=108,missing=108
						107:leaf=0.0389782
						108:leaf=0.0160542
					54:[DOC_AGE<20.2103] yes=109,no=110,missing=110
						109:leaf=0.0609263
						110:leaf=0.0180971
		6:[KW_REL<0.00497614] yes=13,no=14,missing=14
			13:[D_TITLEMD5_C<120.718] yes=27,no=28,missing=28
				27:[D_KEYWORD_MEAN_C<510.319] yes=55,no=56,missing=56
					55:[M_D_U_KEYWORD_KEYWORD_MEAN_EC<0.261201] yes=111,no=112,missing=111
						111:leaf=-0.0124965
						112:leaf=0.00706653
					56:[KW_REL<0.00376439] yes=113,no=114,missing=114
						113:leaf=-0.0338758
						114:leaf=-0.0183122
				28:[C_D_U_CATEGORY_CATEGORY_MAX_EC<35.7745] yes=57,no=58,missing=58
					57:[C_D_U_TITLEMD5_CATEGORY_MICRO_MAX_COEC<0.2166] yes=115,no=116,missing=116
						115:leaf=0.0178724
						116:leaf=0.0409841
					58:[D_KEYWORD_MEAN_EC<6619.46] yes=117,no=118,missing=118
						117:leaf=0.00573526
						118:leaf=-0.0099502
			14:[U_KEYWORD_MACRO_MAX_COEC<0.00380486] yes=29,no=30,missing=30
				29:[M_D_U_KEYWORD_KEYWORD_MACRO_MEAN_COEC<0.000762374] yes=59,no=60,missing=59
					59:[D_KEYWORD_MACRO_MAX_COEC<0.0210867] yes=119,no=120,missing=120
						119:leaf=0.0127619
						120:leaf=0.000650591
					60:[DOC_AGE<5.60194] yes=121,no=122,missing=122
						121:leaf=0.0301371
						122:leaf=0.0126896
				30:[U_KEYWORD_MICRO_MAX_COEC<0.213015] yes=61,no=62,missing=62
					61:[M_D_U_KEYWORD_KEYWORD_MICRO_MAX_COEC<0.307251] yes=123,no=124,missing=123
						123:leaf=-0.0180179
						124:leaf=0.0415234
					62:[U_CATEGORY_MICRO_MEAN_COEC<0.102734] yes=125,no=126,missing=126
						125:leaf=0.0197991
						126:leaf=0.12671
booster[34]:
0:[KW_REL<0.00130616] yes=1,no=2,missing=2
	1:[D_TITLEMD5_COEC<0.109153] yes=3,no=4,missing=3
		3:[D_KEYWORD_MEAN_C<140.087] yes=7,no=8,missing=7
			7:[D_TITLEMD5_C<34.4633] yes=15,no=16,missing=15
				15:[KW_REL<0.000569912] yes=31,no=32,missing=32
					31:[U_KEYWORD_MICRO_MAX_COEC<0.115578] yes=63,no=64,missing=63
						63:leaf=-0.0191533
						64:leaf=-5.46474e-05
					32:[D_KEYWORD_MEAN_C<64.9014] yes=65,no=66,missing=66
						65:leaf=0.0162224
						66:leaf=-0.0052227
				16:[KW_REL<0.000463797] yes=33,no=34,missing=34
					33:[U_KEYWORD_MICRO_MEAN_COEC<0.09627] yes=67,no=68,missing=68
						67:leaf=-0.0137239
						68:leaf=0.00189896
					34:[D_KEYWORD_MEAN_C<73.9049] yes=69,no=70,missing=70
						69:leaf=0.0234978
						70:leaf=0.00652401
			8:[D_TITLEMD5_C<939.896] yes=17,no=18,missing=17
				17:[U_KEYWORD_MICRO_MAX_COEC<0.119784] yes=35,no=36,missing=36
					35:[D_KEYWORD_MEAN_C<329.857] yes=71,no=72,missing=72
						71:leaf=-0.0154049
						72:leaf=-0.0312516
					36:[U_CITY_COEC<0.10088] yes=73,no=74,missing=74
						73:leaf=-0.0136191
						74:leaf=0.00615378
				18:[D_KEYWORD_MEAN_EC<4065.97] yes=37,no=38,missing=38
					37:[D_PUBLISHER_EC<36641.6] yes=75,no=76,missing=76
						75:leaf=0.0118677
						76:leaf=0.0499449
					38:[C_D_U_CATEGORY_GENDER_MAX_C<1922.51] yes=77,no=78,missing=78
						77:leaf=-0.0406223
						78:leaf=0.00863625
		4:[D_TITLEMD5_C<4.56012] yes=9,no=10,missing=10
			9:[D_KEYWORD_MICRO_MEAN_COEC<0.200373] yes=19,no=20,missing=20
				19:[C_D_U_CATEGORY_CATEGORY_MICRO_MAX_COEC<0.133961] yes=39,no=40,missing=39
					39:[C_D_U_PUBLISHER_CITY_COEC<0.0495291] yes=79,no=80,missing=80
						79:leaf=-0.0466927
						80:leaf=-0.0220516
					40:[D_KEYWORD_MICRO_MEAN_COEC<0.0984126] yes=81,no=82,missing=82
						81:leaf=0.0171319
						82:leaf=-0.0200873
				20:[U_KEYWORD_MICRO_MEAN_COEC<0.094451] yes=41,no=42,missing=41
					41:[DOC_AGE<33.1475] yes=83,no=84,missing=84
						83:leaf=0.0194345
						84:leaf=-0.0245437
					42:[U_KEYWORD_MEAN_EC<1604.44] yes=85,no=86,missing=86
						85:leaf=0.052977
						86:leaf=-0.145334
			10:[D_CATEGORY_MEAN_C<33235.5] yes=21,no=22,missing=21
				21:[C_D_U_CATEGORY_AGE_MICRO_MAX_COEC<0.10261] yes=43,no=44,missing=43
					43:[D_KEYWORD_MICRO_MAX_COEC<0.364035] yes=87,no=88,missing=88
						87:leaf=0.00281866
						88:leaf=0.0439734
					44:[U_GENDER_C<70983.6] yes=89,no=90,missing=89
						89:leaf=0.0176419
						90:leaf=0.00459499
				22:[D_TITLEMD5_COEC<0.192515] yes=45,no=46,missing=46
					45:[U_KEYWORD_MAX_EC<301.501] yes=91,no=92,missing=91
						91:leaf=-0.00524715
						92:leaf=-0.0195306
					46:[D_KEYWORD_MAX_EC<627.166] yes=93,no=94,missing=94
						93:leaf=0.0206408
						94:leaf=0.00231365
	2:[C_D_U_KEYWORD_CATEGORY_MEAN_EC<26.1769] yes=5,no=6,missing=5
		5:[IMAGE_COUNT<0.999999] yes=11,no=12,missing=12
			11:[C_D_U_TITLEMD5_CATEGORY_MEAN_EC<0.536472] yes=23,no=24,missing=23
				23:[KW_REL<0.00431916] yes=47,no=48,missing=48
					47:[U_KEYWORD_MAX_EC<224.509] yes=95,no=96,missing=96
						95:leaf=-0.0595291
						96:leaf=-0.0343727
					48:[C_D_U_KEYWORD_CATEGORY_MAX_EC<2.2537] yes=97,no=98,missing=98
						97:leaf=0.012789
						98:leaf=-0.0323937
				24:[KW_REL<0.00459397] yes=49,no=50,missing=50
					49:[C_D_U_TITLEMD5_CITY_COEC<0.14914] yes=99,no=100,missing=100
						99:leaf=-0.00487131
						100:leaf=-0.0343708
					50:[C_D_U_CATEGORY_CATEGORY_MACRO_MAX_COEC<0.0306347] yes=101,no=102,missing=102
						101:leaf=0.0337701
						102:leaf=-0.118024
			12:[CAT_REL<0.11713] yes=25,no=26,missing=26
				25:[U_KEYWORD_MACRO_MAX_COEC<0.00118156] yes=51,no=52,missing=52
					51:[U_CATEGORY_MACRO_MEAN_COEC<0.025025] yes=103,no=104,missing=104
						103:leaf=0.0949986
						104:leaf=0.0177744
					52:[C_D_U_TITLEMD5_CITY_C<0.960692] yes=105,no=106,missing=105
						105:leaf=-0.00107595
						106:leaf=0.00899101
				26:[U_KEYWORD_MACRO_MAX_COEC<0.00279821] yes=53,no=54,missing=54
					53:[C_D_U_KEYWORD_CATEGORY_MEAN_EC<9.12768] yes=107,no=108,missing=108
						107:leaf=0.0368518
						108:leaf=0.0197307
					54:[U_KEYWORD_MICRO_MAX_COEC<0.1187] yes=109,no=110,missing=110
						109:leaf=-0.0130617
						110:leaf=0.0169425
		6:[KW_REL<0.00508105] yes=13,no=14,missing=14
			13:[D_TITLEMD5_EC<2533.85] yes=27,no=28,missing=28
				27:[C_D_U_KEYWORD_CATEGORY_MEAN_EC<49.8465] yes=55,no=56,missing=56
					55:[DOC_AGE<3.53694] yes=111,no=112,missing=112
						111:leaf=8.12237e-05
						112:leaf=-0.0137072
					56:[KW_REL<0.00311267] yes=113,no=114,missing=114
						113:leaf=-0.0337109
						114:leaf=-0.0176013
				28:[U_KEYWORD_MICRO_MEAN_COEC<0.102015] yes=57,no=58,missing=58
					57:[TIME_OF_DAY<13] yes=115,no=116,missing=116
						115:leaf=0.00367213
						116:leaf=-0.00969811
					58:[D_TITLEMD5_COEC<0.0782622] yes=117,no=118,missing=118
						117:leaf=0.0280594
						118:leaf=0.00653955
			14:[C_D_U_TITLEMD5_CATEGORY_MICRO_MEAN_COEC<0.148319] yes=29,no=30,missing=30
				29:[DOC_AGE<0.543888] yes=59,no=60,missing=60
					59:[C_D_U_CATEGORY_CATEGORY_MICRO_MEAN_COEC<0.073361] yes=119,no=120,missing=119
						119:leaf=-0.0141033
						120:leaf=0.0398228
					60:[U_KEYWORD_MICRO_MEAN_COEC<0.102237] yes=121,no=122,missing=122
						121:leaf=-0.00176691
						122:leaf=0.0102323
				30:[U_KEYWORD_MACRO_MEAN_COEC<0.0337823] yes=61,no=62,missing=62
					61:[D_KEYWORD_MICRO_MEAN_COEC<0.0982402] yes=123,no=124,missing=124
						123:leaf=0.0253295
						124:leaf=0.00825629
					62:[D_CATEGORY_MICRO_MEAN_COEC<0.0783511] yes=125,no=126,missing=125
						125:leaf=0.0105011
						126:leaf=-0.0218186
booster[35]:
0:[U_KEYWORD_MICRO_MEAN_COEC<0.0934979] yes=1,no=2,missing=2
	1:[C_D_U_KEYWORD_CATEGORY_MEAN_EC<0.220435] yes=3,no=4,missing=3
		3:[U_CATEGORY_MEAN_EC<7978.18] yes=7,no=8,missing=8
			7:[U_AGE_C<86189] yes=15,no=16,missing=16
				15:[C_D_U_KEYWORD_CATEGORY_MICRO_MAX_COEC<0.423456] yes=31,no=32,missing=31
					31:leaf=-0.140958
					32:[D_KEYWORD_MACRO_MEAN_COEC<0.0973494] yes=63,no=64,missing=64
						63:leaf=0.198424
						64:leaf=0.0971073
				16:[U_GENDER_EC<727425] yes=33,no=34,missing=34
					33:[U_GENDER_EC<713255] yes=65,no=66,missing=66
						65:leaf=0.0354236
						66:leaf=-0.344629
					34:[U_KEYWORD_MICRO_MEAN_COEC<0.091887] yes=67,no=68,missing=68
						67:leaf=0.058033
						68:leaf=-0.00528912
			8:[DOC_AGE<48.9661] yes=17,no=18,missing=18
				17:[D_TITLEMD5_COEC<0.022883] yes=35,no=36,missing=36
					35:[D_KEYWORD_MACRO_MEAN_COEC<0.115383] yes=69,no=70,missing=70
						69:leaf=0.103968
						70:leaf=0.0200165
					36:[D_PUBLISHER_COEC<0.0657677] yes=71,no=72,missing=71
						71:leaf=-0.0423846
						72:leaf=0.0215544
				18:[U_GENDER_C<69827.6] yes=37,no=38,missing=38
					37:[TIME_OF_DAY<6] yes=73,no=74,missing=74
						73:leaf=-0.165202
						74:leaf=0.0783759
					38:[U_GENDER_EC<836565] yes=75,no=76,missing=76
						75:leaf=-0.205126
						76:leaf=-0.0401618
		4:[U_KEYWORD_MEAN_EC<69.1528] yes=9,no=10,missing=10
			9:[D_KEYWORD_MAX_EC<152.908] yes=19,no=20,missing=20
				19:[C_D_U_KEYWORD_CATEGORY_MACRO_MAX_COEC<0.00611869] yes=39,no=40,missing=40
					39:[C_D_U_KEYWORD_CATEGORY_MACRO_MEAN_COEC<0.0165301] yes=77,no=78,missing=78
						77:leaf=0.0292377
						78:leaf=-0.122087
					40:[U_CATEGORY_MACRO_MEAN_COEC<0.0645495] yes=79,no=80,missing=80
						79:leaf=-0.0171466
						80:leaf=0.041075
				20:[U_KEYWORD_MACRO_MEAN_COEC<0.0271013] yes=41,no=42,missing=42
					41:[C_D_U_TITLEMD5_GENDER_C<564.504] yes=81,no=82,missing=81
						81:leaf=-0.087341
						82:leaf=-0.230097
					42:[U_CITY_COEC<0.10162] yes=83,no=84,missing=84
						83:leaf=-0.0315486
						84:leaf=-0.0873987
			10:[D_TITLEMD5_C<23.5315] yes=21,no=22,missing=21
				21:[C_D_U_TITLEMD5_AGE_COEC<0.0885603] yes=43,no=44,missing=43
					43:[KW_REL<0.00347544] yes=85,no=86,missing=86
						85:leaf=-0.0303045
						86:leaf=-0.0108503
					44:[U_AGE_COEC<0.095468] yes=87,no=88,missing=88
						87:leaf=0.0065521
						88:leaf=-0.0248867
				22:[D_CATEGORY_MEAN_EC<224350] yes=45,no=46,missing=45
					45:[D_KEYWORD_MEAN_EC<4150.51] yes=89,no=90,missing=90
						89:leaf=-0.00207001
						90:leaf=-0.0149594
					46:[C_D_U_TITLEMD5_CATEGORY_MEAN_C<10.7925] yes=91,no=92,missing=92
						91:leaf=-0.0213951
						92:leaf=-0.00467202
	2:[TIME_OF_DAY<10] yes=5,no=6,missing=6
		5:[U_KEYWORD_MEAN_C<118.561] yes=11,no=12,missing=11
			11:[U_KEYWORD_MICRO_MAX_COEC<0.118362] yes=23,no=24,missing=23
				23:[U_KEYWORD_MACRO_MAX_COEC<0.00109722] yes=47,no=48,missing=48
					47:[U_CITY_COEC<0.10162] yes=93,no=94,missing=94
						93:leaf=0.0130306
						94:leaf=0.0647984
					48:[D_TITLEMD5_COEC<0.0874713] yes=95,no=96,missing=95
						95:leaf=-0.00727514
						96:leaf=0.00197661
				24:[U_KEYWORD_MICRO_MAX_COEC<0.241966] yes=49,no=50,missing=50
					49:[U_CATEGORY_MACRO_MAX_COEC<0.0132007] yes=97,no=98,missing=98
						97:leaf=0.0243373
						98:leaf=0.00771909
					50:[U_KEYWORD_MACRO_MEAN_COEC<0.0306069] yes=99,no=100,missing=100
						99:leaf=0.0222926
						100:leaf=0.0514133
			12:[U_KEYWORD_MACRO_MAX_COEC<0.00265334] yes=25,no=26,missing=26
				25:[C_D_U_TITLEMD5_CATEGORY_MEAN_EC<16.9675] yes=51,no=52,missing=52
					51:[DOC_AGE<2.72222] yes=101,no=102,missing=102
						101:leaf=0.0215186
						102:leaf=0.00732586
					52:[TIME_OF_DAY<2] yes=103,no=104,missing=104
						103:leaf=0.0389177
						104:leaf=0.0192299
				26:[C_D_U_TITLEMD5_AGE_C<2] yes=53,no=54,missing=53
					53:[U_KEYWORD_MACRO_MAX_COEC<0.00393682] yes=105,no=106,missing=106
						105:leaf=-0.00304859
						106:leaf=-0.0204915
					54:[U_GENDER_C<64140.3] yes=107,no=108,missing=107
						107:leaf=0.0229678
						108:leaf=-0.00284806
		6:[D_TITLEMD5_COEC<0.0630239] yes=13,no=14,missing=14
			13:[C_D_U_TITLEMD5_CATEGORY_MEAN_C<0.53638] yes=27,no=28,missing=27
				27:[DOC_AGE<2.49361] yes=55,no=56,missing=56
					55:[C_D_U_CATEGORY_CATEGORY_MICRO_MEAN_COEC<0.0748043] yes=109,no=110,missing=109
						109:leaf=-0.0156568
						110:leaf=0.00564596
					56:[DOC_AGE<18.9372] yes=111,no=112,missing=112
						111:leaf=-0.0248826
						112:leaf=-0.00251041
				28:[C_D_U_TITLEMD5_CATEGORY_MICRO_MEAN_COEC<0.0377932] yes=57,no=58,missing=58
					57:[C_D_U_PUBLISHER_AGE_C<522.101] yes=113,no=114,missing=113
						113:leaf=-0.0489655
						114:leaf=-0.0157734
					58:[U_CATEGORY_MICRO_MEAN_COEC<0.0899242] yes=115,no=116,missing=116
						115:leaf=-0.00251764
						116:leaf=0.016452
			14:[IMAGE_COUNT<3] yes=29,no=30,missing=30
				29:[KW_REL<0.00297877] yes=59,no=60,missing=60
					59:[D_KEYWORD_MEAN_EC<4498.16] yes=117,no=118,missing=118
						117:leaf=-0.00160655
						118:leaf=-0.0131457
					60:[C_D_U_KEYWORD_CATEGORY_MAX_C<0.333556] yes=119,no=120,missing=120
						119:leaf=0.0163306
						120:leaf=0.00210785
				30:[U_KEYWORD_MACRO_MAX_COEC<0.00140199] yes=61,no=62,missing=62
					61:[D_CATEGORY_MAX_C<865.163] yes=121,no=122,missing=121
						121:leaf=0.0572655
						122:leaf=0.0270369
					62:[D_CATEGORY_MEAN_EC<10336.7] yes=123,no=124,missing=123
						123:leaf=0.0302605
						124:leaf=0.00858081
booster[36]:
0:[C_D_U_CATEGORY_CATEGORY_MICRO_MEAN_COEC<0.0560114] yes=1,no=2,missing=2
	1:[C_D_U_TITLEMD5_CATEGORY_MEAN_C<0.100031] yes=3,no=4,missing=4
		3:[U_KEYWORD_MICRO_MAX_COEC<0.117512] yes=7,no=8,missing=8
			7:[C_D_U_CATEGORY_CATEGORY_MICRO_MEAN_COEC<0.0383816] yes=15,no=16,missing=16
				15:[C_D_U_TITLEMD5_CITY_EC<4.23198] yes=31,no=32,missing=31
					31:[U_CATEGORY_MAX_EC<1165.45] yes=63,no=64,missing=64
						63:leaf=0.0254552
						64:leaf=-0.0514105
					32:[DOC_AGE<22.3619] yes=65,no=66,missing=66
						65:leaf=-0.0343914
						66:leaf=0.00763048
				16:[D_CATEGORY_MICRO_MAX_COEC<0.0626344] yes=33,no=34,missing=34
					33:[U_KEYWORD_MICRO_MAX_COEC<0.106714] yes=67,no=68,missing=68
						67:leaf=-0.0244109
						68:leaf=0.00114213
					34:[U_CATEGORY_MACRO_MEAN_COEC<0.0496821] yes=69,no=70,missing=70
						69:leaf=-0.0218913
						70:leaf=-0.0381926
			8:[U_GENDER_COEC<0.0878702] yes=17,no=18,missing=18
				17:[U_CATEGORY_MAX_EC<3719.93] yes=35,no=36,missing=36
					35:[C_D_U_PUBLISHER_GENDER_COEC<0.0473565] yes=71,no=72,missing=72
						71:leaf=0.0460805
						72:leaf=-0.130372
					36:[U_CATEGORY_MAX_C<353.297] yes=73,no=74,missing=74
						73:leaf=0.283203
						74:leaf=0.0712132
				18:[U_CATEGORY_MAX_C<158.3] yes=37,no=38,missing=38
					37:[U_KEYWORD_MACRO_MAX_COEC<0.00122529] yes=75,no=76,missing=76
						75:leaf=0.120258
						76:leaf=0.0213696
					38:[C_D_U_CATEGORY_CITY_MACRO_MAX_COEC<0.0968361] yes=77,no=78,missing=77
						77:leaf=-0.00928211
						78:leaf=0.0437586
		4:[U_CATEGORY_MACRO_MEAN_COEC<0.051055] yes=9,no=10,missing=10
			9:[M_D_U_KEYWORD_KEYWORD_MICRO_MAX_COEC<0.190316] yes=19,no=20,missing=19
				19:[CAT_REL<0.085946] yes=39,no=40,missing=40
					39:[DOC_AGE<23.0831] yes=79,no=80,missing=80
						79:leaf=-0.00364691
						80:leaf=0.0153837
					40:[U_KEYWORD_MAX_EC<314.34] yes=81,no=82,missing=82
						81:leaf=0.0057545
						82:leaf=0.0419509
				20:[C_D_U_PUBLISHER_GENDER_C<429.347] yes=41,no=42,missing=42
					41:[U_CATEGORY_MAX_EC<4336.42] yes=83,no=84,missing=84
						83:leaf=0.00859895
						84:leaf=-0.209963
					42:[CAT_REL<0.098448] yes=85,no=86,missing=86
						85:leaf=0.0717875
						86:leaf=-0.0982372
			10:[U_KEYWORD_MICRO_MAX_COEC<0.116007] yes=21,no=22,missing=22
				21:[D_CATEGORY_MACRO_MAX_COEC<0.0730934] yes=43,no=44,missing=44
					43:[C_D_U_CATEGORY_AGE_MEAN_EC<16744.8] yes=87,no=88,missing=87
						87:leaf=-0.0151382
						88:leaf=0.000632896
					44:[D_CATEGORY_MAX_C<1342.79] yes=89,no=90,missing=90
						89:leaf=0.000898632
						90:leaf=-0.034007
				22:[C_D_U_TITLEMD5_CATEGORY_MICRO_MAX_COEC<0.0354383] yes=45,no=46,missing=46
					45:[C_D_U_PUBLISHER_AGE_EC<9627.59] yes=91,no=92,missing=91
						91:leaf=-0.0827302
						92:leaf=0.0446881
					46:[U_KEYWORD_MEAN_EC<503.799] yes=93,no=94,missing=94
						93:leaf=-0.0181599
						94:leaf=0.00904611
	2:[U_KEYWORD_MACRO_MAX_COEC<0.00144272] yes=5,no=6,missing=6
		5:[U_KEYWORD_MEAN_C<74.9104] yes=11,no=12,missing=12
			11:[KW_REL<3.91849e-05] yes=23,no=24,missing=24
				23:[U_KEYWORD_MEAN_C<45.8834] yes=47,no=48,missing=48
					47:[C_D_U_KEYWORD_CATEGORY_MEAN_C<0.0507016] yes=95,no=96,missing=95
						95:leaf=0.0286272
						96:leaf=-0.0953949
					48:[U_KEYWORD_MEAN_C<57.3579] yes=97,no=98,missing=98
						97:leaf=0.00243745
						98:leaf=-0.0537818
				24:[C_D_U_KEYWORD_CATEGORY_MICRO_MAX_COEC<0.540322] yes=49,no=50,missing=50
					49:[CAT_REL<0.050947] yes=99,no=100,missing=100
						99:leaf=-0.0322818
						100:leaf=-0.000652063
					50:[D_TITLEMD5_COEC<0.0335936] yes=101,no=102,missing=102
						101:leaf=0.0722228
						102:leaf=0.025735
			12:[DOC_AGE<2.99972] yes=25,no=26,missing=26
				25:[D_KEYWORD_MEAN_C<231.447] yes=51,no=52,missing=52
					51:[U_KEYWORD_MICRO_MEAN_COEC<0.0949318] yes=103,no=104,missing=104
						103:leaf=-0.000711711
						104:leaf=0.0258164
					52:[M_D_U_KEYWORD_KEYWORD_MEAN_C<0.00520227] yes=105,no=106,missing=105
						105:leaf=-0.00495606
						106:leaf=0.016111
				26:[C_D_U_TITLEMD5_CATEGORY_MEAN_C<1.29468] yes=53,no=54,missing=54
					53:[D_CATEGORY_MEAN_EC<18305.2] yes=107,no=108,missing=107
						107:leaf=0.0172876
						108:leaf=-0.000274343
					54:[C_D_U_TITLEMD5_CATEGORY_MICRO_MAX_COEC<0.308138] yes=109,no=110,missing=110
						109:leaf=0.0109387
						110:leaf=0.0241828
		6:[U_KEYWORD_MICRO_MAX_COEC<0.122365] yes=13,no=14,missing=13
			13:[D_TITLEMD5_C<66.9275] yes=27,no=28,missing=27
				27:[DOC_AGE<2.45639] yes=55,no=56,missing=56
					55:[IMAGE_COUNT<0.999999] yes=111,no=112,missing=112
						111:leaf=-0.0239075
						112:leaf=0.00257493
					56:[D_KEYWORD_MICRO_MEAN_COEC<0.174952] yes=113,no=114,missing=114
						113:leaf=-0.0121217
						114:leaf=0.0248448
				28:[TIME_OF_DAY<3] yes=57,no=58,missing=58
					57:[D_TITLEMD5_EC<6501.72] yes=115,no=116,missing=116
						115:leaf=0.00840223
						116:leaf=0.0262262
					58:[DOC_AGE<4.06722] yes=117,no=118,missing=118
						117:leaf=0.00912539
						118:leaf=-0.00216937
			14:[U_KEYWORD_MICRO_MAX_COEC<0.22834] yes=29,no=30,missing=30
				29:[U_AGE_C<85678.4] yes=59,no=60,missing=60
					59:[U_CATEGORY_MICRO_MEAN_COEC<0.104345] yes=119,no=120,missing=120
						119:leaf=0.0214054
						120:leaf=-0.00907649
					60:[U_KEYWORD_MACRO_MAX_COEC<0.00626521] yes=121,no=122,missing=122
						121:leaf=0.00879697
						122:leaf=-0.0114713
				30:[U_KEYWORD_MICRO_MEAN_COEC<0.091971] yes=61,no=62,missing=62
					61:[D_KEYWORD_MICRO_MEAN_COEC<0.107462] yes=123,no=124,missing=123
						123:leaf=-0.0242308
						124:leaf=0.0228848
					62:[U_AGE_COEC<0.0993702] yes=125,no=126,missing=126
						125:leaf=0.0549843
						126:leaf=0.0278857
booster[37]:
0:[U_KEYWORD_MICRO_MEAN_COEC<0.101562] yes=1,no=2,missing=1
	1:[DAY_OF_WEEK<2] yes=3,no=4,missing=4
		3:[U_KEYWORD_MICRO_MEAN_COEC<0.0964151] yes=7,no=8,missing=7
			7:[D_TITLEMD5_C<178.621] yes=15,no=16,missing=15
				15:[U_KEYWORD_MICRO_MEAN_COEC<0.0913794] yes=31,no=32,missing=32
					31:[U_CITY_COEC<0.0719334] yes=63,no=64,missing=63
						63:leaf=-0.0380986
						64:leaf=-0.0124559
					32:[C_D_U_PUBLISHER_CITY_COEC<0.0830403] yes=65,no=66,missing=66
						65:leaf=-0.00899947
						66:leaf=0.00203318
				16:[TIME_OF_DAY<5] yes=33,no=34,missing=34
					33:[D_TITLEMD5_EC<3639.4] yes=67,no=68,missing=68
						67:leaf=0.00561102
						68:leaf=0.019405
					34:[U_KEYWORD_MICRO_MEAN_COEC<0.0912525] yes=69,no=70,missing=70
						69:leaf=-0.00911986
						70:leaf=0.00342804
			8:[TIME_OF_DAY<12] yes=17,no=18,missing=18
				17:[U_KEYWORD_MEAN_EC<1403.83] yes=35,no=36,missing=36
					35:[U_CATEGORY_MICRO_MEAN_COEC<0.0840499] yes=71,no=72,missing=71
						71:leaf=0.0265932
						72:leaf=0.00984763
					36:[U_KEYWORD_MACRO_MAX_COEC<0.00135092] yes=73,no=74,missing=74
						73:leaf=0.0410924
						74:leaf=0.0210987
				18:[D_CATEGORY_MEAN_EC<37483] yes=37,no=38,missing=37
					37:[D_KEYWORD_MACRO_MAX_COEC<0.0537407] yes=75,no=76,missing=76
						75:leaf=0.015377
						76:leaf=-0.0254376
					38:[M_D_U_KEYWORD_KEYWORD_MICRO_MAX_COEC<0.157758] yes=77,no=78,missing=77
						77:leaf=-0.00134214
						78:leaf=0.0187042
		4:[U_KEYWORD_MICRO_MAX_COEC<0.110732] yes=9,no=10,missing=10
			9:[C_D_U_TITLEMD5_CITY_COEC<0.0912807] yes=19,no=20,missing=19
				19:[DAY_OF_WEEK<6] yes=39,no=40,missing=40
					39:[TIME_OF_DAY<11] yes=79,no=80,missing=80
						79:leaf=-0.0132992
						80:leaf=-0.0270469
					40:[U_KEYWORD_MICRO_MAX_COEC<0.107858] yes=81,no=82,missing=82
						81:leaf=-0.0170728
						82:leaf=-0.00261312
				20:[DAY_OF_WEEK<6] yes=41,no=42,missing=42
					41:[U_KEYWORD_MICRO_MEAN_COEC<0.0983197] yes=83,no=84,missing=84
						83:leaf=-0.01441
						84:leaf=-0.00194288
					42:[C_D_U_TITLEMD5_GENDER_COEC<0.139631] yes=85,no=86,missing=85
						85:leaf=0.000270115
						86:leaf=0.0167992
			10:[C_D_U_PUBLISHER_CITY_COEC<0.0713513] yes=21,no=22,missing=22
				21:[C_D_U_TITLEMD5_CATEGORY_MEAN_EC<0.605559] yes=43,no=44,missing=43
					43:[U_CITY_COEC<0.10102] yes=87,no=88,missing=88
						87:leaf=-0.0178837
						88:leaf=0.0159398
					44:[U_KEYWORD_MEAN_C<127.638] yes=89,no=90,missing=90
						89:leaf=-0.00802238
						90:leaf=0.00214986
				22:[D_KEYWORD_MAX_EC<796.212] yes=45,no=46,missing=45
					45:[WORD_COUNT<8587] yes=91,no=92,missing=92
						91:leaf=0.00438428
						92:leaf=0.0261996
					46:[C_D_U_CATEGORY_CITY_MICRO_MAX_COEC<0.186862] yes=93,no=94,missing=93
						93:leaf=-0.00309064
						94:leaf=0.0222723
	2:[TIME_OF_DAY<10] yes=5,no=6,missing=6
		5:[D_PUBLISHER_EC<99299.5] yes=11,no=12,missing=11
			11:[D_CATEGORY_MICRO_MEAN_COEC<0.0789057] yes=23,no=24,missing=24
				23:[CAT_REL<0.0482266] yes=47,no=48,missing=48
					47:[U_CATEGORY_MACRO_MAX_COEC<0.00943038] yes=95,no=96,missing=96
						95:leaf=0.0223656
						96:leaf=-0.00740924
					48:[WORD_COUNT<3238] yes=97,no=98,missing=98
						97:leaf=0.00600783
						98:leaf=0.0247361
				24:[U_KEYWORD_MEAN_C<137.791] yes=49,no=50,missing=50
					49:[C_D_U_TITLEMD5_GENDER_COEC<0.097493] yes=99,no=100,missing=99
						99:leaf=0.00607693
						100:leaf=0.0189902
					50:[U_KEYWORD_MAX_C<34.851] yes=101,no=102,missing=102
						101:leaf=0.0269914
						102:leaf=0.00755561
			12:[U_KEYWORD_MICRO_MAX_COEC<0.116204] yes=25,no=26,missing=26
				25:[D_TITLEMD5_COEC<0.0341153] yes=51,no=52,missing=52
					51:[C_D_U_CATEGORY_AGE_MEAN_C<7578.01] yes=103,no=104,missing=104
						103:leaf=-0.0794962
						104:leaf=-0.0162635
					52:[C_D_U_TITLEMD5_CATEGORY_MICRO_MEAN_COEC<0.0770886] yes=105,no=106,missing=106
						105:leaf=0.0347183
						106:leaf=0.0147269
				26:[U_KEYWORD_MACRO_MAX_COEC<0.00127343] yes=53,no=54,missing=54
					53:[C_D_U_CATEGORY_CATEGORY_MACRO_MAX_COEC<0.00874726] yes=107,no=108,missing=107
						107:leaf=0.0998429
						108:leaf=0.0521944
					54:[D_KEYWORD_MEAN_C<81.3413] yes=109,no=110,missing=110
						109:leaf=0.0647022
						110:leaf=0.0277333
		6:[D_TITLEMD5_C<7.42579] yes=13,no=14,missing=14
			13:[DOC_AGE<1.13333] yes=27,no=28,missing=28
				27:[C_D_U_CATEGORY_CATEGORY_MICRO_MAX_COEC<0.161295] yes=55,no=56,missing=56
					55:[CAT_REL<0.066632] yes=111,no=112,missing=112
						111:leaf=-0.0125334
						112:leaf=0.010017
					56:[D_CATEGORY_MACRO_MEAN_COEC<0.0780223] yes=113,no=114,missing=113
						113:leaf=0.0654952
						114:leaf=0.022414
				28:[C_D_U_KEYWORD_CATEGORY_MICRO_MAX_COEC<0.240085] yes=57,no=58,missing=58
					57:[C_D_U_CATEGORY_CITY_MACRO_MEAN_COEC<0.0696292] yes=115,no=116,missing=115
						115:leaf=-0.0299216
						116:leaf=-0.0125311
					58:[CAT_REL<0.069741] yes=117,no=118,missing=118
						117:leaf=-0.0139551
						118:leaf=0.00832047
			14:[KW_REL<0.000563192] yes=29,no=30,missing=30
				29:[D_KEYWORD_MAX_EC<2327.56] yes=59,no=60,missing=59
					59:[U_KEYWORD_MICRO_MAX_COEC<0.126938] yes=119,no=120,missing=120
						119:leaf=-0.00699434
						120:leaf=0.0242271
					60:[D_KEYWORD_MACRO_MEAN_COEC<0.0901102] yes=121,no=122,missing=122
						121:leaf=-0.0630137
						122:leaf=-0.0146195
				30:[C_D_U_KEYWORD_CATEGORY_MAX_EC<2.01469] yes=61,no=62,missing=62
					61:[CAT_REL<0.035299] yes=123,no=124,missing=124
						123:leaf=0.00802937
						124:leaf=0.0194234
					62:[M_D_U_KEYWORD_KEYWORD_MACRO_MEAN_COEC<0.000553832] yes=125,no=126,missing=125
						125:leaf=0.000400857
						126:leaf=0.0161304
booster[38]:
0:[IMAGE_COUNT<0.999999] yes=1,no=2,missing=2
	1:[C_D_U_TITLEMD5_CATEGORY_MEAN_EC<0.526457] yes=3,no=4,missing=3
		3:[DOC_AGE<1.16667] yes=7,no=8,missing=8
			7:[D_CATEGORY_MICRO_MAX_COEC<0.0787494] yes=15,no=16,missing=15
				15:[U_KEYWORD_MAX_EC<227.904] yes=31,no=32,missing=32
					31:[C_D_U_CATEGORY_AGE_MACRO_MEAN_COEC<0.0806144] yes=63,no=64,missing=63
						63:leaf=-0.0577531
						64:leaf=0.0176921
					32:[D_KEYWORD_MICRO_MAX_COEC<0.113149] yes=65,no=66,missing=66
						65:leaf=0.0054197
						66:leaf=-0.0209319
				16:[D_KEYWORD_MICRO_MAX_COEC<0.0934071] yes=33,no=34,missing=34
					33:[U_KEYWORD_MACRO_MAX_COEC<0.00915908] yes=67,no=68,missing=67
						67:leaf=0.0056198
						68:leaf=0.442746
					34:[U_KEYWORD_MEAN_C<105.854] yes=69,no=70,missing=69
						69:leaf=-0.0737471
						70:leaf=-0.0374872
			8:[D_TITLEMD5_COEC<0.102899] yes=17,no=18,missing=18
				17:[C_D_U_KEYWORD_CATEGORY_MEAN_C<0.425866] yes=35,no=36,missing=36
					35:[U_KEYWORD_MAX_EC<256.459] yes=71,no=72,missing=72
						71:leaf=-0.0325396
						72:leaf=-0.000411737
					36:[WORD_COUNT<739] yes=73,no=74,missing=74
						73:leaf=-0.0668582
						74:leaf=-0.0370127
				18:[U_CATEGORY_MICRO_MEAN_COEC<0.103554] yes=37,no=38,missing=37
					37:[DOC_AGE<13.4286] yes=75,no=76,missing=76
						75:leaf=-0.0752762
						76:leaf=-0.0518303
					38:[D_CATEGORY_MACRO_MAX_COEC<0.0706622] yes=77,no=78,missing=78
						77:leaf=-0.0940496
						78:leaf=0.00204809
		4:[U_CATEGORY_MAX_EC<4606.84] yes=9,no=10,missing=10
			9:[DOC_AGE<17.5072] yes=19,no=20,missing=20
				19:[DOC_AGE<1.15028] yes=39,no=40,missing=40
					39:[U_CATEGORY_MICRO_MEAN_COEC<0.0958079] yes=79,no=80,missing=80
						79:leaf=-0.0136962
						80:leaf=0.0425231
					40:[C_D_U_CATEGORY_CITY_MICRO_MAX_COEC<0.0954438] yes=81,no=82,missing=81
						81:leaf=-0.0256156
						82:leaf=0.00815013
				20:[C_D_U_TITLEMD5_GENDER_COEC<0.0624589] yes=41,no=42,missing=42
					41:[C_D_U_KEYWORD_CATEGORY_MACRO_MAX_COEC<0.00225041] yes=83,no=84,missing=84
						83:leaf=0.131821
						84:leaf=0.0462206
					42:[C_D_U_TITLEMD5_CATEGORY_MICRO_MEAN_COEC<0.0717365] yes=85,no=86,missing=86
						85:leaf=0.0332519
						86:leaf=-0.0188717
			10:[DOC_AGE<10.7006] yes=21,no=22,missing=22
				21:[KW_REL<0.00905344] yes=43,no=44,missing=44
					43:[U_KEYWORD_MEAN_C<149.098] yes=87,no=88,missing=88
						87:leaf=-0.0344566
						88:leaf=-0.06339
					44:[U_CATEGORY_MEAN_EC<16176.9] yes=89,no=90,missing=90
						89:leaf=0.157266
						90:leaf=0.00491548
				22:[C_D_U_TITLEMD5_CATEGORY_MICRO_MEAN_COEC<0.0552735] yes=45,no=46,missing=46
					45:[TIME_OF_DAY<15] yes=91,no=92,missing=92
						91:leaf=0.0269214
						92:leaf=-0.0441348
					46:[C_D_U_CATEGORY_GENDER_MEAN_C<343.994] yes=93,no=94,missing=94
						93:leaf=0.0315593
						94:leaf=-0.0474069
	2:[CAT_REL<0.03429] yes=5,no=6,missing=6
		5:[D_TITLEMD5_COEC<0.112109] yes=11,no=12,missing=11
			11:[D_TITLEMD5_EC<6032.63] yes=23,no=24,missing=23
				23:[D_CATEGORY_MAX_EC<15287] yes=47,no=48,missing=47
					47:[D_TITLEMD5_C<14.1785] yes=95,no=96,missing=95
						95:leaf=-0.0106782
						96:leaf=0.0104036
					48:[DOC_AGE<1.70361] yes=97,no=98,missing=98
						97:leaf=0.00425933
						98:leaf=-0.0100959
				24:[TIME_OF_DAY<10] yes=49,no=50,missing=50
					49:[D_CATEGORY_MEAN_C<23640] yes=99,no=100,missing=100
						99:leaf=0.013839
						100:leaf=0.0387809
					50:[C_D_U_TITLEMD5_CATEGORY_MICRO_MAX_COEC<0.0677998] yes=101,no=102,missing=102
						101:leaf=-0.0272913
						102:leaf=0.00315466
			12:[U_KEYWORD_MEAN_C<133.967] yes=25,no=26,missing=25
				25:[U_KEYWORD_MAX_C<27.5662] yes=51,no=52,missing=51
					51:[C_D_U_TITLEMD5_AGE_COEC<0.147299] yes=103,no=104,missing=103
						103:leaf=0.000462361
						104:leaf=0.00950553
					52:[U_KEYWORD_MICRO_MAX_COEC<0.126895] yes=105,no=106,missing=106
						105:leaf=-0.00788526
						106:leaf=0.0127015
				26:[U_KEYWORD_MAX_EC<475.638] yes=53,no=54,missing=54
					53:[U_KEYWORD_MICRO_MEAN_COEC<0.102613] yes=107,no=108,missing=108
						107:leaf=0.0102549
						108:leaf=0.0199477
					54:[U_AGE_C<87323.6] yes=109,no=110,missing=110
						109:leaf=0.00558141
						110:leaf=-0.0148063
		6:[C_D_U_KEYWORD_CATEGORY_MEAN_EC<11.6907] yes=13,no=14,missing=14
			13:[KW_REL<0.00046543] yes=27,no=28,missing=28
				27:[U_KEYWORD_MEAN_C<111.011] yes=55,no=56,missing=56
					55:[D_KEYWORD_MEAN_EC<18.5672] yes=111,no=112,missing=112
						111:leaf=0.0631717
						112:leaf=-0.0153323
					56:[C_D_U_TITLEMD5_CATEGORY_MEAN_EC<0.233982] yes=113,no=114,missing=114
						113:leaf=-0.0181297
						114:leaf=0.00616066
				28:[C_D_U_CATEGORY_CITY_MACRO_MEAN_COEC<0.0715895] yes=57,no=58,missing=57
					57:[D_TITLEMD5_C<11.9289] yes=115,no=116,missing=115
						115:leaf=-0.000178254
						116:leaf=0.0125786
					58:[DOC_AGE<2.9725] yes=117,no=118,missing=118
						117:leaf=0.0285473
						118:leaf=0.0153845
			14:[M_D_U_KEYWORD_KEYWORD_MEAN_C<0.0047473] yes=29,no=30,missing=29
				29:[C_D_U_TITLEMD5_CATEGORY_MEAN_C<4.18273] yes=59,no=60,missing=60
					59:[KW_REL<0.00347432] yes=119,no=120,missing=120
						119:leaf=-0.0147998
						120:leaf=0.00469376
					60:[C_D_U_KEYWORD_CATEGORY_MEAN_EC<32.145] yes=121,no=122,missing=122
						121:leaf=0.0106927
						122:leaf=-0.0048578
				30:[C_D_U_KEYWORD_CATEGORY_MEAN_EC<30.0659] yes=61,no=62,missing=62
					61:[U_KEYWORD_MICRO_MEAN_COEC<0.101857] yes=123,no=124,missing=124
						123:leaf=0.00697811
						124:leaf=0.0184949
					62:[KW_REL<0.00538422] yes=125,no=126,missing=126
						125:leaf=-0.00527055
						126:leaf=0.00902622
booster[39]:
0:[IMAGE_COUNT<3] yes=1,no=2,missing=2
	1:[M_D_U_KEYWORD_KEYWORD_MICRO_MAX_COEC<0.146852] yes=3,no=4,missing=3
		3:[U_KEYWORD_MEAN_C<115.831] yes=7,no=8,missing=8
			7:[U_KEYWORD_MICRO_MAX_COEC<0.119627] yes=15,no=16,missing=16
				15:[U_CATEGORY_MACRO_MEAN_COEC<0.025025] yes=31,no=32,missing=32
					31:[U_AGE_EC<807846] yes=63,no=64,missing=64
						63:leaf=0.192764
						64:leaf=0.064784
					32:[C_D_U_TITLEMD5_AGE_COEC<0.107757] yes=65,no=66,missing=65
						65:leaf=-0.01208
						66:leaf=9.57051e-05
				16:[U_KEYWORD_MEAN_C<2.70784] yes=33,no=34,missing=34
					33:[C_D_U_KEYWORD_CATEGORY_MEAN_EC<1.70322] yes=67,no=68,missing=68
						67:leaf=0.0385052
						68:leaf=-0.0653486
					34:[U_KEYWORD_MICRO_MAX_COEC<0.152064] yes=69,no=70,missing=70
						69:leaf=0.00357075
						70:leaf=0.0199666
			8:[TIME_OF_DAY<11] yes=17,no=18,missing=18
				17:[U_KEYWORD_MACRO_MAX_COEC<0.00230699] yes=35,no=36,missing=36
					35:[U_KEYWORD_MACRO_MAX_COEC<0.00110797] yes=71,no=72,missing=72
						71:leaf=0.0280676
						72:leaf=0.00744128
					36:[D_KEYWORD_MICRO_MEAN_COEC<0.0874408] yes=73,no=74,missing=74
						73:leaf=-0.0102355
						74:leaf=0.00193047
				18:[D_TITLEMD5_COEC<0.0601711] yes=37,no=38,missing=38
					37:[DOC_AGE<18.7681] yes=75,no=76,missing=76
						75:leaf=-0.0164656
						76:leaf=0.00155236
					38:[C_D_U_TITLEMD5_GENDER_COEC<0.111908] yes=77,no=78,missing=78
						77:leaf=-0.00902957
						78:leaf=0.000553322
		4:[M_D_U_KEYWORD_KEYWORD_MICRO_MAX_COEC<0.223249] yes=9,no=10,missing=10
			9:[M_D_U_KEYWORD_KEYWORD_MICRO_MEAN_COEC<0.14505] yes=19,no=20,missing=20
				19:[D_TITLEMD5_C<105.073] yes=39,no=40,missing=40
					39:[D_KEYWORD_MEAN_C<199.033] yes=79,no=80,missing=80
						79:leaf=0.0181512
						80:leaf=0.00147164
					40:[DOC_AGE<11.2] yes=81,no=82,missing=82
						81:leaf=0.0236717
						82:leaf=0.011725
				20:[D_TITLEMD5_COEC<0.138729] yes=41,no=42,missing=41
					41:[D_KEYWORD_MEAN_C<127.874] yes=83,no=84,missing=84
						83:leaf=0.0115809
						84:leaf=-0.00676134
					42:[U_KEYWORD_MACRO_MAX_COEC<0.00123791] yes=85,no=86,missing=86
						85:leaf=0.02721
						86:leaf=0.00706185
			10:[U_KEYWORD_MACRO_MAX_COEC<0.0013007] yes=21,no=22,missing=22
				21:[D_KEYWORD_MACRO_MEAN_COEC<0.0925704] yes=43,no=44,missing=44
					43:[U_KEYWORD_MACRO_MEAN_COEC<0.0187926] yes=87,no=88,missing=88
						87:leaf=0.0898437
						88:leaf=0.0483926
					44:[C_D_U_CATEGORY_AGE_MEAN_C<15445] yes=89,no=90,missing=90
						89:leaf=0.051252
						90:leaf=0.0210164
				22:[D_CATEGORY_MICRO_MEAN_COEC<0.111528] yes=45,no=46,missing=46
					45:[DOC_AGE<8.39528] yes=91,no=92,missing=92
						91:leaf=0.0346619
						92:leaf=0.0154968
					46:[C_D_U_TITLEMD5_CATEGORY_MAX_C<0.0122289] yes=93,no=94,missing=94
						93:leaf=0.0338187
						94:leaf=-0.00294639
	2:[CAT_REL<0.000725] yes=5,no=6,missing=6
		5:[D_CATEGORY_MEAN_C<12377.3] yes=11,no=12,missing=11
			11:[C_D_U_TITLEMD5_CATEGORY_MACRO_MEAN_COEC<0.0233004] yes=23,no=24,missing=24
				23:[D_PUBLISHER_COEC<0.0558306] yes=47,no=48,missing=47
					47:[DOC_AGE<4.14861] yes=95,no=96,missing=96
						95:leaf=-0.055839
						96:leaf=-0.0136371
					48:[WORD_COUNT<1349] yes=97,no=98,missing=98
						97:leaf=0.0579384
						98:leaf=-0.00773816
				24:[D_CATEGORY_MACRO_MAX_COEC<0.067989] yes=49,no=50,missing=49
					49:[D_TITLEMD5_COEC<0.0436583] yes=99,no=100,missing=99
						99:leaf=0.00089472
						100:leaf=0.0352984
					50:[WORD_COUNT<8587] yes=101,no=102,missing=102
						101:leaf=0.00503555
						102:leaf=0.0228256
			12:[D_TITLEMD5_COEC<0.0601711] yes=25,no=26,missing=26
				25:[D_KEYWORD_MEAN_EC<1388.32] yes=51,no=52,missing=52
					51:[C_D_U_PUBLISHER_AGE_C<1142.04] yes=103,no=104,missing=104
						103:leaf=0.0523668
						104:leaf=-0.0127159
					52:[C_D_U_CATEGORY_GENDER_MICRO_MAX_COEC<0.0714687] yes=105,no=106,missing=106
						105:leaf=-0.0568372
						106:leaf=-0.02512
				26:[WORD_COUNT<1045] yes=53,no=54,missing=54
					53:[C_D_U_KEYWORD_CATEGORY_MEAN_EC<15.6565] yes=107,no=108,missing=108
						107:leaf=-0.040498
						108:leaf=-0.00940532
					54:[U_KEYWORD_MICRO_MEAN_COEC<0.092382] yes=109,no=110,missing=110
						109:leaf=-0.0187627
						110:leaf=0.00719805
		6:[U_KEYWORD_MACRO_MAX_COEC<0.00122583] yes=13,no=14,missing=14
			13:[CAT_REL<0.129407] yes=27,no=28,missing=28
				27:[U_KEYWORD_MACRO_MAX_COEC<0.000963461] yes=55,no=56,missing=56
					55:[C_D_U_CATEGORY_AGE_MACRO_MEAN_COEC<0.0708814] yes=111,no=112,missing=112
						111:leaf=-0.104979
						112:leaf=0.0951802
					56:[D_PUBLISHER_C<4829.68] yes=113,no=114,missing=113
						113:leaf=0.0286459
						114:leaf=0.0526117
				28:[U_CATEGORY_MACRO_MAX_COEC<0.0406095] yes=57,no=58,missing=58
					57:[C_D_U_CATEGORY_CATEGORY_MACRO_MAX_COEC<0.0119564] yes=115,no=116,missing=116
						115:leaf=-0.091965
						116:leaf=0.0845592
					58:[WORD_COUNT<614] yes=117,no=118,missing=118
						117:leaf=0.0023985
						118:leaf=-0.220714
			14:[CAT_REL<0.135547] yes=29,no=30,missing=30
				29:[D_TITLEMD5_COEC<0.0726848] yes=59,no=60,missing=60
					59:[U_CATEGORY_MICRO_MEAN_COEC<0.0906398] yes=119,no=120,missing=120
						119:leaf=-0.00658729
						120:leaf=0.0149618
					60:[WORD_COUNT<882] yes=121,no=122,missing=122
						121:leaf=-0.0017133
						122:leaf=0.0194224
				30:[U_KEYWORD_MACRO_MAX_COEC<0.00329646] yes=61,no=62,missing=62
					61:[D_CATEGORY_MACRO_MAX_COEC<0.0791876] yes=123,no=124,missing=124
						123:leaf=0.039801
						124:leaf=0.021277
					62:[U_AGE_COEC<0.0963323] yes=125,no=126,missing=126
						125:leaf=0.0238068
						126:leaf=-0.0100615
booster[40]:
0:[U_KEYWORD_MICRO_MEAN_COEC<0.0925663] yes=1,no=2,missing=2
	1:[C_D_U_KEYWORD_CATEGORY_MEAN_EC<0.240637] yes=3,no=4,missing=3
		3:[U_CATEGORY_MEAN_EC<7911.91] yes=7,no=8,missing=8
			7:[U_AGE_COEC<0.0946221] yes=15,no=16,missing=15
				15:[D_KEYWORD_MACRO_MAX_COEC<0.0268023] yes=31,no=32,missing=32
					31:[C_D_U_CATEGORY_CATEGORY_MEAN_C<3.20865] yes=63,no=64,missing=64
						63:leaf=-0.0722613
						64:leaf=0.12158
					32:[C_D_U_CATEGORY_GENDER_MAX_EC<15120.1] yes=65,no=66,missing=65
						65:leaf=0.0451733
						66:leaf=-0.0295356
				16:[U_CATEGORY_MICRO_MEAN_COEC<0.0917901] yes=33,no=34,missing=34
					33:[U_CATEGORY_MICRO_MAX_COEC<0.0937032] yes=67,no=68,missing=68
						67:leaf=0.0577861
						68:leaf=0.120098
					34:leaf=-0.01753
			8:[U_CITY_C<34841.2] yes=17,no=18,missing=18
				17:[U_CATEGORY_MICRO_MEAN_COEC<0.0839687] yes=35,no=36,missing=35
					35:[D_CATEGORY_MICRO_MAX_COEC<0.0705159] yes=69,no=70,missing=70
						69:leaf=-0.0325816
						70:leaf=0.0204282
					36:[U_CATEGORY_MICRO_MEAN_COEC<0.0861675] yes=71,no=72,missing=72
						71:leaf=0.0775036
						72:leaf=0.0299035
				18:[U_AGE_COEC<0.0955553] yes=37,no=38,missing=38
					37:[C_D_U_CATEGORY_CATEGORY_MACRO_MEAN_COEC<0.0368738] yes=73,no=74,missing=73
						73:leaf=-0.0320639
						74:leaf=-0.147942
					38:[U_KEYWORD_MAX_C<121.031] yes=75,no=76,missing=76
						75:leaf=-0.00334996
						76:leaf=0.107377
		4:[U_KEYWORD_MEAN_C<2.6942] yes=9,no=10,missing=10
			9:[C_D_U_KEYWORD_CATEGORY_MEAN_EC<1.77719] yes=19,no=20,missing=20
				19:[U_CATEGORY_MACRO_MEAN_COEC<0.0646238] yes=39,no=40,missing=40
					39:[C_D_U_CATEGORY_CATEGORY_MEAN_EC<2064.67] yes=77,no=78,missing=77
						77:leaf=-0.0305994
						78:leaf=-0.252021
					40:[C_D_U_CATEGORY_CITY_MAX_EC<8.8163] yes=79,no=80,missing=80
						79:leaf=-0.110021
						80:leaf=0.0442903
				20:[U_KEYWORD_MACRO_MEAN_COEC<0.0298679] yes=41,no=42,missing=42
					41:[C_D_U_CATEGORY_AGE_MAX_C<18684] yes=81,no=82,missing=81
						81:leaf=-0.0793188
						82:leaf=0.190345
					42:[C_D_U_CATEGORY_CITY_MACRO_MAX_COEC<0.090858] yes=83,no=84,missing=83
						83:leaf=-0.0534337
						84:leaf=-0.00244343
			10:[C_D_U_TITLEMD5_CITY_C<1.97025] yes=21,no=22,missing=21
				21:[C_D_U_TITLEMD5_CATEGORY_MEAN_C<0.203502] yes=43,no=44,missing=44
					43:[DOC_AGE<19.5297] yes=85,no=86,missing=86
						85:leaf=-0.0300816
						86:leaf=-0.0119156
					44:[U_KEYWORD_MAX_EC<148.769] yes=87,no=88,missing=88
						87:leaf=-0.0016945
						88:leaf=-0.0167051
				22:[D_CATEGORY_MAX_EC<151678] yes=45,no=46,missing=45
					45:[D_KEYWORD_MEAN_C<316.108] yes=89,no=90,missing=90
						89:leaf=0.00318074
						90:leaf=-0.00810628
					46:[C_D_U_TITLEMD5_CITY_COEC<0.142876] yes=91,no=92,missing=92
						91:leaf=-0.0191592
						92:leaf=-0.00332773
	2:[U_KEYWORD_MICRO_MAX_COEC<0.149312] yes=5,no=6,missing=5
		5:[U_KEYWORD_MACRO_MAX_COEC<0.00122632] yes=11,no=12,missing=12
			11:[U_KEYWORD_MEAN_EC<686.515] yes=23,no=24,missing=24
				23:[M_D_U_KEYWORD_KEYWORD_MACRO_MEAN_COEC<0.000106273] yes=47,no=48,missing=47
					47:[U_KEYWORD_MACRO_MAX_COEC<0.000960809] yes=93,no=94,missing=94
						93:leaf=0.0338143
						94:leaf=-0.069433
					48:[D_KEYWORD_MAX_C<193.897] yes=95,no=96,missing=96
						95:leaf=0.0155253
						96:leaf=-0.0584796
				24:[U_CATEGORY_MACRO_MEAN_COEC<0.025025] yes=49,no=50,missing=50
					49:[U_AGE_EC<806426] yes=97,no=98,missing=98
						97:leaf=0.172316
						98:leaf=0.0540785
					50:[CAT_REL<0.053685] yes=99,no=100,missing=100
						99:leaf=0.00623487
						100:leaf=0.019716
			12:[D_TITLEMD5_C<56.5866] yes=25,no=26,missing=25
				25:[DOC_AGE<1.2] yes=51,no=52,missing=52
					51:[D_PUBLISHER_COEC<0.0630806] yes=101,no=102,missing=101
						101:leaf=-0.00602565
						102:leaf=0.010476
					52:[D_TITLEMD5_COEC<0.0703926] yes=103,no=104,missing=103
						103:leaf=-0.0131441
						104:leaf=-0.00300305
				26:[DOC_AGE<2.78583] yes=53,no=54,missing=54
					53:[CAT_REL<0.00725915] yes=105,no=106,missing=106
						105:leaf=0.0094099
						106:leaf=0.0211206
					54:[TIME_OF_DAY<4] yes=107,no=108,missing=108
						107:leaf=0.00975515
						108:leaf=-0.000521743
		6:[U_AGE_COEC<0.0985301] yes=13,no=14,missing=14
			13:[U_CITY_COEC<0.0968616] yes=27,no=28,missing=27
				27:[C_D_U_TITLEMD5_CATEGORY_MICRO_MEAN_COEC<0.102407] yes=55,no=56,missing=56
					55:[U_CITY_COEC<0.0875569] yes=109,no=110,missing=110
						109:leaf=0.0737005
						110:leaf=0.0415507
					56:[U_CITY_C<8473.4] yes=111,no=112,missing=111
						111:leaf=0.0220716
						112:leaf=0.0422679
				28:[U_KEYWORD_MEAN_C<109.701] yes=57,no=58,missing=58
					57:[U_CATEGORY_MAX_EC<2326.84] yes=113,no=114,missing=114
						113:leaf=-0.182642
						114:leaf=0.0388921
					58:[TIME_OF_DAY<13] yes=115,no=116,missing=116
						115:leaf=-0.140971
						116:leaf=-0.0169618
			14:[U_CATEGORY_MEAN_C<2540.95] yes=29,no=30,missing=30
				29:[U_KEYWORD_MICRO_MEAN_COEC<0.096478] yes=59,no=60,missing=60
					59:[DAY_OF_WEEK<0.999999] yes=117,no=118,missing=118
						117:leaf=0.0307775
						118:leaf=-0.000156825
					60:[U_KEYWORD_MICRO_MAX_COEC<0.214285] yes=119,no=120,missing=120
						119:leaf=0.0177497
						120:leaf=0.0362877
				30:[U_CATEGORY_MICRO_MEAN_COEC<0.102882] yes=61,no=62,missing=62
					61:[U_CATEGORY_MICRO_MEAN_COEC<0.0910867] yes=121,no=122,missing=122
						121:leaf=-0.0233584
						122:leaf=0.0216347
					62:[C_D_U_CATEGORY_GENDER_MEAN_EC<81132.7] yes=123,no=124,missing=123
						123:leaf=-0.150065
						124:leaf=0.0669242
booster[41]:
0:[C_D_U_TITLEMD5_CITY_COEC<0.113114] yes=1,no=2,missing=1
	1:[CAT_REL<0.053409] yes=3,no=4,missing=4
		3:[D_TITLEMD5_C<11.8313] yes=7,no=8,missing=7
			7:[D_CATEGORY_MEAN_C<14694] yes=15,no=16,missing=16
				15:[C_D_U_CATEGORY_CITY_MACRO_MAX_COEC<0.0527665] yes=31,no=32,missing=32
					31:[D_KEYWORD_MICRO_MEAN_COEC<0.201773] yes=63,no=64,missing=64
						63:leaf=-0.0310186
						64:leaf=0.0217869
					32:[C_D_U_KEYWORD_CATEGORY_MEAN_EC<3.04398] yes=65,no=66,missing=65
						65:leaf=-0.00591054
						66:leaf=-0.0208057
				16:[D_KEYWORD_MEAN_C<203.98] yes=33,no=34,missing=33
					33:[D_PUBLISHER_COEC<0.0899664] yes=67,no=68,missing=68
						67:leaf=-0.000779204
						68:leaf=0.0209746
					34:[DOC_AGE<0.541388] yes=69,no=70,missing=70
						69:leaf=0.00399184
						70:leaf=-0.0163333
			8:[D_CATEGORY_MEAN_EC<15305.1] yes=17,no=18,missing=17
				17:[D_TITLEMD5_COEC<0.077553] yes=35,no=36,missing=36
					35:[C_D_U_KEYWORD_CATEGORY_MAX_EC<0.393895] yes=71,no=72,missing=72
						71:leaf=0.0251075
						72:leaf=-0.00464772
					36:[U_KEYWORD_MACRO_MAX_COEC<0.00121472] yes=73,no=74,missing=74
						73:leaf=0.0306854
						74:leaf=0.0116546
				18:[U_KEYWORD_MEAN_C<129.331] yes=37,no=38,missing=38
					37:[U_KEYWORD_MICRO_MAX_COEC<0.118479] yes=75,no=76,missing=76
						75:leaf=-0.0109946
						76:leaf=0.00518455
					38:[U_CITY_COEC<0.0982367] yes=77,no=78,missing=78
						77:leaf=-0.00423313
						78:leaf=0.00617994
		4:[U_CATEGORY_MEAN_EC<21095.5] yes=9,no=10,missing=10
			9:[CAT_REL<0.135414] yes=19,no=20,missing=20
				19:[U_CATEGORY_MAX_EC<3241.01] yes=39,no=40,missing=40
					39:[C_D_U_CATEGORY_CITY_MICRO_MAX_COEC<0.0949881] yes=79,no=80,missing=79
						79:leaf=0.00593979
						80:leaf=0.0187664
					40:[D_TITLEMD5_C<5.85781] yes=81,no=82,missing=82
						81:leaf=-0.0124989
						82:leaf=0.000214806
				20:[U_CATEGORY_MAX_EC<3825.47] yes=41,no=42,missing=42
					41:[C_D_U_CATEGORY_CATEGORY_MICRO_MAX_COEC<0.165529] yes=83,no=84,missing=84
						83:leaf=0.0258536
						84:leaf=0.0563875
					42:[IMAGE_COUNT<3] yes=85,no=86,missing=86
						85:leaf=0.00743816
						86:leaf=0.0320649
			10:[C_D_U_KEYWORD_CATEGORY_MACRO_MEAN_COEC<0.0532587] yes=21,no=22,missing=22
				21:[D_TITLEMD5_C<0.999999] yes=43,no=44,missing=43
					43:[DOC_AGE<0.541388] yes=87,no=88,missing=88
						87:leaf=-0.020824
						88:leaf=-0.0557241
					44:[C_D_U_CATEGORY_CATEGORY_MICRO_MEAN_COEC<0.0866227] yes=89,no=90,missing=90
						89:leaf=-0.0288984
						90:leaf=0.00239589
				22:[U_KEYWORD_MACRO_MAX_COEC<0.00401685] yes=45,no=46,missing=46
					45:[CAT_REL<0.257668] yes=91,no=92,missing=92
						91:leaf=-0.00886667
						92:leaf=0.0117901
					46:[U_CATEGORY_MEAN_EC<27518.7] yes=93,no=94,missing=94
						93:leaf=-0.00943994
						94:leaf=-0.0272061
	2:[D_CATEGORY_MEAN_EC<297160] yes=5,no=6,missing=5
		5:[KW_REL<0.000500704] yes=11,no=12,missing=12
			11:[C_D_U_TITLEMD5_AGE_COEC<0.104524] yes=23,no=24,missing=23
				23:[D_KEYWORD_MAX_EC<8.492] yes=47,no=48,missing=47
					47:[U_GENDER_COEC<0.0874848] yes=95,no=96,missing=96
						95:leaf=-0.306553
						96:leaf=0.0463769
					48:[D_KEYWORD_MAX_EC<2763.11] yes=97,no=98,missing=98
						97:leaf=-0.000103658
						98:leaf=-0.0121464
				24:[U_KEYWORD_MACRO_MEAN_COEC<0.0320196] yes=49,no=50,missing=50
					49:[C_D_U_KEYWORD_CATEGORY_MEAN_EC<5.8875] yes=99,no=100,missing=99
						99:leaf=0.013283
						100:leaf=-0.00563577
					50:[U_GENDER_C<70257.2] yes=101,no=102,missing=101
						101:leaf=0.0226557
						102:leaf=0.00511882
			12:[C_D_U_KEYWORD_CATEGORY_MEAN_EC<17.4967] yes=25,no=26,missing=25
				25:[D_CATEGORY_MAX_EC<206835] yes=51,no=52,missing=52
					51:[DOC_AGE<12.1328] yes=103,no=104,missing=104
						103:leaf=0.0148143
						104:leaf=0.00650387
					52:[C_D_U_CATEGORY_CITY_MICRO_MEAN_COEC<0.094306] yes=105,no=106,missing=106
						105:leaf=0.0125415
						106:leaf=0.0310505
				26:[C_D_U_PUBLISHER_CITY_COEC<0.0712715] yes=53,no=54,missing=53
					53:[KW_REL<0.00505356] yes=107,no=108,missing=108
						107:leaf=-0.0109036
						108:leaf=0.00712493
					54:[DAY_OF_WEEK<0.999999] yes=109,no=110,missing=110
						109:leaf=0.0195583
						110:leaf=0.00497596
		6:[C_D_U_TITLEMD5_CATEGORY_MICRO_MEAN_COEC<0.270971] yes=13,no=14,missing=13
			13:[C_D_U_TITLEMD5_GENDER_COEC<0.132484] yes=27,no=28,missing=28
				27:[D_TITLEMD5_EC<11109.9] yes=55,no=56,missing=56
					55:[KW_REL<0.0060038] yes=111,no=112,missing=112
						111:leaf=-0.0174431
						112:leaf=0.0118408
					56:[U_CATEGORY_MICRO_MEAN_COEC<0.0794025] yes=113,no=114,missing=114
						113:leaf=-0.0250175
						114:leaf=0.0402353
				28:[U_KEYWORD_MICRO_MEAN_COEC<0.0994115] yes=57,no=58,missing=57
					57:[U_KEYWORD_MAX_C<29.6909] yes=115,no=116,missing=115
						115:leaf=-0.0025242
						116:leaf=-0.0131596
					58:[DOC_AGE<12.1328] yes=117,no=118,missing=118
						117:leaf=0.0102567
						118:leaf=-0.00198313
			14:[D_TITLEMD5_COEC<0.156375] yes=29,no=30,missing=30
				29:[U_KEYWORD_MACRO_MAX_COEC<0.00329646] yes=59,no=60,missing=60
					59:[C_D_U_CATEGORY_GENDER_MAX_EC<126584] yes=119,no=120,missing=119
						119:leaf=-0.0302709
						120:leaf=0.0625534
					60:leaf=-0.213251
				30:[U_KEYWORD_MAX_C<40.7199] yes=61,no=62,missing=62
					61:[C_D_U_CATEGORY_CATEGORY_MACRO_MAX_COEC<0.00910111] yes=121,no=122,missing=122
						121:leaf=-0.0624988
						122:leaf=0.0243751
					62:[D_TITLEMD5_COEC<0.184864] yes=123,no=124,missing=124
						123:leaf=-0.143845
						124:leaf=0.00414635
booster[42]:
0:[KW_REL<0.00288974] yes=1,no=2,missing=2
	1:[D_KEYWORD_MEAN_EC<5094.67] yes=3,no=4,missing=3
		3:[D_TITLEMD5_C<4.45766] yes=7,no=8,missing=7
			7:[C_D_U_PUBLISHER_CITY_COEC<0.0703451] yes=15,no=16,missing=15
				15:[DOC_AGE<0.999721] yes=31,no=32,missing=32
					31:[CAT_REL<0.028014] yes=63,no=64,missing=64
						63:leaf=-0.0197426
						64:leaf=0.000875873
					32:[D_KEYWORD_MEAN_EC<18.3193] yes=65,no=66,missing=65
						65:leaf=0.0177385
						66:leaf=-0.0220917
				16:[C_D_U_CATEGORY_CATEGORY_MICRO_MAX_COEC<0.139791] yes=33,no=34,missing=34
					33:[M_D_U_KEYWORD_KEYWORD_MAX_C<0.000241149] yes=67,no=68,missing=68
						67:leaf=0.019048
						68:leaf=-0.0097054
					34:[C_D_U_TITLEMD5_CATEGORY_MICRO_MAX_COEC<0.108948] yes=69,no=70,missing=70
						69:leaf=0.0234272
						70:leaf=0.00346921
			8:[WORD_COUNT<1362] yes=17,no=18,missing=18
				17:[D_TITLEMD5_COEC<0.251416] yes=35,no=36,missing=35
					35:[D_CATEGORY_MEAN_EC<329762] yes=71,no=72,missing=71
						71:leaf=-0.00199304
						72:leaf=-0.0114455
					36:[D_KEYWORD_MEAN_C<170.912] yes=73,no=74,missing=74
						73:leaf=0.0353913
						74:leaf=0.0106499
				18:[KW_REL<0.00097202] yes=37,no=38,missing=38
					37:[D_KEYWORD_MACRO_MEAN_COEC<0.0720572] yes=75,no=76,missing=76
						75:leaf=-0.00627097
						76:leaf=0.00284526
					38:[U_KEYWORD_MACRO_MAX_COEC<0.00116491] yes=77,no=78,missing=78
						77:leaf=0.0207939
						78:leaf=0.00575612
		4:[C_D_U_TITLEMD5_CATEGORY_MEAN_EC<17.3902] yes=9,no=10,missing=10
			9:[C_D_U_KEYWORD_CATEGORY_MICRO_MEAN_COEC<0.0921445] yes=19,no=20,missing=20
				19:[D_KEYWORD_MACRO_MEAN_COEC<0.074042] yes=39,no=40,missing=40
					39:[D_CATEGORY_MICRO_MAX_COEC<0.0743754] yes=79,no=80,missing=79
						79:leaf=-0.0182691
						80:leaf=-0.0336108
					40:[C_D_U_KEYWORD_CATEGORY_MACRO_MAX_COEC<0.00332797] yes=81,no=82,missing=82
						81:leaf=-0.0227792
						82:leaf=-0.00537646
				20:[D_CATEGORY_MACRO_MAX_COEC<0.0586147] yes=41,no=42,missing=41
					41:[DOC_AGE<6.02611] yes=83,no=84,missing=84
						83:leaf=0.0274419
						84:leaf=-0.0185603
					42:[U_KEYWORD_MACRO_MEAN_COEC<0.0228995] yes=85,no=86,missing=86
						85:leaf=-0.0431695
						86:leaf=-0.025726
			10:[D_CATEGORY_MICRO_MEAN_COEC<0.082255] yes=21,no=22,missing=21
				21:[C_D_U_TITLEMD5_GENDER_EC<1828.56] yes=43,no=44,missing=44
					43:[U_AGE_C<73373.9] yes=87,no=88,missing=87
						87:leaf=-0.0407532
						88:leaf=-0.0181955
					44:[C_D_U_PUBLISHER_CITY_C<183.057] yes=89,no=90,missing=90
						89:leaf=-0.0178623
						90:leaf=-0.00164176
				22:[C_D_U_PUBLISHER_CITY_C<225.1] yes=45,no=46,missing=46
					45:[D_KEYWORD_MICRO_MEAN_COEC<0.0867217] yes=91,no=92,missing=92
						91:leaf=0.00647135
						92:leaf=-0.00853049
					46:[C_D_U_TITLEMD5_CATEGORY_MEAN_C<5.81359] yes=93,no=94,missing=94
						93:leaf=-0.0115772
						94:leaf=0.00832887
	2:[C_D_U_KEYWORD_CATEGORY_MAX_C<0.634602] yes=5,no=6,missing=5
		5:[WORD_COUNT<1362] yes=11,no=12,missing=12
			11:[D_KEYWORD_MAX_C<95.8459] yes=23,no=24,missing=24
				23:[U_KEYWORD_MACRO_MAX_COEC<0.00351423] yes=47,no=48,missing=48
					47:[U_KEYWORD_MACRO_MAX_COEC<0.00134262] yes=95,no=96,missing=96
						95:leaf=0.026384
						96:leaf=0.0109502
					48:[C_D_U_PUBLISHER_AGE_EC<9607.16] yes=97,no=98,missing=97
						97:leaf=-0.032886
						98:leaf=0.0311919
				24:[D_TITLEMD5_COEC<0.0668058] yes=49,no=50,missing=50
					49:[C_D_U_TITLEMD5_CITY_C<2.95059] yes=99,no=100,missing=99
						99:leaf=-0.0148885
						100:leaf=0.0182909
					50:[D_KEYWORD_MICRO_MEAN_COEC<0.16392] yes=101,no=102,missing=102
						101:leaf=0.00419845
						102:leaf=-0.128417
			12:[M_D_U_KEYWORD_KEYWORD_MICRO_MAX_COEC<0.207057] yes=25,no=26,missing=25
				25:[C_D_U_CATEGORY_CATEGORY_MICRO_MEAN_COEC<0.0365417] yes=51,no=52,missing=52
					51:[M_D_U_KEYWORD_KEYWORD_MAX_EC<6.40499e-05] yes=103,no=104,missing=104
						103:leaf=0.191266
						104:leaf=-0.0359753
					52:[CAT_REL<0.109405] yes=105,no=106,missing=106
						105:leaf=0.0114501
						106:leaf=0.0232836
				26:[M_D_U_KEYWORD_KEYWORD_MICRO_MEAN_COEC<0.276896] yes=53,no=54,missing=54
					53:[U_KEYWORD_MACRO_MEAN_COEC<0.0231154] yes=107,no=108,missing=108
						107:leaf=0.0370102
						108:leaf=0.0193324
					54:[U_KEYWORD_MEAN_EC<606.935] yes=109,no=110,missing=110
						109:leaf=0.0117095
						110:leaf=0.0631573
		6:[KW_REL<0.00598759] yes=13,no=14,missing=14
			13:[D_TITLEMD5_C<144.313] yes=27,no=28,missing=28
				27:[D_KEYWORD_MEAN_C<516.946] yes=55,no=56,missing=56
					55:[M_D_U_KEYWORD_KEYWORD_MEAN_C<0.0286547] yes=111,no=112,missing=111
						111:leaf=-0.00854272
						112:leaf=0.00835621
					56:[KW_REL<0.00428927] yes=113,no=114,missing=114
						113:leaf=-0.0241684
						114:leaf=-0.0104521
				28:[M_D_U_KEYWORD_KEYWORD_MICRO_MEAN_COEC<0.105006] yes=57,no=58,missing=58
					57:[D_TITLEMD5_C<449.183] yes=115,no=116,missing=115
						115:leaf=0.00388171
						116:leaf=0.0217149
					58:[WORD_COUNT<4897] yes=117,no=118,missing=118
						117:leaf=-0.000871963
						118:leaf=-0.0284094
			14:[U_KEYWORD_MACRO_MEAN_COEC<0.0335641] yes=29,no=30,missing=30
				29:[DOC_AGE<12.1081] yes=59,no=60,missing=60
					59:[M_D_U_KEYWORD_KEYWORD_MACRO_MEAN_COEC<0.000980049] yes=119,no=120,missing=119
						119:leaf=0.0108453
						120:leaf=0.0304052
					60:[D_KEYWORD_MICRO_MEAN_COEC<0.16392] yes=121,no=122,missing=122
						121:leaf=0.00188199
						122:leaf=-0.202228
				30:[D_KEYWORD_MEAN_EC<2977.41] yes=61,no=62,missing=62
					61:[U_CITY_EC<379824] yes=123,no=124,missing=123
						123:leaf=-0.0285606
						124:leaf=-0.110892
					62:[D_CATEGORY_MICRO_MAX_COEC<0.0775403] yes=125,no=126,missing=125
						125:leaf=0.00499359
						126:leaf=-0.0137739
booster[43]:
0:[TIME_OF_DAY<10] yes=1,no=2,missing=2
	1:[U_KEYWORD_MEAN_C<110.592] yes=3,no=4,missing=3
		3:[U_CATEGORY_MEAN_C<174.915] yes=7,no=8,missing=8
			7:[U_CATEGORY_MACRO_MEAN_COEC<0.0413007] yes=15,no=16,missing=16
				15:[U_CITY_C<4224.97] yes=31,no=32,missing=32
					31:[U_KEYWORD_MICRO_MEAN_COEC<0.101472] yes=63,no=64,missing=64
						63:leaf=0.154347
						64:leaf=0.0666271
					32:[IMAGE_COUNT<0.999999] yes=65,no=66,missing=66
						65:leaf=-0.144428
						66:leaf=0.0635086
				16:[U_AGE_C<82561.1] yes=33,no=34,missing=33
					33:[U_CATEGORY_MACRO_MAX_COEC<0.0120305] yes=67,no=68,missing=68
						67:leaf=-0.0965118
						68:leaf=0.0368295
					34:[C_D_U_TITLEMD5_CATEGORY_MICRO_MAX_COEC<0.230969] yes=69,no=70,missing=70
						69:leaf=-0.129473
						70:leaf=-0.330656
			8:[U_KEYWORD_MICRO_MAX_COEC<0.118388] yes=17,no=18,missing=17
				17:[C_D_U_PUBLISHER_CITY_COEC<0.0802343] yes=35,no=36,missing=36
					35:[D_TITLEMD5_C<3.31019] yes=71,no=72,missing=71
						71:leaf=-0.021856
						72:leaf=-0.00507536
					36:[U_KEYWORD_MICRO_MEAN_COEC<0.0986324] yes=73,no=74,missing=74
						73:leaf=-0.00450638
						74:leaf=0.00353834
				18:[U_CATEGORY_MAX_EC<1827.37] yes=37,no=38,missing=38
					37:[U_KEYWORD_MACRO_MAX_COEC<0.00120534] yes=75,no=76,missing=76
						75:leaf=0.0723093
						76:leaf=0.0304313
					38:[U_KEYWORD_MACRO_MEAN_COEC<0.0352776] yes=77,no=78,missing=78
						77:leaf=0.00404787
						78:leaf=0.0211794
		4:[U_KEYWORD_MACRO_MAX_COEC<0.00234261] yes=9,no=10,missing=10
			9:[DOC_AGE<1.93917] yes=19,no=20,missing=20
				19:[C_D_U_TITLEMD5_CATEGORY_MICRO_MEAN_COEC<0.114261] yes=39,no=40,missing=40
					39:[D_TITLEMD5_COEC<0.0342032] yes=79,no=80,missing=79
						79:leaf=0.0118802
						80:leaf=0.03122
					40:[CAT_REL<0.097824] yes=81,no=82,missing=82
						81:leaf=0.00454153
						82:leaf=0.0238083
				20:[C_D_U_TITLEMD5_CATEGORY_MEAN_EC<16.7542] yes=41,no=42,missing=42
					41:[D_KEYWORD_MEAN_EC<1030.49] yes=83,no=84,missing=83
						83:leaf=0.0183949
						84:leaf=0.00312636
					42:[TIME_OF_DAY<4] yes=85,no=86,missing=86
						85:leaf=0.0238846
						86:leaf=0.0123155
			10:[U_GENDER_C<66490.6] yes=21,no=22,missing=22
				21:[U_CITY_COEC<0.0794986] yes=43,no=44,missing=44
					43:[U_KEYWORD_MICRO_MEAN_COEC<0.10036] yes=87,no=88,missing=88
						87:leaf=-0.0022444
						88:leaf=-0.0860616
					44:[U_CITY_C<18654.3] yes=89,no=90,missing=89
						89:leaf=0.0186792
						90:leaf=-0.0156634
				22:[U_KEYWORD_MICRO_MAX_COEC<0.113969] yes=45,no=46,missing=46
					45:[C_D_U_TITLEMD5_CITY_EC<0.96552] yes=91,no=92,missing=91
						91:leaf=-0.0253427
						92:leaf=-0.00761433
					46:[U_CATEGORY_MACRO_MAX_COEC<0.0132071] yes=93,no=94,missing=93
						93:leaf=0.0340712
						94:leaf=-0.00168698
	2:[C_D_U_TITLEMD5_CATEGORY_MACRO_MEAN_COEC<0.0527281] yes=5,no=6,missing=6
		5:[CAT_REL<0.004866] yes=11,no=12,missing=12
			11:[DOC_AGE<22.6942] yes=23,no=24,missing=24
				23:[D_CATEGORY_MEAN_EC<15020.9] yes=47,no=48,missing=47
					47:[C_D_U_CATEGORY_CATEGORY_MICRO_MAX_COEC<0.0497787] yes=95,no=96,missing=96
						95:leaf=-0.0353821
						96:leaf=0.00413399
					48:[DOC_AGE<3.20805] yes=97,no=98,missing=98
						97:leaf=-0.00873653
						98:leaf=-0.0224289
				24:[U_KEYWORD_MICRO_MAX_COEC<0.121496] yes=49,no=50,missing=50
					49:[U_KEYWORD_MEAN_C<129.842] yes=99,no=100,missing=100
						99:leaf=-0.0105925
						100:leaf=0.00512458
					50:[U_GENDER_EC<812352] yes=101,no=102,missing=101
						101:leaf=0.0334844
						102:leaf=0.0998405
			12:[C_D_U_KEYWORD_CATEGORY_MEAN_EC<6.21046] yes=25,no=26,missing=26
				25:[KW_REL<0.00252145] yes=51,no=52,missing=52
					51:[C_D_U_CATEGORY_CITY_MICRO_MAX_COEC<0.0927985] yes=103,no=104,missing=103
						103:leaf=-0.00160207
						104:leaf=0.0131928
					52:[D_KEYWORD_MAX_EC<526.862] yes=105,no=106,missing=106
						105:leaf=0.0365669
						106:leaf=0.0118896
				26:[KW_REL<0.0038962] yes=53,no=54,missing=54
					53:[M_D_U_KEYWORD_KEYWORD_MICRO_MEAN_COEC<0.101135] yes=107,no=108,missing=108
						107:leaf=-0.00411794
						108:leaf=-0.0155216
					54:[C_D_U_KEYWORD_CATEGORY_MAX_C<0.688791] yes=109,no=110,missing=110
						109:leaf=0.00967901
						110:leaf=-0.00653349
		6:[WORD_COUNT<882] yes=13,no=14,missing=14
			13:[U_KEYWORD_MEAN_C<134.364] yes=27,no=28,missing=28
				27:[D_KEYWORD_MAX_EC<912.362] yes=55,no=56,missing=56
					55:[C_D_U_TITLEMD5_CITY_COEC<0.125122] yes=111,no=112,missing=111
						111:leaf=-0.00906899
						112:leaf=0.00403219
					56:[U_AGE_COEC<0.094835] yes=113,no=114,missing=114
						113:leaf=-0.000938184
						114:leaf=-0.0195843
				28:[D_TITLEMD5_COEC<0.105189] yes=57,no=58,missing=57
					57:[U_KEYWORD_MAX_C<36.3034] yes=115,no=116,missing=115
						115:leaf=-0.00996582
						116:leaf=-0.0280648
					58:[C_D_U_CATEGORY_GENDER_MEAN_C<13280.1] yes=117,no=118,missing=117
						117:leaf=0.002676
						118:leaf=-0.0107885
			14:[U_KEYWORD_MACRO_MAX_COEC<0.00159779] yes=29,no=30,missing=30
				29:[U_KEYWORD_MEAN_C<148.158] yes=59,no=60,missing=60
					59:[CAT_REL<0.047419] yes=119,no=120,missing=120
						119:leaf=-0.000582624
						120:leaf=0.0104655
					60:[C_D_U_TITLEMD5_CATEGORY_MAX_EC<0.12117] yes=121,no=122,missing=122
						121:leaf=-0.0179888
						122:leaf=0.0158307
				30:[C_D_U_PUBLISHER_CITY_COEC<0.0802343] yes=61,no=62,missing=62
					61:[CAT_REL<0.08211] yes=123,no=124,missing=124
						123:leaf=-0.0096363
						124:leaf=0.00163448
					62:[U_KEYWORD_MICRO_MAX_COEC<0.11891] yes=125,no=126,missing=126
						125:leaf=-0.00110907
						126:leaf=0.00582063
booster[44]:
0:[IMAGE_COUNT<3] yes=1,no=2,missing=2
	1:[KW_REL<0.00185083] yes=3,no=4,missing=4
		3:[C_D_U_CATEGORY_CITY_MICRO_MEAN_COEC<0.085435] yes=7,no=8,missing=8
			7:[C_D_U_KEYWORD_CATEGORY_MEAN_EC<4.90637] yes=15,no=16,missing=16
				15:[CAT_REL<0.02202] yes=31,no=32,missing=32
					31:[D_CATEGORY_MEAN_EC<17162.5] yes=63,no=64,missing=64
						63:leaf=0.00795506
						64:leaf=-0.0121634
					32:[C_D_U_TITLEMD5_CITY_EC<0.970371] yes=65,no=66,missing=65
						65:leaf=-0.00780158
						66:leaf=0.0130417
				16:[D_TITLEMD5_EC<5530.77] yes=33,no=34,missing=33
					33:[D_KEYWORD_MEAN_C<329.935] yes=67,no=68,missing=68
						67:leaf=-0.010276
						68:leaf=-0.0203612
					34:[D_KEYWORD_MEAN_EC<6057.64] yes=69,no=70,missing=70
						69:leaf=0.00525699
						70:leaf=-0.0123639
			8:[C_D_U_CATEGORY_CATEGORY_MAX_EC<108.897] yes=17,no=18,missing=17
				17:[C_D_U_CATEGORY_CATEGORY_MICRO_MEAN_COEC<0.0457992] yes=35,no=36,missing=36
					35:[C_D_U_CATEGORY_CATEGORY_MAX_EC<10.7545] yes=71,no=72,missing=72
						71:leaf=-0.00907052
						72:leaf=-0.0390375
					36:[D_PUBLISHER_EC<63834.4] yes=73,no=74,missing=74
						73:leaf=0.00190019
						74:leaf=0.0123933
				18:[C_D_U_CATEGORY_AGE_MEAN_C<15207.7] yes=37,no=38,missing=38
					37:[C_D_U_CATEGORY_CITY_MICRO_MAX_COEC<0.0906298] yes=75,no=76,missing=75
						75:leaf=-0.00483937
						76:leaf=0.00746309
					38:[D_TITLEMD5_COEC<0.17615] yes=77,no=78,missing=77
						77:leaf=-0.0105789
						78:leaf=0.00324054
		4:[C_D_U_KEYWORD_CATEGORY_MAX_C<0.125036] yes=9,no=10,missing=9
			9:[KW_REL<0.00351471] yes=19,no=20,missing=20
				19:[C_D_U_KEYWORD_CATEGORY_MACRO_MEAN_COEC<0.0400497] yes=39,no=40,missing=40
					39:[C_D_U_KEYWORD_CATEGORY_MEAN_EC<2.57042] yes=79,no=80,missing=80
						79:leaf=0.0275193
						80:leaf=0.00316339
					40:[D_KEYWORD_MACRO_MAX_COEC<0.0237003] yes=81,no=82,missing=82
						81:leaf=0.0223552
						82:leaf=0.00970592
				20:[D_KEYWORD_MACRO_MAX_COEC<0.0145608] yes=41,no=42,missing=42
					41:[D_KEYWORD_MEAN_EC<3844.21] yes=83,no=84,missing=84
						83:leaf=0.054456
						84:leaf=0.015963
					42:[DOC_AGE<5.28278] yes=85,no=86,missing=86
						85:leaf=0.0322301
						86:leaf=0.0140744
			10:[M_D_U_KEYWORD_KEYWORD_MACRO_MEAN_COEC<0.000620155] yes=21,no=22,missing=21
				21:[C_D_U_KEYWORD_CATEGORY_MAX_C<0.881472] yes=43,no=44,missing=44
					43:[C_D_U_TITLEMD5_CATEGORY_MACRO_MEAN_COEC<0.0615595] yes=87,no=88,missing=88
						87:leaf=-0.00224651
						88:leaf=0.00692417
					44:[D_TITLEMD5_C<326.695] yes=89,no=90,missing=90
						89:leaf=-0.0114502
						90:leaf=0.00203357
				22:[U_KEYWORD_MACRO_MEAN_COEC<0.0317877] yes=45,no=46,missing=46
					45:[WORD_COUNT<856] yes=91,no=92,missing=92
						91:leaf=-0.000153441
						92:leaf=0.0170142
					46:[DOC_AGE<43.1617] yes=93,no=94,missing=94
						93:leaf=-0.00706293
						94:leaf=-0.0478981
	2:[CAT_REL<0.00080965] yes=5,no=6,missing=6
		5:[D_CATEGORY_MAX_C<8982.85] yes=11,no=12,missing=11
			11:[D_KEYWORD_MICRO_MEAN_COEC<0.0764348] yes=23,no=24,missing=24
				23:[D_TITLEMD5_C<145.981] yes=47,no=48,missing=47
					47:[U_KEYWORD_MICRO_MEAN_COEC<0.0995447] yes=95,no=96,missing=95
						95:leaf=0.00542012
						96:leaf=0.0373519
					48:[C_D_U_TITLEMD5_CATEGORY_MEAN_EC<6.75618] yes=97,no=98,missing=98
						97:leaf=-0.0275597
						98:leaf=0.0400763
				24:[C_D_U_TITLEMD5_CATEGORY_MICRO_MEAN_COEC<0.178198] yes=49,no=50,missing=50
					49:[D_KEYWORD_MAX_EC<3363.09] yes=99,no=100,missing=100
						99:leaf=-0.00345764
						100:leaf=0.0369776
					50:[WORD_COUNT<3562] yes=101,no=102,missing=102
						101:leaf=-0.00216536
						102:leaf=0.0207509
			12:[D_TITLEMD5_COEC<0.0537373] yes=25,no=26,missing=26
				25:[C_D_U_CATEGORY_CITY_MACRO_MAX_COEC<0.119969] yes=51,no=52,missing=51
					51:[D_KEYWORD_MEAN_C<95.986] yes=103,no=104,missing=104
						103:leaf=-0.00631823
						104:leaf=-0.0308132
					52:[C_D_U_PUBLISHER_CITY_COEC<0.063896] yes=105,no=106,missing=106
						105:leaf=-0.0438471
						106:leaf=0.0981315
				26:[D_KEYWORD_MICRO_MEAN_COEC<0.095007] yes=53,no=54,missing=54
					53:[WORD_COUNT<4897] yes=107,no=108,missing=108
						107:leaf=0.0157244
						108:leaf=-0.0128234
					54:[C_D_U_TITLEMD5_CATEGORY_MICRO_MEAN_COEC<0.248761] yes=109,no=110,missing=109
						109:leaf=-0.00835229
						110:leaf=0.0150655
		6:[U_KEYWORD_MACRO_MAX_COEC<0.00125798] yes=13,no=14,missing=14
			13:[CAT_REL<0.129687] yes=27,no=28,missing=28
				27:[U_KEYWORD_MACRO_MAX_COEC<0.00093889] yes=55,no=56,missing=56
					55:[U_GENDER_C<73137.9] yes=111,no=112,missing=112
						111:leaf=0.0223976
						112:leaf=0.100223
					56:[U_CITY_C<13956.5] yes=113,no=114,missing=113
						113:leaf=0.021139
						114:leaf=0.0382934
				28:[C_D_U_CATEGORY_CATEGORY_MICRO_MAX_COEC<0.0728416] yes=57,no=58,missing=58
					57:leaf=-0.137088
					58:[C_D_U_TITLEMD5_CATEGORY_MICRO_MAX_COEC<0.0570452] yes=115,no=116,missing=116
						115:leaf=0.117222
						116:leaf=0.0616427
			14:[U_KEYWORD_MACRO_MAX_COEC<0.00367141] yes=29,no=30,missing=30
				29:[CAT_REL<0.203876] yes=59,no=60,missing=60
					59:[D_PUBLISHER_COEC<0.149787] yes=117,no=118,missing=117
						117:leaf=0.00984908
						118:leaf=0.0329197
					60:[C_D_U_TITLEMD5_CATEGORY_MACRO_MEAN_COEC<0.0231643] yes=119,no=120,missing=120
						119:leaf=0.0799381
						120:leaf=0.034174
				30:[U_CATEGORY_MACRO_MEAN_COEC<0.0635179] yes=61,no=62,missing=62
					61:[U_CATEGORY_MICRO_MAX_COEC<0.116954] yes=121,no=122,missing=122
						121:leaf=0.0288008
						122:leaf=0.156227
					62:[DOC_AGE<43.1617] yes=123,no=124,missing=124
						123:leaf=-0.00901642
						124:leaf=-0.0503185
booster[45]:
0:[U_KEYWORD_MICRO_MEAN_COEC<0.101609] yes=1,no=2,missing=1
	1:[DAY_OF_WEEK<2] yes=3,no=4,missing=4
		3:[U_KEYWORD_MICRO_MEAN_COEC<0.0962143] yes=7,no=8,missing=7
			7:[D_CATEGORY_MEAN_EC<39639.6] yes=15,no=16,missing=15
				15:[C_D_U_CATEGORY_CATEGORY_MICRO_MAX_COEC<0.0598365] yes=31,no=32,missing=32
					31:[U_GENDER_EC<741402] yes=63,no=64,missing=64
						63:leaf=0.0075912
						64:leaf=-0.0263533
					32:[C_D_U_TITLEMD5_GENDER_COEC<0.0631567] yes=65,no=66,missing=66
						65:leaf=-0.00779454
						66:leaf=0.00735886
				16:[D_TITLEMD5_COEC<0.162425] yes=33,no=34,missing=33
					33:[DOC_AGE<23.3292] yes=67,no=68,missing=68
						67:leaf=-0.00727776
						68:leaf=0.00443654
					34:[C_D_U_CATEGORY_GENDER_MEAN_EC<68864] yes=69,no=70,missing=69
						69:leaf=0.00864391
						70:leaf=-0.00456302
			8:[TIME_OF_DAY<2] yes=17,no=18,missing=18
				17:[U_KEYWORD_MACRO_MAX_COEC<0.00934618] yes=35,no=36,missing=36
					35:[U_KEYWORD_MEAN_EC<1494.15] yes=71,no=72,missing=72
						71:leaf=0.0264274
						72:leaf=0.0581392
					36:[D_KEYWORD_MICRO_MEAN_COEC<0.260795] yes=73,no=74,missing=74
						73:leaf=-0.121608
						74:leaf=0.0955278
				18:[DOC_AGE<1.0275] yes=37,no=38,missing=38
					37:[D_PUBLISHER_C<3267.84] yes=75,no=76,missing=76
						75:leaf=0.0151551
						76:leaf=0.0360383
					38:[D_TITLEMD5_C<38.3268] yes=77,no=78,missing=77
						77:leaf=-0.000339474
						78:leaf=0.00862331
		4:[U_KEYWORD_MICRO_MEAN_COEC<0.0977689] yes=9,no=10,missing=10
			9:[DAY_OF_WEEK<6] yes=19,no=20,missing=20
				19:[D_CATEGORY_MEAN_EC<80347.1] yes=39,no=40,missing=39
					39:[D_CATEGORY_MEAN_C<4044.04] yes=79,no=80,missing=80
						79:leaf=-0.014236
						80:leaf=0.000184261
					40:[U_KEYWORD_MICRO_MAX_COEC<0.118494] yes=81,no=82,missing=82
						81:leaf=-0.0220597
						82:leaf=-0.00327878
				20:[U_KEYWORD_MICRO_MAX_COEC<0.107699] yes=41,no=42,missing=42
					41:[C_D_U_TITLEMD5_AGE_COEC<0.113842] yes=83,no=84,missing=83
						83:leaf=-0.0131291
						84:leaf=0.00348824
					42:[U_CATEGORY_MICRO_MEAN_COEC<0.0891603] yes=85,no=86,missing=86
						85:leaf=0.00614745
						86:leaf=-0.00700578
			10:[DAY_OF_WEEK<6] yes=21,no=22,missing=22
				21:[IMAGE_COUNT<0.999999] yes=43,no=44,missing=44
					43:[D_KEYWORD_MACRO_MEAN_COEC<0.0797053] yes=87,no=88,missing=88
						87:leaf=-0.0297229
						88:leaf=-0.0616703
					44:[U_GENDER_C<68118.2] yes=89,no=90,missing=89
						89:leaf=-0.0011
						90:leaf=-0.0089566
				22:[U_CATEGORY_MEAN_EC<1602.91] yes=45,no=46,missing=46
					45:[U_CATEGORY_MICRO_MAX_COEC<0.132745] yes=91,no=92,missing=92
						91:leaf=-0.0459259
						92:leaf=0.131322
					46:[U_KEYWORD_MEAN_EC<1280.81] yes=93,no=94,missing=93
						93:leaf=0.00137763
						94:leaf=0.013634
	2:[U_KEYWORD_MACRO_MAX_COEC<0.00111288] yes=5,no=6,missing=6
		5:[U_KEYWORD_MACRO_MEAN_COEC<0.0219074] yes=11,no=12,missing=12
			11:[U_CATEGORY_MACRO_MAX_COEC<0.00871331] yes=23,no=24,missing=24
				23:[U_CATEGORY_MICRO_MEAN_COEC<0.0997657] yes=47,no=48,missing=48
					47:[U_CATEGORY_MEAN_C<758.741] yes=95,no=96,missing=96
						95:leaf=0.0111326
						96:leaf=-0.0626944
					48:[U_CATEGORY_MAX_C<148.775] yes=97,no=98,missing=98
						97:leaf=0.0516057
						98:leaf=0.122455
				24:[C_D_U_CATEGORY_CATEGORY_MACRO_MAX_COEC<0.0222734] yes=49,no=50,missing=50
					49:[U_GENDER_C<75343.1] yes=99,no=100,missing=100
						99:leaf=0.0272578
						100:leaf=0.000503089
					50:[C_D_U_TITLEMD5_CATEGORY_MACRO_MAX_COEC<0.0157302] yes=101,no=102,missing=102
						101:leaf=0.0747857
						102:leaf=0.0348305
			12:[U_KEYWORD_MEAN_EC<1280.81] yes=25,no=26,missing=26
				25:[U_GENDER_C<20293.5] yes=51,no=52,missing=52
					51:[C_D_U_TITLEMD5_GENDER_COEC<0.138117] yes=103,no=104,missing=104
						103:leaf=-0.00151552
						104:leaf=0.108679
					52:[C_D_U_TITLEMD5_CATEGORY_MICRO_MEAN_COEC<0.0745349] yes=105,no=106,missing=106
						105:leaf=-0.0440418
						106:leaf=-0.110724
				26:[TIME_OF_DAY<18] yes=53,no=54,missing=54
					53:[M_D_U_KEYWORD_KEYWORD_MEAN_C<0.0141442] yes=107,no=108,missing=107
						107:leaf=0.040582
						108:leaf=-0.0594585
					54:[D_TITLEMD5_C<1094.5] yes=109,no=110,missing=110
						109:leaf=-0.163074
						110:leaf=0.0594008
		6:[D_PUBLISHER_EC<133719] yes=13,no=14,missing=13
			13:[C_D_U_TITLEMD5_CITY_COEC<0.117036] yes=27,no=28,missing=27
				27:[KW_REL<0.00441411] yes=55,no=56,missing=56
					55:[C_D_U_KEYWORD_CATEGORY_MAX_C<0.784647] yes=111,no=112,missing=111
						111:leaf=0.0011603
						112:leaf=-0.0138221
					56:[D_KEYWORD_MAX_C<138.889] yes=113,no=114,missing=114
						113:leaf=0.021823
						114:leaf=0.00596942
				28:[KW_REL<0.000967975] yes=57,no=58,missing=58
					57:[D_KEYWORD_MEAN_EC<1907.47] yes=115,no=116,missing=116
						115:leaf=0.00896095
						116:leaf=-0.00309623
					58:[C_D_U_KEYWORD_CATEGORY_MAX_C<0.36687] yes=117,no=118,missing=118
						117:leaf=0.016803
						118:leaf=0.00665893
			14:[D_TITLEMD5_COEC<0.0236584] yes=29,no=30,missing=30
				29:[DOC_AGE<1.23333] yes=59,no=60,missing=60
					59:[C_D_U_CATEGORY_CATEGORY_MICRO_MEAN_COEC<0.0734016] yes=119,no=120,missing=120
						119:leaf=-0.0590368
						120:leaf=0.0363849
					60:[C_D_U_CATEGORY_CITY_MAX_C<3215.93] yes=121,no=122,missing=121
						121:leaf=-0.0561565
						122:leaf=0.0605789
				30:[TIME_OF_DAY<14] yes=61,no=62,missing=62
					61:[U_KEYWORD_MICRO_MAX_COEC<0.11627] yes=123,no=124,missing=124
						123:leaf=0.0161238
						124:leaf=0.0311449
					62:[D_TITLEMD5_EC<4428.84] yes=125,no=126,missing=125
						125:leaf=0.00259211
						126:leaf=0.0195349
booster[46]:
0:[C_D_U_CATEGORY_CATEGORY_MICRO_MEAN_COEC<0.0462594] yes=1,no=2,missing=2
	1:[C_D_U_TITLEMD5_CATEGORY_MEAN_C<0.113741] yes=3,no=4,missing=4
		3:[D_PUBLISHER_COEC<0.0852136] yes=7,no=8,missing=7
			7:[U_CITY_COEC<0.0791033] yes=15,no=16,missing=15
				15:[C_D_U_CATEGORY_CATEGORY_MAX_EC<10.5159] yes=31,no=32,missing=32
					31:[U_CITY_C<3959.72] yes=63,no=64,missing=63
						63:leaf=-0.0304161
						64:leaf=0.27019
					32:[C_D_U_CATEGORY_CATEGORY_MAX_C<2.07365] yes=65,no=66,missing=66
						65:leaf=-0.0636027
						66:leaf=-0.040996
				16:[DOC_AGE<13.5153] yes=33,no=34,missing=34
					33:[U_GENDER_COEC<0.092944] yes=67,no=68,missing=68
						67:leaf=-0.0138597
						68:leaf=-0.0362984
					34:[D_CATEGORY_MICRO_MAX_COEC<0.104785] yes=69,no=70,missing=70
						69:leaf=-0.0140971
						70:leaf=0.134677
			8:[IMAGE_COUNT<3] yes=17,no=18,missing=18
				17:[C_D_U_KEYWORD_CATEGORY_MICRO_MEAN_COEC<0.147131] yes=35,no=36,missing=36
					35:[U_CATEGORY_MEAN_C<507.963] yes=71,no=72,missing=72
						71:leaf=0.0118049
						72:leaf=-0.0202771
					36:[C_D_U_KEYWORD_CATEGORY_MACRO_MAX_COEC<0.00390211] yes=73,no=74,missing=74
						73:leaf=0.17946
						74:leaf=0.0263275
				18:[D_TITLEMD5_EC<446.991] yes=37,no=38,missing=37
					37:[C_D_U_KEYWORD_CATEGORY_MICRO_MEAN_COEC<0.0584119] yes=75,no=76,missing=76
						75:leaf=-0.0445084
						76:leaf=0.0825441
					38:leaf=-0.130728
		4:[D_CATEGORY_MACRO_MEAN_COEC<0.0622137] yes=9,no=10,missing=10
			9:[D_TITLEMD5_COEC<0.0717672] yes=19,no=20,missing=19
				19:[DOC_AGE<9.73028] yes=39,no=40,missing=40
					39:[D_KEYWORD_MAX_EC<146.508] yes=77,no=78,missing=78
						77:leaf=0.0749959
						78:leaf=-0.0219622
					40:[C_D_U_CATEGORY_CATEGORY_MICRO_MEAN_COEC<0.0364581] yes=79,no=80,missing=80
						79:leaf=-0.0163652
						80:leaf=0.0176182
				20:[C_D_U_TITLEMD5_GENDER_COEC<0.111714] yes=41,no=42,missing=41
					41:[TIME_OF_DAY<7] yes=81,no=82,missing=82
						81:leaf=0.0279716
						82:leaf=0.00309217
					42:[D_PUBLISHER_EC<57206.9] yes=83,no=84,missing=84
						83:leaf=0.0441666
						84:leaf=-0.0174877
			10:[D_KEYWORD_MICRO_MEAN_COEC<0.0738915] yes=21,no=22,missing=22
				21:[U_CATEGORY_MACRO_MEAN_COEC<0.0466181] yes=43,no=44,missing=44
					43:[U_KEYWORD_MACRO_MAX_COEC<0.00218218] yes=85,no=86,missing=86
						85:leaf=-0.00902317
						86:leaf=0.124806
					44:[DOC_AGE<15.9167] yes=87,no=88,missing=88
						87:leaf=-0.047865
						88:leaf=-0.0149025
				22:[U_AGE_EC<857550] yes=45,no=46,missing=46
					45:[U_KEYWORD_MACRO_MEAN_COEC<0.0295096] yes=89,no=90,missing=90
						89:leaf=-0.0021432
						90:leaf=0.0257424
					46:[M_D_U_KEYWORD_KEYWORD_MACRO_MEAN_COEC<0.000206199] yes=91,no=92,missing=91
						91:leaf=-0.0178028
						92:leaf=0.0182352
	2:[WORD_COUNT<1383] yes=5,no=6,missing=6
		5:[C_D_U_PUBLISHER_CITY_COEC<0.155805] yes=11,no=12,missing=11
			11:[DOC_AGE<3.25778] yes=23,no=24,missing=24
				23:[D_PUBLISHER_C<277.507] yes=47,no=48,missing=47
					47:[TIME_OF_DAY<11] yes=93,no=94,missing=94
						93:leaf=-0.00438333
						94:leaf=-0.0223289
					48:[D_KEYWORD_MAX_C<42.6236] yes=95,no=96,missing=96
						95:leaf=0.0166374
						96:leaf=0.00248421
				24:[D_TITLEMD5_COEC<0.107788] yes=49,no=50,missing=49
					49:[D_CATEGORY_MEAN_C<27025] yes=97,no=98,missing=97
						97:leaf=-0.0064386
						98:leaf=-0.0207036
					50:[C_D_U_TITLEMD5_GENDER_COEC<0.158338] yes=99,no=100,missing=100
						99:leaf=-0.00947643
						100:leaf=-0.00060207
			12:[D_KEYWORD_MEAN_C<89.551] yes=25,no=26,missing=26
				25:[D_TITLEMD5_EC<168.353] yes=51,no=52,missing=52
					51:[C_D_U_PUBLISHER_AGE_C<150.501] yes=101,no=102,missing=101
						101:leaf=0.0308678
						102:leaf=0.0663867
					52:[U_KEYWORD_MACRO_MAX_COEC<0.00195156] yes=103,no=104,missing=104
						103:leaf=0.0283728
						104:leaf=0.00150796
				26:[C_D_U_KEYWORD_CATEGORY_MICRO_MAX_COEC<0.384503] yes=53,no=54,missing=53
					53:[D_KEYWORD_MICRO_MEAN_COEC<0.0887858] yes=105,no=106,missing=106
						105:leaf=0.0160501
						106:leaf=0.00176711
					54:[U_GENDER_COEC<0.0911696] yes=107,no=108,missing=108
						107:leaf=0.0381514
						108:leaf=0.0151673
		6:[KW_REL<0.00220442] yes=13,no=14,missing=14
			13:[D_KEYWORD_MEAN_EC<4861.79] yes=27,no=28,missing=27
				27:[D_TITLEMD5_C<5.82738] yes=55,no=56,missing=55
					55:[C_D_U_PUBLISHER_CITY_COEC<0.0702454] yes=109,no=110,missing=109
						109:leaf=-0.0142127
						110:leaf=-0.000806813
					56:[IMAGE_COUNT<3] yes=111,no=112,missing=112
						111:leaf=0.00158646
						112:leaf=0.0102152
				28:[C_D_U_TITLEMD5_CATEGORY_MEAN_EC<16.0498] yes=57,no=58,missing=58
					57:[D_CATEGORY_MEAN_EC<8011.36] yes=113,no=114,missing=113
						113:leaf=0.0287501
						114:leaf=-0.0209427
					58:[D_KEYWORD_MICRO_MAX_COEC<0.156064] yes=115,no=116,missing=116
						115:leaf=-0.00940407
						116:leaf=0.00380882
			14:[C_D_U_KEYWORD_CATEGORY_MAX_C<0.824236] yes=29,no=30,missing=29
				29:[DOC_AGE<5.05917] yes=59,no=60,missing=60
					59:[D_KEYWORD_MEAN_C<321.355] yes=117,no=118,missing=118
						117:leaf=0.0226404
						118:leaf=0.00983808
					60:[CAT_REL<0.123738] yes=119,no=120,missing=120
						119:leaf=0.00550167
						120:leaf=0.0167655
				30:[KW_REL<0.00606961] yes=61,no=62,missing=62
					61:[D_TITLEMD5_C<293.387] yes=121,no=122,missing=122
						121:leaf=-0.00737686
						122:leaf=0.00660346
					62:[U_KEYWORD_MACRO_MAX_COEC<0.00477234] yes=123,no=124,missing=124
						123:leaf=0.0120625
						124:leaf=-0.0178009
booster[47]:
0:[C_D_U_TITLEMD5_AGE_COEC<0.118408] yes=1,no=2,missing=1
	1:[DOC_AGE<2.77222] yes=3,no=4,missing=4
		3:[D_TITLEMD5_C<42.4282] yes=7,no=8,missing=7
			7:[DOC_AGE<0.777499] yes=15,no=16,missing=16
				15:[C_D_U_PUBLISHER_CITY_COEC<0.0545795] yes=31,no=32,missing=31
					31:[D_TITLEMD5_C<3.995] yes=63,no=64,missing=63
						63:leaf=-0.00750282
						64:leaf=0.014336
					32:[KW_REL<0.000236875] yes=65,no=66,missing=66
						65:leaf=-0.00174862
						66:leaf=0.0186312
				16:[U_KEYWORD_MICRO_MEAN_COEC<0.0960276] yes=33,no=34,missing=34
					33:[D_CATEGORY_MEAN_C<5341.63] yes=67,no=68,missing=67
						67:leaf=-0.00430906
						68:leaf=-0.0224083
					34:[D_TITLEMD5_C<2] yes=69,no=70,missing=69
						69:leaf=-0.0110188
						70:leaf=0.00252573
			8:[U_KEYWORD_MICRO_MEAN_COEC<0.0985925] yes=17,no=18,missing=17
				17:[U_KEYWORD_MACRO_MAX_COEC<0.00206236] yes=35,no=36,missing=35
					35:[DOC_AGE<1.35333] yes=71,no=72,missing=72
						71:leaf=0.020999
						72:leaf=0.00767723
					36:[C_D_U_PUBLISHER_CITY_EC<12860.7] yes=73,no=74,missing=74
						73:leaf=0.000755589
						74:leaf=-0.0182379
				18:[C_D_U_TITLEMD5_CATEGORY_MICRO_MEAN_COEC<0.120056] yes=37,no=38,missing=37
					37:[DOC_AGE<1.91167] yes=75,no=76,missing=76
						75:leaf=0.0337634
						76:leaf=0.0170621
					38:[CAT_REL<0.009345] yes=77,no=78,missing=78
						77:leaf=0.00157113
						78:leaf=0.0181046
		4:[D_TITLEMD5_C<16.5034] yes=9,no=10,missing=9
			9:[D_KEYWORD_MEAN_EC<18.8643] yes=19,no=20,missing=19
				19:[D_KEYWORD_MACRO_MEAN_COEC<0.101921] yes=39,no=40,missing=40
					39:[U_KEYWORD_MICRO_MEAN_COEC<0.104019] yes=79,no=80,missing=79
						79:leaf=0.0716668
						80:leaf=0.205205
					40:[D_TITLEMD5_EC<2.88712] yes=81,no=82,missing=81
						81:leaf=-0.00396312
						82:leaf=0.0275495
				20:[C_D_U_TITLEMD5_CITY_C<1.97015] yes=41,no=42,missing=41
					41:[DOC_AGE<74.4794] yes=83,no=84,missing=84
						83:leaf=-0.013382
						84:leaf=0.00812615
					42:[U_CITY_EC<151123] yes=85,no=86,missing=86
						85:leaf=0.0562568
						86:leaf=0.00569893
			10:[C_D_U_CATEGORY_GENDER_MEAN_C<9167.67] yes=21,no=22,missing=21
				21:[U_KEYWORD_MICRO_MEAN_COEC<0.1035] yes=43,no=44,missing=43
					43:[TIME_OF_DAY<3] yes=87,no=88,missing=88
						87:leaf=0.00824014
						88:leaf=-0.00222261
					44:[KW_REL<0.00101326] yes=89,no=90,missing=90
						89:leaf=-0.00262832
						90:leaf=0.0111844
				22:[C_D_U_TITLEMD5_CATEGORY_MEAN_C<1.16417] yes=45,no=46,missing=45
					45:[D_KEYWORD_MACRO_MEAN_COEC<0.0804818] yes=91,no=92,missing=92
						91:leaf=-0.00128121
						92:leaf=-0.02677
					46:[C_D_U_PUBLISHER_GENDER_EC<29460.7] yes=93,no=94,missing=94
						93:leaf=-0.0117137
						94:leaf=0.0149946
	2:[CAT_REL<0.027262] yes=5,no=6,missing=6
		5:[U_KEYWORD_MAX_C<26.169] yes=11,no=12,missing=11
			11:[U_CITY_COEC<0.0837472] yes=23,no=24,missing=23
				23:[U_CATEGORY_MAX_C<234.557] yes=47,no=48,missing=47
					47:[U_KEYWORD_MACRO_MAX_COEC<0.00116608] yes=95,no=96,missing=96
						95:leaf=0.0171041
						96:leaf=-0.00836897
					48:[C_D_U_TITLEMD5_GENDER_COEC<0.112841] yes=97,no=98,missing=98
						97:leaf=-0.0108328
						98:leaf=0.0103911
				24:[U_GENDER_COEC<0.0952058] yes=49,no=50,missing=49
					49:[U_KEYWORD_MACRO_MEAN_COEC<0.0506863] yes=99,no=100,missing=99
						99:leaf=0.00807128
						100:leaf=0.0406761
					50:[C_D_U_KEYWORD_CATEGORY_MICRO_MEAN_COEC<0.0644262] yes=101,no=102,missing=102
						101:leaf=-0.0292006
						102:leaf=0.0191322
			12:[U_KEYWORD_MACRO_MEAN_COEC<0.0384641] yes=25,no=26,missing=26
				25:[U_KEYWORD_MEAN_EC<1044.79] yes=51,no=52,missing=52
					51:[U_KEYWORD_MACRO_MEAN_COEC<0.0281989] yes=103,no=104,missing=104
						103:leaf=-0.0212915
						104:leaf=0.00120924
					52:[U_CATEGORY_MEAN_EC<5974.8] yes=105,no=106,missing=106
						105:leaf=-0.0160762
						106:leaf=0.000370807
				26:[U_KEYWORD_MICRO_MAX_COEC<0.12083] yes=53,no=54,missing=54
					53:[U_GENDER_C<66303.6] yes=107,no=108,missing=108
						107:leaf=0.0268889
						108:leaf=-0.00339069
					54:[U_CATEGORY_MEAN_C<2168.43] yes=109,no=110,missing=109
						109:leaf=0.0404142
						110:leaf=0.0118858
		6:[C_D_U_KEYWORD_CATEGORY_MEAN_C<1.35684] yes=13,no=14,missing=14
			13:[U_KEYWORD_MACRO_MAX_COEC<0.00127285] yes=27,no=28,missing=28
				27:[C_D_U_TITLEMD5_CATEGORY_MICRO_MEAN_COEC<0.0593251] yes=55,no=56,missing=56
					55:[C_D_U_KEYWORD_CATEGORY_MEAN_C<0.187383] yes=111,no=112,missing=112
						111:leaf=0.121255
						112:leaf=0.0522083
					56:[C_D_U_PUBLISHER_GENDER_COEC<0.108065] yes=113,no=114,missing=114
						113:leaf=0.0190313
						114:leaf=0.0326727
				28:[C_D_U_PUBLISHER_AGE_COEC<0.0573982] yes=57,no=58,missing=58
					57:[U_KEYWORD_MAX_EC<238.082] yes=115,no=116,missing=116
						115:leaf=-0.0677017
						116:leaf=-0.00269162
					58:[C_D_U_TITLEMD5_CATEGORY_MICRO_MEAN_COEC<0.0935948] yes=117,no=118,missing=118
						117:leaf=0.029639
						118:leaf=0.0150488
			14:[C_D_U_PUBLISHER_GENDER_COEC<0.108065] yes=29,no=30,missing=30
				29:[M_D_U_KEYWORD_KEYWORD_MICRO_MAX_COEC<0.222078] yes=59,no=60,missing=59
					59:[M_D_U_KEYWORD_KEYWORD_MAX_EC<0.0503968] yes=119,no=120,missing=119
						119:leaf=-0.00662045
						120:leaf=0.00692089
					60:[D_KEYWORD_MACRO_MEAN_COEC<0.118372] yes=121,no=122,missing=122
						121:leaf=0.0357493
						122:leaf=-0.0714013
				30:[U_AGE_COEC<0.0958743] yes=61,no=62,missing=62
					61:[U_KEYWORD_MICRO_MAX_COEC<0.103222] yes=123,no=124,missing=124
						123:leaf=-0.000868647
						124:leaf=0.0215671
					62:[D_KEYWORD_MAX_C<419.333] yes=125,no=126,missing=126
						125:leaf=0.0108649
						126:leaf=-0.00689589
booster[48]:
0:[U_CITY_COEC<0.10102] yes=1,no=2,missing=1
	1:[C_D_U_TITLEMD5_CITY_C<2.82169] yes=3,no=4,missing=3
		3:[DOC_AGE<1.205] yes=7,no=8,missing=8
			7:[C_D_U_CATEGORY_CATEGORY_MICRO_MAX_COEC<0.150198] yes=15,no=16,missing=15
				15:[LARGE_IMAGE<0.999999] yes=31,no=32,missing=32
					31:[D_TITLEMD5_C<2.995] yes=59,no=60,missing=59
						59:leaf=-0.0123905
						60:leaf=0.00483011
					32:[C_D_U_TITLEMD5_CATEGORY_MICRO_MEAN_COEC<0.112129] yes=61,no=62,missing=62
						61:leaf=0.0127686
						62:leaf=-0.00064817
				16:[D_KEYWORD_MICRO_MEAN_COEC<0.0962385] yes=33,no=34,missing=34
					33:[D_KEYWORD_MEAN_C<375.737] yes=63,no=64,missing=64
						63:leaf=0.0343093
						64:leaf=0.0132515
					34:[U_KEYWORD_MACRO_MAX_COEC<0.0010392] yes=65,no=66,missing=66
						65:leaf=0.0591218
						66:leaf=0.00709731
			8:[C_D_U_PUBLISHER_CITY_COEC<0.10138] yes=17,no=18,missing=18
				17:[CAT_REL<0.055742] yes=35,no=36,missing=36
					35:[D_TITLEMD5_C<164.774] yes=67,no=68,missing=67
						67:leaf=-0.0137056
						68:leaf=-0.00316229
					36:[D_TITLEMD5_C<0.990024] yes=69,no=70,missing=69
						69:leaf=-0.0201686
						70:leaf=-0.000544982
				18:[C_D_U_KEYWORD_CATEGORY_MICRO_MAX_COEC<0.276418] yes=37,no=38,missing=38
					37:[KW_REL<0.00040694] yes=71,no=72,missing=72
						71:leaf=-0.0139282
						72:leaf=-0.0036474
					38:[C_D_U_TITLEMD5_GENDER_COEC<0.176487] yes=73,no=74,missing=74
						73:leaf=-0.00898815
						74:leaf=0.00990595
		4:[U_KEYWORD_MICRO_MEAN_COEC<0.0968493] yes=9,no=10,missing=9
			9:[DAY_OF_WEEK<0.999999] yes=19,no=20,missing=20
				19:[D_CATEGORY_MICRO_MAX_COEC<0.120473] yes=39,no=40,missing=39
					39:[C_D_U_TITLEMD5_CITY_COEC<0.119973] yes=75,no=76,missing=76
						75:leaf=0.00502149
						76:leaf=0.0172
					40:[D_KEYWORD_MACRO_MAX_COEC<0.022089] yes=77,no=78,missing=78
						77:leaf=-0.0174691
						78:leaf=0.000905067
				20:[C_D_U_TITLEMD5_CITY_COEC<0.225101] yes=41,no=42,missing=42
					41:[U_GENDER_EC<748920] yes=79,no=80,missing=80
						79:leaf=0.00200041
						80:leaf=-0.0069755
					42:[C_D_U_KEYWORD_CATEGORY_MEAN_C<1.64078] yes=81,no=82,missing=81
						81:leaf=0.0110915
						82:leaf=-0.00303678
			10:[TIME_OF_DAY<9] yes=21,no=22,missing=22
				21:[U_KEYWORD_MAX_EC<396.592] yes=43,no=44,missing=44
					43:[U_KEYWORD_MEAN_C<138.386] yes=83,no=84,missing=84
						83:leaf=0.00932981
						84:leaf=0.0182235
					44:[U_KEYWORD_MICRO_MEAN_COEC<0.102382] yes=85,no=86,missing=86
						85:leaf=-0.00408716
						86:leaf=0.0115434
				22:[DOC_AGE<5.29861] yes=45,no=46,missing=46
					45:[D_TITLEMD5_EC<4518.43] yes=87,no=88,missing=88
						87:leaf=0.00865685
						88:leaf=0.0235664
					46:[D_KEYWORD_MEAN_EC<2222.83] yes=89,no=90,missing=90
						89:leaf=0.0060266
						90:leaf=-0.00223907
	2:[U_CATEGORY_MEAN_C<184.809] yes=5,no=6,missing=6
		5:[U_KEYWORD_MAX_C<19.969] yes=11,no=12,missing=12
			11:[D_TITLEMD5_COEC<0.088542] yes=23,no=24,missing=23
				23:leaf=-0.250758
				24:[M_D_U_KEYWORD_KEYWORD_MICRO_MAX_COEC<0.126218] yes=47,no=48,missing=48
					47:leaf=-0.076524
					48:[DOC_AGE<5.02139] yes=91,no=92,missing=92
						91:leaf=0.0485543
						92:leaf=0.124151
			12:[DOC_AGE<50.4767] yes=25,no=26,missing=26
				25:[U_KEYWORD_MAX_EC<271.603] yes=49,no=50,missing=50
					49:[U_CATEGORY_MICRO_MEAN_COEC<0.114866] yes=93,no=94,missing=94
						93:leaf=0.143924
						94:leaf=0.113556
					50:[M_D_U_KEYWORD_KEYWORD_MICRO_MAX_COEC<0.187833] yes=95,no=96,missing=95
						95:leaf=-0.0108604
						96:leaf=0.168005
				26:leaf=-0.125623
		6:[U_CATEGORY_MACRO_MEAN_COEC<0.025025] yes=13,no=14,missing=14
			13:[U_AGE_C<77928.2] yes=27,no=28,missing=28
				27:[D_CATEGORY_MACRO_MEAN_COEC<0.0628211] yes=51,no=52,missing=51
					51:[C_D_U_TITLEMD5_CATEGORY_MACRO_MAX_COEC<0.00981923] yes=97,no=98,missing=98
						97:leaf=0.21524
						98:leaf=0.120535
					52:[C_D_U_KEYWORD_CATEGORY_MICRO_MEAN_COEC<0.0730712] yes=99,no=100,missing=100
						99:leaf=0.0441201
						100:leaf=0.163379
				28:[C_D_U_KEYWORD_CATEGORY_MACRO_MAX_COEC<0.0021138] yes=53,no=54,missing=54
					53:[D_KEYWORD_MICRO_MAX_COEC<0.107216] yes=101,no=102,missing=102
						101:leaf=0.0378172
						102:leaf=-0.185504
					54:[D_PUBLISHER_EC<27490.2] yes=103,no=104,missing=104
						103:leaf=0.114658
						104:leaf=-0.0711527
			14:[C_D_U_CATEGORY_CITY_MACRO_MAX_COEC<0.151445] yes=29,no=30,missing=30
				29:[U_CATEGORY_MACRO_MAX_COEC<0.0114323] yes=55,no=56,missing=55
					55:[U_CITY_C<1109.02] yes=105,no=106,missing=106
						105:leaf=0.0152605
						106:leaf=0.0638773
					56:[U_KEYWORD_MEAN_C<118.529] yes=107,no=108,missing=108
						107:leaf=-0.00209632
						108:leaf=0.0102698
				30:[U_KEYWORD_MACRO_MAX_COEC<0.0011204] yes=57,no=58,missing=58
					57:[C_D_U_CATEGORY_CATEGORY_MEAN_C<163.039] yes=109,no=110,missing=109
						109:leaf=0.0619722
						110:leaf=-0.0396275
					58:[U_KEYWORD_MICRO_MAX_COEC<0.116059] yes=111,no=112,missing=111
						111:leaf=0.0154156
						112:leaf=0.0309581
booster[49]:
0:[IMAGE_COUNT<0.999999] yes=1,no=2,missing=2
	1:[D_TITLEMD5_COEC<0.0947543] yes=3,no=4,missing=4
		3:[U_KEYWORD_MAX_EC<220.842] yes=7,no=8,missing=7
			7:[D_PUBLISHER_C<39.5246] yes=15,no=16,missing=16
				15:[D_PUBLISHER_COEC<0.0917242] yes=31,no=32,missing=32
					31:[U_CITY_C<39136.1] yes=63,no=64,missing=63
						63:leaf=-0.0597075
						64:leaf=0.232806
					32:[C_D_U_PUBLISHER_CITY_EC<14.8284] yes=65,no=66,missing=66
						65:leaf=0.113975
						66:leaf=-0.114803
				16:[U_AGE_COEC<0.0980908] yes=33,no=34,missing=33
					33:[C_D_U_CATEGORY_AGE_MACRO_MAX_COEC<0.065778] yes=67,no=68,missing=67
						67:leaf=-0.025463
						68:leaf=-0.00109785
					34:[U_CITY_COEC<0.0891968] yes=69,no=70,missing=69
						69:leaf=-0.0919603
						70:leaf=-0.0407091
			8:[C_D_U_TITLEMD5_CATEGORY_MACRO_MAX_COEC<0.026493] yes=17,no=18,missing=18
				17:[DAY_OF_WEEK<6] yes=35,no=36,missing=36
					35:[U_GENDER_COEC<0.0888588] yes=71,no=72,missing=72
						71:leaf=0.0182563
						72:leaf=-0.0130548
					36:[U_KEYWORD_MICRO_MEAN_COEC<0.0936398] yes=73,no=74,missing=74
						73:leaf=-0.0344081
						74:leaf=0.0158952
				18:[C_D_U_TITLEMD5_AGE_C<1.995] yes=37,no=38,missing=37
					37:[D_CATEGORY_MACRO_MEAN_COEC<0.119235] yes=75,no=76,missing=76
						75:leaf=-0.0393978
						76:leaf=-0.132938
					38:[U_CATEGORY_MICRO_MAX_COEC<0.0955167] yes=77,no=78,missing=77
						77:leaf=-0.0946768
						78:leaf=0.00912189
		4:[C_D_U_CATEGORY_CATEGORY_MICRO_MAX_COEC<0.136297] yes=9,no=10,missing=9
			9:[DOC_AGE<0.775277] yes=19,no=20,missing=20
				19:[C_D_U_CATEGORY_GENDER_MAX_EC<37345.2] yes=39,no=40,missing=39
					39:[D_KEYWORD_MICRO_MAX_COEC<0.0998571] yes=79,no=80,missing=80
						79:leaf=-0.00115322
						80:leaf=-0.0497373
					40:[U_AGE_COEC<0.0954968] yes=81,no=82,missing=82
						81:leaf=0.0679421
						82:leaf=-0.0200013
				20:[M_D_U_KEYWORD_KEYWORD_MACRO_MEAN_COEC<0.000130295] yes=41,no=42,missing=42
					41:[D_PUBLISHER_EC<5334.41] yes=83,no=84,missing=83
						83:leaf=-0.103432
						84:leaf=-0.0548917
					42:[KW_REL<0.00476228] yes=85,no=86,missing=86
						85:leaf=-0.0532752
						86:leaf=-0.020438
			10:[D_CATEGORY_MACRO_MAX_COEC<0.113534] yes=21,no=22,missing=22
				21:[C_D_U_CATEGORY_CITY_MICRO_MEAN_COEC<0.112966] yes=43,no=44,missing=43
					43:[M_D_U_KEYWORD_KEYWORD_MICRO_MAX_COEC<0.0947724] yes=87,no=88,missing=88
						87:leaf=-0.070838
						88:leaf=-0.00605451
					44:[DOC_AGE<21.2125] yes=89,no=90,missing=90
						89:leaf=0.0610034
						90:leaf=-0.172676
				22:[U_CITY_COEC<0.0946112] yes=45,no=46,missing=45
					45:[U_KEYWORD_MICRO_MEAN_COEC<0.101225] yes=91,no=92,missing=92
						91:leaf=-0.0645627
						92:leaf=-0.132443
					46:[D_CATEGORY_MACRO_MAX_COEC<0.11922] yes=93,no=94,missing=94
						93:leaf=0.0468331
						94:leaf=-0.117473
	2:[TIME_OF_DAY<9] yes=5,no=6,missing=6
		5:[U_KEYWORD_MEAN_C<105.878] yes=11,no=12,missing=11
			11:[TIME_OF_DAY<2] yes=23,no=24,missing=24
				23:[U_KEYWORD_MEAN_C<83.6339] yes=47,no=48,missing=48
					47:[U_KEYWORD_MAX_C<45.0078] yes=95,no=96,missing=96
						95:leaf=0.00348381
						96:leaf=-0.0610533
					48:[U_KEYWORD_MACRO_MAX_COEC<0.00110596] yes=97,no=98,missing=98
						97:leaf=0.0693706
						98:leaf=0.0146541
				24:[U_CATEGORY_MEAN_C<185.851] yes=49,no=50,missing=50
					49:[U_GENDER_EC<772033] yes=99,no=100,missing=100
						99:leaf=0.132088
						100:leaf=0.0230714
					50:[U_KEYWORD_MICRO_MAX_COEC<0.148753] yes=101,no=102,missing=101
						101:leaf=-0.0020944
						102:leaf=0.0160347
			12:[U_KEYWORD_MACRO_MAX_COEC<0.00232608] yes=25,no=26,missing=26
				25:[D_KEYWORD_MEAN_C<73.3371] yes=51,no=52,missing=51
					51:[C_D_U_TITLEMD5_CITY_EC<4.15506] yes=103,no=104,missing=103
						103:leaf=0.0155161
						104:leaf=0.0322025
					52:[U_KEYWORD_MEAN_C<137.954] yes=105,no=106,missing=106
						105:leaf=0.00503809
						106:leaf=0.01299
				26:[DAY_OF_WEEK<2] yes=53,no=54,missing=54
					53:[U_KEYWORD_MEAN_EC<1225.64] yes=107,no=108,missing=108
						107:leaf=0.0234939
						108:leaf=0.00399206
					54:[U_KEYWORD_MICRO_MEAN_COEC<0.0990968] yes=109,no=110,missing=110
						109:leaf=-0.0138647
						110:leaf=0.00109992
		6:[U_KEYWORD_MICRO_MAX_COEC<0.112946] yes=13,no=14,missing=14
			13:[DAY_OF_WEEK<0.999999] yes=27,no=28,missing=28
				27:[U_KEYWORD_MICRO_MEAN_COEC<0.0925249] yes=55,no=56,missing=56
					55:[D_TITLEMD5_COEC<0.0783051] yes=111,no=112,missing=111
						111:leaf=-0.0176882
						112:leaf=-0.00381544
					56:[KW_REL<0.00530556] yes=113,no=114,missing=114
						113:leaf=0.00373211
						114:leaf=0.0251482
				28:[D_TITLEMD5_COEC<0.106695] yes=57,no=58,missing=58
					57:[D_KEYWORD_MEAN_C<429.316] yes=115,no=116,missing=115
						115:leaf=-0.00818637
						116:leaf=-0.0178765
					58:[DAY_OF_WEEK<6] yes=117,no=118,missing=118
						117:leaf=-0.00554841
						118:leaf=0.00491139
			14:[U_KEYWORD_MICRO_MAX_COEC<0.148753] yes=29,no=30,missing=29
				29:[U_CITY_COEC<0.0853261] yes=59,no=60,missing=60
					59:[U_KEYWORD_MEAN_C<114.716] yes=119,no=120,missing=119
						119:leaf=-0.010254
						120:leaf=-2.95541e-06
					60:[U_KEYWORD_MACRO_MAX_COEC<0.00157764] yes=121,no=122,missing=121
						121:leaf=0.00441487
						122:leaf=-0.00249298
				30:[U_AGE_C<85968.2] yes=61,no=62,missing=62
					61:[U_CATEGORY_MACRO_MEAN_COEC<0.101981] yes=123,no=124,missing=123
						123:leaf=0.0341845
						124:leaf=-0.0730683
					62:[U_KEYWORD_MICRO_MEAN_COEC<0.0941186] yes=125,no=126,missing=126
						125:leaf=-0.00777305
						126:leaf=0.0161053
booster[50]:
0:[KW_REL<0.00348898] yes=1,no=2,missing=2
	1:[D_KEYWORD_MEAN_EC<4407.88] yes=3,no=4,missing=3
		3:[IMAGE_COUNT<3] yes=7,no=8,missing=8
			7:[C_D_U_TITLEMD5_AGE_COEC<0.110879] yes=15,no=16,missing=15
				15:[C_D_U_CATEGORY_CITY_MACRO_MAX_COEC<0.0465279] yes=31,no=32,missing=32
					31:[D_TITLEMD5_C<16.7228] yes=63,no=64,missing=63
						63:leaf=-0.0209074
						64:leaf=-0.00574645
					32:[U_KEYWORD_MEAN_C<129.549] yes=65,no=66,missing=66
						65:leaf=-0.00385172
						66:leaf=0.00184123
				16:[C_D_U_CATEGORY_GENDER_MAX_EC<79847.7] yes=33,no=34,missing=33
					33:[CAT_REL<0.033487] yes=67,no=68,missing=68
						67:leaf=0.00461089
						68:leaf=0.0129954
					34:[C_D_U_TITLEMD5_GENDER_COEC<0.187955] yes=69,no=70,missing=70
						69:leaf=-0.00975893
						70:leaf=0.00823173
			8:[CAT_REL<0.000700036] yes=17,no=18,missing=18
				17:[C_D_U_TITLEMD5_CATEGORY_MICRO_MEAN_COEC<0.0554219] yes=35,no=36,missing=36
					35:[D_CATEGORY_MACRO_MAX_COEC<0.0650579] yes=71,no=72,missing=71
						71:leaf=0.00439395
						72:leaf=-0.0233475
					36:[D_KEYWORD_MICRO_MEAN_COEC<0.0940132] yes=73,no=74,missing=74
						73:leaf=0.0141889
						74:leaf=0.000827783
				18:[U_KEYWORD_MACRO_MAX_COEC<0.00125605] yes=37,no=38,missing=38
					37:[C_D_U_PUBLISHER_AGE_EC<27037.9] yes=75,no=76,missing=75
						75:leaf=0.0264477
						76:leaf=0.0703081
					38:[C_D_U_CATEGORY_CATEGORY_MEAN_C<12.6234] yes=77,no=78,missing=78
						77:leaf=-0.000721025
						78:leaf=0.0137597
		4:[D_TITLEMD5_C<365.906] yes=9,no=10,missing=10
			9:[U_KEYWORD_MICRO_MAX_COEC<0.118869] yes=19,no=20,missing=20
				19:[D_KEYWORD_MEAN_EC<6059.99] yes=39,no=40,missing=40
					39:[M_D_U_KEYWORD_KEYWORD_MAX_EC<0.427412] yes=79,no=80,missing=79
						79:leaf=-0.0154448
						80:leaf=0.000664341
					40:[DAY_OF_WEEK<0.999999] yes=81,no=82,missing=82
						81:leaf=-0.00423688
						82:leaf=-0.024552
				20:[C_D_U_PUBLISHER_CITY_COEC<0.0649893] yes=41,no=42,missing=42
					41:[M_D_U_KEYWORD_KEYWORD_MAX_C<0.0282665] yes=83,no=84,missing=83
						83:leaf=-0.0193912
						84:leaf=0.00809233
					42:[D_CATEGORY_MACRO_MAX_COEC<0.0825845] yes=85,no=86,missing=86
						85:leaf=-0.00576996
						86:leaf=0.0046448
			10:[D_PUBLISHER_EC<116355] yes=21,no=22,missing=21
				21:[D_TITLEMD5_COEC<0.200221] yes=43,no=44,missing=43
					43:[D_KEYWORD_MEAN_C<474.814] yes=87,no=88,missing=88
						87:leaf=0.00367008
						88:leaf=-0.00984432
					44:[D_CATEGORY_MACRO_MAX_COEC<0.136959] yes=89,no=90,missing=90
						89:leaf=0.0100077
						90:leaf=-0.0181025
				22:[U_CATEGORY_MICRO_MAX_COEC<0.108234] yes=45,no=46,missing=45
					45:[D_KEYWORD_MICRO_MEAN_COEC<0.0764298] yes=91,no=92,missing=92
						91:leaf=-0.00867992
						92:leaf=0.00999109
					46:[D_CATEGORY_MAX_C<14387.4] yes=93,no=94,missing=94
						93:leaf=0.0269748
						94:leaf=0.0074641
	2:[C_D_U_KEYWORD_CATEGORY_MEAN_C<2.01719] yes=5,no=6,missing=6
		5:[DOC_AGE<12.1083] yes=11,no=12,missing=12
			11:[KW_REL<0.00539984] yes=23,no=24,missing=24
				23:[C_D_U_KEYWORD_CATEGORY_MEAN_EC<9.58457] yes=47,no=48,missing=48
					47:[D_KEYWORD_MACRO_MAX_COEC<0.0148014] yes=95,no=96,missing=96
						95:leaf=0.0545745
						96:leaf=0.0197272
					48:[D_TITLEMD5_COEC<0.0551495] yes=97,no=98,missing=98
						97:leaf=-0.0103634
						98:leaf=0.0134468
				24:[U_KEYWORD_MACRO_MEAN_COEC<0.0271077] yes=49,no=50,missing=50
					49:[WORD_COUNT<778] yes=99,no=100,missing=100
						99:leaf=0.017977
						100:leaf=0.04008
					50:[U_KEYWORD_MICRO_MEAN_COEC<0.103074] yes=101,no=102,missing=102
						101:leaf=-0.00269153
						102:leaf=0.0515215
			12:[D_KEYWORD_MICRO_MEAN_COEC<0.0842262] yes=25,no=26,missing=26
				25:[C_D_U_CATEGORY_CATEGORY_MICRO_MAX_COEC<0.176343] yes=51,no=52,missing=52
					51:[KW_REL<0.00494754] yes=103,no=104,missing=104
						103:leaf=0.00822409
						104:leaf=0.0240132
					52:[C_D_U_CATEGORY_GENDER_MACRO_MAX_COEC<0.0627555] yes=105,no=106,missing=105
						105:leaf=0.0320985
						106:leaf=0.0696005
				26:[C_D_U_TITLEMD5_CATEGORY_MAX_C<3.05944] yes=53,no=54,missing=54
					53:[WORD_COUNT<920] yes=107,no=108,missing=108
						107:leaf=-0.0116415
						108:leaf=0.00512307
					54:[D_PUBLISHER_COEC<0.0913495] yes=109,no=110,missing=110
						109:leaf=-0.00395091
						110:leaf=-0.0805852
		6:[M_D_U_KEYWORD_KEYWORD_MACRO_MEAN_COEC<0.000750619] yes=13,no=14,missing=13
			13:[D_KEYWORD_MACRO_MAX_COEC<0.0205985] yes=27,no=28,missing=28
				27:[C_D_U_CATEGORY_CATEGORY_MICRO_MEAN_COEC<0.148897] yes=55,no=56,missing=56
					55:[U_KEYWORD_MACRO_MAX_COEC<0.00164787] yes=111,no=112,missing=112
						111:leaf=0.010268
						112:leaf=-0.000840133
					56:[U_KEYWORD_MICRO_MAX_COEC<0.113923] yes=113,no=114,missing=114
						113:leaf=-0.00118488
						114:leaf=0.0487918
				28:[D_TITLEMD5_COEC<0.0683564] yes=57,no=58,missing=58
					57:[U_KEYWORD_MACRO_MAX_COEC<0.00104137] yes=115,no=116,missing=116
						115:leaf=0.0606396
						116:leaf=-0.0166837
					58:[DAY_OF_WEEK<0.999999] yes=117,no=118,missing=118
						117:leaf=0.00982332
						118:leaf=-0.00224854
			14:[DOC_AGE<32.885] yes=29,no=30,missing=30
				29:[U_KEYWORD_MACRO_MEAN_COEC<0.033494] yes=59,no=60,missing=60
					59:[D_KEYWORD_MACRO_MAX_COEC<0.0367672] yes=119,no=120,missing=120
						119:leaf=0.0197801
						120:leaf=0.00361293
					60:[U_KEYWORD_MEAN_EC<1723.18] yes=121,no=122,missing=122
						121:leaf=-0.000284121
						122:leaf=-0.0249378
				30:[M_D_U_KEYWORD_KEYWORD_MEAN_C<0.0464754] yes=61,no=62,missing=62
					61:[WORD_COUNT<3992] yes=123,no=124,missing=124
						123:leaf=-0.0286715
						124:leaf=-0.103608
					62:[CAT_REL<0.101803] yes=125,no=126,missing=126
						125:leaf=0.00868826
						126:leaf=-0.0263589
booster[51]:
0:[C_D_U_KEYWORD_CATEGORY_MICRO_MAX_COEC<0.2837] yes=1,no=2,missing=1
	1:[WORD_COUNT<1394] yes=3,no=4,missing=4
		3:[U_KEYWORD_MEAN_C<128.573] yes=7,no=8,missing=8
			7:[U_KEYWORD_MICRO_MAX_COEC<0.126868] yes=15,no=16,missing=16
				15:[D_CATEGORY_MEAN_C<26257.7] yes=31,no=32,missing=31
					31:[C_D_U_CATEGORY_CITY_MICRO_MEAN_COEC<0.1064] yes=63,no=64,missing=63
						63:leaf=-0.00810673
						64:leaf=0.0035181
					32:[D_TITLEMD5_COEC<0.11186] yes=65,no=66,missing=66
						65:leaf=-0.0210559
						66:leaf=-0.00861917
				16:[U_KEYWORD_MEAN_C<6.97201] yes=33,no=34,missing=34
					33:[U_CITY_COEC<0.0931943] yes=67,no=68,missing=68
						67:leaf=-0.024342
						68:leaf=-0.0902855
					34:[U_KEYWORD_MACRO_MEAN_COEC<0.0276597] yes=69,no=70,missing=70
						69:leaf=-0.0033224
						70:leaf=0.0153762
			8:[U_KEYWORD_MAX_C<45.8166] yes=17,no=18,missing=17
				17:[DOC_AGE<3.26194] yes=35,no=36,missing=36
					35:[D_PUBLISHER_C<191.37] yes=71,no=72,missing=71
						71:leaf=-0.00902903
						72:leaf=0.00924405
					36:[DOC_AGE<24.0175] yes=73,no=74,missing=74
						73:leaf=-0.00370041
						74:leaf=0.00721363
				18:[U_KEYWORD_MICRO_MAX_COEC<0.119504] yes=37,no=38,missing=38
					37:[C_D_U_TITLEMD5_CITY_C<3.94062] yes=75,no=76,missing=75
						75:leaf=-0.0224474
						76:leaf=-0.00872007
					38:[U_AGE_C<84566.3] yes=77,no=78,missing=78
						77:leaf=0.0293134
						78:leaf=-0.00481206
		4:[D_TITLEMD5_C<18.8563] yes=9,no=10,missing=9
			9:[CAT_REL<0.0920935] yes=19,no=20,missing=20
				19:[C_D_U_TITLEMD5_CITY_C<3.94062] yes=39,no=40,missing=39
					39:[DOC_AGE<76.9494] yes=79,no=80,missing=80
						79:leaf=-0.0105198
						80:leaf=0.0131183
					40:[U_CITY_EC<197426] yes=81,no=82,missing=82
						81:leaf=0.0740958
						82:leaf=0.0147839
				20:[U_CATEGORY_MEAN_EC<14703.6] yes=41,no=42,missing=42
					41:[C_D_U_CATEGORY_CATEGORY_MICRO_MEAN_COEC<0.142843] yes=83,no=84,missing=84
						83:leaf=0.00914997
						84:leaf=0.0474211
					42:[KW_REL<0.00557379] yes=85,no=86,missing=86
						85:leaf=-0.00879763
						86:leaf=0.0103516
			10:[U_KEYWORD_MACRO_MAX_COEC<0.0012215] yes=21,no=22,missing=22
				21:[U_KEYWORD_MEAN_EC<532.712] yes=43,no=44,missing=44
					43:[C_D_U_CATEGORY_AGE_MAX_C<1508.14] yes=87,no=88,missing=88
						87:leaf=0.0204889
						88:leaf=-0.0650029
					44:[CAT_REL<0.000773] yes=89,no=90,missing=90
						89:leaf=0.00427474
						90:leaf=0.0163668
				22:[DOC_AGE<2.68444] yes=45,no=46,missing=46
					45:[C_D_U_TITLEMD5_CATEGORY_MICRO_MEAN_COEC<0.113947] yes=91,no=92,missing=92
						91:leaf=0.0145462
						92:leaf=0.0046463
					46:[TIME_OF_DAY<2] yes=93,no=94,missing=94
						93:leaf=0.0130184
						94:leaf=0.000109024
	2:[CAT_REL<0.00711] yes=5,no=6,missing=6
		5:[D_TITLEMD5_COEC<0.146833] yes=11,no=12,missing=11
			11:[C_D_U_TITLEMD5_CATEGORY_MICRO_MEAN_COEC<0.15015] yes=23,no=24,missing=24
				23:[U_CITY_COEC<0.0986267] yes=47,no=48,missing=47
					47:[C_D_U_TITLEMD5_CITY_C<3.80227] yes=95,no=96,missing=95
						95:leaf=-0.00606274
						96:leaf=0.00655534
					48:[U_CATEGORY_MEAN_C<185.851] yes=97,no=98,missing=98
						97:leaf=0.125525
						98:leaf=0.0214877
				24:[C_D_U_TITLEMD5_CATEGORY_MEAN_EC<20.5467] yes=49,no=50,missing=50
					49:[D_CATEGORY_MEAN_EC<7834.98] yes=99,no=100,missing=99
						99:leaf=0.0102555
						100:leaf=-0.0192671
					50:[C_D_U_TITLEMD5_GENDER_COEC<0.102511] yes=101,no=102,missing=102
						101:leaf=-0.251805
						102:leaf=0.0161365
			12:[KW_REL<0.000213914] yes=25,no=26,missing=26
				25:[D_KEYWORD_MAX_EC<479.302] yes=51,no=52,missing=52
					51:[U_GENDER_EC<196088] yes=103,no=104,missing=104
						103:leaf=-0.262671
						104:leaf=0.00760523
					52:[U_KEYWORD_MEAN_C<6.97201] yes=105,no=106,missing=106
						105:leaf=-0.0854504
						106:leaf=-0.00829296
				26:[IMAGE_COUNT<0.999999] yes=53,no=54,missing=54
					53:[C_D_U_PUBLISHER_CITY_COEC<0.119718] yes=107,no=108,missing=107
						107:leaf=-0.122946
						108:leaf=0.0582228
					54:[U_KEYWORD_MAX_C<41.8137] yes=109,no=110,missing=110
						109:leaf=0.00930289
						110:leaf=-0.00348707
		6:[C_D_U_CATEGORY_CATEGORY_MICRO_MAX_COEC<0.204883] yes=13,no=14,missing=14
			13:[D_KEYWORD_MAX_C<24.4748] yes=27,no=28,missing=28
				27:[KW_REL<0.000213914] yes=55,no=56,missing=56
					55:[C_D_U_CATEGORY_CATEGORY_MACRO_MAX_COEC<0.0117509] yes=111,no=112,missing=112
						111:leaf=-0.0216772
						112:leaf=0.0114045
					56:[M_D_U_KEYWORD_KEYWORD_MICRO_MEAN_COEC<0.0889341] yes=113,no=114,missing=114
						113:leaf=0.0517382
						114:leaf=0.023748
				28:[D_TITLEMD5_C<4.52048] yes=57,no=58,missing=58
					57:[C_D_U_TITLEMD5_CATEGORY_MICRO_MEAN_COEC<0.0718454] yes=115,no=116,missing=116
						115:leaf=0.0109857
						116:leaf=-0.0131857
					58:[D_TITLEMD5_COEC<0.185646] yes=117,no=118,missing=118
						117:leaf=0.00585066
						118:leaf=0.0170368
			14:[D_KEYWORD_MICRO_MEAN_COEC<0.0997788] yes=29,no=30,missing=30
				29:[CAT_REL<0.0979006] yes=59,no=60,missing=60
					59:[U_CATEGORY_MEAN_C<185.851] yes=119,no=120,missing=120
						119:leaf=0.102899
						120:leaf=0.0257253
					60:[D_CATEGORY_MICRO_MAX_COEC<0.0770029] yes=121,no=122,missing=122
						121:leaf=0.0833804
						122:leaf=0.043272
				30:[U_KEYWORD_MACRO_MAX_COEC<0.00111372] yes=61,no=62,missing=62
					61:[D_TITLEMD5_C<3.48174] yes=123,no=124,missing=124
						123:leaf=0.100685
						124:leaf=0.0371721
					62:[KW_REL<0.00480403] yes=125,no=126,missing=126
						125:leaf=0.0129581
						126:leaf=-0.0250243
booster[52]:
0:[U_KEYWORD_MACRO_MAX_COEC<0.00109853] yes=1,no=2,missing=2
	1:[U_KEYWORD_MICRO_MEAN_COEC<0.0985656] yes=3,no=4,missing=4
		3:[U_KEYWORD_MEAN_EC<773.097] yes=7,no=8,missing=8
			7:[U_CATEGORY_MICRO_MEAN_COEC<0.100919] yes=15,no=16,missing=16
				15:[U_GENDER_COEC<0.0886408] yes=31,no=32,missing=31
					31:[KW_REL<0.00034107] yes=63,no=64,missing=64
						63:leaf=-0.0400209
						64:leaf=0.0178078
					32:[C_D_U_KEYWORD_CATEGORY_MAX_EC<0.0609074] yes=65,no=66,missing=65
						65:leaf=0.0417144
						66:leaf=-0.0645504
				16:[C_D_U_KEYWORD_CATEGORY_MICRO_MAX_COEC<0.422092] yes=33,no=34,missing=34
					33:[C_D_U_CATEGORY_GENDER_MAX_C<456.218] yes=67,no=68,missing=68
						67:leaf=0.0941355
						68:leaf=-0.168201
					34:[M_D_U_KEYWORD_KEYWORD_MACRO_MEAN_COEC<0.000101663] yes=69,no=70,missing=70
						69:leaf=-0.22843
						70:leaf=0.0128731
			8:[U_KEYWORD_MAX_C<20.7107] yes=17,no=18,missing=18
				17:[U_GENDER_COEC<0.105902] yes=35,no=36,missing=35
					35:[U_CATEGORY_MAX_C<241.209] yes=71,no=72,missing=72
						71:leaf=0.0279336
						72:leaf=0.000327042
					36:[DAY_OF_WEEK<4] yes=73,no=74,missing=74
						73:leaf=0.0926668
						74:leaf=-0.17295
				18:[U_KEYWORD_MICRO_MAX_COEC<0.116125] yes=37,no=38,missing=38
					37:[U_KEYWORD_MICRO_MAX_COEC<0.110929] yes=75,no=76,missing=76
						75:leaf=-0.00511018
						76:leaf=0.0242191
					38:[U_KEYWORD_MEAN_EC<1404.36] yes=77,no=78,missing=78
						77:leaf=-0.0836227
						78:leaf=0.026001
		4:[C_D_U_CATEGORY_CATEGORY_MEAN_EC<3878.84] yes=9,no=10,missing=10
			9:[U_CITY_COEC<0.0930686] yes=19,no=20,missing=20
				19:[U_AGE_COEC<0.0982224] yes=39,no=40,missing=39
					39:[U_CATEGORY_MEAN_EC<7799.62] yes=79,no=80,missing=80
						79:leaf=0.00826835
						80:leaf=0.0329224
					40:[U_KEYWORD_MEAN_C<123.884] yes=81,no=82,missing=82
						81:leaf=-0.0605485
						82:leaf=0.00209265
				20:[U_GENDER_COEC<0.0912433] yes=41,no=42,missing=42
					41:[U_KEYWORD_MEAN_C<119.805] yes=83,no=84,missing=84
						83:leaf=0.119344
						84:leaf=0.0207931
					42:[U_KEYWORD_MICRO_MEAN_COEC<0.104336] yes=85,no=86,missing=86
						85:leaf=0.0180708
						86:leaf=0.0521993
			10:[U_KEYWORD_MAX_C<14.2427] yes=21,no=22,missing=22
				21:[C_D_U_TITLEMD5_GENDER_COEC<0.14306] yes=43,no=44,missing=44
					43:leaf=-0.329893
					44:leaf=-0.0541828
				22:[U_KEYWORD_MACRO_MAX_COEC<0.00107445] yes=45,no=46,missing=46
					45:[D_KEYWORD_MACRO_MAX_COEC<0.0157276] yes=87,no=88,missing=87
						87:leaf=0.0288131
						88:leaf=0.0958972
					46:[C_D_U_TITLEMD5_CATEGORY_MAX_EC<0.329677] yes=89,no=90,missing=90
						89:leaf=0.102501
						90:leaf=-0.018585
	2:[U_KEYWORD_MICRO_MAX_COEC<0.145982] yes=5,no=6,missing=5
		5:[U_KEYWORD_MEAN_C<110.459] yes=11,no=12,missing=12
			11:[M_D_U_KEYWORD_KEYWORD_MICRO_MAX_COEC<0.222592] yes=23,no=24,missing=23
				23:[U_CATEGORY_MACRO_MEAN_COEC<0.025025] yes=47,no=48,missing=48
					47:[U_CITY_C<1525.64] yes=91,no=92,missing=91
						91:leaf=0.152294
						92:leaf=0.060166
					48:[U_KEYWORD_MACRO_MEAN_COEC<0.0284316] yes=93,no=94,missing=94
						93:leaf=-0.00710561
						94:leaf=0.00107188
				24:[D_KEYWORD_MICRO_MEAN_COEC<0.104347] yes=49,no=50,missing=50
					49:[M_D_U_KEYWORD_KEYWORD_MICRO_MAX_COEC<0.303565] yes=95,no=96,missing=96
						95:leaf=0.0175785
						96:leaf=0.0462837
					50:[U_KEYWORD_MACRO_MAX_COEC<0.00145266] yes=97,no=98,missing=98
						97:leaf=0.012975
						98:leaf=-0.012038
			12:[U_KEYWORD_MACRO_MAX_COEC<0.00295177] yes=25,no=26,missing=25
				25:[CAT_REL<0.146158] yes=51,no=52,missing=52
					51:[C_D_U_TITLEMD5_GENDER_COEC<0.111121] yes=99,no=100,missing=100
						99:leaf=-0.00423243
						100:leaf=0.00217467
					52:[U_CATEGORY_MEAN_EC<17482.5] yes=101,no=102,missing=102
						101:leaf=0.0219878
						102:leaf=0.00409068
				26:[C_D_U_CATEGORY_AGE_MAX_C<15744.3] yes=53,no=54,missing=54
					53:[U_GENDER_EC<809944] yes=103,no=104,missing=103
						103:leaf=0.00180205
						104:leaf=-0.0194996
					54:[C_D_U_TITLEMD5_CITY_COEC<0.0799362] yes=105,no=106,missing=105
						105:leaf=-0.0214184
						106:leaf=-0.00780969
		6:[U_KEYWORD_MICRO_MEAN_COEC<0.0918061] yes=13,no=14,missing=14
			13:[D_KEYWORD_MAX_EC<165.745] yes=27,no=28,missing=27
				27:[U_CITY_C<1525.64] yes=55,no=56,missing=55
					55:[U_CATEGORY_MICRO_MEAN_COEC<0.0939868] yes=107,no=108,missing=107
						107:leaf=0.0101777
						108:leaf=-0.134584
					56:[U_CATEGORY_MICRO_MAX_COEC<0.118428] yes=109,no=110,missing=109
						109:leaf=0.0384686
						110:leaf=0.11809
				28:[U_GENDER_COEC<0.0926159] yes=57,no=58,missing=57
					57:[U_CITY_EC<88962.8] yes=111,no=112,missing=111
						111:leaf=-0.0319596
						112:leaf=-0.00271554
					58:[U_CATEGORY_MICRO_MAX_COEC<0.0925549] yes=113,no=114,missing=113
						113:leaf=0.0828803
						114:leaf=-0.0085454
			14:[U_KEYWORD_MICRO_MAX_COEC<0.227303] yes=29,no=30,missing=30
				29:[U_KEYWORD_MACRO_MAX_COEC<0.00587637] yes=59,no=60,missing=60
					59:[U_KEYWORD_MEAN_EC<503.53] yes=115,no=116,missing=116
						115:leaf=-0.00460301
						116:leaf=0.0191634
					60:[D_KEYWORD_MACRO_MEAN_COEC<0.0720114] yes=117,no=118,missing=117
						117:leaf=-0.0339918
						118:leaf=0.00568542
				30:[U_KEYWORD_MEAN_C<45.9175] yes=61,no=62,missing=62
					61:[D_KEYWORD_MEAN_C<73.8302] yes=119,no=120,missing=120
						119:leaf=0.045034
						120:leaf=-0.0162759
					62:[U_KEYWORD_MEAN_C<163.327] yes=121,no=122,missing=122
						121:leaf=0.0346591
						122:leaf=-0.0107665
booster[53]:
0:[CAT_REL<0.040857] yes=1,no=2,missing=2
	1:[U_KEYWORD_MAX_C<34.8737] yes=3,no=4,missing=3
		3:[U_KEYWORD_MEAN_C<144.883] yes=7,no=8,missing=7
			7:[U_KEYWORD_MICRO_MAX_COEC<0.118519] yes=15,no=16,missing=15
				15:[C_D_U_TITLEMD5_CATEGORY_MEAN_C<0.69738] yes=31,no=32,missing=32
					31:[C_D_U_CATEGORY_CATEGORY_MICRO_MAX_COEC<0.208058] yes=63,no=64,missing=64
						63:leaf=-0.00816159
						64:leaf=0.0187123
					32:[C_D_U_PUBLISHER_CITY_COEC<0.0489897] yes=65,no=66,missing=66
						65:leaf=-0.0116574
						66:leaf=0.000396485
				16:[DOC_AGE<20.9133] yes=33,no=34,missing=34
					33:[U_KEYWORD_MACRO_MAX_COEC<0.00122125] yes=67,no=68,missing=68
						67:leaf=0.0232754
						68:leaf=0.00336874
					34:[U_AGE_COEC<0.0965669] yes=69,no=70,missing=70
						69:leaf=0.035451
						70:leaf=0.0168679
			8:[C_D_U_TITLEMD5_GENDER_COEC<0.116605] yes=17,no=18,missing=18
				17:[DOC_AGE<1.84861] yes=35,no=36,missing=36
					35:[C_D_U_TITLEMD5_CATEGORY_MICRO_MEAN_COEC<0.176818] yes=71,no=72,missing=72
						71:leaf=0.0259147
						72:leaf=-0.0368946
					36:[U_CITY_COEC<0.0858653] yes=73,no=74,missing=73
						73:leaf=-0.0157207
						74:leaf=0.00156531
				18:[C_D_U_CATEGORY_CATEGORY_MACRO_MEAN_COEC<0.0432202] yes=37,no=38,missing=38
					37:[M_D_U_KEYWORD_KEYWORD_MACRO_MEAN_COEC<0.000638904] yes=75,no=76,missing=75
						75:leaf=0.00229156
						76:leaf=0.0416846
					38:[U_KEYWORD_MAX_C<25.8805] yes=77,no=78,missing=78
						77:leaf=0.0190324
						78:leaf=0.0100131
		4:[U_KEYWORD_MEAN_EC<1027.05] yes=9,no=10,missing=10
			9:[U_KEYWORD_MACRO_MEAN_COEC<0.0266062] yes=19,no=20,missing=20
				19:[U_CATEGORY_MACRO_MEAN_COEC<0.0503261] yes=39,no=40,missing=40
					39:[U_CATEGORY_MICRO_MEAN_COEC<0.0973601] yes=79,no=80,missing=80
						79:leaf=-0.0087605
						80:leaf=-0.0521669
					40:[U_AGE_C<86835.8] yes=81,no=82,missing=82
						81:leaf=-0.0593244
						82:leaf=-0.0340144
				20:[U_CITY_EC<403599] yes=41,no=42,missing=41
					41:[U_KEYWORD_MAX_C<58.95] yes=83,no=84,missing=84
						83:leaf=-0.00263575
						84:leaf=-0.0358575
					42:[U_KEYWORD_MICRO_MEAN_COEC<0.101421] yes=85,no=86,missing=86
						85:leaf=0.0741823
						86:leaf=-0.114126
			10:[U_KEYWORD_MICRO_MAX_COEC<0.121531] yes=21,no=22,missing=22
				21:[C_D_U_CATEGORY_CATEGORY_MAX_EC<17.0553] yes=43,no=44,missing=43
					43:[U_CATEGORY_MACRO_MAX_COEC<0.0148992] yes=87,no=88,missing=87
						87:leaf=0.0183471
						88:leaf=-0.000691719
					44:[D_TITLEMD5_C<414.606] yes=89,no=90,missing=89
						89:leaf=-0.0114708
						90:leaf=-0.00334439
				22:[U_CATEGORY_MICRO_MEAN_COEC<0.0840089] yes=45,no=46,missing=45
					45:[U_AGE_COEC<0.0954968] yes=91,no=92,missing=92
						91:leaf=0.0579727
						92:leaf=0.0136668
					46:[U_KEYWORD_MACRO_MEAN_COEC<0.0260923] yes=93,no=94,missing=94
						93:leaf=-0.0178324
						94:leaf=0.00711296
	2:[C_D_U_KEYWORD_CATEGORY_MEAN_EC<10.9669] yes=5,no=6,missing=6
		5:[KW_REL<0.000453467] yes=11,no=12,missing=12
			11:[C_D_U_TITLEMD5_CATEGORY_MEAN_EC<0.236639] yes=23,no=24,missing=24
				23:[D_KEYWORD_MEAN_EC<17.709] yes=47,no=48,missing=48
					47:[U_AGE_C<78585.8] yes=95,no=96,missing=95
						95:leaf=0.0513971
						96:leaf=-0.051008
					48:[DOC_AGE<0.541388] yes=97,no=98,missing=98
						97:leaf=-0.000205903
						98:leaf=-0.0307529
				24:[U_KEYWORD_MEAN_C<59.09] yes=49,no=50,missing=50
					49:[U_KEYWORD_MACRO_MEAN_COEC<0.0227655] yes=99,no=100,missing=100
						99:leaf=-0.0599356
						100:leaf=-0.00957519
					50:[U_CATEGORY_MICRO_MEAN_COEC<0.0980406] yes=101,no=102,missing=102
						101:leaf=-0.0012496
						102:leaf=0.0159244
			12:[CAT_REL<0.106016] yes=25,no=26,missing=26
				25:[D_TITLEMD5_C<7.47666] yes=51,no=52,missing=51
					51:[DOC_AGE<1.24583] yes=103,no=104,missing=104
						103:leaf=0.0142574
						104:leaf=-0.00629221
					52:[DOC_AGE<7.94333] yes=105,no=106,missing=106
						105:leaf=0.0166875
						106:leaf=0.00696672
				26:[U_KEYWORD_MACRO_MAX_COEC<0.00200387] yes=53,no=54,missing=54
					53:[C_D_U_KEYWORD_CATEGORY_MEAN_EC<5.95271] yes=107,no=108,missing=108
						107:leaf=0.0283754
						108:leaf=0.0171223
					54:[C_D_U_CATEGORY_CITY_MACRO_MAX_COEC<0.0661896] yes=109,no=110,missing=109
						109:leaf=-0.00866008
						110:leaf=0.0139229
		6:[M_D_U_KEYWORD_KEYWORD_MEAN_EC<0.271758] yes=13,no=14,missing=13
			13:[D_TITLEMD5_COEC<0.104297] yes=27,no=28,missing=28
				27:[KW_REL<0.00287688] yes=55,no=56,missing=56
					55:[D_TITLEMD5_EC<3476.79] yes=111,no=112,missing=112
						111:leaf=-0.0134135
						112:leaf=0.00432777
					56:[C_D_U_KEYWORD_CATEGORY_MAX_C<0.981076] yes=113,no=114,missing=114
						113:leaf=0.00330539
						114:leaf=-0.011221
				28:[M_D_U_KEYWORD_KEYWORD_MICRO_MAX_COEC<0.308041] yes=57,no=58,missing=57
					57:[D_PUBLISHER_COEC<0.0840752] yes=115,no=116,missing=116
						115:leaf=-0.00448034
						116:leaf=0.00459986
					58:[DOC_AGE<25.4911] yes=117,no=118,missing=118
						117:leaf=0.0451308
						118:leaf=-0.0416788
			14:[D_KEYWORD_MEAN_EC<5185.88] yes=29,no=30,missing=30
				29:[U_CATEGORY_MICRO_MEAN_COEC<0.0993045] yes=59,no=60,missing=60
					59:[U_CATEGORY_MICRO_MEAN_COEC<0.0775399] yes=119,no=120,missing=120
						119:leaf=-0.0111026
						120:leaf=0.012553
					60:[C_D_U_CATEGORY_CATEGORY_MICRO_MAX_COEC<0.165205] yes=121,no=122,missing=122
						121:leaf=0.0195306
						122:leaf=0.0453599
				30:[KW_REL<0.00503889] yes=61,no=62,missing=62
					61:[C_D_U_KEYWORD_CATEGORY_MEAN_EC<54.8563] yes=123,no=124,missing=124
						123:leaf=-0.000877873
						124:leaf=-0.0155046
					62:[C_D_U_KEYWORD_CATEGORY_MEAN_EC<34.0609] yes=125,no=126,missing=126
						125:leaf=0.0244996
						126:leaf=0.0053452
booster[54]:
0:[TIME_OF_DAY<9] yes=1,no=2,missing=2
	1:[U_KEYWORD_MICRO_MEAN_COEC<0.0960403] yes=3,no=4,missing=3
		3:[DAY_OF_WEEK<2] yes=7,no=8,missing=8
			7:[U_CATEGORY_MICRO_MEAN_COEC<0.089815] yes=15,no=16,missing=15
				15:[D_TITLEMD5_EC<5615.81] yes=31,no=32,missing=31
					31:[D_CATEGORY_MEAN_EC<224212] yes=63,no=64,missing=63
						63:leaf=0.00367895
						64:leaf=-0.00852604
					32:[D_PUBLISHER_COEC<0.102418] yes=65,no=66,missing=66
						65:leaf=0.0231771
						66:leaf=0.00632923
				16:[U_AGE_EC<808864] yes=33,no=34,missing=34
					33:[U_CATEGORY_MEAN_C<418.783] yes=67,no=68,missing=68
						67:leaf=-0.0787902
						68:leaf=-0.0170193
					34:[U_GENDER_COEC<0.0882706] yes=69,no=70,missing=69
						69:leaf=-0.0124205
						70:leaf=0.0167898
			8:[U_KEYWORD_MACRO_MEAN_COEC<0.0285465] yes=17,no=18,missing=18
				17:[D_KEYWORD_MAX_C<25.0002] yes=35,no=36,missing=36
					35:[D_KEYWORD_MICRO_MAX_COEC<0.168192] yes=71,no=72,missing=72
						71:leaf=-0.000785024
						72:leaf=0.0260612
					36:[U_CITY_EC<165729] yes=73,no=74,missing=73
						73:leaf=-0.0231288
						74:leaf=-0.00354153
				18:[D_CATEGORY_MACRO_MEAN_COEC<0.165597] yes=37,no=38,missing=37
					37:[U_CATEGORY_MACRO_MAX_COEC<0.0248466] yes=75,no=76,missing=76
						75:leaf=0.0114218
						76:leaf=-0.00352564
					38:[D_PUBLISHER_EC<53867.1] yes=77,no=78,missing=78
						77:leaf=0.0129614
						78:leaf=0.0322129
		4:[DAY_OF_WEEK<2] yes=9,no=10,missing=10
			9:[U_KEYWORD_MACRO_MAX_COEC<0.00165273] yes=19,no=20,missing=20
				19:[U_CITY_C<8106.94] yes=39,no=40,missing=40
					39:[U_CATEGORY_MACRO_MAX_COEC<0.0110188] yes=79,no=80,missing=80
						79:leaf=0.0230544
						80:leaf=0.00319819
					40:[D_KEYWORD_MEAN_EC<861.838] yes=81,no=82,missing=81
						81:leaf=0.0415949
						82:leaf=0.0183417
				20:[U_CATEGORY_MICRO_MEAN_COEC<0.0928685] yes=41,no=42,missing=41
					41:[U_AGE_EC<804602] yes=83,no=84,missing=84
						83:leaf=-0.00460924
						84:leaf=0.0156073
					42:[U_KEYWORD_MEAN_EC<1455.45] yes=85,no=86,missing=86
						85:leaf=-0.00789315
						86:leaf=0.0326085
			10:[U_KEYWORD_MICRO_MEAN_COEC<0.102072] yes=21,no=22,missing=22
				21:[D_TITLEMD5_EC<5915.19] yes=43,no=44,missing=43
					43:[DOC_AGE<2.73722] yes=87,no=88,missing=88
						87:leaf=0.00786768
						88:leaf=-0.0031879
					44:[D_PUBLISHER_COEC<0.0791282] yes=89,no=90,missing=90
						89:leaf=0.0253957
						90:leaf=0.00644728
				22:[U_GENDER_EC<742964] yes=45,no=46,missing=45
					45:[U_CATEGORY_MACRO_MEAN_COEC<0.0711619] yes=91,no=92,missing=92
						91:leaf=0.00913024
						92:leaf=-0.0010915
					46:[U_CATEGORY_MICRO_MEAN_COEC<0.108103] yes=93,no=94,missing=94
						93:leaf=0.0152592
						94:leaf=0.0368825
	2:[IMAGE_COUNT<3] yes=5,no=6,missing=6
		5:[M_D_U_KEYWORD_KEYWORD_MICRO_MAX_COEC<0.222695] yes=11,no=12,missing=11
			11:[U_KEYWORD_MEAN_C<119.179] yes=23,no=24,missing=24
				23:[U_KEYWORD_MICRO_MAX_COEC<0.118879] yes=47,no=48,missing=48
					47:[U_AGE_COEC<0.096905] yes=95,no=96,missing=96
						95:leaf=-0.00264577
						96:leaf=-0.0102922
					48:[U_KEYWORD_MACRO_MAX_COEC<0.00123173] yes=97,no=98,missing=98
						97:leaf=0.0361926
						98:leaf=0.00204691
				24:[U_KEYWORD_MACRO_MAX_COEC<0.00400137] yes=49,no=50,missing=49
					49:[C_D_U_TITLEMD5_CATEGORY_MACRO_MEAN_COEC<0.0685189] yes=99,no=100,missing=99
						99:leaf=-0.00225066
						100:leaf=0.0042381
					50:[U_KEYWORD_MICRO_MAX_COEC<0.12076] yes=101,no=102,missing=102
						101:leaf=-0.0200526
						102:leaf=0.00219553
			12:[DOC_AGE<10.6333] yes=25,no=26,missing=26
				25:[D_CATEGORY_MEAN_C<20126.4] yes=51,no=52,missing=51
					51:[U_KEYWORD_MACRO_MEAN_COEC<0.0243548] yes=103,no=104,missing=104
						103:leaf=0.0367144
						104:leaf=0.0172793
					52:[U_KEYWORD_MACRO_MEAN_COEC<0.0187761] yes=105,no=106,missing=106
						105:leaf=0.0725459
						106:leaf=-0.00256358
				26:[C_D_U_CATEGORY_CATEGORY_MICRO_MEAN_COEC<0.0853745] yes=53,no=54,missing=54
					53:[U_KEYWORD_MEAN_C<65.2322] yes=107,no=108,missing=108
						107:leaf=-0.00900428
						108:leaf=0.0273777
					54:[U_KEYWORD_MACRO_MAX_COEC<0.00148468] yes=109,no=110,missing=110
						109:leaf=0.0120591
						110:leaf=-0.00793173
		6:[C_D_U_TITLEMD5_CATEGORY_MICRO_MEAN_COEC<0.0558865] yes=13,no=14,missing=14
			13:[C_D_U_CATEGORY_CATEGORY_MICRO_MEAN_COEC<0.0813342] yes=27,no=28,missing=28
				27:[WORD_COUNT<1587] yes=55,no=56,missing=56
					55:[C_D_U_KEYWORD_CATEGORY_MEAN_C<0.274934] yes=111,no=112,missing=112
						111:leaf=0.101925
						112:leaf=0.00153755
					56:[U_KEYWORD_MAX_C<27.5662] yes=113,no=114,missing=114
						113:leaf=-0.0277413
						114:leaf=-0.00994676
				28:[D_TITLEMD5_EC<180.848] yes=57,no=58,missing=57
					57:[U_KEYWORD_MACRO_MEAN_COEC<0.0263352] yes=115,no=116,missing=116
						115:leaf=0.0433014
						116:leaf=-0.00599802
					58:[C_D_U_CATEGORY_CATEGORY_MACRO_MEAN_COEC<0.0837528] yes=117,no=118,missing=117
						117:leaf=0.00817084
						118:leaf=-0.0344942
			14:[D_KEYWORD_MICRO_MEAN_COEC<0.0890258] yes=29,no=30,missing=30
				29:[D_CATEGORY_MEAN_C<622.441] yes=59,no=60,missing=60
					59:[D_KEYWORD_MICRO_MEAN_COEC<0.0857405] yes=119,no=120,missing=120
						119:leaf=0.0381131
						120:leaf=0.0991339
					60:[U_KEYWORD_MACRO_MAX_COEC<0.00175565] yes=121,no=122,missing=122
						121:leaf=0.0197771
						122:leaf=0.00790308
				30:[U_KEYWORD_MAX_EC<228.336] yes=61,no=62,missing=62
					61:[C_D_U_KEYWORD_CATEGORY_MACRO_MEAN_COEC<0.0337754] yes=123,no=124,missing=124
						123:leaf=0.061303
						124:leaf=0.011493
					62:[D_TITLEMD5_COEC<0.192772] yes=125,no=126,missing=125
						125:leaf=-0.00298676
						126:leaf=0.0122677
booster[55]:
0:[U_CITY_COEC<0.10102] yes=1,no=2,missing=1
	1:[C_D_U_TITLEMD5_CITY_C<0.980148] yes=3,no=4,missing=3
		3:[IMAGE_COUNT<0.999999] yes=7,no=8,missing=8
			7:[D_PUBLISHER_C<51.6541] yes=15,no=16,missing=15
				15:[D_PUBLISHER_EC<1785.19] yes=31,no=32,missing=32
					31:[U_CATEGORY_MICRO_MAX_COEC<0.117621] yes=61,no=62,missing=61
						61:leaf=-0.0454332
						62:leaf=-0.0197717
					32:[U_CITY_EC<403439] yes=63,no=64,missing=63
						63:leaf=-0.0824349
						64:leaf=0.0692305
				16:[D_PUBLISHER_COEC<0.0369207] yes=33,no=34,missing=34
					33:[U_KEYWORD_MICRO_MAX_COEC<0.113959] yes=65,no=66,missing=65
						65:leaf=-0.0111924
						66:leaf=0.0120908
					34:[D_TITLEMD5_COEC<0.0848222] yes=67,no=68,missing=68
						67:leaf=-0.018132
						68:leaf=-0.0406497
			8:[DOC_AGE<1.23333] yes=17,no=18,missing=18
				17:[CAT_REL<0.004532] yes=35,no=36,missing=36
					35:[D_TITLEMD5_C<13.8066] yes=69,no=70,missing=69
						69:leaf=-0.00874949
						70:leaf=0.0099531
					36:[C_D_U_TITLEMD5_CATEGORY_MICRO_MEAN_COEC<0.0795281] yes=71,no=72,missing=72
						71:leaf=0.0145287
						72:leaf=0.00176676
				18:[D_TITLEMD5_COEC<0.0774392] yes=37,no=38,missing=37
					37:[DOC_AGE<21.4467] yes=73,no=74,missing=74
						73:leaf=-0.0105553
						74:leaf=0.00291013
					38:[C_D_U_TITLEMD5_GENDER_COEC<0.111087] yes=75,no=76,missing=76
						75:leaf=-0.0074715
						76:leaf=0.000726245
		4:[CAT_REL<0.011649] yes=9,no=10,missing=10
			9:[D_PUBLISHER_EC<81875.6] yes=19,no=20,missing=20
				19:[D_CATEGORY_MEAN_EC<16866] yes=39,no=40,missing=39
					39:[C_D_U_KEYWORD_CATEGORY_MICRO_MEAN_COEC<0.0908755] yes=77,no=78,missing=78
						77:leaf=0.0181497
						78:leaf=0.00301245
					40:[C_D_U_TITLEMD5_CITY_COEC<0.149891] yes=79,no=80,missing=79
						79:leaf=-0.00587458
						80:leaf=0.00120328
				20:[LARGE_IMAGE<0.999999] yes=41,no=42,missing=42
					41:[D_TITLEMD5_COEC<0.129438] yes=81,no=82,missing=82
						81:leaf=0.0300211
						82:leaf=-0.0109974
					42:[D_KEYWORD_MAX_EC<1075.14] yes=83,no=84,missing=84
						83:leaf=0.0109522
						84:leaf=0.000627251
			10:[DOC_AGE<6.94194] yes=21,no=22,missing=22
				21:[C_D_U_KEYWORD_CATEGORY_MEAN_EC<7.34944] yes=43,no=44,missing=44
					43:[KW_REL<0.00310639] yes=85,no=86,missing=86
						85:leaf=0.016078
						86:leaf=0.0338532
					44:[KW_REL<0.0042892] yes=87,no=88,missing=88
						87:leaf=0.00496775
						88:leaf=0.0155948
				22:[C_D_U_KEYWORD_CATEGORY_MAX_C<0.62864] yes=45,no=46,missing=46
					45:[TIME_OF_DAY<9] yes=89,no=90,missing=90
						89:leaf=0.00879047
						90:leaf=0.00182676
					46:[M_D_U_KEYWORD_KEYWORD_MEAN_EC<0.365061] yes=91,no=92,missing=91
						91:leaf=-0.00726452
						92:leaf=0.00265627
	2:[U_CATEGORY_MEAN_C<187.567] yes=5,no=6,missing=6
		5:[U_KEYWORD_MEAN_C<134.959] yes=11,no=12,missing=12
			11:[DOC_AGE<49.8719] yes=23,no=24,missing=24
				23:[U_GENDER_COEC<0.089213] yes=47,no=48,missing=48
					47:[C_D_U_TITLEMD5_CATEGORY_MICRO_MEAN_COEC<0.0378206] yes=93,no=94,missing=94
						93:leaf=0.192051
						94:leaf=0.146875
					48:[U_KEYWORD_MAX_C<24.1276] yes=95,no=96,missing=96
						95:leaf=0.126771
						96:leaf=0.0718521
				24:leaf=-0.140872
			12:[U_KEYWORD_MICRO_MAX_COEC<0.115176] yes=25,no=26,missing=26
				25:[D_KEYWORD_MACRO_MAX_COEC<0.0368749] yes=49,no=50,missing=50
					49:[C_D_U_TITLEMD5_CATEGORY_MICRO_MEAN_COEC<0.102544] yes=97,no=98,missing=98
						97:leaf=-0.147375
						98:leaf=-0.242509
					50:leaf=0.0482423
				26:[C_D_U_TITLEMD5_AGE_COEC<0.0863479] yes=51,no=52,missing=52
					51:leaf=-0.234254
					52:[C_D_U_TITLEMD5_AGE_COEC<0.114364] yes=99,no=100,missing=99
						99:leaf=0.106164
						100:leaf=-0.0894063
		6:[C_D_U_CATEGORY_CITY_MACRO_MAX_COEC<0.272259] yes=13,no=14,missing=14
			13:[U_CATEGORY_MACRO_MAX_COEC<0.0112837] yes=27,no=28,missing=27
				27:[TIME_OF_DAY<18] yes=53,no=54,missing=54
					53:[U_CITY_C<3347.92] yes=101,no=102,missing=102
						101:leaf=0.0124885
						102:leaf=0.0774084
					54:[U_CATEGORY_MACRO_MAX_COEC<0.00907756] yes=103,no=104,missing=103
						103:leaf=0.0298603
						104:leaf=0.066611
				28:[U_CATEGORY_MICRO_MEAN_COEC<0.117331] yes=55,no=56,missing=56
					55:[C_D_U_CATEGORY_CITY_MACRO_MEAN_COEC<0.103562] yes=105,no=106,missing=106
						105:leaf=0.00071983
						106:leaf=0.00924825
					56:[U_KEYWORD_MACRO_MEAN_COEC<0.021158] yes=107,no=108,missing=108
						107:leaf=0.129836
						108:leaf=-0.0356983
			14:[U_KEYWORD_MACRO_MAX_COEC<0.00117679] yes=29,no=30,missing=30
				29:[U_CATEGORY_MAX_EC<2315.35] yes=57,no=58,missing=58
					57:[C_D_U_TITLEMD5_CATEGORY_MICRO_MEAN_COEC<0.0908843] yes=109,no=110,missing=110
						109:leaf=0.122035
						110:leaf=0.0677395
					58:[C_D_U_CATEGORY_CATEGORY_MACRO_MAX_COEC<0.0109235] yes=111,no=112,missing=112
						111:leaf=0.0924471
						112:leaf=0.00508848
				30:[U_KEYWORD_MACRO_MEAN_COEC<0.0236825] yes=59,no=60,missing=59
					59:[TIME_OF_DAY<20] yes=113,no=114,missing=114
						113:leaf=0.0122396
						114:leaf=0.071825
					60:[C_D_U_TITLEMD5_CATEGORY_MICRO_MEAN_COEC<0.0945043] yes=115,no=116,missing=116
						115:leaf=0.0645393
						116:leaf=0.0260588
booster[56]:
0:[D_KEYWORD_MEAN_EC<1796.05] yes=1,no=2,missing=1
	1:[KW_REL<0.000779683] yes=3,no=4,missing=4
		3:[D_TITLEMD5_C<5.89689] yes=7,no=8,missing=7
			7:[D_KEYWORD_MICRO_MEAN_COEC<0.130918] yes=15,no=16,missing=16
				15:[DOC_AGE<49.9706] yes=31,no=32,missing=32
					31:[D_PUBLISHER_EC<18184.7] yes=63,no=64,missing=64
						63:leaf=-0.0202267
						64:leaf=-0.00579771
					32:[C_D_U_PUBLISHER_AGE_C<1074.73] yes=65,no=66,missing=65
						65:leaf=0.00556923
						66:leaf=0.0561245
				16:[D_TITLEMD5_COEC<0.174281] yes=33,no=34,missing=34
					33:[C_D_U_KEYWORD_CATEGORY_MICRO_MEAN_COEC<0.136348] yes=67,no=68,missing=68
						67:leaf=-0.0367616
						68:leaf=0.0385702
					34:[C_D_U_PUBLISHER_CITY_C<573.295] yes=69,no=70,missing=70
						69:leaf=0.011075
						70:leaf=-0.0242517
			8:[D_KEYWORD_MEAN_EC<868.767] yes=17,no=18,missing=17
				17:[D_TITLEMD5_COEC<0.224946] yes=35,no=36,missing=36
					35:[U_KEYWORD_MACRO_MAX_COEC<0.00118679] yes=71,no=72,missing=72
						71:leaf=0.02468
						72:leaf=0.00528595
					36:[D_KEYWORD_MAX_C<51.4015] yes=73,no=74,missing=74
						73:leaf=0.0360786
						74:leaf=-0.0157405
				18:[C_D_U_TITLEMD5_CATEGORY_MEAN_C<2.00132] yes=37,no=38,missing=38
					37:[D_CATEGORY_MEAN_EC<10765.4] yes=75,no=76,missing=75
						75:leaf=0.011078
						76:leaf=-0.00733061
					38:[U_CITY_COEC<0.101017] yes=77,no=78,missing=78
						77:leaf=0.000202142
						78:leaf=0.0109548
		4:[D_KEYWORD_MEAN_C<75.3592] yes=9,no=10,missing=10
			9:[U_KEYWORD_MACRO_MAX_COEC<0.00118679] yes=19,no=20,missing=20
				19:[C_D_U_CATEGORY_CITY_MICRO_MEAN_COEC<0.13219] yes=39,no=40,missing=39
					39:[C_D_U_CATEGORY_CITY_MAX_EC<6792.19] yes=79,no=80,missing=80
						79:leaf=0.0216773
						80:leaf=0.0462179
					40:[D_KEYWORD_MICRO_MEAN_COEC<0.0897351] yes=81,no=82,missing=82
						81:leaf=0.104716
						82:leaf=0.0460036
				20:[M_D_U_KEYWORD_KEYWORD_MICRO_MAX_COEC<0.102482] yes=41,no=42,missing=41
					41:[D_KEYWORD_MAX_EC<666.316] yes=83,no=84,missing=84
						83:leaf=0.0213142
						84:leaf=-0.0209077
					42:[M_D_U_KEYWORD_KEYWORD_MICRO_MAX_COEC<0.132414] yes=85,no=86,missing=86
						85:leaf=0.000153167
						86:leaf=0.0151336
			10:[U_KEYWORD_MACRO_MAX_COEC<0.00199371] yes=21,no=22,missing=22
				21:[D_PUBLISHER_C<444.059] yes=43,no=44,missing=43
					43:[C_D_U_CATEGORY_CATEGORY_MICRO_MAX_COEC<0.130421] yes=87,no=88,missing=87
						87:leaf=-0.00360725
						88:leaf=0.00959326
					44:[CAT_REL<0.106192] yes=89,no=90,missing=90
						89:leaf=0.00859137
						90:leaf=0.0206316
				22:[C_D_U_TITLEMD5_CATEGORY_MEAN_C<0.412649] yes=45,no=46,missing=45
					45:[C_D_U_CATEGORY_CITY_MACRO_MAX_COEC<0.0557274] yes=91,no=92,missing=91
						91:leaf=-0.0208519
						92:leaf=-0.00444081
					46:[DOC_AGE<36.9706] yes=93,no=94,missing=94
						93:leaf=0.00509945
						94:leaf=-0.0219054
	2:[C_D_U_TITLEMD5_CITY_C<16.6155] yes=5,no=6,missing=5
		5:[KW_REL<0.00410659] yes=11,no=12,missing=12
			11:[D_KEYWORD_MEAN_EC<6315.33] yes=23,no=24,missing=24
				23:[M_D_U_KEYWORD_KEYWORD_MEAN_C<0.00809016] yes=47,no=48,missing=47
					47:[C_D_U_TITLEMD5_CATEGORY_MEAN_EC<22.0069] yes=95,no=96,missing=96
						95:leaf=-0.00945073
						96:leaf=-0.00089698
					48:[C_D_U_CATEGORY_CATEGORY_MICRO_MEAN_COEC<0.147135] yes=97,no=98,missing=98
						97:leaf=0.00121999
						98:leaf=0.0300409
				24:[C_D_U_TITLEMD5_CATEGORY_MEAN_EC<20.1739] yes=49,no=50,missing=50
					49:[D_KEYWORD_MICRO_MEAN_COEC<0.097974] yes=99,no=100,missing=100
						99:leaf=-0.0170595
						100:leaf=-0.0370809
					50:[U_CITY_COEC<0.0960911] yes=101,no=102,missing=102
						101:leaf=-0.0109992
						102:leaf=0.00349476
			12:[C_D_U_KEYWORD_CATEGORY_MEAN_EC<30.5364] yes=25,no=26,missing=26
				25:[C_D_U_TITLEMD5_CATEGORY_MAX_C<3.55168] yes=51,no=52,missing=52
					51:[WORD_COUNT<804] yes=103,no=104,missing=104
						103:leaf=-0.00166926
						104:leaf=0.0132294
					52:[C_D_U_CATEGORY_CATEGORY_MAX_EC<239.528] yes=105,no=106,missing=105
						105:leaf=-0.0635847
						106:leaf=-0.00201918
				26:[KW_REL<0.00653868] yes=53,no=54,missing=54
					53:[C_D_U_KEYWORD_CATEGORY_MEAN_EC<134.515] yes=107,no=108,missing=107
						107:leaf=-0.00259058
						108:leaf=-0.0275808
					54:[D_KEYWORD_MACRO_MAX_COEC<0.0201445] yes=109,no=110,missing=110
						109:leaf=0.0154799
						110:leaf=0.00313314
		6:[M_D_U_KEYWORD_KEYWORD_MEAN_EC<0.00809775] yes=13,no=14,missing=13
			13:[U_KEYWORD_MAX_EC<36.9423] yes=27,no=28,missing=28
				27:[C_D_U_CATEGORY_CITY_MAX_EC<63753.1] yes=55,no=56,missing=56
					55:[U_KEYWORD_MACRO_MEAN_COEC<0.0390493] yes=111,no=112,missing=112
						111:leaf=-0.0713214
						112:leaf=-0.0171361
					56:[U_CATEGORY_MEAN_EC<19345.4] yes=113,no=114,missing=113
						113:leaf=-0.0137454
						114:leaf=0.107197
				28:[TIME_OF_DAY<12] yes=57,no=58,missing=58
					57:[D_PUBLISHER_EC<67285.4] yes=115,no=116,missing=116
						115:leaf=0.00195625
						116:leaf=0.0126089
					58:[C_D_U_TITLEMD5_CITY_COEC<0.339035] yes=117,no=118,missing=118
						117:leaf=-0.00319087
						118:leaf=0.02486
			14:[U_CATEGORY_MICRO_MAX_COEC<0.115078] yes=29,no=30,missing=30
				29:[WORD_COUNT<5085] yes=59,no=60,missing=60
					59:[D_KEYWORD_MEAN_C<457.088] yes=119,no=120,missing=120
						119:leaf=0.00948006
						120:leaf=0.000417237
					60:[D_CATEGORY_MAX_C<2609.4] yes=121,no=122,missing=122
						121:leaf=-0.0340342
						122:leaf=-0.00215474
				30:[D_TITLEMD5_COEC<0.0749094] yes=61,no=62,missing=62
					61:[U_CITY_C<34347.5] yes=123,no=124,missing=124
						123:leaf=0.0337525
						124:leaf=0.0103761
					62:[DOC_AGE<12.4758] yes=125,no=126,missing=126
						125:leaf=0.0155339
						126:leaf=0.00519514
booster[57]:
0:[DOC_AGE<3.5375] yes=1,no=2,missing=2
	1:[D_TITLEMD5_C<2] yes=3,no=4,missing=4
		3:[C_D_U_CATEGORY_CATEGORY_MICRO_MAX_COEC<0.168182] yes=7,no=8,missing=7
			7:[TIME_OF_DAY<20] yes=15,no=16,missing=16
				15:[M_D_U_KEYWORD_KEYWORD_MICRO_MAX_COEC<0.298935] yes=31,no=32,missing=31
					31:[DOC_AGE<0.91111] yes=63,no=64,missing=64
						63:leaf=-0.00444335
						64:leaf=-0.0162246
					32:[U_GENDER_C<74482.9] yes=65,no=66,missing=65
						65:leaf=0.0584117
						66:leaf=-0.140449
				16:[D_PUBLISHER_EC<43715.5] yes=33,no=34,missing=34
					33:[WORD_COUNT<2261] yes=67,no=68,missing=68
						67:leaf=-0.0115161
						68:leaf=0.0341651
					34:[D_CATEGORY_MACRO_MEAN_COEC<0.0636626] yes=69,no=70,missing=69
						69:leaf=0.114827
						70:leaf=0.0424171
			8:[U_KEYWORD_MEAN_EC<870.092] yes=17,no=18,missing=18
				17:[KW_REL<0.0017348] yes=35,no=36,missing=36
					35:[U_CATEGORY_MACRO_MEAN_COEC<0.0360261] yes=71,no=72,missing=72
						71:leaf=0.11452
						72:leaf=-0.0214667
					36:[U_KEYWORD_MACRO_MEAN_COEC<0.0246422] yes=73,no=74,missing=74
						73:leaf=0.0788764
						74:leaf=-0.0405396
				18:[U_CATEGORY_MAX_EC<3838.62] yes=37,no=38,missing=38
					37:[CAT_REL<0.132146] yes=75,no=76,missing=76
						75:leaf=0.0179826
						76:leaf=0.0935167
					38:[KW_REL<0.0055681] yes=77,no=78,missing=78
						77:leaf=-0.0183589
						78:leaf=0.0426567
		4:[U_CATEGORY_MICRO_MAX_COEC<0.114216] yes=9,no=10,missing=9
			9:[D_TITLEMD5_COEC<0.0236167] yes=19,no=20,missing=20
				19:[C_D_U_CATEGORY_CATEGORY_MICRO_MEAN_COEC<0.0823935] yes=39,no=40,missing=40
					39:[C_D_U_KEYWORD_CATEGORY_MACRO_MEAN_COEC<0.0450108] yes=79,no=80,missing=80
						79:leaf=-0.0427247
						80:leaf=0.0123474
					40:[D_TITLEMD5_EC<325.798] yes=81,no=82,missing=82
						81:leaf=0.0126345
						82:leaf=-0.0255324
				20:[C_D_U_KEYWORD_CATEGORY_MICRO_MEAN_COEC<0.0588056] yes=41,no=42,missing=42
					41:[U_CITY_EC<403160] yes=83,no=84,missing=84
						83:leaf=-0.00667395
						84:leaf=-0.0366451
					42:[C_D_U_TITLEMD5_CATEGORY_MICRO_MEAN_COEC<0.153619] yes=85,no=86,missing=85
						85:leaf=0.005825
						86:leaf=-0.00281403
			10:[C_D_U_TITLEMD5_CATEGORY_MICRO_MEAN_COEC<0.1067] yes=21,no=22,missing=22
				21:[U_KEYWORD_MEAN_C<112.477] yes=43,no=44,missing=44
					43:[U_CATEGORY_MACRO_MEAN_COEC<0.0314215] yes=87,no=88,missing=88
						87:leaf=0.0809601
						88:leaf=0.0062574
					44:[D_CATEGORY_MAX_C<16849.6] yes=89,no=90,missing=90
						89:leaf=0.0175581
						90:leaf=0.0314036
				22:[CAT_REL<0.083761] yes=45,no=46,missing=46
					45:[D_TITLEMD5_C<269.878] yes=91,no=92,missing=92
						91:leaf=-0.000230895
						92:leaf=0.0189402
					46:[C_D_U_CATEGORY_CATEGORY_MICRO_MEAN_COEC<0.142785] yes=93,no=94,missing=94
						93:leaf=0.0137869
						94:leaf=0.0429461
	2:[D_TITLEMD5_C<172.31] yes=5,no=6,missing=5
		5:[DOC_AGE<23.1431] yes=11,no=12,missing=12
			11:[D_TITLEMD5_COEC<0.0827864] yes=23,no=24,missing=23
				23:[CAT_REL<0.114651] yes=47,no=48,missing=48
					47:[D_KEYWORD_MEAN_C<298.465] yes=95,no=96,missing=95
						95:leaf=-0.00823438
						96:leaf=-0.0165226
					48:[U_KEYWORD_MACRO_MEAN_COEC<0.0231508] yes=97,no=98,missing=98
						97:leaf=0.0140927
						98:leaf=-0.00402279
				24:[C_D_U_TITLEMD5_GENDER_COEC<0.0828053] yes=49,no=50,missing=50
					49:[C_D_U_TITLEMD5_CATEGORY_MAX_EC<0.078345] yes=99,no=100,missing=99
						99:leaf=-0.0308995
						100:leaf=-0.0112484
					50:[KW_REL<0.0017348] yes=101,no=102,missing=102
						101:leaf=-0.00289595
						102:leaf=0.00584129
			12:[C_D_U_TITLEMD5_CATEGORY_MICRO_MEAN_COEC<0.089823] yes=25,no=26,missing=25
				25:[D_TITLEMD5_COEC<8.98053] yes=51,no=52,missing=52
					51:[U_KEYWORD_MICRO_MAX_COEC<0.114975] yes=103,no=104,missing=103
						103:leaf=0.00761143
						104:leaf=0.0201533
					52:[C_D_U_CATEGORY_CATEGORY_MICRO_MAX_COEC<0.119237] yes=105,no=106,missing=106
						105:leaf=-0.0561663
						106:leaf=-0.00561254
				26:[C_D_U_TITLEMD5_AGE_C<2.86006] yes=53,no=54,missing=53
					53:[C_D_U_KEYWORD_CATEGORY_MEAN_EC<0.400793] yes=107,no=108,missing=108
						107:leaf=0.0263872
						108:leaf=-0.00982151
					54:[U_KEYWORD_MICRO_MAX_COEC<0.119036] yes=109,no=110,missing=110
						109:leaf=0.00209127
						110:leaf=0.0239347
		6:[WORD_COUNT<1480] yes=13,no=14,missing=14
			13:[C_D_U_TITLEMD5_CATEGORY_MICRO_MEAN_COEC<0.31794] yes=27,no=28,missing=27
				27:[DAY_OF_WEEK<0.999999] yes=55,no=56,missing=56
					55:[U_KEYWORD_MICRO_MAX_COEC<0.103748] yes=111,no=112,missing=111
						111:leaf=-0.00195894
						112:leaf=0.0092708
					56:[U_KEYWORD_MICRO_MEAN_COEC<0.100896] yes=113,no=114,missing=113
						113:leaf=-0.00622985
						114:leaf=0.00123238
				28:[KW_REL<0.00527971] yes=57,no=58,missing=58
					57:[C_D_U_CATEGORY_CATEGORY_MICRO_MAX_COEC<0.139702] yes=115,no=116,missing=116
						115:leaf=0.00524358
						116:leaf=0.0299058
					58:[D_TITLEMD5_COEC<0.314102] yes=117,no=118,missing=118
						117:leaf=-0.415822
						118:leaf=-0.0253994
			14:[TIME_OF_DAY<2] yes=29,no=30,missing=30
				29:[U_CATEGORY_MEAN_EC<23806.4] yes=59,no=60,missing=59
					59:[D_PUBLISHER_EC<76846.6] yes=119,no=120,missing=120
						119:leaf=0.0161143
						120:leaf=0.0322803
					60:[M_D_U_KEYWORD_KEYWORD_MAX_EC<0.00298814] yes=121,no=122,missing=122
						121:leaf=-0.0899309
						122:leaf=-0.00245102
				30:[WORD_COUNT<4897] yes=61,no=62,missing=62
					61:[KW_REL<0.00081682] yes=123,no=124,missing=124
						123:leaf=0.000142428
						124:leaf=0.00696795
					62:[D_CATEGORY_MEAN_C<3319.6] yes=125,no=126,missing=126
						125:leaf=-0.0157098
						126:leaf=0.00501148
booster[58]:
0:[D_KEYWORD_MEAN_EC<2159.03] yes=1,no=2,missing=1
	1:[KW_REL<0.00162846] yes=3,no=4,missing=4
		3:[D_TITLEMD5_C<2] yes=7,no=8,missing=7
			7:[D_KEYWORD_MAX_EC<8.88246] yes=15,no=16,missing=15
				15:[D_KEYWORD_MACRO_MEAN_COEC<0.114133] yes=31,no=32,missing=31
					31:[D_CATEGORY_MACRO_MEAN_COEC<0.0753157] yes=63,no=64,missing=63
						63:leaf=0.0261238
						64:leaf=0.0814259
					32:[U_CITY_C<1256.99] yes=65,no=66,missing=65
						65:leaf=-0.0190638
						66:leaf=0.0189574
				16:[WORD_COUNT<3392] yes=33,no=34,missing=34
					33:[D_PUBLISHER_EC<2560.01] yes=67,no=68,missing=67
						67:leaf=-0.0209877
						68:leaf=-0.00315008
					34:[D_CATEGORY_MEAN_C<7660.4] yes=69,no=70,missing=69
						69:leaf=-0.02027
						70:leaf=-0.0435964
			8:[D_KEYWORD_MEAN_EC<857.617] yes=17,no=18,missing=17
				17:[D_KEYWORD_MICRO_MEAN_COEC<0.146888] yes=35,no=36,missing=36
					35:[KW_REL<0.00033275] yes=71,no=72,missing=72
						71:leaf=0.00148965
						72:leaf=0.0137948
					36:[D_KEYWORD_MAX_C<68.8389] yes=73,no=74,missing=73
						73:leaf=0.0269679
						74:leaf=-0.0119128
				18:[D_TITLEMD5_C<62.4032] yes=37,no=38,missing=38
					37:[DOC_AGE<0.802499] yes=75,no=76,missing=76
						75:leaf=0.0139798
						76:leaf=-0.00510864
					38:[D_CATEGORY_MEAN_EC<10495.7] yes=77,no=78,missing=78
						77:leaf=0.0129586
						78:leaf=0.00200417
		4:[M_D_U_KEYWORD_KEYWORD_MEAN_C<0.0108636] yes=9,no=10,missing=9
			9:[U_KEYWORD_MACRO_MAX_COEC<0.00121349] yes=19,no=20,missing=20
				19:[DOC_AGE<18.9083] yes=39,no=40,missing=40
					39:[D_KEYWORD_MEAN_EC<1036.24] yes=79,no=80,missing=80
						79:leaf=0.0416301
						80:leaf=0.0208854
					40:[U_CATEGORY_MICRO_MEAN_COEC<0.0986772] yes=81,no=82,missing=82
						81:leaf=0.00300453
						82:leaf=0.0263442
				20:[U_KEYWORD_MACRO_MAX_COEC<0.00277238] yes=41,no=42,missing=42
					41:[CAT_REL<0.156101] yes=83,no=84,missing=84
						83:leaf=0.00713621
						84:leaf=0.019865
					42:[U_GENDER_C<65858.8] yes=85,no=86,missing=86
						85:leaf=0.015597
						86:leaf=-0.00762651
			10:[D_TITLEMD5_C<341.502] yes=21,no=22,missing=21
				21:[WORD_COUNT<462] yes=43,no=44,missing=44
					43:[U_KEYWORD_MAX_C<13.448] yes=87,no=88,missing=88
						87:leaf=0.0416297
						88:leaf=-0.0454489
					44:[U_KEYWORD_MACRO_MAX_COEC<0.00471185] yes=89,no=90,missing=90
						89:leaf=0.00855802
						90:leaf=-0.0420683
				22:[WORD_COUNT<3510] yes=45,no=46,missing=46
					45:[C_D_U_CATEGORY_CITY_MACRO_MAX_COEC<0.0518156] yes=91,no=92,missing=92
						91:leaf=-0.171844
						92:leaf=0.010633
					46:[M_D_U_KEYWORD_KEYWORD_MICRO_MAX_COEC<0.206306] yes=93,no=94,missing=94
						93:leaf=-0.0720682
						94:leaf=-0.0213408
	2:[M_D_U_KEYWORD_KEYWORD_MEAN_C<0.00790641] yes=5,no=6,missing=5
		5:[C_D_U_TITLEMD5_CATEGORY_MEAN_C<1.81047] yes=11,no=12,missing=12
			11:[KW_REL<0.00268134] yes=23,no=24,missing=24
				23:[U_KEYWORD_MACRO_MEAN_COEC<0.0291927] yes=47,no=48,missing=48
					47:[KW_REL<0.00033275] yes=95,no=96,missing=96
						95:leaf=-0.0323143
						96:leaf=-0.0139497
					48:[U_KEYWORD_MICRO_MAX_COEC<0.142897] yes=97,no=98,missing=98
						97:leaf=-0.00304009
						98:leaf=0.0179582
				24:[C_D_U_KEYWORD_CATEGORY_MAX_C<0.176982] yes=49,no=50,missing=50
					49:[D_KEYWORD_MEAN_EC<2650.28] yes=99,no=100,missing=100
						99:leaf=0.0167369
						100:leaf=0.00281192
					50:[M_D_U_KEYWORD_KEYWORD_MACRO_MEAN_COEC<0.000273373] yes=101,no=102,missing=102
						101:leaf=-0.0138188
						102:leaf=-0.00214197
			12:[TIME_OF_DAY<4] yes=25,no=26,missing=26
				25:[C_D_U_TITLEMD5_GENDER_COEC<0.148662] yes=51,no=52,missing=52
					51:[C_D_U_CATEGORY_AGE_MEAN_C<488.774] yes=103,no=104,missing=103
						103:leaf=-0.0275788
						104:leaf=0.00539561
					52:[C_D_U_TITLEMD5_CITY_C<83.0311] yes=105,no=106,missing=106
						105:leaf=0.00392978
						106:leaf=0.0134423
				26:[U_GENDER_C<67026.5] yes=53,no=54,missing=53
					53:[U_CITY_COEC<0.0986267] yes=107,no=108,missing=108
						107:leaf=-0.0025963
						108:leaf=0.00453813
					54:[U_AGE_C<77737.9] yes=109,no=110,missing=109
						109:leaf=-0.0155504
						110:leaf=-0.00245067
		6:[D_KEYWORD_MEAN_EC<5212.28] yes=13,no=14,missing=14
			13:[WORD_COUNT<972] yes=27,no=28,missing=28
				27:[KW_REL<0.00359242] yes=55,no=56,missing=56
					55:[D_KEYWORD_MACRO_MAX_COEC<0.0402673] yes=111,no=112,missing=112
						111:leaf=-0.0137162
						112:leaf=0.0113532
					56:[C_D_U_KEYWORD_CATEGORY_MEAN_EC<18.176] yes=113,no=114,missing=113
						113:leaf=0.00919699
						114:leaf=-0.00179858
				28:[KW_REL<0.00183666] yes=57,no=58,missing=58
					57:[C_D_U_CATEGORY_CATEGORY_MICRO_MEAN_COEC<0.101975] yes=115,no=116,missing=116
						115:leaf=-0.00198306
						116:leaf=0.0130117
					58:[M_D_U_KEYWORD_KEYWORD_MEAN_EC<0.240812] yes=117,no=118,missing=118
						117:leaf=0.00660729
						118:leaf=0.0147031
			14:[KW_REL<0.00393187] yes=29,no=30,missing=30
				29:[D_KEYWORD_MEAN_EC<6595.52] yes=59,no=60,missing=60
					59:[D_TITLEMD5_EC<4141.17] yes=119,no=120,missing=119
						119:leaf=-0.00605638
						120:leaf=0.00785274
					60:[D_TITLEMD5_C<625.464] yes=121,no=122,missing=122
						121:leaf=-0.0188446
						122:leaf=-0.00194174
				30:[D_CATEGORY_MAX_EC<24305.2] yes=61,no=62,missing=62
					61:[D_TITLEMD5_COEC<0.0727251] yes=123,no=124,missing=123
						123:leaf=-0.000251977
						124:leaf=0.0240049
					62:[KW_REL<0.00605441] yes=125,no=126,missing=126
						125:leaf=-0.00217713
						126:leaf=0.00652124
booster[59]:
0:[DOC_AGE<4.07167] yes=1,no=2,missing=2
	1:[C_D_U_KEYWORD_CATEGORY_MICRO_MEAN_COEC<0.0647626] yes=3,no=4,missing=4
		3:[C_D_U_TITLEMD5_AGE_EC<122.9] yes=7,no=8,missing=7
			7:[C_D_U_PUBLISHER_CITY_COEC<0.0333769] yes=15,no=16,missing=15
				15:[U_CITY_COEC<0.096497] yes=31,no=32,missing=31
					31:[D_TITLEMD5_C<2] yes=63,no=64,missing=63
						63:leaf=-0.043583
						64:leaf=-0.0201527
					32:[D_TITLEMD5_C<7] yes=65,no=66,missing=65
						65:leaf=-0.0137199
						66:leaf=0.0451279
				16:[U_CATEGORY_MACRO_MEAN_COEC<0.0409838] yes=33,no=34,missing=34
					33:[M_D_U_KEYWORD_KEYWORD_MAX_C<9.75837e-05] yes=67,no=68,missing=68
						67:leaf=0.102169
						68:leaf=0.00572106
					34:[D_KEYWORD_MEAN_C<1250.59] yes=69,no=70,missing=70
						69:leaf=-0.00988128
						70:leaf=-0.0520553
			8:[C_D_U_TITLEMD5_GENDER_COEC<0.0654659] yes=17,no=18,missing=17
				17:[DOC_AGE<1.18111] yes=35,no=36,missing=36
					35:[C_D_U_TITLEMD5_GENDER_EC<802.862] yes=71,no=72,missing=71
						71:leaf=0.0162562
						72:leaf=0.332
					36:[D_PUBLISHER_EC<2549.25] yes=73,no=74,missing=74
						73:leaf=0.0465407
						74:leaf=-0.0147917
				18:[C_D_U_PUBLISHER_GENDER_COEC<0.0593224] yes=37,no=38,missing=38
					37:[M_D_U_KEYWORD_KEYWORD_MEAN_EC<0.213547] yes=75,no=76,missing=75
						75:leaf=0.0985452
						76:leaf=-0.0115384
					38:[D_KEYWORD_MACRO_MAX_COEC<0.0198936] yes=77,no=78,missing=78
						77:leaf=0.00132605
						78:leaf=0.0303426
		4:[C_D_U_KEYWORD_CATEGORY_MAX_C<0.110693] yes=9,no=10,missing=10
			9:[CAT_REL<0.003776] yes=19,no=20,missing=20
				19:[D_CATEGORY_MEAN_EC<12216.2] yes=39,no=40,missing=39
					39:[C_D_U_CATEGORY_CATEGORY_MICRO_MEAN_COEC<0.0365417] yes=79,no=80,missing=80
						79:leaf=-0.0356731
						80:leaf=0.0262912
					40:[KW_REL<0.000966944] yes=81,no=82,missing=82
						81:leaf=-0.00718194
						82:leaf=0.0104502
				20:[D_TITLEMD5_C<0.999999] yes=41,no=42,missing=41
					41:[KW_REL<0.00310501] yes=83,no=84,missing=84
						83:leaf=-0.00207565
						84:leaf=0.0341428
					42:[D_KEYWORD_MAX_C<25.7143] yes=85,no=86,missing=86
						85:leaf=0.0277442
						86:leaf=0.0145059
			10:[KW_REL<0.00356165] yes=21,no=22,missing=22
				21:[C_D_U_TITLEMD5_CATEGORY_MICRO_MEAN_COEC<0.119283] yes=43,no=44,missing=43
					43:[D_TITLEMD5_COEC<0.034359] yes=87,no=88,missing=87
						87:leaf=-0.00584002
						88:leaf=0.00557354
					44:[D_TITLEMD5_C<75.7147] yes=89,no=90,missing=90
						89:leaf=-0.0106421
						90:leaf=0.00305933
				22:[WORD_COUNT<856] yes=45,no=46,missing=46
					45:[U_KEYWORD_MAX_C<27.2814] yes=91,no=92,missing=92
						91:leaf=0.0041529
						92:leaf=-0.0101116
					46:[C_D_U_KEYWORD_CATEGORY_MEAN_EC<40.9796] yes=93,no=94,missing=93
						93:leaf=0.0157804
						94:leaf=0.00545695
	2:[C_D_U_TITLEMD5_CITY_C<15.1364] yes=5,no=6,missing=5
		5:[U_CITY_COEC<0.099915] yes=11,no=12,missing=11
			11:[DOC_AGE<23.1367] yes=23,no=24,missing=24
				23:[C_D_U_TITLEMD5_CATEGORY_MACRO_MEAN_COEC<0.0515938] yes=47,no=48,missing=48
					47:[C_D_U_KEYWORD_CATEGORY_MEAN_EC<3.51865] yes=95,no=96,missing=95
						95:leaf=0.0019926
						96:leaf=-0.0103723
					48:[KW_REL<0.00132643] yes=97,no=98,missing=98
						97:leaf=-0.00523068
						98:leaf=0.00119235
				24:[C_D_U_TITLEMD5_CATEGORY_MICRO_MEAN_COEC<0.0965798] yes=49,no=50,missing=49
					49:[U_KEYWORD_MEAN_C<127.294] yes=99,no=100,missing=99
						99:leaf=0.00361384
						100:leaf=0.0155358
					50:[U_AGE_C<81969.6] yes=101,no=102,missing=102
						101:leaf=0.0046593
						102:leaf=-0.00644639
			12:[U_CATEGORY_MEAN_C<188.864] yes=25,no=26,missing=26
				25:[U_KEYWORD_MICRO_MEAN_COEC<0.0960201] yes=51,no=52,missing=52
					51:leaf=-0.165141
					52:[C_D_U_TITLEMD5_CATEGORY_MACRO_MEAN_COEC<0.048881] yes=103,no=104,missing=104
						103:leaf=0.12162
						104:leaf=0.0366496
				26:[C_D_U_CATEGORY_CITY_MACRO_MAX_COEC<0.264958] yes=53,no=54,missing=53
					53:[U_CATEGORY_MACRO_MAX_COEC<0.0112741] yes=105,no=106,missing=105
						105:leaf=0.0158847
						106:leaf=0.0034473
					54:[C_D_U_TITLEMD5_CATEGORY_MEAN_C<6.94759] yes=107,no=108,missing=108
						107:leaf=0.0349358
						108:leaf=0.00467387
		6:[TIME_OF_DAY<7] yes=13,no=14,missing=14
			13:[D_KEYWORD_MACRO_MAX_COEC<0.01702] yes=27,no=28,missing=27
				27:[C_D_U_TITLEMD5_CITY_EC<104.59] yes=55,no=56,missing=56
					55:[D_CATEGORY_MACRO_MEAN_COEC<0.0791516] yes=109,no=110,missing=110
						109:leaf=0.015524
						110:leaf=0.110634
					56:[D_TITLEMD5_EC<5199.91] yes=111,no=112,missing=112
						111:leaf=0.0115933
						112:leaf=0.028369
				28:[U_KEYWORD_MAX_C<44.0717] yes=57,no=58,missing=57
					57:[C_D_U_TITLEMD5_CITY_EC<1238.4] yes=113,no=114,missing=114
						113:leaf=0.00541233
						114:leaf=0.0163172
					58:[U_KEYWORD_MACRO_MEAN_COEC<0.0264312] yes=115,no=116,missing=116
						115:leaf=-0.0266988
						116:leaf=-0.00324574
			14:[U_KEYWORD_MICRO_MEAN_COEC<0.099754] yes=29,no=30,missing=29
				29:[U_CITY_COEC<0.0936547] yes=59,no=60,missing=60
					59:[D_TITLEMD5_C<75.7147] yes=117,no=118,missing=118
						117:leaf=0.0460948
						118:leaf=0.000355107
					60:[U_KEYWORD_MICRO_MAX_COEC<0.111851] yes=119,no=120,missing=120
						119:leaf=-0.0148612
						120:leaf=-0.00364723
				30:[KW_REL<0.000138278] yes=61,no=62,missing=62
					61:[D_KEYWORD_MAX_EC<1122.06] yes=121,no=122,missing=121
						121:leaf=7.10605e-05
						122:leaf=-0.0252013
					62:[DOC_AGE<12.45] yes=123,no=124,missing=124
						123:leaf=0.00918092
						124:leaf=0.00155525
booster[60]:
0:[U_KEYWORD_MICRO_MEAN_COEC<0.1035] yes=1,no=2,missing=1
	1:[DAY_OF_WEEK<2] yes=3,no=4,missing=4
		3:[U_KEYWORD_MICRO_MEAN_COEC<0.0961416] yes=7,no=8,missing=7
			7:[U_KEYWORD_MICRO_MAX_COEC<0.103098] yes=15,no=16,missing=16
				15:[U_KEYWORD_MACRO_MEAN_COEC<0.0194399] yes=31,no=32,missing=32
					31:[U_CITY_COEC<0.0796625] yes=63,no=64,missing=63
						63:leaf=-0.00758081
						64:leaf=-0.0432994
					32:[D_CATEGORY_MEAN_C<5420.19] yes=65,no=66,missing=65
						65:leaf=-0.000955462
						66:leaf=-0.0113348
				16:[U_CITY_COEC<0.0766041] yes=33,no=34,missing=34
					33:[U_CATEGORY_MACRO_MEAN_COEC<0.0432098] yes=67,no=68,missing=68
						67:leaf=0.00812783
						68:leaf=-0.0116302
					34:[U_CATEGORY_MICRO_MEAN_COEC<0.0902478] yes=69,no=70,missing=69
						69:leaf=0.00340984
						70:leaf=-0.00672376
			8:[D_CATEGORY_MICRO_MAX_COEC<0.0633307] yes=17,no=18,missing=17
				17:[DOC_AGE<2.63333] yes=35,no=36,missing=36
					35:[D_KEYWORD_MAX_C<18.0277] yes=71,no=72,missing=72
						71:leaf=0.0790426
						72:leaf=0.0256802
					36:[D_TITLEMD5_C<16.1163] yes=73,no=74,missing=73
						73:leaf=0.00109619
						74:leaf=0.0182724
				18:[U_KEYWORD_MACRO_MAX_COEC<0.00123905] yes=37,no=38,missing=38
					37:[U_KEYWORD_MICRO_MAX_COEC<0.110945] yes=75,no=76,missing=76
						75:leaf=0.00806063
						76:leaf=0.0235972
					38:[TIME_OF_DAY<2] yes=77,no=78,missing=78
						77:leaf=0.02067
						78:leaf=0.00220504
		4:[U_KEYWORD_MICRO_MAX_COEC<0.110945] yes=9,no=10,missing=10
			9:[DAY_OF_WEEK<6] yes=19,no=20,missing=20
				19:[TIME_OF_DAY<13] yes=39,no=40,missing=40
					39:[C_D_U_CATEGORY_CITY_MACRO_MAX_COEC<0.0842784] yes=79,no=80,missing=79
						79:leaf=-0.0106409
						80:leaf=-0.00132773
					40:[U_CATEGORY_MEAN_C<532.606] yes=81,no=82,missing=81
						81:leaf=-0.0407981
						82:leaf=-0.0142577
				20:[C_D_U_PUBLISHER_CITY_COEC<0.104306] yes=41,no=42,missing=41
					41:[U_CATEGORY_MEAN_C<171.446] yes=83,no=84,missing=83
						83:leaf=-0.110262
						84:leaf=-0.00434065
					42:[U_KEYWORD_MICRO_MEAN_COEC<0.0957681] yes=85,no=86,missing=86
						85:leaf=-0.000932527
						86:leaf=0.0125638
			10:[DAY_OF_WEEK<6] yes=21,no=22,missing=22
				21:[U_KEYWORD_MICRO_MEAN_COEC<0.099491] yes=43,no=44,missing=44
					43:[U_KEYWORD_MICRO_MAX_COEC<0.121639] yes=87,no=88,missing=88
						87:leaf=-0.00966353
						88:leaf=0.000870016
					44:[IMAGE_COUNT<0.999999] yes=89,no=90,missing=90
						89:leaf=-0.023438
						90:leaf=2.64679e-06
				22:[DOC_AGE<0.783055] yes=45,no=46,missing=46
					45:[D_TITLEMD5_C<21.2992] yes=91,no=92,missing=91
						91:leaf=0.0234497
						92:leaf=0.0524706
					46:[U_CATEGORY_MICRO_MAX_COEC<0.127402] yes=93,no=94,missing=93
						93:leaf=0.0027013
						94:leaf=0.0204788
	2:[U_CATEGORY_MACRO_MEAN_COEC<0.0616462] yes=5,no=6,missing=6
		5:[U_KEYWORD_MICRO_MEAN_COEC<0.106939] yes=11,no=12,missing=12
			11:[U_KEYWORD_MACRO_MAX_COEC<0.00120697] yes=23,no=24,missing=24
				23:[U_CITY_COEC<0.0948435] yes=47,no=48,missing=48
					47:[U_AGE_COEC<0.0965799] yes=95,no=96,missing=95
						95:leaf=0.0187184
						96:leaf=-0.0162979
					48:[U_CATEGORY_MEAN_C<1015.37] yes=97,no=98,missing=98
						97:leaf=0.0254476
						98:leaf=0.0669219
				24:[C_D_U_CATEGORY_CITY_MACRO_MAX_COEC<0.0418625] yes=49,no=50,missing=49
					49:[C_D_U_CATEGORY_GENDER_MAX_C<539.937] yes=99,no=100,missing=99
						99:leaf=0.00426686
						100:leaf=-0.012005
					50:[U_CATEGORY_MEAN_EC<5251.43] yes=101,no=102,missing=102
						101:leaf=-0.00328832
						102:leaf=0.0120792
			12:[U_CATEGORY_MACRO_MEAN_COEC<0.0432098] yes=25,no=26,missing=26
				25:[U_AGE_EC<847869] yes=51,no=52,missing=52
					51:[C_D_U_TITLEMD5_CATEGORY_MICRO_MAX_COEC<0.0753875] yes=103,no=104,missing=104
						103:leaf=0.232393
						104:leaf=0.126642
					52:[U_KEYWORD_MICRO_MAX_COEC<0.12067] yes=105,no=106,missing=106
						105:leaf=0.0879875
						106:leaf=-0.0278962
				26:[U_CATEGORY_MEAN_C<935.529] yes=53,no=54,missing=54
					53:[U_CITY_COEC<0.10221] yes=107,no=108,missing=107
						107:leaf=0.0161338
						108:leaf=-0.126069
					54:[C_D_U_CATEGORY_CATEGORY_MACRO_MEAN_COEC<0.0476254] yes=109,no=110,missing=110
						109:leaf=0.0877912
						110:leaf=0.0372838
		6:[U_KEYWORD_MEAN_EC<1101.56] yes=13,no=14,missing=14
			13:[U_KEYWORD_MACRO_MAX_COEC<0.00103776] yes=27,no=28,missing=28
				27:[CAT_REL<0.149794] yes=55,no=56,missing=56
					55:[D_TITLEMD5_C<427.818] yes=111,no=112,missing=111
						111:leaf=0.0848995
						112:leaf=-0.104963
					56:[M_D_U_KEYWORD_KEYWORD_MACRO_MEAN_COEC<8.52134e-05] yes=113,no=114,missing=113
						113:leaf=-0.0487572
						114:leaf=0.0548525
				28:[CAT_REL<0.117063] yes=57,no=58,missing=58
					57:[U_KEYWORD_MACRO_MEAN_COEC<0.0333168] yes=115,no=116,missing=116
						115:leaf=-0.0183621
						116:leaf=0.00619127
					58:[U_CATEGORY_MICRO_MEAN_COEC<0.108089] yes=117,no=118,missing=118
						117:leaf=-0.00163943
						118:leaf=0.0477091
			14:[D_CATEGORY_MEAN_C<15569.1] yes=29,no=30,missing=30
				29:[CAT_REL<0.149794] yes=59,no=60,missing=60
					59:[C_D_U_CATEGORY_CITY_MICRO_MAX_COEC<0.0862151] yes=119,no=120,missing=120
						119:leaf=-0.0104769
						120:leaf=0.00247313
					60:[U_CATEGORY_MAX_EC<5458.23] yes=121,no=122,missing=122
						121:leaf=0.0330525
						122:leaf=0.00517022
				30:[D_CATEGORY_MEAN_EC<390937] yes=61,no=62,missing=61
					61:[D_TITLEMD5_C<0.999999] yes=123,no=124,missing=124
						123:leaf=-0.0311134
						124:leaf=0.0195861
					62:[CAT_REL<0.094743] yes=125,no=126,missing=126
						125:leaf=0.0082575
						126:leaf=-0.0102951
booster[61]:
0:[C_D_U_CATEGORY_CITY_MACRO_MAX_COEC<0.16868] yes=1,no=2,missing=1
	1:[DAY_OF_WEEK<0.999999] yes=3,no=4,missing=4
		3:[U_KEYWORD_MICRO_MAX_COEC<0.103764] yes=7,no=8,missing=7
			7:[U_CITY_COEC<0.0878972] yes=15,no=16,missing=16
				15:[U_KEYWORD_MAX_EC<148.769] yes=31,no=32,missing=32
					31:[U_KEYWORD_MEAN_EC<530.051] yes=63,no=64,missing=64
						63:leaf=-0.00790915
						64:leaf=0.032811
					32:[D_KEYWORD_MACRO_MAX_COEC<0.0259807] yes=65,no=66,missing=66
						65:leaf=-0.0135142
						66:leaf=-0.000964158
				16:[U_KEYWORD_MACRO_MEAN_COEC<0.0235756] yes=33,no=34,missing=34
					33:[U_KEYWORD_MACRO_MEAN_COEC<0.0174021] yes=67,no=68,missing=68
						67:leaf=-0.0743019
						68:leaf=-0.00725693
					34:[U_GENDER_EC<790750] yes=69,no=70,missing=69
						69:leaf=0.00998862
						70:leaf=-0.0105892
			8:[U_KEYWORD_MICRO_MEAN_COEC<0.0990592] yes=17,no=18,missing=18
				17:[U_GENDER_EC<879043] yes=35,no=36,missing=35
					35:[KW_REL<0.00534182] yes=71,no=72,missing=72
						71:leaf=0.0055025
						72:leaf=0.0183551
					36:[C_D_U_PUBLISHER_CITY_COEC<0.0619162] yes=73,no=74,missing=74
						73:leaf=0.158673
						74:leaf=0.0761852
				18:[U_KEYWORD_MICRO_MAX_COEC<0.113121] yes=37,no=38,missing=38
					37:[U_AGE_EC<805878] yes=75,no=76,missing=76
						75:leaf=-0.043283
						76:leaf=0.00760025
					38:[U_CATEGORY_MICRO_MEAN_COEC<0.101391] yes=77,no=78,missing=78
						77:leaf=0.0542745
						78:leaf=0.028697
		4:[U_KEYWORD_MICRO_MEAN_COEC<0.097203] yes=9,no=10,missing=10
			9:[D_CATEGORY_MEAN_EC<93604.4] yes=19,no=20,missing=19
				19:[C_D_U_CATEGORY_CATEGORY_MICRO_MEAN_COEC<0.0468389] yes=39,no=40,missing=40
					39:[C_D_U_TITLEMD5_CATEGORY_MEAN_C<0.0476249] yes=79,no=80,missing=80
						79:leaf=-0.0294164
						80:leaf=-0.00890303
					40:[U_CATEGORY_MACRO_MEAN_COEC<0.0274267] yes=81,no=82,missing=82
						81:leaf=0.0556262
						82:leaf=-0.00170027
				20:[C_D_U_TITLEMD5_CITY_C<13.5707] yes=41,no=42,missing=41
					41:[U_KEYWORD_MICRO_MAX_COEC<0.118942] yes=83,no=84,missing=84
						83:leaf=-0.014652
						84:leaf=-0.00201078
					42:[U_GENDER_EC<742301] yes=85,no=86,missing=85
						85:leaf=-0.00154389
						86:leaf=-0.0137039
			10:[U_KEYWORD_MACRO_MAX_COEC<0.00105872] yes=21,no=22,missing=22
				21:[U_CATEGORY_MEAN_C<619.905] yes=43,no=44,missing=44
					43:[U_GENDER_EC<749106] yes=87,no=88,missing=87
						87:leaf=0.0122065
						88:leaf=-0.0177657
					44:[U_KEYWORD_MACRO_MAX_COEC<0.000963461] yes=89,no=90,missing=90
						89:leaf=0.0913869
						90:leaf=0.0338822
				22:[D_PUBLISHER_EC<90899.4] yes=45,no=46,missing=45
					45:[D_PUBLISHER_COEC<0.0787458] yes=91,no=92,missing=91
						91:leaf=-0.00373054
						92:leaf=0.00110866
					46:[D_PUBLISHER_COEC<0.0798191] yes=93,no=94,missing=94
						93:leaf=0.0124669
						94:leaf=0.00140711
	2:[C_D_U_KEYWORD_CATEGORY_MEAN_EC<4.14256] yes=5,no=6,missing=6
		5:[U_KEYWORD_MACRO_MEAN_COEC<0.0188781] yes=11,no=12,missing=12
			11:[U_CATEGORY_MICRO_MAX_COEC<0.122141] yes=23,no=24,missing=24
				23:[M_D_U_KEYWORD_KEYWORD_MICRO_MAX_COEC<0.137415] yes=47,no=48,missing=47
					47:[U_KEYWORD_MAX_C<29.5581] yes=95,no=96,missing=96
						95:leaf=0.0713489
						96:leaf=-0.112938
					48:[WORD_COUNT<1537] yes=97,no=98,missing=98
						97:leaf=0.0255445
						98:leaf=-0.195661
				24:[C_D_U_TITLEMD5_CATEGORY_MAX_C<0.0305261] yes=49,no=50,missing=50
					49:[TIME_OF_DAY<0.999999] yes=99,no=100,missing=100
						99:leaf=0.297813
						100:leaf=0.126737
					50:[C_D_U_TITLEMD5_CATEGORY_MICRO_MAX_COEC<0.210734] yes=101,no=102,missing=102
						101:leaf=-0.0262388
						102:leaf=0.0881314
			12:[U_KEYWORD_MAX_EC<602.383] yes=25,no=26,missing=26
				25:[CAT_REL<0.02551] yes=51,no=52,missing=52
					51:[C_D_U_TITLEMD5_CATEGORY_MICRO_MEAN_COEC<0.0387012] yes=103,no=104,missing=104
						103:leaf=-0.0516119
						104:leaf=0.0247312
					52:[C_D_U_TITLEMD5_CATEGORY_MICRO_MEAN_COEC<0.130622] yes=105,no=106,missing=106
						105:leaf=0.0524896
						106:leaf=0.0169072
				26:[C_D_U_CATEGORY_CATEGORY_MEAN_EC<184.943] yes=53,no=54,missing=54
					53:[U_CATEGORY_MACRO_MEAN_COEC<0.0830259] yes=107,no=108,missing=108
						107:leaf=0.0251065
						108:leaf=0.266747
					54:leaf=-0.095131
		6:[M_D_U_KEYWORD_KEYWORD_MICRO_MEAN_COEC<0.132794] yes=13,no=14,missing=14
			13:[D_KEYWORD_MICRO_MEAN_COEC<0.0826697] yes=27,no=28,missing=28
				27:[U_KEYWORD_MACRO_MAX_COEC<0.00113903] yes=55,no=56,missing=56
					55:[U_CITY_COEC<0.0809073] yes=109,no=110,missing=110
						109:leaf=-0.0322755
						110:leaf=0.0746539
					56:[CAT_REL<0.123664] yes=111,no=112,missing=112
						111:leaf=0.0179547
						112:leaf=0.0447512
				28:[D_CATEGORY_MACRO_MAX_COEC<0.0705687] yes=57,no=58,missing=58
					57:[D_KEYWORD_MACRO_MEAN_COEC<0.0620179] yes=113,no=114,missing=114
						113:leaf=-0.116464
						114:leaf=0.0499639
					58:[U_CITY_COEC<0.183483] yes=115,no=116,missing=116
						115:leaf=0.0098324
						116:leaf=0.034309
			14:[D_PUBLISHER_EC<52841.2] yes=29,no=30,missing=29
				29:[U_GENDER_COEC<0.0933644] yes=59,no=60,missing=59
					59:[D_CATEGORY_MAX_EC<153705] yes=117,no=118,missing=118
						117:leaf=-0.0024518
						118:leaf=0.0118475
					60:[D_KEYWORD_MEAN_C<716.961] yes=119,no=120,missing=120
						119:leaf=0.0187033
						120:leaf=-0.0189607
				30:[U_KEYWORD_MACRO_MEAN_COEC<0.0335641] yes=61,no=62,missing=62
					61:[KW_REL<0.000138902] yes=121,no=122,missing=122
						121:leaf=-0.0311232
						122:leaf=0.00696252
					62:[D_CATEGORY_MAX_C<49149.2] yes=123,no=124,missing=124
						123:leaf=0.0208004
						124:leaf=0.082632
booster[62]:
0:[D_CATEGORY_MAX_C<44128.6] yes=1,no=2,missing=1
	1:[C_D_U_CATEGORY_CITY_MACRO_MAX_COEC<0.0932682] yes=3,no=4,missing=3
		3:[M_D_U_KEYWORD_KEYWORD_MICRO_MAX_COEC<0.199768] yes=7,no=8,missing=7
			7:[D_CATEGORY_MICRO_MAX_COEC<0.0625924] yes=15,no=16,missing=15
				15:[C_D_U_CATEGORY_CATEGORY_MICRO_MEAN_COEC<0.0364411] yes=31,no=32,missing=32
					31:[D_TITLEMD5_C<4.55911] yes=63,no=64,missing=63
						63:leaf=-0.0315775
						64:leaf=-0.00710498
					32:[U_KEYWORD_MICRO_MEAN_COEC<0.0947864] yes=65,no=66,missing=65
						65:leaf=0.00115613
						66:leaf=0.0121221
				16:[D_PUBLISHER_COEC<0.0967288] yes=33,no=34,missing=33
					33:[D_TITLEMD5_EC<7469.8] yes=67,no=68,missing=67
						67:leaf=-0.00458977
						68:leaf=0.010211
					34:[D_CATEGORY_MEAN_EC<14756.3] yes=69,no=70,missing=70
						69:leaf=0.0118348
						70:leaf=0.00138143
			8:[U_KEYWORD_MACRO_MAX_COEC<0.00134281] yes=17,no=18,missing=18
				17:[D_KEYWORD_MACRO_MEAN_COEC<0.101814] yes=35,no=36,missing=36
					35:[M_D_U_KEYWORD_KEYWORD_MICRO_MEAN_COEC<0.275685] yes=71,no=72,missing=72
						71:leaf=0.0294754
						72:leaf=0.0657271
					36:[U_CATEGORY_MAX_EC<4954.53] yes=73,no=74,missing=74
						73:leaf=0.0158651
						74:leaf=-0.0253387
				18:[C_D_U_CATEGORY_CATEGORY_MICRO_MEAN_COEC<0.105159] yes=37,no=38,missing=38
					37:[D_TITLEMD5_C<33.9527] yes=75,no=76,missing=75
						75:leaf=0.00342812
						76:leaf=0.020824
					38:[DOC_AGE<30.4817] yes=77,no=78,missing=78
						77:leaf=-0.000381665
						78:leaf=-0.0313216
		4:[D_KEYWORD_MICRO_MEAN_COEC<0.0870524] yes=9,no=10,missing=10
			9:[C_D_U_KEYWORD_CATEGORY_MICRO_MEAN_COEC<0.0627221] yes=19,no=20,missing=19
				19:[D_KEYWORD_MACRO_MEAN_COEC<0.0664247] yes=39,no=40,missing=40
					39:[DOC_AGE<21.6942] yes=79,no=80,missing=80
						79:leaf=-0.0176361
						80:leaf=0.0152562
					40:[D_KEYWORD_MACRO_MAX_COEC<0.0358232] yes=81,no=82,missing=82
						81:leaf=0.00630973
						82:leaf=-0.0415008
				20:[D_CATEGORY_MAX_EC<205399] yes=41,no=42,missing=42
					41:[C_D_U_CATEGORY_CATEGORY_MICRO_MAX_COEC<0.168743] yes=83,no=84,missing=84
						83:leaf=0.0112879
						84:leaf=0.025983
					42:[C_D_U_TITLEMD5_CITY_COEC<0.177812] yes=85,no=86,missing=85
						85:leaf=0.0225105
						86:leaf=0.0558775
			10:[U_GENDER_EC<237443] yes=21,no=22,missing=22
				21:[U_KEYWORD_MACRO_MEAN_COEC<0.0297707] yes=43,no=44,missing=44
					43:[U_KEYWORD_MAX_EC<246.31] yes=87,no=88,missing=88
						87:leaf=0.0147163
						88:leaf=0.00135984
					44:[U_CATEGORY_MACRO_MAX_COEC<0.0676479] yes=89,no=90,missing=89
						89:leaf=0.025929
						90:leaf=-0.0812981
				22:[U_KEYWORD_MICRO_MEAN_COEC<0.097605] yes=45,no=46,missing=45
					45:[D_PUBLISHER_C<6695.86] yes=91,no=92,missing=91
						91:leaf=-0.00253544
						92:leaf=0.00838355
					46:[WORD_COUNT<4895] yes=93,no=94,missing=94
						93:leaf=0.00605015
						94:leaf=-0.00681269
	2:[D_TITLEMD5_COEC<0.190355] yes=5,no=6,missing=6
		5:[WORD_COUNT<698] yes=11,no=12,missing=12
			11:[C_D_U_PUBLISHER_CITY_COEC<0.139374] yes=23,no=24,missing=24
				23:[D_PUBLISHER_C<6695.86] yes=47,no=48,missing=48
					47:[C_D_U_TITLEMD5_GENDER_COEC<0.157639] yes=95,no=96,missing=95
						95:leaf=-0.0174799
						96:leaf=0.00230405
					48:[D_KEYWORD_MICRO_MEAN_COEC<0.0988339] yes=97,no=98,missing=98
						97:leaf=-0.0184564
						98:leaf=-0.0468435
				24:[U_KEYWORD_MAX_EC<417.246] yes=49,no=50,missing=49
					49:[D_KEYWORD_MEAN_C<102.912] yes=99,no=100,missing=100
						99:leaf=0.0173802
						100:leaf=-0.00583367
					50:[U_CATEGORY_MACRO_MAX_COEC<0.025204] yes=101,no=102,missing=101
						101:leaf=-0.0387939
						102:leaf=-0.0106373
			12:[M_D_U_KEYWORD_KEYWORD_MAX_C<0.0655459] yes=25,no=26,missing=25
				25:[C_D_U_CATEGORY_CITY_MEAN_EC<28264.2] yes=51,no=52,missing=52
					51:[U_KEYWORD_MEAN_EC<1501.54] yes=103,no=104,missing=103
						103:leaf=-0.0101327
						104:leaf=0.00369059
					52:[U_KEYWORD_MAX_EC<231.269] yes=105,no=106,missing=105
						105:leaf=0.00342019
						106:leaf=-0.00483266
				26:[U_KEYWORD_MAX_EC<483.66] yes=53,no=54,missing=54
					53:[D_KEYWORD_MEAN_C<832.369] yes=107,no=108,missing=108
						107:leaf=0.031316
						108:leaf=0.00465136
					54:[U_AGE_COEC<0.0957753] yes=109,no=110,missing=110
						109:leaf=0.0367477
						110:leaf=-0.0359715
		6:[CAT_REL<0.004436] yes=13,no=14,missing=14
			13:[D_KEYWORD_MICRO_MEAN_COEC<0.11444] yes=27,no=28,missing=28
				27:[U_KEYWORD_MAX_EC<235.271] yes=55,no=56,missing=55
					55:[D_TITLEMD5_EC<93.9018] yes=111,no=112,missing=112
						111:leaf=0.0521716
						112:leaf=0.0177254
					56:[D_PUBLISHER_EC<20358.7] yes=113,no=114,missing=113
						113:leaf=0.011075
						114:leaf=-0.00936514
				28:[D_KEYWORD_MAX_EC<637.463] yes=57,no=58,missing=58
					57:[M_D_U_KEYWORD_KEYWORD_MICRO_MEAN_COEC<0.111259] yes=115,no=116,missing=116
						115:leaf=-0.050208
						116:leaf=0.0101692
					58:[WORD_COUNT<1583] yes=117,no=118,missing=118
						117:leaf=-0.00184567
						118:leaf=-0.0183759
			14:[D_KEYWORD_MACRO_MEAN_COEC<0.0609708] yes=29,no=30,missing=30
				29:[C_D_U_CATEGORY_CATEGORY_MACRO_MEAN_COEC<0.0539766] yes=59,no=60,missing=60
					59:[M_D_U_KEYWORD_KEYWORD_MICRO_MAX_COEC<0.120542] yes=119,no=120,missing=120
						119:leaf=0.228395
						120:leaf=0.0261169
					60:[U_AGE_C<90589.5] yes=121,no=122,missing=121
						121:leaf=-0.0770441
						122:leaf=0.0914127
				30:[DOC_AGE<26.6531] yes=61,no=62,missing=62
					61:[U_CATEGORY_MACRO_MAX_COEC<0.0231013] yes=123,no=124,missing=124
						123:leaf=0.0213743
						124:leaf=0.00614463
					62:[KW_REL<0.00442566] yes=125,no=126,missing=126
						125:leaf=0.00131288
						126:leaf=-0.0833703
booster[63]:
0:[D_KEYWORD_MEAN_EC<2362.67] yes=1,no=2,missing=1
	1:[KW_REL<0.00153557] yes=3,no=4,missing=4
		3:[U_KEYWORD_MICRO_MAX_COEC<0.145982] yes=7,no=8,missing=7
			7:[D_TITLEMD5_C<7.78643] yes=15,no=16,missing=15
				15:[D_PUBLISHER_COEC<0.163668] yes=31,no=32,missing=32
					31:[C_D_U_CATEGORY_CATEGORY_MICRO_MEAN_COEC<0.0461486] yes=63,no=64,missing=64
						63:leaf=-0.0273161
						64:leaf=-0.00630554
					32:[C_D_U_CATEGORY_AGE_MEAN_EC<12122.8] yes=65,no=66,missing=66
						65:leaf=-0.0242821
						66:leaf=0.0210332
				16:[D_TITLEMD5_COEC<0.184721] yes=33,no=34,missing=34
					33:[D_CATEGORY_MEAN_EC<297235] yes=67,no=68,missing=67
						67:leaf=0.00137727
						68:leaf=-0.00787135
					34:[D_TITLEMD5_EC<97.4515] yes=69,no=70,missing=70
						69:leaf=0.0312268
						70:leaf=0.00860749
			8:[U_KEYWORD_MICRO_MEAN_COEC<0.0910547] yes=17,no=18,missing=18
				17:[C_D_U_CATEGORY_CITY_MACRO_MAX_COEC<0.0568765] yes=35,no=36,missing=35
					35:[C_D_U_KEYWORD_CATEGORY_MAX_EC<0.237132] yes=71,no=72,missing=71
						71:leaf=0.00659878
						72:leaf=-0.0376312
					36:[C_D_U_CATEGORY_CATEGORY_MAX_C<17.5439] yes=73,no=74,missing=74
						73:leaf=0.0268126
						74:leaf=-0.0035535
				18:[U_KEYWORD_MICRO_MAX_COEC<0.242521] yes=37,no=38,missing=38
					37:[DAY_OF_WEEK<2] yes=75,no=76,missing=76
						75:leaf=0.0280196
						76:leaf=0.00953388
					38:[C_D_U_TITLEMD5_CATEGORY_MACRO_MEAN_COEC<0.0121917] yes=77,no=78,missing=77
						77:leaf=0.073389
						78:leaf=0.0297539
		4:[DOC_AGE<11.65] yes=9,no=10,missing=10
			9:[U_KEYWORD_MACRO_MAX_COEC<0.00276413] yes=19,no=20,missing=20
				19:[C_D_U_KEYWORD_CATEGORY_MAX_EC<0.698614] yes=39,no=40,missing=40
					39:[D_KEYWORD_MICRO_MEAN_COEC<0.0886203] yes=79,no=80,missing=80
						79:leaf=0.0262621
						80:leaf=0.0152129
					40:[C_D_U_KEYWORD_CATEGORY_MACRO_MEAN_COEC<0.0473338] yes=81,no=82,missing=82
						81:leaf=0.00321726
						82:leaf=0.0146461
				20:[C_D_U_TITLEMD5_CATEGORY_MEAN_EC<2.32368] yes=41,no=42,missing=42
					41:[C_D_U_KEYWORD_CATEGORY_MICRO_MAX_COEC<0.378195] yes=83,no=84,missing=84
						83:leaf=-0.0276133
						84:leaf=0.00891373
					42:[D_CATEGORY_MEAN_C<24769.2] yes=85,no=86,missing=85
						85:leaf=0.00373927
						86:leaf=-0.0199619
			10:[M_D_U_KEYWORD_KEYWORD_MEAN_C<0.012617] yes=21,no=22,missing=21
				21:[C_D_U_PUBLISHER_AGE_COEC<0.0776626] yes=43,no=44,missing=43
					43:[D_PUBLISHER_EC<12297.1] yes=87,no=88,missing=87
						87:leaf=-0.00360788
						88:leaf=0.00412748
					44:[D_KEYWORD_MACRO_MAX_COEC<0.0261477] yes=89,no=90,missing=90
						89:leaf=0.0122708
						90:leaf=0.000518171
				22:[M_D_U_KEYWORD_KEYWORD_MACRO_MAX_COEC<0.000166365] yes=45,no=46,missing=46
					45:[U_KEYWORD_MICRO_MAX_COEC<0.106032] yes=91,no=92,missing=92
						91:leaf=-0.124545
						92:leaf=0.0565244
					46:[WORD_COUNT<3529] yes=93,no=94,missing=94
						93:leaf=-0.0093188
						94:leaf=-0.048241
	2:[M_D_U_KEYWORD_KEYWORD_MEAN_C<0.00743071] yes=5,no=6,missing=5
		5:[C_D_U_TITLEMD5_CATEGORY_MEAN_EC<22.217] yes=11,no=12,missing=12
			11:[C_D_U_CATEGORY_CATEGORY_MAX_C<29.8956] yes=23,no=24,missing=23
				23:[DAY_OF_WEEK<0.999999] yes=47,no=48,missing=48
					47:[D_CATEGORY_MEAN_EC<38316.1] yes=95,no=96,missing=96
						95:leaf=0.0196408
						96:leaf=-0.00375181
					48:[DOC_AGE<2.42611] yes=97,no=98,missing=98
						97:leaf=0.00157664
						98:leaf=-0.00978936
				24:[U_KEYWORD_MACRO_MEAN_COEC<0.0232892] yes=49,no=50,missing=50
					49:[KW_REL<0.00308463] yes=99,no=100,missing=100
						99:leaf=-0.027093
						100:leaf=-0.00723102
					50:[U_CATEGORY_MICRO_MEAN_COEC<0.100335] yes=101,no=102,missing=102
						101:leaf=-0.00736154
						102:leaf=-0.0218846
			12:[D_KEYWORD_MACRO_MEAN_COEC<0.0664728] yes=25,no=26,missing=26
				25:[C_D_U_CATEGORY_GENDER_MICRO_MAX_COEC<0.0774813] yes=51,no=52,missing=51
					51:[U_CITY_EC<48126.4] yes=103,no=104,missing=104
						103:leaf=-0.0194249
						104:leaf=-0.0027982
					52:[C_D_U_CATEGORY_CITY_MAX_C<83.8236] yes=105,no=106,missing=105
						105:leaf=-0.0527256
						106:leaf=-0.018554
				26:[TIME_OF_DAY<4] yes=53,no=54,missing=54
					53:[C_D_U_TITLEMD5_CITY_C<81.6796] yes=107,no=108,missing=108
						107:leaf=0.00233973
						108:leaf=0.0119291
					54:[TIME_OF_DAY<19] yes=109,no=110,missing=110
						109:leaf=-0.00209819
						110:leaf=0.00699117
		6:[D_KEYWORD_MEAN_EC<5449.56] yes=13,no=14,missing=14
			13:[M_D_U_KEYWORD_KEYWORD_MEAN_C<0.0277492] yes=27,no=28,missing=28
				27:[C_D_U_TITLEMD5_CITY_C<10.7579] yes=55,no=56,missing=55
					55:[U_KEYWORD_MACRO_MAX_COEC<0.00125445] yes=111,no=112,missing=112
						111:leaf=0.00740407
						112:leaf=-0.0026866
					56:[U_KEYWORD_MACRO_MAX_COEC<0.00128962] yes=113,no=114,missing=114
						113:leaf=0.0192043
						114:leaf=0.00610412
				28:[KW_REL<0.00223689] yes=57,no=58,missing=58
					57:[C_D_U_CATEGORY_CATEGORY_MAX_EC<13.5421] yes=115,no=116,missing=115
						115:leaf=0.0261509
						116:leaf=0.00286387
					58:[U_KEYWORD_MACRO_MEAN_COEC<0.0335641] yes=117,no=118,missing=118
						117:leaf=0.0151945
						118:leaf=-0.00385948
			14:[KW_REL<0.00442045] yes=29,no=30,missing=30
				29:[D_TITLEMD5_EC<5494.5] yes=59,no=60,missing=59
					59:[C_D_U_KEYWORD_CATEGORY_MEAN_C<7.36786] yes=119,no=120,missing=120
						119:leaf=-0.0090669
						120:leaf=-0.0283598
					60:[D_CATEGORY_MEAN_C<15674] yes=121,no=122,missing=122
						121:leaf=0.0121429
						122:leaf=-0.00583231
				30:[C_D_U_KEYWORD_CATEGORY_MEAN_EC<131.881] yes=61,no=62,missing=61
					61:[KW_REL<0.00649207] yes=123,no=124,missing=124
						123:leaf=0.0013175
						124:leaf=0.010627
					62:[C_D_U_TITLEMD5_CATEGORY_MACRO_MAX_COEC<0.00990529] yes=125,no=126,missing=126
						125:leaf=-0.0428723
						126:leaf=-0.00768451
booster[64]:
0:[DOC_AGE<3.03861] yes=1,no=2,missing=2
	1:[D_TITLEMD5_C<37.5931] yes=3,no=4,missing=3
		3:[C_D_U_TITLEMD5_CATEGORY_MICRO_MEAN_COEC<0.102048] yes=7,no=8,missing=8
			7:[C_D_U_PUBLISHER_CITY_COEC<0.0491221] yes=15,no=16,missing=15
				15:[D_TITLEMD5_COEC<0.0236499] yes=31,no=32,missing=31
					31:[DOC_AGE<0.268888] yes=63,no=64,missing=64
						63:leaf=0.00210267
						64:leaf=-0.0189614
					32:[C_D_U_CATEGORY_CATEGORY_MICRO_MAX_COEC<0.0856509] yes=65,no=66,missing=65
						65:leaf=-0.00964543
						66:leaf=0.0105222
				16:[DOC_AGE<0.545832] yes=33,no=34,missing=34
					33:[C_D_U_TITLEMD5_GENDER_C<1.98502] yes=67,no=68,missing=67
						67:leaf=0.0165628
						68:leaf=0.045413
					34:[C_D_U_CATEGORY_CATEGORY_MICRO_MAX_COEC<0.165355] yes=69,no=70,missing=70
						69:leaf=0.00392075
						70:leaf=0.026198
			8:[C_D_U_KEYWORD_CATEGORY_MICRO_MEAN_COEC<0.0639791] yes=17,no=18,missing=18
				17:[C_D_U_CATEGORY_CATEGORY_MICRO_MEAN_COEC<0.0828052] yes=35,no=36,missing=35
					35:[U_KEYWORD_MICRO_MAX_COEC<0.114802] yes=71,no=72,missing=72
						71:leaf=-0.0425223
						72:leaf=-0.0146239
					36:[C_D_U_CATEGORY_AGE_MACRO_MAX_COEC<0.0743723] yes=73,no=74,missing=74
						73:leaf=-0.15661
						74:leaf=0.00803675
				18:[D_TITLEMD5_C<3.28442] yes=37,no=38,missing=37
					37:[C_D_U_PUBLISHER_CITY_COEC<0.0591398] yes=75,no=76,missing=76
						75:leaf=-0.022962
						76:leaf=-0.00553373
					38:[D_TITLEMD5_COEC<0.22514] yes=77,no=78,missing=77
						77:leaf=-0.00110078
						78:leaf=0.0195048
		4:[C_D_U_TITLEMD5_CATEGORY_MICRO_MEAN_COEC<0.116714] yes=9,no=10,missing=9
			9:[U_CATEGORY_MICRO_MAX_COEC<0.114492] yes=19,no=20,missing=19
				19:[DOC_AGE<1.50139] yes=39,no=40,missing=40
					39:[D_KEYWORD_MACRO_MEAN_COEC<0.0452421] yes=79,no=80,missing=80
						79:leaf=-0.0406381
						80:leaf=0.0184706
					40:[C_D_U_TITLEMD5_CATEGORY_MICRO_MEAN_COEC<0.0438233] yes=81,no=82,missing=82
						81:leaf=-0.00727672
						82:leaf=0.00787393
				20:[DOC_AGE<1.03333] yes=41,no=42,missing=42
					41:[U_GENDER_COEC<0.0917461] yes=83,no=84,missing=84
						83:leaf=0.0807313
						84:leaf=0.0397711
					42:[C_D_U_TITLEMD5_CATEGORY_MICRO_MAX_COEC<0.0575634] yes=85,no=86,missing=86
						85:leaf=-0.0211999
						86:leaf=0.0217428
			10:[M_D_U_KEYWORD_KEYWORD_MICRO_MAX_COEC<0.144081] yes=21,no=22,missing=21
				21:[WORD_COUNT<614] yes=43,no=44,missing=44
					43:[D_KEYWORD_MICRO_MAX_COEC<0.21103] yes=87,no=88,missing=88
						87:leaf=-0.0103811
						88:leaf=-0.0603681
					44:[D_KEYWORD_MACRO_MEAN_COEC<0.107085] yes=89,no=90,missing=90
						89:leaf=0.000355716
						90:leaf=0.0097645
				22:[U_KEYWORD_MACRO_MAX_COEC<0.00599005] yes=45,no=46,missing=46
					45:[M_D_U_KEYWORD_KEYWORD_MACRO_MEAN_COEC<0.00102453] yes=91,no=92,missing=92
						91:leaf=0.0128313
						92:leaf=0.0365669
					46:[M_D_U_KEYWORD_KEYWORD_MEAN_EC<0.48761] yes=93,no=94,missing=94
						93:leaf=-0.0291963
						94:leaf=-0.219192
	2:[C_D_U_TITLEMD5_AGE_COEC<0.109692] yes=5,no=6,missing=5
		5:[C_D_U_TITLEMD5_AGE_EC<2131.71] yes=11,no=12,missing=11
			11:[U_GENDER_COEC<0.0897277] yes=23,no=24,missing=23
				23:[U_CATEGORY_MACRO_MEAN_COEC<0.050253] yes=47,no=48,missing=47
					47:[CAT_REL<0.107815] yes=95,no=96,missing=96
						95:leaf=0.000961933
						96:leaf=0.0170595
					48:[C_D_U_KEYWORD_CATEGORY_MACRO_MEAN_COEC<0.0435739] yes=97,no=98,missing=98
						97:leaf=-0.0100051
						98:leaf=-0.00220902
				24:[U_KEYWORD_MICRO_MAX_COEC<0.109958] yes=49,no=50,missing=49
					49:[U_CITY_EC<150307] yes=99,no=100,missing=99
						99:leaf=-0.0174114
						100:leaf=-0.00466984
					50:[DOC_AGE<23.8406] yes=101,no=102,missing=102
						101:leaf=-0.00543028
						102:leaf=0.00637179
			12:[TIME_OF_DAY<14] yes=25,no=26,missing=26
				25:[U_CATEGORY_MICRO_MAX_COEC<0.107526] yes=51,no=52,missing=51
					51:[C_D_U_TITLEMD5_CATEGORY_MICRO_MEAN_COEC<0.0552376] yes=103,no=104,missing=104
						103:leaf=-0.00507327
						104:leaf=0.017179
					52:[D_KEYWORD_MACRO_MAX_COEC<0.0129859] yes=105,no=106,missing=106
						105:leaf=0.0523693
						106:leaf=0.0306061
				26:[U_KEYWORD_MICRO_MAX_COEC<0.115466] yes=53,no=54,missing=54
					53:[KW_REL<0.000930426] yes=107,no=108,missing=108
						107:leaf=-0.020773
						108:leaf=0.00197186
					54:[C_D_U_KEYWORD_CATEGORY_MICRO_MEAN_COEC<0.09911] yes=109,no=110,missing=109
						109:leaf=0.0069304
						110:leaf=0.0345543
		6:[U_KEYWORD_MAX_C<25.9767] yes=13,no=14,missing=14
			13:[U_KEYWORD_MACRO_MEAN_COEC<0.0293303] yes=27,no=28,missing=28
				27:[U_KEYWORD_MEAN_C<57.623] yes=55,no=56,missing=56
					55:[U_CATEGORY_MEAN_C<1596.12] yes=111,no=112,missing=112
						111:leaf=-0.00698962
						112:leaf=-0.0409335
					56:[WORD_COUNT<1851] yes=113,no=114,missing=114
						113:leaf=0.00375964
						114:leaf=0.0117121
				28:[U_CATEGORY_MEAN_C<1646.85] yes=57,no=58,missing=58
					57:[U_CATEGORY_MICRO_MEAN_COEC<0.0735964] yes=115,no=116,missing=116
						115:leaf=0.0738505
						116:leaf=0.0248481
					58:[U_CATEGORY_MAX_C<1249.46] yes=117,no=118,missing=117
						117:leaf=0.00662358
						118:leaf=0.0311019
			14:[U_CATEGORY_MEAN_EC<6467.8] yes=29,no=30,missing=30
				29:[D_CATEGORY_MAX_EC<267688] yes=59,no=60,missing=59
					59:[U_KEYWORD_MACRO_MAX_COEC<0.00147053] yes=119,no=120,missing=120
						119:leaf=0.000639914
						120:leaf=-0.0157701
					60:[C_D_U_TITLEMD5_GENDER_COEC<0.113312] yes=121,no=122,missing=122
						121:leaf=-0.0618994
						122:leaf=-0.0204436
				30:[U_KEYWORD_MICRO_MAX_COEC<0.113196] yes=61,no=62,missing=62
					61:[C_D_U_CATEGORY_GENDER_MAX_EC<116029] yes=123,no=124,missing=123
						123:leaf=-0.00127319
						124:leaf=-0.0126939
					62:[C_D_U_PUBLISHER_GENDER_C<579.63] yes=125,no=126,missing=125
						125:leaf=0.00807987
						126:leaf=0.00125571
booster[65]:
0:[U_KEYWORD_MICRO_MAX_COEC<0.119139] yes=1,no=2,missing=1
	1:[U_KEYWORD_MACRO_MAX_COEC<0.00193182] yes=3,no=4,missing=3
		3:[CAT_REL<0.105417] yes=7,no=8,missing=8
			7:[U_KEYWORD_MEAN_C<129.63] yes=15,no=16,missing=16
				15:[M_D_U_KEYWORD_KEYWORD_MICRO_MAX_COEC<0.198411] yes=31,no=32,missing=31
					31:[D_KEYWORD_MEAN_C<319.26] yes=63,no=64,missing=63
						63:leaf=-0.00189994
						64:leaf=-0.00799537
					32:[C_D_U_CATEGORY_CATEGORY_MACRO_MEAN_COEC<0.0500962] yes=65,no=66,missing=66
						65:leaf=0.0268673
						66:leaf=0.00259495
				16:[U_GENDER_EC<749053] yes=33,no=34,missing=33
					33:[U_KEYWORD_MAX_C<22.867] yes=67,no=68,missing=68
						67:leaf=0.0117355
						68:leaf=0.00208758
					34:[U_KEYWORD_MACRO_MAX_COEC<0.00149622] yes=69,no=70,missing=70
						69:leaf=0.00109249
						70:leaf=-0.00769951
			8:[U_CATEGORY_MAX_EC<3478.75] yes=17,no=18,missing=18
				17:[U_KEYWORD_MACRO_MEAN_COEC<0.0211983] yes=35,no=36,missing=36
					35:[C_D_U_CATEGORY_CITY_MACRO_MEAN_COEC<0.0956689] yes=71,no=72,missing=72
						71:leaf=0.0206862
						72:leaf=0.0435181
					36:[DOC_AGE<1.48833] yes=73,no=74,missing=74
						73:leaf=0.0332236
						74:leaf=0.010144
				18:[U_KEYWORD_MAX_C<29.1395] yes=37,no=38,missing=38
					37:[U_KEYWORD_MACRO_MAX_COEC<0.00106229] yes=75,no=76,missing=76
						75:leaf=0.0484576
						76:leaf=-0.00149332
					38:[DOC_AGE<4.18055] yes=77,no=78,missing=78
						77:leaf=0.0223098
						78:leaf=0.00781943
		4:[C_D_U_TITLEMD5_CITY_C<1.93114] yes=9,no=10,missing=9
			9:[C_D_U_CATEGORY_CITY_MICRO_MEAN_COEC<0.125486] yes=19,no=20,missing=19
				19:[U_GENDER_COEC<0.0921049] yes=39,no=40,missing=40
					39:[U_CITY_COEC<0.0664667] yes=79,no=80,missing=80
						79:leaf=-0.0305759
						80:leaf=0.00151541
					40:[C_D_U_KEYWORD_CATEGORY_MACRO_MEAN_COEC<0.0604013] yes=81,no=82,missing=82
						81:leaf=-0.0144938
						82:leaf=-0.00574466
				20:[D_CATEGORY_MACRO_MEAN_COEC<0.115048] yes=41,no=42,missing=42
					41:[C_D_U_CATEGORY_CATEGORY_MACRO_MAX_COEC<0.0124458] yes=83,no=84,missing=83
						83:leaf=-0.015508
						84:leaf=0.0192271
					42:[U_KEYWORD_MEAN_EC<1170.52] yes=85,no=86,missing=86
						85:leaf=-0.00827293
						86:leaf=0.00760172
			10:[U_KEYWORD_MAX_C<58.9515] yes=21,no=22,missing=22
				21:[U_KEYWORD_MACRO_MEAN_COEC<0.0263651] yes=43,no=44,missing=44
					43:[U_CATEGORY_MACRO_MEAN_COEC<0.0645462] yes=87,no=88,missing=88
						87:leaf=-0.000672006
						88:leaf=-0.0168948
					44:[U_GENDER_C<66831.9] yes=89,no=90,missing=90
						89:leaf=0.00962127
						90:leaf=0.000247553
				22:[U_GENDER_COEC<0.105727] yes=45,no=46,missing=45
					45:[U_CATEGORY_MACRO_MEAN_COEC<0.0561144] yes=91,no=92,missing=91
						91:leaf=0.0167001
						92:leaf=-0.0117214
					46:[C_D_U_CATEGORY_CITY_MEAN_EC<1580.88] yes=93,no=94,missing=94
						93:leaf=-0.0042725
						94:leaf=-0.112706
	2:[DOC_AGE<21.0964] yes=5,no=6,missing=6
		5:[U_KEYWORD_MACRO_MAX_COEC<0.00122356] yes=11,no=12,missing=12
			11:[U_CITY_COEC<0.0950951] yes=23,no=24,missing=23
				23:[U_GENDER_COEC<0.0904765] yes=47,no=48,missing=47
					47:[U_CATEGORY_MICRO_MEAN_COEC<0.10081] yes=95,no=96,missing=96
						95:leaf=-0.0113553
						96:leaf=0.0392288
					48:[U_KEYWORD_MACRO_MAX_COEC<0.00113522] yes=97,no=98,missing=98
						97:leaf=-0.0440115
						98:leaf=0.016657
				24:[U_AGE_EC<771308] yes=49,no=50,missing=50
					49:[U_CITY_EC<155121] yes=99,no=100,missing=100
						99:leaf=-0.0105703
						100:leaf=-0.224352
					50:[U_KEYWORD_MACRO_MAX_COEC<0.00106229] yes=101,no=102,missing=102
						101:leaf=0.103069
						102:leaf=0.047656
			12:[U_KEYWORD_MACRO_MEAN_COEC<0.028462] yes=25,no=26,missing=26
				25:[KW_REL<0.000558319] yes=51,no=52,missing=52
					51:[U_KEYWORD_MEAN_C<59.0518] yes=103,no=104,missing=104
						103:leaf=-0.0446094
						104:leaf=-0.0103773
					52:[C_D_U_CATEGORY_CATEGORY_MICRO_MAX_COEC<0.18104] yes=105,no=106,missing=106
						105:leaf=0.000791577
						106:leaf=0.0222692
				26:[U_AGE_C<77750.3] yes=53,no=54,missing=53
					53:[U_CATEGORY_MACRO_MEAN_COEC<0.0829225] yes=107,no=108,missing=108
						107:leaf=0.00877603
						108:leaf=-0.00561501
					54:[U_CATEGORY_MAX_C<571.525] yes=109,no=110,missing=109
						109:leaf=0.0281823
						110:leaf=0.00894884
		6:[C_D_U_TITLEMD5_CATEGORY_MICRO_MEAN_COEC<0.0918395] yes=13,no=14,missing=14
			13:[U_AGE_COEC<0.0989679] yes=27,no=28,missing=28
				27:[U_CITY_COEC<0.0796798] yes=55,no=56,missing=56
					55:[D_PUBLISHER_COEC<0.0983827] yes=111,no=112,missing=112
						111:leaf=0.109031
						112:leaf=-0.0384809
					56:[U_CITY_C<82.0472] yes=113,no=114,missing=114
						113:leaf=-0.0495975
						114:leaf=0.0429264
				28:[DOC_AGE<74.6375] yes=57,no=58,missing=58
					57:[U_KEYWORD_MACRO_MEAN_COEC<0.0229307] yes=115,no=116,missing=116
						115:leaf=0.000424129
						116:leaf=0.02995
					58:[U_KEYWORD_MICRO_MEAN_COEC<0.103329] yes=117,no=118,missing=118
						117:leaf=-0.0194128
						118:leaf=0.0608118
			14:[U_CATEGORY_MEAN_C<2540.95] yes=29,no=30,missing=29
				29:[U_KEYWORD_MACRO_MEAN_COEC<0.029988] yes=59,no=60,missing=60
					59:[U_AGE_C<85168.5] yes=119,no=120,missing=120
						119:leaf=0.0182019
						120:leaf=0.00212839
					60:[KW_REL<0.00955259] yes=121,no=122,missing=122
						121:leaf=0.022269
						122:leaf=-0.0298984
				30:[U_GENDER_C<68838.7] yes=61,no=62,missing=62
					61:[U_AGE_COEC<0.0951997] yes=123,no=124,missing=123
						123:leaf=0.046997
						124:leaf=-0.0208665
					62:[U_AGE_COEC<0.0992681] yes=125,no=126,missing=125
						125:leaf=-0.0458353
						126:leaf=0.0169849
booster[66]:
0:[IMAGE_COUNT<3] yes=1,no=2,missing=2
	1:[TIME_OF_DAY<9] yes=3,no=4,missing=4
		3:[DOC_AGE<1.20778] yes=7,no=8,missing=8
			7:[LARGE_IMAGE<0.999999] yes=15,no=16,missing=16
				15:[D_CATEGORY_MEAN_C<5396.88] yes=31,no=32,missing=32
					31:[C_D_U_TITLEMD5_CATEGORY_MICRO_MEAN_COEC<0.11295] yes=63,no=64,missing=64
						63:leaf=0.0172916
						64:leaf=-0.00105563
					32:[KW_REL<0.00347184] yes=65,no=66,missing=66
						65:leaf=-0.00985766
						66:leaf=0.0104063
				16:[U_AGE_EC<807456] yes=33,no=34,missing=33
					33:[C_D_U_PUBLISHER_CITY_EC<2324.43] yes=67,no=68,missing=67
						67:leaf=0.00832171
						68:leaf=0.0202992
					34:[C_D_U_TITLEMD5_CATEGORY_MICRO_MAX_COEC<0.250155] yes=69,no=70,missing=70
						69:leaf=0.0395351
						70:leaf=0.00708367
			8:[TIME_OF_DAY<2] yes=17,no=18,missing=18
				17:[U_KEYWORD_MEAN_C<171.719] yes=35,no=36,missing=35
					35:[U_CATEGORY_MAX_EC<6387.08] yes=71,no=72,missing=71
						71:leaf=0.0104435
						72:leaf=-0.000258718
					36:[U_CATEGORY_MACRO_MEAN_COEC<0.0427839] yes=73,no=74,missing=73
						73:leaf=-0.132623
						74:leaf=-0.0211135
				18:[D_TITLEMD5_C<4.40567] yes=37,no=38,missing=37
					37:[C_D_U_KEYWORD_CATEGORY_MEAN_C<0.252375] yes=75,no=76,missing=76
						75:leaf=0.00713581
						76:leaf=-0.0109242
					38:[D_KEYWORD_MEAN_EC<879.529] yes=77,no=78,missing=77
						77:leaf=0.0115226
						78:leaf=0.000468834
		4:[U_CITY_COEC<0.0719738] yes=9,no=10,missing=10
			9:[D_PUBLISHER_COEC<0.0769393] yes=19,no=20,missing=20
				19:[U_CATEGORY_MEAN_C<301.006] yes=39,no=40,missing=40
					39:[C_D_U_CATEGORY_CATEGORY_MAX_EC<160.627] yes=79,no=80,missing=79
						79:leaf=0.0843922
						80:leaf=-0.223699
					40:[U_CATEGORY_MICRO_MEAN_COEC<0.101628] yes=81,no=82,missing=82
						81:leaf=-0.0170773
						82:leaf=-0.0357984
				20:[U_CATEGORY_MACRO_MAX_COEC<0.0206228] yes=41,no=42,missing=42
					41:[U_KEYWORD_MEAN_C<143.304] yes=83,no=84,missing=84
						83:leaf=-0.00728922
						84:leaf=0.0112471
					42:[U_GENDER_C<22164.5] yes=85,no=86,missing=86
						85:leaf=0.0282143
						86:leaf=-0.0174095
			10:[U_KEYWORD_MEAN_C<148.591] yes=21,no=22,missing=22
				21:[M_D_U_KEYWORD_KEYWORD_MICRO_MAX_COEC<0.221794] yes=43,no=44,missing=43
					43:[D_CATEGORY_MAX_EC<16863.2] yes=87,no=88,missing=87
						87:leaf=0.00537094
						88:leaf=-0.00422447
					44:[D_KEYWORD_MICRO_MEAN_COEC<0.104455] yes=89,no=90,missing=90
						89:leaf=0.019524
						90:leaf=0.000367854
				22:[C_D_U_TITLEMD5_GENDER_COEC<0.105343] yes=45,no=46,missing=46
					45:[C_D_U_TITLEMD5_CITY_C<0.955889] yes=91,no=92,missing=91
						91:leaf=-0.0138045
						92:leaf=-0.00117486
					46:[U_KEYWORD_MAX_C<58.3781] yes=93,no=94,missing=93
						93:leaf=0.0033949
						94:leaf=-0.0115286
	2:[CAT_REL<0.028608] yes=5,no=6,missing=6
		5:[D_TITLEMD5_COEC<0.0488005] yes=11,no=12,missing=12
			11:[D_TITLEMD5_EC<70.4158] yes=23,no=24,missing=24
				23:[D_PUBLISHER_COEC<0.0641924] yes=47,no=48,missing=48
					47:[KW_REL<0.000563454] yes=95,no=96,missing=96
						95:leaf=0.0178761
						96:leaf=-0.044386
					48:[U_CITY_COEC<0.0822315] yes=97,no=98,missing=98
						97:leaf=-0.0352578
						98:leaf=0.061843
				24:[U_CATEGORY_MAX_C<434.619] yes=49,no=50,missing=50
					49:[TIME_OF_DAY<16] yes=99,no=100,missing=100
						99:leaf=-0.016294
						100:leaf=-0.043044
					50:[D_CATEGORY_MAX_C<2831.23] yes=101,no=102,missing=101
						101:leaf=0.0127748
						102:leaf=-0.0167595
			12:[D_KEYWORD_MICRO_MEAN_COEC<0.0886853] yes=25,no=26,missing=26
				25:[C_D_U_TITLEMD5_CATEGORY_MICRO_MAX_COEC<0.112328] yes=51,no=52,missing=52
					51:[D_CATEGORY_MACRO_MAX_COEC<0.0638961] yes=103,no=104,missing=103
						103:leaf=0.0163603
						104:leaf=-0.0063564
					52:[WORD_COUNT<8587] yes=105,no=106,missing=106
						105:leaf=0.0163794
						106:leaf=0.0581402
				26:[D_TITLEMD5_COEC<0.151317] yes=53,no=54,missing=54
					53:[WORD_COUNT<2498] yes=107,no=108,missing=108
						107:leaf=-0.00902195
						108:leaf=0.00312826
					54:[D_CATEGORY_MEAN_EC<10489.9] yes=109,no=110,missing=109
						109:leaf=0.0201028
						110:leaf=0.0052018
		6:[U_KEYWORD_MACRO_MAX_COEC<0.00120553] yes=13,no=14,missing=14
			13:[D_KEYWORD_MEAN_EC<5230.73] yes=27,no=28,missing=28
				27:[CAT_REL<0.128072] yes=55,no=56,missing=56
					55:[U_KEYWORD_MEAN_C<45.9175] yes=111,no=112,missing=112
						111:leaf=-0.0889223
						112:leaf=0.0303598
					56:[C_D_U_TITLEMD5_CATEGORY_MICRO_MEAN_COEC<0.076398] yes=113,no=114,missing=114
						113:leaf=0.0867818
						114:leaf=0.0390136
				28:[CAT_REL<0.030012] yes=57,no=58,missing=58
					57:leaf=-0.24122
					58:[U_CATEGORY_MAX_C<278.35] yes=115,no=116,missing=116
						115:leaf=-0.0318514
						116:leaf=0.0163418
			14:[DOC_AGE<6.99861] yes=29,no=30,missing=30
				29:[C_D_U_CATEGORY_CATEGORY_MAX_C<18.7729] yes=59,no=60,missing=60
					59:[D_PUBLISHER_C<4784.5] yes=117,no=118,missing=118
						117:leaf=-0.000334056
						118:leaf=0.0282236
					60:[U_KEYWORD_MACRO_MAX_COEC<0.00295642] yes=119,no=120,missing=120
						119:leaf=0.0258463
						120:leaf=-0.00082459
				30:[TIME_OF_DAY<6] yes=61,no=62,missing=62
					61:[KW_REL<0.000345697] yes=121,no=122,missing=122
						121:leaf=-0.00691307
						122:leaf=0.0155941
					62:[D_KEYWORD_MEAN_EC<5793.04] yes=123,no=124,missing=124
						123:leaf=0.00477028
						124:leaf=-0.0134029
booster[67]:
0:[D_KEYWORD_MEAN_C<141.727] yes=1,no=2,missing=1
	1:[KW_REL<0.000834968] yes=3,no=4,missing=4
		3:[D_KEYWORD_MICRO_MEAN_COEC<0.126362] yes=7,no=8,missing=8
			7:[D_TITLEMD5_EC<8.94027] yes=15,no=16,missing=15
				15:[D_KEYWORD_MICRO_MEAN_COEC<0.0826328] yes=31,no=32,missing=32
					31:[DOC_AGE<0.250832] yes=63,no=64,missing=64
						63:leaf=0.0142748
						64:leaf=-0.0117094
					32:[WORD_COUNT<1534] yes=65,no=66,missing=66
						65:leaf=-0.0126873
						66:leaf=-0.0356099
				16:[DOC_AGE<23.5628] yes=33,no=34,missing=34
					33:[C_D_U_CATEGORY_CATEGORY_MICRO_MEAN_COEC<0.060484] yes=67,no=68,missing=68
						67:leaf=-0.0110022
						68:leaf=-0.000104662
					34:[D_KEYWORD_MICRO_MEAN_COEC<0.09413] yes=69,no=70,missing=70
						69:leaf=0.0115007
						70:leaf=-0.00300308
			8:[DOC_AGE<49.8203] yes=17,no=18,missing=18
				17:[D_KEYWORD_MAX_C<26.0671] yes=35,no=36,missing=35
					35:[D_TITLEMD5_COEC<0.105357] yes=71,no=72,missing=72
						71:leaf=0.0454737
						72:leaf=0.0174103
					36:[D_TITLEMD5_EC<270.972] yes=73,no=74,missing=73
						73:leaf=-0.020891
						74:leaf=0.0113607
				18:[U_CITY_COEC<0.0966028] yes=37,no=38,missing=37
					37:[D_KEYWORD_MACRO_MEAN_COEC<0.0964303] yes=75,no=76,missing=76
						75:leaf=0.0527556
						76:leaf=-0.0126907
					38:[U_KEYWORD_MACRO_MAX_COEC<0.00168076] yes=77,no=78,missing=78
						77:leaf=0.012621
						78:leaf=-0.145054
		4:[DOC_AGE<1.21] yes=9,no=10,missing=10
			9:[D_TITLEMD5_C<2] yes=19,no=20,missing=19
				19:[U_KEYWORD_MACRO_MAX_COEC<0.00202267] yes=39,no=40,missing=40
					39:[D_PUBLISHER_EC<4697.59] yes=79,no=80,missing=79
						79:leaf=-0.00153412
						80:leaf=0.0212012
					40:[C_D_U_CATEGORY_CATEGORY_MACRO_MAX_COEC<0.0193933] yes=81,no=82,missing=81
						81:leaf=-0.030333
						82:leaf=0.00902298
				20:[D_KEYWORD_MICRO_MEAN_COEC<0.0713488] yes=41,no=42,missing=42
					41:[U_KEYWORD_MAX_EC<299.789] yes=83,no=84,missing=84
						83:leaf=0.0253813
						84:leaf=0.0544897
					42:[D_KEYWORD_MACRO_MAX_COEC<0.0101942] yes=85,no=86,missing=86
						85:leaf=-0.010312
						86:leaf=0.0242449
			10:[C_D_U_CATEGORY_CITY_MACRO_MEAN_COEC<0.142602] yes=21,no=22,missing=21
				21:[C_D_U_TITLEMD5_CITY_EC<0.999999] yes=43,no=44,missing=43
					43:[C_D_U_CATEGORY_CITY_MACRO_MEAN_COEC<0.080701] yes=87,no=88,missing=88
						87:leaf=-0.00877485
						88:leaf=0.00554579
					44:[D_KEYWORD_MEAN_C<73.4281] yes=89,no=90,missing=90
						89:leaf=0.0176052
						90:leaf=0.00741624
				22:[D_CATEGORY_MICRO_MAX_COEC<0.0710851] yes=45,no=46,missing=46
					45:[C_D_U_CATEGORY_GENDER_MAX_EC<69557.9] yes=91,no=92,missing=91
						91:leaf=0.0518242
						92:leaf=-0.130588
					46:[C_D_U_TITLEMD5_AGE_EC<3.38019] yes=93,no=94,missing=94
						93:leaf=0.09138
						94:leaf=0.0192732
	2:[U_KEYWORD_MEAN_C<2.70784] yes=5,no=6,missing=6
		5:[U_CATEGORY_MICRO_MAX_COEC<0.101022] yes=11,no=12,missing=11
			11:[U_AGE_C<82975] yes=23,no=24,missing=23
				23:[C_D_U_CATEGORY_CITY_MAX_EC<68867.6] yes=47,no=48,missing=47
					47:[C_D_U_PUBLISHER_AGE_EC<43618.6] yes=95,no=96,missing=95
						95:leaf=-0.0486118
						96:leaf=0.144498
					48:[C_D_U_TITLEMD5_CATEGORY_MAX_EC<4.72161] yes=97,no=98,missing=98
						97:leaf=0.256079
						98:leaf=-0.0895245
				24:[U_CITY_C<17289.9] yes=49,no=50,missing=50
					49:[C_D_U_TITLEMD5_CITY_COEC<0.167475] yes=99,no=100,missing=100
						99:leaf=0.220219
						100:leaf=-0.0517256
					50:[U_CATEGORY_MACRO_MEAN_COEC<0.0482455] yes=101,no=102,missing=101
						101:leaf=0.0299016
						102:leaf=-0.142015
			12:[U_AGE_EC<771308] yes=25,no=26,missing=26
				25:[U_CATEGORY_MAX_EC<3482.98] yes=51,no=52,missing=52
					51:[DOC_AGE<18.5628] yes=103,no=104,missing=104
						103:leaf=0.131915
						104:leaf=0.269111
					52:leaf=-0.138798
				26:[CAT_REL<0.06878] yes=53,no=54,missing=54
					53:[U_CATEGORY_MICRO_MEAN_COEC<0.0948174] yes=105,no=106,missing=106
						105:leaf=-0.0667192
						106:leaf=-0.12326
					54:[C_D_U_CATEGORY_GENDER_MACRO_MEAN_COEC<0.138232] yes=107,no=108,missing=107
						107:leaf=-0.122974
						108:leaf=0.099542
		6:[M_D_U_KEYWORD_KEYWORD_MICRO_MAX_COEC<0.298765] yes=13,no=14,missing=13
			13:[D_TITLEMD5_C<9.92037] yes=27,no=28,missing=28
				27:[DOC_AGE<74.7986] yes=55,no=56,missing=56
					55:[CAT_REL<0.082541] yes=109,no=110,missing=110
						109:leaf=-0.0121908
						110:leaf=-0.00122523
					56:[C_D_U_TITLEMD5_CATEGORY_MICRO_MEAN_COEC<0.0958764] yes=111,no=112,missing=111
						111:leaf=0.0211093
						112:leaf=-0.0148235
				28:[DOC_AGE<5.67722] yes=57,no=58,missing=58
					57:[WORD_COUNT<825] yes=113,no=114,missing=114
						113:leaf=-0.00507315
						114:leaf=0.00445497
					58:[TIME_OF_DAY<3] yes=115,no=116,missing=116
						115:leaf=0.0055695
						116:leaf=-0.00234491
			14:[U_KEYWORD_MACRO_MEAN_COEC<0.0210405] yes=29,no=30,missing=30
				29:[D_CATEGORY_MAX_EC<92680.8] yes=59,no=60,missing=59
					59:[C_D_U_CATEGORY_GENDER_MEAN_EC<24904.8] yes=117,no=118,missing=117
						117:leaf=0.0233926
						118:leaf=-0.311379
					60:[D_KEYWORD_MACRO_MAX_COEC<0.0446757] yes=119,no=120,missing=120
						119:leaf=0.0707222
						120:leaf=-0.00476782
				30:[D_CATEGORY_MAX_C<16166.1] yes=61,no=62,missing=62
					61:[M_D_U_KEYWORD_KEYWORD_MICRO_MEAN_COEC<0.0806811] yes=121,no=122,missing=122
						121:leaf=-0.147629
						122:leaf=0.0287154
					62:[C_D_U_CATEGORY_CATEGORY_MEAN_C<39.9784] yes=123,no=124,missing=123
						123:leaf=-0.297323
						124:leaf=-0.0119294
booster[68]:
0:[KW_REL<0.00269364] yes=1,no=2,missing=2
	1:[D_KEYWORD_MEAN_EC<4200.79] yes=3,no=4,missing=3
		3:[U_KEYWORD_MICRO_MAX_COEC<0.162566] yes=7,no=8,missing=7
			7:[IMAGE_COUNT<3] yes=15,no=16,missing=16
				15:[D_CATEGORY_MACRO_MAX_COEC<0.0439167] yes=31,no=32,missing=32
					31:[TIME_OF_DAY<9] yes=63,no=64,missing=64
						63:leaf=-0.00402954
						64:leaf=-0.0196398
					32:[D_CATEGORY_MAX_C<44007.9] yes=65,no=66,missing=65
						65:leaf=0.000461295
						66:leaf=-0.00523917
				16:[D_CATEGORY_MACRO_MAX_COEC<0.063775] yes=33,no=34,missing=33
					33:[TIME_OF_DAY<12] yes=67,no=68,missing=68
						67:leaf=0.0259262
						68:leaf=0.00560398
					34:[D_KEYWORD_MAX_EC<2343.19] yes=69,no=70,missing=70
						69:leaf=0.00356687
						70:leaf=0.027641
			8:[U_KEYWORD_MICRO_MEAN_COEC<0.0920404] yes=17,no=18,missing=18
				17:[U_CATEGORY_MICRO_MAX_COEC<0.0911712] yes=35,no=36,missing=35
					35:[U_GENDER_COEC<0.0931164] yes=71,no=72,missing=71
						71:leaf=0.0129478
						72:leaf=0.0993663
					36:[U_CITY_EC<88218.5] yes=73,no=74,missing=73
						73:leaf=-0.0312566
						74:leaf=0.00651071
				18:[DAY_OF_WEEK<2] yes=37,no=38,missing=38
					37:[U_KEYWORD_MAX_C<42.196] yes=75,no=76,missing=76
						75:leaf=0.0396655
						76:leaf=0.00801264
					38:[D_CATEGORY_MEAN_C<25001.9] yes=77,no=78,missing=77
						77:leaf=0.0180087
						78:leaf=-0.000100554
		4:[C_D_U_TITLEMD5_CATEGORY_MEAN_EC<19.2038] yes=9,no=10,missing=10
			9:[D_CATEGORY_MICRO_MAX_COEC<0.061434] yes=19,no=20,missing=19
				19:[D_KEYWORD_MACRO_MEAN_COEC<0.060045] yes=39,no=40,missing=40
					39:[U_KEYWORD_MICRO_MAX_COEC<0.106545] yes=79,no=80,missing=80
						79:leaf=-0.0388573
						80:leaf=0.000961675
					40:[C_D_U_CATEGORY_CITY_MAX_C<326.083] yes=81,no=82,missing=82
						81:leaf=0.00504913
						82:leaf=0.0290785
				20:[D_CATEGORY_MEAN_EC<15279.3] yes=41,no=42,missing=42
					41:[D_KEYWORD_MICRO_MAX_COEC<0.0954309] yes=83,no=84,missing=84
						83:leaf=-0.0441635
						84:leaf=0.00992808
					42:[U_KEYWORD_MACRO_MEAN_COEC<0.0300194] yes=85,no=86,missing=86
						85:leaf=-0.0151141
						86:leaf=-0.000938895
			10:[C_D_U_TITLEMD5_AGE_EC<2143.02] yes=21,no=22,missing=21
				21:[C_D_U_TITLEMD5_GENDER_COEC<0.1498] yes=43,no=44,missing=44
					43:[C_D_U_CATEGORY_CITY_MEAN_C<851.533] yes=87,no=88,missing=87
						87:leaf=-0.0180751
						88:leaf=-0.00125048
					44:[U_CITY_COEC<0.0986181] yes=89,no=90,missing=90
						89:leaf=-0.00361901
						90:leaf=0.00539612
				22:[C_D_U_CATEGORY_AGE_MICRO_MAX_COEC<0.156407] yes=45,no=46,missing=45
					45:[D_KEYWORD_MEAN_C<403.008] yes=91,no=92,missing=92
						91:leaf=0.0247988
						92:leaf=0.00670942
					46:[C_D_U_TITLEMD5_AGE_C<495.353] yes=93,no=94,missing=94
						93:leaf=0.0228329
						94:leaf=-0.0189624
	2:[C_D_U_KEYWORD_CATEGORY_MAX_C<0.257706] yes=5,no=6,missing=5
		5:[D_KEYWORD_MACRO_MAX_COEC<0.0217538] yes=11,no=12,missing=12
			11:[D_CATEGORY_MAX_C<9092.21] yes=23,no=24,missing=24
				23:[CAT_REL<0.105604] yes=47,no=48,missing=48
					47:[C_D_U_KEYWORD_CATEGORY_MICRO_MAX_COEC<0.225409] yes=95,no=96,missing=96
						95:leaf=-0.000111743
						96:leaf=0.0161934
					48:[C_D_U_CATEGORY_CATEGORY_MACRO_MEAN_COEC<0.0180309] yes=97,no=98,missing=98
						97:leaf=-0.0721053
						98:leaf=0.0220286
				24:[D_KEYWORD_MEAN_EC<2656.81] yes=49,no=50,missing=50
					49:[C_D_U_CATEGORY_CATEGORY_MEAN_C<110.632] yes=99,no=100,missing=99
						99:leaf=0.0434106
						100:leaf=0.0187867
					50:[D_TITLEMD5_COEC<0.0407549] yes=101,no=102,missing=102
						101:leaf=-0.00836146
						102:leaf=0.0184885
			12:[D_CATEGORY_MICRO_MAX_COEC<0.117268] yes=25,no=26,missing=25
				25:[WORD_COUNT<5375] yes=51,no=52,missing=52
					51:[C_D_U_TITLEMD5_CATEGORY_MEAN_C<13.8494] yes=103,no=104,missing=103
						103:leaf=0.00861663
						104:leaf=-0.197321
					52:[U_CATEGORY_MICRO_MAX_COEC<0.104055] yes=105,no=106,missing=105
						105:leaf=-0.0435684
						106:leaf=-0.00291139
				26:[U_KEYWORD_MAX_C<33.2492] yes=53,no=54,missing=54
					53:[U_CATEGORY_MAX_C<196.299] yes=107,no=108,missing=108
						107:leaf=-0.010167
						108:leaf=0.00534685
					54:[C_D_U_TITLEMD5_AGE_COEC<0.104198] yes=109,no=110,missing=110
						109:leaf=-0.0827956
						110:leaf=-0.0151708
		6:[U_KEYWORD_MICRO_MEAN_COEC<0.102701] yes=13,no=14,missing=14
			13:[DAY_OF_WEEK<0.999999] yes=27,no=28,missing=28
				27:[DOC_AGE<11.3558] yes=55,no=56,missing=56
					55:[KW_REL<0.00536054] yes=111,no=112,missing=112
						111:leaf=0.00785039
						112:leaf=0.0239755
					56:[U_KEYWORD_MICRO_MEAN_COEC<0.0971559] yes=113,no=114,missing=114
						113:leaf=-0.0045661
						114:leaf=0.00909798
				28:[CAT_REL<0.135002] yes=57,no=58,missing=58
					57:[D_TITLEMD5_C<19.1025] yes=115,no=116,missing=116
						115:leaf=-0.0128276
						116:leaf=-0.00204343
					58:[U_KEYWORD_MACRO_MEAN_COEC<0.0247944] yes=117,no=118,missing=118
						117:leaf=0.0129631
						118:leaf=-0.00225779
			14:[C_D_U_KEYWORD_CATEGORY_MEAN_C<13.2586] yes=29,no=30,missing=30
				29:[WORD_COUNT<2739] yes=59,no=60,missing=60
					59:[D_TITLEMD5_COEC<0.0619017] yes=119,no=120,missing=120
						119:leaf=-0.0067922
						120:leaf=0.00629247
					60:[D_CATEGORY_MAX_EC<200334] yes=121,no=122,missing=122
						121:leaf=0.00960465
						122:leaf=0.026097
				30:[U_CATEGORY_MEAN_EC<14188.7] yes=61,no=62,missing=62
					61:[KW_REL<0.0050274] yes=123,no=124,missing=124
						123:leaf=-0.137091
						124:leaf=0.0355963
					62:[KW_REL<0.00536054] yes=125,no=126,missing=126
						125:leaf=-0.0399425
						126:leaf=-0.0135072
booster[69]:
0:[C_D_U_CATEGORY_CATEGORY_MICRO_MAX_COEC<0.207288] yes=1,no=2,missing=1
	1:[TIME_OF_DAY<9] yes=3,no=4,missing=4
		3:[C_D_U_TITLEMD5_CATEGORY_MICRO_MEAN_COEC<0.101642] yes=7,no=8,missing=8
			7:[C_D_U_TITLEMD5_CITY_COEC<0.334254] yes=15,no=16,missing=16
				15:[U_KEYWORD_MEAN_EC<1265.15] yes=31,no=32,missing=32
					31:[U_KEYWORD_MICRO_MAX_COEC<0.11986] yes=63,no=64,missing=64
						63:leaf=0.00281371
						64:leaf=0.015618
					32:[U_CATEGORY_MACRO_MAX_COEC<0.0192592] yes=65,no=66,missing=66
						65:leaf=0.0147692
						66:leaf=0.00131227
				16:[IMAGE_COUNT<0.999999] yes=33,no=34,missing=34
					33:[M_D_U_KEYWORD_KEYWORD_MEAN_C<0.147306] yes=67,no=68,missing=67
						67:leaf=-0.0259744
						68:leaf=0.0460127
					34:[DOC_AGE<1.44583] yes=69,no=70,missing=70
						69:leaf=0.0108519
						70:leaf=-0.00247096
			8:[C_D_U_TITLEMD5_CATEGORY_MACRO_MEAN_COEC<0.0488265] yes=17,no=18,missing=18
				17:[U_KEYWORD_MACRO_MAX_COEC<0.00116927] yes=35,no=36,missing=36
					35:[U_CATEGORY_MAX_EC<1838.7] yes=71,no=72,missing=72
						71:leaf=0.0153947
						72:leaf=-0.0103777
					36:[C_D_U_TITLEMD5_CATEGORY_MEAN_EC<12.4219] yes=73,no=74,missing=74
						73:leaf=-0.0147099
						74:leaf=0.00308213
				18:[C_D_U_TITLEMD5_GENDER_COEC<0.0648151] yes=37,no=38,missing=38
					37:[D_CATEGORY_MICRO_MEAN_COEC<0.113534] yes=75,no=76,missing=76
						75:leaf=-0.00908838
						76:leaf=-0.0313362
					38:[U_AGE_EC<805548] yes=77,no=78,missing=77
						77:leaf=0.000488906
						78:leaf=0.00698461
		4:[U_CITY_COEC<0.0674675] yes=9,no=10,missing=10
			9:[D_PUBLISHER_COEC<0.0781014] yes=19,no=20,missing=19
				19:[U_CATEGORY_MACRO_MEAN_COEC<0.0509353] yes=39,no=40,missing=40
					39:[U_GENDER_EC<201800] yes=79,no=80,missing=80
						79:leaf=0.187436
						80:leaf=-0.0124733
					40:[U_CATEGORY_MICRO_MAX_COEC<0.104676] yes=81,no=82,missing=81
						81:leaf=-0.0187844
						82:leaf=-0.0450946
				20:[U_KEYWORD_MAX_C<35.2] yes=41,no=42,missing=42
					41:[U_GENDER_C<77669.4] yes=83,no=84,missing=83
						83:leaf=-0.00249157
						84:leaf=-0.0606524
					42:[U_KEYWORD_MICRO_MEAN_COEC<0.0934755] yes=85,no=86,missing=86
						85:leaf=-0.0569762
						86:leaf=-0.0150117
			10:[U_KEYWORD_MICRO_MAX_COEC<0.143147] yes=21,no=22,missing=21
				21:[U_KEYWORD_MEAN_C<136.451] yes=43,no=44,missing=44
					43:[U_AGE_COEC<0.0968435] yes=87,no=88,missing=88
						87:leaf=0.00103459
						88:leaf=-0.00520966
					44:[U_KEYWORD_MACRO_MAX_COEC<0.00406863] yes=89,no=90,missing=89
						89:leaf=0.0010904
						90:leaf=-0.013098
				22:[U_CATEGORY_MACRO_MEAN_COEC<0.101994] yes=45,no=46,missing=45
					45:[U_AGE_COEC<0.0991977] yes=91,no=92,missing=92
						91:leaf=0.0237496
						92:leaf=0.00714838
					46:[U_CITY_EC<392474] yes=93,no=94,missing=94
						93:leaf=-0.101217
						94:leaf=0.0339484
	2:[D_CATEGORY_MICRO_MAX_COEC<0.123113] yes=5,no=6,missing=6
		5:[CAT_REL<0.078762] yes=11,no=12,missing=12
			11:[C_D_U_CATEGORY_CITY_MACRO_MEAN_COEC<0.0993277] yes=23,no=24,missing=23
				23:[C_D_U_TITLEMD5_CATEGORY_MACRO_MAX_COEC<0.00899335] yes=47,no=48,missing=48
					47:[U_KEYWORD_MEAN_EC<1538.15] yes=95,no=96,missing=96
						95:leaf=0.0371741
						96:leaf=-0.0854971
					48:[D_KEYWORD_MICRO_MEAN_COEC<0.0742681] yes=97,no=98,missing=98
						97:leaf=-0.02868
						98:leaf=0.00264445
				24:[U_CATEGORY_MEAN_C<171.446] yes=49,no=50,missing=50
					49:[U_GENDER_C<67340] yes=99,no=100,missing=99
						99:leaf=-0.0294212
						100:leaf=0.107437
					50:[C_D_U_CATEGORY_GENDER_MAX_EC<117580] yes=101,no=102,missing=101
						101:leaf=0.0234239
						102:leaf=-0.0181084
			12:[D_CATEGORY_MACRO_MEAN_COEC<0.0786365] yes=25,no=26,missing=26
				25:[CAT_REL<0.133153] yes=51,no=52,missing=52
					51:[U_KEYWORD_MACRO_MAX_COEC<0.00158152] yes=103,no=104,missing=104
						103:leaf=0.046667
						104:leaf=0.00674169
					52:[U_CITY_EC<618.072] yes=105,no=106,missing=105
						105:leaf=-0.00334539
						106:leaf=0.0683401
				26:[U_KEYWORD_MACRO_MEAN_COEC<0.0231817] yes=53,no=54,missing=54
					53:[D_CATEGORY_MAX_C<52321.1] yes=107,no=108,missing=108
						107:leaf=0.0369632
						108:leaf=-0.0647712
					54:[D_CATEGORY_MACRO_MEAN_COEC<0.119315] yes=109,no=110,missing=110
						109:leaf=0.0172761
						110:leaf=-0.0317729
		6:[C_D_U_CATEGORY_CATEGORY_MICRO_MEAN_COEC<0.186479] yes=13,no=14,missing=14
			13:[D_KEYWORD_MAX_C<384.079] yes=27,no=28,missing=28
				27:[D_PUBLISHER_C<4993.56] yes=55,no=56,missing=56
					55:[C_D_U_KEYWORD_CATEGORY_MICRO_MAX_COEC<0.137418] yes=111,no=112,missing=112
						111:leaf=-0.101012
						112:leaf=0.00602788
					56:[C_D_U_CATEGORY_CATEGORY_MAX_C<3.19731] yes=113,no=114,missing=114
						113:leaf=-0.0262593
						114:leaf=-0.00207483
				28:[M_D_U_KEYWORD_KEYWORD_MAX_C<0.0304971] yes=57,no=58,missing=57
					57:[C_D_U_PUBLISHER_AGE_COEC<0.0647636] yes=115,no=116,missing=116
						115:leaf=-0.146544
						116:leaf=-0.0146335
					58:[C_D_U_PUBLISHER_GENDER_C<111.104] yes=117,no=118,missing=117
						117:leaf=0.0379727
						118:leaf=-0.112957
			14:[KW_REL<0.00631846] yes=29,no=30,missing=30
				29:[U_KEYWORD_MACRO_MEAN_COEC<0.0298796] yes=59,no=60,missing=60
					59:[KW_REL<0.000282603] yes=119,no=120,missing=120
						119:leaf=-0.0169327
						120:leaf=0.010098
					60:[D_KEYWORD_MICRO_MAX_COEC<0.141937] yes=121,no=122,missing=122
						121:leaf=0.0578043
						122:leaf=0.0219348
				30:[M_D_U_KEYWORD_KEYWORD_MEAN_C<0.000731348] yes=61,no=62,missing=61
					61:leaf=-0.32482
					62:[WORD_COUNT<4588] yes=123,no=124,missing=124
						123:leaf=-0.0299653
						124:leaf=-0.250411
booster[70]:
0:[U_KEYWORD_MACRO_MAX_COEC<0.00105061] yes=1,no=2,missing=2
	1:[U_CATEGORY_MEAN_C<633.088] yes=3,no=4,missing=4
		3:[U_KEYWORD_MEAN_C<93.2662] yes=7,no=8,missing=8
			7:[U_CITY_C<229.141] yes=15,no=16,missing=16
				15:[U_CITY_EC<283.024] yes=31,no=32,missing=32
					31:[C_D_U_CATEGORY_CATEGORY_MACRO_MEAN_COEC<0.025518] yes=63,no=64,missing=64
						63:leaf=-0.132783
						64:leaf=0.0391545
					32:[CAT_REL<0.069627] yes=65,no=66,missing=66
						65:leaf=-0.11913
						66:leaf=-0.00800393
				16:[CAT_REL<0.036271] yes=33,no=34,missing=34
					33:[C_D_U_KEYWORD_CATEGORY_MAX_EC<0.0783935] yes=67,no=68,missing=67
						67:leaf=0.045075
						68:leaf=-0.0401371
					34:[C_D_U_PUBLISHER_GENDER_COEC<0.0667578] yes=69,no=70,missing=70
						69:leaf=-0.0694563
						70:leaf=0.024373
			8:[U_KEYWORD_MAX_EC<217.878] yes=17,no=18,missing=18
				17:[U_CITY_EC<43565.3] yes=35,no=36,missing=36
					35:[U_KEYWORD_MEAN_EC<963.918] yes=71,no=72,missing=72
						71:leaf=-0.0792296
						72:leaf=0.00990515
					36:[U_GENDER_EC<214801] yes=73,no=74,missing=74
						73:leaf=0.0603485
						74:leaf=0.0247137
				18:[U_KEYWORD_MICRO_MEAN_COEC<0.104485] yes=37,no=38,missing=38
					37:[U_CATEGORY_MEAN_C<171.446] yes=75,no=76,missing=76
						75:leaf=0.0865715
						76:leaf=-0.00784284
					38:[U_AGE_C<79490] yes=77,no=78,missing=78
						77:leaf=-0.0916853
						78:leaf=0.0926596
		4:[U_CATEGORY_MICRO_MEAN_COEC<0.110303] yes=9,no=10,missing=10
			9:[U_CATEGORY_MACRO_MEAN_COEC<0.069559] yes=19,no=20,missing=20
				19:[U_CATEGORY_MACRO_MAX_COEC<0.0099869] yes=39,no=40,missing=40
					39:[U_CATEGORY_MICRO_MEAN_COEC<0.0921011] yes=79,no=80,missing=80
						79:leaf=0.0154237
						80:leaf=0.141059
					40:[U_KEYWORD_MACRO_MEAN_COEC<0.0197339] yes=81,no=82,missing=82
						81:leaf=0.0245528
						82:leaf=-0.00873639
				20:[C_D_U_CATEGORY_CATEGORY_MACRO_MAX_COEC<0.029338] yes=41,no=42,missing=41
					41:[CAT_REL<0.009551] yes=83,no=84,missing=84
						83:leaf=0.0697085
						84:leaf=0.0156479
					42:[C_D_U_TITLEMD5_CATEGORY_MICRO_MEAN_COEC<0.100503] yes=85,no=86,missing=86
						85:leaf=0.100149
						86:leaf=0.0544274
			10:[U_GENDER_C<64466.2] yes=21,no=22,missing=21
				21:[U_GENDER_EC<713870] yes=43,no=44,missing=43
					43:[CAT_REL<0.004616] yes=87,no=88,missing=88
						87:leaf=0.0734752
						88:leaf=0.0258881
					44:leaf=-0.304858
				22:[C_D_U_PUBLISHER_CITY_EC<12497.4] yes=45,no=46,missing=46
					45:[U_CATEGORY_MACRO_MEAN_COEC<0.0488492] yes=89,no=90,missing=90
						89:leaf=0.123035
						90:leaf=0.0335176
					46:[C_D_U_TITLEMD5_CATEGORY_MICRO_MEAN_COEC<0.104442] yes=91,no=92,missing=92
						91:leaf=0.197463
						92:leaf=0.145695
	2:[U_KEYWORD_MICRO_MAX_COEC<0.126252] yes=5,no=6,missing=5
		5:[U_CATEGORY_MACRO_MEAN_COEC<0.0709004] yes=11,no=12,missing=11
			11:[CAT_REL<0.135038] yes=23,no=24,missing=24
				23:[U_KEYWORD_MICRO_MEAN_COEC<0.103479] yes=47,no=48,missing=47
					47:[C_D_U_CATEGORY_GENDER_MEAN_EC<79554.5] yes=93,no=94,missing=93
						93:leaf=-0.000572841
						94:leaf=-0.00856265
					48:[U_CATEGORY_MACRO_MAX_COEC<0.0131146] yes=95,no=96,missing=96
						95:leaf=0.012121
						96:leaf=0.00237541
				24:[U_CATEGORY_MAX_EC<3871.3] yes=49,no=50,missing=50
					49:[C_D_U_CATEGORY_CATEGORY_MICRO_MEAN_COEC<0.131029] yes=97,no=98,missing=98
						97:leaf=0.0162259
						98:leaf=0.0365609
					50:[CAT_REL<0.188427] yes=99,no=100,missing=100
						99:leaf=0.00334794
						100:leaf=0.0146959
			12:[C_D_U_KEYWORD_CATEGORY_MACRO_MEAN_COEC<0.0543417] yes=25,no=26,missing=26
				25:[IMAGE_COUNT<3] yes=51,no=52,missing=52
					51:[C_D_U_TITLEMD5_AGE_EC<9.83156] yes=101,no=102,missing=101
						101:leaf=-0.0211891
						102:leaf=-0.00713651
					52:[U_KEYWORD_MEAN_C<64.9917] yes=103,no=104,missing=104
						103:leaf=0.0308322
						104:leaf=-0.00351662
				26:[U_KEYWORD_MAX_C<58.8329] yes=53,no=54,missing=54
					53:[CAT_REL<0.247279] yes=105,no=106,missing=106
						105:leaf=-0.0030732
						106:leaf=0.00629575
					54:[U_KEYWORD_MEAN_EC<1654.8] yes=107,no=108,missing=108
						107:leaf=-0.00570599
						108:leaf=-0.0190668
		6:[U_KEYWORD_MEAN_C<45.8834] yes=13,no=14,missing=14
			13:[U_KEYWORD_MACRO_MEAN_COEC<0.0360695] yes=27,no=28,missing=28
				27:[C_D_U_KEYWORD_CATEGORY_MEAN_EC<0.5687] yes=55,no=56,missing=56
					55:[U_CATEGORY_MEAN_C<2511] yes=109,no=110,missing=110
						109:leaf=0.0244348
						110:leaf=-0.221655
					56:[KW_REL<3.90781e-05] yes=111,no=112,missing=112
						111:leaf=-0.0522533
						112:leaf=-0.0149257
				28:[C_D_U_TITLEMD5_GENDER_COEC<0.101311] yes=57,no=58,missing=57
					57:[U_CATEGORY_MEAN_EC<18600.7] yes=113,no=114,missing=114
						113:leaf=0.0306982
						114:leaf=-0.0129804
					58:[U_CITY_EC<369606] yes=115,no=116,missing=116
						115:leaf=0.050711
						116:leaf=-0.0065966
			14:[U_KEYWORD_MICRO_MAX_COEC<0.254572] yes=29,no=30,missing=30
				29:[C_D_U_TITLEMD5_CATEGORY_MICRO_MEAN_COEC<0.093966] yes=59,no=60,missing=59
					59:[DAY_OF_WEEK<0.999999] yes=117,no=118,missing=118
						117:leaf=0.0314382
						118:leaf=0.0125654
					60:[C_D_U_CATEGORY_CATEGORY_MAX_C<789.701] yes=119,no=120,missing=119
						119:leaf=0.00498338
						120:leaf=-0.0456584
				30:[U_CATEGORY_MAX_EC<9979.29] yes=61,no=62,missing=61
					61:[U_KEYWORD_MICRO_MEAN_COEC<0.0919684] yes=121,no=122,missing=122
						121:leaf=-0.0253808
						122:leaf=0.0365703
					62:[U_AGE_COEC<0.0944928] yes=123,no=124,missing=123
						123:leaf=-0.0208196
						124:leaf=0.0316062
booster[71]:
0:[WORD_COUNT<575] yes=1,no=2,missing=2
	1:[D_TITLEMD5_COEC<0.146186] yes=3,no=4,missing=3
		3:[U_KEYWORD_MAX_EC<232.822] yes=7,no=8,missing=7
			7:[U_CITY_COEC<0.078247] yes=15,no=16,missing=16
				15:[U_KEYWORD_MEAN_C<119.858] yes=31,no=32,missing=31
					31:[C_D_U_KEYWORD_CATEGORY_MACRO_MEAN_COEC<0.0710848] yes=63,no=64,missing=63
						63:leaf=-0.0369593
						64:leaf=-0.00486053
					32:[TIME_OF_DAY<11] yes=65,no=66,missing=66
						65:leaf=0.0369609
						66:leaf=-0.00961991
				16:[M_D_U_KEYWORD_KEYWORD_MICRO_MEAN_COEC<0.11686] yes=33,no=34,missing=34
					33:[U_GENDER_C<73137.9] yes=67,no=68,missing=67
						67:leaf=0.0109785
						68:leaf=-0.0322104
					34:[D_KEYWORD_MEAN_C<629.772] yes=69,no=70,missing=70
						69:leaf=-0.00359071
						70:leaf=-0.0181186
			8:[D_CATEGORY_MACRO_MEAN_COEC<0.0668293] yes=17,no=18,missing=17
				17:[C_D_U_KEYWORD_CATEGORY_MAX_EC<3.72994] yes=35,no=36,missing=36
					35:[D_PUBLISHER_C<17660.6] yes=71,no=72,missing=72
						71:leaf=0.00885266
						72:leaf=0.246927
					36:[C_D_U_TITLEMD5_CITY_COEC<0.146646] yes=73,no=74,missing=73
						73:leaf=-0.0173647
						74:leaf=0.0282887
				18:[KW_REL<0.00484763] yes=37,no=38,missing=38
					37:[U_KEYWORD_MACRO_MEAN_COEC<0.0225665] yes=75,no=76,missing=76
						75:leaf=-0.0253002
						76:leaf=-0.0142599
					38:[WORD_COUNT<383] yes=77,no=78,missing=78
						77:leaf=-0.0298521
						78:leaf=-0.0016066
		4:[D_PUBLISHER_EC<67220.1] yes=9,no=10,missing=10
			9:[CAT_REL<0.000773] yes=19,no=20,missing=20
				19:[C_D_U_KEYWORD_CATEGORY_MAX_C<0.315371] yes=39,no=40,missing=40
					39:[D_CATEGORY_MICRO_MAX_COEC<0.122133] yes=79,no=80,missing=80
						79:leaf=-0.0210014
						80:leaf=0.00260249
					40:[D_KEYWORD_MACRO_MAX_COEC<0.0402829] yes=81,no=82,missing=82
						81:leaf=0.00782121
						82:leaf=-0.00758708
				20:[D_CATEGORY_MAX_C<17383.1] yes=41,no=42,missing=42
					41:[D_KEYWORD_MACRO_MAX_COEC<0.0185263] yes=83,no=84,missing=84
						83:leaf=-0.0861745
						84:leaf=-0.00759697
					42:[D_PUBLISHER_EC<21313.6] yes=85,no=86,missing=86
						85:leaf=0.0166788
						86:leaf=0.00160542
			10:[U_KEYWORD_MACRO_MEAN_COEC<0.0265595] yes=21,no=22,missing=22
				21:[C_D_U_CATEGORY_CATEGORY_MICRO_MEAN_COEC<0.100761] yes=43,no=44,missing=44
					43:[C_D_U_KEYWORD_CATEGORY_MAX_EC<1.24538] yes=87,no=88,missing=88
						87:leaf=-0.137354
						88:leaf=0.0263917
					44:[C_D_U_TITLEMD5_CATEGORY_MACRO_MAX_COEC<0.0179302] yes=89,no=90,missing=90
						89:leaf=0.0497262
						90:leaf=-0.0281086
				22:[D_KEYWORD_MICRO_MEAN_COEC<0.110455] yes=45,no=46,missing=46
					45:[C_D_U_KEYWORD_CATEGORY_MICRO_MEAN_COEC<0.107209] yes=91,no=92,missing=91
						91:leaf=0.0667876
						92:leaf=-0.0388844
					46:[C_D_U_CATEGORY_CITY_MEAN_EC<6136.48] yes=93,no=94,missing=93
						93:leaf=0.0430196
						94:leaf=0.0151641
	2:[KW_REL<0.00229467] yes=5,no=6,missing=6
		5:[C_D_U_CATEGORY_CITY_MACRO_MEAN_COEC<0.0925372] yes=11,no=12,missing=12
			11:[DOC_AGE<23.1333] yes=23,no=24,missing=24
				23:[DOC_AGE<1.73417] yes=47,no=48,missing=48
					47:[C_D_U_TITLEMD5_CATEGORY_MICRO_MEAN_COEC<0.15339] yes=95,no=96,missing=96
						95:leaf=0.00702514
						96:leaf=-0.0079144
					48:[D_KEYWORD_MACRO_MEAN_COEC<0.08895] yes=97,no=98,missing=98
						97:leaf=-0.0082517
						98:leaf=0.00175468
				24:[U_KEYWORD_MACRO_MEAN_COEC<0.0199557] yes=49,no=50,missing=50
					49:[U_KEYWORD_MEAN_C<67.2297] yes=99,no=100,missing=100
						99:leaf=-0.048143
						100:leaf=-0.00650441
					50:[C_D_U_CATEGORY_AGE_MEAN_EC<22706.1] yes=101,no=102,missing=101
						101:leaf=0.00377652
						102:leaf=0.015025
			12:[U_KEYWORD_MAX_C<32.6662] yes=25,no=26,missing=25
				25:[U_KEYWORD_MICRO_MEAN_COEC<0.0925866] yes=51,no=52,missing=52
					51:[U_KEYWORD_MACRO_MEAN_COEC<0.0238316] yes=103,no=104,missing=104
						103:leaf=-0.0152948
						104:leaf=0.000341675
					52:[D_KEYWORD_MAX_EC<844.726] yes=105,no=106,missing=105
						105:leaf=0.00542588
						106:leaf=0.00088081
				26:[CAT_REL<0.007513] yes=53,no=54,missing=54
					53:[U_KEYWORD_MACRO_MEAN_COEC<0.0382634] yes=107,no=108,missing=108
						107:leaf=-0.00867188
						108:leaf=0.00252509
					54:[C_D_U_CATEGORY_CITY_MAX_C<1929.75] yes=109,no=110,missing=110
						109:leaf=0.00715341
						110:leaf=-0.00429307
		6:[C_D_U_KEYWORD_CATEGORY_MAX_C<0.366484] yes=13,no=14,missing=13
			13:[D_KEYWORD_MACRO_MAX_COEC<0.0218204] yes=27,no=28,missing=28
				27:[D_CATEGORY_MAX_C<11504.7] yes=55,no=56,missing=56
					55:[CAT_REL<0.091515] yes=111,no=112,missing=112
						111:leaf=0.00294648
						112:leaf=0.0135827
					56:[D_KEYWORD_MEAN_C<233.053] yes=113,no=114,missing=114
						113:leaf=0.0265172
						114:leaf=0.0112591
				28:[DOC_AGE<12.0711] yes=57,no=58,missing=58
					57:[D_TITLEMD5_C<18.8754] yes=115,no=116,missing=115
						115:leaf=-0.000763997
						116:leaf=0.01023
					58:[D_KEYWORD_MICRO_MAX_COEC<0.120935] yes=117,no=118,missing=118
						117:leaf=0.006486
						118:leaf=-0.00373781
			14:[M_D_U_KEYWORD_KEYWORD_MACRO_MEAN_COEC<0.0008346] yes=29,no=30,missing=29
				29:[C_D_U_TITLEMD5_CATEGORY_MACRO_MEAN_COEC<0.0685584] yes=59,no=60,missing=60
					59:[C_D_U_TITLEMD5_CATEGORY_MICRO_MEAN_COEC<0.121041] yes=119,no=120,missing=120
						119:leaf=-0.00212883
						120:leaf=-0.0113948
					60:[M_D_U_KEYWORD_KEYWORD_MICRO_MEAN_COEC<0.0965847] yes=121,no=122,missing=122
						121:leaf=0.00944016
						122:leaf=-0.000744573
				30:[U_KEYWORD_MACRO_MEAN_COEC<0.0273823] yes=61,no=62,missing=62
					61:[DOC_AGE<21.015] yes=123,no=124,missing=124
						123:leaf=0.0213303
						124:leaf=-0.000536296
					62:[DOC_AGE<32.8836] yes=125,no=126,missing=126
						125:leaf=0.00298242
						126:leaf=-0.0309389
booster[72]:
0:[U_CITY_COEC<0.102018] yes=1,no=2,missing=1
	1:[C_D_U_TITLEMD5_CITY_COEC<0.150535] yes=3,no=4,missing=3
		3:[D_KEYWORD_MEAN_C<141.035] yes=7,no=8,missing=7
			7:[KW_REL<0.000507456] yes=15,no=16,missing=16
				15:[C_D_U_PUBLISHER_CITY_COEC<0.146659] yes=31,no=32,missing=32
					31:[KW_REL<4.05063e-05] yes=61,no=62,missing=62
						61:leaf=-0.00880361
						62:leaf=-0.00044811
					32:[U_KEYWORD_MICRO_MAX_COEC<0.117803] yes=63,no=64,missing=64
						63:leaf=-0.00778672
						64:leaf=0.0113303
				16:[D_KEYWORD_MEAN_C<72.7503] yes=33,no=34,missing=34
					33:[U_KEYWORD_MICRO_MAX_COEC<0.113923] yes=65,no=66,missing=66
						65:leaf=0.00811928
						66:leaf=0.0187888
					34:[C_D_U_TITLEMD5_CITY_EC<0.990024] yes=67,no=68,missing=67
						67:leaf=-0.000689261
						68:leaf=0.00677833
			8:[KW_REL<0.00459008] yes=17,no=18,missing=18
				17:[DOC_AGE<23.6978] yes=35,no=36,missing=36
					35:[D_TITLEMD5_C<665.635] yes=69,no=70,missing=69
						69:leaf=-0.00529932
						70:leaf=0.00213174
					36:[U_KEYWORD_MICRO_MAX_COEC<0.118032] yes=71,no=72,missing=71
						71:leaf=0.0014075
						72:leaf=0.0147334
				18:[U_KEYWORD_MACRO_MEAN_COEC<0.0238004] yes=37,no=38,missing=38
					37:[C_D_U_KEYWORD_CATEGORY_MAX_C<0.777657] yes=73,no=74,missing=74
						73:leaf=0.0125687
						74:leaf=0.00345297
					38:[D_KEYWORD_MACRO_MAX_COEC<0.021255] yes=75,no=76,missing=76
						75:leaf=0.00480663
						76:leaf=-0.00446293
		4:[U_CITY_EC<55679.9] yes=9,no=10,missing=10
			9:[C_D_U_TITLEMD5_CATEGORY_MICRO_MEAN_COEC<0.271187] yes=19,no=20,missing=19
				19:[U_CITY_C<4227.29] yes=39,no=40,missing=40
					39:[U_GENDER_COEC<0.0886651] yes=77,no=78,missing=78
						77:leaf=0.0095106
						78:leaf=-0.0016178
					40:[C_D_U_TITLEMD5_CITY_EC<172.497] yes=79,no=80,missing=80
						79:leaf=-0.00701092
						80:leaf=-0.0260706
				20:[WORD_COUNT<926] yes=41,no=42,missing=42
					41:[U_KEYWORD_MICRO_MEAN_COEC<0.101583] yes=81,no=82,missing=82
						81:leaf=-0.0192621
						82:leaf=0.0073255
					42:[DOC_AGE<49.3172] yes=83,no=84,missing=84
						83:leaf=0.0197957
						84:leaf=-0.0171711
			10:[C_D_U_TITLEMD5_CATEGORY_MICRO_MEAN_COEC<0.0883567] yes=21,no=22,missing=22
				21:[C_D_U_TITLEMD5_CITY_C<7.86719] yes=43,no=44,missing=44
					43:[C_D_U_CATEGORY_CITY_MACRO_MEAN_COEC<0.106702] yes=85,no=86,missing=86
						85:leaf=0.00799992
						86:leaf=0.0275745
					44:[U_CITY_EC<151232] yes=87,no=88,missing=88
						87:leaf=0.0748245
						88:leaf=0.0175839
				22:[D_CATEGORY_MACRO_MAX_COEC<0.117159] yes=45,no=46,missing=45
					45:[C_D_U_TITLEMD5_CITY_C<1.98507] yes=89,no=90,missing=90
						89:leaf=-0.00307671
						90:leaf=0.00807537
					46:[C_D_U_TITLEMD5_CATEGORY_MICRO_MEAN_COEC<0.271187] yes=91,no=92,missing=91
						91:leaf=-0.00063912
						92:leaf=0.0107604
	2:[U_CATEGORY_MEAN_C<189.778] yes=5,no=6,missing=6
		5:[U_KEYWORD_MEAN_C<135.448] yes=11,no=12,missing=12
			11:[DOC_AGE<49.3172] yes=23,no=24,missing=24
				23:[U_GENDER_COEC<0.0930171] yes=47,no=48,missing=48
					47:[C_D_U_CATEGORY_CITY_MICRO_MEAN_COEC<0.0593606] yes=93,no=94,missing=94
						93:leaf=0.162518
						94:leaf=0.120353
					48:[C_D_U_CATEGORY_AGE_MACRO_MEAN_COEC<0.0699827] yes=95,no=96,missing=96
						95:leaf=-0.11692
						96:leaf=0.0966497
				24:leaf=-0.0925642
			12:[U_CATEGORY_MICRO_MEAN_COEC<0.098047] yes=25,no=26,missing=26
				25:[D_PUBLISHER_EC<14311.7] yes=49,no=50,missing=50
					49:leaf=-0.112048
					50:leaf=-0.192171
				26:[C_D_U_TITLEMD5_AGE_COEC<0.0865124] yes=51,no=52,missing=52
					51:leaf=-0.215281
					52:[DOC_AGE<3.56805] yes=97,no=98,missing=98
						97:leaf=-0.136124
						98:leaf=0.102306
		6:[U_CATEGORY_MACRO_MAX_COEC<0.0112688] yes=13,no=14,missing=13
			13:[U_CATEGORY_MICRO_MEAN_COEC<0.0984918] yes=27,no=28,missing=27
				27:[TIME_OF_DAY<18] yes=53,no=54,missing=54
					53:[U_AGE_EC<47818.3] yes=99,no=100,missing=100
						99:leaf=-0.0722959
						100:leaf=0.00846383
					54:[U_CITY_EC<259.959] yes=101,no=102,missing=102
						101:leaf=0.0657149
						102:leaf=0.0242584
				28:[C_D_U_CATEGORY_AGE_MEAN_EC<3085.57] yes=55,no=56,missing=55
					55:[U_CATEGORY_MICRO_MEAN_COEC<0.108336] yes=103,no=104,missing=104
						103:leaf=0.0523491
						104:leaf=0.103789
					56:[U_CATEGORY_MICRO_MAX_COEC<0.123678] yes=105,no=106,missing=106
						105:leaf=0.036822
						106:leaf=-0.0207537
			14:[C_D_U_CATEGORY_CITY_MACRO_MEAN_COEC<0.112731] yes=29,no=30,missing=30
				29:[D_CATEGORY_MAX_EC<14692.6] yes=57,no=58,missing=58
					57:[U_KEYWORD_MEAN_EC<1706.49] yes=107,no=108,missing=108
						107:leaf=0.0206169
						108:leaf=-0.0849251
					58:[U_CATEGORY_MEAN_C<1319.04] yes=109,no=110,missing=110
						109:leaf=-0.00656235
						110:leaf=0.00690923
				30:[M_D_U_KEYWORD_KEYWORD_MICRO_MEAN_COEC<0.0830916] yes=59,no=60,missing=60
					59:[C_D_U_KEYWORD_CATEGORY_MICRO_MEAN_COEC<0.0586011] yes=111,no=112,missing=112
						111:leaf=-0.060483
						112:leaf=0.0294862
					60:[D_KEYWORD_MEAN_C<491.606] yes=113,no=114,missing=114
						113:leaf=0.0106703
						114:leaf=-0.00181015
booster[73]:
0:[DOC_AGE<4.01194] yes=1,no=2,missing=2
	1:[D_TITLEMD5_C<34.9993] yes=3,no=4,missing=3
		3:[DOC_AGE<0.78361] yes=7,no=8,missing=8
			7:[D_TITLEMD5_C<5.98002] yes=15,no=16,missing=15
				15:[CAT_REL<0.023551] yes=31,no=32,missing=32
					31:[D_PUBLISHER_COEC<0.0628737] yes=63,no=64,missing=64
						63:leaf=-0.0234416
						64:leaf=-0.000792712
					32:[C_D_U_TITLEMD5_CATEGORY_MICRO_MEAN_COEC<0.0651872] yes=65,no=66,missing=66
						65:leaf=0.0109617
						66:leaf=-0.00201516
				16:[D_TITLEMD5_COEC<0.0340638] yes=33,no=34,missing=34
					33:[C_D_U_TITLEMD5_CATEGORY_MACRO_MEAN_COEC<0.0125193] yes=67,no=68,missing=67
						67:leaf=-0.0231812
						68:leaf=0.00788432
					34:[C_D_U_TITLEMD5_CATEGORY_MICRO_MEAN_COEC<0.0961952] yes=69,no=70,missing=69
						69:leaf=0.0250044
						70:leaf=0.0109883
			8:[CAT_REL<0.108551] yes=17,no=18,missing=18
				17:[C_D_U_KEYWORD_CATEGORY_MEAN_EC<4.9514] yes=35,no=36,missing=35
					35:[D_KEYWORD_MACRO_MEAN_COEC<0.0662965] yes=71,no=72,missing=72
						71:leaf=-0.00507986
						72:leaf=0.00610624
					36:[D_TITLEMD5_C<4.71914] yes=73,no=74,missing=73
						73:leaf=-0.0174825
						74:leaf=-0.00437904
				18:[D_CATEGORY_MEAN_C<5161.22] yes=37,no=38,missing=38
					37:[U_CATEGORY_MAX_EC<5030.91] yes=75,no=76,missing=76
						75:leaf=0.0216574
						76:leaf=0.00260647
					38:[U_KEYWORD_MACRO_MAX_COEC<0.00105012] yes=77,no=78,missing=78
						77:leaf=0.0566559
						78:leaf=-0.00383178
		4:[DOC_AGE<1.00111] yes=9,no=10,missing=10
			9:[D_TITLEMD5_COEC<0.0966658] yes=19,no=20,missing=20
				19:[U_KEYWORD_MAX_C<16.9202] yes=39,no=40,missing=40
					39:[C_D_U_PUBLISHER_CITY_COEC<0.0743689] yes=79,no=80,missing=80
						79:leaf=-0.0652049
						80:leaf=0.0116825
					40:[D_KEYWORD_MAX_C<387.903] yes=81,no=82,missing=82
						81:leaf=0.0431985
						82:leaf=-0.00653262
				20:[C_D_U_TITLEMD5_GENDER_EC<351.742] yes=41,no=42,missing=41
					41:[D_CATEGORY_MACRO_MEAN_COEC<0.0907909] yes=83,no=84,missing=84
						83:leaf=-0.0103708
						84:leaf=0.0136743
					42:[U_KEYWORD_MICRO_MEAN_COEC<0.0909823] yes=85,no=86,missing=86
						85:leaf=0.2397
						86:leaf=0.0429217
			10:[C_D_U_TITLEMD5_CATEGORY_MICRO_MEAN_COEC<0.0302218] yes=21,no=22,missing=22
				21:[C_D_U_TITLEMD5_CITY_COEC<0.124404] yes=43,no=44,missing=43
					43:[U_AGE_C<87565.3] yes=87,no=88,missing=87
						87:leaf=-0.0172397
						88:leaf=-0.0706584
					44:[D_CATEGORY_MAX_EC<34878] yes=89,no=90,missing=90
						89:leaf=-0.0694412
						90:leaf=0.0526772
				22:[CAT_REL<0.00999966] yes=45,no=46,missing=46
					45:[D_CATEGORY_MEAN_C<1835.84] yes=91,no=92,missing=91
						91:leaf=0.013257
						92:leaf=0.00185644
					46:[U_KEYWORD_MAX_EC<36.9423] yes=93,no=94,missing=94
						93:leaf=-0.0808698
						94:leaf=0.00964988
	2:[C_D_U_TITLEMD5_AGE_COEC<0.11851] yes=5,no=6,missing=5
		5:[DOC_AGE<23.1503] yes=11,no=12,missing=12
			11:[C_D_U_TITLEMD5_CATEGORY_MACRO_MEAN_COEC<0.048423] yes=23,no=24,missing=24
				23:[C_D_U_TITLEMD5_CATEGORY_MICRO_MEAN_COEC<0.114278] yes=47,no=48,missing=48
					47:[TIME_OF_DAY<13] yes=95,no=96,missing=96
						95:leaf=-0.00150574
						96:leaf=-0.00944214
					48:[D_CATEGORY_MICRO_MEAN_COEC<0.0789049] yes=97,no=98,missing=98
						97:leaf=-0.0243837
						98:leaf=-0.00942435
				24:[TIME_OF_DAY<19] yes=49,no=50,missing=50
					49:[KW_REL<0.000973974] yes=99,no=100,missing=100
						99:leaf=-0.00442494
						100:leaf=0.000700643
					50:[U_CITY_C<719.287] yes=101,no=102,missing=101
						101:leaf=0.0154443
						102:leaf=0.00335635
			12:[C_D_U_TITLEMD5_CATEGORY_MICRO_MEAN_COEC<0.0940789] yes=25,no=26,missing=26
				25:[D_TITLEMD5_COEC<0.312965] yes=51,no=52,missing=52
					51:[C_D_U_CATEGORY_AGE_MAX_EC<26494.4] yes=103,no=104,missing=103
						103:leaf=0.00588472
						104:leaf=0.0196307
					52:[D_CATEGORY_MACRO_MEAN_COEC<0.0713963] yes=105,no=106,missing=106
						105:leaf=-0.064847
						106:leaf=-0.0219961
				26:[C_D_U_TITLEMD5_CATEGORY_MEAN_EC<5.93986] yes=53,no=54,missing=54
					53:[D_KEYWORD_MAX_C<12.6648] yes=107,no=108,missing=108
						107:leaf=0.0143104
						108:leaf=-0.0112972
					54:[D_KEYWORD_MACRO_MEAN_COEC<0.0951706] yes=109,no=110,missing=109
						109:leaf=0.00513456
						110:leaf=-0.00281786
		6:[C_D_U_TITLEMD5_CATEGORY_MICRO_MEAN_COEC<0.1039] yes=13,no=14,missing=14
			13:[DOC_AGE<81.6606] yes=27,no=28,missing=28
				27:[C_D_U_TITLEMD5_GENDER_COEC<0.129597] yes=55,no=56,missing=56
					55:[D_KEYWORD_MEAN_EC<876.841] yes=111,no=112,missing=111
						111:leaf=0.032208
						112:leaf=0.0041349
					56:[U_AGE_COEC<0.0947451] yes=113,no=114,missing=114
						113:leaf=0.0339596
						114:leaf=0.0152824
				28:[U_AGE_COEC<0.096593] yes=57,no=58,missing=58
					57:[M_D_U_KEYWORD_KEYWORD_MICRO_MAX_COEC<0.124659] yes=115,no=116,missing=116
						115:leaf=0.0467336
						116:leaf=0.109946
					58:[C_D_U_CATEGORY_CITY_MEAN_C<64.3277] yes=117,no=118,missing=117
						117:leaf=-0.0565783
						118:leaf=0.0526718
			14:[U_KEYWORD_MAX_C<26.1079] yes=29,no=30,missing=29
				29:[U_CITY_EC<163720] yes=59,no=60,missing=59
					59:[U_AGE_COEC<0.0969774] yes=119,no=120,missing=120
						119:leaf=0.0055469
						120:leaf=-0.00216572
					60:[U_GENDER_EC<755942] yes=121,no=122,missing=121
						121:leaf=0.014211
						122:leaf=0.00476135
				30:[U_CATEGORY_MEAN_EC<6366.84] yes=61,no=62,missing=61
					61:[C_D_U_CATEGORY_GENDER_MAX_EC<70161.1] yes=123,no=124,missing=124
						123:leaf=-0.00762237
						124:leaf=-0.0251149
					62:[U_KEYWORD_MICRO_MAX_COEC<0.113213] yes=125,no=126,missing=126
						125:leaf=-0.00380743
						126:leaf=0.00348389
booster[74]:
0:[IMAGE_COUNT<0.999999] yes=1,no=2,missing=2
	1:[D_TITLEMD5_COEC<0.0758974] yes=3,no=4,missing=4
		3:[U_KEYWORD_MAX_EC<219.641] yes=7,no=8,missing=7
			7:[U_KEYWORD_MICRO_MAX_COEC<0.117476] yes=15,no=16,missing=15
				15:[D_CATEGORY_MAX_EC<133109] yes=31,no=32,missing=31
					31:[C_D_U_TITLEMD5_CITY_C<16.8642] yes=63,no=64,missing=63
						63:leaf=-0.0325851
						64:leaf=0.23355
					32:[C_D_U_TITLEMD5_CATEGORY_MACRO_MAX_COEC<0.0277611] yes=65,no=66,missing=65
						65:leaf=-0.00578924
						66:leaf=-0.0719137
				16:[U_CATEGORY_MICRO_MAX_COEC<0.120082] yes=33,no=34,missing=33
					33:[U_CITY_COEC<0.0901634] yes=67,no=68,missing=67
						67:leaf=-0.0253564
						68:leaf=0.0453356
					34:[C_D_U_CATEGORY_CATEGORY_MICRO_MEAN_COEC<0.0671437] yes=69,no=70,missing=70
						69:leaf=-0.086071
						70:leaf=0.101976
			8:[DAY_OF_WEEK<6] yes=17,no=18,missing=18
				17:[DOC_AGE<10.9556] yes=35,no=36,missing=36
					35:[DOC_AGE<1.17667] yes=71,no=72,missing=72
						71:leaf=-0.0012779
						72:leaf=-0.0234729
					36:[C_D_U_TITLEMD5_CATEGORY_MEAN_EC<0.417895] yes=73,no=74,missing=73
						73:leaf=-0.0094973
						74:leaf=0.0312089
				18:[C_D_U_CATEGORY_CITY_MAX_C<849.614] yes=37,no=38,missing=37
					37:[D_TITLEMD5_C<38.908] yes=75,no=76,missing=76
						75:leaf=0.0129574
						76:leaf=-0.0459619
					38:[C_D_U_CATEGORY_CATEGORY_MAX_EC<640.575] yes=77,no=78,missing=78
						77:leaf=0.0543861
						78:leaf=-0.0191142
		4:[DOC_AGE<0.80611] yes=9,no=10,missing=10
			9:[D_CATEGORY_MAX_C<17047.3] yes=19,no=20,missing=19
				19:[C_D_U_TITLEMD5_AGE_COEC<0.168595] yes=39,no=40,missing=40
					39:[D_CATEGORY_MACRO_MEAN_COEC<0.065564] yes=79,no=80,missing=80
						79:leaf=0.0935697
						80:leaf=0.0128456
					40:[U_AGE_COEC<0.099465] yes=81,no=82,missing=81
						81:leaf=-0.00920634
						82:leaf=-0.0746953
				20:[M_D_U_KEYWORD_KEYWORD_MICRO_MAX_COEC<0.120054] yes=41,no=42,missing=42
					41:[C_D_U_CATEGORY_GENDER_MACRO_MAX_COEC<0.0991923] yes=83,no=84,missing=84
						83:leaf=-0.1345
						84:leaf=0.0195807
					42:[C_D_U_TITLEMD5_CATEGORY_MACRO_MEAN_COEC<0.00644753] yes=85,no=86,missing=85
						85:leaf=-0.0685139
						86:leaf=-0.17263
			10:[C_D_U_CATEGORY_CATEGORY_MICRO_MAX_COEC<0.131797] yes=21,no=22,missing=22
				21:[U_CITY_COEC<0.0814133] yes=43,no=44,missing=44
					43:[U_CATEGORY_MICRO_MAX_COEC<0.0967565] yes=87,no=88,missing=88
						87:leaf=-0.111518
						88:leaf=-0.0612225
					44:[D_TITLEMD5_COEC<0.126819] yes=89,no=90,missing=90
						89:leaf=-0.030235
						90:leaf=-0.0518784
				22:[U_CATEGORY_MICRO_MEAN_COEC<0.106927] yes=45,no=46,missing=45
					45:[M_D_U_KEYWORD_KEYWORD_MICRO_MAX_COEC<0.0817732] yes=91,no=92,missing=92
						91:leaf=-0.127823
						92:leaf=-0.0263689
					46:[D_PUBLISHER_EC<31158] yes=93,no=94,missing=94
						93:leaf=0.0184573
						94:leaf=-0.121772
	2:[DOC_AGE<2.42667] yes=5,no=6,missing=6
		5:[C_D_U_TITLEMD5_CATEGORY_MICRO_MEAN_COEC<0.146902] yes=11,no=12,missing=11
			11:[D_TITLEMD5_C<27.5784] yes=23,no=24,missing=23
				23:[C_D_U_CATEGORY_CATEGORY_MICRO_MAX_COEC<0.134809] yes=47,no=48,missing=47
					47:[C_D_U_CATEGORY_CATEGORY_MICRO_MEAN_COEC<0.0499019] yes=95,no=96,missing=96
						95:leaf=-0.0134594
						96:leaf=0.00254968
					48:[DOC_AGE<0.538888] yes=97,no=98,missing=98
						97:leaf=0.0227173
						98:leaf=0.00879774
				24:[U_KEYWORD_MICRO_MEAN_COEC<0.100052] yes=49,no=50,missing=49
					49:[U_GENDER_COEC<0.0898822] yes=99,no=100,missing=100
						99:leaf=0.0197913
						100:leaf=0.00708707
					50:[D_CATEGORY_MAX_C<15914.6] yes=101,no=102,missing=102
						101:leaf=0.0131448
						102:leaf=0.0263743
			12:[C_D_U_CATEGORY_CATEGORY_MICRO_MEAN_COEC<0.148752] yes=25,no=26,missing=26
				25:[KW_REL<0.0055592] yes=51,no=52,missing=52
					51:[D_TITLEMD5_COEC<0.151677] yes=103,no=104,missing=104
						103:leaf=-0.0105818
						104:leaf=0.000396532
					52:[U_KEYWORD_MEAN_C<204.931] yes=105,no=106,missing=106
						105:leaf=0.0110471
						106:leaf=-0.103441
				26:[D_CATEGORY_MACRO_MEAN_COEC<0.0774655] yes=53,no=54,missing=54
					53:[C_D_U_TITLEMD5_CATEGORY_MACRO_MAX_COEC<0.0327004] yes=107,no=108,missing=108
						107:leaf=0.0178604
						108:leaf=0.0629219
					54:[D_KEYWORD_MAX_C<62.9486] yes=109,no=110,missing=110
						109:leaf=0.025331
						110:leaf=-4.77083e-05
		6:[D_TITLEMD5_C<116.88] yes=13,no=14,missing=13
			13:[D_KEYWORD_MEAN_EC<1858.31] yes=27,no=28,missing=27
				27:[KW_REL<0.00165862] yes=55,no=56,missing=56
					55:[D_KEYWORD_MICRO_MEAN_COEC<0.131221] yes=111,no=112,missing=112
						111:leaf=-0.00228343
						112:leaf=0.0171806
					56:[C_D_U_KEYWORD_CATEGORY_MAX_C<0.104132] yes=113,no=114,missing=113
						113:leaf=0.0136469
						114:leaf=0.00306098
				28:[KW_REL<0.00375353] yes=57,no=58,missing=58
					57:[DOC_AGE<24.0047] yes=115,no=116,missing=116
						115:leaf=-0.00872169
						116:leaf=0.0028977
					58:[C_D_U_KEYWORD_CATEGORY_MEAN_C<2.50332] yes=117,no=118,missing=117
						117:leaf=0.00742323
						118:leaf=-0.00362758
			14:[WORD_COUNT<1480] yes=29,no=30,missing=30
				29:[U_KEYWORD_MEAN_C<148.822] yes=59,no=60,missing=59
					59:[C_D_U_TITLEMD5_CITY_COEC<0.204454] yes=119,no=120,missing=119
						119:leaf=-0.00387248
						120:leaf=0.00396958
					60:[U_KEYWORD_MAX_EC<350.711] yes=121,no=122,missing=122
						121:leaf=0.00808304
						122:leaf=-0.000239286
				30:[DOC_AGE<50.1] yes=61,no=62,missing=62
					61:[C_D_U_TITLEMD5_CATEGORY_MICRO_MAX_COEC<0.310809] yes=123,no=124,missing=123
						123:leaf=0.00226956
						124:leaf=0.0118619
					62:[C_D_U_KEYWORD_CATEGORY_MACRO_MEAN_COEC<0.0474025] yes=125,no=126,missing=125
						125:leaf=-0.00170322
						126:leaf=-0.021901
booster[75]:
0:[U_KEYWORD_MICRO_MEAN_COEC<0.0918816] yes=1,no=2,missing=2
	1:[U_KEYWORD_MACRO_MEAN_COEC<0.0221237] yes=3,no=4,missing=4
		3:[KW_REL<3.73993e-05] yes=7,no=8,missing=8
			7:[U_KEYWORD_MEAN_EC<508.728] yes=15,no=16,missing=16
				15:[U_GENDER_EC<844529] yes=31,no=32,missing=31
					31:[C_D_U_CATEGORY_CITY_MAX_EC<63025.2] yes=63,no=64,missing=63
						63:leaf=-0.0684672
						64:leaf=0.0369751
					32:[C_D_U_CATEGORY_GENDER_MACRO_MAX_COEC<0.0917236] yes=65,no=66,missing=66
						65:leaf=-0.07928
						66:leaf=0.129034
				16:[C_D_U_PUBLISHER_CITY_C<133.242] yes=33,no=34,missing=33
					33:[U_KEYWORD_MEAN_C<116.416] yes=67,no=68,missing=68
						67:leaf=-0.0456102
						68:leaf=0.0422974
					34:[D_CATEGORY_MAX_C<6089.73] yes=69,no=70,missing=69
						69:leaf=0.0644726
						70:leaf=-0.0290294
			8:[CAT_REL<0.038134] yes=17,no=18,missing=18
				17:[U_KEYWORD_MAX_EC<194.136] yes=35,no=36,missing=36
					35:[U_AGE_C<81536.2] yes=71,no=72,missing=71
						71:leaf=-0.00664835
						72:leaf=-0.0399201
					36:[TIME_OF_DAY<20] yes=73,no=74,missing=74
						73:leaf=-0.0333217
						74:leaf=0.0432728
				18:[U_CATEGORY_MACRO_MEAN_COEC<0.0571327] yes=37,no=38,missing=38
					37:[C_D_U_CATEGORY_CATEGORY_MICRO_MAX_COEC<0.0512274] yes=75,no=76,missing=76
						75:leaf=-0.060731
						76:leaf=0.00575894
					38:[CAT_REL<0.246549] yes=77,no=78,missing=78
						77:leaf=-0.033962
						78:leaf=0.0570351
		4:[U_KEYWORD_MEAN_EC<885.55] yes=9,no=10,missing=10
			9:[U_KEYWORD_MICRO_MEAN_COEC<0.0779769] yes=19,no=20,missing=20
				19:[D_KEYWORD_MICRO_MEAN_COEC<0.102656] yes=39,no=40,missing=40
					39:[C_D_U_CATEGORY_AGE_MICRO_MEAN_COEC<0.133923] yes=79,no=80,missing=79
						79:leaf=-0.0372226
						80:leaf=0.0953473
					40:[U_KEYWORD_MACRO_MEAN_COEC<0.030024] yes=81,no=82,missing=82
						81:leaf=-0.0359135
						82:leaf=0.011489
				20:[U_CATEGORY_MACRO_MAX_COEC<0.0127305] yes=41,no=42,missing=41
					41:[U_KEYWORD_MICRO_MAX_COEC<0.118322] yes=83,no=84,missing=84
						83:leaf=0.0236954
						84:leaf=-0.0224943
					42:[U_KEYWORD_MEAN_EC<508.728] yes=85,no=86,missing=86
						85:leaf=0.00903917
						86:leaf=-0.0048878
			10:[TIME_OF_DAY<18] yes=21,no=22,missing=22
				21:[U_CATEGORY_MEAN_EC<5664.82] yes=43,no=44,missing=43
					43:[TIME_OF_DAY<10] yes=87,no=88,missing=88
						87:leaf=-0.00760434
						88:leaf=0.118868
					44:[U_KEYWORD_MEAN_EC<1392.94] yes=89,no=90,missing=90
						89:leaf=-0.0109544
						90:leaf=-0.029166
				22:[U_CATEGORY_MACRO_MEAN_COEC<0.0428923] yes=45,no=46,missing=46
					45:[C_D_U_TITLEMD5_CATEGORY_MICRO_MEAN_COEC<0.12159] yes=91,no=92,missing=92
						91:leaf=0.0867801
						92:leaf=-0.00521006
					46:[C_D_U_KEYWORD_CATEGORY_MACRO_MEAN_COEC<0.0394317] yes=93,no=94,missing=93
						93:leaf=-0.0425789
						94:leaf=0.0061736
	2:[DAY_OF_WEEK<0.999999] yes=5,no=6,missing=6
		5:[U_KEYWORD_MICRO_MEAN_COEC<0.0987718] yes=11,no=12,missing=11
			11:[U_GENDER_EC<879043] yes=23,no=24,missing=23
				23:[U_CATEGORY_MICRO_MEAN_COEC<0.0844443] yes=47,no=48,missing=48
					47:[U_KEYWORD_MICRO_MAX_COEC<0.104512] yes=95,no=96,missing=96
						95:leaf=0.00108171
						96:leaf=0.0130136
					48:[TIME_OF_DAY<18] yes=97,no=98,missing=98
						97:leaf=0.000514976
						98:leaf=0.0107833
				24:[U_CATEGORY_MAX_C<181.374] yes=49,no=50,missing=50
					49:[U_KEYWORD_MACRO_MEAN_COEC<0.020846] yes=99,no=100,missing=100
						99:leaf=0.0575493
						100:leaf=-0.111805
					50:[U_KEYWORD_MEAN_C<124.427] yes=101,no=102,missing=102
						101:leaf=0.147517
						102:leaf=0.0725898
			12:[U_KEYWORD_MICRO_MAX_COEC<0.113229] yes=25,no=26,missing=26
				25:[U_CATEGORY_MICRO_MEAN_COEC<0.110408] yes=51,no=52,missing=52
					51:[C_D_U_TITLEMD5_AGE_C<28.3003] yes=103,no=104,missing=104
						103:leaf=-0.0206476
						104:leaf=0.00907818
					52:[C_D_U_TITLEMD5_CATEGORY_MICRO_MEAN_COEC<0.113706] yes=105,no=106,missing=106
						105:leaf=0.179283
						106:leaf=0.123625
				26:[U_CATEGORY_MACRO_MAX_COEC<0.0101056] yes=53,no=54,missing=54
					53:[U_AGE_C<77343.6] yes=107,no=108,missing=108
						107:leaf=-0.0468823
						108:leaf=0.07686
					54:[U_KEYWORD_MEAN_C<116.416] yes=109,no=110,missing=110
						109:leaf=0.0101738
						110:leaf=0.0350634
		6:[U_KEYWORD_MICRO_MEAN_COEC<0.10008] yes=13,no=14,missing=14
			13:[DAY_OF_WEEK<6] yes=27,no=28,missing=28
				27:[DAY_OF_WEEK<3] yes=55,no=56,missing=56
					55:[TIME_OF_DAY<13] yes=111,no=112,missing=112
						111:leaf=0.00303073
						112:leaf=-0.00788787
					56:[D_TITLEMD5_COEC<0.0451792] yes=113,no=114,missing=113
						113:leaf=-0.0193818
						114:leaf=-0.00769286
				28:[U_CATEGORY_MEAN_EC<1602.91] yes=57,no=58,missing=58
					57:[U_GENDER_EC<783268] yes=115,no=116,missing=116
						115:leaf=0.1117
						116:leaf=-0.0240953
					58:[U_CATEGORY_MEAN_C<171.446] yes=117,no=118,missing=118
						117:leaf=-0.124093
						118:leaf=0.00234599
			14:[U_KEYWORD_MACRO_MAX_COEC<0.00105054] yes=29,no=30,missing=30
				29:[U_CATEGORY_MEAN_C<660.125] yes=59,no=60,missing=60
					59:[U_CATEGORY_MACRO_MEAN_COEC<0.0608442] yes=119,no=120,missing=120
						119:leaf=0.0134504
						120:leaf=-0.0363304
					60:[U_KEYWORD_MACRO_MEAN_COEC<0.0196383] yes=121,no=122,missing=122
						121:leaf=0.0677198
						122:leaf=0.0176426
				30:[D_PUBLISHER_EC<81624.4] yes=61,no=62,missing=61
					61:[U_CITY_COEC<0.0829531] yes=123,no=124,missing=124
						123:leaf=-0.00512553
						124:leaf=0.00100733
					62:[D_TITLEMD5_EC<4947.02] yes=125,no=126,missing=126
						125:leaf=0.00408424
						126:leaf=0.0137286
booster[76]:
0:[D_KEYWORD_MEAN_C<325.776] yes=1,no=2,missing=1
	1:[M_D_U_KEYWORD_KEYWORD_MEAN_EC<0.255941] yes=3,no=4,missing=3
		3:[C_D_U_TITLEMD5_GENDER_COEC<0.111151] yes=7,no=8,missing=7
			7:[U_GENDER_COEC<0.0920919] yes=15,no=16,missing=15
				15:[C_D_U_CATEGORY_CITY_MACRO_MAX_COEC<0.135509] yes=31,no=32,missing=32
					31:[U_CATEGORY_MACRO_MAX_COEC<0.0182125] yes=63,no=64,missing=64
						63:leaf=0.00167017
						64:leaf=-0.00393366
					32:[C_D_U_CATEGORY_CATEGORY_MICRO_MAX_COEC<0.206047] yes=65,no=66,missing=66
						65:leaf=0.000103131
						66:leaf=0.0116302
				16:[U_KEYWORD_MICRO_MEAN_COEC<0.101097] yes=33,no=34,missing=33
					33:[U_GENDER_C<67607.5] yes=67,no=68,missing=68
						67:leaf=-0.00408315
						68:leaf=-0.014738
					34:[D_KEYWORD_MEAN_EC<2538.75] yes=69,no=70,missing=69
						69:leaf=0.00265184
						70:leaf=-0.00950246
			8:[U_KEYWORD_MAX_C<29.8092] yes=17,no=18,missing=18
				17:[KW_REL<0.00138852] yes=35,no=36,missing=36
					35:[D_KEYWORD_MACRO_MEAN_COEC<0.0649257] yes=71,no=72,missing=72
						71:leaf=-0.016715
						72:leaf=0.00710354
					36:[C_D_U_TITLEMD5_CATEGORY_MICRO_MEAN_COEC<0.0990513] yes=73,no=74,missing=74
						73:leaf=0.0256899
						74:leaf=0.0121267
				18:[C_D_U_PUBLISHER_AGE_EC<11544.7] yes=37,no=38,missing=38
					37:[U_CITY_COEC<0.0821492] yes=75,no=76,missing=75
						75:leaf=-0.00210726
						76:leaf=0.00679403
					38:[U_CATEGORY_MICRO_MAX_COEC<0.116842] yes=77,no=78,missing=78
						77:leaf=3.2295e-05
						78:leaf=-0.0107088
		4:[KW_REL<0.00204323] yes=9,no=10,missing=10
			9:[D_CATEGORY_MICRO_MEAN_COEC<0.0623962] yes=19,no=20,missing=19
				19:[C_D_U_TITLEMD5_GENDER_COEC<0.0222336] yes=39,no=40,missing=40
					39:[C_D_U_CATEGORY_CATEGORY_MICRO_MAX_COEC<0.160934] yes=79,no=80,missing=79
						79:leaf=-0.043668
						80:leaf=0.150524
					40:[WORD_COUNT<2595] yes=81,no=82,missing=82
						81:leaf=0.0378555
						82:leaf=0.0118852
				20:[D_KEYWORD_MACRO_MEAN_COEC<0.0640488] yes=41,no=42,missing=42
					41:[CAT_REL<0.169456] yes=83,no=84,missing=84
						83:leaf=-0.00857056
						84:leaf=0.0199388
					42:[CAT_REL<0.016499] yes=85,no=86,missing=86
						85:leaf=-0.000495982
						86:leaf=0.0150731
			10:[U_KEYWORD_MICRO_MAX_COEC<0.111961] yes=21,no=22,missing=22
				21:[D_KEYWORD_MAX_EC<1797.85] yes=43,no=44,missing=44
					43:[C_D_U_CATEGORY_CATEGORY_MEAN_EC<1136.97] yes=87,no=88,missing=88
						87:leaf=-0.0306834
						88:leaf=0.00296568
					44:[CAT_REL<0.092126] yes=89,no=90,missing=90
						89:leaf=-0.00182338
						90:leaf=0.0203029
				22:[U_KEYWORD_MACRO_MAX_COEC<0.00168575] yes=45,no=46,missing=46
					45:[D_CATEGORY_MACRO_MAX_COEC<0.0825311] yes=91,no=92,missing=92
						91:leaf=0.0279966
						92:leaf=0.0549379
					46:[M_D_U_KEYWORD_KEYWORD_MICRO_MEAN_COEC<0.0839157] yes=93,no=94,missing=94
						93:leaf=0.0233113
						94:leaf=0.00543751
	2:[D_TITLEMD5_COEC<0.058324] yes=5,no=6,missing=6
		5:[C_D_U_TITLEMD5_CITY_EC<18.6447] yes=11,no=12,missing=11
			11:[DOC_AGE<0.970555] yes=23,no=24,missing=24
				23:[D_CATEGORY_MACRO_MAX_COEC<0.0800151] yes=47,no=48,missing=48
					47:[C_D_U_KEYWORD_CATEGORY_MICRO_MEAN_COEC<0.0730361] yes=95,no=96,missing=95
						95:leaf=-0.00771227
						96:leaf=0.0188884
					48:[D_CATEGORY_MAX_C<21952.6] yes=97,no=98,missing=97
						97:leaf=-0.0334453
						98:leaf=-5.87362e-05
				24:[DOC_AGE<17.58] yes=49,no=50,missing=50
					49:[U_CATEGORY_MACRO_MEAN_COEC<0.0266399] yes=99,no=100,missing=100
						99:leaf=0.068002
						100:leaf=-0.0216405
					50:[C_D_U_TITLEMD5_CATEGORY_MACRO_MAX_COEC<0.0145056] yes=101,no=102,missing=101
						101:leaf=-0.000254799
						102:leaf=-0.0224634
			12:[TIME_OF_DAY<15] yes=25,no=26,missing=26
				25:[C_D_U_TITLEMD5_CITY_EC<205.872] yes=51,no=52,missing=52
					51:[C_D_U_CATEGORY_CITY_MAX_C<24.794] yes=103,no=104,missing=103
						103:leaf=0.0406085
						104:leaf=-0.00156609
					52:[C_D_U_TITLEMD5_CATEGORY_MICRO_MAX_COEC<0.057458] yes=105,no=106,missing=105
						105:leaf=-0.000271271
						106:leaf=0.0268084
				26:[C_D_U_CATEGORY_CATEGORY_MICRO_MEAN_COEC<0.0949953] yes=53,no=54,missing=53
					53:[DOC_AGE<19.5117] yes=107,no=108,missing=108
						107:leaf=-0.0228264
						108:leaf=0.00726121
					54:[D_TITLEMD5_EC<4984.96] yes=109,no=110,missing=110
						109:leaf=-0.00523792
						110:leaf=0.0365269
		6:[KW_REL<0.00518145] yes=13,no=14,missing=14
			13:[D_TITLEMD5_EC<4238.23] yes=27,no=28,missing=28
				27:[D_CATEGORY_MEAN_EC<17550.4] yes=55,no=56,missing=55
					55:[D_KEYWORD_MAX_C<876.48] yes=111,no=112,missing=112
						111:leaf=0.00418917
						112:leaf=0.026947
					56:[D_TITLEMD5_COEC<0.108831] yes=113,no=114,missing=113
						113:leaf=-0.00762702
						114:leaf=-0.000694002
				28:[C_D_U_TITLEMD5_CATEGORY_MICRO_MEAN_COEC<0.319135] yes=57,no=58,missing=57
					57:[D_PUBLISHER_EC<62205.7] yes=115,no=116,missing=115
						115:leaf=-0.00151415
						116:leaf=0.00595088
					58:[KW_REL<0.00270774] yes=117,no=118,missing=118
						117:leaf=0.026447
						118:leaf=-0.0149088
			14:[U_CATEGORY_MACRO_MEAN_COEC<0.0513044] yes=29,no=30,missing=30
				29:[C_D_U_KEYWORD_CATEGORY_MEAN_C<2.21768] yes=59,no=60,missing=60
					59:[D_KEYWORD_MACRO_MAX_COEC<0.0272845] yes=119,no=120,missing=120
						119:leaf=0.0322918
						120:leaf=0.0137816
					60:[U_KEYWORD_MAX_C<32.4954] yes=121,no=122,missing=122
						121:leaf=0.0130788
						122:leaf=0.00307312
				30:[U_KEYWORD_MICRO_MEAN_COEC<0.0981457] yes=61,no=62,missing=62
					61:[D_KEYWORD_MICRO_MEAN_COEC<0.19312] yes=123,no=124,missing=124
						123:leaf=-0.0078947
						124:leaf=-0.220177
					62:[DOC_AGE<12.3236] yes=125,no=126,missing=126
						125:leaf=0.00824447
						126:leaf=-0.00309623
booster[77]:
0:[D_CATEGORY_MICRO_MAX_COEC<0.0616178] yes=1,no=2,missing=1
	1:[C_D_U_CATEGORY_CATEGORY_MICRO_MEAN_COEC<0.0364411] yes=3,no=4,missing=4
		3:[D_TITLEMD5_C<5.89602] yes=7,no=8,missing=7
			7:[U_KEYWORD_MAX_EC<291.378] yes=15,no=16,missing=16
				15:[C_D_U_CATEGORY_CATEGORY_MACRO_MAX_COEC<0.00888022] yes=31,no=32,missing=32
					31:[C_D_U_TITLEMD5_CITY_EC<55.6882] yes=63,no=64,missing=63
						63:leaf=-0.0448255
						64:leaf=0.173501
					32:[C_D_U_PUBLISHER_GENDER_EC<1797.34] yes=65,no=66,missing=66
						65:leaf=0.0842132
						66:leaf=-0.0213375
				16:[U_AGE_C<73023.7] yes=33,no=34,missing=34
					33:[U_KEYWORD_MEAN_EC<1156.08] yes=67,no=68,missing=68
						67:leaf=0.231364
						68:leaf=-0.051567
					34:[C_D_U_CATEGORY_CATEGORY_MICRO_MAX_COEC<0.139725] yes=69,no=70,missing=70
						69:leaf=-0.0177951
						70:leaf=0.117862
			8:[U_KEYWORD_MAX_EC<277.509] yes=17,no=18,missing=18
				17:[D_KEYWORD_MACRO_MEAN_COEC<0.0779987] yes=35,no=36,missing=36
					35:[C_D_U_TITLEMD5_CATEGORY_MEAN_C<1.77148] yes=71,no=72,missing=72
						71:leaf=-0.0259539
						72:leaf=0.0829139
					36:[C_D_U_CATEGORY_AGE_MEAN_EC<2798.63] yes=73,no=74,missing=73
						73:leaf=0.0340594
						74:leaf=-0.0552563
				18:[C_D_U_TITLEMD5_GENDER_C<0.830718] yes=37,no=38,missing=38
					37:leaf=-0.126926
					38:[M_D_U_KEYWORD_KEYWORD_MACRO_MEAN_COEC<5.98305e-05] yes=75,no=76,missing=76
						75:leaf=-0.038521
						76:leaf=0.0198273
		4:[U_KEYWORD_MICRO_MAX_COEC<0.110467] yes=9,no=10,missing=9
			9:[D_CATEGORY_MAX_EC<226012] yes=19,no=20,missing=19
				19:[C_D_U_PUBLISHER_CITY_COEC<0.0419162] yes=39,no=40,missing=40
					39:[U_KEYWORD_MACRO_MAX_COEC<0.00398833] yes=77,no=78,missing=78
						77:leaf=0.00285262
						78:leaf=-0.0341802
					40:[U_CATEGORY_MACRO_MAX_COEC<0.0277868] yes=79,no=80,missing=79
						79:leaf=0.00635207
						80:leaf=-0.0151622
				20:[C_D_U_PUBLISHER_GENDER_EC<8395.64] yes=41,no=42,missing=41
					41:[D_TITLEMD5_COEC<0.0828845] yes=81,no=82,missing=82
						81:leaf=0.207527
						82:leaf=0.0632705
					42:[C_D_U_TITLEMD5_CATEGORY_MAX_C<0.501402] yes=83,no=84,missing=84
						83:leaf=-0.0057749
						84:leaf=-0.134481
			10:[C_D_U_CATEGORY_CITY_MACRO_MAX_COEC<0.0675184] yes=21,no=22,missing=21
				21:[U_KEYWORD_MEAN_C<147.265] yes=43,no=44,missing=44
					43:[CAT_REL<0.071654] yes=85,no=86,missing=86
						85:leaf=0.00577454
						86:leaf=0.0195682
					44:[D_KEYWORD_MACRO_MAX_COEC<0.0477354] yes=87,no=88,missing=88
						87:leaf=0.0273561
						88:leaf=-0.0585912
				22:[C_D_U_TITLEMD5_CATEGORY_MAX_C<0.00607695] yes=45,no=46,missing=46
					45:[D_KEYWORD_MACRO_MAX_COEC<0.0330038] yes=89,no=90,missing=90
						89:leaf=0.0651374
						90:leaf=-0.0690054
					46:[M_D_U_KEYWORD_KEYWORD_MACRO_MEAN_COEC<0.000130659] yes=91,no=92,missing=92
						91:leaf=0.0468142
						92:leaf=0.0235112
	2:[U_CITY_COEC<0.103344] yes=5,no=6,missing=5
		5:[IMAGE_COUNT<3] yes=11,no=12,missing=12
			11:[C_D_U_CATEGORY_CITY_MACRO_MAX_COEC<0.0525816] yes=23,no=24,missing=24
				23:[C_D_U_TITLEMD5_CITY_COEC<0.35635] yes=47,no=48,missing=48
					47:[U_CATEGORY_MACRO_MAX_COEC<0.0185766] yes=93,no=94,missing=94
						93:leaf=0.000621146
						94:leaf=-0.00886673
					48:[DOC_AGE<1.02444] yes=95,no=96,missing=96
						95:leaf=-0.00139838
						96:leaf=-0.0171118
				24:[D_KEYWORD_MEAN_C<89.4313] yes=49,no=50,missing=50
					49:[KW_REL<0.000462308] yes=97,no=98,missing=98
						97:leaf=1.36164e-05
						98:leaf=0.0100921
					50:[U_KEYWORD_MEAN_C<2.70784] yes=99,no=100,missing=100
						99:leaf=-0.0517942
						100:leaf=-0.0010029
			12:[KW_REL<0.000710035] yes=25,no=26,missing=26
				25:[C_D_U_TITLEMD5_CATEGORY_MACRO_MAX_COEC<0.0126613] yes=51,no=52,missing=52
					51:[C_D_U_CATEGORY_CATEGORY_MICRO_MEAN_COEC<0.0668728] yes=101,no=102,missing=102
						101:leaf=-0.0239619
						102:leaf=-0.00483664
					52:[D_CATEGORY_MAX_C<8995.82] yes=103,no=104,missing=104
						103:leaf=0.00805271
						104:leaf=-0.00261764
				26:[WORD_COUNT<1644] yes=53,no=54,missing=54
					53:[U_KEYWORD_MICRO_MEAN_COEC<0.104039] yes=105,no=106,missing=106
						105:leaf=-0.0030254
						106:leaf=0.0259404
					54:[C_D_U_PUBLISHER_GENDER_COEC<0.0493752] yes=107,no=108,missing=108
						107:leaf=-0.0214177
						108:leaf=0.011052
		6:[U_CATEGORY_MEAN_C<200.862] yes=13,no=14,missing=14
			13:[U_CITY_C<57.5697] yes=27,no=28,missing=28
				27:[U_CATEGORY_MICRO_MAX_COEC<0.120933] yes=55,no=56,missing=56
					55:leaf=-0.16612
					56:[C_D_U_PUBLISHER_GENDER_COEC<0.0780477] yes=109,no=110,missing=110
						109:leaf=-0.0839233
						110:leaf=0.0505854
				28:[DOC_AGE<49.5225] yes=57,no=58,missing=58
					57:[D_CATEGORY_MICRO_MEAN_COEC<0.0627007] yes=111,no=112,missing=112
						111:leaf=-0.0506661
						112:leaf=0.115267
					58:leaf=-0.17785
			14:[U_CATEGORY_MICRO_MEAN_COEC<0.115955] yes=29,no=30,missing=29
				29:[C_D_U_CATEGORY_CITY_MICRO_MEAN_COEC<0.197756] yes=59,no=60,missing=60
					59:[U_KEYWORD_MICRO_MAX_COEC<0.102253] yes=113,no=114,missing=114
						113:leaf=-0.0230118
						114:leaf=0.00637846
					60:[C_D_U_TITLEMD5_CATEGORY_MICRO_MEAN_COEC<0.116391] yes=115,no=116,missing=116
						115:leaf=0.0270781
						116:leaf=0.00670908
				30:[U_CATEGORY_MAX_C<260.653] yes=61,no=62,missing=62
					61:[U_AGE_C<84722.7] yes=117,no=118,missing=117
						117:leaf=0.113955
						118:leaf=-0.127209
					62:[C_D_U_KEYWORD_CATEGORY_MACRO_MAX_COEC<0.00267488] yes=119,no=120,missing=120
						119:leaf=0.0689326
						120:leaf=-0.206055
booster[78]:
0:[D_CATEGORY_MICRO_MAX_COEC<0.0627124] yes=1,no=2,missing=1
	1:[C_D_U_CATEGORY_CATEGORY_MICRO_MEAN_COEC<0.0367677] yes=3,no=4,missing=4
		3:[C_D_U_CATEGORY_CATEGORY_MACRO_MEAN_COEC<0.0328658] yes=7,no=8,missing=8
			7:[C_D_U_TITLEMD5_CATEGORY_MEAN_C<0.0438253] yes=15,no=16,missing=16
				15:[U_KEYWORD_MAX_EC<290.808] yes=31,no=32,missing=32
					31:[U_KEYWORD_MICRO_MAX_COEC<0.11986] yes=63,no=64,missing=64
						63:leaf=-0.0392146
						64:leaf=0.0167563
					32:[U_KEYWORD_MICRO_MAX_COEC<0.110723] yes=65,no=66,missing=66
						65:leaf=0.0059758
						66:leaf=-0.0249461
				16:[C_D_U_CATEGORY_CATEGORY_MAX_C<28.7006] yes=33,no=34,missing=34
					33:[U_CATEGORY_MAX_EC<3768.63] yes=67,no=68,missing=68
						67:leaf=0.00963009
						68:leaf=-0.0159765
					34:[C_D_U_CATEGORY_CITY_MACRO_MAX_COEC<0.0601847] yes=69,no=70,missing=69
						69:leaf=0.0552309
						70:leaf=0.497527
			8:[D_KEYWORD_MICRO_MEAN_COEC<0.08485] yes=17,no=18,missing=18
				17:[D_PUBLISHER_EC<9151.1] yes=35,no=36,missing=36
					35:[C_D_U_TITLEMD5_CATEGORY_MEAN_C<0.0879088] yes=71,no=72,missing=72
						71:leaf=0.156257
						72:leaf=0.0196521
					36:[C_D_U_CATEGORY_CITY_MEAN_C<308.97] yes=73,no=74,missing=73
						73:leaf=-0.00233261
						74:leaf=0.10337
				18:[M_D_U_KEYWORD_KEYWORD_MICRO_MEAN_COEC<0.138458] yes=37,no=38,missing=37
					37:[C_D_U_PUBLISHER_GENDER_C<3125.81] yes=75,no=76,missing=75
						75:leaf=-0.0462159
						76:leaf=0.257673
					38:[U_CITY_COEC<0.0887047] yes=77,no=78,missing=77
						77:leaf=0.151592
						78:leaf=-0.0687375
		4:[C_D_U_CATEGORY_CITY_MACRO_MAX_COEC<0.0699326] yes=9,no=10,missing=9
			9:[U_KEYWORD_MICRO_MAX_COEC<0.110886] yes=19,no=20,missing=19
				19:[D_KEYWORD_MACRO_MEAN_COEC<0.0452096] yes=39,no=40,missing=40
					39:[D_TITLEMD5_C<39.0804] yes=79,no=80,missing=80
						79:leaf=-0.037356
						80:leaf=-0.00190442
					40:[D_CATEGORY_MACRO_MAX_COEC<0.0368742] yes=81,no=82,missing=82
						81:leaf=-0.0253322
						82:leaf=0.0036535
				20:[D_CATEGORY_MAX_C<4006.51] yes=41,no=42,missing=42
					41:[CAT_REL<0.075466] yes=83,no=84,missing=84
						83:leaf=0.000187813
						84:leaf=0.014156
					42:[D_KEYWORD_MEAN_C<340.098] yes=85,no=86,missing=85
						85:leaf=0.0254248
						86:leaf=0.00290181
			10:[U_KEYWORD_MICRO_MEAN_COEC<0.0974679] yes=21,no=22,missing=21
				21:[U_CATEGORY_MICRO_MEAN_COEC<0.0873602] yes=43,no=44,missing=44
					43:[U_CATEGORY_MICRO_MEAN_COEC<0.0840221] yes=87,no=88,missing=88
						87:leaf=0.0150956
						88:leaf=0.0394725
					44:[C_D_U_CATEGORY_CITY_MEAN_C<2.62028] yes=89,no=90,missing=90
						89:leaf=-0.0286406
						90:leaf=0.0104121
				22:[C_D_U_PUBLISHER_CITY_C<349.403] yes=45,no=46,missing=45
					45:[C_D_U_TITLEMD5_CATEGORY_MACRO_MEAN_COEC<0.00691289] yes=91,no=92,missing=92
						91:leaf=0.0544196
						92:leaf=0.0222097
					46:[WORD_COUNT<5362] yes=93,no=94,missing=94
						93:leaf=0.054197
						94:leaf=0.168126
	2:[D_CATEGORY_MAX_EC<14667.8] yes=5,no=6,missing=6
		5:[U_CATEGORY_MACRO_MEAN_COEC<0.0495828] yes=11,no=12,missing=12
			11:[D_PUBLISHER_C<984.688] yes=23,no=24,missing=23
				23:[D_KEYWORD_MICRO_MEAN_COEC<0.0875635] yes=47,no=48,missing=48
					47:[C_D_U_TITLEMD5_CATEGORY_MEAN_EC<0.0914032] yes=95,no=96,missing=96
						95:leaf=-0.0107061
						96:leaf=0.017937
					48:[D_KEYWORD_MEAN_C<165.149] yes=97,no=98,missing=98
						97:leaf=0.00512875
						98:leaf=-0.0166169
				24:[D_KEYWORD_MICRO_MEAN_COEC<0.0997602] yes=49,no=50,missing=50
					49:[C_D_U_TITLEMD5_GENDER_COEC<0.0838899] yes=99,no=100,missing=99
						99:leaf=0.0153745
						100:leaf=0.0290423
					50:[C_D_U_TITLEMD5_CATEGORY_MICRO_MEAN_COEC<0.089887] yes=101,no=102,missing=102
						101:leaf=0.0220205
						102:leaf=0.00462401
			12:[D_PUBLISHER_COEC<0.0742363] yes=25,no=26,missing=25
				25:[C_D_U_CATEGORY_CATEGORY_MICRO_MEAN_COEC<0.0635481] yes=51,no=52,missing=51
					51:[C_D_U_PUBLISHER_GENDER_COEC<0.0647606] yes=103,no=104,missing=104
						103:leaf=-0.0350578
						104:leaf=-0.008954
					52:[D_KEYWORD_MEAN_C<98.2409] yes=105,no=106,missing=106
						105:leaf=0.0176624
						106:leaf=-0.00295684
				26:[D_KEYWORD_MICRO_MEAN_COEC<0.131251] yes=53,no=54,missing=54
					53:[U_CITY_COEC<0.0971671] yes=107,no=108,missing=107
						107:leaf=0.00493226
						108:leaf=0.0198382
					54:[D_KEYWORD_MAX_EC<562.74] yes=109,no=110,missing=110
						109:leaf=0.0192324
						110:leaf=-0.00913553
		6:[C_D_U_CATEGORY_CITY_MACRO_MEAN_COEC<0.0526843] yes=13,no=14,missing=14
			13:[D_TITLEMD5_C<108.049] yes=27,no=28,missing=27
				27:[U_CITY_COEC<0.0433733] yes=55,no=56,missing=56
					55:[U_AGE_C<73993.3] yes=111,no=112,missing=112
						111:leaf=0.025878
						112:leaf=-0.0436643
					56:[TIME_OF_DAY<3] yes=113,no=114,missing=114
						113:leaf=0.00224324
						114:leaf=-0.014332
				28:[D_TITLEMD5_EC<6336.34] yes=57,no=58,missing=58
					57:[DOC_AGE<5.03583] yes=115,no=116,missing=116
						115:leaf=0.00687621
						116:leaf=-0.00666135
					58:[C_D_U_PUBLISHER_GENDER_COEC<0.0435517] yes=117,no=118,missing=118
						117:leaf=0.106121
						118:leaf=0.00487157
			14:[KW_REL<0.00233689] yes=29,no=30,missing=30
				29:[C_D_U_CATEGORY_CATEGORY_MACRO_MEAN_COEC<0.0414303] yes=59,no=60,missing=60
					59:[DOC_AGE<23.9706] yes=119,no=120,missing=120
						119:leaf=-0.00903581
						120:leaf=0.00333415
					60:[U_KEYWORD_MAX_C<36.1152] yes=121,no=122,missing=121
						121:leaf=0.000308819
						122:leaf=-0.00522185
				30:[D_KEYWORD_MEAN_C<550.651] yes=61,no=62,missing=62
					61:[DOC_AGE<12.4394] yes=123,no=124,missing=124
						123:leaf=0.00626355
						124:leaf=-0.000820225
					62:[KW_REL<0.00650555] yes=125,no=126,missing=126
						125:leaf=-0.00500287
						126:leaf=0.0054958
booster[79]:
0:[D_KEYWORD_MEAN_EC<871.172] yes=1,no=2,missing=1
	1:[U_KEYWORD_MACRO_MAX_COEC<0.00119492] yes=3,no=4,missing=4
		3:[C_D_U_CATEGORY_CATEGORY_MICRO_MAX_COEC<0.0510718] yes=7,no=8,missing=8
			7:[C_D_U_TITLEMD5_AGE_COEC<0.158975] yes=15,no=16,missing=15
				15:[U_CATEGORY_MACRO_MAX_COEC<0.0190765] yes=31,no=32,missing=32
					31:[C_D_U_PUBLISHER_AGE_EC<751.117] yes=63,no=64,missing=64
						63:leaf=0.0021387
						64:leaf=-0.0969112
					32:[C_D_U_TITLEMD5_CITY_COEC<0.0867489] yes=65,no=66,missing=66
						65:leaf=0.177184
						66:leaf=-0.121371
				16:[U_GENDER_COEC<0.0886399] yes=33,no=34,missing=33
					33:[C_D_U_KEYWORD_CATEGORY_MICRO_MEAN_COEC<0.0670914] yes=67,no=68,missing=68
						67:leaf=0.23253
						68:leaf=0.120053
					34:leaf=-0.0335002
			8:[U_KEYWORD_MEAN_C<62.9925] yes=17,no=18,missing=18
				17:[C_D_U_KEYWORD_CATEGORY_MICRO_MAX_COEC<0.316064] yes=35,no=36,missing=36
					35:[M_D_U_KEYWORD_KEYWORD_MACRO_MAX_COEC<4.91386e-05] yes=69,no=70,missing=69
						69:leaf=-0.0642864
						70:leaf=0.0210189
					36:[U_CITY_EC<1572.25] yes=71,no=72,missing=71
						71:leaf=-0.0417238
						72:leaf=0.0288522
				18:[D_CATEGORY_MEAN_EC<10835] yes=37,no=38,missing=37
					37:[U_CITY_C<751.578] yes=73,no=74,missing=74
						73:leaf=0.0764785
						74:leaf=0.0307862
					38:[CAT_REL<0.00068] yes=75,no=76,missing=76
						75:leaf=0.000854071
						76:leaf=0.0235347
		4:[D_TITLEMD5_EC<2.9751] yes=9,no=10,missing=9
			9:[C_D_U_CATEGORY_GENDER_MICRO_MAX_COEC<0.0717367] yes=19,no=20,missing=20
				19:[C_D_U_PUBLISHER_GENDER_C<97.1752] yes=39,no=40,missing=39
					39:[C_D_U_CATEGORY_CITY_MICRO_MAX_COEC<0.0450471] yes=77,no=78,missing=77
						77:leaf=-0.0875786
						78:leaf=-0.0346935
					40:[TIME_OF_DAY<19] yes=79,no=80,missing=80
						79:leaf=-0.0186742
						80:leaf=0.108739
				20:[C_D_U_KEYWORD_CATEGORY_MACRO_MAX_COEC<0.00247159] yes=41,no=42,missing=42
					41:[DAY_OF_WEEK<6] yes=81,no=82,missing=82
						81:leaf=-0.0329906
						82:leaf=0.0176317
					42:[U_CITY_COEC<0.0965089] yes=83,no=84,missing=84
						83:leaf=0.00543859
						84:leaf=-0.0148389
			10:[D_CATEGORY_MAX_EC<57663] yes=21,no=22,missing=21
				21:[D_CATEGORY_MEAN_EC<13158.8] yes=43,no=44,missing=44
					43:[D_KEYWORD_MAX_C<38.6299] yes=85,no=86,missing=86
						85:leaf=0.0083594
						86:leaf=0.0314329
					44:[C_D_U_PUBLISHER_GENDER_COEC<0.0571726] yes=87,no=88,missing=88
						87:leaf=-0.0262872
						88:leaf=-0.000675473
				22:[U_KEYWORD_MACRO_MAX_COEC<0.0017795] yes=45,no=46,missing=46
					45:[D_KEYWORD_MICRO_MEAN_COEC<0.0858107] yes=89,no=90,missing=90
						89:leaf=0.0213519
						90:leaf=0.00786666
					46:[D_PUBLISHER_C<3937.2] yes=91,no=92,missing=92
						91:leaf=0.0073252
						92:leaf=-0.0121951
	2:[C_D_U_TITLEMD5_CATEGORY_MEAN_EC<0.559536] yes=5,no=6,missing=6
		5:[C_D_U_CATEGORY_CATEGORY_MICRO_MAX_COEC<0.13922] yes=11,no=12,missing=12
			11:[D_PUBLISHER_C<882.949] yes=23,no=24,missing=23
				23:[DOC_AGE<75.2844] yes=47,no=48,missing=48
					47:[C_D_U_PUBLISHER_GENDER_COEC<0.0307884] yes=93,no=94,missing=94
						93:leaf=-0.0384275
						94:leaf=-0.0153464
					48:[U_KEYWORD_MEAN_EC<870.471] yes=95,no=96,missing=96
						95:leaf=-0.0284319
						96:leaf=0.0146779
				24:[C_D_U_TITLEMD5_CATEGORY_MICRO_MEAN_COEC<0.0690079] yes=49,no=50,missing=50
					49:[DOC_AGE<0.794721] yes=97,no=98,missing=98
						97:leaf=0.0114549
						98:leaf=-0.00294703
					50:[D_TITLEMD5_COEC<0.0601594] yes=99,no=100,missing=100
						99:leaf=-0.0349212
						100:leaf=-0.0059017
			12:[D_CATEGORY_MICRO_MAX_COEC<0.10485] yes=25,no=26,missing=25
				25:[C_D_U_CATEGORY_CATEGORY_MICRO_MEAN_COEC<0.139216] yes=51,no=52,missing=51
					51:[D_CATEGORY_MAX_EC<206551] yes=101,no=102,missing=102
						101:leaf=0.00243415
						102:leaf=0.0269678
					52:[M_D_U_KEYWORD_KEYWORD_MACRO_MAX_COEC<5.73367e-05] yes=103,no=104,missing=103
						103:leaf=0.0659617
						104:leaf=0.0333594
				26:[C_D_U_TITLEMD5_CATEGORY_MICRO_MEAN_COEC<0.07693] yes=53,no=54,missing=54
					53:[C_D_U_KEYWORD_CATEGORY_MACRO_MEAN_COEC<0.0586151] yes=105,no=106,missing=106
						105:leaf=-0.000847454
						106:leaf=0.0229589
					54:[D_TITLEMD5_COEC<0.1863] yes=107,no=108,missing=108
						107:leaf=-0.0141429
						108:leaf=0.0122442
		6:[D_CATEGORY_MEAN_C<29337.5] yes=13,no=14,missing=13
			13:[D_CATEGORY_MAX_EC<209647] yes=27,no=28,missing=28
				27:[D_PUBLISHER_COEC<0.0925455] yes=55,no=56,missing=56
					55:[CAT_REL<0.119804] yes=109,no=110,missing=110
						109:leaf=-0.00290843
						110:leaf=0.00447664
					56:[D_PUBLISHER_C<1376.7] yes=111,no=112,missing=112
						111:leaf=0.00682689
						112:leaf=0.00130427
				28:[C_D_U_CATEGORY_CITY_MACRO_MAX_COEC<0.115924] yes=57,no=58,missing=57
					57:[U_KEYWORD_MICRO_MEAN_COEC<0.101889] yes=113,no=114,missing=113
						113:leaf=0.00197171
						114:leaf=0.0122003
					58:[D_KEYWORD_MACRO_MAX_COEC<0.0274017] yes=115,no=116,missing=116
						115:leaf=0.0333652
						116:leaf=0.00772315
			14:[D_TITLEMD5_COEC<0.112292] yes=29,no=30,missing=30
				29:[D_TITLEMD5_EC<10188.3] yes=59,no=60,missing=60
					59:[D_KEYWORD_MACRO_MEAN_COEC<0.0788357] yes=117,no=118,missing=118
						117:leaf=0.00303358
						118:leaf=-0.0111502
					60:[C_D_U_PUBLISHER_CITY_EC<4993] yes=119,no=120,missing=120
						119:leaf=0.0157211
						120:leaf=0.0354741
				30:[C_D_U_CATEGORY_CATEGORY_MAX_C<66.3915] yes=61,no=62,missing=61
					61:[U_KEYWORD_MEAN_C<101.238] yes=121,no=122,missing=122
						121:leaf=-0.0175049
						122:leaf=-0.00236712
					62:[U_KEYWORD_MAX_C<52.9867] yes=123,no=124,missing=124
						123:leaf=0.00393237
						124:leaf=-0.0114194
booster[80]:
0:[TIME_OF_DAY<2] yes=1,no=2,missing=2
	1:[U_KEYWORD_MEAN_C<172.402] yes=3,no=4,missing=3
		3:[U_GENDER_EC<191240] yes=7,no=8,missing=8
			7:[U_KEYWORD_MACRO_MEAN_COEC<0.0235891] yes=15,no=16,missing=16
				15:[U_KEYWORD_MAX_EC<209.729] yes=31,no=32,missing=32
					31:[M_D_U_KEYWORD_KEYWORD_MACRO_MAX_COEC<0.000196999] yes=63,no=64,missing=63
						63:leaf=-0.0847912
						64:leaf=0.0398589
					32:[C_D_U_TITLEMD5_AGE_COEC<0.0558503] yes=65,no=66,missing=65
						65:leaf=0.078263
						66:leaf=0.0141049
				16:[C_D_U_CATEGORY_CITY_MAX_EC<23.9323] yes=33,no=34,missing=34
					33:[U_CATEGORY_MAX_EC<3007.55] yes=67,no=68,missing=67
						67:leaf=-0.198493
						68:leaf=0.0922398
					34:[U_CITY_COEC<0.10102] yes=69,no=70,missing=69
						69:leaf=-0.0762577
						70:leaf=0.183032
			8:[C_D_U_TITLEMD5_CATEGORY_MEAN_EC<0.0211344] yes=17,no=18,missing=18
				17:[U_CATEGORY_MICRO_MEAN_COEC<0.0856269] yes=35,no=36,missing=36
					35:[U_KEYWORD_MACRO_MEAN_COEC<0.0249205] yes=71,no=72,missing=72
						71:leaf=0.0483073
						72:leaf=-0.0309684
					36:[M_D_U_KEYWORD_KEYWORD_MICRO_MAX_COEC<0.182141] yes=73,no=74,missing=73
						73:leaf=-0.0326758
						74:leaf=0.0526901
				18:[C_D_U_TITLEMD5_CATEGORY_MICRO_MEAN_COEC<0.0772146] yes=37,no=38,missing=38
					37:[U_KEYWORD_MICRO_MEAN_COEC<0.0962534] yes=75,no=76,missing=76
						75:leaf=0.00131273
						76:leaf=0.0220229
					38:[U_CATEGORY_MEAN_C<613.652] yes=77,no=78,missing=78
						77:leaf=-0.00520895
						78:leaf=0.00827165
		4:[U_CITY_COEC<0.0826217] yes=9,no=10,missing=9
			9:[U_AGE_C<73996] yes=19,no=20,missing=19
				19:[D_KEYWORD_MACRO_MAX_COEC<0.0214499] yes=39,no=40,missing=40
					39:[U_CATEGORY_MEAN_C<2591.34] yes=79,no=80,missing=79
						79:leaf=-0.0972623
						80:leaf=0.0434106
					40:[C_D_U_CATEGORY_GENDER_MEAN_C<2449.14] yes=81,no=82,missing=81
						81:leaf=0.0355549
						82:leaf=-0.191621
				20:[C_D_U_TITLEMD5_CATEGORY_MICRO_MEAN_COEC<0.102161] yes=41,no=42,missing=42
					41:[C_D_U_CATEGORY_CATEGORY_MAX_C<226.353] yes=83,no=84,missing=84
						83:leaf=0.190168
						84:leaf=-0.130969
					42:[C_D_U_CATEGORY_CITY_MAX_C<146.332] yes=85,no=86,missing=86
						85:leaf=-0.179552
						86:leaf=0.0491231
			10:[U_CATEGORY_MACRO_MEAN_COEC<0.0475831] yes=21,no=22,missing=22
				21:[U_CATEGORY_MAX_EC<3265.66] yes=43,no=44,missing=44
					43:[C_D_U_CATEGORY_CATEGORY_MAX_C<4.60394] yes=87,no=88,missing=88
						87:leaf=-0.0853407
						88:leaf=-0.161679
					44:[C_D_U_TITLEMD5_CATEGORY_MEAN_EC<96.3505] yes=89,no=90,missing=90
						89:leaf=0.0310872
						90:leaf=0.128673
				22:[U_GENDER_COEC<0.0931349] yes=45,no=46,missing=45
					45:[U_KEYWORD_MICRO_MAX_COEC<0.113201] yes=91,no=92,missing=92
						91:leaf=-0.0564707
						92:leaf=0.0163261
					46:[U_CATEGORY_MICRO_MEAN_COEC<0.0861208] yes=93,no=94,missing=94
						93:leaf=-0.0129126
						94:leaf=-0.141198
	2:[U_KEYWORD_MICRO_MAX_COEC<0.144103] yes=5,no=6,missing=5
		5:[DOC_AGE<7.0275] yes=11,no=12,missing=12
			11:[D_TITLEMD5_COEC<0.0349365] yes=23,no=24,missing=24
				23:[C_D_U_KEYWORD_CATEGORY_MICRO_MAX_COEC<0.237961] yes=47,no=48,missing=47
					47:[U_KEYWORD_MAX_EC<216.682] yes=95,no=96,missing=96
						95:leaf=-0.0225228
						96:leaf=-0.0067252
					48:[C_D_U_TITLEMD5_CATEGORY_MICRO_MEAN_COEC<0.0786927] yes=97,no=98,missing=98
						97:leaf=0.00874647
						98:leaf=-0.0389582
				24:[D_TITLEMD5_C<0.994999] yes=49,no=50,missing=50
					49:[C_D_U_TITLEMD5_CITY_EC<5.99932] yes=99,no=100,missing=99
						99:leaf=-0.0204231
						100:leaf=0.060405
					50:[M_D_U_KEYWORD_KEYWORD_MICRO_MEAN_COEC<0.269491] yes=101,no=102,missing=101
						101:leaf=0.00226453
						102:leaf=0.0311907
			12:[TIME_OF_DAY<12] yes=25,no=26,missing=26
				25:[DAY_OF_WEEK<3] yes=51,no=52,missing=52
					51:[U_KEYWORD_MEAN_EC<1260.72] yes=103,no=104,missing=103
						103:leaf=0.000798765
						104:leaf=0.00702336
					52:[U_KEYWORD_MICRO_MEAN_COEC<0.101264] yes=105,no=106,missing=105
						105:leaf=-0.00450018
						106:leaf=0.00140255
				26:[TIME_OF_DAY<20] yes=53,no=54,missing=54
					53:[DAY_OF_WEEK<6] yes=107,no=108,missing=108
						107:leaf=-0.00589334
						108:leaf=0.00136401
					54:[DOC_AGE<11.8064] yes=109,no=110,missing=110
						109:leaf=0.010514
						110:leaf=-0.00116332
		6:[U_KEYWORD_MEAN_EC<697.972] yes=13,no=14,missing=14
			13:[U_KEYWORD_MACRO_MEAN_COEC<0.0253453] yes=27,no=28,missing=28
				27:[C_D_U_KEYWORD_CATEGORY_MAX_EC<0.242215] yes=55,no=56,missing=56
					55:[U_KEYWORD_MICRO_MEAN_COEC<0.104038] yes=111,no=112,missing=112
						111:leaf=0.0238077
						112:leaf=0.129956
					56:[U_CATEGORY_MICRO_MAX_COEC<0.09978] yes=113,no=114,missing=114
						113:leaf=-0.0210123
						114:leaf=-0.0628743
				28:[U_CATEGORY_MEAN_EC<6961.23] yes=57,no=58,missing=58
					57:[U_KEYWORD_MACRO_MEAN_COEC<0.0265881] yes=115,no=116,missing=116
						115:leaf=-0.0297497
						116:leaf=0.142859
					58:[U_KEYWORD_MAX_EC<405.118] yes=117,no=118,missing=118
						117:leaf=0.00741046
						118:leaf=-0.0678742
			14:[U_KEYWORD_MAX_C<29.1395] yes=29,no=30,missing=30
				29:[U_KEYWORD_MICRO_MEAN_COEC<0.0920156] yes=59,no=60,missing=60
					59:[U_CITY_COEC<0.0748002] yes=119,no=120,missing=119
						119:leaf=-0.0662358
						120:leaf=0.00404916
					60:[U_KEYWORD_MAX_EC<263.156] yes=121,no=122,missing=122
						121:leaf=0.0205555
						122:leaf=0.0445643
				30:[C_D_U_TITLEMD5_CATEGORY_MICRO_MEAN_COEC<0.0810855] yes=61,no=62,missing=62
					61:[U_KEYWORD_MAX_EC<295.806] yes=123,no=124,missing=124
						123:leaf=-0.0706236
						124:leaf=0.0213272
					62:[U_KEYWORD_MACRO_MEAN_COEC<0.0262358] yes=125,no=126,missing=126
						125:leaf=-0.0138554
						126:leaf=0.00629637
booster[81]:
0:[C_D_U_KEYWORD_CATEGORY_MAX_C<1.29185] yes=1,no=2,missing=1
	1:[KW_REL<0.00287672] yes=3,no=4,missing=4
		3:[C_D_U_TITLEMD5_CATEGORY_MEAN_EC<12.8492] yes=7,no=8,missing=8
			7:[D_KEYWORD_MEAN_C<259.373] yes=15,no=16,missing=15
				15:[M_D_U_KEYWORD_KEYWORD_MICRO_MEAN_COEC<0.0969983] yes=31,no=32,missing=32
					31:[KW_REL<0.000788248] yes=63,no=64,missing=64
						63:leaf=-0.00433817
						64:leaf=0.0089945
					32:[C_D_U_TITLEMD5_GENDER_COEC<0.0996082] yes=65,no=66,missing=65
						65:leaf=-0.0030167
						66:leaf=0.00452928
				16:[D_CATEGORY_MAX_C<7429.59] yes=33,no=34,missing=33
					33:[WORD_COUNT<4308] yes=67,no=68,missing=68
						67:leaf=0.000456069
						68:leaf=-0.0198318
					34:[U_KEYWORD_MACRO_MEAN_COEC<0.0218612] yes=69,no=70,missing=70
						69:leaf=-0.0174948
						70:leaf=-0.00721238
			8:[TIME_OF_DAY<2] yes=17,no=18,missing=18
				17:[C_D_U_CATEGORY_CITY_MEAN_EC<34354.3] yes=35,no=36,missing=36
					35:[U_CATEGORY_MAX_EC<6388.73] yes=71,no=72,missing=72
						71:leaf=0.0147023
						72:leaf=0.000770839
					36:[U_GENDER_C<65716.6] yes=73,no=74,missing=73
						73:leaf=0.0228629
						74:leaf=0.00188978
				18:[C_D_U_TITLEMD5_CATEGORY_MICRO_MEAN_COEC<0.268492] yes=37,no=38,missing=37
					37:[D_KEYWORD_MEAN_C<404.807] yes=75,no=76,missing=75
						75:leaf=0.00196441
						76:leaf=-0.00202268
					38:[KW_REL<0.00111971] yes=77,no=78,missing=78
						77:leaf=0.00704186
						78:leaf=0.0197714
		4:[D_KEYWORD_MACRO_MAX_COEC<0.0213329] yes=9,no=10,missing=10
			9:[C_D_U_KEYWORD_CATEGORY_MEAN_C<1.09229] yes=19,no=20,missing=19
				19:[D_CATEGORY_MAX_C<5163.6] yes=39,no=40,missing=40
					39:[D_TITLEMD5_C<303.2] yes=79,no=80,missing=79
						79:leaf=0.0100071
						80:leaf=-0.0332658
					40:[D_KEYWORD_MEAN_EC<2630.49] yes=81,no=82,missing=82
						81:leaf=0.0327413
						82:leaf=0.0181078
				20:[CAT_REL<0.139826] yes=41,no=42,missing=42
					41:[U_KEYWORD_MICRO_MEAN_COEC<0.0979564] yes=83,no=84,missing=84
						83:leaf=-0.00388095
						84:leaf=0.0064299
					42:[U_KEYWORD_MACRO_MEAN_COEC<0.029681] yes=85,no=86,missing=86
						85:leaf=0.0181745
						86:leaf=-0.00359948
			10:[DOC_AGE<12.195] yes=21,no=22,missing=22
				21:[D_TITLEMD5_COEC<0.0673212] yes=43,no=44,missing=44
					43:[C_D_U_KEYWORD_CATEGORY_MACRO_MEAN_COEC<0.0937678] yes=87,no=88,missing=88
						87:leaf=-0.00769277
						88:leaf=0.0441053
					44:[M_D_U_KEYWORD_KEYWORD_MICRO_MAX_COEC<0.298625] yes=89,no=90,missing=89
						89:leaf=0.00577466
						90:leaf=0.0309975
				22:[D_CATEGORY_MICRO_MAX_COEC<0.116937] yes=45,no=46,missing=45
					45:[C_D_U_TITLEMD5_CATEGORY_MICRO_MEAN_COEC<0.0771151] yes=91,no=92,missing=91
						91:leaf=0.00874935
						92:leaf=-0.00227447
					46:[CAT_REL<0.000644] yes=93,no=94,missing=94
						93:leaf=0.000264609
						94:leaf=-0.0153989
	2:[KW_REL<0.00753] yes=5,no=6,missing=6
		5:[U_KEYWORD_MAX_EC<256.505] yes=11,no=12,missing=12
			11:[D_TITLEMD5_COEC<0.106619] yes=23,no=24,missing=23
				23:[C_D_U_CATEGORY_CATEGORY_MAX_C<10.3151] yes=47,no=48,missing=48
					47:[C_D_U_TITLEMD5_CATEGORY_MACRO_MAX_COEC<0.043631] yes=95,no=96,missing=96
						95:leaf=0.00201554
						96:leaf=-0.0533005
					48:[D_TITLEMD5_EC<11087.6] yes=97,no=98,missing=97
						97:leaf=-0.024195
						98:leaf=0.0107289
				24:[DAY_OF_WEEK<0.999999] yes=49,no=50,missing=50
					49:[M_D_U_KEYWORD_KEYWORD_MICRO_MEAN_COEC<0.0808037] yes=99,no=100,missing=99
						99:leaf=0.0234132
						100:leaf=-0.000577728
					50:[U_KEYWORD_MACRO_MEAN_COEC<0.0167822] yes=101,no=102,missing=102
						101:leaf=-0.172742
						102:leaf=-0.00703999
			12:[U_KEYWORD_MACRO_MAX_COEC<0.00153691] yes=25,no=26,missing=26
				25:[U_KEYWORD_MEAN_EC<1156.62] yes=51,no=52,missing=52
					51:[U_CATEGORY_MICRO_MEAN_COEC<0.103755] yes=103,no=104,missing=104
						103:leaf=0.00370304
						104:leaf=0.0313226
					52:[U_KEYWORD_MAX_EC<289.143] yes=105,no=106,missing=106
						105:leaf=-0.0132231
						106:leaf=0.0027563
				26:[D_TITLEMD5_EC<4324.42] yes=53,no=54,missing=53
					53:[C_D_U_CATEGORY_CATEGORY_MICRO_MEAN_COEC<0.13559] yes=107,no=108,missing=108
						107:leaf=-0.00889141
						108:leaf=0.0103224
					54:[U_CATEGORY_MACRO_MAX_COEC<0.0676479] yes=109,no=110,missing=110
						109:leaf=0.00200929
						110:leaf=-0.0247513
		6:[DOC_AGE<23.1833] yes=13,no=14,missing=14
			13:[U_KEYWORD_MACRO_MAX_COEC<0.00610234] yes=27,no=28,missing=28
				27:[M_D_U_KEYWORD_KEYWORD_MICRO_MAX_COEC<0.137506] yes=55,no=56,missing=56
					55:[CAT_REL<0.168351] yes=111,no=112,missing=112
						111:leaf=-0.0050028
						112:leaf=0.0186573
					56:[D_KEYWORD_MACRO_MEAN_COEC<0.0631197] yes=113,no=114,missing=114
						113:leaf=0.0402803
						114:leaf=0.0151887
				28:[WORD_COUNT<3239] yes=57,no=58,missing=58
					57:[U_AGE_EC<866476] yes=115,no=116,missing=115
						115:leaf=-0.00858838
						116:leaf=-0.0674559
					58:[U_AGE_COEC<0.0996941] yes=117,no=118,missing=117
						117:leaf=-0.0752811
						118:leaf=0.0555968
			14:[C_D_U_CATEGORY_AGE_MAX_C<994.167] yes=29,no=30,missing=29
				29:[C_D_U_PUBLISHER_CITY_COEC<0.0756325] yes=59,no=60,missing=59
					59:[CAT_REL<0.011976] yes=119,no=120,missing=120
						119:leaf=0.0349513
						120:leaf=-0.0169633
					60:[D_TITLEMD5_EC<283.453] yes=121,no=122,missing=121
						121:leaf=-0.0871697
						122:leaf=-0.0290379
				30:[C_D_U_TITLEMD5_CITY_EC<3.97505] yes=61,no=62,missing=62
					61:[C_D_U_TITLEMD5_GENDER_EC<203.185] yes=123,no=124,missing=124
						123:leaf=0.0821665
						124:leaf=-0.0133296
					62:[C_D_U_CATEGORY_GENDER_MEAN_C<643.294] yes=125,no=126,missing=126
						125:leaf=-0.121844
						126:leaf=0.0115463
booster[82]:
0:[D_TITLEMD5_C<5.97505] yes=1,no=2,missing=1
	1:[C_D_U_PUBLISHER_CITY_COEC<0.0703829] yes=3,no=4,missing=3
		3:[C_D_U_TITLEMD5_CATEGORY_MICRO_MEAN_COEC<0.072236] yes=7,no=8,missing=7
			7:[D_PUBLISHER_EC<5454.41] yes=15,no=16,missing=16
				15:[C_D_U_KEYWORD_CATEGORY_MICRO_MAX_COEC<0.232239] yes=31,no=32,missing=31
					31:[C_D_U_PUBLISHER_AGE_COEC<0.032183] yes=63,no=64,missing=64
						63:leaf=-0.0310686
						64:leaf=-0.0112365
					32:[C_D_U_CATEGORY_CATEGORY_MACRO_MAX_COEC<0.0168232] yes=65,no=66,missing=66
						65:leaf=-0.00654237
						66:leaf=0.012902
				16:[WORD_COUNT<3238] yes=33,no=34,missing=34
					33:[D_KEYWORD_MEAN_EC<2447.06] yes=67,no=68,missing=67
						67:leaf=0.00581602
						68:leaf=-0.00467857
					34:[D_CATEGORY_MICRO_MEAN_COEC<0.081247] yes=69,no=70,missing=69
						69:leaf=-0.00754306
						70:leaf=-0.0261699
			8:[CAT_REL<0.0910601] yes=17,no=18,missing=18
				17:[C_D_U_TITLEMD5_CITY_EC<16.8697] yes=35,no=36,missing=35
					35:[D_PUBLISHER_COEC<0.0630233] yes=71,no=72,missing=72
						71:leaf=-0.0326448
						72:leaf=-0.0176117
					36:[U_KEYWORD_MAX_EC<368.718] yes=73,no=74,missing=74
						73:leaf=0.0267589
						74:leaf=-0.0500857
				18:[D_TITLEMD5_C<0.999999] yes=37,no=38,missing=38
					37:[D_CATEGORY_MEAN_C<5198.93] yes=75,no=76,missing=76
						75:leaf=-0.0196496
						76:leaf=-0.0518121
					38:[U_KEYWORD_MACRO_MEAN_COEC<0.0263153] yes=77,no=78,missing=78
						77:leaf=0.00465964
						78:leaf=-0.0164099
		4:[C_D_U_TITLEMD5_CATEGORY_MICRO_MEAN_COEC<0.0740451] yes=9,no=10,missing=9
			9:[C_D_U_TITLEMD5_CITY_C<0.994999] yes=19,no=20,missing=19
				19:[C_D_U_CATEGORY_CATEGORY_MICRO_MAX_COEC<0.139497] yes=39,no=40,missing=39
					39:[DOC_AGE<73.9511] yes=79,no=80,missing=80
						79:leaf=-8.87917e-05
						80:leaf=0.0187202
					40:[U_KEYWORD_MEAN_C<91.2542] yes=81,no=82,missing=82
						81:leaf=0.0370747
						82:leaf=0.0102156
				20:[D_TITLEMD5_EC<129.205] yes=41,no=42,missing=42
					41:[C_D_U_TITLEMD5_CATEGORY_MAX_EC<0.75708] yes=83,no=84,missing=83
						83:leaf=0.0390538
						84:leaf=-0.010131
					42:[C_D_U_CATEGORY_CITY_MACRO_MEAN_COEC<0.0732571] yes=85,no=86,missing=86
						85:leaf=-0.0548614
						86:leaf=0.0201343
			10:[D_TITLEMD5_COEC<0.0609584] yes=21,no=22,missing=22
				21:[M_D_U_KEYWORD_KEYWORD_MEAN_EC<0.00750933] yes=43,no=44,missing=44
					43:[D_KEYWORD_MICRO_MAX_COEC<0.0917076] yes=87,no=88,missing=88
						87:leaf=0.0645782
						88:leaf=-0.00389955
					44:[CAT_REL<0.086688] yes=89,no=90,missing=90
						89:leaf=-0.0322454
						90:leaf=-0.0136305
				22:[C_D_U_CATEGORY_CATEGORY_MICRO_MAX_COEC<0.208058] yes=45,no=46,missing=46
					45:[IMAGE_COUNT<3] yes=91,no=92,missing=92
						91:leaf=-0.00381426
						92:leaf=0.0267417
					46:[C_D_U_CATEGORY_CITY_MACRO_MAX_COEC<0.0696101] yes=93,no=94,missing=94
						93:leaf=-0.0280753
						94:leaf=0.0387334
	2:[C_D_U_CATEGORY_GENDER_MEAN_C<9573.1] yes=5,no=6,missing=5
		5:[DOC_AGE<1.71667] yes=11,no=12,missing=12
			11:[C_D_U_TITLEMD5_CATEGORY_MICRO_MEAN_COEC<0.113477] yes=23,no=24,missing=24
				23:[D_TITLEMD5_COEC<0.0231321] yes=47,no=48,missing=48
					47:[C_D_U_TITLEMD5_CATEGORY_MICRO_MAX_COEC<0.056656] yes=95,no=96,missing=96
						95:leaf=-0.0379102
						96:leaf=0.00245678
					48:[C_D_U_CATEGORY_CATEGORY_MICRO_MAX_COEC<0.0859316] yes=97,no=98,missing=97
						97:leaf=0.00551351
						98:leaf=0.0175011
				24:[C_D_U_CATEGORY_CATEGORY_MICRO_MEAN_COEC<0.123995] yes=49,no=50,missing=50
					49:[CAT_REL<0.057441] yes=99,no=100,missing=100
						99:leaf=-0.00688215
						100:leaf=0.00384817
					50:[D_TITLEMD5_COEC<0.0346423] yes=101,no=102,missing=102
						101:leaf=-0.0136526
						102:leaf=0.00981653
			12:[C_D_U_CATEGORY_AGE_MICRO_MAX_COEC<0.0980239] yes=25,no=26,missing=25
				25:[DAY_OF_WEEK<2] yes=51,no=52,missing=52
					51:[D_CATEGORY_MEAN_C<2911.2] yes=103,no=104,missing=103
						103:leaf=0.00704531
						104:leaf=0.000940506
					52:[U_KEYWORD_MICRO_MEAN_COEC<0.0987032] yes=105,no=106,missing=106
						105:leaf=-0.00481823
						106:leaf=0.000104107
				26:[D_KEYWORD_MICRO_MEAN_COEC<0.0842953] yes=53,no=54,missing=54
					53:[C_D_U_KEYWORD_CATEGORY_MICRO_MAX_COEC<0.134316] yes=107,no=108,missing=107
						107:leaf=0.00180208
						108:leaf=0.0179128
					54:[U_KEYWORD_MAX_C<25.9514] yes=109,no=110,missing=109
						109:leaf=0.00578694
						110:leaf=-0.00109727
		6:[C_D_U_TITLEMD5_AGE_COEC<0.199118] yes=13,no=14,missing=13
			13:[U_CATEGORY_MEAN_C<802.157] yes=27,no=28,missing=27
				27:[D_KEYWORD_MACRO_MEAN_COEC<0.0789362] yes=55,no=56,missing=56
					55:[C_D_U_KEYWORD_CATEGORY_MICRO_MEAN_COEC<0.0645856] yes=111,no=112,missing=112
						111:leaf=0.133018
						112:leaf=0.0100935
					56:[C_D_U_TITLEMD5_AGE_COEC<0.126302] yes=113,no=114,missing=113
						113:leaf=-0.0224107
						114:leaf=-0.00931655
				28:[U_KEYWORD_MAX_C<37.713] yes=57,no=58,missing=58
					57:[C_D_U_CATEGORY_CATEGORY_MICRO_MEAN_COEC<0.111782] yes=115,no=116,missing=116
						115:leaf=-0.0138583
						116:leaf=0.0011997
					58:[U_CATEGORY_MAX_C<269.834] yes=117,no=118,missing=118
						117:leaf=-0.0742222
						118:leaf=-0.0141277
			14:[CAT_REL<0.007199] yes=29,no=30,missing=30
				29:[D_KEYWORD_MICRO_MEAN_COEC<0.103189] yes=59,no=60,missing=60
					59:[D_TITLEMD5_COEC<0.0635113] yes=119,no=120,missing=120
						119:leaf=0.270369
						120:leaf=0.0198391
					60:[C_D_U_CATEGORY_CITY_MEAN_EC<32856.2] yes=121,no=122,missing=121
						121:leaf=-0.00361789
						122:leaf=0.0082725
				30:[D_TITLEMD5_COEC<0.0798226] yes=61,no=62,missing=62
					61:[C_D_U_PUBLISHER_GENDER_COEC<0.133678] yes=123,no=124,missing=124
						123:leaf=-0.186597
						124:leaf=0.00440258
					62:[C_D_U_KEYWORD_CATEGORY_MEAN_C<0.847982] yes=125,no=126,missing=126
						125:leaf=0.0313508
						126:leaf=0.0110031
booster[83]:
0:[U_KEYWORD_MACRO_MAX_COEC<0.00105783] yes=1,no=2,missing=2
	1:[U_CATEGORY_MEAN_C<1179.56] yes=3,no=4,missing=4
		3:[U_KEYWORD_MEAN_C<93.2684] yes=7,no=8,missing=8
			7:[C_D_U_KEYWORD_CATEGORY_MICRO_MEAN_COEC<0.168548] yes=15,no=16,missing=16
				15:[U_KEYWORD_MAX_EC<198.85] yes=31,no=32,missing=32
					31:[U_KEYWORD_MACRO_MAX_COEC<0.000912467] yes=63,no=64,missing=64
						63:leaf=0.00208882
						64:leaf=-0.0412191
					32:[U_KEYWORD_MEAN_EC<910.445] yes=65,no=66,missing=66
						65:leaf=0.0297225
						66:leaf=-0.0449191
				16:[D_TITLEMD5_C<18.6709] yes=33,no=34,missing=34
					33:[U_CATEGORY_MEAN_C<489.81] yes=67,no=68,missing=68
						67:leaf=0.0820439
						68:leaf=0.0247267
					34:[C_D_U_PUBLISHER_CITY_EC<6892.57] yes=69,no=70,missing=70
						69:leaf=0.0105545
						70:leaf=-0.11201
			8:[U_KEYWORD_MAX_EC<217.629] yes=17,no=18,missing=18
				17:[U_CITY_EC<43279] yes=35,no=36,missing=36
					35:[U_AGE_EC<796803] yes=71,no=72,missing=71
						71:leaf=0.0136037
						72:leaf=-0.0219403
					36:[U_CATEGORY_MACRO_MEAN_COEC<0.0511051] yes=73,no=74,missing=74
						73:leaf=0.0382281
						74:leaf=0.0119856
				18:[U_CATEGORY_MICRO_MEAN_COEC<0.109711] yes=37,no=38,missing=38
					37:[U_CATEGORY_MEAN_EC<6755.41] yes=75,no=76,missing=76
						75:leaf=-0.0095699
						76:leaf=0.0185626
					38:[U_GENDER_COEC<0.08847] yes=77,no=78,missing=78
						77:leaf=0.138271
						78:leaf=0.0235444
		4:[U_KEYWORD_MICRO_MEAN_COEC<0.0966256] yes=9,no=10,missing=10
			9:[D_TITLEMD5_COEC<0.0823328] yes=19,no=20,missing=20
				19:[D_KEYWORD_MACRO_MEAN_COEC<0.0980195] yes=39,no=40,missing=40
					39:[C_D_U_TITLEMD5_CATEGORY_MACRO_MAX_COEC<0.0347236] yes=79,no=80,missing=80
						79:leaf=-0.136632
						80:leaf=-0.0187478
					40:leaf=0.0610887
				20:[C_D_U_TITLEMD5_CATEGORY_MICRO_MAX_COEC<0.202246] yes=41,no=42,missing=42
					41:[C_D_U_KEYWORD_CATEGORY_MEAN_C<2.49463] yes=81,no=82,missing=82
						81:leaf=0.0925845
						82:leaf=-0.197725
					42:[KW_REL<0.00130187] yes=83,no=84,missing=84
						83:leaf=-0.0493869
						84:leaf=-0.345268
			10:[C_D_U_CATEGORY_CATEGORY_MACRO_MAX_COEC<0.02903] yes=21,no=22,missing=21
				21:[C_D_U_TITLEMD5_CITY_EC<8.8757] yes=43,no=44,missing=43
					43:[U_CATEGORY_MICRO_MEAN_COEC<0.0973719] yes=85,no=86,missing=86
						85:leaf=-0.00140251
						86:leaf=0.0604149
					44:[U_KEYWORD_MICRO_MAX_COEC<0.112355] yes=87,no=88,missing=88
						87:leaf=0.0881482
						88:leaf=0.0197126
				22:[U_KEYWORD_MICRO_MEAN_COEC<0.100976] yes=45,no=46,missing=46
					45:[C_D_U_TITLEMD5_GENDER_EC<911.728] yes=89,no=90,missing=89
						89:leaf=0.102379
						90:leaf=-0.0975382
					46:[KW_REL<0.00232287] yes=91,no=92,missing=92
						91:leaf=0.0286676
						92:leaf=0.0756913
	2:[WORD_COUNT<575] yes=5,no=6,missing=6
		5:[D_TITLEMD5_COEC<0.111705] yes=11,no=12,missing=11
			11:[D_CATEGORY_MAX_EC<378997] yes=23,no=24,missing=24
				23:[D_PUBLISHER_EC<4185.62] yes=47,no=48,missing=47
					47:[WORD_COUNT<386] yes=93,no=94,missing=94
						93:leaf=-0.0382684
						94:leaf=-0.0100313
					48:[U_KEYWORD_MAX_EC<257.561] yes=95,no=96,missing=95
						95:leaf=0.00189326
						96:leaf=-0.0102329
				24:[U_KEYWORD_MICRO_MEAN_COEC<0.103824] yes=49,no=50,missing=49
					49:[C_D_U_CATEGORY_CITY_MAX_EC<35634.1] yes=97,no=98,missing=98
						97:leaf=-0.0246522
						98:leaf=-0.010964
					50:[C_D_U_CATEGORY_CATEGORY_MICRO_MEAN_COEC<0.127616] yes=99,no=100,missing=99
						99:leaf=-0.0157798
						100:leaf=0.0109578
			12:[C_D_U_TITLEMD5_GENDER_COEC<0.149594] yes=25,no=26,missing=26
				25:[C_D_U_PUBLISHER_AGE_COEC<0.156048] yes=51,no=52,missing=51
					51:[D_TITLEMD5_C<359.938] yes=101,no=102,missing=102
						101:leaf=-0.00955018
						102:leaf=-0.0263756
					52:[U_AGE_COEC<0.0992837] yes=103,no=104,missing=104
						103:leaf=0.0188643
						104:leaf=-0.0211641
				26:[D_PUBLISHER_EC<59682.8] yes=53,no=54,missing=54
					53:[C_D_U_TITLEMD5_CATEGORY_MICRO_MEAN_COEC<0.111486] yes=105,no=106,missing=106
						105:leaf=0.0132614
						106:leaf=-0.00270483
					54:[U_KEYWORD_MACRO_MEAN_COEC<0.030908] yes=107,no=108,missing=108
						107:leaf=-0.00170708
						108:leaf=0.0340668
		6:[U_KEYWORD_MICRO_MEAN_COEC<0.0919562] yes=13,no=14,missing=14
			13:[U_KEYWORD_MACRO_MEAN_COEC<0.0221004] yes=27,no=28,missing=28
				27:[KW_REL<3.19244e-05] yes=55,no=56,missing=56
					55:[U_KEYWORD_MEAN_EC<535.882] yes=109,no=110,missing=110
						109:leaf=-0.0579783
						110:leaf=-0.0199831
					56:[CAT_REL<0.048389] yes=111,no=112,missing=112
						111:leaf=-0.0180993
						112:leaf=0.00144234
				28:[U_KEYWORD_MAX_EC<188.296] yes=57,no=58,missing=58
					57:[U_AGE_C<78073.5] yes=113,no=114,missing=113
						113:leaf=-0.000393556
						114:leaf=0.0146504
					58:[U_CATEGORY_MAX_EC<2410.47] yes=115,no=116,missing=115
						115:leaf=0.0333697
						116:leaf=-0.00827309
			14:[C_D_U_TITLEMD5_CATEGORY_MEAN_C<2.00912] yes=29,no=30,missing=29
				29:[C_D_U_CATEGORY_CITY_MICRO_MEAN_COEC<0.137732] yes=59,no=60,missing=59
					59:[DOC_AGE<2.73333] yes=117,no=118,missing=118
						117:leaf=0.0026886
						118:leaf=-0.00175
					60:[C_D_U_CATEGORY_CATEGORY_MICRO_MEAN_COEC<0.121005] yes=119,no=120,missing=120
						119:leaf=0.016948
						120:leaf=0.00345521
				30:[D_KEYWORD_MACRO_MEAN_COEC<0.0630038] yes=61,no=62,missing=62
					61:[U_CATEGORY_MICRO_MAX_COEC<0.096872] yes=121,no=122,missing=122
						121:leaf=0.000813684
						122:leaf=0.0167468
					62:[C_D_U_TITLEMD5_CATEGORY_MICRO_MAX_COEC<0.306001] yes=123,no=124,missing=124
						123:leaf=0.0013944
						124:leaf=0.00830623
booster[84]:
0:[U_CATEGORY_MACRO_MEAN_COEC<0.0266376] yes=1,no=2,missing=2
	1:[U_KEYWORD_MEAN_EC<1113.2] yes=3,no=4,missing=4
		3:[U_CITY_EC<2849.54] yes=7,no=8,missing=8
			7:[DOC_AGE<28.325] yes=15,no=16,missing=16
				15:[U_CATEGORY_MICRO_MAX_COEC<0.136242] yes=31,no=32,missing=32
					31:[C_D_U_CATEGORY_CITY_MICRO_MAX_COEC<0.0610667] yes=61,no=62,missing=62
						61:leaf=0.158844
						62:leaf=0.12875
					32:[CAT_REL<0.007713] yes=63,no=64,missing=64
						63:leaf=0.0775178
						64:leaf=-0.0658554
				16:leaf=-0.138185
			8:[IMAGE_COUNT<0.999999] yes=17,no=18,missing=18
				17:[C_D_U_CATEGORY_AGE_MACRO_MEAN_COEC<0.072473] yes=33,no=34,missing=33
					33:[C_D_U_CATEGORY_CATEGORY_MAX_C<2.11584] yes=65,no=66,missing=66
						65:leaf=-0.191247
						66:leaf=-0.0257656
					34:[M_D_U_KEYWORD_KEYWORD_MICRO_MEAN_COEC<0.0948467] yes=67,no=68,missing=68
						67:leaf=0.265238
						68:leaf=-0.0502275
				18:[C_D_U_CATEGORY_GENDER_MACRO_MEAN_COEC<0.13818] yes=35,no=36,missing=35
					35:[C_D_U_CATEGORY_CATEGORY_MAX_EC<78.3746] yes=69,no=70,missing=69
						69:leaf=0.0620887
						70:leaf=0.0143962
					36:[C_D_U_KEYWORD_CATEGORY_MEAN_C<0.494478] yes=71,no=72,missing=72
						71:leaf=-0.236528
						72:leaf=-0.0814751
		4:[U_KEYWORD_MICRO_MEAN_COEC<0.0928035] yes=9,no=10,missing=10
			9:[C_D_U_KEYWORD_CATEGORY_MICRO_MAX_COEC<0.131247] yes=19,no=20,missing=20
				19:[C_D_U_CATEGORY_CATEGORY_MICRO_MEAN_COEC<0.0507135] yes=37,no=38,missing=38
					37:leaf=-0.124338
					38:[C_D_U_PUBLISHER_CITY_COEC<0.0523062] yes=73,no=74,missing=74
						73:leaf=-0.124037
						74:leaf=0.161803
				20:[D_TITLEMD5_COEC<0.185728] yes=39,no=40,missing=40
					39:[KW_REL<0.00128336] yes=75,no=76,missing=76
						75:leaf=-0.0855053
						76:leaf=-0.161358
					40:[C_D_U_KEYWORD_CATEGORY_MICRO_MAX_COEC<0.327161] yes=77,no=78,missing=78
						77:leaf=-0.166255
						78:leaf=0.126372
			10:[U_AGE_COEC<0.0949668] yes=21,no=22,missing=22
				21:[C_D_U_CATEGORY_GENDER_MEAN_C<7860.23] yes=41,no=42,missing=42
					41:[U_CATEGORY_MICRO_MAX_COEC<0.105758] yes=79,no=80,missing=80
						79:leaf=0.032712
						80:leaf=0.173237
					42:[U_CITY_COEC<0.0863609] yes=81,no=82,missing=82
						81:leaf=-0.136099
						82:leaf=-0.0247925
				22:[U_GENDER_C<21887.7] yes=43,no=44,missing=44
					43:[U_CATEGORY_MAX_C<172.613] yes=83,no=84,missing=84
						83:leaf=-0.057249
						84:leaf=0.188446
					44:[C_D_U_CATEGORY_GENDER_MEAN_EC<28793.6] yes=85,no=86,missing=85
						85:leaf=0.0560006
						86:leaf=-0.0118824
	2:[U_KEYWORD_MICRO_MEAN_COEC<0.104346] yes=5,no=6,missing=5
		5:[DAY_OF_WEEK<0.999999] yes=11,no=12,missing=12
			11:[U_KEYWORD_MICRO_MAX_COEC<0.103857] yes=23,no=24,missing=23
				23:[WORD_COUNT<5085] yes=45,no=46,missing=46
					45:[U_CITY_COEC<0.0877707] yes=87,no=88,missing=88
						87:leaf=-0.00403888
						88:leaf=0.00350399
					46:[D_PUBLISHER_EC<43753.1] yes=89,no=90,missing=90
						89:leaf=-0.0139604
						90:leaf=-0.044729
				24:[TIME_OF_DAY<18] yes=47,no=48,missing=48
					47:[U_KEYWORD_MICRO_MEAN_COEC<0.0990231] yes=91,no=92,missing=92
						91:leaf=0.00344758
						92:leaf=0.0165049
					48:[DOC_AGE<13.8856] yes=93,no=94,missing=94
						93:leaf=0.0219877
						94:leaf=0.0020471
			12:[U_KEYWORD_MICRO_MEAN_COEC<0.0966053] yes=25,no=26,missing=26
				25:[U_KEYWORD_MACRO_MEAN_COEC<0.0332918] yes=49,no=50,missing=50
					49:[KW_REL<3.76685e-05] yes=95,no=96,missing=96
						95:leaf=-0.0196729
						96:leaf=-0.0054328
					50:[U_CATEGORY_MAX_C<795.025] yes=97,no=98,missing=97
						97:leaf=0.00909703
						98:leaf=-0.00618172
				26:[DAY_OF_WEEK<6] yes=51,no=52,missing=52
					51:[DAY_OF_WEEK<3] yes=99,no=100,missing=100
						99:leaf=0.00194221
						100:leaf=-0.00251039
					52:[U_CATEGORY_MICRO_MEAN_COEC<0.0866842] yes=101,no=102,missing=102
						101:leaf=0.011375
						102:leaf=0.00228884
		6:[U_CATEGORY_MACRO_MAX_COEC<0.0131965] yes=13,no=14,missing=14
			13:[U_KEYWORD_MICRO_MEAN_COEC<0.105671] yes=27,no=28,missing=28
				27:[U_GENDER_COEC<0.0926302] yes=53,no=54,missing=54
					53:[U_KEYWORD_MACRO_MAX_COEC<0.00104427] yes=103,no=104,missing=104
						103:leaf=0.132963
						104:leaf=0.0354209
					54:[U_KEYWORD_MACRO_MEAN_COEC<0.0286587] yes=105,no=106,missing=106
						105:leaf=0.00732377
						106:leaf=0.0585049
				28:[U_CATEGORY_MAX_C<207.939] yes=55,no=56,missing=56
					55:[U_CATEGORY_MICRO_MEAN_COEC<0.108117] yes=107,no=108,missing=108
						107:leaf=0.0342939
						108:leaf=0.083552
					56:[U_CATEGORY_MEAN_EC<8751.53] yes=109,no=110,missing=110
						109:leaf=0.00810246
						110:leaf=0.0455433
			14:[U_KEYWORD_MACRO_MAX_COEC<0.00188076] yes=29,no=30,missing=30
				29:[KW_REL<0.00164681] yes=57,no=58,missing=58
					57:[C_D_U_CATEGORY_CITY_MICRO_MAX_COEC<0.0954494] yes=111,no=112,missing=112
						111:leaf=-0.0106835
						112:leaf=0.0043626
					58:[WORD_COUNT<3238] yes=113,no=114,missing=114
						113:leaf=0.00631532
						114:leaf=0.0189407
				30:[U_KEYWORD_MEAN_C<124.458] yes=59,no=60,missing=60
					59:[U_KEYWORD_MICRO_MAX_COEC<0.125751] yes=115,no=116,missing=116
						115:leaf=-0.0197869
						116:leaf=0.0184636
					60:[U_AGE_C<88122.9] yes=117,no=118,missing=117
						117:leaf=0.00544526
						118:leaf=-0.0295071
booster[85]:
0:[M_D_U_KEYWORD_KEYWORD_MACRO_MEAN_COEC<0.001005] yes=1,no=2,missing=1
	1:[D_KEYWORD_MAX_C<17.3604] yes=3,no=4,missing=3
		3:[KW_REL<3.19244e-05] yes=7,no=8,missing=8
			7:[D_KEYWORD_MICRO_MEAN_COEC<0.260795] yes=15,no=16,missing=16
				15:[IMAGE_COUNT<0.999999] yes=31,no=32,missing=32
					31:[C_D_U_CATEGORY_CATEGORY_MACRO_MAX_COEC<0.00665951] yes=63,no=64,missing=64
						63:leaf=0.0424334
						64:leaf=-0.0391137
					32:[C_D_U_CATEGORY_CATEGORY_MICRO_MEAN_COEC<0.148347] yes=65,no=66,missing=65
						65:leaf=-0.000920098
						66:leaf=-0.0853706
				16:[D_TITLEMD5_COEC<0.100781] yes=33,no=34,missing=34
					33:[DOC_AGE<26.865] yes=67,no=68,missing=68
						67:leaf=0.0671979
						68:leaf=-0.00810691
					34:[D_TITLEMD5_C<344.765] yes=69,no=70,missing=70
						69:leaf=0.0214161
						70:leaf=-0.0120485
			8:[U_KEYWORD_MICRO_MAX_COEC<0.113203] yes=17,no=18,missing=18
				17:[D_CATEGORY_MAX_C<245.861] yes=35,no=36,missing=35
					35:[DOC_AGE<6.63333] yes=71,no=72,missing=72
						71:leaf=0.0603486
						72:leaf=0.0150043
					36:[U_CATEGORY_MICRO_MAX_COEC<0.100006] yes=73,no=74,missing=74
						73:leaf=-0.00157786
						74:leaf=0.0108085
				18:[D_CATEGORY_MAX_C<4860.94] yes=37,no=38,missing=37
					37:[D_KEYWORD_MEAN_EC<1541.08] yes=75,no=76,missing=76
						75:leaf=0.0114361
						76:leaf=0.221822
					38:[U_CATEGORY_MAX_EC<2863.8] yes=77,no=78,missing=77
						77:leaf=0.0401961
						78:leaf=0.0196968
		4:[U_KEYWORD_MEAN_EC<78.2309] yes=9,no=10,missing=10
			9:[U_KEYWORD_MACRO_MEAN_COEC<0.0300529] yes=19,no=20,missing=20
				19:[U_CITY_C<3186.02] yes=39,no=40,missing=40
					39:[U_GENDER_COEC<0.105766] yes=79,no=80,missing=79
						79:leaf=-0.0734568
						80:leaf=0.184638
					40:[TIME_OF_DAY<6] yes=81,no=82,missing=82
						81:leaf=-0.00649943
						82:leaf=-0.0463268
				20:[CAT_REL<0.117943] yes=41,no=42,missing=42
					41:[C_D_U_TITLEMD5_CITY_COEC<0.284443] yes=83,no=84,missing=84
						83:leaf=0.0152085
						84:leaf=-0.0409929
					42:[U_CITY_EC<44962.2] yes=85,no=86,missing=86
						85:leaf=-0.0131138
						86:leaf=-0.0982251
			10:[U_KEYWORD_MICRO_MAX_COEC<0.125894] yes=21,no=22,missing=21
				21:[U_CATEGORY_MACRO_MAX_COEC<0.0225036] yes=43,no=44,missing=43
					43:[U_KEYWORD_MICRO_MEAN_COEC<0.105668] yes=87,no=88,missing=87
						87:leaf=-0.00017556
						88:leaf=0.0120257
					44:[C_D_U_PUBLISHER_AGE_COEC<0.0797208] yes=89,no=90,missing=89
						89:leaf=-0.00690735
						90:leaf=0.00113386
				22:[C_D_U_TITLEMD5_CATEGORY_MICRO_MEAN_COEC<0.100802] yes=45,no=46,missing=46
					45:[U_CITY_COEC<0.0638372] yes=91,no=92,missing=92
						91:leaf=-0.0461476
						92:leaf=0.0137508
					46:[U_KEYWORD_MACRO_MEAN_COEC<0.026094] yes=93,no=94,missing=94
						93:leaf=-0.0072483
						94:leaf=0.00614842
	2:[U_KEYWORD_MACRO_MEAN_COEC<0.0275533] yes=5,no=6,missing=6
		5:[DOC_AGE<25.0128] yes=11,no=12,missing=12
			11:[C_D_U_TITLEMD5_CATEGORY_MICRO_MEAN_COEC<0.0625993] yes=23,no=24,missing=24
				23:[C_D_U_PUBLISHER_AGE_C<284.803] yes=47,no=48,missing=47
					47:[M_D_U_KEYWORD_KEYWORD_MACRO_MEAN_COEC<0.00137163] yes=95,no=96,missing=96
						95:leaf=0.0253369
						96:leaf=0.0732852
					48:[D_KEYWORD_MEAN_EC<8890.35] yes=97,no=98,missing=98
						97:leaf=0.106297
						98:leaf=-0.0470293
				24:[D_KEYWORD_MACRO_MAX_COEC<0.028645] yes=49,no=50,missing=50
					49:[D_PUBLISHER_C<1689.34] yes=99,no=100,missing=100
						99:leaf=0.0173885
						100:leaf=0.0420127
					50:[U_KEYWORD_MICRO_MEAN_COEC<0.0925278] yes=101,no=102,missing=102
						101:leaf=-0.0236117
						102:leaf=0.0170294
			12:[WORD_COUNT<4897] yes=25,no=26,missing=26
				25:[D_KEYWORD_MACRO_MAX_COEC<0.0368346] yes=51,no=52,missing=52
					51:[C_D_U_TITLEMD5_CATEGORY_MACRO_MEAN_COEC<0.0295613] yes=103,no=104,missing=104
						103:leaf=0.0539834
						104:leaf=0.00742414
					52:[U_AGE_EC<823352] yes=105,no=106,missing=105
						105:leaf=-0.0274052
						106:leaf=0.0280401
				26:[C_D_U_PUBLISHER_GENDER_COEC<0.0806335] yes=53,no=54,missing=54
					53:[M_D_U_KEYWORD_KEYWORD_MICRO_MEAN_COEC<0.132255] yes=107,no=108,missing=108
						107:leaf=-0.0718471
						108:leaf=0.118467
					54:[C_D_U_TITLEMD5_CITY_EC<16.8164] yes=109,no=110,missing=110
						109:leaf=-0.190197
						110:leaf=-0.0657533
		6:[DOC_AGE<42.0175] yes=13,no=14,missing=14
			13:[U_CATEGORY_MICRO_MAX_COEC<0.10167] yes=27,no=28,missing=27
				27:[WORD_COUNT<3825] yes=55,no=56,missing=56
					55:[D_KEYWORD_MACRO_MAX_COEC<0.0178321] yes=111,no=112,missing=112
						111:leaf=0.0229409
						112:leaf=-0.00325134
					56:[M_D_U_KEYWORD_KEYWORD_MICRO_MAX_COEC<0.200522] yes=113,no=114,missing=114
						113:leaf=-0.0616311
						114:leaf=-0.00197138
				28:[C_D_U_CATEGORY_GENDER_MACRO_MEAN_COEC<0.118] yes=57,no=58,missing=57
					57:[U_KEYWORD_MEAN_C<114.574] yes=115,no=116,missing=116
						115:leaf=0.0238588
						116:leaf=0.00553021
					58:[U_CITY_C<37274.7] yes=117,no=118,missing=117
						117:leaf=-0.0346975
						118:leaf=0.0997883
			14:[U_GENDER_COEC<0.093963] yes=29,no=30,missing=30
				29:[D_KEYWORD_MAX_C<265.941] yes=59,no=60,missing=60
					59:[C_D_U_TITLEMD5_CATEGORY_MEAN_C<1.63271] yes=119,no=120,missing=120
						119:leaf=-0.0894434
						120:leaf=0.00724895
					60:[D_CATEGORY_MICRO_MAX_COEC<0.12163] yes=121,no=122,missing=122
						121:leaf=0.079121
						122:leaf=-0.219845
				30:[C_D_U_KEYWORD_CATEGORY_MICRO_MAX_COEC<0.234084] yes=61,no=62,missing=62
					61:[C_D_U_KEYWORD_CATEGORY_MEAN_EC<34.3352] yes=123,no=124,missing=124
						123:leaf=0.0019174
						124:leaf=-0.058405
					62:[C_D_U_PUBLISHER_GENDER_EC<2096.99] yes=125,no=126,missing=125
						125:leaf=-0.120748
						126:leaf=0.0406718
booster[86]:
0:[C_D_U_PUBLISHER_CITY_COEC<0.12317] yes=1,no=2,missing=1
	1:[WORD_COUNT<1394] yes=3,no=4,missing=4
		3:[C_D_U_TITLEMD5_CATEGORY_MICRO_MEAN_COEC<0.0718874] yes=7,no=8,missing=7
			7:[LARGE_IMAGE<0.999999] yes=15,no=16,missing=16
				15:[DOC_AGE<23.6333] yes=31,no=32,missing=32
					31:[D_KEYWORD_MAX_C<41.2369] yes=63,no=64,missing=64
						63:leaf=0.00122621
						64:leaf=-0.0091465
					32:[U_KEYWORD_MEAN_EC<1301.75] yes=65,no=66,missing=65
						65:leaf=0.0036687
						66:leaf=0.0272926
				16:[U_KEYWORD_MEAN_C<122.572] yes=33,no=34,missing=33
					33:[C_D_U_CATEGORY_CITY_MICRO_MEAN_COEC<0.13426] yes=67,no=68,missing=68
						67:leaf=-0.00148172
						68:leaf=0.00640963
					34:[TIME_OF_DAY<16] yes=69,no=70,missing=70
						69:leaf=0.0129485
						70:leaf=-0.00269462
			8:[C_D_U_TITLEMD5_GENDER_COEC<0.0704338] yes=17,no=18,missing=18
				17:[C_D_U_KEYWORD_CATEGORY_MAX_C<0.0478845] yes=35,no=36,missing=36
					35:[C_D_U_CATEGORY_CITY_MEAN_EC<10.3308] yes=71,no=72,missing=72
						71:leaf=0.0590528
						72:leaf=5.13807e-05
					36:[D_KEYWORD_MICRO_MEAN_COEC<0.0875794] yes=73,no=74,missing=74
						73:leaf=-0.0154793
						74:leaf=-0.0269647
				18:[D_KEYWORD_MACRO_MEAN_COEC<0.113552] yes=37,no=38,missing=38
					37:[KW_REL<0.00375417] yes=75,no=76,missing=76
						75:leaf=-0.00712127
						76:leaf=-0.000870083
					38:[D_PUBLISHER_COEC<0.0953122] yes=77,no=78,missing=78
						77:leaf=0.0092954
						78:leaf=-0.000406719
		4:[C_D_U_TITLEMD5_CATEGORY_MEAN_EC<0.502376] yes=9,no=10,missing=10
			9:[C_D_U_CATEGORY_CATEGORY_MICRO_MAX_COEC<0.134304] yes=19,no=20,missing=20
				19:[C_D_U_CATEGORY_CITY_MACRO_MAX_COEC<0.0463637] yes=39,no=40,missing=39
					39:[U_KEYWORD_MICRO_MAX_COEC<0.120789] yes=79,no=80,missing=80
						79:leaf=-0.0169689
						80:leaf=0.00309208
					40:[DOC_AGE<75.4] yes=81,no=82,missing=82
						81:leaf=-0.00573666
						82:leaf=0.0150098
				20:[D_CATEGORY_MICRO_MAX_COEC<0.0974391] yes=41,no=42,missing=41
					41:[C_D_U_CATEGORY_CITY_MICRO_MEAN_COEC<0.0960238] yes=83,no=84,missing=83
						83:leaf=0.00787533
						84:leaf=0.0360176
					42:[D_KEYWORD_MACRO_MEAN_COEC<0.0660142] yes=85,no=86,missing=86
						85:leaf=-0.0227322
						86:leaf=0.00255892
			10:[CAT_REL<0.158016] yes=21,no=22,missing=22
				21:[D_CATEGORY_MICRO_MEAN_COEC<0.0814799] yes=43,no=44,missing=44
					43:[DOC_AGE<23.8747] yes=87,no=88,missing=88
						87:leaf=-0.00253365
						88:leaf=0.00784968
					44:[D_KEYWORD_MICRO_MEAN_COEC<0.0841855] yes=89,no=90,missing=89
						89:leaf=0.0114362
						90:leaf=0.00112047
				22:[U_KEYWORD_MACRO_MAX_COEC<0.00398005] yes=45,no=46,missing=46
					45:[U_CATEGORY_MAX_EC<4561.04] yes=91,no=92,missing=92
						91:leaf=0.0241256
						92:leaf=0.00758372
					46:[U_CATEGORY_MEAN_C<2998.6] yes=93,no=94,missing=94
						93:leaf=-0.00621539
						94:leaf=-0.0342028
	2:[D_CATEGORY_MACRO_MEAN_COEC<0.112084] yes=5,no=6,missing=5
		5:[DAY_OF_WEEK<6] yes=11,no=12,missing=12
			11:[U_KEYWORD_MACRO_MAX_COEC<0.00117829] yes=23,no=24,missing=24
				23:[D_CATEGORY_MEAN_EC<3358.21] yes=47,no=48,missing=48
					47:[U_GENDER_COEC<0.100223] yes=95,no=96,missing=95
						95:leaf=0.0597529
						96:leaf=-0.12892
					48:[D_KEYWORD_MICRO_MEAN_COEC<0.0707808] yes=97,no=98,missing=98
						97:leaf=0.040602
						98:leaf=0.0120218
				24:[WORD_COUNT<5085] yes=49,no=50,missing=50
					49:[C_D_U_CATEGORY_GENDER_MACRO_MAX_COEC<0.12268] yes=99,no=100,missing=99
						99:leaf=0.00402086
						100:leaf=0.0223992
					50:[D_KEYWORD_MACRO_MAX_COEC<0.0221855] yes=101,no=102,missing=102
						101:leaf=-0.00144038
						102:leaf=-0.0260872
			12:[C_D_U_CATEGORY_AGE_MEAN_C<6392.57] yes=25,no=26,missing=25
				25:[U_KEYWORD_MICRO_MEAN_COEC<0.0955887] yes=51,no=52,missing=51
					51:[WORD_COUNT<4560] yes=103,no=104,missing=104
						103:leaf=0.00787322
						104:leaf=-0.0198031
					52:[U_CATEGORY_MAX_EC<618.666] yes=105,no=106,missing=105
						105:leaf=0.0942992
						106:leaf=0.0171682
				26:[C_D_U_CATEGORY_CITY_MACRO_MAX_COEC<0.0883751] yes=53,no=54,missing=54
					53:[D_PUBLISHER_COEC<0.0939724] yes=107,no=108,missing=108
						107:leaf=-0.0485012
						108:leaf=0.0298668
					54:[WORD_COUNT<3506] yes=109,no=110,missing=110
						109:leaf=0.0741541
						110:leaf=-0.0255333
		6:[C_D_U_TITLEMD5_CATEGORY_MICRO_MEAN_COEC<0.267713] yes=13,no=14,missing=13
			13:[DOC_AGE<12.1] yes=27,no=28,missing=28
				27:[D_KEYWORD_MICRO_MEAN_COEC<0.0901785] yes=55,no=56,missing=56
					55:[D_TITLEMD5_COEC<0.132058] yes=111,no=112,missing=111
						111:leaf=0.0118481
						112:leaf=0.0399416
					56:[C_D_U_TITLEMD5_CITY_COEC<0.204031] yes=113,no=114,missing=114
						113:leaf=-0.000428938
						114:leaf=0.00623476
				28:[TIME_OF_DAY<13] yes=57,no=58,missing=58
					57:[D_KEYWORD_MAX_C<299.951] yes=115,no=116,missing=116
						115:leaf=0.00154599
						116:leaf=-0.00571579
					58:[D_KEYWORD_MEAN_EC<1298.11] yes=117,no=118,missing=118
						117:leaf=0.0113625
						118:leaf=-0.0101305
			14:[WORD_COUNT<741] yes=29,no=30,missing=30
				29:[C_D_U_PUBLISHER_CITY_COEC<0.306683] yes=59,no=60,missing=60
					59:[U_KEYWORD_MICRO_MEAN_COEC<0.0987013] yes=119,no=120,missing=120
						119:leaf=-0.0248752
						120:leaf=-0.00383827
					60:[KW_REL<0.00255548] yes=121,no=122,missing=122
						121:leaf=0.0237753
						122:leaf=-0.133164
				30:[KW_REL<0.00572552] yes=61,no=62,missing=62
					61:[U_CATEGORY_MACRO_MEAN_COEC<0.0711625] yes=123,no=124,missing=124
						123:leaf=0.0171337
						124:leaf=0.00346176
					62:[D_CATEGORY_MEAN_EC<26484.5] yes=125,no=126,missing=126
						125:leaf=-0.392222
						126:leaf=-0.0336775
booster[87]:
0:[D_CATEGORY_MICRO_MAX_COEC<0.0626873] yes=1,no=2,missing=1
	1:[C_D_U_CATEGORY_CITY_MACRO_MAX_COEC<0.0699181] yes=3,no=4,missing=3
		3:[D_CATEGORY_MAX_C<1342.62] yes=7,no=8,missing=8
			7:[D_PUBLISHER_COEC<0.0844189] yes=15,no=16,missing=15
				15:[C_D_U_CATEGORY_CATEGORY_MACRO_MAX_COEC<0.00765408] yes=31,no=32,missing=31
					31:[D_TITLEMD5_COEC<0.272979] yes=63,no=64,missing=64
						63:leaf=-0.0160047
						64:leaf=-0.0545028
					32:[CAT_REL<0.107316] yes=65,no=66,missing=66
						65:leaf=-0.0069904
						66:leaf=0.0124456
				16:[D_CATEGORY_MAX_EC<15208.4] yes=33,no=34,missing=34
					33:[C_D_U_TITLEMD5_GENDER_COEC<0.0946584] yes=67,no=68,missing=67
						67:leaf=0.00718936
						68:leaf=0.0463672
					34:[C_D_U_CATEGORY_CATEGORY_MICRO_MEAN_COEC<0.0951231] yes=69,no=70,missing=70
						69:leaf=-0.0617523
						70:leaf=0.0153952
			8:[U_KEYWORD_MICRO_MEAN_COEC<0.0977019] yes=17,no=18,missing=17
				17:[D_KEYWORD_MICRO_MAX_COEC<0.0921185] yes=35,no=36,missing=36
					35:[D_KEYWORD_MEAN_EC<3943.72] yes=71,no=72,missing=72
						71:leaf=-0.00396819
						72:leaf=-0.0198703
					36:[U_GENDER_COEC<0.0919401] yes=73,no=74,missing=73
						73:leaf=0.00669051
						74:leaf=-0.011162
				18:[C_D_U_CATEGORY_CATEGORY_MAX_EC<254.886] yes=37,no=38,missing=38
					37:[D_TITLEMD5_EC<4086.58] yes=75,no=76,missing=75
						75:leaf=0.00610036
						76:leaf=0.0398572
					38:[U_KEYWORD_MACRO_MAX_COEC<0.00218528] yes=77,no=78,missing=78
						77:leaf=0.02657
						78:leaf=-0.00139966
		4:[DOC_AGE<8.09639] yes=9,no=10,missing=10
			9:[D_KEYWORD_MAX_C<449.701] yes=19,no=20,missing=20
				19:[D_CATEGORY_MACRO_MAX_COEC<0.0449538] yes=39,no=40,missing=40
					39:[C_D_U_TITLEMD5_CATEGORY_MAX_C<0.094905] yes=79,no=80,missing=80
						79:leaf=-0.0464613
						80:leaf=0.0338663
					40:[U_AGE_EC<904469] yes=81,no=82,missing=81
						81:leaf=0.0363209
						82:leaf=-0.000561329
				20:[U_CITY_COEC<0.0934333] yes=41,no=42,missing=42
					41:[M_D_U_KEYWORD_KEYWORD_MICRO_MEAN_COEC<0.103761] yes=83,no=84,missing=84
						83:leaf=-0.00322899
						84:leaf=-0.0990636
					42:[U_CATEGORY_MICRO_MAX_COEC<0.105669] yes=85,no=86,missing=86
						85:leaf=-0.0531544
						86:leaf=0.056845
			10:[C_D_U_CATEGORY_CITY_MEAN_EC<20.9644] yes=21,no=22,missing=22
				21:[C_D_U_KEYWORD_CATEGORY_MICRO_MAX_COEC<0.115306] yes=43,no=44,missing=43
					43:[C_D_U_TITLEMD5_CATEGORY_MEAN_EC<66.6279] yes=87,no=88,missing=87
						87:leaf=-0.0630418
						88:leaf=0.226792
					44:[U_CATEGORY_MEAN_EC<14956.8] yes=89,no=90,missing=90
						89:leaf=-0.00933832
						90:leaf=0.0444214
				22:[C_D_U_CATEGORY_GENDER_MICRO_MEAN_COEC<0.0686523] yes=45,no=46,missing=45
					45:[C_D_U_TITLEMD5_CITY_C<19.388] yes=91,no=92,missing=91
						91:leaf=0.0144954
						92:leaf=0.0413114
					46:[C_D_U_CATEGORY_CITY_MAX_EC<3691.83] yes=93,no=94,missing=94
						93:leaf=-0.00120564
						94:leaf=-0.0952069
	2:[U_KEYWORD_MICRO_MEAN_COEC<0.103537] yes=5,no=6,missing=5
		5:[DAY_OF_WEEK<3] yes=11,no=12,missing=12
			11:[D_KEYWORD_MEAN_EC<6034.33] yes=23,no=24,missing=24
				23:[M_D_U_KEYWORD_KEYWORD_MAX_C<0.0143317] yes=47,no=48,missing=47
					47:[D_CATEGORY_MACRO_MAX_COEC<0.0696951] yes=95,no=96,missing=96
						95:leaf=-0.00348512
						96:leaf=0.00192851
					48:[U_KEYWORD_MICRO_MEAN_COEC<0.0970848] yes=97,no=98,missing=98
						97:leaf=0.000175953
						98:leaf=0.0116057
				24:[DAY_OF_WEEK<0.999999] yes=49,no=50,missing=50
					49:[C_D_U_CATEGORY_CATEGORY_MEAN_EC<170.565] yes=99,no=100,missing=100
						99:leaf=0.0148479
						100:leaf=0.00105924
					50:[U_KEYWORD_MEAN_EC<1301.72] yes=101,no=102,missing=102
						101:leaf=-0.0111919
						102:leaf=-0.00240175
			12:[DAY_OF_WEEK<6] yes=25,no=26,missing=26
				25:[U_KEYWORD_MICRO_MAX_COEC<0.112771] yes=51,no=52,missing=52
					51:[U_GENDER_C<22338.6] yes=103,no=104,missing=104
						103:leaf=0.00748807
						104:leaf=-0.00877598
					52:[U_CATEGORY_MICRO_MEAN_COEC<0.106644] yes=105,no=106,missing=105
						105:leaf=-0.00132737
						106:leaf=-0.0153147
				26:[C_D_U_TITLEMD5_CITY_COEC<0.202392] yes=53,no=54,missing=53
					53:[DOC_AGE<0.772777] yes=107,no=108,missing=108
						107:leaf=0.0139204
						108:leaf=-0.000272396
					54:[C_D_U_TITLEMD5_CITY_C<4.49273] yes=109,no=110,missing=110
						109:leaf=0.00337003
						110:leaf=0.0183033
		6:[U_CATEGORY_MACRO_MEAN_COEC<0.0617981] yes=13,no=14,missing=14
			13:[U_KEYWORD_MICRO_MEAN_COEC<0.105886] yes=27,no=28,missing=28
				27:[D_CATEGORY_MICRO_MAX_COEC<0.0889157] yes=55,no=56,missing=56
					55:[C_D_U_CATEGORY_CATEGORY_MICRO_MEAN_COEC<0.142304] yes=111,no=112,missing=112
						111:leaf=0.000259035
						112:leaf=0.0345667
					56:[U_KEYWORD_MEAN_C<157.787] yes=113,no=114,missing=114
						113:leaf=0.00693822
						114:leaf=0.025088
				28:[U_CATEGORY_MACRO_MAX_COEC<0.0126545] yes=57,no=58,missing=58
					57:[U_GENDER_EC<215931] yes=115,no=116,missing=116
						115:leaf=-0.032793
						116:leaf=0.0434423
					58:[U_AGE_C<85148.2] yes=117,no=118,missing=118
						117:leaf=0.0340423
						118:leaf=0.00358161
			14:[U_KEYWORD_MEAN_EC<1115.11] yes=29,no=30,missing=30
				29:[U_KEYWORD_MACRO_MAX_COEC<0.00164702] yes=59,no=60,missing=60
					59:[C_D_U_KEYWORD_CATEGORY_MACRO_MEAN_COEC<0.0507342] yes=119,no=120,missing=120
						119:leaf=-0.0270285
						120:leaf=0.00461603
					60:[U_CATEGORY_MICRO_MEAN_COEC<0.099843] yes=121,no=122,missing=122
						121:leaf=-0.00527867
						122:leaf=-0.0239756
				30:[D_CATEGORY_MEAN_C<15569.8] yes=61,no=62,missing=62
					61:[U_CATEGORY_MICRO_MAX_COEC<0.0807724] yes=123,no=124,missing=124
						123:leaf=0.136222
						124:leaf=-0.00209342
					62:[U_CATEGORY_MACRO_MAX_COEC<0.0190207] yes=125,no=126,missing=126
						125:leaf=-0.00130999
						126:leaf=0.0132063
booster[88]:
0:[IMAGE_COUNT<3] yes=1,no=2,missing=2
	1:[U_CITY_COEC<0.100609] yes=3,no=4,missing=3
		3:[C_D_U_TITLEMD5_CITY_C<0.960692] yes=7,no=8,missing=7
			7:[C_D_U_KEYWORD_CATEGORY_MACRO_MEAN_COEC<0.0658919] yes=15,no=16,missing=16
				15:[U_GENDER_COEC<0.0897277] yes=31,no=32,missing=32
					31:[C_D_U_TITLEMD5_GENDER_COEC<0.102598] yes=63,no=64,missing=64
						63:leaf=-0.0001654
						64:leaf=0.0109521
					32:[KW_REL<0.00409717] yes=65,no=66,missing=66
						65:leaf=-0.00610142
						66:leaf=0.000633037
				16:[U_CITY_COEC<0.0906247] yes=33,no=34,missing=34
					33:[C_D_U_KEYWORD_CATEGORY_MEAN_C<6.63878] yes=67,no=68,missing=68
						67:leaf=0.00210705
						68:leaf=-0.0110066
					34:[U_GENDER_COEC<0.0947756] yes=69,no=70,missing=70
						69:leaf=-0.00696561
						70:leaf=0.00631381
			8:[C_D_U_TITLEMD5_CATEGORY_MICRO_MEAN_COEC<0.0766868] yes=17,no=18,missing=18
				17:[D_TITLEMD5_EC<143.31] yes=35,no=36,missing=36
					35:[C_D_U_TITLEMD5_CITY_C<1.87404] yes=71,no=72,missing=72
						71:leaf=0.0145898
						72:leaf=0.0333769
					36:[KW_REL<0.00056647] yes=73,no=74,missing=74
						73:leaf=-0.00349509
						74:leaf=0.00670823
				18:[DOC_AGE<12.2592] yes=37,no=38,missing=38
					37:[KW_REL<0.00106708] yes=75,no=76,missing=76
						75:leaf=-0.00189375
						76:leaf=0.00372668
					38:[DOC_AGE<23.7433] yes=77,no=78,missing=78
						77:leaf=-0.00427951
						78:leaf=0.00110881
		4:[U_CATEGORY_MEAN_C<200.862] yes=9,no=10,missing=10
			9:[U_KEYWORD_MAX_EC<275.616] yes=19,no=20,missing=20
				19:[U_AGE_COEC<0.100876] yes=39,no=40,missing=39
					39:[U_GENDER_EC<737121] yes=79,no=80,missing=80
						79:leaf=0.133915
						80:leaf=0.103454
					40:[C_D_U_TITLEMD5_CATEGORY_MACRO_MAX_COEC<0.0216779] yes=81,no=82,missing=82
						81:leaf=0.0491876
						82:leaf=-0.147687
				20:[C_D_U_TITLEMD5_GENDER_COEC<0.079126] yes=41,no=42,missing=41
					41:[D_KEYWORD_MACRO_MAX_COEC<0.0370534] yes=83,no=84,missing=84
						83:leaf=-0.179823
						84:leaf=0.00324336
					42:[D_KEYWORD_MICRO_MEAN_COEC<0.099328] yes=85,no=86,missing=86
						85:leaf=0.130127
						86:leaf=-0.0481498
			10:[U_CATEGORY_MACRO_MAX_COEC<0.0112563] yes=21,no=22,missing=21
				21:[TIME_OF_DAY<18] yes=43,no=44,missing=44
					43:[U_AGE_COEC<0.0969004] yes=87,no=88,missing=87
						87:leaf=0.0142693
						88:leaf=-0.00465107
					44:[U_KEYWORD_MICRO_MAX_COEC<0.114643] yes=89,no=90,missing=90
						89:leaf=0.0643728
						90:leaf=0.0221859
				22:[U_CATEGORY_MICRO_MEAN_COEC<0.116084] yes=45,no=46,missing=46
					45:[C_D_U_TITLEMD5_CITY_COEC<0.0622934] yes=91,no=92,missing=92
						91:leaf=0.0107579
						92:leaf=0.000263943
					46:[U_CATEGORY_MAX_EC<2186.74] yes=93,no=94,missing=94
						93:leaf=0.0934803
						94:leaf=-0.0712329
	2:[D_CATEGORY_MACRO_MAX_COEC<0.0646718] yes=5,no=6,missing=5
		5:[TIME_OF_DAY<12] yes=11,no=12,missing=12
			11:[D_TITLEMD5_COEC<0.0549473] yes=23,no=24,missing=24
				23:[C_D_U_PUBLISHER_GENDER_EC<7644.92] yes=47,no=48,missing=47
					47:[D_KEYWORD_MACRO_MAX_COEC<0.0110788] yes=95,no=96,missing=96
						95:leaf=-0.00907561
						96:leaf=0.0135428
					48:[U_AGE_COEC<0.0936362] yes=97,no=98,missing=98
						97:leaf=-0.0200663
						98:leaf=0.0339997
				24:[DOC_AGE<6.69083] yes=49,no=50,missing=50
					49:[U_CATEGORY_MICRO_MEAN_COEC<0.0768623] yes=99,no=100,missing=99
						99:leaf=0.0177537
						100:leaf=0.0614809
					50:[D_TITLEMD5_COEC<0.105523] yes=101,no=102,missing=102
						101:leaf=0.0268079
						102:leaf=-0.00627681
			12:[C_D_U_CATEGORY_GENDER_MEAN_C<5061.03] yes=25,no=26,missing=25
				25:[D_PUBLISHER_COEC<0.0464502] yes=51,no=52,missing=52
					51:[C_D_U_TITLEMD5_CATEGORY_MAX_EC<2.83032] yes=103,no=104,missing=104
						103:leaf=-0.0353543
						104:leaf=-0.00103041
					52:[C_D_U_CATEGORY_CITY_MACRO_MAX_COEC<0.0688308] yes=105,no=106,missing=105
						105:leaf=0.0096603
						106:leaf=0.0411689
				26:[U_CITY_C<39118.5] yes=53,no=54,missing=53
					53:[C_D_U_TITLEMD5_CATEGORY_MEAN_EC<48.3657] yes=107,no=108,missing=107
						107:leaf=-0.0686316
						108:leaf=0.0248854
					54:[C_D_U_TITLEMD5_CATEGORY_MICRO_MAX_COEC<0.0751042] yes=109,no=110,missing=109
						109:leaf=-0.12882
						110:leaf=0.132211
		6:[CAT_REL<0.027041] yes=13,no=14,missing=14
			13:[C_D_U_TITLEMD5_CATEGORY_MICRO_MAX_COEC<0.111393] yes=27,no=28,missing=28
				27:[WORD_COUNT<2935] yes=55,no=56,missing=56
					55:[DOC_AGE<1.94972] yes=111,no=112,missing=112
						111:leaf=0.0376907
						112:leaf=-0.00178975
					56:[C_D_U_CATEGORY_CATEGORY_MACRO_MAX_COEC<0.0185914] yes=113,no=114,missing=114
						113:leaf=-0.0209593
						114:leaf=-0.00048562
				28:[WORD_COUNT<8587] yes=57,no=58,missing=58
					57:[D_KEYWORD_MICRO_MEAN_COEC<0.0950467] yes=115,no=116,missing=116
						115:leaf=0.00584346
						116:leaf=-0.00327989
					58:[D_KEYWORD_MEAN_C<89.8066] yes=117,no=118,missing=118
						117:leaf=0.0798473
						118:leaf=0.00916412
			14:[DOC_AGE<6.96667] yes=29,no=30,missing=30
				29:[U_KEYWORD_MICRO_MEAN_COEC<0.0957335] yes=59,no=60,missing=60
					59:[D_PUBLISHER_C<4235.43] yes=119,no=120,missing=120
						119:leaf=-0.00871113
						120:leaf=0.0212538
					60:[U_KEYWORD_MACRO_MAX_COEC<0.00127407] yes=121,no=122,missing=122
						121:leaf=0.0315315
						122:leaf=0.0152528
				30:[D_TITLEMD5_EC<20.2495] yes=61,no=62,missing=62
					61:[U_KEYWORD_MAX_EC<239.998] yes=123,no=124,missing=124
						123:leaf=0.0785373
						124:leaf=-0.00249389
					62:[U_KEYWORD_MICRO_MEAN_COEC<0.10461] yes=125,no=126,missing=126
						125:leaf=0.00227603
						126:leaf=0.0238132
booster[89]:
0:[DOC_AGE<1.245] yes=1,no=2,missing=2
	1:[D_TITLEMD5_C<2] yes=3,no=4,missing=3
		3:[D_PUBLISHER_C<3287.65] yes=7,no=8,missing=7
			7:[D_KEYWORD_MICRO_MEAN_COEC<0.0976953] yes=15,no=16,missing=16
				15:[CAT_REL<0.102726] yes=31,no=32,missing=32
					31:[DOC_AGE<0.263055] yes=63,no=64,missing=64
						63:leaf=0.00230186
						64:leaf=-0.010325
					32:[U_CATEGORY_MICRO_MEAN_COEC<0.0789111] yes=65,no=66,missing=66
						65:leaf=-0.0209379
						66:leaf=0.0108381
				16:[C_D_U_CATEGORY_CATEGORY_MICRO_MAX_COEC<0.170261] yes=33,no=34,missing=33
					33:[C_D_U_PUBLISHER_CITY_COEC<0.0768715] yes=67,no=68,missing=67
						67:leaf=-0.0295956
						68:leaf=-0.00836492
					34:[U_KEYWORD_MICRO_MAX_COEC<0.113315] yes=69,no=70,missing=70
						69:leaf=0.0454477
						70:leaf=-0.0103609
			8:[D_PUBLISHER_C<13539.8] yes=17,no=18,missing=18
				17:[U_GENDER_COEC<0.0885298] yes=35,no=36,missing=36
					35:[C_D_U_PUBLISHER_AGE_EC<20856.7] yes=71,no=72,missing=72
						71:leaf=-0.0225675
						72:leaf=0.0591592
					36:[C_D_U_TITLEMD5_CATEGORY_MICRO_MEAN_COEC<0.0658173] yes=73,no=74,missing=74
						73:leaf=0.0152344
						74:leaf=-0.00377977
				18:[CAT_REL<0.008813] yes=37,no=38,missing=38
					37:[KW_REL<0.00721142] yes=75,no=76,missing=76
						75:leaf=-0.0704549
						76:leaf=0.334824
					38:[D_KEYWORD_MICRO_MEAN_COEC<0.0987738] yes=77,no=78,missing=78
						77:leaf=0.00076222
						78:leaf=-0.118755
		4:[C_D_U_TITLEMD5_CATEGORY_MICRO_MEAN_COEC<0.0999938] yes=9,no=10,missing=10
			9:[D_TITLEMD5_COEC<0.0446422] yes=19,no=20,missing=19
				19:[U_CATEGORY_MICRO_MEAN_COEC<0.0917041] yes=39,no=40,missing=40
					39:[U_GENDER_COEC<0.0907867] yes=79,no=80,missing=80
						79:leaf=0.0159732
						80:leaf=-0.011166
					40:[U_KEYWORD_MAX_EC<213.166] yes=81,no=82,missing=82
						81:leaf=-0.0232312
						82:leaf=0.0207724
				20:[C_D_U_TITLEMD5_GENDER_EC<36.7267] yes=41,no=42,missing=41
					41:[U_KEYWORD_MICRO_MAX_COEC<0.107307] yes=83,no=84,missing=84
						83:leaf=0.0012034
						84:leaf=0.0167957
					42:[C_D_U_CATEGORY_GENDER_MACRO_MAX_COEC<0.0595491] yes=85,no=86,missing=86
						85:leaf=0.0506788
						86:leaf=0.0240903
			10:[C_D_U_KEYWORD_CATEGORY_MICRO_MEAN_COEC<0.0648824] yes=21,no=22,missing=22
				21:[C_D_U_PUBLISHER_GENDER_EC<957.542] yes=43,no=44,missing=44
					43:[KW_REL<3.49988e-05] yes=87,no=88,missing=88
						87:leaf=0.166055
						88:leaf=0.00971473
					44:[C_D_U_PUBLISHER_AGE_COEC<0.151605] yes=89,no=90,missing=89
						89:leaf=-0.0338579
						90:leaf=0.0723049
				22:[D_KEYWORD_MEAN_C<111.636] yes=45,no=46,missing=46
					45:[D_TITLEMD5_COEC<0.0343801] yes=91,no=92,missing=91
						91:leaf=-0.0187396
						92:leaf=0.0166792
					46:[C_D_U_TITLEMD5_CATEGORY_MEAN_EC<4.66981] yes=93,no=94,missing=94
						93:leaf=-0.00125162
						94:leaf=0.00916164
	2:[D_TITLEMD5_C<74.1199] yes=5,no=6,missing=5
		5:[C_D_U_PUBLISHER_CITY_COEC<0.103063] yes=11,no=12,missing=11
			11:[C_D_U_TITLEMD5_CITY_C<2.87895] yes=23,no=24,missing=23
				23:[C_D_U_CATEGORY_CATEGORY_MICRO_MAX_COEC<0.170261] yes=47,no=48,missing=48
					47:[D_TITLEMD5_C<0.999999] yes=95,no=96,missing=95
						95:leaf=-0.0136018
						96:leaf=-0.00493173
					48:[U_CITY_C<36243] yes=97,no=98,missing=98
						97:leaf=-0.00391149
						98:leaf=0.00937053
				24:[C_D_U_TITLEMD5_CATEGORY_MAX_C<0.172727] yes=49,no=50,missing=49
					49:[U_CITY_C<13735.5] yes=99,no=100,missing=100
						99:leaf=0.0245962
						100:leaf=0.0035333
					50:[C_D_U_CATEGORY_CATEGORY_MICRO_MEAN_COEC<0.142818] yes=101,no=102,missing=102
						101:leaf=-0.00575156
						102:leaf=0.0185747
			12:[C_D_U_TITLEMD5_GENDER_COEC<0.134622] yes=25,no=26,missing=25
				25:[C_D_U_CATEGORY_CITY_MICRO_MEAN_COEC<0.166326] yes=51,no=52,missing=52
					51:[D_KEYWORD_MEAN_EC<649.343] yes=103,no=104,missing=104
						103:leaf=0.0129727
						104:leaf=0.000341459
					52:[U_CATEGORY_MEAN_EC<6740.16] yes=105,no=106,missing=106
						105:leaf=0.0451336
						106:leaf=0.0137239
				26:[C_D_U_TITLEMD5_CATEGORY_MICRO_MEAN_COEC<0.143546] yes=53,no=54,missing=54
					53:[D_KEYWORD_MICRO_MAX_COEC<0.149954] yes=107,no=108,missing=108
						107:leaf=0.0181554
						108:leaf=0.0436063
					54:[D_KEYWORD_MICRO_MEAN_COEC<0.0642234] yes=109,no=110,missing=110
						109:leaf=0.118456
						110:leaf=0.00732651
		6:[DOC_AGE<6.96667] yes=13,no=14,missing=14
			13:[KW_REL<0.00118112] yes=27,no=28,missing=28
				27:[U_KEYWORD_MAX_C<3.64989] yes=55,no=56,missing=56
					55:[C_D_U_PUBLISHER_AGE_EC<64505.7] yes=111,no=112,missing=111
						111:leaf=-0.0525238
						112:leaf=0.358631
					56:[C_D_U_TITLEMD5_CATEGORY_MICRO_MEAN_COEC<0.0384805] yes=113,no=114,missing=114
						113:leaf=-0.0190783
						114:leaf=0.00132295
				28:[WORD_COUNT<805] yes=57,no=58,missing=58
					57:[U_KEYWORD_MEAN_C<128.143] yes=115,no=116,missing=116
						115:leaf=-0.00919592
						116:leaf=0.00295395
					58:[WORD_COUNT<5390] yes=117,no=118,missing=118
						117:leaf=0.00904263
						118:leaf=-0.00437794
			14:[TIME_OF_DAY<12] yes=29,no=30,missing=30
				29:[D_TITLEMD5_EC<6317.11] yes=59,no=60,missing=60
					59:[U_KEYWORD_MAX_C<43.3137] yes=119,no=120,missing=119
						119:leaf=0.000982418
						120:leaf=-0.0085623
					60:[D_PUBLISHER_COEC<0.101849] yes=121,no=122,missing=122
						121:leaf=0.0124251
						122:leaf=0.00157809
				30:[DAY_OF_WEEK<6] yes=61,no=62,missing=62
					61:[TIME_OF_DAY<18] yes=123,no=124,missing=124
						123:leaf=-0.00544677
						124:leaf=0.000881028
					62:[D_CATEGORY_MAX_C<49172.2] yes=125,no=126,missing=126
						125:leaf=0.00524677
						126:leaf=-0.00548567
booster[90]:
0:[C_D_U_KEYWORD_CATEGORY_MAX_C<0.975161] yes=1,no=2,missing=1
	1:[KW_REL<0.00170037] yes=3,no=4,missing=4
		3:[U_KEYWORD_MACRO_MEAN_COEC<0.0288025] yes=7,no=8,missing=7
			7:[U_KEYWORD_MEAN_C<128.055] yes=15,no=16,missing=16
				15:[KW_REL<4.68409e-05] yes=31,no=32,missing=32
					31:[U_KEYWORD_MEAN_C<45.7217] yes=63,no=64,missing=64
						63:leaf=-0.0432435
						64:leaf=-0.0130229
					32:[D_KEYWORD_MEAN_EC<1498.6] yes=65,no=66,missing=66
						65:leaf=0.000709612
						66:leaf=-0.00603809
				16:[D_PUBLISHER_EC<81587.5] yes=33,no=34,missing=33
					33:[C_D_U_PUBLISHER_CITY_COEC<0.168133] yes=67,no=68,missing=68
						67:leaf=-0.00168189
						68:leaf=0.00323324
					34:[D_KEYWORD_MAX_EC<2417.48] yes=69,no=70,missing=70
						69:leaf=0.00890994
						70:leaf=-0.002853
			8:[U_KEYWORD_MEAN_C<108.649] yes=17,no=18,missing=18
				17:[DOC_AGE<15.8333] yes=35,no=36,missing=36
					35:[U_CATEGORY_MAX_EC<2450.91] yes=71,no=72,missing=72
						71:leaf=0.0718551
						72:leaf=0.00441841
					36:[U_CATEGORY_MACRO_MAX_COEC<0.0189687] yes=73,no=74,missing=74
						73:leaf=0.024668
						74:leaf=0.0122643
				18:[U_GENDER_C<66161.6] yes=37,no=38,missing=38
					37:[C_D_U_PUBLISHER_AGE_COEC<0.156546] yes=75,no=76,missing=76
						75:leaf=0.0193929
						76:leaf=-0.00145141
					38:[U_CATEGORY_MICRO_MAX_COEC<0.0972341] yes=77,no=78,missing=78
						77:leaf=-0.00667354
						78:leaf=0.00274225
		4:[C_D_U_KEYWORD_CATEGORY_MAX_C<0.0863527] yes=9,no=10,missing=9
			9:[DOC_AGE<11.6886] yes=19,no=20,missing=20
				19:[U_CATEGORY_MACRO_MEAN_COEC<0.0266399] yes=39,no=40,missing=39
					39:[U_KEYWORD_MEAN_C<114.923] yes=79,no=80,missing=80
						79:leaf=0.0739358
						80:leaf=0.0243834
					40:[D_KEYWORD_MAX_EC<903.275] yes=81,no=82,missing=82
						81:leaf=0.0152841
						82:leaf=0.0021219
				20:[U_CITY_EC<634.071] yes=41,no=42,missing=42
					41:[C_D_U_TITLEMD5_CATEGORY_MICRO_MEAN_COEC<0.0663442] yes=83,no=84,missing=84
						83:leaf=0.061351
						84:leaf=0.0142712
					42:[C_D_U_TITLEMD5_AGE_EC<298.144] yes=85,no=86,missing=85
						85:leaf=0.000810518
						86:leaf=0.0121443
			10:[M_D_U_KEYWORD_KEYWORD_MEAN_C<0.0205413] yes=21,no=22,missing=21
				21:[C_D_U_KEYWORD_CATEGORY_MACRO_MEAN_COEC<0.0480956] yes=43,no=44,missing=44
					43:[KW_REL<0.00532939] yes=87,no=88,missing=88
						87:leaf=-0.00443446
						88:leaf=0.013429
					44:[D_CATEGORY_MICRO_MAX_COEC<0.113786] yes=89,no=90,missing=89
						89:leaf=0.00510688
						90:leaf=-0.00196418
				22:[D_KEYWORD_MEAN_EC<4571.24] yes=45,no=46,missing=46
					45:[D_KEYWORD_MICRO_MEAN_COEC<0.0852231] yes=91,no=92,missing=92
						91:leaf=0.0154244
						92:leaf=0.00267274
					46:[M_D_U_KEYWORD_KEYWORD_MACRO_MEAN_COEC<0.000569899] yes=93,no=94,missing=94
						93:leaf=0.00137637
						94:leaf=0.0120069
	2:[KW_REL<0.00736363] yes=5,no=6,missing=6
		5:[M_D_U_KEYWORD_KEYWORD_MEAN_EC<0.465997] yes=11,no=12,missing=12
			11:[D_TITLEMD5_EC<6523.51] yes=23,no=24,missing=24
				23:[D_KEYWORD_MEAN_EC<6331.61] yes=47,no=48,missing=48
					47:[C_D_U_PUBLISHER_AGE_COEC<0.106154] yes=95,no=96,missing=95
						95:leaf=-0.0100932
						96:leaf=0.00513281
					48:[CAT_REL<0.007078] yes=97,no=98,missing=98
						97:leaf=-0.00700623
						98:leaf=-0.0239553
				24:[D_PUBLISHER_EC<19655] yes=49,no=50,missing=49
					49:[D_TITLEMD5_COEC<0.10503] yes=99,no=100,missing=100
						99:leaf=-0.0550123
						100:leaf=-0.0079101
					50:[U_KEYWORD_MICRO_MEAN_COEC<0.0933503] yes=101,no=102,missing=102
						101:leaf=-0.013476
						102:leaf=0.00718312
			12:[C_D_U_KEYWORD_CATEGORY_MEAN_EC<92.4196] yes=25,no=26,missing=26
				25:[CAT_REL<0.164307] yes=51,no=52,missing=52
					51:[D_CATEGORY_MACRO_MEAN_COEC<0.0806427] yes=103,no=104,missing=103
						103:leaf=-0.00536538
						104:leaf=0.00208682
					52:[M_D_U_KEYWORD_KEYWORD_MICRO_MEAN_COEC<0.0962763] yes=105,no=106,missing=106
						105:leaf=0.01906
						106:leaf=-0.00109685
				26:[C_D_U_CATEGORY_CATEGORY_MICRO_MEAN_COEC<0.143212] yes=53,no=54,missing=53
					53:[C_D_U_CATEGORY_CATEGORY_MICRO_MAX_COEC<0.147099] yes=107,no=108,missing=108
						107:leaf=-0.00630406
						108:leaf=-0.0242733
					54:[C_D_U_CATEGORY_CATEGORY_MACRO_MAX_COEC<0.0508844] yes=109,no=110,missing=110
						109:leaf=0.0410771
						110:leaf=-0.103055
		6:[DOC_AGE<22.45] yes=13,no=14,missing=14
			13:[D_KEYWORD_MACRO_MAX_COEC<0.0218315] yes=27,no=28,missing=28
				27:[D_CATEGORY_MACRO_MEAN_COEC<0.0694609] yes=55,no=56,missing=55
					55:[CAT_REL<0.187214] yes=111,no=112,missing=112
						111:leaf=0.0187636
						112:leaf=0.0449552
					56:[D_KEYWORD_MAX_C<187.702] yes=113,no=114,missing=114
						113:leaf=-0.00287736
						114:leaf=0.0164659
				28:[D_KEYWORD_MACRO_MEAN_COEC<0.0715515] yes=57,no=58,missing=58
					57:[U_KEYWORD_MICRO_MAX_COEC<0.118263] yes=115,no=116,missing=116
						115:leaf=-0.00367988
						116:leaf=-0.0288998
					58:[D_KEYWORD_MACRO_MAX_COEC<0.038858] yes=117,no=118,missing=118
						117:leaf=0.0136875
						118:leaf=-0.00243762
			14:[U_GENDER_COEC<0.103228] yes=29,no=30,missing=30
				29:[M_D_U_KEYWORD_KEYWORD_MICRO_MAX_COEC<0.220396] yes=59,no=60,missing=60
					59:[M_D_U_KEYWORD_KEYWORD_MICRO_MAX_COEC<0.0818459] yes=119,no=120,missing=120
						119:leaf=0.0906982
						120:leaf=0.012383
					60:[M_D_U_KEYWORD_KEYWORD_MAX_EC<0.040161] yes=121,no=122,missing=121
						121:leaf=-0.234838
						122:leaf=-0.0257808
				30:[D_TITLEMD5_COEC<0.191815] yes=61,no=62,missing=62
					61:[CAT_REL<0.039406] yes=123,no=124,missing=124
						123:leaf=0.0103184
						124:leaf=-0.0197124
					62:[U_KEYWORD_MAX_EC<582.653] yes=125,no=126,missing=126
						125:leaf=-0.15112
						126:leaf=0.0351408
booster[91]:
0:[D_KEYWORD_MEAN_EC<866.292] yes=1,no=2,missing=1
	1:[KW_REL<0.000349969] yes=3,no=4,missing=4
		3:[D_KEYWORD_MACRO_MEAN_COEC<0.0520318] yes=7,no=8,missing=8
			7:[U_CATEGORY_MICRO_MAX_COEC<0.105349] yes=15,no=16,missing=15
				15:[D_CATEGORY_MICRO_MEAN_COEC<0.0888324] yes=31,no=32,missing=32
					31:[C_D_U_PUBLISHER_CITY_COEC<0.0492593] yes=63,no=64,missing=64
						63:leaf=-0.0255212
						64:leaf=-0.00310359
					32:[C_D_U_KEYWORD_CATEGORY_MACRO_MAX_COEC<0.0132227] yes=65,no=66,missing=65
						65:leaf=-0.044148
						66:leaf=0.0682119
				16:[D_PUBLISHER_COEC<0.150548] yes=33,no=34,missing=34
					33:[U_CITY_C<35597.3] yes=67,no=68,missing=68
						67:leaf=0.00861838
						68:leaf=-0.0221111
					34:[D_PUBLISHER_C<2097.82] yes=69,no=70,missing=69
						69:leaf=0.202551
						70:leaf=-0.0631319
			8:[D_KEYWORD_MICRO_MEAN_COEC<0.2642] yes=17,no=18,missing=17
				17:[D_TITLEMD5_COEC<0.110759] yes=35,no=36,missing=36
					35:[D_KEYWORD_MICRO_MAX_COEC<0.282943] yes=71,no=72,missing=71
						71:leaf=0.00500816
						72:leaf=0.0363126
					36:[D_TITLEMD5_C<4.42717] yes=73,no=74,missing=73
						73:leaf=-0.0144856
						74:leaf=0.000186883
				18:[DOC_AGE<53.3408] yes=37,no=38,missing=38
					37:[C_D_U_CATEGORY_CITY_MACRO_MAX_COEC<0.0495015] yes=75,no=76,missing=75
						75:leaf=0.00947385
						76:leaf=0.0311967
					38:[U_CITY_COEC<0.0953314] yes=77,no=78,missing=77
						77:leaf=-0.0137404
						78:leaf=-0.134592
		4:[M_D_U_KEYWORD_KEYWORD_MICRO_MAX_COEC<0.102168] yes=9,no=10,missing=9
			9:[C_D_U_KEYWORD_CATEGORY_MEAN_EC<0.596576] yes=19,no=20,missing=20
				19:[U_KEYWORD_MEAN_C<152.234] yes=39,no=40,missing=40
					39:[U_KEYWORD_MICRO_MEAN_COEC<0.0942672] yes=79,no=80,missing=80
						79:leaf=0.0255226
						80:leaf=0.0540414
					40:[U_CATEGORY_MICRO_MEAN_COEC<0.0822221] yes=81,no=82,missing=82
						81:leaf=0.144137
						82:leaf=-0.128042
				20:[DOC_AGE<4.12305] yes=41,no=42,missing=42
					41:[TIME_OF_DAY<21] yes=83,no=84,missing=84
						83:leaf=0.016509
						84:leaf=0.07459
					42:[D_CATEGORY_MEAN_C<618.613] yes=85,no=86,missing=85
						85:leaf=0.0210225
						86:leaf=0.00626691
			10:[M_D_U_KEYWORD_KEYWORD_MAX_EC<0.0030087] yes=21,no=22,missing=22
				21:[D_KEYWORD_MACRO_MAX_COEC<0.0303658] yes=43,no=44,missing=44
					43:[U_KEYWORD_MACRO_MAX_COEC<0.00231672] yes=87,no=88,missing=88
						87:leaf=0.018035
						88:leaf=-0.020052
					44:[U_CATEGORY_MACRO_MEAN_COEC<0.0371871] yes=89,no=90,missing=89
						89:leaf=0.0292268
						90:leaf=-0.00951844
				22:[C_D_U_KEYWORD_CATEGORY_MACRO_MEAN_COEC<0.0309151] yes=45,no=46,missing=45
					45:[D_CATEGORY_MICRO_MEAN_COEC<0.0673157] yes=91,no=92,missing=91
						91:leaf=0.0136278
						92:leaf=-0.0358154
					46:[CAT_REL<0.008459] yes=93,no=94,missing=94
						93:leaf=-0.0253231
						94:leaf=0.000857369
	2:[M_D_U_KEYWORD_KEYWORD_MICRO_MEAN_COEC<0.262172] yes=5,no=6,missing=5
		5:[C_D_U_TITLEMD5_CATEGORY_MEAN_EC<2.68266] yes=11,no=12,missing=12
			11:[C_D_U_CATEGORY_CITY_MICRO_MEAN_COEC<0.0925559] yes=23,no=24,missing=23
				23:[C_D_U_TITLEMD5_CITY_EC<0.999999] yes=47,no=48,missing=47
					47:[DOC_AGE<0.280832] yes=95,no=96,missing=96
						95:leaf=0.00696086
						96:leaf=-0.00946813
					48:[C_D_U_TITLEMD5_CATEGORY_MICRO_MEAN_COEC<0.062791] yes=97,no=98,missing=98
						97:leaf=0.00322623
						98:leaf=-0.00516237
				24:[D_KEYWORD_MICRO_MEAN_COEC<0.0889319] yes=49,no=50,missing=50
					49:[D_CATEGORY_MICRO_MAX_COEC<0.0723638] yes=99,no=100,missing=100
						99:leaf=0.0238063
						100:leaf=0.00953448
					50:[C_D_U_TITLEMD5_CATEGORY_MICRO_MEAN_COEC<0.110431] yes=101,no=102,missing=102
						101:leaf=0.00130257
						102:leaf=-0.00911898
			12:[TIME_OF_DAY<2] yes=25,no=26,missing=26
				25:[U_KEYWORD_MACRO_MAX_COEC<0.00453436] yes=51,no=52,missing=51
					51:[D_TITLEMD5_COEC<0.0401465] yes=103,no=104,missing=104
						103:leaf=0.0383758
						104:leaf=0.00789507
					52:[U_CATEGORY_MEAN_C<1604.97] yes=105,no=106,missing=106
						105:leaf=0.0230795
						106:leaf=-0.0202951
				26:[DOC_AGE<5.69555] yes=53,no=54,missing=54
					53:[C_D_U_TITLEMD5_CATEGORY_MICRO_MEAN_COEC<0.0311225] yes=107,no=108,missing=108
						107:leaf=-0.0129524
						108:leaf=0.00324398
					54:[DOC_AGE<21.0614] yes=109,no=110,missing=110
						109:leaf=-0.00184556
						110:leaf=0.00152899
		6:[D_CATEGORY_MEAN_C<10985.1] yes=13,no=14,missing=14
			13:[C_D_U_PUBLISHER_AGE_COEC<0.0746731] yes=27,no=28,missing=28
				27:[U_KEYWORD_MACRO_MAX_COEC<0.0024574] yes=55,no=56,missing=56
					55:[C_D_U_CATEGORY_AGE_MACRO_MAX_COEC<0.0371495] yes=111,no=112,missing=112
						111:leaf=0.120325
						112:leaf=-0.0306843
					56:[U_CATEGORY_MEAN_EC<25719.1] yes=113,no=114,missing=114
						113:leaf=-0.270286
						114:leaf=-0.0295529
				28:[U_CITY_C<34293.9] yes=57,no=58,missing=57
					57:[U_KEYWORD_MACRO_MEAN_COEC<0.0209894] yes=115,no=116,missing=116
						115:leaf=0.0655805
						116:leaf=0.0360143
					58:[D_KEYWORD_MEAN_C<240.893] yes=117,no=118,missing=118
						117:leaf=0.0386295
						118:leaf=-0.0431115
			14:[U_KEYWORD_MACRO_MAX_COEC<0.00134425] yes=29,no=30,missing=30
				29:[KW_REL<0.00124219] yes=59,no=60,missing=60
					59:leaf=-0.218005
					60:[U_KEYWORD_MICRO_MEAN_COEC<0.102815] yes=119,no=120,missing=120
						119:leaf=0.0250057
						120:leaf=0.0694404
				30:[M_D_U_KEYWORD_KEYWORD_MAX_EC<0.50725] yes=61,no=62,missing=62
					61:[DOC_AGE<32.8214] yes=121,no=122,missing=122
						121:leaf=0.00668808
						122:leaf=-0.0421965
					62:[U_KEYWORD_MICRO_MAX_COEC<0.116028] yes=123,no=124,missing=124
						123:leaf=0.107325
						124:leaf=0.0259731
booster[92]:
0:[U_KEYWORD_MACRO_MAX_COEC<0.00110767] yes=1,no=2,missing=2
	1:[U_KEYWORD_MICRO_MAX_COEC<0.109995] yes=3,no=4,missing=4
		3:[C_D_U_TITLEMD5_AGE_COEC<0.0518003] yes=7,no=8,missing=8
			7:[U_CATEGORY_MACRO_MAX_COEC<0.0172396] yes=15,no=16,missing=16
				15:[C_D_U_TITLEMD5_CATEGORY_MAX_C<0.0263287] yes=31,no=32,missing=32
					31:[U_CATEGORY_MACRO_MAX_COEC<0.0138944] yes=63,no=64,missing=64
						63:leaf=-0.0321043
						64:leaf=-0.0831589
					32:[U_GENDER_COEC<0.0897474] yes=65,no=66,missing=65
						65:leaf=0.0143581
						66:leaf=-0.0445944
				16:[U_CITY_C<13706.9] yes=33,no=34,missing=34
					33:[C_D_U_CATEGORY_CITY_MAX_C<16.4485] yes=67,no=68,missing=67
						67:leaf=0.0407774
						68:leaf=-0.0410599
					34:[C_D_U_TITLEMD5_CATEGORY_MEAN_C<0.0688577] yes=69,no=70,missing=70
						69:leaf=0.097668
						70:leaf=-0.0129207
			8:[U_AGE_COEC<0.0999452] yes=17,no=18,missing=17
				17:[U_AGE_EC<904469] yes=35,no=36,missing=35
					35:[U_GENDER_C<64178.7] yes=71,no=72,missing=71
						71:leaf=0.0049504
						72:leaf=-0.0104872
					36:[U_KEYWORD_MEAN_C<146.84] yes=73,no=74,missing=74
						73:leaf=0.0180441
						74:leaf=0.0599953
				18:[C_D_U_KEYWORD_CATEGORY_MAX_C<0.0249886] yes=37,no=38,missing=38
					37:[C_D_U_TITLEMD5_CATEGORY_MICRO_MEAN_COEC<0.130608] yes=75,no=76,missing=76
						75:leaf=0.0362281
						76:leaf=-0.236082
					38:[KW_REL<0.00288523] yes=77,no=78,missing=78
						77:leaf=-0.156083
						78:leaf=-0.0425006
		4:[U_GENDER_COEC<0.090808] yes=9,no=10,missing=10
			9:[U_KEYWORD_MACRO_MEAN_COEC<0.0192499] yes=19,no=20,missing=20
				19:[TIME_OF_DAY<11] yes=39,no=40,missing=40
					39:[U_CATEGORY_MACRO_MEAN_COEC<0.0544281] yes=79,no=80,missing=80
						79:leaf=0.108841
						80:leaf=-0.0208554
					40:[U_GENDER_C<70491.4] yes=81,no=82,missing=82
						81:leaf=0.0485228
						82:leaf=-0.00682648
				20:[U_KEYWORD_MICRO_MAX_COEC<0.113151] yes=41,no=42,missing=42
					41:[U_CITY_COEC<0.076397] yes=83,no=84,missing=83
						83:leaf=0.0355671
						84:leaf=-0.0290635
					42:[U_CATEGORY_MACRO_MAX_COEC<0.011683] yes=85,no=86,missing=86
						85:leaf=0.058656
						86:leaf=0.0127513
			10:[U_CATEGORY_MACRO_MAX_COEC<0.00877548] yes=21,no=22,missing=22
				21:[U_KEYWORD_MEAN_C<119.721] yes=43,no=44,missing=44
					43:[U_KEYWORD_MACRO_MEAN_COEC<0.0202476] yes=87,no=88,missing=88
						87:leaf=0.0479667
						88:leaf=0.106784
					44:[U_KEYWORD_MAX_C<23.7371] yes=89,no=90,missing=90
						89:leaf=0.0218234
						90:leaf=-0.0320492
				22:[C_D_U_CATEGORY_CATEGORY_MEAN_C<477.754] yes=45,no=46,missing=45
					45:[C_D_U_CATEGORY_CATEGORY_MEAN_C<157.948] yes=91,no=92,missing=91
						91:leaf=0.00722894
						92:leaf=-0.018816
					46:[U_KEYWORD_MAX_C<21.3874] yes=93,no=94,missing=94
						93:leaf=0.0598986
						94:leaf=-0.0613244
	2:[WORD_COUNT<614] yes=5,no=6,missing=6
		5:[D_TITLEMD5_COEC<0.12743] yes=11,no=12,missing=11
			11:[C_D_U_TITLEMD5_CATEGORY_MICRO_MEAN_COEC<0.0762029] yes=23,no=24,missing=23
				23:[D_PUBLISHER_EC<10056.2] yes=47,no=48,missing=48
					47:[C_D_U_CATEGORY_AGE_MICRO_MAX_COEC<0.134924] yes=95,no=96,missing=95
						95:leaf=-0.0117734
						96:leaf=0.0483548
					48:[D_KEYWORD_MEAN_C<121.534] yes=97,no=98,missing=98
						97:leaf=0.0109949
						98:leaf=-0.00200931
				24:[D_KEYWORD_MICRO_MEAN_COEC<0.126469] yes=49,no=50,missing=50
					49:[C_D_U_TITLEMD5_GENDER_COEC<0.0855559] yes=99,no=100,missing=100
						99:leaf=-0.0234939
						100:leaf=-0.0104577
					50:[D_PUBLISHER_EC<2529.66] yes=101,no=102,missing=102
						101:leaf=0.0492257
						102:leaf=0.00333859
			12:[C_D_U_TITLEMD5_GENDER_COEC<0.134149] yes=25,no=26,missing=26
				25:[M_D_U_KEYWORD_KEYWORD_MEAN_EC<0.0633246] yes=51,no=52,missing=52
					51:[M_D_U_KEYWORD_KEYWORD_MICRO_MEAN_COEC<0.141627] yes=103,no=104,missing=104
						103:leaf=-0.0555495
						104:leaf=-0.0190563
					52:[C_D_U_TITLEMD5_CITY_C<13.342] yes=105,no=106,missing=106
						105:leaf=-0.00130457
						106:leaf=-0.0213168
				26:[D_PUBLISHER_EC<68455.5] yes=53,no=54,missing=54
					53:[D_KEYWORD_MACRO_MAX_COEC<0.0392023] yes=107,no=108,missing=108
						107:leaf=0.00441956
						108:leaf=-0.00436959
					54:[U_KEYWORD_MEAN_C<99.2874] yes=109,no=110,missing=109
						109:leaf=0.0280775
						110:leaf=-0.00621954
		6:[CAT_REL<0.05564] yes=13,no=14,missing=14
			13:[D_KEYWORD_MACRO_MEAN_COEC<0.0708976] yes=27,no=28,missing=28
				27:[DOC_AGE<19.0767] yes=55,no=56,missing=56
					55:[C_D_U_TITLEMD5_CATEGORY_MICRO_MEAN_COEC<0.113741] yes=111,no=112,missing=111
						111:leaf=-0.0046841
						112:leaf=-0.0158163
					56:[C_D_U_TITLEMD5_CATEGORY_MICRO_MEAN_COEC<0.0959684] yes=113,no=114,missing=113
						113:leaf=0.00864332
						114:leaf=-0.00915256
				28:[U_KEYWORD_MAX_C<32.7329] yes=57,no=58,missing=57
					57:[U_KEYWORD_MEAN_C<141.469] yes=115,no=116,missing=115
						115:leaf=0.000229379
						116:leaf=0.00705415
					58:[U_CATEGORY_MICRO_MEAN_COEC<0.105373] yes=117,no=118,missing=117
						117:leaf=-0.00226594
						118:leaf=-0.0167039
			14:[U_CATEGORY_MACRO_MEAN_COEC<0.0596093] yes=29,no=30,missing=30
				29:[C_D_U_CATEGORY_CITY_MICRO_MAX_COEC<0.0448112] yes=59,no=60,missing=59
					59:[D_CATEGORY_MEAN_C<16901.4] yes=119,no=120,missing=120
						119:leaf=-0.00223736
						120:leaf=0.01404
					60:[C_D_U_TITLEMD5_CATEGORY_MICRO_MEAN_COEC<0.0762029] yes=121,no=122,missing=122
						121:leaf=0.0111451
						122:leaf=0.00439657
				30:[C_D_U_KEYWORD_CATEGORY_MACRO_MEAN_COEC<0.0454297] yes=61,no=62,missing=62
					61:[U_KEYWORD_MEAN_C<117.421] yes=123,no=124,missing=124
						123:leaf=-0.0196321
						124:leaf=-0.00723816
					62:[U_KEYWORD_MAX_EC<257.932] yes=125,no=126,missing=126
						125:leaf=-0.00353205
						126:leaf=0.00267288
booster[93]:
0:[U_CITY_COEC<0.0663047] yes=1,no=2,missing=2
	1:[U_KEYWORD_MEAN_C<83.3646] yes=3,no=4,missing=4
		3:[U_CATEGORY_MICRO_MAX_COEC<0.0923476] yes=7,no=8,missing=8
			7:[U_CATEGORY_MAX_C<312.169] yes=15,no=16,missing=16
				15:[U_KEYWORD_MAX_C<28.5297] yes=31,no=32,missing=32
					31:[U_KEYWORD_MAX_EC<183.159] yes=63,no=64,missing=64
						63:leaf=-0.0489891
						64:leaf=-0.131914
					32:[C_D_U_KEYWORD_CATEGORY_MAX_EC<0.717807] yes=65,no=66,missing=66
						65:leaf=0.145207
						66:leaf=-0.00774356
				16:[U_KEYWORD_MAX_EC<159.11] yes=33,no=34,missing=34
					33:[TIME_OF_DAY<6] yes=67,no=68,missing=68
						67:leaf=0.112173
						68:leaf=0.0339323
					34:[U_KEYWORD_MEAN_C<59.8331] yes=69,no=70,missing=70
						69:leaf=-0.0616592
						70:leaf=0.0179622
			8:[U_KEYWORD_MAX_EC<363.229] yes=17,no=18,missing=18
				17:[U_KEYWORD_MACRO_MAX_COEC<0.00175159] yes=35,no=36,missing=36
					35:[U_CATEGORY_MEAN_EC<10328.2] yes=71,no=72,missing=72
						71:leaf=-0.0216514
						72:leaf=-0.0598305
					36:[U_CATEGORY_MEAN_C<1255.36] yes=73,no=74,missing=74
						73:leaf=0.0150684
						74:leaf=-0.0280483
				18:[U_KEYWORD_MACRO_MAX_COEC<0.00205514] yes=37,no=38,missing=38
					37:[U_CATEGORY_MICRO_MEAN_COEC<0.0901597] yes=75,no=76,missing=76
						75:leaf=0.0172154
						76:leaf=-0.0889818
					38:[D_CATEGORY_MAX_EC<448060] yes=77,no=78,missing=77
						77:leaf=-0.112573
						78:leaf=0.197025
		4:[U_KEYWORD_MAX_EC<391.514] yes=9,no=10,missing=9
			9:[U_AGE_COEC<0.0999396] yes=19,no=20,missing=19
				19:[U_AGE_EC<820147] yes=39,no=40,missing=40
					39:[C_D_U_TITLEMD5_CITY_COEC<0.107127] yes=79,no=80,missing=80
						79:leaf=0.0361389
						80:leaf=0.00376735
					40:[U_CATEGORY_MEAN_C<305.31] yes=81,no=82,missing=82
						81:leaf=0.0637789
						82:leaf=-0.00552972
				20:[U_AGE_C<87866.5] yes=41,no=42,missing=42
					41:[C_D_U_TITLEMD5_GENDER_EC<2.60916] yes=83,no=84,missing=83
						83:leaf=-0.08226
						84:leaf=-0.0169124
					42:[U_CATEGORY_MACRO_MEAN_COEC<0.0423797] yes=85,no=86,missing=85
						85:leaf=-0.150032
						86:leaf=-0.0593326
			10:[U_AGE_COEC<0.0942925] yes=21,no=22,missing=22
				21:[U_CITY_C<58.1601] yes=43,no=44,missing=44
					43:[U_CATEGORY_MACRO_MAX_COEC<0.0238925] yes=87,no=88,missing=88
						87:leaf=0.0337897
						88:leaf=-0.069834
					44:[TIME_OF_DAY<14] yes=89,no=90,missing=90
						89:leaf=-0.104562
						90:leaf=-0.0523188
				22:[U_CATEGORY_MAX_C<420.928] yes=45,no=46,missing=46
					45:[D_CATEGORY_MAX_C<219.874] yes=91,no=92,missing=92
						91:leaf=0.164516
						92:leaf=0.00323044
					46:[U_CATEGORY_MEAN_EC<16612.7] yes=93,no=94,missing=94
						93:leaf=-0.0511311
						94:leaf=-0.0104329
	2:[D_KEYWORD_MEAN_C<319.474] yes=5,no=6,missing=5
		5:[M_D_U_KEYWORD_KEYWORD_MEAN_EC<0.279204] yes=11,no=12,missing=11
			11:[C_D_U_TITLEMD5_GENDER_COEC<0.107727] yes=23,no=24,missing=23
				23:[DOC_AGE<2.47555] yes=47,no=48,missing=48
					47:[C_D_U_TITLEMD5_CATEGORY_MICRO_MEAN_COEC<0.153181] yes=95,no=96,missing=95
						95:leaf=0.00503549
						96:leaf=-0.00526593
					48:[C_D_U_CATEGORY_GENDER_MEAN_C<1354.05] yes=97,no=98,missing=98
						97:leaf=-0.00553953
						98:leaf=-0.00025528
				24:[U_KEYWORD_MAX_C<29.5784] yes=49,no=50,missing=50
					49:[KW_REL<0.00133444] yes=99,no=100,missing=100
						99:leaf=0.00483756
						100:leaf=0.0109557
					50:[C_D_U_PUBLISHER_AGE_EC<11503.5] yes=101,no=102,missing=102
						101:leaf=0.00427712
						102:leaf=-0.00432538
			12:[C_D_U_CATEGORY_CATEGORY_MICRO_MEAN_COEC<0.148877] yes=25,no=26,missing=26
				25:[KW_REL<0.00231184] yes=51,no=52,missing=52
					51:[D_KEYWORD_MAX_C<145.309] yes=103,no=104,missing=104
						103:leaf=-0.00226549
						104:leaf=0.00935479
					52:[M_D_U_KEYWORD_KEYWORD_MICRO_MEAN_COEC<0.0836934] yes=105,no=106,missing=106
						105:leaf=0.0246389
						106:leaf=0.0058918
				26:[C_D_U_CATEGORY_CITY_MAX_C<55.377] yes=53,no=54,missing=53
					53:[KW_REL<0.000880354] yes=107,no=108,missing=108
						107:leaf=-0.082701
						108:leaf=0.0555198
					54:[U_KEYWORD_MACRO_MAX_COEC<0.00473484] yes=109,no=110,missing=110
						109:leaf=0.0285823
						110:leaf=-0.131874
		6:[U_KEYWORD_MEAN_C<148.196] yes=13,no=14,missing=13
			13:[U_KEYWORD_MACRO_MEAN_COEC<0.0294106] yes=27,no=28,missing=27
				27:[KW_REL<0.00561978] yes=55,no=56,missing=56
					55:[C_D_U_TITLEMD5_CATEGORY_MEAN_C<5.04714] yes=111,no=112,missing=112
						111:leaf=-0.00617286
						112:leaf=-0.000913336
					56:[D_KEYWORD_MACRO_MEAN_COEC<0.146564] yes=113,no=114,missing=114
						113:leaf=0.00425099
						114:leaf=-0.113
				28:[M_D_U_KEYWORD_KEYWORD_MACRO_MAX_COEC<0.000115701] yes=57,no=58,missing=57
					57:[C_D_U_CATEGORY_CITY_MAX_EC<88.0087] yes=115,no=116,missing=116
						115:leaf=0.0209967
						116:leaf=0.00544797
					58:[C_D_U_TITLEMD5_CATEGORY_MEAN_C<4.65054] yes=117,no=118,missing=117
						117:leaf=-0.00523305
						118:leaf=0.00496556
			14:[D_CATEGORY_MACRO_MAX_COEC<0.0822375] yes=29,no=30,missing=30
				29:[D_TITLEMD5_EC<6000.97] yes=59,no=60,missing=60
					59:[C_D_U_CATEGORY_CATEGORY_MICRO_MEAN_COEC<0.0794436] yes=119,no=120,missing=119
						119:leaf=0.00264898
						120:leaf=-0.00879929
					60:[U_KEYWORD_MACRO_MEAN_COEC<0.0332834] yes=121,no=122,missing=122
						121:leaf=0.0126538
						122:leaf=-0.0137276
				30:[U_KEYWORD_MAX_C<58.95] yes=61,no=62,missing=62
					61:[M_D_U_KEYWORD_KEYWORD_MEAN_EC<0.339287] yes=123,no=124,missing=123
						123:leaf=0.00615592
						124:leaf=0.0166851
					62:[C_D_U_CATEGORY_CATEGORY_MICRO_MAX_COEC<0.0761583] yes=125,no=126,missing=126
						125:leaf=0.0263222
						126:leaf=-0.0111896
booster[94]:
0:[D_CATEGORY_MICRO_MAX_COEC<0.0613902] yes=1,no=2,missing=1
	1:[C_D_U_CATEGORY_CATEGORY_MICRO_MEAN_COEC<0.0368903] yes=3,no=4,missing=4
		3:[D_TITLEMD5_COEC<0.0452808] yes=7,no=8,missing=7
			7:[D_KEYWORD_MICRO_MEAN_COEC<0.0746201] yes=15,no=16,missing=16
				15:[U_CITY_COEC<0.0952792] yes=31,no=32,missing=31
					31:[U_GENDER_EC<783055] yes=63,no=64,missing=64
						63:leaf=0.0184316
						64:leaf=-0.0264453
					32:[KW_REL<0.00529908] yes=65,no=66,missing=66
						65:leaf=0.0290539
						66:leaf=0.206137
				16:[C_D_U_CATEGORY_GENDER_MEAN_EC<2289.05] yes=33,no=34,missing=34
					33:[C_D_U_TITLEMD5_CITY_EC<60.8345] yes=67,no=68,missing=68
						67:leaf=0.0183856
						68:leaf=-0.0321285
					34:[C_D_U_CATEGORY_CATEGORY_MACRO_MAX_COEC<0.00442718] yes=69,no=70,missing=70
						69:leaf=-0.0616298
						70:leaf=-0.0267574
			8:[U_GENDER_COEC<0.0893965] yes=17,no=18,missing=18
				17:[U_KEYWORD_MACRO_MAX_COEC<0.00355094] yes=35,no=36,missing=36
					35:[D_KEYWORD_MACRO_MEAN_COEC<0.0646552] yes=71,no=72,missing=72
						71:leaf=-0.0351488
						72:leaf=0.0430796
					36:[U_KEYWORD_MACRO_MEAN_COEC<0.0619104] yes=73,no=74,missing=74
						73:leaf=0.137858
						74:leaf=-0.120098
				18:[D_TITLEMD5_C<4.53363] yes=37,no=38,missing=38
					37:[DOC_AGE<42.3275] yes=75,no=76,missing=76
						75:leaf=-0.0321479
						76:leaf=0.0421841
					38:[C_D_U_PUBLISHER_CITY_C<0.441734] yes=77,no=78,missing=78
						77:leaf=0.0492555
						78:leaf=-0.00141899
		4:[U_KEYWORD_MEAN_C<128.784] yes=9,no=10,missing=9
			9:[CAT_REL<0.076006] yes=19,no=20,missing=20
				19:[U_CATEGORY_MICRO_MEAN_COEC<0.0881321] yes=39,no=40,missing=40
					39:[U_CITY_EC<173406] yes=79,no=80,missing=79
						79:leaf=0.00319017
						80:leaf=0.0203002
					40:[U_CITY_COEC<0.0960311] yes=81,no=82,missing=82
						81:leaf=-0.00668609
						82:leaf=0.00870861
				20:[U_KEYWORD_MACRO_MAX_COEC<0.00355094] yes=41,no=42,missing=42
					41:[M_D_U_KEYWORD_KEYWORD_MICRO_MEAN_COEC<0.091423] yes=83,no=84,missing=84
						83:leaf=0.0275421
						84:leaf=0.00948303
					42:[C_D_U_KEYWORD_CATEGORY_MACRO_MEAN_COEC<0.0643004] yes=85,no=86,missing=86
						85:leaf=-0.0546885
						86:leaf=0.0127104
			10:[U_KEYWORD_MICRO_MAX_COEC<0.106959] yes=21,no=22,missing=22
				21:[U_CATEGORY_MACRO_MAX_COEC<0.0195633] yes=43,no=44,missing=44
					43:[U_CATEGORY_MACRO_MEAN_COEC<0.0738959] yes=87,no=88,missing=88
						87:leaf=0.00515815
						88:leaf=0.247243
					44:[C_D_U_CATEGORY_CATEGORY_MACRO_MEAN_COEC<0.0692813] yes=89,no=90,missing=89
						89:leaf=-0.0318166
						90:leaf=0.0733024
				22:[WORD_COUNT<6730] yes=45,no=46,missing=46
					45:[D_KEYWORD_MICRO_MEAN_COEC<0.0639549] yes=91,no=92,missing=91
						91:leaf=0.0424689
						92:leaf=0.0156932
					46:[M_D_U_KEYWORD_KEYWORD_MACRO_MEAN_COEC<0.000131534] yes=93,no=94,missing=94
						93:leaf=-0.0739511
						94:leaf=-0.0134296
	2:[C_D_U_CATEGORY_CATEGORY_MICRO_MEAN_COEC<0.0467742] yes=5,no=6,missing=6
		5:[D_KEYWORD_MACRO_MEAN_COEC<0.0774399] yes=11,no=12,missing=12
			11:[D_CATEGORY_MICRO_MEAN_COEC<0.093278] yes=23,no=24,missing=24
				23:[U_KEYWORD_MACRO_MEAN_COEC<0.0315731] yes=47,no=48,missing=48
					47:[U_CATEGORY_MACRO_MEAN_COEC<0.0514726] yes=95,no=96,missing=96
						95:leaf=-0.0126421
						96:leaf=-0.0302769
					48:[C_D_U_CATEGORY_GENDER_MEAN_C<5363.64] yes=97,no=98,missing=97
						97:leaf=-0.0034631
						98:leaf=0.181811
				24:[D_PUBLISHER_C<2211.05] yes=49,no=50,missing=50
					49:[D_KEYWORD_MACRO_MEAN_COEC<0.0610642] yes=99,no=100,missing=100
						99:leaf=0.160643
						100:leaf=0.0422253
					50:[U_KEYWORD_MICRO_MEAN_COEC<0.0996189] yes=101,no=102,missing=102
						101:leaf=-0.0952345
						102:leaf=0.0243236
			12:[C_D_U_CATEGORY_CATEGORY_MEAN_EC<613.121] yes=25,no=26,missing=26
				25:[D_CATEGORY_MACRO_MAX_COEC<0.0670266] yes=51,no=52,missing=52
					51:[D_TITLEMD5_COEC<0.0670761] yes=103,no=104,missing=103
						103:leaf=-0.0431934
						104:leaf=0.00811392
					52:[D_KEYWORD_MICRO_MAX_COEC<0.103601] yes=105,no=106,missing=106
						105:leaf=0.0389191
						106:leaf=-0.0180471
				26:[U_KEYWORD_MICRO_MEAN_COEC<0.105046] yes=53,no=54,missing=54
					53:[M_D_U_KEYWORD_KEYWORD_MICRO_MEAN_COEC<0.120059] yes=107,no=108,missing=108
						107:leaf=-0.0212015
						108:leaf=0.0247255
					54:[C_D_U_KEYWORD_CATEGORY_MICRO_MAX_COEC<0.131285] yes=109,no=110,missing=110
						109:leaf=0.224876
						110:leaf=0.0526515
		6:[D_CATEGORY_MEAN_C<1532.28] yes=13,no=14,missing=14
			13:[C_D_U_KEYWORD_CATEGORY_MICRO_MEAN_COEC<0.0920466] yes=27,no=28,missing=28
				27:[M_D_U_KEYWORD_KEYWORD_MAX_EC<0.297473] yes=55,no=56,missing=55
					55:[C_D_U_CATEGORY_CITY_MICRO_MAX_COEC<0.0948743] yes=111,no=112,missing=111
						111:leaf=0.00525924
						112:leaf=0.0179571
					56:[U_CATEGORY_MEAN_EC<18588.8] yes=113,no=114,missing=114
						113:leaf=0.01966
						114:leaf=-0.00801732
				28:[C_D_U_KEYWORD_CATEGORY_MAX_EC<0.583715] yes=57,no=58,missing=58
					57:[C_D_U_CATEGORY_CITY_MICRO_MEAN_COEC<0.0734285] yes=115,no=116,missing=115
						115:leaf=0.00323261
						116:leaf=0.0153727
					58:[D_PUBLISHER_EC<9961.19] yes=117,no=118,missing=117
						117:leaf=-0.00669971
						118:leaf=0.00141847
			14:[U_KEYWORD_MICRO_MEAN_COEC<0.0969863] yes=29,no=30,missing=30
				29:[DAY_OF_WEEK<0.999999] yes=59,no=60,missing=60
					59:[U_KEYWORD_MAX_EC<217.412] yes=119,no=120,missing=120
						119:leaf=0.00627952
						120:leaf=-0.000950269
					60:[U_KEYWORD_MACRO_MEAN_COEC<0.0299565] yes=121,no=122,missing=122
						121:leaf=-0.00689462
						122:leaf=0.000601604
				30:[D_CATEGORY_MEAN_C<4471.15] yes=61,no=62,missing=62
					61:[CAT_REL<0.154833] yes=123,no=124,missing=124
						123:leaf=-0.00401982
						124:leaf=0.0130626
					62:[D_KEYWORD_MEAN_EC<2363.2] yes=125,no=126,missing=126
						125:leaf=0.00409178
						126:leaf=-0.000289628
booster[95]:
0:[IMAGE_COUNT<0.999999] yes=1,no=2,missing=2
	1:[D_TITLEMD5_COEC<0.0926547] yes=3,no=4,missing=4
		3:[U_AGE_COEC<0.0965378] yes=7,no=8,missing=8
			7:[DOC_AGE<13.1744] yes=15,no=16,missing=16
				15:[C_D_U_TITLEMD5_CITY_C<7.24571] yes=31,no=32,missing=31
					31:[DOC_AGE<1.77833] yes=63,no=64,missing=64
						63:leaf=0.00595746
						64:leaf=-0.024142
					32:[U_CATEGORY_MACRO_MAX_COEC<0.0186101] yes=65,no=66,missing=65
						65:leaf=0.133772
						66:leaf=-0.0782176
				16:[C_D_U_TITLEMD5_CATEGORY_MICRO_MEAN_COEC<0.0662467] yes=33,no=34,missing=34
					33:[C_D_U_TITLEMD5_CATEGORY_MEAN_EC<0.547389] yes=67,no=68,missing=68
						67:leaf=0.0273998
						68:leaf=0.0953332
					34:[C_D_U_CATEGORY_GENDER_MEAN_EC<3520.73] yes=69,no=70,missing=70
						69:leaf=0.0413343
						70:leaf=-0.0272333
			8:[U_KEYWORD_MAX_EC<216.73] yes=17,no=18,missing=18
				17:[U_CATEGORY_MAX_EC<1879.97] yes=35,no=36,missing=35
					35:[D_TITLEMD5_EC<31.985] yes=71,no=72,missing=72
						71:leaf=-0.0907446
						72:leaf=-0.0293196
					36:[C_D_U_CATEGORY_CATEGORY_MEAN_EC<27.716] yes=73,no=74,missing=74
						73:leaf=0.0428363
						74:leaf=-0.0256264
				18:[D_CATEGORY_MEAN_C<14813] yes=37,no=38,missing=37
					37:[DOC_AGE<1.02194] yes=75,no=76,missing=76
						75:leaf=0.005088
						76:leaf=-0.0161399
					38:[C_D_U_KEYWORD_CATEGORY_MICRO_MEAN_COEC<0.0718948] yes=77,no=78,missing=78
						77:leaf=-0.0177893
						78:leaf=0.0154257
		4:[C_D_U_CATEGORY_CATEGORY_MICRO_MEAN_COEC<0.147135] yes=9,no=10,missing=9
			9:[D_PUBLISHER_COEC<0.0380622] yes=19,no=20,missing=20
				19:[C_D_U_PUBLISHER_CITY_COEC<0.0624278] yes=39,no=40,missing=39
					39:[D_CATEGORY_MAX_C<17814.9] yes=79,no=80,missing=79
						79:leaf=-0.0134912
						80:leaf=-0.0711829
					40:[C_D_U_PUBLISHER_CITY_EC<13.8991] yes=81,no=82,missing=82
						81:leaf=-0.0203244
						82:leaf=0.117445
				20:[C_D_U_PUBLISHER_CITY_COEC<0.0230847] yes=41,no=42,missing=42
					41:[D_KEYWORD_MICRO_MEAN_COEC<0.0894205] yes=83,no=84,missing=84
						83:leaf=-0.0431404
						84:leaf=-0.106657
					42:[M_D_U_KEYWORD_KEYWORD_MICRO_MAX_COEC<0.139693] yes=85,no=86,missing=85
						85:leaf=-0.0356522
						86:leaf=-0.0081558
			10:[D_KEYWORD_MICRO_MEAN_COEC<0.0835992] yes=21,no=22,missing=22
				21:[D_KEYWORD_MACRO_MAX_COEC<0.0135165] yes=43,no=44,missing=44
					43:[C_D_U_CATEGORY_GENDER_MEAN_C<1189.35] yes=87,no=88,missing=87
						87:leaf=-0.203301
						88:leaf=0.0274183
					44:[U_AGE_EC<810233] yes=89,no=90,missing=89
						89:leaf=0.0829411
						90:leaf=-0.0263739
				22:[M_D_U_KEYWORD_KEYWORD_MICRO_MEAN_COEC<0.117218] yes=45,no=46,missing=45
					45:leaf=-0.166166
					46:[C_D_U_CATEGORY_CITY_MACRO_MEAN_COEC<0.137478] yes=91,no=92,missing=92
						91:leaf=0.0744145
						92:leaf=-0.197633
	2:[U_KEYWORD_MAX_C<43.5366] yes=5,no=6,missing=5
		5:[U_KEYWORD_MEAN_C<149.976] yes=11,no=12,missing=11
			11:[D_KEYWORD_MEAN_C<289.279] yes=23,no=24,missing=23
				23:[KW_REL<0.0017148] yes=47,no=48,missing=48
					47:[DOC_AGE<23.1667] yes=93,no=94,missing=94
						93:leaf=-0.00103516
						94:leaf=0.00519498
					48:[M_D_U_KEYWORD_KEYWORD_MAX_EC<0.217613] yes=95,no=96,missing=95
						95:leaf=0.00395732
						96:leaf=0.0176993
				24:[M_D_U_KEYWORD_KEYWORD_MEAN_C<0.00833166] yes=49,no=50,missing=50
					49:[D_TITLEMD5_C<536.779] yes=97,no=98,missing=97
						97:leaf=-0.0097591
						98:leaf=-0.00131863
					50:[M_D_U_KEYWORD_KEYWORD_MICRO_MAX_COEC<0.153406] yes=99,no=100,missing=99
						99:leaf=-0.0013359
						100:leaf=0.00542844
			12:[D_CATEGORY_MICRO_MAX_COEC<0.0897956] yes=25,no=26,missing=26
				25:[C_D_U_CATEGORY_CATEGORY_MICRO_MEAN_COEC<0.103197] yes=51,no=52,missing=52
					51:[DOC_AGE<24.0872] yes=101,no=102,missing=102
						101:leaf=0.00157653
						102:leaf=0.0136924
					52:[CAT_REL<0.10004] yes=103,no=104,missing=104
						103:leaf=-0.0202225
						104:leaf=0.00222034
				26:[C_D_U_CATEGORY_GENDER_MACRO_MAX_COEC<0.113643] yes=53,no=54,missing=53
					53:[M_D_U_KEYWORD_KEYWORD_MAX_EC<0.321792] yes=105,no=106,missing=105
						105:leaf=0.00886935
						106:leaf=0.0212293
					54:[C_D_U_TITLEMD5_AGE_C<148.298] yes=107,no=108,missing=108
						107:leaf=-0.00825183
						108:leaf=0.00631454
		6:[U_KEYWORD_MEAN_EC<763.008] yes=13,no=14,missing=14
			13:[U_GENDER_COEC<0.0908498] yes=27,no=28,missing=28
				27:[C_D_U_PUBLISHER_AGE_COEC<0.0614392] yes=55,no=56,missing=56
					55:[D_KEYWORD_MICRO_MAX_COEC<0.14226] yes=109,no=110,missing=110
						109:leaf=0.117467
						110:leaf=0.272062
					56:[D_CATEGORY_MICRO_MEAN_COEC<0.0712892] yes=111,no=112,missing=112
						111:leaf=-0.0648319
						112:leaf=0.0469611
				28:[DAY_OF_WEEK<6] yes=57,no=58,missing=58
					57:[U_KEYWORD_MICRO_MAX_COEC<0.115721] yes=113,no=114,missing=114
						113:leaf=-0.0723045
						114:leaf=-0.020277
					58:[U_CATEGORY_MICRO_MAX_COEC<0.0899874] yes=115,no=116,missing=116
						115:leaf=-0.0357651
						116:leaf=0.0969257
			14:[U_KEYWORD_MACRO_MEAN_COEC<0.0265928] yes=29,no=30,missing=30
				29:[CAT_REL<0.094768] yes=59,no=60,missing=60
					59:[U_CATEGORY_MICRO_MEAN_COEC<0.0924027] yes=117,no=118,missing=118
						117:leaf=-0.00878996
						118:leaf=-0.0259582
					60:[C_D_U_CATEGORY_CATEGORY_MICRO_MEAN_COEC<0.0780993] yes=119,no=120,missing=120
						119:leaf=0.0240405
						120:leaf=-0.000656341
				30:[U_AGE_C<87647.8] yes=61,no=62,missing=62
					61:[C_D_U_CATEGORY_GENDER_MAX_EC<3007.19] yes=121,no=122,missing=121
						121:leaf=0.0172812
						122:leaf=0.00264158
					62:[U_CATEGORY_MAX_C<506.457] yes=123,no=124,missing=123
						123:leaf=0.00375236
						124:leaf=-0.00721126
booster[96]:
0:[IMAGE_COUNT<3] yes=1,no=2,missing=2
	1:[WORD_COUNT<4897] yes=3,no=4,missing=4
		3:[D_CATEGORY_MAX_C<46173.7] yes=7,no=8,missing=7
			7:[C_D_U_CATEGORY_CITY_MACRO_MAX_COEC<0.0915109] yes=15,no=16,missing=15
				15:[D_TITLEMD5_C<34.8915] yes=31,no=32,missing=31
					31:[C_D_U_KEYWORD_CATEGORY_MEAN_EC<5.79781] yes=63,no=64,missing=63
						63:leaf=0.000549772
						64:leaf=-0.00520065
					32:[D_PUBLISHER_EC<32667.8] yes=65,no=66,missing=66
						65:leaf=0.00240041
						66:leaf=-0.00230994
				16:[D_KEYWORD_MICRO_MEAN_COEC<0.0861502] yes=33,no=34,missing=34
					33:[D_CATEGORY_MEAN_C<14970.9] yes=67,no=68,missing=68
						67:leaf=0.00609964
						68:leaf=0.0186271
					34:[D_KEYWORD_MAX_EC<2443.33] yes=69,no=70,missing=70
						69:leaf=0.00314165
						70:leaf=-0.00264848
			8:[D_TITLEMD5_COEC<0.173488] yes=17,no=18,missing=17
				17:[M_D_U_KEYWORD_KEYWORD_MACRO_MEAN_COEC<0.000421902] yes=35,no=36,missing=36
					35:[C_D_U_TITLEMD5_CITY_C<30.2919] yes=71,no=72,missing=71
						71:leaf=-0.0129125
						72:leaf=0.00123964
					36:[WORD_COUNT<1249] yes=73,no=74,missing=74
						73:leaf=-0.00598812
						74:leaf=0.00396786
				18:[D_TITLEMD5_EC<7581.69] yes=37,no=38,missing=38
					37:[D_CATEGORY_MAX_C<49836] yes=75,no=76,missing=76
						75:leaf=0.00219021
						76:leaf=0.013024
					38:[D_KEYWORD_MICRO_MEAN_COEC<0.116672] yes=77,no=78,missing=78
						77:leaf=0.0115612
						78:leaf=-0.00454431
		4:[D_CATEGORY_MAX_C<4006.26] yes=9,no=10,missing=9
			9:[D_TITLEMD5_EC<3824.17] yes=19,no=20,missing=19
				19:[CAT_REL<0.040657] yes=39,no=40,missing=40
					39:[D_CATEGORY_MEAN_C<1644.51] yes=79,no=80,missing=80
						79:leaf=-0.000984988
						80:leaf=-0.0200936
					40:[WORD_COUNT<5894] yes=81,no=82,missing=82
						81:leaf=-0.00643315
						82:leaf=0.00729286
				20:[D_KEYWORD_MACRO_MAX_COEC<0.0260484] yes=41,no=42,missing=42
					41:[C_D_U_KEYWORD_CATEGORY_MAX_EC<0.590456] yes=83,no=84,missing=83
						83:leaf=-0.0113065
						84:leaf=-0.0473002
					42:[D_KEYWORD_MACRO_MEAN_COEC<0.0726354] yes=85,no=86,missing=86
						85:leaf=0.0844898
						86:leaf=-0.00167451
			10:[D_KEYWORD_MEAN_EC<3249.76] yes=21,no=22,missing=22
				21:[CAT_REL<0.031713] yes=43,no=44,missing=44
					43:[D_KEYWORD_MACRO_MAX_COEC<0.0110491] yes=87,no=88,missing=88
						87:leaf=-0.0195421
						88:leaf=0.0046886
					44:[U_KEYWORD_MICRO_MEAN_COEC<0.099651] yes=89,no=90,missing=90
						89:leaf=0.00745844
						90:leaf=0.0232186
				22:[KW_REL<0.00438776] yes=45,no=46,missing=46
					45:[C_D_U_KEYWORD_CATEGORY_MAX_C<0.463418] yes=91,no=92,missing=91
						91:leaf=-0.00294134
						92:leaf=-0.0184363
					46:[U_KEYWORD_MAX_EC<349.029] yes=93,no=94,missing=94
						93:leaf=0.0187403
						94:leaf=-0.00143931
	2:[CAT_REL<0.176119] yes=5,no=6,missing=6
		5:[D_TITLEMD5_COEC<0.0501513] yes=11,no=12,missing=12
			11:[C_D_U_CATEGORY_CATEGORY_MICRO_MEAN_COEC<0.0994969] yes=23,no=24,missing=23
				23:[DOC_AGE<19.0628] yes=47,no=48,missing=48
					47:[U_GENDER_COEC<0.0994627] yes=95,no=96,missing=95
						95:leaf=-0.00714532
						96:leaf=-0.0374988
					48:[D_KEYWORD_MICRO_MAX_COEC<0.106299] yes=97,no=98,missing=98
						97:leaf=0.0254052
						98:leaf=-0.00217585
				24:[D_TITLEMD5_EC<31.96] yes=49,no=50,missing=50
					49:[U_KEYWORD_MAX_C<22.4668] yes=99,no=100,missing=100
						99:leaf=0.0849641
						100:leaf=0.0224114
					50:[D_KEYWORD_MACRO_MEAN_COEC<0.0686721] yes=101,no=102,missing=102
						101:leaf=0.0175593
						102:leaf=-0.0208474
			12:[D_KEYWORD_MICRO_MEAN_COEC<0.0885154] yes=25,no=26,missing=26
				25:[D_CATEGORY_MEAN_C<622.441] yes=51,no=52,missing=51
					51:[D_TITLEMD5_EC<276.995] yes=103,no=104,missing=104
						103:leaf=0.0613057
						104:leaf=0.021909
					52:[D_CATEGORY_MACRO_MAX_COEC<0.0660131] yes=105,no=106,missing=106
						105:leaf=0.0174384
						106:leaf=0.00609348
				26:[C_D_U_KEYWORD_CATEGORY_MICRO_MEAN_COEC<0.146525] yes=53,no=54,missing=53
					53:[U_KEYWORD_MAX_C<32.9264] yes=107,no=108,missing=107
						107:leaf=0.00191998
						108:leaf=-0.0085691
					54:[U_CATEGORY_MICRO_MAX_COEC<0.096818] yes=109,no=110,missing=110
						109:leaf=-0.000573059
						110:leaf=0.0158916
		6:[U_KEYWORD_MACRO_MAX_COEC<0.00175889] yes=13,no=14,missing=14
			13:[U_KEYWORD_MEAN_EC<780.989] yes=27,no=28,missing=28
				27:[C_D_U_KEYWORD_CATEGORY_MEAN_EC<68.2279] yes=55,no=56,missing=56
					55:[M_D_U_KEYWORD_KEYWORD_MEAN_C<0.0295348] yes=111,no=112,missing=111
						111:leaf=-0.024503
						112:leaf=0.0970298
					56:[C_D_U_TITLEMD5_CATEGORY_MEAN_EC<79.0253] yes=113,no=114,missing=114
						113:leaf=-0.2198
						114:leaf=-0.0404202
				28:[C_D_U_TITLEMD5_CITY_C<17.9503] yes=57,no=58,missing=58
					57:[C_D_U_TITLEMD5_CATEGORY_MICRO_MEAN_COEC<0.105562] yes=115,no=116,missing=116
						115:leaf=0.0573423
						116:leaf=0.0287897
					58:[C_D_U_TITLEMD5_AGE_COEC<0.0245806] yes=117,no=118,missing=118
						117:leaf=0.106176
						118:leaf=0.019519
			14:[U_KEYWORD_MEAN_C<152.953] yes=29,no=30,missing=30
				29:[U_KEYWORD_MAX_EC<265.858] yes=59,no=60,missing=60
					59:[C_D_U_CATEGORY_GENDER_MACRO_MAX_COEC<0.0518309] yes=119,no=120,missing=120
						119:leaf=0.137563
						120:leaf=-0.0043381
					60:[DOC_AGE<21.1681] yes=121,no=122,missing=122
						121:leaf=0.025701
						122:leaf=0.00376332
				30:[WORD_COUNT<856] yes=61,no=62,missing=62
					61:[C_D_U_KEYWORD_CATEGORY_MICRO_MAX_COEC<0.278188] yes=123,no=124,missing=124
						123:leaf=-0.130177
						124:leaf=0.144499
					62:[U_GENDER_EC<202225] yes=125,no=126,missing=126
						125:leaf=0.106842
						126:leaf=-0.015245
booster[97]:
0:[U_KEYWORD_MICRO_MAX_COEC<0.119265] yes=1,no=2,missing=1
	1:[U_KEYWORD_MAX_C<58.9515] yes=3,no=4,missing=3
		3:[M_D_U_KEYWORD_KEYWORD_MACRO_MEAN_COEC<0.000852716] yes=7,no=8,missing=7
			7:[U_KEYWORD_MEAN_C<136.643] yes=15,no=16,missing=15
				15:[U_KEYWORD_MACRO_MAX_COEC<0.00110271] yes=31,no=32,missing=32
					31:[U_KEYWORD_MICRO_MAX_COEC<0.109023] yes=63,no=64,missing=64
						63:leaf=-0.00122944
						64:leaf=0.0116596
					32:[U_KEYWORD_MACRO_MEAN_COEC<0.0271197] yes=65,no=66,missing=66
						65:leaf=-0.00282682
						66:leaf=0.00053475
				16:[U_AGE_EC<874590] yes=33,no=34,missing=33
					33:[U_KEYWORD_MACRO_MEAN_COEC<0.023788] yes=67,no=68,missing=68
						67:leaf=0.00523933
						68:leaf=-0.000134189
					34:[C_D_U_TITLEMD5_GENDER_COEC<0.0813702] yes=69,no=70,missing=70
						69:leaf=-0.0146293
						70:leaf=-0.00035171
			8:[U_KEYWORD_MACRO_MEAN_COEC<0.0271197] yes=17,no=18,missing=18
				17:[D_KEYWORD_MACRO_MAX_COEC<0.0389886] yes=35,no=36,missing=36
					35:[D_CATEGORY_MAX_C<4074.03] yes=71,no=72,missing=72
						71:leaf=0.00479945
						72:leaf=0.02759
					36:[KW_REL<0.00922166] yes=73,no=74,missing=74
						73:leaf=-0.00130382
						74:leaf=0.0233145
				18:[D_KEYWORD_MACRO_MEAN_COEC<0.0662382] yes=37,no=38,missing=38
					37:[C_D_U_KEYWORD_CATEGORY_MACRO_MAX_COEC<0.00635969] yes=75,no=76,missing=75
						75:leaf=-0.00481958
						76:leaf=0.0360402
					38:[DOC_AGE<49.3614] yes=77,no=78,missing=78
						77:leaf=-0.00163533
						78:leaf=-0.0502124
		4:[U_GENDER_COEC<0.105766] yes=9,no=10,missing=9
			9:[U_KEYWORD_MEAN_C<98.6642] yes=19,no=20,missing=20
				19:[U_CATEGORY_MICRO_MEAN_COEC<0.0829704] yes=39,no=40,missing=40
					39:[U_CATEGORY_MICRO_MAX_COEC<0.0923339] yes=79,no=80,missing=80
						79:leaf=-0.0291676
						80:leaf=0.0603842
					40:[C_D_U_CATEGORY_CITY_MACRO_MAX_COEC<0.271503] yes=81,no=82,missing=82
						81:leaf=-0.0739246
						82:leaf=0.0284734
				20:[U_CITY_EC<6835.7] yes=41,no=42,missing=41
					41:[U_KEYWORD_MEAN_C<156.739] yes=83,no=84,missing=84
						83:leaf=-0.0064194
						84:leaf=-0.0292234
					42:[U_CATEGORY_MACRO_MEAN_COEC<0.0521533] yes=85,no=86,missing=85
						85:leaf=0.0280351
						86:leaf=-0.0055551
			10:[C_D_U_KEYWORD_CATEGORY_MAX_EC<1.82118] yes=21,no=22,missing=22
				21:[C_D_U_TITLEMD5_CATEGORY_MICRO_MEAN_COEC<0.107016] yes=43,no=44,missing=44
					43:leaf=-0.13543
					44:[U_CATEGORY_MICRO_MEAN_COEC<0.0802479] yes=87,no=88,missing=88
						87:leaf=-0.109316
						88:leaf=-0.219941
				22:[D_KEYWORD_MEAN_EC<3262.05] yes=45,no=46,missing=46
					45:[C_D_U_TITLEMD5_AGE_COEC<0.128732] yes=89,no=90,missing=89
						89:leaf=0.0176643
						90:leaf=-0.104762
					46:[C_D_U_CATEGORY_CATEGORY_MICRO_MEAN_COEC<0.127762] yes=91,no=92,missing=91
						91:leaf=-0.113934
						92:leaf=0.0223529
	2:[DOC_AGE<21.1372] yes=5,no=6,missing=6
		5:[U_KEYWORD_MACRO_MAX_COEC<0.00121053] yes=11,no=12,missing=12
			11:[U_GENDER_COEC<0.0899609] yes=23,no=24,missing=23
				23:[U_CATEGORY_MICRO_MEAN_COEC<0.0991079] yes=47,no=48,missing=48
					47:[C_D_U_CATEGORY_CITY_MAX_EC<32.1244] yes=93,no=94,missing=94
						93:leaf=0.0721041
						94:leaf=-0.0210263
					48:[U_CATEGORY_MACRO_MEAN_COEC<0.0464538] yes=95,no=96,missing=96
						95:leaf=0.0628745
						96:leaf=0.0223994
				24:[U_KEYWORD_MEAN_EC<1186.09] yes=49,no=50,missing=50
					49:[U_KEYWORD_MEAN_EC<1126.95] yes=97,no=98,missing=98
						97:leaf=0.00330693
						98:leaf=0.0621579
					50:[U_CATEGORY_MEAN_EC<6703.8] yes=99,no=100,missing=100
						99:leaf=-0.0754848
						100:leaf=-0.011536
			12:[M_D_U_KEYWORD_KEYWORD_MICRO_MEAN_COEC<0.100402] yes=25,no=26,missing=26
				25:[D_KEYWORD_MEAN_EC<6923.35] yes=51,no=52,missing=52
					51:[D_KEYWORD_MAX_EC<2287.89] yes=101,no=102,missing=102
						101:leaf=0.0055526
						102:leaf=0.0168971
					52:[C_D_U_CATEGORY_GENDER_MACRO_MAX_COEC<0.0745853] yes=103,no=104,missing=103
						103:leaf=0.00535511
						104:leaf=-0.0113115
				26:[D_KEYWORD_MEAN_EC<2284.22] yes=53,no=54,missing=53
					53:[U_KEYWORD_MACRO_MEAN_COEC<0.0271197] yes=105,no=106,missing=106
						105:leaf=-0.000275482
						106:leaf=0.00727744
					54:[C_D_U_CATEGORY_CATEGORY_MICRO_MEAN_COEC<0.0810163] yes=107,no=108,missing=107
						107:leaf=0.0056646
						108:leaf=-0.00669244
		6:[U_CATEGORY_MEAN_C<2466.8] yes=13,no=14,missing=14
			13:[U_AGE_C<79285] yes=27,no=28,missing=28
				27:[D_KEYWORD_MICRO_MEAN_COEC<0.0758848] yes=55,no=56,missing=56
					55:[U_AGE_EC<45992.9] yes=109,no=110,missing=110
						109:leaf=-0.0698876
						110:leaf=0.0480267
					56:[U_KEYWORD_MEAN_C<145.665] yes=111,no=112,missing=112
						111:leaf=0.0142029
						112:leaf=0.0543391
				28:[U_AGE_EC<800864] yes=57,no=58,missing=58
					57:[U_KEYWORD_MICRO_MAX_COEC<0.120789] yes=113,no=114,missing=114
						113:leaf=-0.181274
						114:leaf=-0.0279401
					58:[M_D_U_KEYWORD_KEYWORD_MICRO_MEAN_COEC<0.0834398] yes=115,no=116,missing=115
						115:leaf=0.0158982
						116:leaf=0.00540509
			14:[C_D_U_CATEGORY_AGE_MEAN_C<1016.8] yes=29,no=30,missing=29
				29:[U_KEYWORD_MICRO_MEAN_COEC<0.10093] yes=59,no=60,missing=60
					59:[C_D_U_CATEGORY_CITY_MEAN_EC<18450.1] yes=117,no=118,missing=117
						117:leaf=0.000964535
						118:leaf=-0.0600336
					60:[U_KEYWORD_MEAN_C<140.004] yes=119,no=120,missing=120
						119:leaf=-0.07968
						120:leaf=-0.000139343
				30:[M_D_U_KEYWORD_KEYWORD_MICRO_MAX_COEC<0.118526] yes=61,no=62,missing=62
					61:[C_D_U_PUBLISHER_CITY_EC<2649.2] yes=121,no=122,missing=121
						121:leaf=-0.0153033
						122:leaf=-0.159989
					62:[C_D_U_CATEGORY_GENDER_MACRO_MAX_COEC<0.078646] yes=123,no=124,missing=124
						123:leaf=0.0630886
						124:leaf=0.00495383
booster[98]:
0:[C_D_U_CATEGORY_CITY_MACRO_MAX_COEC<0.262479] yes=1,no=2,missing=1
	1:[C_D_U_PUBLISHER_GENDER_COEC<0.0309626] yes=3,no=4,missing=4
		3:[C_D_U_TITLEMD5_CATEGORY_MAX_EC<0.284959] yes=7,no=8,missing=7
			7:[D_CATEGORY_MEAN_C<16152.5] yes=15,no=16,missing=16
				15:[D_PUBLISHER_COEC<0.0522656] yes=31,no=32,missing=32
					31:[DOC_AGE<16.7736] yes=63,no=64,missing=64
						63:leaf=-0.030947
						64:leaf=-0.00406608
					32:[U_AGE_COEC<0.0965942] yes=65,no=66,missing=65
						65:leaf=-0.0324883
						66:leaf=-0.067859
				16:[C_D_U_CATEGORY_CITY_MEAN_C<2284.57] yes=33,no=34,missing=33
					33:[C_D_U_CATEGORY_CATEGORY_MACRO_MEAN_COEC<0.0514689] yes=67,no=68,missing=68
						67:leaf=0.0577548
						68:leaf=-0.00210072
					34:[C_D_U_KEYWORD_CATEGORY_MACRO_MAX_COEC<0.00512411] yes=69,no=70,missing=70
						69:leaf=-0.112939
						70:leaf=-0.0279146
			8:[DOC_AGE<1.22389] yes=17,no=18,missing=18
				17:[DAY_OF_WEEK<5] yes=35,no=36,missing=36
					35:[C_D_U_KEYWORD_CATEGORY_MEAN_C<0.268348] yes=71,no=72,missing=72
						71:leaf=0.104132
						72:leaf=-0.0166634
					36:[U_GENDER_COEC<0.101474] yes=73,no=74,missing=74
						73:leaf=0.0484087
						74:leaf=0.187797
				18:[C_D_U_TITLEMD5_CATEGORY_MACRO_MAX_COEC<0.00654529] yes=37,no=38,missing=38
					37:[U_KEYWORD_MACRO_MEAN_COEC<0.029289] yes=75,no=76,missing=76
						75:leaf=0.033789
						76:leaf=-0.0577932
					38:[U_GENDER_EC<754338] yes=77,no=78,missing=78
						77:leaf=-0.0270043
						78:leaf=0.00346918
		4:[D_CATEGORY_MICRO_MAX_COEC<0.0625748] yes=9,no=10,missing=9
			9:[C_D_U_CATEGORY_CATEGORY_MICRO_MEAN_COEC<0.0369525] yes=19,no=20,missing=20
				19:[C_D_U_CATEGORY_CATEGORY_MACRO_MAX_COEC<0.00675642] yes=39,no=40,missing=40
					39:[C_D_U_CATEGORY_CATEGORY_MICRO_MAX_COEC<0.0696911] yes=79,no=80,missing=80
						79:leaf=-0.01982
						80:leaf=0.0396507
					40:[C_D_U_PUBLISHER_GENDER_EC<686.209] yes=81,no=82,missing=82
						81:leaf=0.0597012
						82:leaf=-0.00209318
				20:[U_KEYWORD_MICRO_MAX_COEC<0.111516] yes=41,no=42,missing=41
					41:[D_KEYWORD_MICRO_MAX_COEC<0.0876419] yes=83,no=84,missing=84
						83:leaf=-0.00993583
						84:leaf=0.00414503
					42:[U_CATEGORY_MACRO_MAX_COEC<0.0182972] yes=85,no=86,missing=85
						85:leaf=0.0129517
						86:leaf=0.0018962
			10:[D_CATEGORY_MEAN_EC<15462.3] yes=21,no=22,missing=22
				21:[U_CATEGORY_MACRO_MEAN_COEC<0.0494837] yes=43,no=44,missing=44
					43:[U_AGE_EC<939988] yes=87,no=88,missing=87
						87:leaf=0.00924012
						88:leaf=0.0504441
					44:[U_KEYWORD_MACRO_MEAN_COEC<0.0284894] yes=89,no=90,missing=89
						89:leaf=-0.000721347
						90:leaf=0.00749682
				22:[C_D_U_KEYWORD_CATEGORY_MACRO_MEAN_COEC<0.0456143] yes=45,no=46,missing=46
					45:[C_D_U_TITLEMD5_CATEGORY_MICRO_MEAN_COEC<0.108196] yes=91,no=92,missing=92
						91:leaf=-0.000732572
						92:leaf=-0.00800171
					46:[D_CATEGORY_MICRO_MAX_COEC<0.115939] yes=93,no=94,missing=94
						93:leaf=0.0013245
						94:leaf=-0.00165957
	2:[U_CATEGORY_MEAN_C<488.674] yes=5,no=6,missing=6
		5:[U_KEYWORD_MEAN_EC<1163.59] yes=11,no=12,missing=12
			11:[C_D_U_CATEGORY_GENDER_MACRO_MAX_COEC<0.0690955] yes=23,no=24,missing=24
				23:[U_KEYWORD_MACRO_MAX_COEC<0.00131665] yes=47,no=48,missing=48
					47:[C_D_U_CATEGORY_CATEGORY_MICRO_MAX_COEC<0.0911402] yes=95,no=96,missing=96
						95:leaf=-0.0319044
						96:leaf=0.129639
					48:[C_D_U_CATEGORY_AGE_MACRO_MEAN_COEC<0.08296] yes=97,no=98,missing=98
						97:leaf=-0.194553
						98:leaf=0.0795871
				24:[U_AGE_COEC<0.0972983] yes=49,no=50,missing=49
					49:[U_CATEGORY_MAX_EC<2044.31] yes=99,no=100,missing=100
						99:leaf=0.0756044
						100:leaf=0.00451874
					50:[C_D_U_CATEGORY_CATEGORY_MICRO_MEAN_COEC<0.0885247] yes=101,no=102,missing=102
						101:leaf=-0.212417
						102:leaf=0.0203223
			12:[U_GENDER_EC<202286] yes=25,no=26,missing=26
				25:[C_D_U_TITLEMD5_CATEGORY_MEAN_C<3.44756] yes=51,no=52,missing=52
					51:[D_KEYWORD_MAX_EC<254.807] yes=103,no=104,missing=104
						103:leaf=-0.0104436
						104:leaf=-0.274084
					52:leaf=0.0765243
				26:[U_KEYWORD_MICRO_MAX_COEC<0.107395] yes=53,no=54,missing=54
					53:[C_D_U_TITLEMD5_CATEGORY_MAX_C<0.0782887] yes=105,no=106,missing=106
						105:leaf=-0.150252
						106:leaf=0.0217372
					54:[DOC_AGE<74.1667] yes=107,no=108,missing=108
						107:leaf=0.0381464
						108:leaf=-0.251191
		6:[C_D_U_TITLEMD5_CITY_COEC<0.100944] yes=13,no=14,missing=13
			13:[U_KEYWORD_MACRO_MEAN_COEC<0.0235115] yes=27,no=28,missing=27
				27:[U_KEYWORD_MACRO_MAX_COEC<0.00198381] yes=55,no=56,missing=55
					55:[D_KEYWORD_MICRO_MEAN_COEC<0.0702308] yes=109,no=110,missing=110
						109:leaf=-0.0400763
						110:leaf=0.0139449
					56:[CAT_REL<0.057353] yes=111,no=112,missing=112
						111:leaf=-0.137758
						112:leaf=-0.0116014
				28:[C_D_U_CATEGORY_CITY_MEAN_C<3.96719] yes=57,no=58,missing=58
					57:[D_KEYWORD_MICRO_MAX_COEC<0.147006] yes=113,no=114,missing=114
						113:leaf=0.0295982
						114:leaf=0.00202191
					58:[U_KEYWORD_MICRO_MAX_COEC<0.107395] yes=115,no=116,missing=116
						115:leaf=0.101013
						116:leaf=0.0351636
			14:[U_KEYWORD_MACRO_MEAN_COEC<0.0300831] yes=29,no=30,missing=30
				29:[C_D_U_PUBLISHER_CITY_EC<0.936914] yes=59,no=60,missing=60
					59:[C_D_U_PUBLISHER_GENDER_EC<2064.33] yes=117,no=118,missing=118
						117:leaf=0.0625124
						118:leaf=-0.137417
					60:[U_CATEGORY_MICRO_MEAN_COEC<0.104906] yes=119,no=120,missing=120
						119:leaf=-0.00860666
						120:leaf=0.0358784
				30:[DOC_AGE<74.1667] yes=61,no=62,missing=62
					61:[C_D_U_TITLEMD5_GENDER_C<16.9153] yes=121,no=122,missing=122
						121:leaf=0.119101
						122:leaf=0.0129436
					62:[C_D_U_TITLEMD5_CITY_C<112.415] yes=123,no=124,missing=124
						123:leaf=-0.176444
						124:leaf=0.106049
booster[99]:
0:[TIME_OF_DAY<20] yes=1,no=2,missing=2
	1:[TIME_OF_DAY<12] yes=3,no=4,missing=4
		3:[U_CATEGORY_MACRO_MEAN_COEC<0.0502524] yes=7,no=8,missing=8
			7:[CAT_REL<0.092633] yes=15,no=16,missing=16
				15:[U_CATEGORY_MAX_EC<3636.36] yes=31,no=32,missing=32
					31:[U_KEYWORD_MICRO_MEAN_COEC<0.105587] yes=63,no=64,missing=64
						63:leaf=0.00080846
						64:leaf=0.026312
					32:[DAY_OF_WEEK<2] yes=65,no=66,missing=66
						65:leaf=0.0155868
						66:leaf=0.00545168
				16:[U_KEYWORD_MACRO_MEAN_COEC<0.023749] yes=33,no=34,missing=34
					33:[C_D_U_TITLEMD5_CATEGORY_MAX_C<0.378442] yes=67,no=68,missing=68
						67:leaf=0.0208249
						68:leaf=0.0106346
					34:[D_CATEGORY_MEAN_C<15905.5] yes=69,no=70,missing=70
						69:leaf=-0.000509643
						70:leaf=0.0277186
			8:[U_KEYWORD_MACRO_MEAN_COEC<0.0188637] yes=17,no=18,missing=18
				17:[KW_REL<0.00133943] yes=35,no=36,missing=36
					35:[C_D_U_KEYWORD_CATEGORY_MEAN_EC<1.84175] yes=71,no=72,missing=71
						71:leaf=0.0187338
						72:leaf=-0.0583147
					36:[U_CITY_EC<373069] yes=73,no=74,missing=73
						73:leaf=-0.00684171
						74:leaf=0.100242
				18:[C_D_U_TITLEMD5_GENDER_COEC<0.130744] yes=37,no=38,missing=37
					37:[C_D_U_TITLEMD5_GENDER_EC<2290.83] yes=75,no=76,missing=75
						75:leaf=-0.00098642
						76:leaf=0.0157894
					38:[U_GENDER_EC<687244] yes=77,no=78,missing=78
						77:leaf=0.0113422
						78:leaf=0.00125432
		4:[C_D_U_TITLEMD5_CATEGORY_MACRO_MEAN_COEC<0.0512806] yes=9,no=10,missing=10
			9:[C_D_U_TITLEMD5_CATEGORY_MICRO_MEAN_COEC<0.109535] yes=19,no=20,missing=20
				19:[DOC_AGE<23.9947] yes=39,no=40,missing=40
					39:[DOC_AGE<7.65611] yes=79,no=80,missing=80
						79:leaf=-0.0010514
						80:leaf=-0.00967874
					40:[DOC_AGE<74.4289] yes=81,no=82,missing=82
						81:leaf=0.00294897
						82:leaf=0.0189926
				20:[U_CATEGORY_MACRO_MAX_COEC<0.00847962] yes=41,no=42,missing=42
					41:[U_CATEGORY_MICRO_MEAN_COEC<0.103574] yes=83,no=84,missing=84
						83:leaf=-0.00445957
						84:leaf=0.0382782
					42:[C_D_U_KEYWORD_CATEGORY_MAX_C<0.134119] yes=85,no=86,missing=86
						85:leaf=-0.0085741
						86:leaf=-0.0195467
			10:[DOC_AGE<12.0928] yes=21,no=22,missing=22
				21:[WORD_COUNT<2935] yes=43,no=44,missing=44
					43:[DAY_OF_WEEK<5] yes=87,no=88,missing=88
						87:leaf=-0.0015977
						88:leaf=0.00452341
					44:[WORD_COUNT<3061] yes=89,no=90,missing=90
						89:leaf=0.0177696
						90:leaf=0.00467405
				22:[D_KEYWORD_MICRO_MEAN_COEC<0.0877605] yes=45,no=46,missing=45
					45:[DOC_AGE<21.7061] yes=91,no=92,missing=92
						91:leaf=-0.00573863
						92:leaf=0.0046432
					46:[U_AGE_EC<59566.8] yes=93,no=94,missing=94
						93:leaf=-0.0256091
						94:leaf=-0.00577815
	2:[DOC_AGE<12.8422] yes=5,no=6,missing=6
		5:[C_D_U_PUBLISHER_CITY_C<344.369] yes=11,no=12,missing=12
			11:[KW_REL<0.00153638] yes=23,no=24,missing=24
				23:[C_D_U_TITLEMD5_AGE_EC<17.7732] yes=47,no=48,missing=48
					47:[U_KEYWORD_MAX_C<14.9839] yes=95,no=96,missing=96
						95:leaf=-0.13043
						96:leaf=0.0292034
					48:[C_D_U_PUBLISHER_GENDER_COEC<0.0778165] yes=97,no=98,missing=98
						97:leaf=-0.0197757
						98:leaf=-0.000713964
				24:[U_KEYWORD_MICRO_MEAN_COEC<0.104046] yes=49,no=50,missing=50
					49:[C_D_U_KEYWORD_CATEGORY_MEAN_C<6.73098] yes=99,no=100,missing=100
						99:leaf=0.0122
						100:leaf=-0.0142768
					50:[D_TITLEMD5_COEC<0.0618266] yes=101,no=102,missing=101
						101:leaf=0.0575851
						102:leaf=0.0185317
			12:[U_CATEGORY_MICRO_MEAN_COEC<0.0824858] yes=25,no=26,missing=25
				25:[C_D_U_CATEGORY_CITY_MEAN_EC<15183.5] yes=51,no=52,missing=51
					51:[D_CATEGORY_MEAN_EC<229650] yes=103,no=104,missing=104
						103:leaf=0.0222832
						104:leaf=0.057323
					52:[U_KEYWORD_MICRO_MAX_COEC<0.116116] yes=105,no=106,missing=106
						105:leaf=0.0295705
						106:leaf=-0.0285536
				26:[M_D_U_KEYWORD_KEYWORD_MEAN_EC<1.75236] yes=53,no=54,missing=54
					53:[U_CITY_C<19936.4] yes=107,no=108,missing=108
						107:leaf=0.0347349
						108:leaf=0.015032
					54:[D_KEYWORD_MEAN_EC<653.705] yes=109,no=110,missing=110
						109:leaf=0.0409283
						110:leaf=-0.00439934
		6:[U_KEYWORD_MACRO_MEAN_COEC<0.031073] yes=13,no=14,missing=13
			13:[U_CATEGORY_MACRO_MAX_COEC<0.0127325] yes=27,no=28,missing=27
				27:[C_D_U_CATEGORY_CITY_MAX_C<400.966] yes=55,no=56,missing=56
					55:[U_CITY_COEC<0.156077] yes=111,no=112,missing=111
						111:leaf=-0.00822779
						112:leaf=0.0957757
					56:[C_D_U_TITLEMD5_GENDER_EC<299.265] yes=113,no=114,missing=113
						113:leaf=0.0167227
						114:leaf=-0.0108539
				28:[D_KEYWORD_MEAN_EC<1039.88] yes=57,no=58,missing=58
					57:[U_CATEGORY_MEAN_C<1693.93] yes=115,no=116,missing=116
						115:leaf=0.00570827
						116:leaf=0.0764268
					58:[D_TITLEMD5_EC<5253.97] yes=117,no=118,missing=118
						117:leaf=-0.0168224
						118:leaf=0.000231296
			14:[U_KEYWORD_MEAN_EC<622.552] yes=29,no=30,missing=30
				29:[D_TITLEMD5_COEC<0.05846] yes=59,no=60,missing=59
					59:[C_D_U_KEYWORD_CATEGORY_MICRO_MAX_COEC<0.104051] yes=119,no=120,missing=120
						119:leaf=0.0973997
						120:leaf=-0.125139
					60:[C_D_U_TITLEMD5_CATEGORY_MACRO_MEAN_COEC<0.0214772] yes=121,no=122,missing=122
						121:leaf=0.309971
						122:leaf=0.0689185
				30:[U_KEYWORD_MICRO_MAX_COEC<0.143494] yes=61,no=62,missing=62
					61:[U_CATEGORY_MEAN_C<1073.05] yes=123,no=124,missing=123
						123:leaf=0.106981
						124:leaf=-0.00151085
					62:[U_CITY_C<2159.35] yes=125,no=126,missing=125
						125:leaf=0.112762
						126:leaf=-0.00203339
booster[100]:
0:[U_KEYWORD_MACRO_MAX_COEC<0.00105061] yes=1,no=2,missing=2
	1:[U_CATEGORY_MEAN_C<634.309] yes=3,no=4,missing=4
		3:[U_KEYWORD_MEAN_EC<970.506] yes=7,no=8,missing=8
			7:[U_KEYWORD_MEAN_C<100.918] yes=15,no=16,missing=16
				15:[U_KEYWORD_MACRO_MAX_COEC<0.000962299] yes=31,no=32,missing=32
					31:[CAT_REL<0.013781] yes=63,no=64,missing=64
						63:leaf=-0.025467
						64:leaf=0.0254312
					32:[U_KEYWORD_MAX_EC<201.577] yes=65,no=66,missing=66
						65:leaf=-0.0481227
						66:leaf=-0.00111156
				16:[C_D_U_CATEGORY_CATEGORY_MICRO_MEAN_COEC<0.103546] yes=33,no=34,missing=34
					33:[C_D_U_TITLEMD5_CATEGORY_MAX_C<0.0253929] yes=67,no=68,missing=68
						67:leaf=-0.0795921
						68:leaf=0.1163
					34:[M_D_U_KEYWORD_KEYWORD_MACRO_MEAN_COEC<5.88054e-05] yes=69,no=70,missing=70
						69:leaf=-0.0530809
						70:leaf=-0.1703
			8:[U_KEYWORD_MAX_C<21.1001] yes=17,no=18,missing=18
				17:[U_KEYWORD_MICRO_MEAN_COEC<0.0980971] yes=35,no=36,missing=36
					35:[U_KEYWORD_MACRO_MEAN_COEC<0.0201977] yes=71,no=72,missing=72
						71:leaf=0.0378056
						72:leaf=-0.0365584
					36:[U_CATEGORY_MICRO_MEAN_COEC<0.0945092] yes=73,no=74,missing=74
						73:leaf=0.0428404
						74:leaf=0.00125145
				18:[U_CATEGORY_MICRO_MEAN_COEC<0.117155] yes=37,no=38,missing=38
					37:[U_CATEGORY_MICRO_MEAN_COEC<0.0864403] yes=75,no=76,missing=76
						75:leaf=0.0208665
						76:leaf=-0.0131535
					38:[U_GENDER_C<72199.9] yes=77,no=78,missing=78
						77:leaf=0.109244
						78:leaf=0.0151277
		4:[U_CATEGORY_MEAN_EC<6123.02] yes=9,no=10,missing=10
			9:[U_CATEGORY_MACRO_MEAN_COEC<0.0584114] yes=19,no=20,missing=20
				19:[U_CATEGORY_MACRO_MAX_COEC<0.0147478] yes=39,no=40,missing=40
					39:[D_KEYWORD_MACRO_MEAN_COEC<0.0702495] yes=79,no=80,missing=80
						79:leaf=0.147979
						80:leaf=0.116264
					40:[U_CITY_EC<91730] yes=81,no=82,missing=82
						81:leaf=-0.121647
						82:leaf=0.107387
				20:[D_CATEGORY_MAX_C<45508.4] yes=41,no=42,missing=41
					41:[C_D_U_CATEGORY_GENDER_MAX_C<5053.79] yes=83,no=84,missing=84
						83:leaf=-0.116292
						84:leaf=0.0508757
					42:[M_D_U_KEYWORD_KEYWORD_MACRO_MAX_COEC<0.000286685] yes=85,no=86,missing=85
						85:leaf=-0.295284
						86:leaf=-0.0321009
			10:[U_CITY_EC<20287.6] yes=21,no=22,missing=21
				21:[C_D_U_CATEGORY_CITY_MEAN_EC<291.05] yes=43,no=44,missing=43
					43:[U_CATEGORY_MACRO_MAX_COEC<0.0112566] yes=87,no=88,missing=88
						87:leaf=0.0560067
						88:leaf=0.00185935
					44:[U_AGE_C<75385.6] yes=89,no=90,missing=89
						89:leaf=-0.0133871
						90:leaf=-0.093181
				22:[U_KEYWORD_MACRO_MAX_COEC<0.000962299] yes=45,no=46,missing=46
					45:[U_CITY_COEC<0.0886038] yes=91,no=92,missing=92
						91:leaf=0.0416685
						92:leaf=0.12126
					46:[U_CATEGORY_MEAN_C<1118.92] yes=93,no=94,missing=94
						93:leaf=0.0145613
						94:leaf=0.0451368
	2:[KW_REL<0.00507594] yes=5,no=6,missing=6
		5:[D_KEYWORD_MEAN_EC<4834] yes=11,no=12,missing=11
			11:[M_D_U_KEYWORD_KEYWORD_MEAN_C<0.0238735] yes=23,no=24,missing=23
				23:[D_KEYWORD_MEAN_EC<2230] yes=47,no=48,missing=47
					47:[D_CATEGORY_MEAN_C<4706.66] yes=95,no=96,missing=96
						95:leaf=-0.00108795
						96:leaf=0.00278902
					48:[D_TITLEMD5_C<176.188] yes=97,no=98,missing=97
						97:leaf=-0.00467659
						98:leaf=5.44053e-05
				24:[U_KEYWORD_MACRO_MAX_COEC<0.00143796] yes=49,no=50,missing=50
					49:[U_CATEGORY_MICRO_MEAN_COEC<0.110123] yes=99,no=100,missing=100
						99:leaf=0.0127251
						100:leaf=0.0344208
					50:[CAT_REL<0.142799] yes=101,no=102,missing=102
						101:leaf=0.00217935
						102:leaf=0.0128927
			12:[C_D_U_CATEGORY_CATEGORY_MICRO_MEAN_COEC<0.0798393] yes=25,no=26,missing=25
				25:[C_D_U_TITLEMD5_CATEGORY_MAX_EC<0.395455] yes=51,no=52,missing=52
					51:[C_D_U_TITLEMD5_CATEGORY_MICRO_MEAN_COEC<0.0530697] yes=103,no=104,missing=104
						103:leaf=-0.00153788
						104:leaf=-0.0174639
					52:[KW_REL<0.00122011] yes=105,no=106,missing=106
						105:leaf=-0.00228875
						106:leaf=0.00423947
				26:[D_CATEGORY_MACRO_MEAN_COEC<0.0791584] yes=53,no=54,missing=54
					53:[M_D_U_KEYWORD_KEYWORD_MEAN_C<0.0209147] yes=107,no=108,missing=107
						107:leaf=-0.0262798
						108:leaf=-0.00854321
					54:[D_KEYWORD_MICRO_MEAN_COEC<0.0858192] yes=109,no=110,missing=110
						109:leaf=0.0066634
						110:leaf=-0.00574593
		6:[U_KEYWORD_MACRO_MEAN_COEC<0.0250428] yes=13,no=14,missing=14
			13:[D_KEYWORD_MEAN_C<830.68] yes=27,no=28,missing=28
				27:[DOC_AGE<10.9583] yes=55,no=56,missing=56
					55:[KW_REL<0.00723844] yes=111,no=112,missing=112
						111:leaf=0.0132163
						112:leaf=0.0336436
					56:[C_D_U_KEYWORD_CATEGORY_MICRO_MEAN_COEC<0.118929] yes=113,no=114,missing=114
						113:leaf=0.00760286
						114:leaf=-0.00815941
				28:[U_CATEGORY_MICRO_MEAN_COEC<0.104589] yes=57,no=58,missing=58
					57:[U_CATEGORY_MACRO_MEAN_COEC<0.0518469] yes=115,no=116,missing=116
						115:leaf=0.00311652
						116:leaf=-0.00890689
					58:[U_KEYWORD_MEAN_EC<1152.86] yes=117,no=118,missing=118
						117:leaf=0.0302353
						118:leaf=0.00383365
			14:[DOC_AGE<43.4169] yes=29,no=30,missing=30
				29:[D_KEYWORD_MACRO_MAX_COEC<0.0210098] yes=59,no=60,missing=60
					59:[U_KEYWORD_MEAN_C<163.465] yes=119,no=120,missing=120
						119:leaf=0.00842378
						120:leaf=-0.013881
					60:[U_KEYWORD_MICRO_MEAN_COEC<0.0993477] yes=121,no=122,missing=122
						121:leaf=-0.00946844
						122:leaf=0.000376848
				30:[C_D_U_TITLEMD5_CATEGORY_MICRO_MEAN_COEC<0.164663] yes=61,no=62,missing=62
					61:[C_D_U_TITLEMD5_AGE_C<8.81726] yes=123,no=124,missing=124
						123:leaf=0.0212777
						124:leaf=-0.0280226
					62:[M_D_U_KEYWORD_KEYWORD_MAX_C<0.00341368] yes=125,no=126,missing=125
						125:leaf=-0.15857
						126:leaf=-0.0559483
booster[101]:
0:[DOC_AGE<1.0075] yes=1,no=2,missing=2
	1:[D_PUBLISHER_C<4803.85] yes=3,no=4,missing=3
		3:[DAY_OF_WEEK<5] yes=7,no=8,missing=8
			7:[D_TITLEMD5_COEC<0.0335611] yes=15,no=16,missing=15
				15:[CAT_REL<0.064788] yes=31,no=32,missing=32
					31:[C_D_U_KEYWORD_CATEGORY_MACRO_MEAN_COEC<0.0347616] yes=63,no=64,missing=64
						63:leaf=-0.0201371
						64:leaf=-0.00573857
					32:[D_CATEGORY_MICRO_MEAN_COEC<0.0834624] yes=65,no=66,missing=66
						65:leaf=0.00740566
						66:leaf=-0.0118785
				16:[C_D_U_TITLEMD5_CATEGORY_MICRO_MEAN_COEC<0.108244] yes=33,no=34,missing=33
					33:[TIME_OF_DAY<7] yes=67,no=68,missing=68
						67:leaf=0.0178861
						68:leaf=0.00500441
					34:[C_D_U_KEYWORD_CATEGORY_MICRO_MEAN_COEC<0.0628528] yes=69,no=70,missing=70
						69:leaf=-0.0524339
						70:leaf=-0.00367656
			8:[D_KEYWORD_MACRO_MAX_COEC<0.02006] yes=17,no=18,missing=18
				17:[D_KEYWORD_MACRO_MEAN_COEC<0.0510532] yes=35,no=36,missing=36
					35:[U_KEYWORD_MICRO_MAX_COEC<0.114623] yes=71,no=72,missing=71
						71:leaf=-0.0132669
						72:leaf=0.0181076
					36:[D_TITLEMD5_C<4.68612] yes=73,no=74,missing=73
						73:leaf=0.00927032
						74:leaf=0.025385
				18:[U_GENDER_C<23261.2] yes=37,no=38,missing=38
					37:[U_KEYWORD_MACRO_MEAN_COEC<0.030034] yes=75,no=76,missing=75
						75:leaf=0.0174934
						76:leaf=0.0962287
					38:[U_CATEGORY_MICRO_MAX_COEC<0.0973851] yes=77,no=78,missing=77
						77:leaf=-0.0122511
						78:leaf=0.00389814
		4:[D_TITLEMD5_C<14.6672] yes=9,no=10,missing=10
			9:[CAT_REL<0.036684] yes=19,no=20,missing=20
				19:[D_PUBLISHER_C<13537.7] yes=39,no=40,missing=40
					39:[D_KEYWORD_MICRO_MEAN_COEC<0.0972158] yes=79,no=80,missing=80
						79:leaf=0.00208889
						80:leaf=-0.0196922
					40:[C_D_U_KEYWORD_CATEGORY_MAX_C<0.266178] yes=81,no=82,missing=81
						81:leaf=-0.0474419
						82:leaf=0.0169838
				20:[D_KEYWORD_MICRO_MAX_COEC<0.345118] yes=41,no=42,missing=42
					41:[WORD_COUNT<2076] yes=83,no=84,missing=84
						83:leaf=0.00594487
						84:leaf=0.021583
					42:[U_CATEGORY_MAX_C<550.024] yes=85,no=86,missing=86
						85:leaf=0.0810626
						86:leaf=-0.0374062
			10:[D_CATEGORY_MACRO_MAX_COEC<0.0608642] yes=21,no=22,missing=22
				21:[D_CATEGORY_MICRO_MEAN_COEC<0.0702425] yes=43,no=44,missing=44
					43:[D_CATEGORY_MAX_C<8857.57] yes=87,no=88,missing=88
						87:leaf=0.0435859
						88:leaf=0.147382
					44:[D_TITLEMD5_EC<867.3] yes=89,no=90,missing=90
						89:leaf=-0.0651843
						90:leaf=0.0523775
				22:[M_D_U_KEYWORD_KEYWORD_MAX_EC<0.270389] yes=45,no=46,missing=46
					45:[C_D_U_TITLEMD5_GENDER_EC<89.2713] yes=91,no=92,missing=91
						91:leaf=0.0238822
						92:leaf=0.0568332
					46:[D_KEYWORD_MAX_C<22.0662] yes=93,no=94,missing=94
						93:leaf=-0.0396191
						94:leaf=0.0110667
	2:[D_TITLEMD5_C<9.741] yes=5,no=6,missing=5
		5:[DOC_AGE<80.9775] yes=11,no=12,missing=12
			11:[C_D_U_CATEGORY_CATEGORY_MICRO_MAX_COEC<0.139] yes=23,no=24,missing=24
				23:[C_D_U_TITLEMD5_CITY_EC<8.85292] yes=47,no=48,missing=47
					47:[M_D_U_KEYWORD_KEYWORD_MAX_C<5.08566e-05] yes=95,no=96,missing=96
						95:leaf=0.00885033
						96:leaf=-0.0108704
					48:[U_CITY_EC<164635] yes=97,no=98,missing=98
						97:leaf=0.0220137
						98:leaf=0.000721159
				24:[D_CATEGORY_MICRO_MAX_COEC<0.114205] yes=49,no=50,missing=49
					49:[U_KEYWORD_MEAN_EC<1220.86] yes=99,no=100,missing=100
						99:leaf=0.0136349
						100:leaf=-0.00024764
					50:[U_KEYWORD_MEAN_EC<928.814] yes=101,no=102,missing=102
						101:leaf=0.00831712
						102:leaf=-0.010916
			12:[D_TITLEMD5_EC<2.9751] yes=25,no=26,missing=25
				25:[U_KEYWORD_MACRO_MEAN_COEC<0.0246609] yes=51,no=52,missing=52
					51:[C_D_U_CATEGORY_GENDER_MAX_C<1767.86] yes=103,no=104,missing=103
						103:leaf=-0.00846939
						104:leaf=0.050184
					52:[D_KEYWORD_MICRO_MAX_COEC<0.1195] yes=105,no=106,missing=106
						105:leaf=-0.00487114
						106:leaf=-0.0466797
				26:[C_D_U_TITLEMD5_CATEGORY_MICRO_MEAN_COEC<0.150243] yes=53,no=54,missing=53
					53:[D_PUBLISHER_COEC<0.0844145] yes=107,no=108,missing=108
						107:leaf=0.0135061
						108:leaf=0.0426098
					54:[U_CATEGORY_MEAN_EC<4435.64] yes=109,no=110,missing=110
						109:leaf=-0.115822
						110:leaf=-0.00752169
		6:[U_KEYWORD_MACRO_MEAN_COEC<0.0163166] yes=13,no=14,missing=14
			13:[U_KEYWORD_MEAN_C<73.8964] yes=27,no=28,missing=28
				27:[U_KEYWORD_MEAN_C<7.06898] yes=55,no=56,missing=56
					55:[CAT_REL<0.073919] yes=111,no=112,missing=112
						111:leaf=0.00057121
						112:leaf=-0.124489
					56:[C_D_U_TITLEMD5_CATEGORY_MACRO_MAX_COEC<0.0294566] yes=113,no=114,missing=114
						113:leaf=-0.0804425
						114:leaf=-0.15886
				28:[C_D_U_KEYWORD_CATEGORY_MACRO_MEAN_COEC<0.0271148] yes=57,no=58,missing=58
					57:[C_D_U_PUBLISHER_AGE_EC<32949.1] yes=115,no=116,missing=115
						115:leaf=-0.139572
						116:leaf=0.142811
					58:[C_D_U_CATEGORY_AGE_MAX_EC<10398.5] yes=117,no=118,missing=117
						117:leaf=0.0936378
						118:leaf=0.00722249
			14:[U_KEYWORD_MICRO_MEAN_COEC<0.103572] yes=29,no=30,missing=29
				29:[DAY_OF_WEEK<3] yes=59,no=60,missing=60
					59:[D_CATEGORY_MEAN_EC<40361.9] yes=119,no=120,missing=119
						119:leaf=0.00402745
						120:leaf=8.24837e-05
					60:[D_CATEGORY_MEAN_C<4734.23] yes=121,no=122,missing=122
						121:leaf=-0.00401231
						122:leaf=-0.000109063
				30:[KW_REL<0.00102013] yes=61,no=62,missing=62
					61:[C_D_U_KEYWORD_CATEGORY_MAX_C<0.0468945] yes=123,no=124,missing=123
						123:leaf=0.0115488
						124:leaf=-0.00636971
					62:[C_D_U_KEYWORD_CATEGORY_MAX_C<0.195597] yes=125,no=126,missing=126
						125:leaf=0.0128123
						126:leaf=0.00425321
booster[102]:
0:[D_KEYWORD_MEAN_C<138.262] yes=1,no=2,missing=1
	1:[KW_REL<0.00044383] yes=3,no=4,missing=4
		3:[D_KEYWORD_MACRO_MEAN_COEC<0.0453517] yes=7,no=8,missing=8
			7:[D_KEYWORD_MEAN_EC<19.0248] yes=15,no=16,missing=16
				15:[D_PUBLISHER_COEC<0.0966561] yes=31,no=32,missing=32
					31:[C_D_U_TITLEMD5_CATEGORY_MAX_EC<0.187341] yes=63,no=64,missing=63
						63:leaf=-0.0567845
						64:leaf=0.180887
					32:[U_CATEGORY_MAX_C<942] yes=65,no=66,missing=66
						65:leaf=0.168989
						66:leaf=0.0425243
				16:[D_PUBLISHER_EC<19712.1] yes=33,no=34,missing=33
					33:[U_CATEGORY_MICRO_MAX_COEC<0.110086] yes=67,no=68,missing=67
						67:leaf=-0.0325121
						68:leaf=-0.00559647
					34:[C_D_U_CATEGORY_CATEGORY_MAX_C<3.1865] yes=69,no=70,missing=70
						69:leaf=-0.0364495
						70:leaf=-0.00210612
			8:[U_KEYWORD_MICRO_MAX_COEC<0.114688] yes=17,no=18,missing=18
				17:[D_KEYWORD_MAX_C<19.5048] yes=35,no=36,missing=35
					35:[D_CATEGORY_MEAN_C<14709.3] yes=71,no=72,missing=72
						71:leaf=-0.000943015
						72:leaf=0.0164452
					36:[D_TITLEMD5_C<108.116] yes=73,no=74,missing=73
						73:leaf=-0.00972865
						74:leaf=0.000558547
				18:[U_CITY_COEC<0.183483] yes=37,no=38,missing=38
					37:[D_KEYWORD_MICRO_MEAN_COEC<0.125976] yes=75,no=76,missing=75
						75:leaf=-0.00129493
						76:leaf=0.0149721
					38:[C_D_U_PUBLISHER_GENDER_EC<158.86] yes=77,no=78,missing=77
						77:leaf=0.0135956
						78:leaf=-0.0152849
		4:[U_KEYWORD_MACRO_MAX_COEC<0.00114277] yes=9,no=10,missing=10
			9:[C_D_U_CATEGORY_CATEGORY_MICRO_MAX_COEC<0.0692999] yes=19,no=20,missing=20
				19:[U_CATEGORY_MAX_EC<3551.35] yes=39,no=40,missing=40
					39:[U_CATEGORY_MEAN_C<634.125] yes=79,no=80,missing=80
						79:leaf=-0.0278581
						80:leaf=0.0363204
					40:[C_D_U_KEYWORD_CATEGORY_MAX_C<0.195313] yes=81,no=82,missing=82
						81:leaf=-0.0861094
						82:leaf=0.108818
				20:[U_KEYWORD_MACRO_MEAN_COEC<0.0216407] yes=41,no=42,missing=42
					41:[U_AGE_COEC<0.0956309] yes=83,no=84,missing=83
						83:leaf=0.0124164
						84:leaf=0.0264498
					42:[U_KEYWORD_MEAN_C<116.291] yes=85,no=86,missing=86
						85:leaf=0.0395655
						86:leaf=-0.0310294
			10:[M_D_U_KEYWORD_KEYWORD_MICRO_MEAN_COEC<0.0962238] yes=21,no=22,missing=21
				21:[D_KEYWORD_MAX_C<19.5048] yes=43,no=44,missing=44
					43:[C_D_U_CATEGORY_CATEGORY_MAX_C<0.300372] yes=87,no=88,missing=88
						87:leaf=0.0404527
						88:leaf=0.0124004
					44:[C_D_U_TITLEMD5_CATEGORY_MICRO_MEAN_COEC<0.153159] yes=89,no=90,missing=90
						89:leaf=0.00639863
						90:leaf=-0.00231955
				22:[KW_REL<0.00426899] yes=45,no=46,missing=46
					45:[D_CATEGORY_MAX_EC<190737] yes=91,no=92,missing=92
						91:leaf=-0.00320449
						92:leaf=0.00701666
					46:[D_KEYWORD_MACRO_MEAN_COEC<0.0797916] yes=93,no=94,missing=94
						93:leaf=0.0216467
						94:leaf=-0.00343569
	2:[C_D_U_TITLEMD5_CATEGORY_MEAN_EC<3.97699] yes=5,no=6,missing=6
		5:[KW_REL<0.00346295] yes=11,no=12,missing=12
			11:[M_D_U_KEYWORD_KEYWORD_MICRO_MEAN_COEC<0.106832] yes=23,no=24,missing=24
				23:[D_KEYWORD_MEAN_C<770.244] yes=47,no=48,missing=48
					47:[D_KEYWORD_MACRO_MEAN_COEC<0.0669431] yes=95,no=96,missing=96
						95:leaf=-0.00506698
						96:leaf=0.00346385
					48:[IMAGE_COUNT<3] yes=97,no=98,missing=98
						97:leaf=-0.0295623
						98:leaf=0.0402505
				24:[U_KEYWORD_MACRO_MEAN_COEC<0.0298294] yes=49,no=50,missing=50
					49:[D_TITLEMD5_COEC<0.0779214] yes=99,no=100,missing=99
						99:leaf=-0.013299
						100:leaf=-0.00553581
					50:[U_AGE_C<85885.4] yes=101,no=102,missing=102
						101:leaf=0.018014
						102:leaf=-0.00294616
			12:[C_D_U_KEYWORD_CATEGORY_MEAN_EC<18.2536] yes=25,no=26,missing=26
				25:[D_KEYWORD_MACRO_MAX_COEC<0.0144495] yes=51,no=52,missing=52
					51:[C_D_U_CATEGORY_CITY_MICRO_MEAN_COEC<0.108176] yes=103,no=104,missing=103
						103:leaf=0.0195628
						104:leaf=0.0623875
					52:[C_D_U_TITLEMD5_AGE_COEC<0.0638098] yes=105,no=106,missing=106
						105:leaf=-0.00796053
						106:leaf=0.00810278
				26:[D_KEYWORD_MACRO_MAX_COEC<0.0224198] yes=53,no=54,missing=54
					53:[CAT_REL<0.082369] yes=107,no=108,missing=108
						107:leaf=-0.00298569
						108:leaf=0.00862952
					54:[D_PUBLISHER_COEC<0.0758569] yes=109,no=110,missing=109
						109:leaf=-0.0131849
						110:leaf=0.000277922
		6:[DOC_AGE<5.37833] yes=13,no=14,missing=14
			13:[WORD_COUNT<4895] yes=27,no=28,missing=28
				27:[C_D_U_TITLEMD5_CATEGORY_MACRO_MEAN_COEC<0.0160021] yes=55,no=56,missing=56
					55:[D_KEYWORD_MACRO_MAX_COEC<0.038951] yes=111,no=112,missing=112
						111:leaf=-0.0142857
						112:leaf=-0.113317
					56:[U_CATEGORY_MACRO_MEAN_COEC<0.0734548] yes=113,no=114,missing=114
						113:leaf=0.00635692
						114:leaf=0.00154231
				28:[KW_REL<0.00597778] yes=57,no=58,missing=58
					57:[D_KEYWORD_MACRO_MEAN_COEC<0.0824131] yes=115,no=116,missing=116
						115:leaf=-0.0110435
						116:leaf=0.0046366
					58:[U_CATEGORY_MICRO_MAX_COEC<0.10238] yes=117,no=118,missing=117
						117:leaf=0.00107063
						118:leaf=0.0336441
			14:[TIME_OF_DAY<8] yes=29,no=30,missing=30
				29:[C_D_U_CATEGORY_CATEGORY_MICRO_MEAN_COEC<0.0967649] yes=59,no=60,missing=60
					59:[IMAGE_COUNT<0.999999] yes=119,no=120,missing=120
						119:leaf=0.0619002
						120:leaf=0.00496492
					60:[D_TITLEMD5_C<965.141] yes=121,no=122,missing=122
						121:leaf=-0.00186518
						122:leaf=0.00356483
				30:[C_D_U_TITLEMD5_CATEGORY_MACRO_MEAN_COEC<0.0625606] yes=61,no=62,missing=62
					61:[DOC_AGE<23.8656] yes=123,no=124,missing=124
						123:leaf=-0.00720135
						124:leaf=0.00436637
					62:[TIME_OF_DAY<18] yes=125,no=126,missing=126
						125:leaf=-0.00160142
						126:leaf=0.00337542
booster[103]:
0:[TIME_OF_DAY<3] yes=1,no=2,missing=2
	1:[C_D_U_TITLEMD5_CATEGORY_MICRO_MEAN_COEC<0.100614] yes=3,no=4,missing=3
		3:[U_CATEGORY_MACRO_MEAN_COEC<0.0453758] yes=7,no=8,missing=8
			7:[U_KEYWORD_MEAN_EC<1673.17] yes=15,no=16,missing=16
				15:[U_AGE_EC<835658] yes=31,no=32,missing=31
					31:[C_D_U_TITLEMD5_CATEGORY_MICRO_MEAN_COEC<0.0772015] yes=63,no=64,missing=64
						63:leaf=0.0245639
						64:leaf=0.00574564
					32:[D_KEYWORD_MACRO_MAX_COEC<0.020605] yes=65,no=66,missing=66
						65:leaf=-0.0206019
						66:leaf=-0.124136
				16:[TIME_OF_DAY<2] yes=33,no=34,missing=34
					33:[C_D_U_KEYWORD_CATEGORY_MACRO_MAX_COEC<0.00536817] yes=67,no=68,missing=68
						67:leaf=-0.126586
						68:leaf=-0.0284208
					34:leaf=0.0899391
			8:[U_KEYWORD_MICRO_MEAN_COEC<0.0993145] yes=17,no=18,missing=18
				17:[DAY_OF_WEEK<3] yes=35,no=36,missing=36
					35:[U_CATEGORY_MEAN_C<678.458] yes=69,no=70,missing=70
						69:leaf=-0.0252236
						70:leaf=0.0101296
					36:[U_KEYWORD_MAX_C<21.2138] yes=71,no=72,missing=72
						71:leaf=0.00240501
						72:leaf=-0.0303406
				18:[U_CATEGORY_MAX_C<1022.06] yes=37,no=38,missing=37
					37:[C_D_U_CATEGORY_AGE_MEAN_C<6295.13] yes=73,no=74,missing=73
						73:leaf=0.00590231
						74:leaf=0.0237331
					38:[C_D_U_CATEGORY_AGE_MICRO_MEAN_COEC<0.0948394] yes=75,no=76,missing=76
						75:leaf=0.0754146
						76:leaf=0.0227892
		4:[C_D_U_TITLEMD5_CATEGORY_MEAN_C<2.14684] yes=9,no=10,missing=10
			9:[KW_REL<0.00196114] yes=19,no=20,missing=20
				19:[DOC_AGE<2.885] yes=39,no=40,missing=40
					39:[D_KEYWORD_MEAN_EC<4231.56] yes=77,no=78,missing=78
						77:leaf=0.017594
						78:leaf=-0.0806636
					40:[U_CATEGORY_MAX_C<229.099] yes=79,no=80,missing=80
						79:leaf=-0.0183022
						80:leaf=-0.0049299
				20:[C_D_U_CATEGORY_CITY_MEAN_EC<21881.1] yes=41,no=42,missing=41
					41:[C_D_U_KEYWORD_CATEGORY_MEAN_EC<18.061] yes=81,no=82,missing=82
						81:leaf=0.00409786
						82:leaf=-0.00528911
					42:[U_KEYWORD_MAX_EC<511.864] yes=83,no=84,missing=84
						83:leaf=0.0145714
						84:leaf=-0.107557
			10:[U_KEYWORD_MAX_EC<463.413] yes=21,no=22,missing=22
				21:[U_KEYWORD_MICRO_MEAN_COEC<0.0941561] yes=43,no=44,missing=44
					43:[C_D_U_TITLEMD5_CATEGORY_MICRO_MAX_COEC<0.13984] yes=85,no=86,missing=86
						85:leaf=0.0322338
						86:leaf=-0.0055018
					44:[DAY_OF_WEEK<2] yes=87,no=88,missing=88
						87:leaf=0.0182687
						88:leaf=0.006331
				22:[U_AGE_1<0.999999] yes=45,no=46,missing=46
					45:[U_CITY_C<34270.2] yes=89,no=90,missing=89
						89:leaf=-0.00111335
						90:leaf=-0.0492665
					46:[C_D_U_TITLEMD5_CATEGORY_MICRO_MAX_COEC<0.13984] yes=91,no=92,missing=92
						91:leaf=-0.0455298
						92:leaf=-0.258987
	2:[D_CATEGORY_MICRO_MAX_COEC<0.0617528] yes=5,no=6,missing=5
		5:[D_CATEGORY_MACRO_MAX_COEC<0.0456756] yes=11,no=12,missing=12
			11:[C_D_U_KEYWORD_CATEGORY_MAX_C<0.0494691] yes=23,no=24,missing=24
				23:[C_D_U_CATEGORY_AGE_MAX_EC<24201.3] yes=47,no=48,missing=47
					47:[U_CITY_COEC<0.0955731] yes=93,no=94,missing=93
						93:leaf=0.000953728
						94:leaf=0.0483848
					48:[C_D_U_CATEGORY_CATEGORY_MACRO_MAX_COEC<0.00668168] yes=95,no=96,missing=96
						95:leaf=0.116375
						96:leaf=-0.1209
				24:[D_KEYWORD_MEAN_EC<2351.6] yes=49,no=50,missing=50
					49:[U_AGE_C<87323.6] yes=97,no=98,missing=97
						97:leaf=-0.0205823
						98:leaf=0.0435513
					50:[D_KEYWORD_MAX_EC<1104.99] yes=99,no=100,missing=100
						99:leaf=0.0156118
						100:leaf=-0.00794999
			12:[D_KEYWORD_MACRO_MEAN_COEC<0.0452946] yes=25,no=26,missing=26
				25:[CAT_REL<0.13791] yes=51,no=52,missing=52
					51:[C_D_U_CATEGORY_CATEGORY_MACRO_MAX_COEC<0.0362411] yes=101,no=102,missing=101
						101:leaf=-0.0243852
						102:leaf=0.20449
					52:[U_CITY_C<33904.3] yes=103,no=104,missing=103
						103:leaf=0.0547376
						104:leaf=-0.114992
				26:[D_KEYWORD_MICRO_MEAN_COEC<0.0775119] yes=53,no=54,missing=54
					53:[U_KEYWORD_MICRO_MAX_COEC<0.111287] yes=105,no=106,missing=105
						105:leaf=0.00574005
						106:leaf=0.015147
					54:[D_TITLEMD5_C<1858.88] yes=107,no=108,missing=108
						107:leaf=0.00379036
						108:leaf=-0.0255209
		6:[C_D_U_CATEGORY_GENDER_MAX_EC<3542.21] yes=13,no=14,missing=14
			13:[C_D_U_TITLEMD5_GENDER_COEC<0.0646622] yes=27,no=28,missing=27
				27:[C_D_U_CATEGORY_CATEGORY_MACRO_MAX_COEC<0.0114967] yes=55,no=56,missing=55
					55:[U_CATEGORY_MACRO_MAX_COEC<0.0367886] yes=109,no=110,missing=109
						109:leaf=-0.0135891
						110:leaf=0.216346
					56:[C_D_U_CATEGORY_CATEGORY_MAX_C<28.3479] yes=111,no=112,missing=112
						111:leaf=0.0021622
						112:leaf=0.035335
				28:[U_KEYWORD_MAX_EC<225.178] yes=57,no=58,missing=58
					57:[D_CATEGORY_MAX_EC<39423] yes=113,no=114,missing=114
						113:leaf=0.014426
						114:leaf=-0.0428465
					58:[D_KEYWORD_MAX_EC<328.293] yes=115,no=116,missing=116
						115:leaf=0.0152725
						116:leaf=0.00313118
			14:[C_D_U_PUBLISHER_CITY_COEC<0.138032] yes=29,no=30,missing=29
				29:[M_D_U_KEYWORD_KEYWORD_MICRO_MEAN_COEC<0.260511] yes=59,no=60,missing=59
					59:[C_D_U_CATEGORY_CATEGORY_MICRO_MAX_COEC<0.20707] yes=117,no=118,missing=117
						117:leaf=-0.00169277
						118:leaf=0.00752681
					60:[D_KEYWORD_MACRO_MEAN_COEC<0.116692] yes=119,no=120,missing=120
						119:leaf=0.0227598
						120:leaf=-0.0111531
				30:[D_PUBLISHER_COEC<0.135496] yes=61,no=62,missing=62
					61:[C_D_U_PUBLISHER_CITY_C<17.7416] yes=121,no=122,missing=122
						121:leaf=0.0029303
						122:leaf=0.0107044
					62:[C_D_U_KEYWORD_CATEGORY_MICRO_MAX_COEC<0.353848] yes=123,no=124,missing=123
						123:leaf=-0.000924374
						124:leaf=0.00845851
booster[104]:
0:[U_KEYWORD_MICRO_MAX_COEC<0.24434] yes=1,no=2,missing=1
	1:[C_D_U_TITLEMD5_CITY_C<10.5593] yes=3,no=4,missing=3
		3:[C_D_U_CATEGORY_CITY_MACRO_MAX_COEC<0.131794] yes=7,no=8,missing=7
			7:[DOC_AGE<0.999999] yes=15,no=16,missing=16
				15:[D_TITLEMD5_C<2] yes=31,no=32,missing=31
					31:[DOC_AGE<0.26861] yes=61,no=62,missing=62
						61:leaf=0.00694028
						62:leaf=-0.00623872
					32:[D_KEYWORD_MEAN_C<912.639] yes=63,no=64,missing=64
						63:leaf=0.00774264
						64:leaf=-0.0142443
				16:[C_D_U_TITLEMD5_AGE_COEC<0.0243202] yes=33,no=34,missing=34
					33:[C_D_U_TITLEMD5_CITY_COEC<0.176136] yes=65,no=66,missing=66
						65:leaf=-0.00342451
						66:leaf=-0.0176159
					34:[D_KEYWORD_MEAN_EC<1915.02] yes=67,no=68,missing=67
						67:leaf=0.000526357
						68:leaf=-0.00252592
			8:[C_D_U_TITLEMD5_CATEGORY_MICRO_MEAN_COEC<0.102477] yes=17,no=18,missing=18
				17:[U_AGE_C<80291.4] yes=35,no=36,missing=36
					35:[U_CATEGORY_MEAN_C<200.862] yes=69,no=70,missing=70
						69:leaf=0.0979503
						70:leaf=0.0210582
					36:[U_KEYWORD_MICRO_MEAN_COEC<0.1035] yes=71,no=72,missing=72
						71:leaf=0.00598256
						72:leaf=0.0216433
				18:[D_TITLEMD5_COEC<0.06876] yes=37,no=38,missing=37
					37:[D_CATEGORY_MEAN_C<4973.08] yes=73,no=74,missing=74
						73:leaf=-0.0254309
						74:leaf=-0.0037713
					38:[C_D_U_CATEGORY_CITY_MAX_C<121.363] yes=75,no=76,missing=76
						75:leaf=0.00581734
						76:leaf=-0.0008805
		4:[C_D_U_TITLEMD5_CITY_COEC<0.343406] yes=9,no=10,missing=10
			9:[KW_REL<0.00188171] yes=19,no=20,missing=20
				19:[U_KEYWORD_MACRO_MEAN_COEC<0.0284894] yes=39,no=40,missing=39
					39:[U_CATEGORY_MACRO_MEAN_COEC<0.0618655] yes=77,no=78,missing=77
						77:leaf=0.000427142
						78:leaf=-0.00778453
					40:[U_KEYWORD_MAX_EC<359.499] yes=79,no=80,missing=80
						79:leaf=0.00794569
						80:leaf=0.00021992
				20:[DOC_AGE<12.325] yes=41,no=42,missing=42
					41:[C_D_U_TITLEMD5_CITY_COEC<0.200743] yes=81,no=82,missing=82
						81:leaf=0.00577267
						82:leaf=0.0192472
					42:[C_D_U_KEYWORD_CATEGORY_MICRO_MEAN_COEC<0.0812898] yes=83,no=84,missing=83
						83:leaf=0.00906789
						84:leaf=-0.000462477
			10:[D_TITLEMD5_COEC<0.141038] yes=21,no=22,missing=22
				21:[D_PUBLISHER_C<4285.76] yes=43,no=44,missing=44
					43:[C_D_U_TITLEMD5_CATEGORY_MICRO_MEAN_COEC<0.0921938] yes=85,no=86,missing=85
						85:leaf=0.142063
						86:leaf=0.0857149
					44:[C_D_U_TITLEMD5_CATEGORY_MACRO_MEAN_COEC<0.0627117] yes=87,no=88,missing=88
						87:leaf=0.0199927
						88:leaf=-0.212756
				22:[C_D_U_TITLEMD5_AGE_C<8.85254] yes=45,no=46,missing=46
					45:[C_D_U_PUBLISHER_GENDER_EC<8454.94] yes=89,no=90,missing=90
						89:leaf=-0.359962
						90:leaf=-0.0254692
					46:[M_D_U_KEYWORD_KEYWORD_MAX_EC<0.0323319] yes=91,no=92,missing=92
						91:leaf=-0.00892791
						92:leaf=0.0198372
	2:[U_CATEGORY_MICRO_MEAN_COEC<0.102431] yes=5,no=6,missing=5
		5:[C_D_U_CATEGORY_CATEGORY_MEAN_C<316.122] yes=11,no=12,missing=12
			11:[U_KEYWORD_MICRO_MEAN_COEC<0.0920194] yes=23,no=24,missing=24
				23:[U_KEYWORD_MACRO_MEAN_COEC<0.0390493] yes=47,no=48,missing=48
					47:[U_AGE_COEC<0.0954237] yes=93,no=94,missing=93
						93:leaf=-0.0145141
						94:leaf=-0.0930736
					48:[U_AGE_COEC<0.0926853] yes=95,no=96,missing=96
						95:leaf=-0.12867
						96:leaf=0.0197204
				24:[U_CATEGORY_MICRO_MEAN_COEC<0.0997657] yes=49,no=50,missing=50
					49:[C_D_U_TITLEMD5_CITY_EC<6.90643] yes=97,no=98,missing=97
						97:leaf=0.0355381
						98:leaf=0.0150546
					50:[U_KEYWORD_MAX_EC<284.053] yes=99,no=100,missing=100
						99:leaf=-0.0941473
						100:leaf=0.0203907
			12:[U_GENDER_EC<832603] yes=25,no=26,missing=25
				25:[C_D_U_TITLEMD5_CATEGORY_MACRO_MAX_COEC<0.127659] yes=51,no=52,missing=51
					51:[U_CATEGORY_MICRO_MEAN_COEC<0.0703581] yes=101,no=102,missing=102
						101:leaf=0.0820325
						102:leaf=-9.60172e-05
					52:[D_KEYWORD_MACRO_MEAN_COEC<0.109074] yes=103,no=104,missing=104
						103:leaf=-0.146326
						104:leaf=-0.015969
				26:[C_D_U_TITLEMD5_GENDER_EC<8.7977] yes=53,no=54,missing=54
					53:[DAY_OF_WEEK<5] yes=105,no=106,missing=106
						105:leaf=-0.0990824
						106:leaf=0.142825
					54:[C_D_U_TITLEMD5_GENDER_C<38.4556] yes=107,no=108,missing=107
						107:leaf=-0.174282
						108:leaf=-0.0658251
		6:[D_TITLEMD5_COEC<0.0717302] yes=13,no=14,missing=13
			13:[C_D_U_KEYWORD_CATEGORY_MAX_EC<0.738809] yes=27,no=28,missing=28
				27:[C_D_U_TITLEMD5_AGE_COEC<0.0871929] yes=55,no=56,missing=55
					55:[C_D_U_KEYWORD_CATEGORY_MACRO_MAX_COEC<0.00177826] yes=109,no=110,missing=110
						109:leaf=-0.0848526
						110:leaf=-0.156469
					56:leaf=0.162239
				28:[U_CITY_COEC<0.0932048] yes=57,no=58,missing=57
					57:[C_D_U_TITLEMD5_CATEGORY_MICRO_MEAN_COEC<0.0378892] yes=111,no=112,missing=112
						111:leaf=0.251331
						112:leaf=0.11839
					58:[C_D_U_TITLEMD5_CITY_EC<42.4112] yes=113,no=114,missing=113
						113:leaf=-0.147763
						114:leaf=0.0626411
			14:[C_D_U_CATEGORY_CATEGORY_MICRO_MAX_COEC<0.0897177] yes=29,no=30,missing=30
				29:leaf=-0.195708
				30:[U_CATEGORY_MICRO_MAX_COEC<0.113668] yes=59,no=60,missing=60
					59:[C_D_U_CATEGORY_CATEGORY_MACRO_MEAN_COEC<0.0577369] yes=115,no=116,missing=116
						115:leaf=0.0144647
						116:leaf=-0.209473
					60:[TIME_OF_DAY<21] yes=117,no=118,missing=118
						117:leaf=0.0603156
						118:leaf=-0.222068
booster[105]:
0:[U_CATEGORY_MACRO_MEAN_COEC<0.0266399] yes=1,no=2,missing=2
	1:[U_KEYWORD_MEAN_EC<1120.16] yes=3,no=4,missing=4
		3:[U_CITY_EC<3120.06] yes=7,no=8,missing=8
			7:[DOC_AGE<27.0911] yes=15,no=16,missing=16
				15:[C_D_U_PUBLISHER_GENDER_COEC<0.166622] yes=31,no=32,missing=32
					31:[C_D_U_CATEGORY_CITY_MICRO_MAX_COEC<0.101435] yes=61,no=62,missing=61
						61:leaf=0.137976
						62:leaf=0.114974
					32:[C_D_U_PUBLISHER_CITY_COEC<0.139759] yes=63,no=64,missing=64
						63:leaf=-0.0289346
						64:leaf=0.0867333
				16:leaf=-0.143148
			8:[U_GENDER_COEC<0.0878702] yes=17,no=18,missing=18
				17:[C_D_U_TITLEMD5_CATEGORY_MICRO_MEAN_COEC<0.0181115] yes=33,no=34,missing=34
					33:leaf=-0.0483021
					34:[C_D_U_TITLEMD5_CATEGORY_MICRO_MEAN_COEC<0.0493475] yes=65,no=66,missing=66
						65:leaf=0.260129
						66:leaf=0.108347
				18:[C_D_U_TITLEMD5_CITY_C<0.508294] yes=35,no=36,missing=36
					35:[C_D_U_CATEGORY_CATEGORY_MAX_C<13.5399] yes=67,no=68,missing=67
						67:leaf=0.0810702
						68:leaf=-0.0397632
					36:[U_KEYWORD_MACRO_MEAN_COEC<0.0216647] yes=69,no=70,missing=70
						69:leaf=0.0224697
						70:leaf=0.113523
		4:[U_CATEGORY_MICRO_MAX_COEC<0.100617] yes=9,no=10,missing=10
			9:[U_GENDER_C<20732.4] yes=19,no=20,missing=20
				19:[C_D_U_CATEGORY_CATEGORY_MAX_EC<82.1105] yes=37,no=38,missing=38
					37:[D_KEYWORD_MACRO_MAX_COEC<0.0470853] yes=71,no=72,missing=72
						71:leaf=-0.0598552
						72:leaf=0.0881853
					38:[KW_REL<0.000619406] yes=73,no=74,missing=74
						73:leaf=-0.0480351
						74:leaf=-0.197114
				20:[CAT_REL<0.009621] yes=39,no=40,missing=40
					39:[C_D_U_CATEGORY_CITY_MICRO_MEAN_COEC<0.0662822] yes=75,no=76,missing=75
						75:leaf=0.0665096
						76:leaf=-0.00675505
					40:[C_D_U_CATEGORY_GENDER_MEAN_EC<26529] yes=77,no=78,missing=77
						77:leaf=0.0772261
						78:leaf=-0.036662
			10:[U_CITY_COEC<0.0815426] yes=21,no=22,missing=22
				21:[DAY_OF_WEEK<3] yes=41,no=42,missing=42
					41:[C_D_U_TITLEMD5_CATEGORY_MICRO_MEAN_COEC<0.230084] yes=79,no=80,missing=80
						79:leaf=-0.111512
						80:leaf=0.0610589
					42:[C_D_U_CATEGORY_CATEGORY_MEAN_EC<127.475] yes=81,no=82,missing=82
						81:leaf=0.0403206
						82:leaf=0.145259
				22:[U_CITY_COEC<0.0873639] yes=43,no=44,missing=43
					43:[U_KEYWORD_MEAN_EC<1362.36] yes=83,no=84,missing=84
						83:leaf=0.0588919
						84:leaf=-0.118557
					44:[U_CATEGORY_MEAN_EC<3390.22] yes=85,no=86,missing=86
						85:leaf=-0.0332482
						86:leaf=0.0306958
	2:[TIME_OF_DAY<20] yes=5,no=6,missing=6
		5:[D_CATEGORY_MAX_C<46815.3] yes=11,no=12,missing=11
			11:[D_CATEGORY_MAX_EC<207189] yes=23,no=24,missing=24
				23:[D_KEYWORD_MACRO_MEAN_COEC<0.0837989] yes=45,no=46,missing=46
					45:[CAT_REL<0.0784907] yes=87,no=88,missing=88
						87:leaf=-0.00387854
						88:leaf=0.0012049
					46:[D_TITLEMD5_COEC<0.067059] yes=89,no=90,missing=89
						89:leaf=-0.010741
						90:leaf=0.00200597
				24:[U_KEYWORD_MICRO_MEAN_COEC<0.101924] yes=47,no=48,missing=47
					47:[D_KEYWORD_MEAN_EC<6590.27] yes=91,no=92,missing=91
						91:leaf=0.00229999
						92:leaf=-0.00718021
					48:[U_KEYWORD_MACRO_MAX_COEC<0.00130957] yes=93,no=94,missing=94
						93:leaf=0.0154641
						94:leaf=0.00620711
			12:[D_TITLEMD5_COEC<0.111482] yes=25,no=26,missing=25
				25:[D_TITLEMD5_EC<6000.11] yes=49,no=50,missing=49
					49:[KW_REL<0.00724051] yes=95,no=96,missing=96
						95:leaf=-0.00976557
						96:leaf=0.0119324
					50:[C_D_U_KEYWORD_CATEGORY_MAX_C<0.245346] yes=97,no=98,missing=97
						97:leaf=0.0294935
						98:leaf=0.0032322
				26:[U_CATEGORY_MEAN_C<553.66] yes=51,no=52,missing=52
					51:[C_D_U_CATEGORY_CATEGORY_MACRO_MAX_COEC<0.015203] yes=99,no=100,missing=100
						99:leaf=-0.0192208
						100:leaf=-0.00389424
					52:[DAY_OF_WEEK<0.999999] yes=101,no=102,missing=102
						101:leaf=0.00499139
						102:leaf=-0.00149349
		6:[DOC_AGE<11.7714] yes=13,no=14,missing=14
			13:[C_D_U_PUBLISHER_CITY_C<355.892] yes=27,no=28,missing=28
				27:[KW_REL<0.00125846] yes=53,no=54,missing=54
					53:[C_D_U_TITLEMD5_AGE_EC<17.4556] yes=103,no=104,missing=104
						103:leaf=0.0329305
						104:leaf=-0.00265872
					54:[U_KEYWORD_MACRO_MAX_COEC<0.00600402] yes=105,no=106,missing=106
						105:leaf=0.012474
						106:leaf=-0.0537399
				28:[D_CATEGORY_MEAN_EC<224375] yes=55,no=56,missing=56
					55:[U_KEYWORD_MAX_C<33.4852] yes=107,no=108,missing=107
						107:leaf=0.0167534
						108:leaf=-0.00387598
					56:[C_D_U_CATEGORY_CITY_MEAN_C<1367.76] yes=109,no=110,missing=109
						109:leaf=0.0349201
						110:leaf=0.00906815
			14:[U_KEYWORD_MICRO_MAX_COEC<0.142971] yes=29,no=30,missing=29
				29:[U_CITY_COEC<0.183483] yes=57,no=58,missing=57
					57:[U_KEYWORD_MACRO_MEAN_COEC<0.0174509] yes=111,no=112,missing=112
						111:leaf=-0.129296
						112:leaf=-0.00069323
					58:[U_GENDER_C<72504.5] yes=113,no=114,missing=113
						113:leaf=0.113205
						114:leaf=-0.0700446
				30:[U_CITY_EC<403257] yes=59,no=60,missing=60
					59:[U_CATEGORY_MEAN_EC<7594.67] yes=115,no=116,missing=116
						115:leaf=0.137869
						116:leaf=-0.00375382
					60:[U_KEYWORD_MEAN_EC<530.268] yes=117,no=118,missing=118
						117:leaf=-0.0196673
						118:leaf=0.0951253
booster[106]:
0:[C_D_U_TITLEMD5_CATEGORY_MICRO_MEAN_COEC<0.100207] yes=1,no=2,missing=2
	1:[C_D_U_TITLEMD5_AGE_COEC<0.114484] yes=3,no=4,missing=3
		3:[C_D_U_KEYWORD_CATEGORY_MICRO_MAX_COEC<0.181715] yes=7,no=8,missing=8
			7:[DOC_AGE<19.0828] yes=15,no=16,missing=16
				15:[DOC_AGE<3.2625] yes=31,no=32,missing=32
					31:[C_D_U_TITLEMD5_CATEGORY_MACRO_MEAN_COEC<0.0185858] yes=63,no=64,missing=64
						63:leaf=-0.00245336
						64:leaf=0.00778927
					32:[C_D_U_TITLEMD5_CATEGORY_MICRO_MAX_COEC<0.0364108] yes=65,no=66,missing=66
						65:leaf=-0.0178565
						66:leaf=-0.00351165
				16:[C_D_U_CATEGORY_AGE_MEAN_C<1324.34] yes=33,no=34,missing=33
					33:[U_KEYWORD_MEAN_C<128.546] yes=67,no=68,missing=68
						67:leaf=-0.000474344
						68:leaf=0.00837277
					34:[C_D_U_CATEGORY_AGE_MICRO_MEAN_COEC<0.0658213] yes=69,no=70,missing=70
						69:leaf=0.0428744
						70:leaf=0.0104527
			8:[U_KEYWORD_MICRO_MEAN_COEC<0.0995103] yes=17,no=18,missing=18
				17:[D_TITLEMD5_COEC<0.068952] yes=35,no=36,missing=35
					35:[D_KEYWORD_MICRO_MEAN_COEC<0.0834491] yes=71,no=72,missing=71
						71:leaf=0.00225391
						72:leaf=-0.00711456
					36:[D_CATEGORY_MEAN_EC<34909] yes=73,no=74,missing=73
						73:leaf=0.00931598
						74:leaf=0.00165493
				18:[D_KEYWORD_MEAN_C<97.6036] yes=37,no=38,missing=38
					37:[D_TITLEMD5_EC<2.90639] yes=75,no=76,missing=75
						75:leaf=-0.00390767
						76:leaf=0.0168965
					38:[M_D_U_KEYWORD_KEYWORD_MAX_EC<0.0236923] yes=77,no=78,missing=77
						77:leaf=3.60586e-05
						78:leaf=0.00868599
		4:[DOC_AGE<74.6375] yes=9,no=10,missing=10
			9:[C_D_U_TITLEMD5_CATEGORY_MACRO_MAX_COEC<0.0370751] yes=19,no=20,missing=20
				19:[U_KEYWORD_MACRO_MEAN_COEC<0.0649536] yes=39,no=40,missing=40
					39:[C_D_U_TITLEMD5_AGE_EC<932.492] yes=79,no=80,missing=80
						79:leaf=0.0111131
						80:leaf=0.0010969
					40:[C_D_U_TITLEMD5_GENDER_COEC<0.123221] yes=81,no=82,missing=81
						81:leaf=0.0976462
						82:leaf=0.0110787
				20:[U_KEYWORD_MICRO_MEAN_COEC<0.101917] yes=41,no=42,missing=42
					41:[C_D_U_CATEGORY_CITY_MACRO_MAX_COEC<0.125733] yes=83,no=84,missing=84
						83:leaf=0.0113788
						84:leaf=0.0392362
					42:[D_TITLEMD5_EC<32.4867] yes=85,no=86,missing=86
						85:leaf=-0.0294096
						86:leaf=0.0530569
			10:[U_KEYWORD_MEAN_EC<1599.03] yes=21,no=22,missing=22
				21:[D_TITLEMD5_EC<681.751] yes=43,no=44,missing=44
					43:[C_D_U_CATEGORY_CATEGORY_MAX_EC<216.255] yes=87,no=88,missing=88
						87:leaf=0.075953
						88:leaf=0.0292428
					44:[C_D_U_PUBLISHER_GENDER_COEC<0.0618914] yes=89,no=90,missing=90
						89:leaf=-0.0697325
						90:leaf=-0.153854
				22:[D_PUBLISHER_COEC<0.0884435] yes=45,no=46,missing=46
					45:[C_D_U_TITLEMD5_CATEGORY_MEAN_EC<7.20755] yes=91,no=92,missing=92
						91:leaf=-0.144388
						92:leaf=0.033855
					46:[C_D_U_TITLEMD5_AGE_EC<21.9892] yes=93,no=94,missing=94
						93:leaf=0.113699
						94:leaf=-0.149143
	2:[C_D_U_TITLEMD5_CATEGORY_MACRO_MEAN_COEC<0.051359] yes=5,no=6,missing=6
		5:[U_CATEGORY_MACRO_MEAN_COEC<0.0489085] yes=11,no=12,missing=12
			11:[C_D_U_TITLEMD5_CATEGORY_MACRO_MEAN_COEC<0.0374384] yes=23,no=24,missing=24
				23:[U_CATEGORY_MACRO_MEAN_COEC<0.0364283] yes=47,no=48,missing=48
					47:[U_KEYWORD_MEAN_EC<1129.31] yes=95,no=96,missing=96
						95:leaf=0.0131735
						96:leaf=-0.00900557
					48:[C_D_U_CATEGORY_CATEGORY_MACRO_MEAN_COEC<0.037439] yes=97,no=98,missing=97
						97:leaf=-0.0237809
						98:leaf=-0.00886229
				24:[C_D_U_TITLEMD5_CATEGORY_MICRO_MEAN_COEC<0.138814] yes=49,no=50,missing=50
					49:[U_CATEGORY_MEAN_EC<5112.31] yes=99,no=100,missing=100
						99:leaf=-0.0081023
						100:leaf=0.00243529
					50:[U_CITY_COEC<0.0829462] yes=101,no=102,missing=101
						101:leaf=-0.022171
						102:leaf=-0.00697328
			12:[C_D_U_KEYWORD_CATEGORY_MACRO_MEAN_COEC<0.0371674] yes=25,no=26,missing=25
				25:[U_KEYWORD_MAX_EC<204.648] yes=51,no=52,missing=52
					51:[U_AGE_C<74485.5] yes=103,no=104,missing=103
						103:leaf=-0.0793601
						104:leaf=-0.030153
					52:[U_CITY_C<13666.1] yes=105,no=106,missing=105
						105:leaf=-0.033463
						106:leaf=-0.0132401
				26:[D_TITLEMD5_COEC<0.0831299] yes=53,no=54,missing=54
					53:[CAT_REL<0.15572] yes=107,no=108,missing=108
						107:leaf=-0.0199366
						108:leaf=-0.00115597
					54:[C_D_U_TITLEMD5_CATEGORY_MEAN_C<0.354576] yes=109,no=110,missing=110
						109:leaf=-0.00238642
						110:leaf=-0.0164052
		6:[C_D_U_TITLEMD5_GENDER_COEC<0.0669128] yes=13,no=14,missing=14
			13:[D_KEYWORD_MICRO_MEAN_COEC<0.0957754] yes=27,no=28,missing=28
				27:[CAT_REL<0.045518] yes=55,no=56,missing=56
					55:[C_D_U_CATEGORY_AGE_MEAN_C<6020.41] yes=111,no=112,missing=111
						111:leaf=-0.0155193
						112:leaf=0.00758083
					56:[C_D_U_TITLEMD5_AGE_EC<1430.9] yes=113,no=114,missing=113
						113:leaf=-0.00244781
						114:leaf=0.0294224
				28:[D_KEYWORD_MICRO_MEAN_COEC<0.162315] yes=57,no=58,missing=57
					57:[D_KEYWORD_MEAN_EC<5377.49] yes=115,no=116,missing=116
						115:leaf=-0.0220832
						116:leaf=-0.0508304
					58:[U_GENDER_COEC<0.0885629] yes=117,no=118,missing=118
						117:leaf=-0.0799402
						118:leaf=0.0344146
			14:[U_KEYWORD_MICRO_MEAN_COEC<0.0911856] yes=29,no=30,missing=30
				29:[U_KEYWORD_MAX_EC<199.488] yes=59,no=60,missing=60
					59:[U_KEYWORD_MICRO_MEAN_COEC<0.0780768] yes=119,no=120,missing=120
						119:leaf=-0.0202502
						120:leaf=0.000127847
					60:[D_CATEGORY_MAX_EC<435449] yes=121,no=122,missing=121
						121:leaf=-0.0132569
						122:leaf=0.0136706
				30:[D_PUBLISHER_COEC<0.0466158] yes=61,no=62,missing=61
					61:[D_TITLEMD5_COEC<0.108668] yes=123,no=124,missing=124
						123:leaf=-0.00999004
						124:leaf=-0.0326605
					62:[U_KEYWORD_MAX_C<52.1948] yes=125,no=126,missing=125
						125:leaf=0.00081658
						126:leaf=-0.0059748
booster[107]:
0:[KW_REL<0.00346731] yes=1,no=2,missing=2
	1:[U_KEYWORD_MACRO_MEAN_COEC<0.0286021] yes=3,no=4,missing=3
		3:[U_KEYWORD_MEAN_EC<1150.85] yes=7,no=8,missing=8
			7:[U_CATEGORY_MACRO_MEAN_COEC<0.0604336] yes=15,no=16,missing=16
				15:[U_CATEGORY_MAX_C<364.949] yes=31,no=32,missing=32
					31:[D_CATEGORY_MAX_EC<17537.7] yes=63,no=64,missing=63
						63:leaf=0.00582955
						64:leaf=-0.00456657
					32:[U_KEYWORD_MAX_EC<321.813] yes=65,no=66,missing=66
						65:leaf=0.00859934
						66:leaf=-0.00546219
				16:[U_KEYWORD_MAX_C<35.1014] yes=33,no=34,missing=34
					33:[U_CATEGORY_MEAN_EC<9287.65] yes=67,no=68,missing=67
						67:leaf=-0.0256044
						68:leaf=-0.00639328
					34:[CAT_REL<0.174402] yes=69,no=70,missing=70
						69:leaf=-0.0246309
						70:leaf=0.00608618
			8:[D_KEYWORD_MEAN_C<240.938] yes=17,no=18,missing=18
				17:[CAT_REL<0.159304] yes=35,no=36,missing=36
					35:[D_CATEGORY_MAX_C<4598.55] yes=71,no=72,missing=72
						71:leaf=-0.000934475
						72:leaf=0.00333921
					36:[D_CATEGORY_MICRO_MEAN_COEC<0.0796051] yes=73,no=74,missing=74
						73:leaf=0.0221769
						74:leaf=-0.000344137
				18:[D_TITLEMD5_C<385.218] yes=37,no=38,missing=37
					37:[C_D_U_TITLEMD5_CATEGORY_MICRO_MEAN_COEC<0.109817] yes=75,no=76,missing=75
						75:leaf=-0.00147237
						76:leaf=-0.00959838
					38:[M_D_U_KEYWORD_KEYWORD_MEAN_C<0.00488515] yes=77,no=78,missing=77
						77:leaf=-0.000379287
						78:leaf=0.00641639
		4:[U_CATEGORY_MAX_EC<3511.35] yes=9,no=10,missing=9
			9:[C_D_U_CATEGORY_CATEGORY_MAX_EC<4.28368] yes=19,no=20,missing=20
				19:[U_CATEGORY_MICRO_MEAN_COEC<0.105002] yes=39,no=40,missing=40
					39:[D_KEYWORD_MACRO_MEAN_COEC<0.0748527] yes=79,no=80,missing=80
						79:leaf=0.0701296
						80:leaf=-0.0559172
					40:[U_KEYWORD_MICRO_MEAN_COEC<0.0982598] yes=81,no=82,missing=82
						81:leaf=0.413397
						82:leaf=0.0867209
				20:[U_AGE_C<79811.1] yes=41,no=42,missing=41
					41:[U_KEYWORD_MEAN_EC<1255.86] yes=83,no=84,missing=84
						83:leaf=0.017536
						84:leaf=-0.0114462
					42:[U_CATEGORY_MEAN_EC<12305] yes=85,no=86,missing=86
						85:leaf=0.0441037
						86:leaf=-0.00219718
			10:[M_D_U_KEYWORD_KEYWORD_MACRO_MEAN_COEC<7.19888e-05] yes=21,no=22,missing=21
				21:[KW_REL<3.52722e-05] yes=43,no=44,missing=44
					43:[CAT_REL<0.148392] yes=87,no=88,missing=88
						87:leaf=0.00112451
						88:leaf=-0.0146085
					44:[U_KEYWORD_MICRO_MAX_COEC<0.119957] yes=89,no=90,missing=90
						89:leaf=0.00390576
						90:leaf=0.012454
				22:[U_KEYWORD_MACRO_MAX_COEC<0.00224356] yes=45,no=46,missing=46
					45:[U_KEYWORD_MAX_EC<385.033] yes=91,no=92,missing=92
						91:leaf=0.0020783
						92:leaf=0.0174709
					46:[D_PUBLISHER_COEC<0.0701472] yes=93,no=94,missing=93
						93:leaf=-0.0150313
						94:leaf=-0.0034354
	2:[D_KEYWORD_MACRO_MAX_COEC<0.0221251] yes=5,no=6,missing=6
		5:[U_KEYWORD_MACRO_MAX_COEC<0.00144201] yes=11,no=12,missing=12
			11:[U_KEYWORD_MEAN_EC<1077.7] yes=23,no=24,missing=24
				23:[U_KEYWORD_MACRO_MEAN_COEC<0.0243905] yes=47,no=48,missing=48
					47:[C_D_U_KEYWORD_CATEGORY_MEAN_EC<91.1058] yes=95,no=96,missing=96
						95:leaf=0.0201514
						96:leaf=-0.0187439
					48:[U_CATEGORY_MAX_C<442.556] yes=97,no=98,missing=98
						97:leaf=0.0286244
						98:leaf=0.0753086
				24:[D_CATEGORY_MAX_C<14814.8] yes=49,no=50,missing=50
					49:[C_D_U_CATEGORY_CATEGORY_MICRO_MEAN_COEC<0.0884462] yes=99,no=100,missing=100
						99:leaf=0.0130994
						100:leaf=-4.42264e-05
					50:[D_KEYWORD_MEAN_C<376.552] yes=101,no=102,missing=102
						101:leaf=0.0289975
						102:leaf=0.010867
			12:[U_KEYWORD_MACRO_MEAN_COEC<0.0357393] yes=25,no=26,missing=26
				25:[CAT_REL<0.174402] yes=51,no=52,missing=52
					51:[D_CATEGORY_MAX_C<14531.7] yes=103,no=104,missing=104
						103:leaf=-0.000279929
						104:leaf=0.010527
					52:[DOC_AGE<22.3672] yes=105,no=106,missing=106
						105:leaf=0.0183258
						106:leaf=-0.00416364
				26:[C_D_U_CATEGORY_CITY_MEAN_EC<17300.7] yes=53,no=54,missing=53
					53:[C_D_U_CATEGORY_CATEGORY_MICRO_MEAN_COEC<0.138384] yes=107,no=108,missing=107
						107:leaf=-0.00391371
						108:leaf=-0.0683431
					54:[C_D_U_TITLEMD5_CATEGORY_MAX_EC<1.38155] yes=109,no=110,missing=109
						109:leaf=-0.0883256
						110:leaf=-0.0233199
		6:[U_CATEGORY_MACRO_MEAN_COEC<0.0523709] yes=13,no=14,missing=13
			13:[M_D_U_KEYWORD_KEYWORD_MACRO_MEAN_COEC<0.000656582] yes=27,no=28,missing=27
				27:[C_D_U_TITLEMD5_AGE_C<6.77936] yes=55,no=56,missing=56
					55:[U_KEYWORD_MACRO_MEAN_COEC<0.0197983] yes=111,no=112,missing=112
						111:leaf=0.00588269
						112:leaf=-0.0156236
					56:[WORD_COUNT<1334] yes=113,no=114,missing=114
						113:leaf=-0.00122279
						114:leaf=0.00577661
				28:[C_D_U_KEYWORD_CATEGORY_MEAN_C<2.99033] yes=57,no=58,missing=57
					57:[C_D_U_PUBLISHER_CITY_EC<18.3191] yes=115,no=116,missing=116
						115:leaf=-0.00711423
						116:leaf=0.016692
					58:[M_D_U_KEYWORD_KEYWORD_MAX_C<0.0464977] yes=117,no=118,missing=118
						117:leaf=-0.00704755
						118:leaf=0.00884201
			14:[DOC_AGE<49.7256] yes=29,no=30,missing=30
				29:[D_TITLEMD5_COEC<0.101011] yes=59,no=60,missing=60
					59:[C_D_U_KEYWORD_CATEGORY_MEAN_EC<75.3188] yes=119,no=120,missing=120
						119:leaf=-0.00360294
						120:leaf=-0.0154093
					60:[D_KEYWORD_MICRO_MEAN_COEC<0.16414] yes=121,no=122,missing=122
						121:leaf=0.00173198
						122:leaf=-0.0327742
				30:[C_D_U_TITLEMD5_CATEGORY_MICRO_MEAN_COEC<0.126173] yes=61,no=62,missing=62
					61:[U_CATEGORY_MAX_EC<5196.12] yes=123,no=124,missing=124
						123:leaf=0.00958529
						124:leaf=-0.0254257
					62:[M_D_U_KEYWORD_KEYWORD_MEAN_C<0.00488515] yes=125,no=126,missing=125
						125:leaf=-0.0875069
						126:leaf=-0.0340493
booster[108]:
0:[U_KEYWORD_MEAN_C<13.8721] yes=1,no=2,missing=2
	1:[C_D_U_KEYWORD_CATEGORY_MEAN_EC<0.533372] yes=3,no=4,missing=3
		3:[M_D_U_KEYWORD_KEYWORD_MICRO_MAX_COEC<0.222695] yes=7,no=8,missing=7
			7:[U_CATEGORY_MICRO_MEAN_COEC<0.0839904] yes=15,no=16,missing=15
				15:[U_CATEGORY_MICRO_MAX_COEC<0.100426] yes=31,no=32,missing=32
					31:[U_CITY_COEC<0.0907972] yes=63,no=64,missing=63
						63:leaf=0.00511114
						64:leaf=0.051041
					32:[D_CATEGORY_MICRO_MAX_COEC<0.0973183] yes=65,no=66,missing=66
						65:leaf=-0.0885978
						66:leaf=0.000560908
				16:[D_KEYWORD_MACRO_MEAN_COEC<0.061176] yes=33,no=34,missing=34
					33:[U_CATEGORY_MACRO_MEAN_COEC<0.0872124] yes=67,no=68,missing=68
						67:leaf=0.150119
						68:leaf=-0.131907
					34:[U_CITY_EC<610.267] yes=69,no=70,missing=69
						69:leaf=-0.0259542
						70:leaf=0.0525903
			8:[U_CATEGORY_MAX_C<273.963] yes=17,no=18,missing=17
				17:[U_AGE_C<76328.6] yes=35,no=36,missing=35
					35:[C_D_U_KEYWORD_CATEGORY_MACRO_MAX_COEC<0.00649592] yes=71,no=72,missing=71
						71:leaf=0.0564868
						72:leaf=-0.00498049
					36:[U_GENDER_COEC<0.08855] yes=73,no=74,missing=73
						73:leaf=-0.0543664
						74:leaf=0.0822558
				18:[U_CATEGORY_MACRO_MAX_COEC<0.0299178] yes=37,no=38,missing=38
					37:[U_CATEGORY_MEAN_EC<29024.6] yes=75,no=76,missing=76
						75:leaf=-0.0298894
						76:leaf=-0.201055
					38:[U_CATEGORY_MICRO_MAX_COEC<0.116103] yes=77,no=78,missing=78
						77:leaf=0.0253037
						78:leaf=-0.213519
		4:[U_KEYWORD_MACRO_MEAN_COEC<0.0238222] yes=9,no=10,missing=10
			9:[C_D_U_PUBLISHER_AGE_EC<64072.7] yes=19,no=20,missing=19
				19:[U_KEYWORD_MICRO_MEAN_COEC<0.0929752] yes=39,no=40,missing=40
					39:[U_CITY_C<3126.34] yes=79,no=80,missing=80
						79:leaf=-0.062468
						80:leaf=-0.0283755
					40:[U_CATEGORY_MICRO_MAX_COEC<0.119661] yes=81,no=82,missing=82
						81:leaf=-0.0869963
						82:leaf=0.020672
				20:[C_D_U_CATEGORY_GENDER_MICRO_MAX_COEC<0.0785432] yes=41,no=42,missing=41
					41:leaf=0.421926
					42:leaf=0.0388017
			10:[TIME_OF_DAY<0.999999] yes=21,no=22,missing=22
				21:[C_D_U_PUBLISHER_CITY_COEC<0.07345] yes=43,no=44,missing=43
					43:[C_D_U_TITLEMD5_CITY_COEC<0.052429] yes=83,no=84,missing=83
						83:leaf=0.286201
						84:leaf=-0.0038582
					44:[C_D_U_CATEGORY_CATEGORY_MICRO_MAX_COEC<0.119295] yes=85,no=86,missing=86
						85:leaf=-0.145537
						86:leaf=0.0790283
				22:[KW_REL<0.000453113] yes=45,no=46,missing=46
					45:[U_CATEGORY_MACRO_MEAN_COEC<0.0833967] yes=87,no=88,missing=88
						87:leaf=-0.0190642
						88:leaf=-0.0559765
					46:[C_D_U_TITLEMD5_CITY_EC<136.4] yes=89,no=90,missing=89
						89:leaf=0.0390047
						90:leaf=-0.0731472
	2:[U_KEYWORD_MICRO_MAX_COEC<0.119507] yes=5,no=6,missing=5
		5:[M_D_U_KEYWORD_KEYWORD_MICRO_MEAN_COEC<0.261516] yes=11,no=12,missing=11
			11:[IMAGE_COUNT<3] yes=23,no=24,missing=24
				23:[WORD_COUNT<5085] yes=47,no=48,missing=48
					47:[U_CATEGORY_MACRO_MEAN_COEC<0.0697244] yes=91,no=92,missing=91
						91:leaf=0.000296902
						92:leaf=-0.00339824
					48:[WORD_COUNT<6098] yes=93,no=94,missing=94
						93:leaf=-0.0131682
						94:leaf=-0.000337711
				24:[U_KEYWORD_MAX_EC<228.325] yes=49,no=50,missing=50
					49:[D_PUBLISHER_EC<63179.9] yes=95,no=96,missing=96
						95:leaf=0.0118897
						96:leaf=-0.00407839
					50:[D_KEYWORD_MICRO_MEAN_COEC<0.09468] yes=97,no=98,missing=98
						97:leaf=0.00533418
						98:leaf=-0.00238549
			12:[D_CATEGORY_MEAN_EC<178835] yes=25,no=26,missing=26
				25:[U_KEYWORD_MAX_EC<118.234] yes=51,no=52,missing=52
					51:[C_D_U_CATEGORY_AGE_MACRO_MAX_COEC<0.117417] yes=99,no=100,missing=99
						99:leaf=-0.0288881
						100:leaf=-0.321468
					52:[DOC_AGE<23.8814] yes=101,no=102,missing=102
						101:leaf=0.0344584
						102:leaf=0.00271784
				26:[C_D_U_CATEGORY_CATEGORY_MICRO_MAX_COEC<0.0700413] yes=53,no=54,missing=53
					53:[C_D_U_TITLEMD5_CITY_COEC<0.124528] yes=103,no=104,missing=103
						103:leaf=-0.0235065
						104:leaf=-0.171434
					54:[U_KEYWORD_MICRO_MEAN_COEC<0.104054] yes=105,no=106,missing=106
						105:leaf=0.00469535
						106:leaf=0.0378214
		6:[DOC_AGE<20.9333] yes=13,no=14,missing=14
			13:[U_CATEGORY_MACRO_MAX_COEC<0.00870438] yes=27,no=28,missing=28
				27:[U_CATEGORY_MICRO_MEAN_COEC<0.102415] yes=55,no=56,missing=56
					55:[U_CATEGORY_MICRO_MAX_COEC<0.129474] yes=107,no=108,missing=108
						107:leaf=0.0147539
						108:leaf=-0.122112
					56:[U_KEYWORD_MACRO_MAX_COEC<0.00113903] yes=109,no=110,missing=110
						109:leaf=0.10371
						110:leaf=0.0357915
				28:[U_KEYWORD_MACRO_MAX_COEC<0.000962299] yes=57,no=58,missing=58
					57:[U_GENDER_COEC<0.0926039] yes=111,no=112,missing=112
						111:leaf=-0.149689
						112:leaf=0.107181
					58:[U_KEYWORD_MACRO_MAX_COEC<0.00106846] yes=113,no=114,missing=114
						113:leaf=-0.053047
						114:leaf=0.00202951
			14:[U_CATEGORY_MEAN_C<2540.95] yes=29,no=30,missing=30
				29:[U_AGE_C<79551.8] yes=59,no=60,missing=60
					59:[C_D_U_TITLEMD5_CATEGORY_MICRO_MEAN_COEC<0.0910774] yes=115,no=116,missing=116
						115:leaf=0.0382951
						116:leaf=0.0163803
					60:[U_KEYWORD_MAX_C<33.9836] yes=117,no=118,missing=118
						117:leaf=0.0147118
						118:leaf=0.00326573
				30:[U_AGE_C<88801] yes=61,no=62,missing=61
					61:[U_KEYWORD_MICRO_MEAN_COEC<0.102515] yes=119,no=120,missing=120
						119:leaf=-0.00874435
						120:leaf=-0.0483624
					62:[C_D_U_CATEGORY_CATEGORY_MICRO_MAX_COEC<0.0808995] yes=121,no=122,missing=122
						121:leaf=0.202304
						122:leaf=0.0289472
booster[109]:
0:[U_KEYWORD_MACRO_MAX_COEC<0.00105872] yes=1,no=2,missing=2
	1:[U_CATEGORY_MEAN_C<616.06] yes=3,no=4,missing=4
		3:[U_KEYWORD_MEAN_EC<977.494] yes=7,no=8,missing=8
			7:[CAT_REL<0.006823] yes=15,no=16,missing=16
				15:[U_CATEGORY_MACRO_MEAN_COEC<0.0350453] yes=31,no=32,missing=32
					31:[U_KEYWORD_MICRO_MEAN_COEC<0.0999574] yes=63,no=64,missing=64
						63:leaf=-0.0200114
						64:leaf=0.0822532
					32:[U_CITY_C<36741] yes=65,no=66,missing=66
						65:leaf=-0.060125
						66:leaf=0.0322691
				16:[C_D_U_PUBLISHER_GENDER_COEC<0.0613966] yes=33,no=34,missing=34
					33:[D_TITLEMD5_EC<10.9008] yes=67,no=68,missing=68
						67:leaf=-0.0115835
						68:leaf=-0.0888497
					34:[U_KEYWORD_MICRO_MEAN_COEC<0.105581] yes=69,no=70,missing=70
						69:leaf=0.00287646
						70:leaf=-0.112314
			8:[U_KEYWORD_MAX_EC<216.761] yes=17,no=18,missing=18
				17:[U_KEYWORD_MICRO_MEAN_COEC<0.0973895] yes=35,no=36,missing=36
					35:[U_CATEGORY_MAX_EC<3702.62] yes=71,no=72,missing=72
						71:leaf=0.0394952
						72:leaf=-0.0525397
					36:[U_CATEGORY_MAX_C<72.7059] yes=73,no=74,missing=74
						73:leaf=0.056101
						74:leaf=0.00775415
				18:[U_AGE_COEC<0.099289] yes=37,no=38,missing=37
					37:[U_CATEGORY_MACRO_MAX_COEC<0.0162636] yes=75,no=76,missing=76
						75:leaf=-0.0126413
						76:leaf=0.0219931
					38:[U_KEYWORD_MICRO_MAX_COEC<0.117711] yes=77,no=78,missing=78
						77:leaf=0.0272452
						78:leaf=0.103403
		4:[U_CITY_EC<19550.1] yes=9,no=10,missing=10
			9:[U_GENDER_EC<789863] yes=19,no=20,missing=19
				19:[U_CATEGORY_MACRO_MAX_COEC<0.00985237] yes=39,no=40,missing=40
					39:[U_CATEGORY_MEAN_C<656.802] yes=79,no=80,missing=80
						79:leaf=-0.0274705
						80:leaf=0.147949
					40:[U_KEYWORD_MAX_EC<213.338] yes=81,no=82,missing=82
						81:leaf=-0.020941
						82:leaf=0.0212372
				20:[D_KEYWORD_MACRO_MEAN_COEC<0.0861865] yes=41,no=42,missing=42
					41:[D_CATEGORY_MACRO_MAX_COEC<0.0588025] yes=83,no=84,missing=84
						83:leaf=0.0251193
						84:leaf=-0.105712
					42:[C_D_U_CATEGORY_GENDER_MEAN_C<321.918] yes=85,no=86,missing=86
						85:leaf=0.132523
						86:leaf=-0.0334077
			10:[U_CATEGORY_MEAN_EC<6224.2] yes=21,no=22,missing=22
				21:[U_AGE_EC<836141] yes=43,no=44,missing=44
					43:[U_GENDER_EC<741964] yes=87,no=88,missing=88
						87:leaf=-0.124303
						88:leaf=0.0486921
					44:[C_D_U_CATEGORY_CATEGORY_MAX_C<107.389] yes=89,no=90,missing=89
						89:leaf=0.109244
						90:leaf=-0.197521
				22:[U_KEYWORD_MICRO_MEAN_COEC<0.0960434] yes=45,no=46,missing=46
					45:[U_CATEGORY_MICRO_MAX_COEC<0.129622] yes=91,no=92,missing=92
						91:leaf=-0.00715497
						92:leaf=0.0994452
					46:[U_CATEGORY_MACRO_MAX_COEC<0.0100403] yes=93,no=94,missing=94
						93:leaf=0.0691406
						94:leaf=0.0258147
	2:[DAY_OF_WEEK<0.999999] yes=5,no=6,missing=6
		5:[U_KEYWORD_MICRO_MEAN_COEC<0.0990221] yes=11,no=12,missing=11
			11:[U_AGE_EC<962202] yes=23,no=24,missing=23
				23:[U_KEYWORD_MAX_EC<184.046] yes=47,no=48,missing=48
					47:[U_KEYWORD_MICRO_MEAN_COEC<0.0780768] yes=95,no=96,missing=96
						95:leaf=-0.0223861
						96:leaf=0.00950149
					48:[U_KEYWORD_MICRO_MEAN_COEC<0.0908745] yes=97,no=98,missing=98
						97:leaf=-0.00896821
						98:leaf=0.00161411
				24:[U_CATEGORY_MEAN_EC<6897.93] yes=49,no=50,missing=50
					49:[M_D_U_KEYWORD_KEYWORD_MICRO_MEAN_COEC<0.111468] yes=99,no=100,missing=100
						99:leaf=-0.177942
						100:leaf=0.0146088
					50:[C_D_U_TITLEMD5_CATEGORY_MAX_C<0.172029] yes=101,no=102,missing=102
						101:leaf=0.129506
						102:leaf=0.0641762
			12:[U_KEYWORD_MICRO_MAX_COEC<0.113935] yes=25,no=26,missing=26
				25:[KW_REL<0.00118593] yes=51,no=52,missing=52
					51:[C_D_U_PUBLISHER_AGE_COEC<0.10784] yes=103,no=104,missing=103
						103:leaf=-0.0262225
						104:leaf=0.0262594
					52:[DOC_AGE<6.05444] yes=105,no=106,missing=106
						105:leaf=0.0267386
						106:leaf=-0.00118569
				26:[U_KEYWORD_MEAN_EC<1191.02] yes=53,no=54,missing=54
					53:[U_CATEGORY_MACRO_MAX_COEC<0.00858692] yes=107,no=108,missing=108
						107:leaf=0.0871246
						108:leaf=0.0120093
					54:[C_D_U_CATEGORY_GENDER_MAX_C<5216] yes=109,no=110,missing=110
						109:leaf=0.0240975
						110:leaf=0.0578295
		6:[U_KEYWORD_MICRO_MEAN_COEC<0.0970719] yes=13,no=14,missing=14
			13:[D_CATEGORY_MEAN_EC<94994.1] yes=27,no=28,missing=27
				27:[M_D_U_KEYWORD_KEYWORD_MICRO_MEAN_COEC<0.127581] yes=55,no=56,missing=55
					55:[D_KEYWORD_MEAN_C<407.652] yes=111,no=112,missing=111
						111:leaf=0.00182919
						112:leaf=-0.00656961
					56:[WORD_COUNT<4897] yes=113,no=114,missing=114
						113:leaf=-0.00560925
						114:leaf=-0.0239236
				28:[C_D_U_KEYWORD_CATEGORY_MACRO_MEAN_COEC<0.0684685] yes=57,no=58,missing=58
					57:[M_D_U_KEYWORD_KEYWORD_MICRO_MAX_COEC<0.168859] yes=115,no=116,missing=115
						115:leaf=-0.0098626
						116:leaf=0.00562802
					58:[M_D_U_KEYWORD_KEYWORD_MAX_C<0.0232762] yes=117,no=118,missing=118
						117:leaf=-0.00787431
						118:leaf=0.000840603
			14:[M_D_U_KEYWORD_KEYWORD_MICRO_MAX_COEC<0.282725] yes=29,no=30,missing=29
				29:[D_CATEGORY_MICRO_MAX_COEC<0.0649001] yes=59,no=60,missing=59
					59:[D_CATEGORY_MAX_C<1343.23] yes=119,no=120,missing=120
						119:leaf=-0.00545879
						120:leaf=0.00677678
					60:[D_CATEGORY_MICRO_MAX_COEC<0.081108] yes=121,no=122,missing=122
						121:leaf=-0.00256856
						122:leaf=0.00103091
				30:[U_CATEGORY_MICRO_MEAN_COEC<0.0798992] yes=61,no=62,missing=61
					61:[D_PUBLISHER_C<14.9483] yes=123,no=124,missing=124
						123:leaf=-0.298903
						124:leaf=-0.0330441
					62:[C_D_U_TITLEMD5_CATEGORY_MACRO_MEAN_COEC<0.0378325] yes=125,no=126,missing=126
						125:leaf=0.0414895
						126:leaf=0.015701
